[PAD]
[unused0]
[unused1]
[unused2]
[unused3]
[unused4]
[unused5]
[unused6]
[unused7]
[unused8]
[unused9]
[unused10]
[unused11]
[unused12]
[unused13]
[unused14]
[unused15]
[unused16]
[unused17]
[unused18]
[unused19]
[unused20]
[unused21]
[unused22]
[unused23]
[unused24]
[unused25]
[unused26]
[unused27]
[unused28]
[unused29]
[unused30]
[unused31]
[unused32]
[unused33]
[unused34]
[unused35]
[unused36]
[unused37]
[unused38]
[unused39]
[unused40]
[unused41]
[unused42]
[unused43]
[unused44]
[unused45]
[unused46]
[unused47]
[unused48]
[unused49]
[unused50]
[unused51]
[unused52]
[unused53]
[unused54]
[unused55]
[unused56]
[unused57]
[unused58]
[unused59]
[unused60]
[unused61]
[unused62]
[unused63]
[unused64]
[unused65]
[unused66]
[unused67]
[unused68]
[unused69]
[unused70]
[unused71]
[unused72]
[unused73]
[unused74]
[unused75]
[unused76]
[unused77]
[unused78]
[unused79]
[unused80]
[unused81]
[unused82]
[unused83]
[unused84]
[unused85]
[unused86]
[unused87]
[unused88]
[unused89]
[unused90]
[unused91]
[unused92]
[unused93]
[unused94]
[unused95]
[unused96]
[unused97]
[unused98]
[unused99]
[UNK]
[CLS]
[SEP]
[MASK]
##an
##in
t
##en
##ال
##er
s
m
k
ال
##is
##al
##at
p
##ar
##on
d
##it
##as
##he
b
##es
o
c
w
##un
a
the
##el
n
##ta
l
##or
##il
h
1
##ik
j
##us
##ak
п
##am
y
و
##ed
##ст
в
in
م
##et
r
##ang
##em
v
##ti
f
##ার
##য়
##ah
с
##ut
##но
##ur
##ul
##and
##ни
##im
##ing
(
##ol
##ad
##om
##ра
и
স
##на
##uk
of
##ко
##ia
##্র
##్ర
প
##ের
##ро
ক
ف
"
о
ب
ব
##ir
##্য
##os
أ
##ic
##id
##го
##wa
2
##ية
##um
এ
to
##ре
se
##్య
and
ع
స
క
##то
##sa
##le
ప
##ent
19
##ist
g
##ot
##ان
##ion
##eng
##ны
في
##ли
di
ل
##ap
ت
الم
##ya
##ри
e
по
##ле
##ান
##లో
##ات
##ль
д
হ
##ва
ja
##не
##ка
##iv
al
ম
ya
on
##ok
м
من
##ين
##్రా
వ
##ంద
##те
గ
##si
##la
##ek
pr
##00
th
на
dan
##্ত
##ch
##ార
##ло
##న్
##ud
yang
অ
##ag
##än
na
##ла
##op
per
ఉ
##ాల
##та
##во
##ec
##ار
wa
as
ku
##ки
б
##్రామ
ত
ي
గ్రామ
##لى
##ari
##od
ন
##ها
##ai
##aan
##че
ك
##up
##টি
কর
##మీ
##all
men
이
##ме
##ام
##да
##డి
un
for
##kan
##ве
##tä
إ
##een
##ab
న
##ంలో
##াল
##ти
is
দ
##ig
##tr
ar
ber
##за
##র্
##ika
а
আ
প্র
su
##িত
##ాయ
ch
##ja
##িক
##ми
জ
##ain
##న్న
ter
##েন
##де
##ation
an
##ada
الأ
##ся
ко
##ara
##ంది
##ep
##ter
##ian
##ung
##av
##ير
وال
##eb
##ug
ma
it
##ون
ح
##ిక
##িন
##ول
##ana
الت
##را
##ци
##ow
##ip
у
го
ద
со
మ
к
5
##য়ে
##ుం
##ty
##으로
শ
##ру
##ско
##emb
##же
##రు
##ov
##ري
য
##li
##ля
##re
##za
con
##ما
##ev
##ния
##ాయి
##ce
##ви
ра
الع
있
##ka
##nya
at
র
##th
or
కి
kat
##ায়
##কে
ق
wh
##ish
20
##),
ه
##eg
##لا
##্ব
##ers
##ih
##ет
не
##ys
س
##న్నాయి
was
##).
##end
##ib
##ди
##og
ad
г
నుం
he
st
200
10
##స్
la
##াম
u
э
##tu
##ние
##اس
##ста
গ
##ith
উ
##에서
pada
నుండి
##్ల
3
##по
##ూర
##oh
##িল
##ly
ن
##త్
про
##te
##ма
বি
على
ভ
##to
##اد
##ور
##ay
##ac
##لي
##ama
##ää
##ess
##ча
##ски
об
##ali
ఉన్నాయి
대
за
##aj
##asi
그
##ista
«
##కర
##tion
meng
##াত
##ere
##اب
fr
ర
##্ট
seb
us
##uh
при
##сти
దూర
ও
##engan
##est
ni
with
##ть
dari
dengan
vu
أن
##чи
com
##্ষ
ج
by
##oc
во
గ్రామం
##ell
##oit
##دي
##aka
##до
##мо
##if
##ub
от
201
##akan
that
এক
사
##াস
##ans
الح
##ala
##ity
దూరంలో
##ных
##ер
##াব
mu
##ill
##وا
##لك
ke
##াক
##си
##сто
ప్ర
চ
ка
##yö
##alam
পর
##yt
##বং
##adi
##ini
be
##isi
ఆ
##ant
18
##ুর
এবং
am
##per
mer
బ
১
##нно
##ina
—
kwa
ఉంది
ф
##inen
إلى
##ду
##ili
##st
##und
జ
##লে
katika
సౌ
##కర్య
సౌకర్య
##াদ
е
##గు
##ాన
##మీప
unt
##ড়
##ks
sa
##يا
##ani
لل
##శాల
ka
الس
##িয়
الب
tr
из
##نا
en
##uks
##alah
##ద్య
##ন্
##ong
##tam
అ
4
##isen
##ich
##бо
##ры
수
الق
are
##క్
##ేంద
##äl
##хо
mem
##ще
గ్రామంలో
te
untuk
##na
бы
##ula
సమీప
dalam
ini
ই
##ro
el
##qu
করে
##ги
##رب
до
##ään
সম
##ua
par
కేంద
##uv
##াজ
##amp
##ির
##ew
##وم
##عد
##со
ex
지
##ine
##তে
##zi
వి
##any
##ugh
##assa
##ien
##్రం
సం
mw
##tiin
##се
re
##",
الج
oli
##ost
##sä
##াই
হয়
##ные
##atu
##льно
##ate
##uc
мо
থ
т
##ko
##తు
##ies
##었다
##하였
sp
##ছিল
##্থ
form
199
기
та
الن
##েশ
ش
то
ole
##ard
co
د
те
가
ре
##se
##ائ
##ست
전
##ুল
##issa
##టి
tah
sh
বা
##رة
정
za
##ki
##га
ol
بال
##iden
##ছে
from
এই
ki
##ata
##ikan
##ast
##ше
##emp
пре
z
si
sel
##هم
অন
한
##ют
вы
##তি
##".
##сь
##ши
##ous
##amb
##asa
##يل
তার
##вы
있다
##сть
##ita
6
mar
ser
##తి
##ধ্য
ফ
عن
الك
##unn
##ät
خ
ind
জন
ме
కేంద్రం
##kin
et
مع
##ts
##ilm
নি
##це
##oll
الإ
7
##зо
##లు
##ota
##vat
##19
##atan
tahun
##asta
##igh
##ke
##عة
##iki
##دة
##uu
##пе
##па
##ind
##িস
##са
아
##رو
es
##rit
pen
시
كان
##yn
val
##ust
الف
ч
dis
ল
##лу
##ra
##ann
##ati
##ue
ac
myö
##agai
##েল
##하는
##্যা
yh
er
vi
adalah
الش
##är
я
ма
వ్య
hän
##ని
##্চ
##жи
##సు
##قد
일
im
##му
##يم
##ji
##ку
중
-
##이다
##ну
##ный
সাল
##্প
##ake
##ాలు
##ంగ
##ారి
##اف
##aa
##ется
jo
##for
##ికి
것
##ises
సౌకర్యం
##بر
##اء
##щи
##ной
sek
##utta
##anya
бо
##ర్
##au
bah
##ial
##oka
kar
##ту
##пи
##ానికి
ap
##ver
kä
##বে
주
제
##ally
##ob
раз
##డ్
الد
kut
다
##ря
##দের
##umb
##ক্ষ
##ты
একটি
##قة
##ii
8
##بي
##ుత్
memb
пе
##্ক
де
mas
##ear
##000
ab
##కు
وت
##mä
##ల్ల
##하였다
##ef
هذ
자
##ня
##ri
인
##لم
##ated
##하고
##oin
kes
##ామ
##сле
comp
##ীয়
వ్యవ
##ort
పా
##했다
##мы
##elah
sebagai
which
##াহ
##so
খ
##aw
oleh
ر
sen
ag
##onna
ల
చ
##ంట
##িনি
유
##في
##است
##سي
menj
mat
##ство
з
his
##ক্ত
##ern
198
##ోగ
ఇ
##رك
##ff
vuonna
##ской
ا
##aik
أو
##ila
##్వ
এর
##لة
등
кото
২
উপ
التي
mel
##зи
##కి
so
##зы
##min
##стве
##чески
се
##ود
##tic
res
##сте
##uol
set
##man
వై
##ive
الخ
వైద్య
hav
9
##하여
##েকে
##দ্
##ect
##ukan
но
что
عام
##াপ
##eh
ط
공
##angan
pol
peng
си
##ции
this
##ingg
ве
##ment
were
ذ
##ary
tim
##essa
##من
myös
##iri
formula
##ivat
##ాం
##పు
##ట్
wor
##лю
##ure
경
##ical
mwaka
ис
الذ
##вля
af
года
##ore
##নের
##ame
##ారు
##ebut
১৯
##ного
##ena
##apat
থেকে
মধ্য
##oja
##ome
##istä
##يد
##ism
bar
##বি
국
ро
##ge
ص
##iku
పో
##كن
##cl
##రుగు
##ide
not
##ond
##డా
##eli
197
kir
это
위
##aji
##اح
##تم
15
its
##olog
##yo
##وي
##pr
##ষ্
##ui
has
##తో
ста
##مة
mus
তিনি
12
##taan
че
так
করেন
হয়ে
পরি
##ского
##isu
##না
##ettiin
보
##وس
##нии
##illa
الر
##্গ
##вле
조
##ten
##স্থ
##inn
##apa
##ীর
##ным
সং
kun
##jo
##idak
##io
ak
для
విద్య
وأ
hu
lu
##ву
##itä
##مل
##ను
##ye
can
##্ড
196
##ult
##وج
الص
17
##ile
##uga
나
##ition
##äk
##eka
##రి
##ella
করা
pem
నీ
##ная
sec
##سب
##ement
하
ker
##దు
'
##كان
غ
##되었다
##اع
gr
##angg
##ته
le
tu
des
ধ
х
##াগ
##tiv
ny
##وب
ব্য
##нт
##ille
동
##ther
##äh
##ঙ্গ
tidak
بن
##jen
##্দ
ছিল
##ఠశాల
br
tar
పాఠశాల
str
##ке
194
##ন্ত
##тель
##taa
##మిక
의
##ons
##enn
ed
cl
గ్రామానికి
me
##äs
وه
inter
li
menjadi
##্ল
ra
##에는
##her
как
부
под
##ord
##వు
##బడి
have
suom
##alla
juga
pää
all
##pi
##жа
##hem
pal
16
##టు
##ల్
ড
##fu
##্ম
##نة
##োগ
고
##idi
##20
kem
comm
##imb
up
году
mon
##قي
##itt
মধ্যে
па
দে
세
##ৃত
nch
##isten
ভার
##су
##anc
##ha
col
##itu
##usta
##حد
##ations
##ষ্ট
##ানে
##خر
##ска
ث
##িম
비
ne
##iko
##كل
##ea
##iksi
যে
ప్రా
ما
##ely
##ank
ли
##으며
joh
##بل
లో
ta
##ওয়
##سم
##iwa
অব
##сно
ul
##تي
সা
##iset
mi
##ства
os
##ossa
also
##стра
연
had
개
발
##рова
käyt
##ోగ్య
са
సౌకర్యాలు
হল
##র্ত
itu
new
الث
wak
ми
##িয়ে
서
##দ্ধ
##한다
##yl
##би
##фи
har
##ite
##شر
ఈ
##ike
de
пере
rep
##ma
kw
##вер
영
##zo
су
##তার
ei
ia
##гра
##্ন
##tah
vo
الط
tul
пред
##ne
##مر
##jan
##tor
##uan
fir
met
##اني
op
##صر
##াশ
بين
సర
##دين
meny
##ఫర
సరఫర
##্যান
##র্ব
হার
kom
##هر
త
소
ovat
관
##ков
##ды
##сси
##রে
##ন্দ
atau
да
##ight
da
##ুরু
##tama
##iet
সালে
mak
وي
cha
ভারত
kuwa
sc
195
##out
##eksi
ప్రభ
##ుత్వ
lain
ప్రభుత్వ
##فة
##ote
##elle
рас
use
##eri
모
##ారా
joka
сво
বিশ
kep
الل
##ym
##der
their
##ens
حي
##own
##তা
##aksi
##يس
##ass
11
fo
ча
man
##ারে
##సాయ
بعد
##ор
구
##пу
নাম
##yh
##tain
##جم
##esta
##ров
ద్వ
but
##శు
##ones
##ön
rec
ద్వారా
##تب
ters
వ్యవసాయ
때
##the
##গুল
##ugha
కళ
##ний
cons
tai
one
##мен
##isesti
cr
("
##0-
##oul
##unc
కళా
జన
కళాశాల
وب
lugha
신
other
কো
##yp
పై
mil
##ాణ
pres
##one
##ющи
kans
##ussa
##وق
##బడిన
##্স
పైబడిన
##্রে
##ша
.
상
од
toim
car
##тельно
##ারণ
##тов
##ahan
শহ
##iin
##0.
ле
että
x
##istor
##كون
미
২০
cent
##of
여
##gun
##oks
##حت
도
##isha
##নে
kel
##ign
##alan
##aran
gen
ఆర
##yd
##les
##কার
لم
##াকে
وم
193
##ిక్
pel
##va
ver
오
##నీ
##зу
##صل
ఆరోగ్య
ин
rel
##uksen
##ikk
##isa
##నియ
##0,
해
##land
সে
amb
##اري
kr
##ubl
##థమిక
dib
##াবে
ev
##aks
##ates
##бе
##oa
##ఖ్య
##রের
i
##iti
ان
أي
##isti
##الي
##ংশ
సంఖ్య
##imp
jul
문
##uah
##clud
هذه
amer
##18
ప్రాథమిక
##täv
suur
##isia
кон
##ني
mereka
లే
kama
##ский
##ত্ত
##esar
##aus
##об
الذي
pla
##డు
neg
ilm
##عت
##ీసు
##్యాం
nchini
14
##att
##స్థ
##uku
min
##opul
సామ
성
##জন
##ima
##ార్
##amu
pl
##uden
dit
его
##적인
##يرة
ছ
##عل
##ца
leb
##ater
muk
kota
##стро
##».
##قل
통
13
대한
##lä
##ارة
রাজ
war
bo
##tem
hel
ни
##ются
##iss
все
il
است
জন্য
않
##")
##عض
مح
ইউ
hal
অনু
ви
##tin
##wo
##دينة
రో
воз
##hir
##ంగ్
puol
nor
##2.
##essä
##اص
ket
##erin
##нных
tek
first
bec
um
##we
app
которы
they
సరఫరా
##ুক্ত
tersebut
##ిల్ల
##ale
##زي
ant
##ثر
##ice
##హద
##తుంది
##me
пер
kul
##»,
же
prod
##ayo
##pa
##ted
تم
также
##رن
##سل
bag
histor
##اج
##зова
##anj
##гу
내
such
교
bahwa
##적으로
mod
been
##ند
ট
రహద
##ura
రహదారి
##age
মা
##رض
##мя
##রা
##ষ্ঠ
##স্ত
,
##ба
includ
##ারা
##ade
mutta
##ber
##ిల్లా
마
##بد
##ustr
##ath
మం
##нь
##ఫీసు
orang
##1.
##كر
##ase
##ach
nd
##انية
yhd
##تح
вре
##issä
##చి
пра
প্রতি
선
бе
vuod
##ational
##пре
ذلك
id
##ence
##লা
##про
##ose
ph
##angk
##onesia
গ্র
حيث
це
после
##াক্ষ
##its
##ikuwa
##лся
lebih
##aya
##sim
##ুন
her
##eber
most
##క్ట
##ogr
tur
ঘ
##الم
sup
##кт
또
##hed
후
##يو
##ха
##이라
##мер
var
##త్ర
ব্যব
##äm
##ku
##tö
##త్త
##port
(19
##ది
있는
##لال
##vi
##دم
생
##uth
##enye
భ
##قت
dik
sem
jäl
bel
##ధ్య
име
sep
జిల్లా
дру
##بة
##цио
some
##들이
dapat
##সং
##াণ
##eo
হিস
##వే
more
pend
##لف
обра
bi
acc
##ద్
##upakan
##iten
sur
만
##ope
هذا
sebuah
반
##র্ম
لا
##থে
saat
##вя
hi
был
##চ্চ
##aman
##joit
##ге
무
##usi
##kon
satu
##ديد
merupakan
air
##2,
##يات
##থম
##부터
##тив
కు
##asti
горо
هو
##illä
##ember
##ional
nim
dr
##াদের
##ాజ
##ettu
##osta
সাক্ষ
reg
##에게
##িতে
నీరు
##طة
kor
남
maj
чи
##gunakan
##ذا
##هد
##গ্র
sub
wil
##itas
##ance
sekä
##ైన
##form
##াড়
##들은
أك
##యం
##ادة
##েক
bet
كانت
##در
telah
karena
##ثل
trans
may
ut
tak
##iz
или
##되어
##মান
거
##ীন
##жно
nam
##ైవే
강
##తోంది
berb
##tions
##вой
##োর
##্যাল
watu
##্যার
##hes
kil
##чно
sej
##int
ভারতের
memil
방
##luv
##లి
##েম
kan
바
##лы
آ
##нием
eng
##خت
mb
##مال
no
원
##ied
kol
##kit
##нов
##పత్ర
ру
مت
##োল
الو
испо
##িশ
perus
불
##стоя
##."
there
따
সাক্ষর
coun
qu
##jä
##ция
used
two
dir
##yv
##arg
علي
##нию
সাক্ষরতার
##uring
같
dun
kas
##ungan
##اط
##fa
##َّ
##প্র
##ными
san
##yr
pers
##стви
ro
##tak
dec
осно
##عي
##్లు
당
chr
كما
##ited
##أن
##త్తి
##فا
aw
kok
المن
/
##бы
##нной
##лись
##elm
లోపు
##ুম
tan
pos
year
ట
ض
eur
mend
లేదు
##్ట
##ైవేటు
##지만
##рии
##ihin
##asan
##enc
##istr
##ever
kon
##anyak
##ola
##17
##ారం
##িব
كل
##ee
##ld
ba
after
##ky
##িয়া
هي
##ходи
прои
##lah
##oma
##su
##ща
##جل
dem
সালের
seper
##ోన్
##షణ
##art
vir
##رف
না
жи
##при
##ree
విద్యా
##mas
##fer
##1,
##ную
явля
##حي
indonesia
ear
##old
బ్యాం
pe
ком
##5.
##াষ
##зна
현
##cr
##ఫోన్
ili
keh
৫
যায়
##ents
##న్నారు
노
కింది
setelah
##ాజిక
కో
##된다
##ем
##тся
##нные
##eet
సామాజిక
##াঁ
వ్యవస్థ
ба
##evel
bas
##وع
ఉత్
계
ha
##uri
##బ్ల
zaidi
seperti
##gr
##وت
శ
##رق
##5,
##amm
##ঞ্চ
##лё
الغ
##hi
au
ఉత్ప
##isk
##ivers
##ভিন
akan
##erk
memiliki
фи
##логи
##র্ণ
وقد
##ärj
분
##uka
into
over
결
మొ
وع
##isto
##orang
కూ
장
ди
스
##مي
who
mukaan
dip
##eberapa
##ellä
##ская
prov
##omb
##ors
–
##까지
프
##దల
он
mah
##ей
##iseen
##ఒక
##ough
beberapa
##সংখ
hall
##주의
##sin
##ingga
విద్యుత్
দু
ము
కూడా
##tää
##కె
ইউন
##keen
##ve
##oto
nä
##صب
##وف
##zwa
po
sm
##eral
pemb
ప్రైవేటు
##ivät
##ton
##ual
pa
sin
kaup
##ном
##학교
##tim
##রণ
మార్
popul
many
med
والم
##ত্র
##empat
##lu
##сту
##äär
kn
##رية
독
##ck
##ainen
మార్కె
##বার
실
##্রি
##зыва
##ству
##నూ
어
##ida
অবস্থ
secara
##ehe
وفي
##ীব
বিশ্ব
vaik
##فس
##وية
역
lis
##িত্র
##lo
تع
ఒక
بد
these
##лее
##জ্
##3.
than
##ধান
##руп
teta
##ican
when
боль
없
зна
##ром
##ould
ensim
##لب
ensimmä
##app
##ذلك
এটি
##ory
192
##anda
##вет
##uran
##oth
rak
##tif
##ারী
##سة
##cc
out
##సర
##сло
명
##ystem
##udian
va
##isin
##4.
##خل
##tern
স্ব
প্রথম
##mi
কম
##uni
##жде
##إن
alb
বাং
##gan
প্রক
২০০
terb
##డల
wal
%
##বর্ত
##ikana
##oli
##etta
##our
한다
vasta
lak
ز
brit
kemudian
##ole
исполь
많
##ేష
మండల
చే
단
##하기
film
ор
cor
besar
dia
lang
말
world
##oj
##క్క
ку
জনসংখ
##tel
##ry
##val
##স্ক
স্থ
gre
이후
intern
ob
اله
mo
kus
ru
##пра
ఏ
ins
పోస్
##ock
عند
알
idadi
##arkan
##дер
##سا
##েবে
kab
##كت
##uuta
##umi
pas
##inal
system
##ней
##েষ
##3,
##6.
##4,
##wan
##ানের
##undi
хо
وج
ш
##лько
dep
진
##ingk
##циа
exp
сло
দ্ব
banyak
##sh
사용
##6,
##اه
##ధాన
ав
বেশ
do
##ksi
##ран
##دد
ko
받
jälkeen
##াত্র
সাথে
মু
suomen
inf
сре
##tab
pi
def
##يت
kim
teh
له
##10
تق
আর
##able
작
##inya
إن
##টির
sam
যা
jon
pu
##টার
##খানে
##uksi
##ских
বছ
وكان
contr
how
##eks
হিসেবে
##에서는
హ
سنة
কি
tal
##رج
পা
المع
##র্থ
ii
dunia
##asil
##15
##дов
الأم
##గా
##rough
kec
మా
##нный
syn
##hel
최
did
##ولة
only
му
main
##্যের
##ump
##면서
##oni
tel
##umber
##ings
##ulla
##ভাবে
univers
пи
##tia
ге
##ween
##are
mag
dil
росси
##дар
полу
##iga
van
##tyi
em
##ins
time
يت
##ిజ
om
afr
ada
negara
##పల్ల
ఎ
##alle
군
##unt
ur
during
예
ju
sch
hii
المت
##вши
يم
종
between
చె
sis
kup
##하게
##res
##ком
##ori
vuoden
()
ва
నీటి
##9.
##ريق
##men
##যোগ
##ేషన్
بعض
সম্প
##ورة
spec
##erah
mes
publ
##7.
##ছেন
##uat
##нного
бу
mji
##фе
##ered
##%।
##রি
우
##atur
##8.
##ode
##জ্ঞ
특
väl
yle
sy
ইউনিয়
mul
kos
##8,
kuiten
##으나
##täm
وق
ir
##ij
kh
##ibu
30
jot
##con
пу
##مد
poh
##7,
##tur
##вод
##국의
25
high
ভাষ
##тер
##িকে
##وري
ked
рабо
produc
:
두
ass
##خرى
га
para
##kä
нача
##মে
파
##гда
포
##том
ep
##ven
تح
pertama
김
inc
cap
stud
##كم
##ines
##van
##enal
ge
##با
الز
kesk
##omp
##9,
##وات
ব্যবহ
##ারি
we
డి
##uhan
##తా
##inc
kuul
##abu
##త్య
##ni
##াচ
##راء
##eza
##пы
##amba
##మా
wana
off
sal
أم
মহ
قد
työ
##лей
##iel
##ান্ত
##erintah
##etty
##ছিলেন
uk
##খন
##tan
gro
##itar
lä
##ime
язы
tä
##alia
##oss
##ূল
৬
మురుగు
hänen
##200
قبل
соста
কোন
الي
##افة
обла
##ft
##ুদ্ধ
систе
##usu
ول
పారి
##omet
##صف
##োট
##сы
##اسم
మురుగునీ
vä
కార
aj
##حة
##ury
##되었
재
##ack
##ishi
##మి
##عية
ар
##ema
тер
##ться
время
##يز
নে
kutoka
민
diff
##кой
##ingi
সু
##overn
##عب
পূ
antara
কা
আল
##arib
##تها
lo
##పత్రి
##వారి
ot
ومن
terd
##дова
পরিচ
kuin
##erg
tiet
##elä
భూ
”
##imbo
##ire
కార్య
##ওয়া
##apan
##ulan
было
свя
##ions
2011
would
##ics
##تى
##ular
##들을
pia
были
##నే
##kaan
##angkan
ки
under
সময়
안
జరుగు
##бли
##బ్లిక్
##vel
##zung
city
объ
పబ్లిక్
tunn
inayo
المس
##েলার
##unnan
أس
그리
##род
##ివ
##ise
##الة
yake
##నియోగ
వినియోగ
##imm
inv
##들의
pros
##సుపత్రి
ఆసుపత్రి
##সে
물
##каза
##ск
maa
ха
ثم
산
##హి
బస్
##ركة
сто
과
##ities
،
##лось
##12
##lut
hum
##لق
gu
##entuk
исто
dim
##స్తు
##ating
##ärjest
govern
بم
rem
##కం
##شكل
##una
bu
##ania
##era
তাদের
##ход
##16
##ident
##вых
oper
vya
menc
##imerk
##ily
##вые
##طقة
تت
##ناء
##োপ
لت
##пера
part
지역
call
##ino
బస్సు
berk
##ark
설
##اض
sing
##పతి
##нима
sed
##ower
##akar
samp
polit
kundi
bers
##পর
##lam
##নি
yhte
##..
##рия
##лась
##кра
mengh
خلال
##اريخ
##ano
pit
##طي
jum
##tive
##ুরুষ
##äksi
ing
kal
বছর
läh
《
##бу
sol
그러
bahasa
##ask
##opp
vuos
পার
##ishaji
##ona
추
평
through
초
##зда
##гла
##చార
##teen
হয়েছে
##గణ
‘
##ాలయం
తి
##ное
##ica
##ju
##గణన
జనగణన
ష
##্জ
ক্ষ
##ös
مس
##vo
북
##ক্র
행
ছিলেন
ю
други
차
cre
maan
##ческих
مثل
পুর
##ick
##খা
tetapi
##ెడ
эле
মান
##كي
##్యూ
##ative
الآ
kanssa
왕
##ph
##чё
##স্ট
стра
로
меж
##wn
##ital
##isiin
ప్రత్య
సహ
ih
##리아
বাংল
##ూర్
##స్త
ప్రధాన
hyv
وهو
##는데
##శుధ్య
పారిశుధ్య
حتى
kik
##нк
బ్యాంకు
##ంగు
الأس
వైద్యశాల
##ضا
##ైన్
progr
চল
##спе
##థకం
ఆట
따라
фор
##alu
রা
muut
##াতে
일본
ти
pemerintah
##nam
##):
##ల్డ్
##ెడ్యూ
##enä
షెడ్యూ
##চ্
##рой
మార్కెటి
షెడ్యూల్డ్
يع
ఫోన్
వినియోగం
##았다
while
العالم
##خص
##ложе
요
##ూరు
৪
##ীত
غير
సి
양
##ثير
##ho
kufu
mk
##ild
ent
##ском
sang
##ческой
కొ
была
##inta
외
hen
prop
##قا
ang
rom
শহরের
km
ан
##ishwa
ndani
eli
그는
esimerk
পুরুষ
##دا
seorang
гра
их
##মন
100
##ভি
190
##ность
##నరు
##eni
north
“
ger
운
##emaji
bl
##sab
##evelop
tap
countr
baru
##ral
alue
play
olivat
함
##omin
##াদেশ
##ثة
##الية
lag
##ев
সর
되었다
dua
##از
work
keb
wasemaji
##ника
end
##ности
им
##ele
##িপ
##akazi
##ayah
করতে
liit
থাকে
##ze
jonka
является
##хи
tark
শহর
pat
##য়েছে
పథకం
##ces
##తున్నాయి
them
##ork
##ందు
##년에
##క్ష
##unan
##فر
##టా
때문
koh
##ন্ত্র
nama
kuitenkin
rev
##har
##వాణ
##라는
##aku
또한
##14
##িক্ষ
##কের
형
##преде
।
##ман
##13
출
where
вер
develop
fil
yli
##লের
слу
##মি
##াকা
##unta
##ేరు
##াধ
nov
##unya
##клю
같은
tut
##تر
##ত্য
beg
states
ఉత్పత్తి
kis
##들어
రవాణ
found
##క్కు
iko
##зва
##ское
kek
kib
##ikä
##িং
బాల
##ادي
##akukan
##ollow
kufuat
##టీ
학
##ربية
kepada
суще
years
##قط
##arah
##పి
##olla
##aga
##ink
peny
##క్కువ
المح
##ific
##ెలి
##ished
##let
##ongo
cer
ఎక్కువ
however
##fr
సే
pet
రవాణా
##기도
##দেশ
##zungum
##ble
##риа
মে
নারী
##estä
fl
vari
##وك
##act
కోడ్
##awa
##ists
trad
##akin
lat
##лове
##ছু
##কাল
отно
أب
조선
##లోను
أنه
prot
표
mp
между
##ision
ولا
كب
وهي
##시아
##сла
ين
##anan
##лов
atas
##uda
##iseksi
##్రీ
##نت
দিয়ে
follow
wilayah
band
##onn
##atta
kit
предста
mal
##టాఫీసు
##ira
ali
టెలి
##tal
వారం
united
##ిజ్య
ఆఫీసు
పోస్టాఫీసు
##িকা
50
pan
##asional
##udi
వాణ
##ئي
వాణిజ్య
##usia
bagian
بل
arm
সাম
kk
##льных
known
시작
##imu
الله
태
##సరాల
well
noin
wakati
##vu
##от
تش
фа
##োন
south
##тия
if
##نية
pes
##వసరాల
пла
##وز
##нта
##لس
##urr
about
##юще
সব
##нения
##50
వ్యవసాయానికి
huk
##aki
##য়ের
##ظم
##sabiwa
##den
jam
##మైన
masa
##лек
##ంత
лю
kap
##ления
tangg
osa
##alta
사람
seura
tav
##ters
group
##веде
집
নিয়ে
##라고
add
##ولا
##బా
রয়েছে
জীব
건
##راب
##anza
##цы
##торы
##чения
более
##িজ
##ড়ে
baada
##aih
##urn
سي
적
ihm
##uksia
go
kata
орга
والأ
임
conc
국가
##тор
произ
##zungumzwa
##ము
##দি
kufuatana
أع
##ствова
esimerkiksi
number
namun
##кры
both
다른
##emm
1,
##ause
hiv
##utus
পর্য
가장
mark
##kil
কাজ
serv
##বিদ
digunakan
maailm
يمكن
##وض
##টে
##ాడ
총
differ
매
##etään
##ainishaji
##ound
radi
челове
더
loc
عدد
그러나
##ash
tod
uainishaji
##াড়া
government
##সম
##other
##েত
##äiv
hanya
입
ولك
jossa
##фор
##ected
jos
salah
akhir
##జు
రా
гла
각
وح
sud
للم
##pos
경우
কিছু
peop
##ারের
মার
పొ
##جة
sk
yks
wali
বেশি
৩
##спо
wakazi
red
##كس
typ
kur
div
##une
##ولي
##tien
кра
및
kwenye
24
##رد
vain
daerah
вой
##اته
##ehesabiwa
peri
##ధి
inayozungumzwa
imehesabiwa
одна
##рт
pert
المدينة
##als
oh
##ভিন্ন
అందు
189
##co
জনসংখ্যার
обще
my
##upun
##elum
##গুলো
##ga
album
##jat
يق
ఇం
wake
##ingan
에
##iter
##되는
##পুর
##ষণ
రోజు
##son
##urch
##লেখ
lap
##isuus
elec
kons
##이며
examp
##ru
##чение
ollut
##ские
কার
অংশ
called
1.
ولكن
음
yl
any
పాటు
спо
langu
##ственно
modern
হতে
위해
언
##انت
##ilan
state
세계
বিভিন্ন
##ంటల
কারণ
tent
fa
##adap
##iap
مدينة
##শ্চ
fam
వాడ
##াভ
мно
గంటల
##ällä
##కా
##судар
##غير
##పల్లె
early
##عا
him
president
크
##బ్
##iong
##omi
sign
##kk
##أس
common
term
##три
sim
созда
মাধ্য
##esi
national
##нным
sana
uh
lainnya
##ove
উত্ত
##oon
amerika
##нее
##াত্ত
##াট
বে
##وى
##দ্র
فيها
tingg
বাংলাদেশ
##ెం
##anga
그의
##рак
23
##over
চলচ্চ
##حر
مست
three
##сли
##ంటే
mit
অধ
##пол
ai
muun
cat
then
ben
শুরু
soc
being
jat
మీ
опреде
##зе
##بات
##ঞ্জ
##رت
##ём
বলে
kaik
প্রকাশ
sama
эти
배
##фа
##pl
##জি
##обра
aut
أكثر
##하며
lar
дол
##рь
##opa
leg
##ওয়ার
##ানা
##িন্ত
art
made
kati
##osi
##tai
కంటే
mor
pula
##য়ার
##ci
##جد
##ett
contin
julka
seh
эк
한국
##вления
약
king
변
##డ్లు
cal
##oita
অনেক
తె
لي
груп
государ
käs
##ert
sebelum
##ناك
##োক
##০০
광
##enti
##ческие
##ane
##льной
번
రోడ్లు
pam
##ন্ড
fin
##이나
##arak
organ
##)،
##رات
people
awal
##unj
##fore
##চে
화
##utan
sta
again
회
##тре
since
##لية
##تاب
wat
##,000
sai
sat
##жет
kemb
##ష్ట
نظ
##oitti
umum
often
స్ట
muod
##вого
selama
century
##щё
وس
달
##ungu
##ology
av
long
##స్తుంది
ги
আদ
char
later
체
##وان
неко
##ట్ట
আম
##하지
berd
##kim
kali
##نس
##ئيس
##امل
##ipp
##uru
অন্য
##వి
jotka
##وة
tuot
stand
188
##ingkat
lisäksi
bang
##uki
##্বর
fe
##ద్ధి
##ene
##غة
##ন্ম
اب
##্যাস
##ensä
const
প্রধান
сле
জাত
নামে
করার
би
##она
writ
##tym
основ
muassa
alk
yaitu
kin
##ুট
hari
##شار
menggunakan
##aph
মত
##্যান্ড
##خد
enn
sangat
간
ib
سب
##ikat
только
점
mad
بت
разви
##ник
به
##ots
الا
속
law
##isiä
disebut
##fi
##00-
প্রায়
وك
##ologi
diper
##gu
put
sija
##ئية
вла
పార
##وار
##فض
##ческого
##11
22
including
##яб
##র্শ
kl
##에도
moja
##خدم
voi
terh
##iä
##్లలో
সঙ্গ
emp
ব্যবহার
##bo
১৮
미국
##стре
kiel
কল
##ility
##నా
##жда
john
فإن
##ূপ
এখানে
##koa
##ased
당시
hingga
run
##لاد
##వులు
##elu
##дин
serta
##ত্ব
##oku
##кти
##য়া
kehit
##–19
الض
##খে
##ظهر
##ర్లు
열
terj
engl
186
2000
komp
##برا
##no
카
عبد
inst
orig
##нная
mill
lakini
её
##po
تن
europe
обо
##por
##ంగా
সহ
кла
##గ్రీ
##ami
##ield
##াব্দ
డిగ్రీ
##েন্দ
وف
##ulu
yhdys
##isy
##وعة
##জাত
##aru
৭
jer
정부
##통령
##usk
colle
##থা
ik
다음
পারে
المست
bin
##br
##ৃষ্
##ically
##عم
مق
##грам
새
القرن
mf
memper
##мени
రాష్ట
##حو
##세기
자신
##డ్డి
##arang
##30
##стру
أول
হন
##ющих
##ску
직
##unut
sekitar
rat
siir
proc
##భా
##сов
сов
din
kah
использова
대한민
অঞ্চ
##క్టర్లు
jouk
назва
sever
each
поз
##ভাগ
таки
tanggal
##pec
##ature
##ie
##ধারণ
##ually
##ంచి
والت
##তিহ
фу
##кон
pak
##ذه
저
##ants
##писа
##ger
star
valm
অনুস
wan
sampai
##чита
##ange
উৎ
##하다
will
##ورية
bus
##সল
##els
тем
শিক্ষ
lib
الملك
merkit
##жения
barat
##رح
##قية
sw
kip
##нд
##taj
##تين
##ator
pur
많은
একজন
000
##فاع
gl
##ently
অর্থ
int
##de
##ingin
చి
것을
##ards
జనా
цент
sar
జనాభా
##arac
##ined
##ధ్యమిక
##льные
prof
major
ри
##емы
প্রতিষ্ঠ
천
##راض
##বর্তী
##ogo
మాధ్యమిక
ketika
##ুব
##води
ret
##").
స్టేషన్
확
miaka
##يب
ون
sab
н
##idup
##سبب
del
mara
sov
##وجد
sist
gener
ла
##তম
##isesta
bud
nyky
أحد
##র্গ
##డుగు
##ెక్ట
আগ
sum
##ారుదల
##льного
بها
##পূ
##ెక్టార
kwanza
second
##ترة
timur
tuli
##erb
تحت
এল
العام
##ulis
##ämän
ок
aikana
##ute
것이
pamoja
industr
##హార
kuten
##িণ
##фо
##jän
أيضا
##ule
সর্ব
##হণ
দক্ষ
yo
commun
##чных
##이라고
называ
데
26
hadi
বল
##ئة
##лия
##oksi
베
)
dig
호
lev
мар
##ন্ধ
##iver
однако
তারা
church
했다
дей
##되고
때문에
##%,
##గి
##শ্চিম
berh
может
##عتبر
сред
박
##luvulla
##తర
##িয়ার
partic
활
##سلام
##iran
non
##ెక్టార్లలో
##మ్
عشر
피
kub
##ived
##umia
مد
মূল
27
참
সাহ
became
##ex
##ows
##uli
##جه
record
органи
لأ
కా
##كا
##يش
##yks
##షకా
187
##షకాహార
mis
واح
perang
##ాగు
##ull
అందుతుంది
أخرى
##uter
bulan
বয়
само
ty
মি
rum
##пер
##yat
처
##ليم
##личи
lead
##টা
##impin
##ولى
##ارات
island
<
본
austr
జరుగుతోంది
##ason
##ষ্ট্র
которые
అవు
##্টি
##luvun
##ন্ন
koko
jan
occ
member
ц
2008
kembali
##েব
2010
juu
بأن
poin
mm
إلا
2007
대통령
пол
있으며
mov
##ুক
##তিক
republ
arv
оста
pohjo
##вая
##పుర
##ojen
الأول
##డాది
example
##"),
##త్తూరు
ఏడాది
##డుగునా
పొడుగునా
##ume
مش
21
##nyt
##okuv
##ting
aina
##ماء
ist
2005
conf
السي
##عات
الاست
##ление
kamp
رو
eff
##uma
감
neuv
приме
##truc
##tui
anti
send
##ركز
sehingga
మొదల
بشكل
tempat
##вый
##тя
program
ту
##uruh
kirjoit
##сты
আস
##akarta
존
##يني
##цию
##eria
oike
because
##جر
চলচ্চিত্র
##xt
selatan
##لات
##isessa
##نوب
##ony
##مو
##erv
several
##пример
charac
하나
40
##ющие
paik
উপাত্ত
তৈ
same
pun
##ba
kad
##ityks
##tron
পর্যন্ত
28
##ey
sejak
##ingine
##antu
##াংশ
있었다
##িন্তু
ri
##orm
прави
##بية
equ
نفس
##ুষ
год
##дей
myöhem
##рито
ilikuwa
sos
##సం
kuk
라
##ций
##పం
##af
##red
##গুলি
والتي
terhadap
##циона
التق
##ix
авто
##ott
근
##ious
##oko
কিন্তু
##tyy
##ربي
2009
jina
##েন্দ্র
econ
উল
##ife
사회
##дом
##mp
##yah
##ikka
##теля
ব্যা
মাধ্যমে
##বাহ
том
larg
fac
##తీ
econom
목
আই
##জ্ঞান
역사
##িন্দ
তাকে
##смо
##ustus
stat
منها
##ela
##ool
##idaan
hallit
ken
لكن
##ومة
জেলার
##صبح
##رس
##мати
состоя
##led
পদ
##masuk
থাক
public
삼
된다
land
small
kuf
##ью
##غم
것이다
##به
тео
cla
##يلة
##though
##osa
##ческий
american
হয়েছিল
##িস্ট
vuot
쓰
بح
##жу
##che
것으로
seur
consid
##ito
మొదలైన
##েন্ট
фо
স্ট
وإ
pern
ক্র
##এর
bal
2006
mol
##eter
##కర్
##ements
##였다
города
여러
sl
использу
##سية
##పూర్
뒤
##chi
pap
sitä
afrika
##rat
bor
##kap
некоторы
berbagai
##ুগ
증
##ят
##uss
ев
design
বৈ
##alis
pien
محمد
##ced
##ensi
కేంద్ర
bagi
christi
##েই
angg
정치
suh
##스트
eneo
##esty
##hip
##way
##ler
##indi
uud
тре
انت
prob
현재
##ilah
ide
стро
sistem
kaupung
energ
##uj
مص
##taja
##arat
own
mahd
cult
россии
country
##스는
##నగ
sä
они
그리고
##ets
يكون
masih
tarkoit
##لاح
ఒకటి
niin
##рио
##رائ
함께
##ارت
##సమీప
##вест
mulai
=
##شي
mur
##اق
ps
##্ভ
##aten
##kir
suatu
laut
utara
pid
##ao
нау
আছে
##льный
বর্ত
saks
বিষ
поли
দক্ষিণ
##pe
복
భూమి
програм
하는
সাধারণ
##이라는
nel
##ств
pus
فقد
##তিহাস
lin
##ution
asia
##amer
##телей
реа
##amaan
##ైద
##uld
##uduk
pain
తాగు
##-2
নদ
عمل
##lem
##нер
fre
যোগ
disc
##see
##ర్ల
##ুপ
kedua
##вое
которо
المد
못
##дё
##ণ্ড
이름
వనరు
##öl
##خدام
##ضافة
british
নিজ
##ont
উচ্চ
##ete
##افظ
##ارية
##지는
lab
##olloin
##40
##umu
##োধ
##atif
##ينية
zina
области
의해
##enda
법
విద్యుత్తు
إلي
వృ
편
##اصة
##onj
##gris
##коно
##liam
ఇతర
func
utama
элект
يتم
##мента
##lic
జా
##كية
tit
##বাদ
দেশ
määr
##tua
تلك
##ائل
seuraav
refer
include
##োম
তবে
##ీడి
সরকার
##يف
##вым
##োস
##jia
mt
tre
##apo
уча
##agian
##isme
2004
inggris
##ল্প
যুক্ত
철
مجم
power
termasuk
##puol
iliyo
사이
들어
로마
гер
নির্
incre
##కర్త
కార్యకర్త
య
##sel
ఆర్
который
##iste
nchi
অবস্থিত
##anjang
bad
##atakan
경제
아니
##ancis
##alais
four
##ekani
ses
weng
##рез
por
eri
##нение
##اسي
##لاف
##itte
ইউনিয়ন
##스의
##odan
mana
الجز
##di
##ек
kid
##기를
المص
##lin
distr
##లోనూ
cont
##وط
sil
membuat
##니아
##oph
##рев
29
##нное
bisa
ms
మురుగునీరు
তা
kif
этом
##insi
dikenal
##طل
##tuu
voidaan
cond
##ెట్
террито
##arin
##ides
##ాలువ
ng
통해
دي
##ects
##лли
##)।
##бра
عليه
المج
కాలువ
##кси
##ässä
rakenn
##వా
although
##ঙ্ক
২০১
অনুসারে
هناك
ভূ
##চ্ছে
высо
period
##ran
##eman
##্যাম
could
주장
bur
##ilu
리
large
before
поя
##졌다
##awah
##رم
город
terk
##ians
der
##pan
##ల్వ
##ников
terdapat
##ereja
til
অভিন
##inä
hak
неско
타
డా
##шо
##...
##ives
jal
получи
##лом
##bon
백
presiden
##сс
##ёр
tied
##alui
পশ্চিম
##ంచ
##кан
లు
islam
area
class
ఉన్నారు
jen
##следова
eks
##ukset
##كو
0
##еди
##emmin
항
##ection
осо
كم
tekn
전쟁
central
##وح
waktu
권
##వుల
##ల్లో
##له
##راف
##itti
식
##రంగ
##ారీ
청
రై
music
##قال
##িউ
спе
data
##hemu
##uis
anak
teng
ug
bern
##.,
##ার্থ
##aha
continu
pek
##وسط
2.
##tään
##하였고
عندما
금
تأ
##lack
##namo
##aris
##ديدة
general
창
##koi
где
того
##는다
##త్తం
sendiri
historia
##mer
vol
пло
##25
ду
합
لها
심
##тора
pot
sept
ফুট
##ানি
vast
bat
свои
mahdoll
가지
huu
memp
قام
عم
##ikut
process
تكون
المتح
##льта
vall
##كة
tas
يوم
согла
##ల్వే
##кого
части
##joh
గణ
##oim
myöhemmin
العديد
##기에
##ాంక
mnamo
##িকার
ря
రైల్వే
##ages
perm
ään
مج
করেছিলেন
##ley
##اش
##ges
she
telev
cy
melalui
ever
పాల
korke
##uti
##gen
##سبة
maka
requ
menur
గణాంక
ал
بي
하였다
대한민국
счита
kaksi
school
##োজ
##নিক
lok
ধর্ম
väh
ennen
##ahaan
alikuwa
살
cour
##্যে
이루
높
päät
koska
descr
mid
##మె
##لام
lake
##que
tinggi
프랑
века
remain
##awat
случа
##zed
নির্ম
though
##стью
york
##ango
##скую
##ছাড়া
##ళ్ల
hous
##oop
насе
against
بأ
আব
সদ
##omen
قال
janu
until
##నాయ
أد
황
మురుగునీటి
tech
##честве
##anz
ши
##ves
등의
##부분
koul
##ired
শেষ
##öt
দুই
sehemu
큰
west
even
##ungkin
##র্ক
kelu
q
great
##리는
##নার
paling
##сса
##انيا
మర
eh
##ided
##నిమా
##eseen
##eda
ты
ఉప
##ক্তি
##тур
##সী
apr
أش
##বা
বার
উদ্
స్వ
স্থান
##isl
соот
этого
tert
కిలో
suunn
different
স্ক
vastaan
మే
sejarah
abad
dist
##han
সি
বিদ
päiv
ప్రక
accord
kunn
order
연구
##jaa
##టర్ల
కిలోమీ
సినిమా
разли
back
сер
##дь
##чной
наи
appear
##িনী
##ittä
##weza
##тери
##ful
cas
##tivat
##ahkan
##atkan
##жение
järjest
##osof
hat
కిలోమీటర్ల
international
أما
##ajaan
##নী
##هما
hol
##äv
ات
2003
ప్రకారం
##ضم
حد
బా
##ilia
##لت
##గల
day
##성을
##ليل
nous
есть
jawa
penduduk
dh
تو
##urg
##ским
ابن
##ilaya
পূর্ব
lim
వృత్తి
##চার
##స్తున్నారు
semua
##ేక
인구
kuh
vil
##صد
##িতা
##వహి
রে
##이었다
sudah
المؤ
##шей
শত
جز
프로
##نى
##epang
##anyika
영향
##press
result
##োয়
##اسية
resp
ambayo
##ric
আয়
kirj
##elleen
##ోద
tiong
కె
##bi
올
##োহ
rek
##বিদ্যাল
##ায়ী
##ras
фе
ud
##ники
jerman
##ودة
hivyo
##angi
##راق
శి
##ds
##ذي
##నేజ
##ench
##лага
gel
مؤ
оче
##uksessa
##স্য
rob
рай
##isuud
##ior
##omm
##ضع
esiin
bersama
##قر
##ياء
mic
offic
history
2012
되
##ابة
أح
wilaya
##ars
##తీయ
##isasi
nyingi
ప్రవహి
suomessa
المنا
الإسلام
##lor
sisäl
извест
##60
sit
terjadi
##লেজ
రాష్ట్ర
##ేమ
##ుంబ
대해
wap
team
##_2
län
rumah
ప్రవహిస్తుంది
(18
కాలువల
тех
బహి
సమా
those
##ср
##శా
##زة
1990
saar
bawah
బహిరంగ
জাতীয়
hit
అభ
following
##ях
승
পরে
##вания
##alo
ак
##ссо
సమాచార
టి
##itan
возмо
అంగ
##ograph
##oti
##ానం
కం
##সি
సొ
##الات
##కృ
##మో
হত
##ueen
অর্
বিশ্ববিদ্যাল
##صول
জন্ম
##ভূ
##పుల
kuna
name
university
##ikasi
రూ
##కార
تج
ని
##alin
##িত্ব
##mat
##вление
خط
##ثم
berp
##be
##ument
eivät
##edi
##గుల
sot
يست
##зом
##нами
сте
উল্
perusahaan
##ౌర
##рав
나타
##రించి
around
ప్రత్యేక
##ివృ
విస్త
##ర్న
map
కుట
спосо
కేంద్రా
##ীল
##రియ
ఇది
##ret
సంత
##কল
উপর
suor
следу
చిత్తూరు
토
المش
##str
inah
##బై
seluruh
##স্কার
వస్తు
سن
##ొక్క
##amatan
single
##isan
కుటుంబ
##het
##koh
লাভ
المو
సంఘ
ప్రాంత
కుల
మగ
import
perust
농
বিশেষ
inform
##ందిన
##ొక
##uzi
লি
রাজ্যের
language
##াতা
بر
ইং
##onjwa
##నియర్
الري
సహాయ
##waida
##тин
##itions
##పారుదల
лет
والع
నీటిపారుదల
##ارج
##ెక్
ras
сторо
##దొ
##oci
##tamaan
support
కార్యాలయం
##ందం
##క్షణ
ఇంట
##ience
అభివృ
సంఘం
2001
##ihan
kum
النظ
অন্ত
యొక్క
మరణ
중국
విన
ఆర్ట్
మగవారి
tuk
పోలి
another
అభివృద్ధి
##మెంట
సంర
##ైన్స్
##tyv
##েলা
##రియర్
##enting
కొరియర్
marekani
పారిశుధ్యం
مما
శిశు
సంరక్షణ
##సై
##ival
##్రంథ
lil
katol
ло
బృ
దివ
పౌర
vaih
పోషణ
శిక్
within
উল্লেখ
##ామ్
##ాన్య
jepang
సైన్స్
మైద
సొసై
##్యాంగుల
బ్యాంకి
మార్కెటింగ్
##ده
##러한
##uas
##بال
বৃ
кро
బృందం
శిక్షణ
ఆర్ట్స్
##నియత
శాల
raja
స్వయం
ఆరోగ్యం
аль
рус
సేవా
గ్రంథ
వినోద
సంక్ష
##కృత
##ాండ్
చేతి
మాతా
దివ్యాంగుల
##সব
water
సహాయక
సొసైటీ
కాగా
కులాల
సహకార
##ких
అలో
muda
వాడీ
gereja
మైదానం
సరఫరాల
సంక్షేమ
ఆడ
లైన్
usein
##మోదు
top
ఆటో
లొక
##струк
##ీట
##asto
ట్రా
sillä
నమోదు
లొకేషన్
образова
విస్తరించి
##ుల
ఇళ్ల
##పత్రిక
సామాన్య
గ్రంథాలయం
##ఫె
ఔ
ব্র
##ukkan
##ార్తా
##ర్నెట్
అంగన్
ఇళ్లతో
జనాభాతో
టెలిఫోన్
హెక్టార్లలో
##rop
##నిక్
తెగల
మరణాల
ఆడవారి
독립
like
కెఫె
అనియత
att
పోలింగ్
##sung
ఆటల
జనన
బాలల
##ార్తాపత్రిక
##ября
రీడి
రీడింగ్
$
##ড়া
##ీటెక్
మేనేజ
kawaida
రూం
ఇంటర్నెట్
##బైల్
##షధ
ఔషధ
##ామ్నాయ
pulau
సంచార
henkil
makala
##ీటెక్నిక్
పశు
camp
করেছেন
ప్రత్యామ్నాయ
৮
raj
##iven
వార్తాపత్రిక
গঠ
much
పాలీటెక్నిక్
adv
ఆశా
এছাড়া
మొబైల్
##тра
харак
జాతీయ
ক্ল
బ్యాంకింగు
మార్కెటింగు
selain
모든
సంస్థ
##oman
pys
##oissa
이러한
পরিচাল
##yk
##보다
##jaan
##рабо
ulk
বহ
tiga
##খ্য
перио
##ikin
вое
##бле
käyttö
откры
serikat
##대학교
##isar
##epend
lent
зем
kia
##gn
ca
den
জনসংখ্যা
పంట
tapah
시대
tämän
서울
вос
##ন্দ্র
проце
больши
##ron
##ৃতি
##yarak
##১৯
있었
##ствует
##বী
بو
##olah
voim
liik
মানুষ
منذ
ইউনিয়নের
функ
మరుగు
##ako
##ارس
##াজার
дви
##্যান্য
فيه
direct
##"-
যুদ্ধ
পরিচিত
anggota
##িস্ত
beli
according
##80
것은
jäs
১৯৯
mkoa
которых
##tober
##ture
##ubwa
кри
మరుగుదొ
##خذ
중심
##اث
дву
когда
బో
kann
بالم
##ox
কে
সারা
పంటలు
life
among
##قات
due
##োব
far
##цу
بط
muh
الأولى
##년대
다시
##ilar
##ёл
للت
radio
##اخل
అవసరాల
##াইন
অন্যান্য
2014
الإم
##omo
##واق
##ised
##gar
##хра
논
ok
##elta
온
prosent
যার
చేతిపం
##ডি
многи
ша
быть
ثلا
musim
##jalan
kuol
##мина
##하면서
sym
жиз
много
вто
game
كبير
##화국
독일
위치
##itary
human
population
##ках
ঢ
хи
##ళాయి
резу
terle
##ميع
nu
##коло
black
تص
##واع
##ানো
##나라
##кла
##ästä
##стано
존재
##ilta
대부분
##isuuden
కుళాయి
##ан
충
line
ten
পাল
완
led
చేతిపంపుల
##লি
pusat
можно
##unk
##шения
সঙ্গে
필
즉
##리를
##yarakat
##ড়ি
gam
##hat
또는
నేరు
##ীক
코
##itys
##িষ্ট
##ల్లోకి
నేరుగా
lö
##okea
##vall
##ুত
সূ
প্রত
চার
sak
##omat
문화
изме
jalan
tor
##ством
উত্তর
##ভাব
perin
할
aihe
cell
కుళాయిల
الأن
результа
관계
запа
распо
jumlah
tentang
##দান
kecil
например
##eva
ци
طريق
يد
##личе
##чные
ভাষা
##ivu
##وه
등이
berada
##فع
##ister
sebagian
##endel
(2
port
##بت
cir
মৃত
poli
inahusu
jakarta
pemerintahan
masyarakat
তৈরি
россий
круп
কর্ম
العربية
hiyo
##kok
##тие
##ural
కంకర
పం
yksi
##فت
##ляр
##চনা
منطقة
দ্বারা
##tabl
una
und
প্রশ
repres
##lan
##lex
كتاب
##alainen
##지를
기록
60
nasional
పట్ట
##ept
ment
##esh
bab
تط
##했고
##"،
##iaan
##oksen
near
పట్టణ
##로서
##jär
##amat
##вать
2002
2013
perd
##istö
тра
أكبر
sensa
##järjest
series
##.)
last
الثاني
##бой
##70
బస్సులు
##력을
##abab
##okana
baik
##мой
##েত্রে
miel
##uun
ah
##asal
uch
english
соответ
sering
بع
ещё
asuk
paul
siitä
september
|
##회의
поло
##gi
문제
tang
using
establ
কাল
совре
associ
olla
lopul
##держа
hasa
##тели
ধর
##oista
tämä
##кономи
##da
##্যাক
popular
##din
union
সেই
অভি
##bat
لأن
জান
##он
##istic
##публи
character
يح
ذات
##änä
##الت
##ద్ద
##стей
ina
##هل
##oy
ско
french
포함
##uttaa
если
الذين
##ips
bod
##ompok
مصر
geor
menurut
perc
দেখা
based
##eti
تاريخ
jolloin
ensimmäinen
బి
##sible
jimbo
일부
১৯৭
মাস
##ps
##న్నత
death
2,
الوق
নিয়
kwamba
lagu
составля
##utu
elokuv
erity
р
##тера
##بلغ
##oliit
1980
죽
##нности
influ
المتحدة
##kip
##дол
rah
mengg
vuosina
##95
terp
krist
వస్తువులు
언어
luk
도시
kolm
##بار
log
##зации
##وني
القدي
auth
ию
##تما
open
venä
##سمى
স্ত
##మల
anal
হচ্ছে
حول
слова
##రకు
이는
##ission
চে
তিন
২০০১
contain
치
চাই
##ходит
иг
##ক্ষে
luar
##lim
##োর্
##이고
control
##ese
##ত্ত্ব
##ческая
투
##పె
##جلس
##onia
##jini
పట్టణమైన
##ssä
আদম
##ave
bert
melakukan
جميع
электро
jää
##ended
##жё
##مس
##도로
laaj
వరి
##зма
кар
similar
hyö
কলেজ
##زم
##ాద
أث
শব
##স্থা
чем
مخت
##যুক্ত
совет
mendapat
మంచి
проис
##istan
পরবর্তী
näk
খ্রি
والح
পৃ
##اك
мате
##kaa
##riä
näyt
succ
##get
##onal
##aliwa
##الب
##asar
##emukan
##-19
mac
curr
через
describ
post
##ুয়
ref
##াস্ত
aika
ইতিহাস
bre
gas
শিল
اسم
куль
помо
других
##гли
##isho
##akhir
নির্ব
india
total
##ীপ
친
##бер
bir
بدأ
sement
##тки
돌
লে
intr
అం
##umer
ann
sung
##ించ
##ోన్నత
etelä
very
##ient
hut
উদ
##انات
পে
##твер
তাঁ
##anti
ফলে
বড়
భార
2017
april
ప్రాథమికోన్నత
##حية
bro
tradition
fed
prim
##ждения
setiap
neuvost
##uf
show
simp
##ittiin
##зя
##హా
стан
الات
##вается
jenis
الولا
##hod
rans
##anggap
пар
##ikko
##je
వీ
комп
وخ
الان
గృ
##والي
##ৃষ্টি
pernah
규
конце
chem
yhty
sementara
0.
reac
ensimmäisen
일반
pass
##inggal
##طر
##oduc
##графи
приня
kerajaan
বলা
##inv
##زا
تد
##osed
##ائية
##tav
آخر
arab
بالإ
##щая
tun
real
##asarkan
##খ্যা
أهم
##zation
메
##대학
##ling
##össä
viime
হলে
##тал
##لفة
org
harus
##простра
పర
##ness
dih
prev
운동
이를
now
могу
##ющий
##acy
chini
million
##пла
অফ
모두
china
числе
##자가
##tra
184
##ুমারি
##akka
పంపి
الحرب
independ
భారత
yhdysval
##تد
##মাণ
##uus
##unga
##тура
##emi
##ices
уже
palj
действи
##ban
##ker
civ
отде
наибо
గణాంకాల
##ren
##виси
##స్తారు
party
addition
দল
dar
##iving
بسبب
##anding
christ
##zania
success
##రిగి
valmist
##кре
활동
##uo
##ин
kristo
tutkim
muu
##ট্র
kazi
##대로
##ден
kapp
##-1
أور
##usus
##upaten
che
obj
##96
80
영국
fur
ঐ
##دية
sul
##ights
bentuk
##ological
##সের
bid
পাওয়া
maailman
##рий
లోను
খ্রিষ্ট
##вор
للأ
##ন্থ
35
обы
عليها
pohjois
struc
##قدم
rock
##గ్రా
dilakukan
డాక్టర్లు
##tt
""
কলক
이용
&
##olv
الإن
##طق
##ava
##ties
mab
윤
##aruh
##ుండా
##র্ষ
hata
위한
##ereza
185
way
##ীতে
যদি
##ner
##ulttu
pesawat
పాఠశాలలు
##wi
이상
dic
ef
(200
akhirnya
распростра
##ats
crit
গ্রাম
east
الأح
##ريط
##وال
##ures
##нера
التج
kabupaten
##go
병
kaikki
게
##anjut
##alian
##00.
послед
##গত
исследова
##সা
##ebru
angk
జూ
##вает
##ীদের
إذا
দ্র
doc
admin
##ogra
##tap
##tum
##ాస్
##мов
పక్క
must
##estern
väest
kuv
কেন্দ্র
আক
##ogen
2015
began
vaikut
##ాలను
కోసం
##ర్థ
গণ
berl
what
november
wr
৫৯
tanzania
merkittäv
أف
ها
బయ
##ansa
##عر
##ebab
pengh
##ingereza
development
##ఫ్
##bor
বির
##irikan
네
company
##ключа
##alaiset
##거나
##uteen
##ికీ
##alaisten
##ace
##nia
уни
##లవ
##하면
إس
تر
##이었
ryh
still
##шего
bek
##ukseen
পুরুষদের
##amin
ఇంటి
##utui
##ward
phil
التاريخ
وز
political
మరుగుదొడ్డి
##az
판
##eno
الجم
terletak
вме
গুরু
తిరిగి
batt
ymp
politik
##upa
temp
వనరుల
##ధంగా
hub
##కరించ
##ande
##انون
along
কারণে
##جز
مي
##aria
##туры
##నీటి
less
##ками
обе
vielä
febru
##బో
విధంగా
manusia
##90
rele
##uliwa
الحك
অপ
down
hand
##ogn
##alth
mik
##aweza
##మెంటు
hali
జూనియర్
ظ
이에
చెందిన
military
##32
দিকে
##هي
+
##يمة
tanah
##দিন
##opim
net
##pal
##ван
##asanya
చేస్తున్నారు
유럽
##పల్లి
నిమి
జరుగుతుంది
బాలబడి
మార్కెట్
##وص
##పూర్ణ
около
##فل
##ఎమ్
##కరించే
পুরস্কার
2016
పోస్ట్
నిమిత్తం
##ాదక
3.
dev
##وائ
них
বিক
సమీ
##ంటికీ
الأخ
వ్యర్థ
సంపూర్ణ
కేంద్రాలు
##సరీ
dek
##న్సరీ
البي
అండ్
##ిమెంటు
среди
##ోగ్యాస్
ఉత్పాదక
సేకరించే
ఇంటింటికీ
బయోగ్యాస్
##స్పె
సబ్
1920
గృహా
హాలు
বয়সী
పరపతి
సమీకృత
##స్పెన్సరీ
పోషకాహార
గృహావసరాల
వ్యర్థాలను
##되었고
tär
##టీఎమ్
##గ్రాఫ్
రోజుకు
несколько
టెలిగ్రాఫ్
డిస్పెన్సరీ
##학자
فر
стал
లాండ్
అలోపతి
##odi
puh
kaupungin
##ణీ
##افظة
মিল
మేనేజిమెంటు
##зм
vah
السل
latin
##by
##사를
أغ
say
soviet
еди
mpya
виде
علم
أنها
নারীদের
మంచినీటి
##িত্ত
mkuu
build
##들과
##حدث
##జనీ
##ivid
মার্ক
ఏటీఎమ్
పంపిణీ
kansall
순
arr
##sk
##ambil
وذلك
japan
المنطقة
##ья
##ukup
##মানে
అవుతున్నాయి
##ially
alkoi
могут
lop
сим
kirk
##ాబా
##emen
lagi
##eph
hidup
##pu
있어
##olle
arch
музы
##bu
##sif
экономи
পু
##esha
##వారీ
vapa
రోజువారీ
మురుగునీటిని
allow
exper
hyvin
కేంద్రమైన
구성
mikä
berikut
christian
##ధుల
над
##జనీరి
##జనీరింగ్
##kar
hukum
yhdist
##리카
등을
##jelm
##isena
eropa
##вал
##тий
টি
التح
##että
الأخرى
##tik
##imes
##قتص
berhasil
##kus
수도
పక్కనే
ఇంజనీరింగ్
##tio
التع
##aian
mach
చెత్త
브
العمل
పారబో
వీధుల
పారబోస్తారు
취
aik
చెత్తను
환
##mon
uj
মন
место
용
##mu
##ним
##read
কাছে
kuj
ана
##вра
##روف
kys
свой
она
1970
глав
কোনো
70
три
##erial
মৃত্য
##urs
cod
hels
william
##చ్
##레이
##änn
kecamatan
##ilo
##war
кре
সেন
##etaan
##fanyika
electr
ري
##шение
коро
##ిత
##বেশ
##unda
particular
##kab
##ومات
напра
##ney
ব্রি
ympär
universitas
تست
mob
##дно
diri
point
cop
##askan
러
##elin
esit
chang
tarehe
المغ
##olution
##بير
أبي
প্রচ
negeri
##우스
##년에는
##ياة
##ভার
이어
vide
tärke
значи
##فق
##িতীয়
2018
isra
##jak
tem
##нными
kansa
гу
standard
##umo
31
##احة
চাইতে
berasal
##stä
##ared
##uvat
mei
الحدي
##35
##다는
##ynn
times
kusini
대표
juni
appro
##ূহ
##auti
حين
olisi
##ria
lah
huko
##toi
##وبا
uf
##ম্ব
head
field
أص
gun
##мирова
갈
упо
1999
##yy
##той
два
евро
##টের
##ized
hom
তখন
##شرة
vis
function
알려
°
지방
[
vile
##лем
అస
yao
##angkat
##దులు
lopp
##eth
sah
atta
المم
social
##рая
##واء
ভারতীয়
فقط
##oke
##ويل
##eles
ain
القر
cle
obs
domin
relig
أق
сс
##tanut
somet
##াউ
mala
всех
proper
atom
##يط
##itsee
الطبي
sosial
##yak
উপজ
##పిన్
bank
##usan
##బ్లీ
프랑스
problem
##oper
considered
접
##agi
##ونات
চাল
опера
##ثال
##اي
rad
часть
মুক্ত
##ెంబ్లీ
продол
##هة
позво
##лез
individ
협
без
taist
##erc
##heen
الوقت
##తున్నారు
времени
అసెంబ్లీ
##нем
##ربع
##adaan
model
vaikka
members
##мери
দ্বিতীয়
##য়েক
бла
##طب
лу
##ately
vers
مجموعة
##мии
##اية
قر
দেন
##ering
వదులు
возможно
ক্ষেত্রে
bak
1960
##চিত
వదులుతున్నారు
voit
##ication
##мент
exc
kasv
##시키
##তুন
##asikan
luonn
administr
드
физи
##اقة
##icha
##ములో
pasukan
##eku
ইন
##عدة
seg
ven
##ondon
నుంచి
henkilö
뉴
হবে
লক্ষ
##тей
##బ్బ
বর্ণ
поэ
##ينة
특히
тран
##قب
perk
##ny
##개의
##మలవు
##льное
అమలవు
mengen
নির্বাচ
అమలవుతోంది
kyl
##льная
##isista
##راد
1991
force
proses
suurin
يج
aug
درج
الساب
##erja
##osk
##пло
book
musik
##вета
##рения
usually
##ائر
hab
las
##нской
prosenttia
교육
180
полити
##মা
국민
##ison
low
다음과
##imbali
##нг
##bol
##كرة
dna
natur
وكانت
sababu
##ms
مر
##umlah
##gg
##ihat
mass
##jel
##кло
تس
జలవ
##েম্বর
జలవనరు
##تج
kiv
late
జలవనరుల్లోకి
##рё
##мет
mbal
част
level
##이는
вне
العل
sungai
##ca
##рен
##hing
##పురం
গবে
##정을
بإ
##iman
##로운
##vir
##форма
yleensä
##란드
##yttä
memberikan
##into
complet
berm
ধারণ
dal
##다고
ад
##berg
let
кор
##takan
হিসাবে
기원
##apai
charles
500
##pla
##uce
old
pad
##angun
окру
количе
prancis
##ফল
দশ
связа
##গর
khusus
##وقع
ود
##evat
والذي
mbalimbali
important
##_1
##상을
حوالي
واست
সংস্ক
государстве
##xim
##них
الأع
##вом
##tynyt
##도의
##비아
ومع
##0,000
##ప్
##дера
##ক্রম
roman
muodos
لح
juta
kisi
bangsa
##шая
##arga
ولم
method
transport
##도를
일어
##kö
##”.
##yal
##ступ
যেমন
bahan
##صة
##ago
вс
фран
kubwa
terdiri
мы
##epat
##ходя
কথা
ঘট
kila
present
various
##위원
সাহিত
##ato
##лен
لإ
spe
గుండా
tiongkok
##기는
ডি
국제
##innan
lama
vuotta
meninggal
##ادية
জীবন
karib
প্রাচ
niiden
которой
##jana
belanda
производ
##слу
dom
army
light
tetap
##زل
갖
নতুন
##ör
##로는
ссср
తారు
anim
det
##ories
song
восто
##line
##änyt
hasil
media
##ণের
rece
##kipun
child
системы
зо
পান
london
качестве
질
##haa
tuh
suku
주요
территории
toimi
european
تب
yah
itse
agama
##شت
자유
другие
material
##net
mener
biasanya
স্প
чтобы
ప్రాంతాల
##дела
karya
##сков
দেয়
##шь
자신의
view
древ
পরিবর্ত
mand
##yi
organi
##eme
##iana
##ubah
وأن
##bs
##tyä
самы
return
julkais
বর্তমানে
bay
##36
##вил
أبو
##arian
##قى
দেখ
##щения
##자의
##atao
относи
make
represent
mwa
wind
##غي
కన్న
##usten
باسم
##цев
##కల్
##joon
berg
circ
وجود
place
কয়েক
resear
образом
##امعة
తిరుగు
##kiel
tengah
إد
leh
every
способ
##صور
##نان
complex
##انب
##ystä
##ird
##পূর্ণ
jota
##urahan
عدة
##ikiwa
1998
الخط
##কারী
শব্দ
коман
사건
##alue
##ests
работа
발전
##ালী
##্মান
viet
الحر
గ్రామాల
этот
jäsen
사실
##вший
поль
ধরনের
한편
color
##avat
##하였으며
bill
##iba
হিন্দ
cel
wapatao
면
جم
proj
meskipun
암
##으로는
naf
##isestä
##ll
home
الدين
야
##들에게
##جي
##طلق
elek
prac
##esti
beh
##ضاء
жу
##äärit
##put
##atang
الدولة
الأرض
##itution
রূপ
దూరంలోనూ
##iano
##ابات
##عداد
dav
దూరం
##embangan
##ую
##adian
##37
##47
##igr
중앙
##asis
suos
research
versi
являются
yana
제국
종교
kilpa
kelompok
বাংলাদেশের
iliyofanyika
##err
##emaan
##urkan
##строе
##нность
##тных
##র্ঘ
aff
버
##위를
##ches
허
##par
##ших
এমন
ti
##edia
author
##fe
##ুস
걸
পৌ
kam
nope
techn
systems
##него
пор
##ush
##rib
##wh
##ency
said
البل
##ভা
나라
##нную
স্থাপ
동안
few
##ifu
32
##abat
yes
origin
##ালি
##ালে
ছোট
##etu
하지만
రక్ష
루
##annya
веще
berdasarkan
dam
##ential
##leen
help
رئيس
##кий
тру
이루어
##ebabkan
##일에
##isessä
গে
##zing
дли
##impi
tab
##inese
god
sour
নামক
vic
computer
لن
njia
counc
##uvu
##ред
##itta
uskon
రక్షిత
penting
##سن
##ليون
బోరు
given
##রিক
১৯৮
##okuwa
luas
الفرن
истори
western
తిరుగుతున్నాయి
##elmä
অন্যতম
للح
##ittel
##চেয়ে
further
один
##лн
##цо
##мости
iliy
বিভাগ
##мыш
নিউ
##도록
##ety
##ress
##াধীন
maal
শ্রে
local
##allist
##idikan
vuoksi
ঘো
cross
наиболее
얻
##iva
##ابل
case
jika
المي
theory
ub
conn
##ences
##క్టరు
plan
والب
signific
pyr
kirja
##из
##38
##ikke
لب
специа
채
##aye
##тому
##45
##гре
##kabla
card
вели
kirkon
##ukk
대학
##اليا
pil
খেল
##ather
곳
##াব্দে
river
ste
পৃথ
침
cur
comb
الروم
kelurahan
tamp
##민주
##ood
দিন
중요
পাক
##ither
имеет
বাংলা
귀
##ادر
##ామె
season
작품
service
##정부
##كتب
الدول
##доб
البحر
countries
##ikia
гру
##ческое
berbeda
##서는
##arch
মিটার
##iston
منه
всего
человек
profess
সবচেয়ে
##rin
##adil
##ying
##alifor
##uksesta
##سر
##াপ্ত
занима
которая
##tip
مم
##вали
диа
##డికల్
without
2012,
సిబ్బ
claim
become
الأمري
বই
عبر
ফ্র
games
jatk
italia
పారామె
গুরুত্ব
పారామెడికల్
১৯৬
##ength
kansan
report
90
বাহ
##ymmen
инте
часто
##asilkan
компа
민족
lalu
##prov
columb
##ريد
যৌ
##하기도
muse
cub
ওয়
поч
sedangkan
막
##권을
##িয়ান
الأك
##ِّ
১৯৫
hot
وبعد
1992
اليوم
теле
ambao
প্রয়
##sen
##براط
##воз
لد
##raft
##unyai
усло
الأش
##нского
##ittu
##leet
##мини
ajan
##казыва
sebelumnya
##شف
2020
piir
canada
joista
##хе
##нача
##র্বে
kilomet
##므로
##ilis
council
menteri
뜻
##기가
##toon
находи
provinsi
처음
##zaji
##ريقة
event
অবস্থান
vuodesta
받아
america
##امة
##alnya
young
##ాస
##гов
চর
выра
##لاء
kuning
##ضة
сы
##логии
##سيا
ос
গ্রহণ
##ান্ড
sekolah
##ono
##ссе
##itor
рав
استخدام
internasional
##বল
##르크
##টিশ
আন
##нном
rul
##গ্রাম
1995
ekon
vih
করত
معظم
collec
määrit
chinese
애
##لكة
arg
вну
##장을
##adhi
##teet
##ental
mempunyai
##랜드
##بدأ
##াদা
##стан
число
날
центра
মৌ
생각
নদী
практи
##ర్గ
kaw
need
kuu
eikä
المر
treat
##كري
민주
নয়
##след
##ёт
vy
penggun
##цией
kig
##itive
##teita
النا
করেছে
developed
##34
##ucle
러시아
huom
الشي
##hib
উৎপ
##alaisen
وش
соб
الانت
olevan
##75
##سين
길
الشمال
##нав
##нах
##ander
species
##imo
##ulai
والن
##ذكر
rap
yak
##mun
chi
califor
##ible
uta
каж
region
맞
##인민
##سمية
упра
энер
antar
##ivi
kautta
##로부터
##ways
ইংরে
레
১৭
благо
импера
neuvostoliit
##চ্ছ
(1
45
##যোগ্য
##ষণা
##isteri
yahudi
##ns
발견
##держи
особе
##yys
১৫
같이
##zini
zili
##ট্ট
الوط
끝
##maan
эта
##asia
결과
관련
täh
##بع
##bah
tub
##wango
vaan
সম্ভ
oppos
১০
عمر
ব্যবহৃত
##рей
##сут
##imen
বিষয়
##хов
##ক্স
فأ
australia
البح
areas
bernama
발표
cro
##льным
الشرق
الأد
большо
المسلم
käytetään
##سات
##طار
täl
##народ
##,"
##شأ
##ুলে
short
##িয়াম
##ids
caus
nuor
одно
أخ
##هاية
##াকার
sent
##اة
##جن
wam
gold
mesin
space
##زب
##운동
defin
##ল্যান্ড
##اسة
##elit
##গুলির
alip
hänet
দূ
five
##met
tamm
##eny
의미
গান
الثال
##راك
##وير
##нови
##most
1997
##embang
yliop
temper
oc
##стов
##aba
imp
##ford
иде
1996
hamp
ست
cara
মার্কিন
نس
##ঠে
##자를
##ateg
পড়
believ
##äks
kij
некоторые
##aifa
##ality
##ively
двух
১৯৪
##нский
1994
mwan
మండలానికి
(20
family
##سط
##oro
##هور
##ступа
lähes
##39
##round
كبيرة
published
다양
##тельных
основа
ام
계속
##arti
دون
namba
العلم
sijoit
##فن
##سيم
лишь
##কা
축
heid
దూరములో
чу
##yden
##ude
##рта
друго
sijaitsee
production
##щих
##ম্প
makan
интер
mencapai
ضد
maupun
ä
عب
وص
##ested
##ствии
##чного
##حل
##শন
##tice
сти
kulttu
januari
الثانية
republic
##شاء
##inea
اخت
##ностью
##ham
لع
##কর
##ojia
six
##24
..
##ksiä
сохра
##uncul
norm
phys
thus
##ческим
yhteen
الرئيس
داخل
##ez
##нё
탄
##omu
##кро
##عود
##ظمة
개발
сша
этой
economic
##대의
ful
huh
ibu
scr
গড়
itsenä
##ظر
##toa
نق
##imin
##لاق
매우
##awan
##গ্রহণ
##ায়ের
রাষ্ট্র
##يه
partai
##85
##ديم
সী
udara
##তল
##ৈতিক
সদস্য
paljon
অনুষ্ঠ
জার
wala
폐
##ero
civil
video
кроме
##olf
##ющей
ath
амери
largest
hor
uuden
menunj
##21
##upi
рес
carbon
согласно
##зд
mot
প্রকাশিত
잘
##imia
реги
##тельности
볼
##্রম
age
মোট
##tivät
2019
yrit
##fl
একই
hili
отме
terkenal
책
57
большин
##86
alam
mean
قي
##idge
elä
lay
##제를
##وبي
음악
이전
페
##حاد
##iness
жизни
##tens
মনে
তাঁর
আদমশ
princ
الموج
bahari
призна
##েশন
##에서도
asi
battle
مو
ইউর
mbili
##use
##etti
পাশ
kutokana
##గ్
##ффе
##atio
##дели
그리스
määrä
множе
engine
차지
##чный
press
প্রাচীন
##uko
##ষ্ক
##вшие
kanisa
представля
##ье
significant
##리가
##جلي
##cent
##aton
lef
অঞ্চল
##com
300
ruot
федера
alueella
##mo
##ثي
##্রী
euroop
menyatakan
##mar
##vin
##thers
unit
bukan
introduc
##্ধ
##нка
##oleh
كتب
نحو
does
prote
الإنس
কার্য
الرياض
национа
##ండ
##্যাপ
необ
coast
بينما
joiden
##adem
##emba
##ليات
للع
##ances
которого
##33
##োজন
##burg
##erta
##itsi
الرو
прези
german
кол
التن
house
الهند
##ict
##راج
itä
säh
##sp
forces
societ
dianggap
individual
влия
##uksena
группы
##인의
##мом
ور
##aren
##ervat
terbesar
##eal
ava
construc
##ున్న
бра
дея
broad
respon
వ్యవసాయం
মতো
##olojia
পাকিস্ত
osallist
극
##도가
##gor
১২
kant
taas
##umbers
1918
white
##тии
##ihen
##شرين
кни
সংখ্যা
sekarang
##dom
dew
iii
##alami
##르는
##win
গু
siku
пара
против
grow
встре
mengenai
##vä
##вую
##طاع
##ుకు
wengi
##েস
##াদি
##empi
heav
sebelah
##elf
##скому
годы
natural
##sequ
উপন
alle
উই
##utti
লেখ
সার
capital
nyingine
##rah
기준
##onen
రోడ్
##ababisha
আদমশুমারি
##ালা
pih
best
kunnan
섬
##пара
объя
##자는
##мышле
دول
inay
##tiö
ино
ট্র
languages
relations
##tävät
широ
إذ
##등학교
##ведения
##ряд
##oi
형태
영향을
pitk
reform
##ilt
##جين
juli
يوجد
erila
##endelea
уг
пос
##ekana
wimbo
##هب
dij
##tical
বাস
##ствие
held
##kazini
toimin
첫
аб
이것
opp
##غر
тор
rich
##hariki
komun
##identif
miljoon
##చ్చ
1993
pendidikan
##기의
##кус
##ويم
bila
town
কব
ran
спи
##ments
ky
##jibu
left
industri
california
আন্দ
শিল্প
##64
##ন্দির
read
অক্ষ
##allinen
##수의
##вших
ilmu
వేరు
##isuutta
produced
##성이
شكل
nucle
ভাষায়
##zz
##نين
##tors
ней
tour
keluarga
км
express
##ياه
4.
##ount
##ুদ
##اصمة
১৬
key
seurak
generally
sav
ради
بالن
kolme
##тельные
##لمة
##নাথ
rail
numbers
##োমি
языка
##وفي
되어
strong
জল
стали
##ilä
##াইট
deb
ভূম
##যায়ী
sometimes
절
##স্ব
##uman
واحد
ব্ল
1945
former
helsingin
masuk
универ
밝
bul
##uatan
##اجتما
ఉన్న
court
числа
существова
##раз
가능
주로
##공화국
مركز
الراب
##పో
##ربة
অধ্য
useita
ekonomi
sejumlah
بالإضافة
##car
tof
بما
##araan
julk
##لسط
eas
vel
militer
республи
##22
ip
발생
새로운
международ
##يع
##인이
##eltä
ehd
ব্রিটিশ
শু
##ender
전체
tuj
смер
سكان
surat
original
##శనగ
##atia
предпо
##식을
##верх
##িদ
నిజ
james
islands
تز
##ismi
##راسة
разрабо
##তন
##östä
##фика
activ
monet
muncul
يش
عهد
даже
##্টার
##ర్గం
pah
##зии
##الح
##ستر
والإ
##ريف
పె
luku
##ضر
##했던
##туа
0,
3,
거의
많이
##ాబాద్
##рд
##어를
##কালে
##olewa
kahd
الحيو
##ape
وقت
వేరుశనగ
##);
밀
##진다
##sib
шко
руко
المق
расположе
##egr
##শ্য
##ague
groups
##тиво
tumb
социа
##ulikana
##km
##نع
##сом
##table
1950
##رع
офи
kong
##бя
##ora
jew
##নায়
اعت
##inväl
ব্যাপ
##تل
sun
شخص
miss
rest
role
saan
فترة
##itz
##ونية
##risto
yenye
zaman
войны
##isp
행정
وغير
numer
##났다
بق
##ేందుకు
వున్న
하고
군사
##idence
##মাত্র
maji
строи
содержа
##wak
ves
##ukung
выпол
육
힘
##раб
##فضل
##atian
##97
##নৈতিক
##ంలోని
glob
included
##бор
కొరకు
##31
##sur
##uted
##iselle
puolue
tofauti
##cks
##via
있고
##ikir
##itwa
مرة
sain
hubungan
##antan
educ
প্রজাত
established
hyd
##строй
최초
allah
hein
درجة
одной
##년부터
авгу
##াৎ
فت
방법
##iger
باست
వాడేందుకు
##క్టర్లున్నాయి
측
গো
##orts
##uper
##знача
రోడ్డు
ugonjwa
গ্রন্থ
شي
##تيجة
mir
ترك
tanpa
##над
jud
final
massa
kansainväl
je
цер
ভাগ
название
##27
##wala
ana
নাট
good
järj
بالت
손
merk
bidang
kot
자연
bumi
empat
##cy
##গোল
##দর্শ
احت
##ulkan
##числе
1989
дости
собой
헌
##esk
అన
##суще
vit
сооб
##män
##ائي
তাল
##abung
##খ্যাত
человека
الولايات
이탈
связи
الفترة
##시에
teki
앞
##화를
##estaan
##udella
##wili
##িয়ন
##েন্স
kuch
resmi
৯
줄
##ibat
##ship
##ститу
body
just
##تاج
أصبح
##ros
##dist
точ
instit
##ops
##ями
وط
albamu
##тро
##oike
দেব
أنواع
##zu
ху
свое
찾
##кое
##isella
##тем
##inda
তাই
المب
اللغة
##قيق
만들어
##ব্য
imm
গোল
ম্যা
##65
운영
아니라
период
istilah
science
##94
##명의
##র্ভ
ца
##ীক্ষ
بار
экспе
##гии
##زية
비판
##рита
yleis
বো
бли
club
شمال
having
valtion
terakhir
##ket
ألف
كثير
দুটি
включа
college
##92
##ెడ్డి
free
muita
##ekan
##urin
فيما
మండలంలోని
##자로
인간
##utama
berj
আন্ত
నిజామ
##rik
kre
third
##98
##াসন
hus
утвер
roma
##ewe
نوع
enemm
##do
##—19
গা
##خط
패
아이
الصح
langsung
##cer
ox
পি
vuor
أثناء
ян
##umen
huo
took
поня
siihen
وتم
##atures
##sc
##aine
##кто
##ball
pul
লোক
prom
الحم
디
paus
##рёх
স্বাধীন
##älä
##صار
##less
##ствуют
kontr
موس
##нению
cath
алек
العم
মুসল
democ
filosof
##cle
##reg
ভৌ
sota
tuom
ক্লাব
##াসের
coc
দায়
##hu
era
যখন
지원
manag
класси
##ুখ
##лосо
мето
##ينات
##ন্দর
сою
##itsem
august
rakyat
أوروبا
##ambo
##ilai
##нова
##لايا
others
الجنوب
নির্মাণ
##పే
과학
mtu
выпу
vip
الإس
система
##olic
kuts
উপজেলার
##col
##েরা
##ajan
##äänn
keg
##పురంలో
kapal
tangu
অভিনয়
عل
مل
고려
##গ্রহ
rus
##isissa
##bc
##нте
##ästi
##вают
анти
роди
искус
attemp
এলাকা
##قم
ضمن
##되었으며
##asing
subj
అనంత
toisen
poliitt
kiji
##tämään
별
cd
부분
укра
트
##اول
wad
tehd
##ুদ্র
palvel
кли
বিপ
##انا
사망
مب
##했으며
##arik
##ysia
kud
vas
মিশ
huwa
##ائد
iv
والد
وعلى
either
폭
##ামী
##кова
##прия
##প্রিয়
##aihe
##sian
##ждение
ولاية
##তির
소련
##сите
##صبحت
alussa
bahkan
সাধারণত
##000.
cost
준
##독교
5.
##으로써
않았다
##uttam
batu
рели
своей
##্লে
##доро
gar
মাল
##antin
toinen
##pä
##وء
##ayu
##ues
##োপা
act
##tojen
maisha
промышле
অভ
ped
##3)
##왔다
##tein
##tävä
ball
musi
অনুযায়ী
##йн
히
##দ্ব
석
플
sty
##ective
1980-
##도는
##oud
france
takrib
##bit
dial
আবার
dasar
##ালো
park
saja
##طف
##য়ন
##деля
epä
পড়ে
##اخ
##нци
sound
##side
jar
take
живо
metal
mengalami
నిజామాబాద్
##заи
공산
##onin
##_4
##াফ
##ezi
##سام
buk
সকল
##asiun
##inning
kenya
переда
পরিবার
##28
된
tv
##টিকে
##istaa
услови
##sar
kih
##iction
প্রাণ
ditemukan
বর
word
##day
কন
kev
এসে
##uasaan
##ried
son
বিল
##egara
agar
సిబ్బంది
లేరు
sodan
talous
kawasan
##عى
##omor
##дра
##olan
ext
bekerja
75
##тами
191
##kuussa
separ
##ugu
tam
الناس
ব্যবস্থা
##جار
زي
이승
##لكتر
buah
mujibu
산업
##endo
уда
পুন
হলো
lemb
never
territ
kristen
##ذج
##월에
##adh
##ege
suk
প্রভাব
specific
sn
##itus
hard
kiin
очень
##েড
sla
kond
pred
настоя
##ীগ
##ীরা
mg
selv
зада
month
center
బోరుబా
northern
huol
valti
север
обычно
##89
##스가
##اسع
ну
حق
##entr
squ
david
вопро
##과의
nob
list
sett
появи
ছাত্র
southern
blue
panjang
bond
jopa
##awi
##জার
onn
##ss
##غل
raya
వర్గం
моск
тыся
televisi
##명을
##osp
темпера
넘
##шие
##work
##শিষ্ট
pref
اللا
이탈리아
sumber
শিক্ষা
##лан
আধ
##imba
тур
##olved
special
잡
##нтро
nafasi
##nis
##াইল
이론
##قيقة
usk
ঘটে
##грани
super
trade
కన్నా
energy
written
크게
##toja
dok
sää
##конча
vanh
kiinn
wengine
##26
##نف
عملية
ambapo
మొదలైనవి
##طان
36
##elek
##ikon
##umika
buku
meas
##పోషకాహార
pyh
tol
wid
تقع
##ayaan
kuva
pala
rather
##가지
##ium
##টিতে
##বঙ্গ
ren
fund
saksan
литера
kill
писа
প্রস্ত
представи
erityisesti
কু
kand
населения
aki
turn
kaupun
يؤ
기술
필요
уве
colon
информа
malaysia
##군의
##ikuussa
необходи
బోరుబావుల
##igi
ше
إم
##itia
##처럼
##سكر
jok
день
##dle
يز
##ansi
기원전
pitä
##పల్లెలో
окт
akibat
표현
sesu
##োদ
##umba
dyn
pop
хотя
##essaan
##প্ত
##жной
মাঝ
космо
england
악
##هود
fif
win
себя
##кие
##щее
дека
واحدة
সময়ে
##тельство
##änsä
##عادة
hid
##itkan
rend
repla
earth
muist
الرغم
israel
হিন্দু
##يميا
cann
diam
liter
терми
business
##ологи
erot
##ozi
##িন্ন
جنوب
##тельной
status
stasiun
##জা
##프리카
psy
right
##тах
내용
hind
kore
мест
حالة
##kos
যান
##부의
годах
##2)
##eder
##tific
##tamb
обеспе
যেখানে
sir
খুব
type
##ellisen
향
##блю
উন্ন
совер
মাত্র
##тельства
membentuk
##번째
##aut
##uva
##umizi
করেছিল
##84
##hab
##iii
damu
saav
запи
##лии
вз
পাঠ
скоро
السكان
##ware
women
القديمة
position
##apt
##ikali
##িট
ঠ
попу
যুক্তরা
들
certain
mun
kaikk
вместе
বিদ্যাল
검
##غيرة
##iani
##ولوج
...
가지고
##емо
##тно
##tail
##ющим
150
لاح
earli
tingkat
##리에
##cul
해당
পায়
person
dawa
грани
muslim
terutama
##ثلا
should
테
##amo
생산
চলে
konst
sähkö
годов
valtak
##غط
jiwa
##adakan
البلاد
culture
kekuasaan
선거
않고
##atal
##ikuti
##هو
##ظيم
정책
আগে
ইসল
기독교
тради
mungkin
(«
정의
##bert
##ring
দ্য
خاصة
market
многие
누
##87
##이자
##кая
##াগুল
krit
perb
сере
award
jalur
##সর
##тен
##ارب
##مان
tw
결국
##ases
##треб
##تو
##ток
##র্ড
তথ
recogn
street
দায়িত্ব
##сел
##وبة
ho
hä
yali
জনপ্রিয়
없다
##ikit
##ющего
الاح
##pada
han
перед
##vention
আন্দোল
##pecially
##শে
py
##ioni
##ступи
created
venäjän
ему
official
담
벌
##داد
mieh
dinasti
материа
##joen
sif
lask
পঞ্চ
frank
##entukan
состав
ры
따르
taaj
##rup
##ক্ট
jär
hyväks
perform
##ندي
الأور
##ftar
saa
##하였으나
##িত্রে
второй
##راضي
##itaan
উচ্চতা
##িফ
##yty
##روع
##okeo
##utum
ذكر
памя
сент
этих
الكثير
글
##ams
وكذلك
kaskazini
##ends
##tial
##uttu
abd
side
##iaa
##atin
##lood
gal
##adamu
শতাব্দ
maf
мор
янва
strateg
välillä
공격
##yang
you
altern
컴
##osin
juh
moun
##ুয়ারি
named
помощ
результате
##লার
##হার
상태
##্রিস্ট
современ
##جمع
полё
##نب
##bal
##пада
don
япо
##estiv
едини
##alaisia
পদার্থ
meningkat
george
работы
described
##чу
نج
반대
##ющая
fis
oly
asti
герма
##len
##ন্য
##нове
প্রা
устано
##',
몇
##non
নির
pasar
##하려
하여
pro
учё
##oms
näh
সংগ
##harib
гово
reduc
만들
##ittle
half
sold
যদিও
gelar
затем
городе
possible
##해서
설립
أيض
museum
মন্দির
kehidup
급
##сма
od
гре
وما
contoh
##এস
##pir
eg
joul
##las
жа
##eneo
##щение
1990-
lähet
الجيش
университе
##erum
이승만
игра
দেওয়া
princip
umumnya
##дро
##امي
lik
начи
পদ্ধ
струк
throughout
핵
##ায়ে
##ongan
josta
health
ব্যক্তি
##ugas
فرن
효
##wah
изда
polic
актив
codice
##сми
##istu
##ct
은
##och
##ثار
##সার
১৩
과정
pin
ther
study
##ارك
##يسة
##০০০
shir
взаи
البر
форма
##bl
##수가
##pää
##tead
##wani
whe
##omaan
olem
##haribi
played
##uktur
train
таким
গিয়ে
зависи
противо
##"।
##mm
##فه
##ikian
ইত্য
পত্র
kuuluu
menyebabkan
##డ్ల
abs
##67
##ilih
tapa
works
মুক্তি
আরও
##সমূহ
свою
ভিত্ত
الشر
مجلس
симво
الحكومة
republik
~
##ikki
samalla
##ius
nar
arme
came
sugg
jä
##గ్గు
fak
tote
بناء
أعمال
oktober
আহ
శు
비롯
##crip
##боль
##امية
##ناصر
cab
kita
অ্যা
##щие
||
opisk
지배
##ensa
terms
##지가
league
সৃষ্টি
##aca
##গুলোর
green
instr
##ityksen
حكم
العلا
ইউরোপ
##대한
##chan
##aries
decl
takriban
lyh
запад
penerb
బావులు
menunjukkan
গুরুত্বপূর্ণ
##кс
혼
##llä
평가
##alli
##mark
ill
دور
touk
севе
traditional
##ئات
ye
##oran
sik
اكت
রাম
##জাতিক
نفسه
разме
agustus
mashariki
বিশ্ববিদ্যালয়
##ప్ర
بش
##পূর্ব
больше
identif
menghasilkan
##imi
inj
сме
##”,
##দ্য
কর্ত
##zaliwa
начале
##학의
##ريب
##يري
##পাত
그가
sea
райо
cukup
subst
kiaustr
##다가
سل
som
والج
##ellinen
##ris
##виа
##ache
##ungsi
hold
jauh
وهذا
mjini
##ీం
##군은
los
cand
road
миро
##োমিটার
range
বিজ্ঞান
##ينا
continued
##제로
##ونة
الحد
pihak
baadaye
সাহিত্য
##ottu
побе
exist
menerima
ঝ
১৪
##درسة
uni
вол
язык
##isyys
декаб
శుద్ధి
الاجتما
yhdysvall
##كار
인도
##time
##телем
সমাজ
##няется
chlor
##দে
##াখ
없는
мира
dibuat
##dr
##loy
##вар
##عيد
du
유명
eth
لف
##jien
##ziki
따라서
않는다
الدم
above
built
lingk
osoit
인해
##నగర్
uwe
mann
##ُّ
##няя
##تمع
##লিক
vet
##ainan
wrote
##dp
##пей
65
이유
##okka
গঠিত
случае
##ught
объек
##ুজ
##jian
доро
ruotsin
##াঘ
##نات
##ored
tatu
rights
изобра
##র্য
##alit
##ending
county
العامة
tentara
edelleen
##usp
##дой
tow
منت
যুগ
نظام
matumizi
##িও
풍
##rad
##ندا
ফর
##nu
##ehd
1940
১১
##rich
rot
helm
والف
والق
joukko
4,
право
##వర
##리의
##하자
বন্ধ
suuri
wenye
information
형성
موج
toimii
комплек
##hal
labor
поэтому
혁
##рна
ডে
##ungg
##immat
1917
заме
осуще
februari
##هرب
জয়
##수는
##ورا
##avan
##пита
ملك
##aster
неме
الجن
demok
##ليا
wao
пись
মূলত
অ্যাল
empire
##스탄
##ложи
jes
##adikan
kehidupan
##мир
구조
التص
অর্জন
society
berkembang
##48
헤
##퓨터
##zim
계획
আইন
sult
буду
bc
нео
ছবি
##ators
agre
এরপর
верси
edusta
пробле
##ente
الثق
##embangkan
especially
##23
కర
다양한
уров
القي
dekat
খ্রিস্ট
##тельность
##""
##дет
##فات
للإ
##대를
##ico
mc
بب
сла
march
##tiiv
соеди
##র্জাতিক
সম্পর্
kuitenkaan
দর্শ
avulla
xx
##lied
##গোলিক
syys
চট্ট
##োড
##чёт
##تمد
قب
400
##ukaan
1930
mmoja
valta
##طع
##운데
কিল
deter
frequ
আত
##으로서
##емых
ارت
chap
kepala
sijaits
mendapatkan
##нки
изу
desa
exec
higher
maeneo
ভৌগোলিক
##_5
##শ্ব
food
показа
##aps
فع
##ক্ষণ
##ুদ্ধে
##erumani
robert
keskust
38
посе
joissa
termin
##রাজ
##ungi
আবি
##ствия
tarv
প্রচল
observ
##طح
##ery
##ged
##يران
dhidi
##angunan
التقويم
internet
##oilla
##ordin
1919
меди
##ography
##чь
##력이
같다
##omas
أهل
##зирова
tokoh
المناطق
##air
##ereta
live
##وث
##tek
결정
bil
royal
released
##76
جزء
structure
##eta
##هيم
##wana
тро
organisasi
constitution
##okan
##واقع
বৃহ
المسي
ohjelm
nav
طول
ajat
lower
источ
##ng
##ترا
##face
roh
maak
неза
хими
change
elements
##جا
гор
рим
greek
তত্ত্ব
##기로
##사가
##дии
##зов
##لاب
##unge
(),
ধরে
కామ
roll
suff
penggunaan
تف
1987
walio
lähtien
المسلمين
##29
##프트
##лет
keske
memen
##ismin
##رائيل
الخارج
হওয়ার
alkuper
আন্তর্জাতিক
##вен
سا
##akai
kaum
mash
السن
##vers
##wood
budaya
karibu
##ebr
leo
##으로부터
البرو
официа
страны
позволя
উপন্যাস
بص
##entu
##ружи
##تبار
##вание
extr
kisiwa
community
송
дж
조직
federal
fu
##কালীন
hivi
seen
সমতল
##uksista
victor
حم
번째
##attom
1988
prec
sedang
##গণ
##어는
직접
nec
menulis
mos
испол
upande
몰
탈
##리스
##시켰
##اند
##াধিক
చేయ
germ
##министра
berarti
eastern
käyttää
##음을
sod
foot
kush
##taminen
##ذهب
##lain
بالأ
англи
comput
##allisesti
характер
##ায
আফ
مكان
কলকাত
instead
##74
##جرة
пя
노동
sasa
меха
পালন
movement
بج
mch
pre
ليس
والس
##тирова
diber
##fat
##اما
##enga
johd
المخت
##antikan
পূর্বে
##irkan
sepanjang
##ит
##حدى
##েলে
sill
##";
##কম
full
start
причи
العثم
некоторых
##tok
있던
##ampu
##ross
##unani
الموا
hampir
tehtäv
version
(,
kär
##стран
##ংস
tes
মাদ
ধার
##доста
السنة
পত
uli
vahv
والش
pemain
определя
##েও
##이지
xv
##에서의
##্দের
كون
karne
turun
степе
##osh
##ربعة
##وعات
##arnya
perl
такие
البريط
december
الإمبراط
##onom
impl
kina
الأمر
గ్రామాలు
частности
অথ
বস
##itel
нико
కరీం
october
##제의
서로
##ূর্ণ
##сматри
little
muiden
##yu
##াঁচ
##äärä
##ктив
وضع
priv
выше
التش
champ
least
kadhaa
studio
demikian
##ху
##aksan
четы
parts
ثلاثة
первый
kingdom
##kyl
##гово
##ৃতিক
хра
##arily
প্রাক
العالمية
অবস্থানের
##46
##قه
쿠
##ram
aloitti
tinggal
используется
##하던
##افت
ويم
중요한
humo
lima
##তু
يكن
апре
своих
##88
##см
##kkä
공식
сам
##eland
span
одним
కరీంనగర్
##들에
##ске
fig
1948
зако
maret
площа
##ويت
##pite
##used
lit
löy
alex
care
kereta
regard
설치
బావుల
теории
building
ga
##osti
##льку
näin
taka
avail
estim
مليون
পৃথিব
kymmen
رس
тыс
pari
sequ
العرب
الاقتص
количество
খ্রিষ্টাব্দে
##kn
##дина
##тего
ولي
##uhkan
возду
наблю
الوسط
didirikan
perustettiin
##жен
##tian
läm
##ittää
ثلاث
##শীল
##োনা
##త్తు
aka
##ashara
lopulta
키
##opi
##alif
دائ
attr
sisä
##ografi
##ментов
সেখানে
##дий
মস
가운데
yhtye
kommun
##عمل
있는데
프로그
hizi
situ
1970-
symbol
##uju
##tahui
##ником
তথ্য
##astaan
##성의
ros
علا
##ektur
الطب
ruots
mengak
vuoteen
##나는
##장이
##шее
deg
ран
আলো
epis
upon
##-20
##ابت
6.
тя
##ান্স
впер
বিস্ত
শহরটির
সম্পর্ক
유지
pow
тек
এদের
attack
corpor
образу
둘
##되지
##olak
sad
aleks
manuf
описа
heidän
kaupunki
##কি
##스를
##efu
##انة
ong
للب
kert
даль
tasav
менее
##бур
##жных
높은
sex
বিন
##craft
keka
পর্ব
الثلا
gunung
kuhusu
প্রদেশ
##وين
신라
##туре
vik
fore
soft
الثالث
uz
##موذج
adop
వున్నవి
سم
wag
লীগ
সির
##ристи
wanao
метал
muhimu
постоя
মানুষের
##చ్చా
ঢাকা
menyebut
##টন
##িড
##нец
##وريا
الحكم
kiaustronesia
##rel
ке
##волю
الحياة
العربي
##خب
next
middle
##1)
##렸다
따르면
aikaan
protest
##ابع
নব
보고
##년까지
حسب
education
##рус
##тар
현대
mut
అను
##ibabu
свобо
الشيخ
##uksissa
##гло
##াম্ম
fall
rauh
mobil
terus
نهاية
yhdysvaltain
##42
##99
##ail
##쪽으로
##osis
##нтов
fem
wote
سنوات
##тельного
##خي
좋
돌아
##্রাজ
see
wah
এখন
##atter
##overed
kutumia
oma
pac
একে
keski
kurang
january
uingereza
television
##계를
##yst
##äkö
전투
##enta
inn
uus
월
##hol
##aikan
corn
joita
оказа
watoto
##amil
##ulle
ইত্যাদি
##اذ
##দার
##anut
##فاعل
festiv
##реме
enc
##tahan
российской
##ae
##어로
##해야
##ands
##рами
ram
বাই
রাখ
##68
##ён
##angka
katolik
особенно
mengambil
##지의
##াযোগ
##ুনিক
july
чисел
существует
##ej
##يج
##tei
##enin
won
млн
fail
##teiden
cerita
##78
dre
##ydessä
##ulation
puheen
yhteisk
children
pembangunan
##row
##пов
55
역시
##teli
##личие
chann
sotil
শ্রেণ
##তী
##хва
##شاف
আজ
стре
принци
pemimpin
services
##원을
##িটি
طب
قص
aud
nig
tena
дела
শক্ত
inaweza
##수를
##يرا
##اتها
june
kesäk
написа
kiwango
##sm
##wal
##wor
##ূলক
##alme
##দিকে
##batan
##cient
##istam
code
rule
guinea
##jouk
##annin
##రుపతి
చేయని
foreign
##সভা
##лиза
##sat
##enne
১৯৩
chic
issu
terl
إليه
sopim
##학적
참여
وان
وصل
##েট
좌
##unuh
##ingana
yakni
formed
বর্তমান
evidence
##гни
##udah
uusi
forms
minor
составляет
##లా
##тек
لج
jät
##ester
мини
ফুটবল
مختلفة
بلغ
##tures
aloit
##বিজ্ঞান
##రువు
pand
penc
yunani
histori
##인다
##지고
##খান
##anne
برو
عادة
##인민공화국
masalah
maailmans
##ier
##вич
##ulia
##untaan
##ческую
1960-
##اهرة
قدم
আর্
##usion
yhtä
ulkop
американ
##лла
##elis
cast
chuo
trav
успе
гражда
previous
##واج
고대
지구
von
##okone
##uneet
الظ
ketiga
produksi
##тил
يس
##eran
##ivan
الكتاب
vietnam
desember
##62
أر
학생
##ably
##вести
mata
belum
получа
محافظة
##49
33
##ottel
##gether
الماء
syntyi
বিখ্যাত
##шли
##tual
স্কুল
tyyp
##ubahan
alueen
প্রদান
##лого
enemmän
стандар
together
커
تتم
মতে
##uksiin
##рит
##وضع
정도
##ikel
##tajana
today
алекса
봉
##нда
##يين
jak
জুল
বিভ
egyp
అవుతోంది
উল্লেখযোগ্য
oy
mechan
##ственных
daripada
aks
2008,
캐
দী
##েক্ষ
cav
##ified
2007,
current
1986
نسبة
উপস্থ
সম্ভব
ancient
стороны
##)·
##hou
##шки
##ساب
চি
##ikwa
##ults
##encana
pember
##ماع
оп
обу
컴퓨터
kabla
##скольку
heinäk
yksity
대전
شهر
দিক
host
الصنا
daftar
взаимо
##াবি
mr
이때
(17
kini
الآن
##ваются
perjan
##ajar
ডিস
రెం
##viron
past
আমের
teori
##였던
##pol
fav
nota
অঞ্চলে
sebesar
canadian
##سان
아버
dra
всё
নিক
budd
পরীক্ষ
##andingan
chemical
##_3
ير
##alized
applic
##ado
##ادات
web
чер
days
records
##like
vär
сем
১৯২
belak
العصر
ইসলাম
##ору
##ويس
##শেষ
حل
rate
بالق
biasa
pemil
দ্বীপ
african
matokeo
spanish
introduced
##bar
1984
##ittain
المجم
অক্ষাংশ
elektron
পশ্চিমবঙ্গ
##제가
##মার
ат
진행
##itted
эффе
##masing
филосо
##থমিক
bra
ris
ভাই
বাড়
##군이
성공
에너
##imet
##ques
للس
받았다
nousi
terli
участ
بداية
##anyakan
huomatta
##мор
vak
ident
making
##স্প
5,
남아
이르
전통
##onsa
তুল
##arufu
tulee
adanya
##рах
최고
##াঘিম
kri
##uanya
aver
pili
initi
suara
africa
범
##회를
hy
вра
rann
البط
##ikuuta
простран
##রী
##api
##нга
초기
##self
vin
energi
perinte
##طية
##همة
##িংহ
요구
##ющее
##ালের
mungu
baadhi
দ্রাঘিম
যুক্তরাষ্ট্র
##لد
##전히
##كال
##стер
##enyewe
films
генера
##тай
##ষ্ণ
rä
시간
##usti
##ركات
harv
##okuuta
jolla
niitä
masing
সম্প্র
euroopan
কিলোমিটার
홍
وا
##ৃষ্ণ
طبي
##ottor
find
liga
test
##estyks
история
wis
ইয়
কাঠ
micr
työn
أشهر
కచ్చా
которое
käyttöön
낮
جد
##atic
##стой
মুখ
urhe
across
almost
taistel
##حا
클
##인은
##هار
syö
means
совреме
బహిరంగంగా
##69
##oo
##خرج
للك
##образ
jaka
filamu
sedikit
администра
##44
##ضي
косми
kabisa
определё
julkaistiin
حر
পো
значение
##kut
##зем
##الد
varsin
environ
misalnya
প্রাথমিক
##79
##ший
##tavat
korea
поскольку
난
인정
##عتقد
президе
electron
তর
##бира
##عمال
coll
بدأت
চিত্র
kappale
দ্রাঘিমাংশ
##ova
역할
пов
сдела
тогда
বৃদ্ধ
##oda
##ابه
будет
käyttä
##kr
##ades
semakin
যোগাযোগ
##500
##ianz
##рода
api
once
জার্মান
александ
##-3
##فية
생활
##чным
##rogen
eten
zake
##tively
##udessa
itself
received
##gin
##ким
##кта
##amia
##хода
##ূদ্র
отра
ওয়ে
москов
الإنسان
ట్రాక్టరు
##щий
bac
nur
reb
বহু
##민주주의
asil
либо
wanita
положе
miljoonaa
##أي
##িভ
##ুপ্ত
الشع
وقال
enter
##5%
##సి
##adu
fer
##вшего
транспо
##my
##ат
##sit
##ساعد
##িকায়
отли
మండలం
walaupun
##set
নেত
продолжа
రాష్ట్రం
সভ
dise
##рирова
novel
riipp
форму
##engaruh
##ror
##জীব
##älle
unders
##лых
##ссы
().
##жении
types
ограни
осущест
constant
##িরে
أل
bis
учи
ilmi
posisi
музыка
##스와
доста
ধারণা
kirkko
kilpail
впервые
##лой
বোঝ
love
minyak
ظهر
hank
scien
সম্পর্কে
울
##ysis
1946
kiasi
effect
gerakan
valittiin
##aly
##kas
##الف
##eden
##виде
gol
мет
имеют
available
##kwa
##جاه
##чная
1979
защи
periode
##pia
والص
academ
dimulai
tertentu
presidentti
##)"
pep
للن
ayah
النبي
religious
##41
##каз
##했으나
gra
моз
বাঁ
##atizo
таких
dibangun
##طور
##টিক
kuw
bola
lähe
kikuu
papua
##им
##াড
•
연합
##attu
বলেন
relat
zinaz
компо
windows
asilimia
##//
##чен
##prod
কাপ
фото
distinc
분류
emb
1982
paris
именно
организа
##пли
기능
ban
kich
бога
##unguza
behav
котором
##yör
##fiti
zin
гео
##هورية
1973
##tained
কর্তৃ
##أة
##부에
depart
voitti
located
alkuperä
followed
##ুই
##дви
##тной
ново
অথবা
grand
indic
myötä
perjanjian
##군을
##mit
##выми
নিম
hill
немец
почти
రెండు
религи
الإنجلي
পরিবর্তন
케
##명이
##вед
зву
teor
الإد
badan
keber
cities
الخاصة
আধুনিক
economy
##ورد
بغ
##idia
1941
seni
বস্ত
melawan
##లంగ
##isenä
digital
perubahan
ап
관한
beb
tekem
стала
typically
##ipe
##تهم
##নাম
lost
vaat
wood
внеш
الرا
النس
duniani
##وما
##াইড
hon
чле
него
imper
الحديث
উৎস
срав
kuoli
различных
##갔다
##ense
##сона
##াত্ম
##িনীর
uang
النو
approxim
##uja
##тру
##الك
ني
ens
قائ
ilman
mountain
associated
##حص
##ৃহ
##اير
بك
##usal
توجد
كذلك
##ichael
kerja
이미
##field
1985
nimi
يعتبر
dalili
সমূদ্র
protein
압
주민
গঠন
##ulaya
архи
##원이
##irim
важ
panas
philos
возник
своего
##jata
##ئيسي
##صرية
##াণ্ড
gag
haw
పల్ల
పెద్ద
angkatan
প্রতিযোগ
##تون
حك
لق
жен
##సంధాన
office
##тельный
అనుసంధాన
##erd
##kat
##тых
1000
влади
популяр
##বন
##সন
##дия
##anted
##ান্তর
والك
##ken
##рию
##шёл
مار
##లంగాణ
##ivo
az
две
بيت
معد
sosia
সাহায
transl
развития
##neet
##ختلف
big
##isellä
##ination
получил
##কো
##eff
aliy
kari
size
الأص
журна
جامعة
##тельное
kaisar
##شل
혹
##구려
element
##روب
160
ряд
فقال
ক্ষম
includes
##ece
##ган
আশ
##евра
##ষ্টা
وصف
моло
خارج
olleet
పోతున్నాయి
##трен
##aguzi
kend
##ikassa
##ческом
division
떠
##kul
##েত্র
deep
منهم
synty
kertaa
##teja
vita
##antung
##isille
##negara
характери
##anch
долж
hatari
produk
influence
##ml
##yhte
kla
mto
sas
않았
hup
осе
##board
suoj
##্যাম্প
saman
keskit
కేంద్రంలో
##–20
فن
일으
##াবার
মুহ
##istik
##سكرية
wany
sultan
consist
##tyvät
экспери
##ht
먹
лё
각각
##öitä
meet
един
ajili
দীর্ঘ
помощью
الاتحاد
association
##83
pir
zil
الأب
tujuan
построе
perkembangan
##93
##ేజ
##вин
##افي
1975
দলের
যেতে
##nin
##yan
##нет
인터
##aged
أقل
know
গড়ে
중심으로
project
##르트
##اعت
##engo
##াঙ্গ
##্রিক
##льную
##скими
neut
zote
##ন্ত্রণ
legal
উদ্দেশ
nigeria
এছাড়াও
teknologi
##tod
kak
وإن
perh
يظهر
تعتبر
##pp
##سيس
##طيع
##وجه
للد
##atifu
филь
ikiwa
ground
облада
serikali
##://
분야
않은
peg
pang
compet
makanan
bangunan
##وغ
##와의
##ems
##tih
##lies
уче
supp
الأف
##argaan
despite
magharibi
##عضاء
sid
##light
banj
আত্ম
mfano
##ారెడ్డి
النظام
الغربية
olemassa
الأمريكية
##77
ছে
##نيسة
saw
##льном
заня
cases
rendah
빠
##нси
ce
avo
##yksen
gamb
أصبحت
francis
kematian
##간의
##당의
##াগর
spir
истории
অঞ্চলের
চট্টগ্রাম
tarkoittaa
##55
##нам
설명
##play
بقي
##aking
##engah
1981
rusia
nation
সঙ্গীত
را
지도
##gress
إحدى
العب
2011.
февра
sesuai
##ям
##uble
10.
عنه
##fuata
alka
##istiwa
##льными
value
кисло
singap
대신
##inne
##ouse
пти
1974
oman
করলে
الألم
##järjestelm
fut
via
##allan
1939
died
외교
##olin
##oopp
أحمد
edusk
جديدة
দেয়া
কলকাতা
awalnya
##вёр
##شاط
ألم
##iatan
деся
вариа
তিনটি
الموسي
limited
##ysi
기본
태어
##aste
##кции
##افية
yan
wall
маши
johon
الأرد
invest
##43
##org
##tir
##uch
جدا
عالم
##islamu
revol
желез
muhamm
встреча
required
떨
##mos
জু
أجل
##точно
asal
kent
increased
представле
##학과
헌법
##того
##istus
মাসে
omina
থেকেই
মুসলিম
아래
##ريبة
##াবাহ
роль
নামের
##사의
##ceed
##unced
##action
فرنسا
участи
##체의
##arv
##ждё
사상
##াবাদ
متر
tiba
yeye
رب
아들
지금
##ours
prib
لذلك
ఇద్ద
ছাড়া
nature
власти
বিরুদ্ধে
##임을
##مية
##ుంట
##oted
##фици
bord
hilo
piti
teks
হলেও
teoks
తెలంగాణ
britania
600
أمري
2005,
joten
పారుదల
paikall
kekuatan
reported
##82
견
##рок
zi
عض
каза
людей
puolueen
##১৮
##지에
7.
##cast
haj
säil
yote
kuanz
الشخص
source
yhdessä
yr
فل
penj
peter
style
বিমান
##-,
##جال
##يرات
সাং
কম্প
языке
consider
##var
##ভাষ
임시
##ومية
нор
оце
আসে
camb
klub
smith
peruste
##nä
##부는
##king
hyp
নিজের
##ability
washing
##ols
##امج
обна
ఒకరు
##ishing
words
asukka
ఇద్దరు
خص
وظ
##ipal
duk
##intang
চেয়ে
cultural
struktur
##72
##uut
##emok
లేని
연방
syr
##adang
الرح
بواس
রায়
##akseen
##isaran
отсут
global
membawa
않는
##ianza
##umiwa
##нений
tamb
##ungkan
offer
##iptakan
العراق
kibantu
##라이
##oun
##قبل
##هدف
##десь
##িতার
সিন
రామ
bara
##empuan
mwili
##ческими
network
বৈশিষ্ট
##91
##ادل
##هاز
##itiz
anno
##impiade
mukana
tavoit
বিদ্যালয়
##sch
##etus
##ettua
bora
المل
diter
করতেন
saanut
binadamu
rh
অস
##kään
кня
##োয়াড়
molek
neljä
пример
himself
characters
전국
##zima
##ొట్ట
tex
ака
пря
సర్
نظرية
##даря
##বন্ধ
vap
يحت
##imana
##мость
soit
particularly
뿐
##리고
##어가
##cal
##راع
##عيش
пси
جاء
группа
августа
puheenjoh
##طرة
##outh
fla
motor
নির্মিত
referred
##ورج
어떤
##ikkö
##kota
##тные
ব্যক্ত
richard
##isuudessa
##»)
##ede
##قرا
با
коми
উৎপাদ
первой
##সূ
##ুণ
빈
##бро
실시
1944
2006,
functions
##문을
##طات
বু
물질
##tiön
lew
типа
pekee
##조선
##মের
##atra
##inan
##pret
чёр
asam
দেবী
లోనూ
проду
объеди
industry
##("
##81
격
와
그것
##ekuwa
##kongo
clas
sand
সম্ম
asili
harjoit
প্রতিষ্ঠিত
penghargaan
##ux
##ৌশ
##нин
##шим
##পার
##evan
foc
суб
فال
kyse
পরিণ
ialah
오늘
##umin
био
##দিষ্ট
الخام
القلب
requir
الأمير
italian
направле
washington
식민
неф
عدم
отноше
##can
md
##otaan
doll
uses
شركة
pitää
কোম্প
প্রশাস
سبيل
исклю
খেলোয়াড়
##른다
##ৃত্ব
ويت
고구려
taken
##ственного
relationship
##ارع
##oint
##otes
لكل
##lukan
seks
непо
মসজি
##ership
legisl
muutam
defined
##عرف
##نائ
mampu
saint
suhte
##isional
##erbitkan
familia
##회는
##ект
##ائق
##واة
এতে
perp
##త్తులు
jabatan
aircraft
##ched
##ستان
##োচ্চ
muka
raut
##alaman
মার্চ
многих
sebanyak
훈
##زمة
##طلح
##ীরে
ark
cam
##apkan
##asion
جديد
maria
الشعب
##lö
##шую
물리
1976
القد
matibabu
##فو
bon
achi
hapa
jers
সন্ত
liikk
আক্রম
সম্পাদ
الفرنسي
personal
rac
المز
##lament
##urunan
##رخ
##вно
ec
لو
##agan
زوج
عرض
স্ম
myön
الحج
theor
meaning
الإسلامية
##63
##лий
증가
학교
##utes
rik
##ector
gaya
memas
января
kekaisaran
hallituksen
##key
개념
##yttö
hil
##고등학교
##менты
دولة
здесь
পরিবেশ
penerbangan
##oki
##িলা
fal
لهم
enää
##лирова
concern
##ttp
##бом
جعل
##antas
##erang
худо
институ
julkaisi
olimpiade
##нью
지지
##avia
molec
action
thought
technology
##iro
شع
هن
##onic
nap
للا
kaar
بالع
arvost
##హెక్టార్లలో
independent
##제는
##ضمن
##فاة
собы
রাজা
basic
народ
kulingana
##asu
37
되는
##hana
nat
ransk
larger
multip
компью
팔
##원의
##uhi
##رفة
অল
##sial
##رابط
слово
kokona
perempuan
##이가
##мая
##ابي
등장
발달
##াব্য
lem
critic
প্রচলিত
বিশ্বের
environment
##원은
여기
##akit
зая
বের
##ograf
amba
pian
الآخر
সীমান
kipindi
lingkungan
##еры
كث
##емые
দিল
стать
основе
kampuni
الجزيرة
bergabung
##кви
##ومي
এম
##eing
సర్వ
때문이다
päätö
schol
michael
внутрен
государства
〈
##сни
##-4
##োভ
##elas
est
ولد
##aston
achiev
بواسطة
নির্দেশ
neuvostoliiton
##ню
##আই
변화
상황
coal
lina
viol
тысяч
ingawa
thomas
provide
mendirikan
##-5
##jib
##োর্ড
##aknya
alat
القب
المخ
নদীর
프로그램
##udesta
diffic
kiniger
catholic
kegiatan
রাজনৈতিক
##»،
##сф
##آن
спу
сту
স্ন
##iding
##tahun
kuat
tans
механи
поверх
chicago
nations
##زن
##udu
##west
##yllä
##akter
1961
1983
argu
الرس
##eption
cause
maana
الطاقة
##فظ
##냈다
бер
সুর
##udara
подго
المركز
creation
рассматри
##정한
##rom
##год
기반
кру
alit
secret
nimellä
perdana
সাম্রাজ
##وبية
أمر
##onstr
bomb
রক্ত
##kaup
##нирова
emerg
datang
##ريل
выс
공화국
##uneen
##onekana
আবিষ্ক
perjalan
therefore
##fs
##оз
망
##leh
##med
##яза
##inus
##osen
##amani
##anded
##ilija
##nessä
##unnat
1972
hawa
##чества
2009,
ইংরেজি
mengatakan
##부를
##рко
영토
##year
كال
1978
kimat
käytänn
##nim
##rot
##зяй
##عدد
إق
هد
وين
fact
prin
trib
##жности
blood
অর্থাৎ
aiemmin
britain
సర్వీసు
происходит
태양
لدى
오스트
##umkan
##ainkan
##atikana
kuliko
بالنسبة
increasing
##২০
##ize
ic
1977
juut
##elling
kimia
whose
района
কয়েকটি
##кам
hai
lää
##uhnya
grup
hapo
story
perfor
иногда
মৃত্যু
hallinn
##%)
آن
정보
##র্তি
pay
изо
matk
pengg
mathem
football
tunnettu
сентября
##тря
ji
وغ
লেখা
basis
подоб
начала
germany
mengine
puolestaan
##66
##jal
##وقف
아닌
##رحلة
sip
##indah
minkä
ranskan
##상의
6,
تخ
تل
##liit
##ning
##дель
dag
কাহ
nämä
acara
имени
كانوا
دم
##isis
##unsa
120
hig
dini
surv
профе
access
ambazo
physical
настоящее
##구는
##물을
바이
통합
##futa
##рует
##ধর্ম
##uivat
clos
piet
السب
häntä
##ক্রান্ত
kufanya
الخلايا
majority
practice
благодаря
터
##пле
8.
연결
mex
শুধ
##ettel
##isistä
крити
другой
nykyisin
শে
##ores
##saan
luc
يون
##ishio
##produksi
penulis
функции
الميلاد
successful
##هام
##তায়
hud
ion
saf
kamb
luok
tall
조선민주주의
kulttuur
wanaoishi
##지로
##afr
##ميم
##мест
##কদের
##রণের
loss
##ন্ত্রী
depan
допол
joseph
পরবর্তীতে
묘
হাত
##восто
##логия
maks
shar
акаде
yhtyeen
software
##ودي
##وسي
제공
제외
##щего
বিজ
الحق
armei
awali
night
الوسطى
последова
yhteydessä
폴
%.
##муще
lip
рез
موا
1967
usawa
اليون
октября
궁
##rew
##ябре
بسي
আরো
1964
fire
পরিষ
##가는
##رير
##ప్ప
др
حياته
##zek
##امن
##–18
веке
যিনি
cepat
related
##బి
동시에
1963
1969
laki
bound
front
расши
alkaen
পরিমাণ
##ــ
##మై
##aal
##tar
전자
##atat
##mann
##র্গত
##ensus
hava
يقول
akiwa
##anjutnya
nje
väk
تمت
যৌন
kats
sala
مناط
teoll
оконча
প্রত্য
jaringan
beginning
##تش
##جوم
##ائلة
кур
rout
الوا
raken
kebanyakan
##71
##мей
మి
##ites
##послед
الساد
kerran
францу
allowed
hallitus
##스로
##인을
##лле
চৌ
##hest
avi
мире
المه
وعند
metsä
ratka
##정희
##اهر
출신
мая
শ্র
beat
পাঁচ
##uments
clear
থাকেন
##andishi
##вляется
commonly
eventually
##(19
##omos
حدي
minim
takia
одного
এশ
##мень
أعل
##engen
##ingia
tätä
cover
সর্বোচ্চ
رم
##ombe
##text
نهر
দূর
ettei
shule
yaani
দেশের
##empuran
average
중화
fri
daya
mfumo
quant
المعل
##dis
##jam
أج
##kien
##ynyt
siv
мир
##urity
anat
mari
نسمة
возра
channel
diberikan
##도에
##kiä
의한
مبا
aino
gain
мень
перво
calcul
추진
##koja
##rain
##ukua
flu
1949
##epatan
مناطق
##agangan
nykyään
produce
festival
regional
맡
##дко
ek
খান
##рение
2000,
muziki
отлича
##مت
놓
머
업
##었고
34
##head
##куль
##лами
পৌর
kaupp
siinä
teach
##ibatkan
parliam
##fan
##шла
మూ
혹은
##hell
##omba
##iting
1968
kutsu
length
крупней
పోతోంది
provided
свойства
selanjutnya
##rof
##udul
##্লাহ
있다고
louis
saakka
течение
##sek
ог
바로
후보
##слав
bib
ото
1965
импе
فكان
ambaye
joutui
necess
##شة
##슬람
##etic
##opia
##طلاق
сол
##uther
бере
حركة
jamii
lahir
menuju
##eluarkan
luonnon
columbia
february
붙
64
দৈ
작은
##ريات
##ously
التأ
ortod
centre
относя
players
принима
##বর
##선을
떨어
##했지만
jur
شرق
magn
##isions
##itteli
bakar
kahden
красно
kupitia
features
##구의
فوق
নেই
ఇలా
오늘날
##eleng
##স্থান
pall
sens
##istrik
studi
tutki
outside
regular
katoliki
##াবা
ফিল
##oihin
جانب
রচিত
##ড়িয়ে
المدن
events
ব্যান্ড
perdagangan
##과는
##تبة
لدي
وتت
##ходят
efek
трёх
##ambuki
##ittäin
కిందికి
##eur
##pen
аф
##istry
গেছে
##järven
ditulis
العلماء
belakang
ulkopuol
##서를
تؤ
উভ
##avyo
##innä
##last
##ানার
kone
menet
speed
إليها
##ведение
##61
##lia
##েনের
1958
الأغ
##uttiin
##руется
johann
martin
প্রবাহ
предприя
প্রয়োজন
상대
##atti
##ному
bob
1962
täys
might
వ్యాస
remained
##avu
##zuri
ase
##нских
1971
huru
##selves
fulani
manner
상당
##asif
##atas
приро
البشر
##impinan
##ministeri
problems
##alik
##tage
jäi
##fanya
##тного
länsi
대한민국의
waishio
convention
##어의
##лев
##писы
نشر
কখন
1966
vars
اللي
taman
##okuussa
находится
##زو
##erit
রোগ
사이에
##inggi
кана
време
إنتاج
##-17
##eja
jus
chan
مجال
##aransa
المرك
الإمام
shirika
большинство
##소를
건설
스페
통일
##ায়ন
عرف
##uskan
بالح
والث
##ennäkö
поста
রাজ্য
смерти
kirjall
স্থানীয়
##iff
##мия
اع
بس
##etun
назна
##unnassa
recent
historian
능
##전을
##াশি
##tava
이름을
##imman
позд
aktiv
milik
الوطني
changes
##73
##apun
##asem
##онов
upo
##خابات
able
##off
##وفر
##держ
বাণ
미국의
الكب
##rought
##িকভাবে
##োপাধ্য
tangan
classif
private
wanyama
pertandingan
##ثيل
##طلب
вет
অপর
সংগঠ
войска
parliament
##opo
##tys
##тый
اج
부산
##otti
##ataan
1947
alun
russ
##engkap
ve
مك
gab
ост
kuno
##ground
katso
conservat
গভ
##ster
##impia
merah
декабря
pertempuran
##رش
##이사
##سمي
##كثر
구분
기타
##imer
putra
warga
sekali
walikuwa
parlament
##%.
بف
полови
determin
предложе
##oba
##কুম
##প্ট
##র্ধ
##자들은
##вить
bow
carl
режи
kupata
проводи
##ভূত
##–200
haya
sakit
العشرين
construction
;
눈
(5
base
serb
الخلي
whether
##장은
##치를
##%),
##vil
##»).
##чей
##رعة
##ামা
7,
기후
이런
##ured
박정희
##erson
ques
subs
##там
##resp
##ведё
선출
지나
##시켰다
##ales
##ovin
ছিলো
রচনা
months
просто
математи
##cel
##ظام
##نيف
ফল
mix
tax
смы
cust
kind
대부분의
##andung
##드는
##حيث
নভ
রঙ
##onto
##osto
dat
이슬람
##anyol
##ganti
ilma
##ensive
стало
বিষয়ে
appeared
informasi
berikutnya
##لز
##상이
##ৃত্ত
aluksi
growth
leading
commission
몸
##jah
##oid
##tis
##ريم
##되면서
низ
সমস
##lands
голо
##чением
magaz
yhden
تأثير
পরিণত
points
voivat
القانون
అనుసంధానమై
선언
mta
wata
النق
units
##elitian
extens
##ственной
응
##щую
##কটি
##াসি
##জন্ম
xix
최초의
##itude
##entang
nomor
кораб
неболь
dibanding
칼
##сных
(16
خاص
##aniki
aiko
umat
уста
gramm
разде
mwisho
pantai
poikke
##например
käytetty
minister
uudelleen
temperature
##대에
##성은
##ثلة
##صال
##ডিও
##বিধ
##يدرو
oce
све
июня
artic
ঘোষণা
studies
##(,
##eam
##تبط
##роди
cho
رأس
bron
rata
sisi
2010,
yesus
siellä
영화
##iles
##teri
##ناعة
глу
##enced
##বাজার
come
kier
##ొట్టపు
abdul
effor
kebij
مختلف
বছরের
living
##öll
##рон
##েবল
비교
아랍
كأس
##াকায়
prior
compos
player
suorit
taloud
##isuuteen
الحرارة
##িৎ
##호를
##برى
ইর
pic
نقل
##jassa
марта
interpret
independence
##gia
##ift
찾아
##이었던
##تمبر
يجب
##atory
##ekaan
##надле
portug
particip
రోడ్డుతో
peristiwa
##েনে
##ادرة
тот
conduc
অন্তর্ভ
permukaan
themselves
##риф
##thod
##নীতি
тол
চিক
##ম্যান
marx
nilai
إضافة
ongelm
апреля
philosoph
##kka
임명
##емый
محد
algor
becom
warna
الاحت
শক্তি
maarufu
независи
밖
##학을
##회가
##তের
국내
##راعة
дво
জুন
##uussa
lämp
saap
##usalem
الجسم
melihat
subsequ
##что
##গ্ন
##ingu
##ريبا
শাহ
citiz
father
kijiji
believed
karakter
পরিচালিত
revolution
##ুঁ
##عاد
##াসী
주의
##aign
##обре
iso
sig
##ettav
##organ
koos
مارس
বর্গ
아프리카
##anjung
публи
financ
развитие
##تن
##тая
##حيط
##umbo
ask
알려져
##ukses
chak
অধিক
laske
mkubwa
##됐다
##جيل
##kiin
##siin
##uvan
rej
কবি
##iment
##istyö
##öiden
kään
##্রিয়া
kunin
medan
policy
প্রমাণ
organization
##교육
특징
##unzi
##يناء
##abila
##anies
##urnal
week
июля
##.”
##كيل
##িশন
##вили
শিশ
mwana
tapahtum
##мно
개의
교통
올림
##ক্ষম
##ట్టి
cup
তাপ
проек
হ্যার
sijaan
الكبير
المواد
britann
started
употреб
biashara
보통
للق
মাই
##usaha
defe
boeing
начина
effects
применя
##체가
##ahi
##tenä
##тить
loh
сра
dipl
kuta
rais
site
##istaan
below
видов
venälä
membantu
pengaruh
основном
অন্তর্ভুক্ত
##দা
##iks
ды
##yhtiö
##িয়াল
terve
widely
аппара
первые
النبات
station
examples
##사는
##시의
##ريس
하며
لما
##ريقيا
пози
kitab
yhteis
несколь
తిరుపతి
принадле
##পি
##হত
##্ঞ
##ళ్
##-18
##тка
cc
##ర్తి
amm
aset
العد
rules
sifat
techni
##maa
##ريت
##طاق
##ষ্টি
##্যাগ
وتح
يول
الوح
##angsung
kantor
keskus
liberal
surface
##스템
##rac
##وائل
text
henry
valko
إسرائيل
champion
ortodoks
المختلفة
##fur
##hoa
##mes
তৎ
가진
##hara
##omer
##zazi
##াজিক
##ানোর
بير
يعد
phot
##ваться
close
গবেষণা
공동
mig
وسط
puna
dewan
jarak
muoto
nobel
نموذج
চরিত্র
##اتي
##مبر
##ming
##ওয়ে
jend
##ibuted
ويمكن
kuului
primary
menemukan
##viä
cm
دار
অস্ত
##undang
оборо
সমর্থ
일반적으로
counter
increase
특별
##utuu
eriko
женщи
البعض
القوات
companies
performan
##mod
개혁
브라
##iltä
800
##যুদ্ধ
beng
rank
фина
বর্ণনা
взаимодей
##лью
##цей
##اهد
##ায়ক
cip
сан
কিং
##ratic
يقوم
##aleissa
##ilities
контро
territory
perjalanan
##58
л
##장에
اس
##цами
عصر
hoit
земли
##대가
syd
খাল
##ellow
##imate
pääs
self
تسمى
##asivat
seven
ziliz
penyakit
##톨릭
##gara
##rata
cut
ess
ibm
nit
역할을
##gerak
elämä
siten
техно
происхо
##кса
شب
##ovan
hip
টেল
##ৃতীয়
link
mall
мета
##umpang
милли
نتيجة
improv
jersey
интере
spanyol
microsof
penelitian
مغ
##식으로
##выше
حصل
وتع
নগর
1956
sudan
বিদ্য
রাজধান
working
campaign
##udet
##чное
ush
শির
##вался
##utusan
2005.
regul
##зь
ged
бук
род
##asema
##প্রিল
1800-
الشرقية
designed
programm
(3
##وجود
##ويلة
ala
##uries
went
يعرف
ruang
المقد
христи
terbaik
muhammad
uchaguzi
42
보내
##ктор
##труд
সংঘ
##imaan
alku
জানা
conver
kappal
samana
المثال
kolmann
komputer
pengembangan
##":
##mag
##шем
##iriwa
##باراة
أمام
2004,
tiete
##onyesha
mengikuti
практически
믿
세력
##рица
apa
فهي
yesu
العق
##التالي
##ilainen
concentr
땅
##miä
##هاب
##ন্স
있을
전문
##ando
nyk
##erian
petr
кали
উপাদ
মাঝে
berupa
implement
##대는
##ahr
##сей
##فاق
##াবল
ml
مز
lep
rav
воды
проя
বিবে
реали
##ibution
always
sitten
kehitys
interest
−
##jet
##rak
##лья
##нде
##টেড
##сной
##టులో
بلاد
يناير
ভাষার
maassa
dirinya
nuclear
дальней
প্রতিষ্ঠান
##자인
자기
##িক্স
##েব্র
শিব
ansi
lamb
মানব
##ulauan
kunta
moved
ভারতে
##tamalla
selalu
operasi
##ellisesti
##গা
##관을
смо
وتق
وجد
putih
methods
প্রশাসনিক
곧
##alb
##enz
##elly
##пыта
تعد
##ikkaa
##istot
deal
тела
##চন্দ্র
sepak
settl
ulaya
##هتم
spes
توفي
বঙ্গ
시작했다
##tyivät
الإلكتر
##جب
숙
##edy
##tics
##দর্শন
step
lähel
الرابع
تستخدم
keadaan
lähinnä
##ানী
sev
sula
##abuhan
##смотря
গবেষণ
##tamanya
কর্তৃক
##ingkatan
distrik
##ар
##شق
##كد
##اكم
##خفض
##вшей
dah
hau
nas
neno
золо
коло
##bahasa
организации
부족
hayo
news
##жность
saivat
سبتمبر
siirtyi
##56
니
##ipa
##كور
##laki
লাল
board
usaha
পারেন
caused
onnist
возвра
মাধ্যম
##последствии
##hen
##kes
##uck
##سطس
그를
##hall
হ্র
##oston
lack
proy
kuong
uwezo
##тельным
ax
সৈ
기간
##evät
##zech
##пере
##egang
talv
নেয়
nguvu
республики
জগ
유대
##usun
ton
ска
حرب
مون
নেন
موقع
يبلغ
chief
garis
находя
произо
classical
느
##elt
##sis
يص
##anak
ита
##based
kaks
dinam
##allisen
##образова
takaisin
잠
##زيز
##ড়ক
##মিত
##্যো
48
##ৃতির
(15
sop
대학교
хоро
অক্ট
perhe
plant
habari
concept
greater
populer
الجديدة
полностью
##.).
##وام
##املة
##kitab
1943
leav
##estaru
melip
##engahan
longer
##ambarkan
الكيميا
পঞ্চায়ে
##zuia
##جزاء
mew
sok
نوف
##дения
paav
zhou
heart
закон
elämän
served
##lle
##щей
##تبع
عد
يب
##inin
vii
##orong
армии
مستوى
француз
##িখ
আপ
##حداث
too
সদর
коне
меся
указа
الأسود
ভূমিকা
멸
pt
정권
room
কেবল
earlier
несмотря
федерации
달리
두고
stab
syyt
asian
стран
assemb
##ственный
listrik
tanaman
космонав
kepulauan
##اعة
##apur
dike
기준으로
##ercial
##ohjelm
брита
السيا
عبارة
##alaista
##umumkan
систем
##ou
##관이
##ihi
##kko
##ارا
시민
пути
occup
psych
varha
পুত্র
aikais
এপ্রিল
subject
الشمالية
##오는
##рую
##طبي
아르
##장으로
ndi
কাম
kisah
##ственные
commercial
##집트
##сад
గు
마지
##한다는
হাস
away
terg
стату
##برز
##inga
##ссии
mau
born
водо
реки
обяза
ইংরেজ
##allista
volume
results
serangan
얼
##업을
##ীতি
аэ
시절
##인들이
##하는데
##leks
häv
##anywa
##istön
olev
syks
край
بذلك
##براهيم
menjel
angeles
menolak
অ্যান্ড
пользова
conditions
##রত
##이를
##100
anc
happ
отпра
väestö
##캠퍼
ار
이야
экс
있다는
تبدأ
ইন্ড
##icient
ndege
السود
karier
teknik
التاسع
markkin
committe
kirjoitti
##েজ
##스크
##지역
##бри
##বের
جن
##седа
рам
##edaan
1942
idea
أعلى
msingi
يستخدم
আক্রমণ
নামকরণ
##utettiin
sosiaal
множество
বৈশিষ্ট্য
##قص
·
##тво
##راز
더욱
##iaya
##ويات
lav
nuk
emas
maxim
tällö
occurr
ireland
##tiä
##кли
##ৌশল
##носи
abu
كيل
সমালো
vanhem
varten
milioni
students
pertengahan
yhdysvalloissa
##머니
##치는
##자들이
##সময়
صحي
غرب
فهو
لتح
##oksia
авиа
agung
highest
tällöin
নেতৃত্ব
অন্তর্গত
perusteella
##ংগ
মো
예술
##cher
রেক
##স্ট্র
1959
drug
mati
وبال
বন্দ
cells
nyimbo
الدولي
brought
writing
asukasta
##রায়
tay
bali
mich
terc
والخ
величи
данных
vaihtel
наблюда
pidetään
yhteensä
맥
##년의
##종의
##epo
##ovu
##ాల్
예를
종류
##нети
##нтра
سطح
নিম্ন
hitler
berjudul
##되며
##don
এস
##oton
ham
পেশ
বংশ
grav
eight
позже
порту
وهناك
##respond
begitu
স্থানে
kutsutaan
pelabuhan
##olo
##кар
يف
##ivyo
##ented
kohd
prep
الدي
##tapkan
added
keseh
parha
queen
পুরাণ
memory
опубли
##hl
##شع
##호는
##obi
##вов
##ناة
##ulta
1957
ilit
pois
التد
##вались
mesir
title
الشكل
##ference
proyek
الكهرب
vallank
значения
అనంతపురం
kilometriä
##مع
##erse
##yssä
jac
rod
umri
tehty
техни
সিদ্ধ
regions
الحديثة
antaranya
называется
##연구
##ماس
pc
уч
##원으로
##пасно
integ
todennäkö
প্রতিষ্ঠা
##কশ
흔
##이트
##ابن
정당
##했는데
mif
일본의
جورج
রেখে
destr
прото
pendek
পদ্ধতি
##59
##usa
##ুরী
##emia
##бора
بول
جيش
উঠে
কাছ
জাহ
##tämät
mayor
sella
urban
сопро
বৃহত্ত
muodost
sources
চলচ্চিত্রে
##সহ
넓
##iew
##وزي
ио
집합
hop
буд
ফুল
vaike
##alahkan
awards
mostly
sisäll
sumatra
область
authority
옥
##или
##হ্ন
환경
후에
##huri
##্রাম
170
##عودية
etel
##ampuan
##andang
радио
reason
schools
vaikutus
германии
অনুষ্ঠিত
производи
퍼
##سمبر
이들은
##estin
##orary
inti
path
temb
поля
السف
العض
##aminen
##телями
ketua
النوع
contains
originally
##én
##্ণ
##him
##зей
수립
##itin
##েন্ড
نيو
গাছ
المط
বলতে
names
##inkerta
stated
отмеча
السياسية
##ذب
##ahm
##чил
9.
##oitu
নাগ
위하여
agric
الحركة
ముగ్గు
congress
multiple
الإسلامي
ujerumani
historical
##బీ
##식의
إل
표준
##aper
##mään
##ётся
кам
제국의
hyöd
punc
niistä
выделя
европей
pressure
tionghoa
впоследствии
approximately
##ен
হর
##atus
##olis
оте
1938
الزي
শহরে
1950-
varia
ফেব্র
বাণিজ
##tamista
poland
ముగ్గురు
##사로
flo
ঘটনা
శ్రీ
##чности
joukk
mengk
tästä
indian
термин
الأكثر
السابق
jälleen
utafiti
التعليم
directly
definition
엄
인물
ква
হাট
가톨릭
마지막
очере
وغيرها
региона
মুহাম্ম
kebijakan
kesehatan
tradisional
##িগ
##lec
점령
##이기도
##cing
##поли
##لسلة
там
أدى
##బాటులో
banjar
integr
الداخل
replaced
##poh
##كات
지리
##high
রেল
الفن
menik
meter
массо
##ковский
smaller
అందుబాటులో
블
##دان
রো
##emat
##odha
##ulun
ভাল
мона
своё
بأنه
##aranya
heavy
piala
губер
ihmisen
المملكة
meliputi
##체를
ули
بني
1900
reli
timu
الإنت
معركة
చెరకు
keluar
tunnetu
products
membangun
##mpi
häm
nic
##jalla
##ointi
asli
##isilla
صغيرة
magnet
మొత్తం
lopulla
opiskeli
proposed
kö
৪৮
실험
##البا
##طفال
##ঙ্গল
lee
등으로
mitä
الجد
czech
движения
##교회
##의를
##mel
##سون
명칭
불교
##아시아
hug
이집트
ভাবে
చెరువు
কলকাতার
নির্দিষ্ট
##들도
##indo
veh
فتح
##tuvat
геро
чего
spishi
англий
##julikana
etenkin
memberi
##cha
##িপি
قط
유전
##tyks
গুল
##함으로써
##tänyt
أساس
نادي
পরিস
যারা
remov
##utuskan
প্রবেশ
billion
kuuluvat
mendukung
##53
##나다
##pel
##laim
##oken
fas
mam
##вшиеся
bantu
categ
logam
##eration
huolim
microsoft
pemilihan
##계의
##new
lan
руб
تنت
поле
অঙ্গ
##enarnya
yhtenä
numerous
установле
الحيوانات
correspond
##yar
##лют
##غات
구역
##pres
##tari
ويق
##alled
##iliar
дома
##joiden
block
القدم
##asiassa
toisin
separate
berlangsung
##사에
##ুটি
39
৫২
개최
공간
혁명
올림픽
регу
যাতে
future
respec
ноября
##ungkinan
степени
##াও
##마다
##keä
##rid
##syn
##পতি
##র্জ
거주
##ائرة
##توبر
tup
##iling
##uttua
##чными
fair
osuus
työsk
المصري
seitsem
tyypill
##এন
##san
##দেব
1-
cov
정부는
acqu
huon
kump
сель
হাতে
##ইন
핀
##린다
##гия
##امت
##াপক
vif
нет
أصل
হাই
##lawan
mche
শাসন
##никами
brown
suuren
أكتوبر
তৃতীয়
berubah
percent
väestön
বিশ্বাস
색
##вей
##сою
##ীনে
남북
##comp
бло
##amini
##ستخدم
hong
ফিরে
আয়তন
kiingereza
meninggalkan
##특별
##sta
##кру
강화
rub
мощ
##iform
تطور
2011,
menarik
behavior
##ধি
44
##дами
##سلوب
bos
цар
رقم
للج
1954
hosp
kosk
trop
usia
##asiswa
accep
villa
romawi
অংশগ্রহণ
낙
##ned
##روفة
##لسفة
##iriki
близ
الوز
tubuh
berakhir
complete
japanese
সম্পূর্ণ
సౌకర్యాలున్నాయి
##식이
##top
зе
주변
##jaya
##odia
12.
ساب
ahli
##attiin
archit
влияние
রাজধানী
программ
##ংক
##uel
##icho
##umbe
روا
##ющими
chile
pener
ألمانيا
recorded
toiminta
가까
##okon
##paik
حدث
##город
bell
kesel
colomb
gedung
первым
المصرية
christmas
diketahui
operations
골
##렇게
##주는
##pat
##сер
##шло
eu
оно
##ading
##ahaya
lään
papa
metriä
পঞ্চায়েত
##জে
곡
##과학
통치
##voim
##wake
gor
вид
이것은
##istit
gave
ohja
২০০৮
ingin
multi
todell
раство
involved
традицио
الفرنسية
##54
##스타
##াপন
최근
##ajat
##aduni
##isari
учре
প্রভ
elimu
lines
заклю
العرا
والده
الكامل
jamhuri
kondisi
mathemat
##এম
혈
##jät
##روس
আও
방송
비슷
bbc
বাক
##icans
##teria
lisä
الشم
বায়
ఇక్క
olahr
native
বৃদ্ধি
adopted
kalangan
transform
##국가
##idae
##жные
##ابعة
##alleng
berat
поряд
الجزء
ارتفاع
الجديد
نوفمبر
lembaga
mwingine
##تا
##eke
##гля
##тые
##قاء
##utup
##atuan
alif
веро
harga
অবশ্য
neljän
понима
document
겨
될
##uin
##жей
##лам
##сред
##ান্দ
시스템
وبين
পূর্ণ
dirilis
transfer
программы
المعلومات
sebenarnya
##కొ
##তেন
이해
##aana
##lying
борь
রেকর্ড
memilih
menjabat
##ইং
##이어
##ebar
##ার্স
эпо
##торов
1955
##alahan
##istics
employ
olympi
uskonn
الثورة
##puolella
поддерж
permainan
##বহ
흥
##حاء
##ليف
صف
ভে
রহ
শর
알바
##িনের
نصف
লাই
##ready
cred
الأر
مايو
রক্ষ
factor
jewish
ديسمبر
অক্টোব
ধর্মীয়
returned
announced
움
bol
dog
anth
linn
الشب
tälla
croatia
португа
properties
##57
##국이
##ipi
##try
пле
##стоит
1936
pinta
পেয়ে
variety
উপস্থিত
##tax
##جان
받은
출판
##вшая
eaa
turk
##erjaan
2006.
stone
জুলাই
сохрани
security
##্ফ
휴
##inu
##بدو
##بيض
##বির
অত
과거
영어
жан
##vuoti
пода
قامت
দিতে
johti
lento
украи
مساحة
##বীন্দ্র
момент
اليهود
contemp
internal
huolimatta
##ьё
##위에
##সুম
##మ్మ
8,
কণ
문학
번역
##asik
##لمان
##ত্তি
11.
nik
viit
النب
##anches
kasus
ships
kanada
медици
ঐতিহাস
##ственное
lopussa
##amezaliwa
##భి
긴
늘
##нев
##рин
##цер
##tric
##سكري
বাজ
##لسطين
otti
pohj
stars
surve
titik
##влением
formal
العصور
2-
그래
##كوين
hay
thr
tra
луч
bend
2008.
näkem
середи
conflic
medical
varsina
руковод
সরকারের
agricult
##кую
##বাম
##লেন
유일
fat
фай
كار
cold
huku
الها
মারা
психо
الاسم
మించి
বাহিনী
డాక్టరు
##isuudesta
olahraga
##식은
##нок
##مسة
외국
##esis
тон
elin
flow
divisi
hyökkä
account
bandara
основные
##১০
డ
##ুরি
다르
법칙
les
scrip
সামরিক
правило
reaction
##اسب
##ريك
(4
কৃ
##olta
##aring
seri
2007.
uhindi
populasi
обеспечи
institute
kemungkinan
##ظة
##гом
pä
##sien
##شارة
##ماية
rab
бай
##järvi
libr
الكم
الفيز
##andikwa
pertan
конструк
##شب
##자와
##mus
مض
##isah
дет
кан
уби
##tajan
##нному
bish
الفر
malam
metall
remains
ফ্রান্স
늑
##있다
##mis
##ধার
##ళ్ళ
##toim
bes
عاد
tugas
bertem
разных
ব্যাপক
الولاية
##ils
제작
##akup
1937
cuba
rain
পরাজ
kelas
tieto
торго
المياه
##engaruhi
command
euroopp
pribadi
underst
الرئيسي
keturunan
исследования
##سمح
২৫
##dion
شبه
##asons
alih
##istien
عاصمة
cannot
create
normal
الغربي
chakula
menesty
মৃত্যুর
kimataifa
যুক্তরাষ্ট্রের
##lad
##పాల
تك
জো
##urus
##yhty
##اعدة
##াক্ত
معا
##orpor
##чении
1952
plat
##uksien
hitam
однов
ভিন্ন
##itation
##uksella
istana
северо
الخلية
المسجد
destroy
очередь
##кет
«"
달러
##ened
##well
##ومان
blu
tet
لين
##alien
##onald
##తున్న
образ
المرض
ensimmäiset
##격을
##»),
##লেক
مخ
وض
도입
##ules
##вобо
##పేట్
নীল
cape
joko
pist
tind
పూర్
kalim
বাজার
нового
perbedaan
##rie
##лые
##دات
##ريح
이와
지속
##tiet
зда
кле
##lines
##onaan
##sifat
jään
весь
الأل
camer
মসজিদ
resour
прекра
выступа
estimated
kemampuan
ইংল্যান্ড
административ
##মু
##тчи
##تلة
경기
বিত
সাই
##known
1933
##illaan
mudah
состоит
станови
demonstr
الأمريكي
##мар
##رجع
##চিত্র
орби
1900-
matatizo
committee
##وش
옮
희
##حاب
##راث
এন
비롯한
كلمة
kulit
সমুদ্র
founded
الأراضي
걸쳐
arvi
enam
kala
অভিয
##osassa
запре
السوفي
যুদ্ধে
স্থাপন
disease
diadakan
#
##점을
##eace
max
##,000.
##utive
النف
bebas
books
travel
ulkoma
largely
التالية
esiintyy
response
కామారెడ్డి
##물의
성립
##aces
##elli
##itch
ধ্ব
choc
lait
игры
носи
استمر
career
শিক্ষক
penumpang
industrial
##yll
##لاع
##র্ন
لس
نص
##баты
voc
ори
ওপর
প্ল
##جلترا
tasa
##palvel
pertanian
##sl
##وسف
يأ
해석
##odes
##جراء
rog
বাল
##riage
siis
урав
semen
wakil
точки
أغسطس
يوليو
##ременно
metode
церков
отличие
##ianzishwa
nopeasti
##sue
##اضي
시기
ниж
সংস
laps
valt
elektr
mwenye
данным
scientific
##성과
اخ
لص
실패
##اسعة
##েক্ট
yhä
рей
లభి
##tävän
kitu
pela
rang
والغ
##istossa
fungsi
review
العلوم
الكويت
diamond
maailmansodan
##чка
##ব্র
هم
##하거나
##atie
##ytym
##kaupun
sekal
dipakai
moottor
বিশিষ্ট
조선민주주의인민공화국
##ফট
##bin
##пря
আট
반응
##akir
##igan
طلب
##하였는데
sawa
أيام
আসেন
lakka
saira
треть
উদ্ভি
##тегория
oikeus
সরকারি
maintain
흑
##문화
##uno
##برت
##طول
##রূপ
면적
방문
##otus
##ొన్న
вод
مرك
১৯০
воло
кажды
الياب
belief
##ications
приводи
নির্বাচিত
engineering
##국은
##док
##জ্জ
내려
##adan
ylä
ним
অতি
##ainya
##িকাংশ
läns
neur
diberi
мнению
المعاد
большой
вещества
христиан
##মহ
##jit
##tun
##нен
##hari
##iche
##্বিক
تنا
দার
أفضل
mengi
বেশির
lokasi
sotila
религиоз
##uit
##ukka
##вода
##ثمان
اقت
وير
##umaan
luov
medi
1930-
теоре
تحتوي
astron
تقريبا
already
elected
analysis
challeng
controll
الإمبراطورية
ـ
##널리
##kia
##oot
##ungo
##wing
##äärin
##имуще
asem
ruok
твор
quick
venäj
ডিগ্র
additional
먼
흐
##도시
##소가
##pek
##تمر
মড
평균
##стом
löyd
sair
stor
кван
##uminen
الباب
discuss
episode
পরিচালক
imperial
property
tuolloin
huomattav
##ুশ
왜
##خول
فض
##력으로
##인들은
##isms
kuz
yoh
সাত
위치한
##ماعيل
lokal
##ections
##tention
compon
kesken
näiden
orient
paulus
taiwan
পৃথিবীর
meningkatkan
##tyt
추가
700
aid
our
رغم
##াপাশি
২০০৭
rapid
##zingira
التقلي
mengandung
administration
##mal
##াসা
ly
يسمى
формы
центр
plants
অধিকাংশ
wanawake
деятельности
##তো
##장의
ир
부르
##ehto
##tori
сум
مرض
##пуска
puut
себе
##change
paper
viera
воору
kifupi
##шу
##ফা
##aju
##bre
##ана
##عين
관광
지정
##قلال
মের
##yksiä
arah
поме
تقوم
pelay
detail
প্রকার
machine
sotilas
##োপাধ্যায়
পাশাপাশি
রবীন্দ্র
император
##족의
##ffe
##nic
##comm
##াসিত
##inggu
dead
stev
забо
اليم
собра
##పల్లిలో
всегда
устрой
সামাজিক
electric
относительно
##صلة
작곡
##osan
##пута
nak
يصل
##iring
cycl
##াব্দের
المنت
killed
##truction
системе
kuningas
культуры
!
윈
##일보
##ген
43
kg
결혼
##chus
وتن
myth
perak
stock
ওয়ার
amount
обозна
совета
release
##kel
기초
만든
suhu
গ্রে
lisää
ভিত্তি
##takatifu
pattern
käytössä
السعودية
콘
##lar
##ؤول
##য়ী
보여
муж
خلف
jadi
soon
pitkä
সেপ্ট
##erdekaan
yhteistyö
соответству
৫০
বাদ
없었다
##براير
lear
يعمل
plann
الإسب
latter
##elenggar
tehtiin
другими
возможность
##дж
##اغ
##lak
##لاك
##لين
이동
##صلاح
وتش
মোহ
있어서
##tured
thre
عنها
처음으로
такой
روسيا
disney
helsin
likely
বিভক্ত
##ственным
memutuskan
##خة
##চু
##زين
নর
##صدار
596
dub
сни
спа
acid
missä
##тельная
square
tradisi
подготов
ডিসেম্বর
প্রস্তাব
জন্মগ্রহণ
##pt
##심을
##.),
##বেদ
##alon
##anto
##واخر
ходе
##essään
troop
ulang
قانون
продолжи
##هن
##역시
##мпи
%,
##голь
##నీరు
tum
وجه
##нении
cook
tend
الفض
##uangan
jumla
siirr
двига
يونيو
السادس
consequ
towards
считается
ঈ
졸
##경을
##만이
##있는
##was
దు
등에
183
lad
nad
sri
шта
وحد
경기도
coup
جزيرة
##льности
электри
##만을
##dan
##ped
اح
북한
##immä
cos
пет
아버지
##скоре
##idents
tepat
دراسة
##istettiin
وبالتالي
빛
##kär
##قتل
##قدر
وو
질량
##isma
isi
нер
খাদ
##স্টার
المض
بريط
##koivat
wisata
никола
singapura
##йти
##فاض
##يور
조약
##ائزة
##راسات
lord
доку
রাখা
২০১১
공산주의
##udukan
peran
viisi
##enangan
target
النادي
broadcast
পাকিস্তান
স্বাধীনতা
corporation
##세를
북쪽
জাদ
##orium
этим
##ющихся
2000-
الزمن
ম্যান
active
melayu
отношения
##رى
৩০
마이
##olia
##otte
أخذ
নার
##kseen
perlu
keisar
rajoit
product
maambuki
లభిస్తుంది
##قق
티
##리와
##해를
##мон
남쪽
##erve
##্যাট
fit
roc
кры
وله
##kojen
1914
알바니아
break
shown
##ollinen
zinazo
kusababisha
представляет
##일은
##yne
##гру
##ماد
##회에서
##ione
مرت
##листи
vält
wide
mtoto
оружи
الكون
চিকিৎ
approach
తాగునీరు
treatment
tunnetaan
нескольких
professional
3-
ys
움직
##wide
##okset
aine
nelj
গল্প
দেশে
antoi
ocean
протя
الخاص
বাণিজ্য
الموجودة
باستخدام
##성에
##نها
عق
거쳐
##ইংরে
tom
emper
hewan
ilmes
better
puolustus
транспорт
mengembangkan
##sw
##రో
##চের
정신
##하지만
##يرية
13.
تضم
বেল
인구는
##ahari
purp
shin
fight
meski
orodha
القديم
ilmoitti
mennessä
##51
##6%
##상으로
##িকান
রাস
##anced
suci
maala
ক্যাল
হাজার
erilaisia
establish
##기관
##인과
##лый
##واد
어느
##yawa
vid
বাঙ
anne
fifa
hizo
силы
союз
сфор
هنري
##angkap
risti
أربعة
berper
التالي
##8%
##kh
모습
이들
zao
نسب
يقع
있으나
##kohta
kiny
безо
##ecture
##জ্ঞানিক
publik
расска
animals
operation
пы
기존
##াড়ি
##াপের
oil
##äällä
tuzo
সড়ক
hutan
toisa
разно
الحزب
коллек
преимуще
الرئيسية
memenangkan
##рю
##фу
##حب
##bes
##으므로
tua
정치적
laws
juuri
barang
double
placed
الدوري
উপাদান
চেষ্টা
terminal
примерно
keputusan
퇴
##kee
##ম্ভ
##life
##లోపు
rna
رفض
كلا
জ্ঞ
ফেল
##িয়াস
kenn
بحيث
সপ্ত
কৃষ্ণ
الحالة
কম্পিউ
department
##시켜
##cop
##шта
해안
##tire
##нены
##قلية
cad
dut
دخل
##itors
##قاومة
guru
##elekea
chake
bisnis
তালিকা
##начально
ayahnya
называют
relatively
kemerdekaan
##িরা
রস
자리
##aksa
##клад
##ница
##тика
##itung
ethi
harr
lyhy
true
terka
места
требо
metrop
الأخيرة
erittäin
progress
financial
transportasi
맺
##hire
##নীয়
ard
фер
بور
مقد
জিন
##äneet
##انيين
মহাক
হলেন
2009.
birth
మట్టి
konsep
matter
действия
поддержи
##ис
##체로
##ipo
없이
##일에는
##ankä
##iers
##тный
pra
yet
kerr
нару
والر
imani
saham
taite
вызва
столи
ainakin
السياسي
compound
election
производства
##টিং
gir
##метри
1953
give
لهذا
приве
levels
malcol
politi
kompleks
কার্যক্রম
##두환
##чки
لك
대중
##했다는
##inet
##ныне
fos
sor
##ellen
الهي
একটা
##teessa
ранее
хозяй
بسيطة
চিহ্ন
##ediakan
romaan
##anjutkan
memerintah
워
##tär
##اشا
##হের
##্বল
교황
많다
무역
##agam
পুল
대하여
##raatt
##usika
expl
mong
وبعض
অত্য
##ombang
yanay
посвя
الشمس
highly
превра
февраля
তৎকালীন
зависимости
"(
##tilä
hyl
##annut
##ikaan
1932
কাঠাম
commod
kauden
##ковского
jenderal
الطبيعية
performance
##동안
##цов
رؤ
oll
syv
وبد
সংর
##িকল্প
##графия
penuh
الفلسط
যন্ত্র
supported
염
##zin
##تان
추정
get
pab
##منطقة
fish
gall
попы
benef
ottel
thous
unsur
##itettiin
అనంతపురంలో
--
표기
##কর্ম
1934
dens
জায়
লিখে
neigh
মৌসুম
##tamisen
nearly
kahdeks
العاصمة
collection
##이의
##크로
##ogy
##чай
##জের
##lant
##డ్లూ
gub
আরে
캐나다
تحديد
верхов
الثلاث
##ез
##til
##্কে
농업
##racy
##وارد
koulut
револю
diambil
ঐতিহাসিক
centuries
##oe
##তর
싸
##ليب
1/
мя
되고
##ниях
250
515
yal
уро
의하면
kode
##thodox
tuhan
jonkin
climate
প্রাকৃতিক
ঋ
##ولد
게임
keep
taid
নানা
##రోడ్లూ
أنحاء
##isterin
advent
täysin
السنوات
##52
##حم
##сен
وآ
널리
##wapo
##вита
yllä
похо
##يطاليا
বিবাহ
powers
simple
sports
означа
широко
##aksanakan
##elesaikan
العسكرية
পরিচালনা
memperoleh
##당은
##käs
언론
##luku
شهد
شيء
একক
보인다
##ellig
##untaa
look
ship
التس
لمدة
##isiksi
الجزي
##anggung
letter
الحدود
القرآن
составе
##ungkinkan
presidentin
ফেব্রুয়ারি
మట్టిరోడ్లూ
##도와
##회에
##uta
##vät
##تيب
불가
자료
##рого
উপক
##akoul
##ottom
yksil
issues
сторон
المادة
следует
প্রতিটি
##헝가
##ody
##töm
##пор
##انو
##يون
##back
##elan
tib
нас
কৃষ
##entti
male
semb
প্রণ
макси
новый
##tajaksi
zilizo
начало
context
divided
voimakka
элемента
agreement
dibandingkan
##ovi
##бов
দৃ
бое
##itaji
iron
poor
benda
sukup
kielen
käytet
propos
শুমারি
الوطنية
citizens
শতাব্দীর
toisaalta
одновременно
##ربون
alum
nazi
perä
জ্যো
##veland
pohon
служи
জীবনের
المجتمع
প্রাপ্ত
##мирования
используются
벨
##طاء
##হিত
dv
قل
수준
##راكز
ero
##тором
испа
الحض
সত্য
linal
আগস্ট
##formula
pacific
расстоя
আন্দোলন
algorith
hallinto
الجنوبية
primarily
tertinggi
সিদ্ধান্ত
##ум
##োষ
##중에
##jau
##шен
اش
개인
##eval
##ujen
##াঙ্ক
sac
mind
друг
البن
الفيل
ambalo
sempat
একাধিক
kuanzia
suomalainen
##১৭
##전에
##мых
유래
한반
##okok
নিকট
graph
peace
комму
культур
dibentuk
seurauksena
##산을
##조의
xi
জৈ
소설
##anyi
##coun
##oles
##صابة
lic
이상의
##zations
кванто
tenggara
##세의
##bus
##гип
##تائ
##২০০
বন
관리
##sign
##عيين
##هائي
amp
еже
клю
কেউ
পের
전두환
##жений
أربع
runsa
##enalkan
bermain
упомина
perustus
terbentuk
tammikuuta
достаточно
##কু
##పై
##동에
##많은
##حتى
##زيم
##ورك
##eton
##леко
##чную
##ভূমি
boy
lie
sih
قوة
واض
##iliki
##teitä
নিজে
kongo
kuuka
prime
##kirakan
palest
সংস্থা
practic
suunnit
dipimpin
##기와
##수로
эн
gdp
قدر
jean
catal
প্রতীক
malcolm
первого
religion
ইউনিয়নে
население
menciptakan
##hd
##দী
##ivy
##yli
##дор
##اتب
мл
వె
##мира
##acara
стар
نقطة
työvä
joskus
transm
зрения
странах
mahdollista
##بن
##উল
찬
##ربط
رأ
وث
##াস্থ
##াহরণ
##ardin
2003,
opera
vähem
profes
ক্ষমতা
решение
potential
##নং
##্শ
##des
##ekk
##احل
৫৩
పు
관측
имя
мол
جون
핀란드
visu
التر
микро
тепло
쓴
##라도
##дре
##يدا
##রাধ
##్రి
수행
hir
1929
heli
risk
пора
jesus
ситуа
فبراير
parties
утвержда
##조는
##eck
##äll
##اهدة
ফ্ল
카이사
العن
##ansion
##elokuv
остро
kadang
maalis
স্ত্রী
mahasiswa
mtakatifu
##선이
##cap
##чер
إي
##refu
##urat
гим
##issaan
aktif
بعضها
сотруд
meminta
reached
персона
programs
tutkimus
universe
компании
칭
##ارض
৪৭
##heim
##ссов
##امات
ত্র
##water
ajatt
focus
ফরাসি
tenaga
империи
অক্টোবর
contrast
управления
образования
##1-
##خم
라틴
타이
##etts
##сные
##isiwa
вклю
viiden
##aq
##시킨
##গড়
##стья
##র্ষণ
mia
ива
##osoit
kaki
верх
তুলে
kieli
বয়সে
##adiliko
##ization
tapaht
##asilitas
lähellä
الطبيعي
различные
предполага
##비스
##otu
২৪
##erik
أرض
##emmat
##ledge
##ounts
mies
säte
##landia
keras
sense
vaihe
aliran
female
section
pekerjaan
существуют
ఉత్పత్తులు
„
##내는
##lit
৪৯
##igen
아시아
일어나
##itual
drum
imam
дней
قرية
وفاة
dance
памят
valtio
management
valtakunnan
నిజామాబాద్లోనూ
##선은
##eus
##сон
##ాసన
윤치
황제
##isem
aiv
nok
мало
тому
పేరు
##গুলিতে
batas
teams
tehdä
whole
কর্মক
সমস্ত
সূত্র
fiction
дополни
menjadikan
##رط
##عه
##।"
##تال
##হ্ম
규모
동쪽
전해
점차
##월에는
##enia
نشأ
있지만
##estic
##ikent
nimen
##täminen
lokaku
быстро
الكبرى
##చిత్తూరు
общества
অ্যালবাম
##eena
##elaj
##elma
##يروس
nan
عين
##ствен
meta
##aturan
##سبانيا
mrefu
sunda
vanho
حاليا
ব্যবস্থ
восстано
##এই
##গো
##정에
##arm
##sih
##সিড
실제
##enth
##kofu
##жный
##циях
tri
수많은
этому
mother
энергии
নভেম্বর
পরিবারের
mazingira
##화가
##ধীন
##িমি
국립
언급
##تيار
esp
إنشاء
##erangan
##utuhkan
circum
##كب
빌
##난다
9,
لش
##asty
##либо
##ছড়ি
ord
حال
laiv
2010.
upaya
vallan
рамках
বিভাগে
jouluku
##ls
##티아
##utt
##িখে
৫১
##писи
##سباب
puk
rib
waz
افت
مؤس
소프트
완전히
##وانين
navy
##alikan
speak
الجام
الغرب
বাস্ত
hakuna
object
spread
সম্মান
الأعمال
শ্রেষ্ঠ
탐
##лах
##лки
59
tš
오래
##undo
##يتها
ymm
জেন
하나의
flor
jazz
atlan
دولار
keduanya
surround
konstantin
maambukizi
##kom
정도로
##বিজ্ঞ
done
osan
##istinen
السلام
المجلس
##혔다
명의
서쪽
##uria
##واجد
##াপুর
афи
معه
কুম
diss
mosk
атмо
darah
spain
завер
الترك
##ilaisen
assist
версии
##tamiseen
confeder
названия
kecepatan
##어와
##유럽
##적을
##мат
##роб
거부
원자
조건
##леку
##чены
##েক্স
взя
##itial
1923
gran
move
ката
ensin
wales
ymmär
новых
##satunya
##ционных
sheria
synthe
вероят
الأحمر
senjata
##쳤다
47
광주
어려
이로
사람이
인터넷
свет
##isivat
merek
своим
যাত্র
maalisk
perusti
##avy
##mic
##nen
정착
##시키는
эпи
মাছ
##سيمات
1922
chad
খেলা
##ologia
aikaa
manga
saada
অ্যান
entire
присут
теория
activity
currently
distribution
##겼다
##국을
##жды
##стя
##ويا
부정
##anii
##uler
10,
محا
##arabu
ikan
moyo
quar
ster
قوات
কাজে
శాసన
makes
säänn
kaikkien
mengubah
tindakan
cleveland
direction
##구를
##লেও
원래
##band
##وامل
517
বিব
لهذه
존재한다
##жением
evank
jacks
branch
الشرقي
المتوسط
käytettiin
mabadiliko
الاجتماعية
maaliskuuta
푸
##fir
##тни
##ajak
##issi
##غيير
##allon
##joita
dark
2013,
objek
верну
إعادة
##illinen
##ominasi
applied
দক্ষিণে
democratic
instrument
ষ
##bur
##джа
46
사업
##umwa
##ساوي
##علان
##غراف
للف
শাস
관계를
##ernur
##mässä
runn
seli
служ
freed
fried
##фикации
dimana
marras
должны
columbus
নিয়ন্ত্রণ
##бир
يل
적용
##elun
##ктора
1921
1935
есте
علماء
দেখতে
বুদ্ধ
degree
استخدم
জানুয়ারি
##kl
##법을
##్రమ
zh
##clus
##erto
##емой
##союз
##جميع
leon
বিপর
chama
كتابه
treaty
troops
শব্দটি
الداخلية
difficult
##فيد
여겨
##osla
##ابلة
vig
##aribu
##ikkön
migr
##tually
money
cabang
celebr
infras
ubongo
##kenalkan
##)'
##동을
##이란
##جاج
##وفة
##ক্ল
جي
정확
##했다고
##েলের
##ప్పం
nne
للش
##ambah
##immät
веду
разре
البار
academy
mission
russian
kannatta
##부가
##дже
##ريا
##ధన్
تي
요청
조사
##opol
##াকুর
유명한
지역의
reach
vapaa
церкви
##itutions
changed
kaupunk
wakristo
располага
suunnittel
käytännössä
##চর
##론을
##리로
##zil
##يته
##বিক
기념
아직
##حيان
##সঙ্গ
লিখ
##umivu
счёт
সিংহ
사람들이
##allaan
##inding
##kinnon
kutoa
pyrki
mainly
layanan
notable
saattaa
decision
обознача
##ائف
##োলা
윈도
이끌
##arvo
##ئاسة
meg
##ääntö
##емого
iran
##ession
##temuan
jelas
библи
проте
segera
##చె
##kun
##тём
##ائص
ভি
결합
페르
##하도록
##anes
##suom
##тики
গৃহ
자신이
##ائنات
prak
사회주의
2004.
apple
света
##ubungan
muutti
yritys
доказа
##nd
##tv
##ভর
##احب
##مرة
대륙
##koon
##ombo
20.
tin
নকশ
পাত
সফল
arts
sund
vaal
الخل
##uruhan
##ইংরেজি
আলাদা
সেন্ট
పల్లి
immedi
maahan
tumbuh
المؤرخ
claimed
সাহায্য
fasilitas
информации
pembentukan
menggantikan
£
##인데
##-13
어린
##hard
##ithi
##мена
##্যাত
сце
মেট
luon
تقدم
يعود
లోని
##yataan
kebud
makao
pergi
ответ
طويلة
berdiri
إبراهيم
alettiin
##পু
##계에
##cor
##tro
##вок
##تمل
##واب
##সেন
##েয়
uv
보호
##idin
##бина
##вшим
##чном
adm
فان
অধীনে
##ствовал
persen
مباشرة
позволяет
##-15
##iso
##сня
(;
41
받고
취임
##став
##ثناء
দিব
##estig
zile
ainoa
сокра
ilmoit
planet
sexual
standar
performed
##들로
##тон
নৌ
이주
##гото
130
нём
юго
##osten
date
ниже
##indano
kepem
penem
الأنواع
compared
##تع
##ేశ
##슈타
##aig
##tit
##لائ
съ
방향
##akes
chur
cool
спор
##ecting
##ellaan
chain
سلسلة
keskim
##chusetts
objects
ж
##단을
##তান
পথ
논란
##덜란드
##бург
bog
pik
রাশ
##emaat
وهذه
عديدة
బోధన్
leader
##cm
##mw
##আর
##kor
##мах
##ముద
가리
##క్కజ
قاد
##iskan
burn
conv
infl
rena
rome
доба
لاست
ليست
사용하는
##illeen
issue
kysym
##ప్రైవేటు
maumivu
memulai
strength
materials
##움을
##جات
ry
ইত
작용
##kein
##كاني
##ورات
140
어머니
##ساعدة
deng
##чество
liitt
ولكنه
الثامن
coordin
incorpor
literature
mengumumkan
##가와
##ebra
##uluh
ray
طالب
##amanan
##পশ্চিম
##িয়ায়
العهد
فلسطين
পরাজিত
emperor
intellig
provides
pidettiin
sisälliss
toukokuuta
##খল
##kol
##راح
cu
유사
##acam
##вила
##فسير
جبل
##eensa
##говор
rump
semi
излу
النص
##atasan
উদাহরণ
##isuuksia
содержи
marriage
orthodox
##고리
##키는
##гну
##зия
##пар
মূ
동맹
##메리카
##eful
##etut
##штей
14.
неу
ميل
##ковой
##্যন্ত
##శ్రామ
afya
bado
mene
пари
##శ్రామిక
##াত্ত্বিক
district
pemberon
పారిశ్రామిక
##ben
##emo
##تهر
##وله
49
##вале
##িম্প
moh
уси
أثر
bots
kale
tarj
##ellään
##ولوجيا
##ولياني
анали
работ
alasan
uganda
отрица
العناصر
churches
diterbitkan
##سيد
단위
##град
##ెల్ల
15.
تصل
##ports
1905
моря
поро
##usiano
mbinu
самых
زيادة
বিরোধ
buddha
свобод
మొక్కజ
bantuan
процесс
অধ্যাপক
syksyllä
మొక్కజొన్న
পরবর্তীকালে
##দু
*
슬
##남도
ск
কথ
이사
##eshi
##গঞ্জ
ded
##ilkan
##ineet
arvo
тяжё
세계에서
manaj
বাংলার
austria
bintang
выполня
الكبيرة
gubernur
الخارجية
##7%
##되기
##이스
##جاز
),
##igus
##ولات
het
تكن
عقد
এটা
পাখ
##atiiv
bapt
выбо
الشه
بالف
লেখক
అన్న
##unggal
mwezi
round
taifa
meraih
suunta
পৌরসভা
##ographic
##ubungkan
alkitab
investig
##సీ
ঔ
##kak
##вид
ам
경상
생애
##emea
##ette
##oria
##اعات
##هداف
sus
##crete
##tiete
##нская
##степе
добы
تشكل
জেলা
asing
mpaka
требу
##tahanan
equival
question
المجموعة
##тью
##щим
##ذية
##view
이유로
##chang
kuus
ling
uran
реше
থাকা
atmos
enough
mantan
summer
zamani
специали
discovered
##-10
##ahd
##ryh
##дах
##тию
২১
반면
##rane
##туру
##খালী
##্রেস
гри
чув
দান
##ungua
পৃথক
소프트웨
ndogo
shows
الإيط
طريقة
কবিতা
##umbuhan
huhtik
possib
ইন্টার
সন্তান
إنجلترا
একমাত্র
työskent
valmistui
kebudayaan
mengadakan
alternative
##군에
##어나
##علق
gi
চী
রচ
শী
즉위
후반
한국의
impr
msim
kenra
rangi
السري
fundam
menamp
toimit
সংগ্রহ
العملية
পরিকল্প
resulting
разработа
##?"
엔
##বান
bh
##명으로
##ikot
##neen
##tery
##ницы
##واجه
##িকের
aku
wab
дер
##inter
osak
угле
পানি
것이라고
##adilan
favor
occur
yaliy
أبريل
##istence
reduced
stadion
komunitas
##োঁ
##సభ
##нсо
পল
성장
주도
##ider
595
dur
##строи
pitu
الخص
حدود
##ikkaan
chati
новые
##рования
famous
tullut
الخامس
সময়ের
##категория
##2%
##세가
##종은
##bly
##sal
##сля
##ক্য
있게
##كندر
pri
డ్ర
##ক্ষেপ
jews
kopi
koti
تعرف
kamer
হওয়া
языков
శాసనసభ
initial
turvall
cardinal
hallitsi
taistelu
প্রজাতির
ainoastaan
##ölj
바탕
##etah
##imal
##моби
مدن
పరి
##elled
##oxide
mita
поми
أواخر
järjes
resist
tamper
দৃষ্টি
##tahankan
البحرية
সম্প্রদ
massachusetts
##'.
##وها
##ন্ট
##ట్ల
тю
암살
천문
##aina
##umed
وفق
되었고
지역에
##araja
##onial
kifo
fisika
screen
address
display
joukkue
journal
huhtikuuta
memungkinkan
##정의
##ahu
동물
dol
বান
##phere
joto
kumi
sets
slow
всей
대표적인
গ্রুপ
সুযোগ
pindah
päätti
الأبيض
namanya
архитек
gelombang
изменения
##yä
##jul
##ائع
মর
북부
##saar
##ссий
##لادي
##واعد
haz
аре
شعب
사이의
baga
باشا
ثابت
وحتى
italy
союза
الذهب
দুইটি
census
memimpin
الأساسية
অবস্থায়
yleisesti
اليولياني
использовать
##যুগ
##мере
##يريا
teg
фро
##artem
##ultas
##ষ্ঠান
1924
млрд
أغلب
ماري
##اعتبار
الأصل
omista
liittyi
terkait
seuraavana
rakennettiin
##bul
##ici
##فين
##كلة
56
كي
সৌ
파견
확인
##тием
tot
##jasta
ikut
kayu
миха
الأز
mitta
noted
pengu
দুর্গ
edward
городов
kokonaan
location
reference
সেপ্টেম্বর
##원에
##кты
##фра
다만
##장에서
##http
16.
말한다
##0.000
kulk
عاما
يؤدي
##ottiin
##катери
самым
مدرسة
каждый
অস্ট্র
##uncurkan
bertemu
которую
ইউরোপীয়
##بط
##উট
##টো
##পথ
##రా
##당이
##소는
##신을
##eto
##mad
##pit
공개
자주
##었으며
##لندا
maz
##ising
disk
##alitas
##urangi
##yhdist
benar
gagal
долго
##isyyden
geomet
joilla
отказа
компози
bersifat
berusaha
средства
##으면
##بور
ts
참가
##anta
##road
##াদার
خلي
##ায়িত
kesä
rise
التف
القص
suomi
первых
জ্যোতি
denmark
বৃহত্তম
условиях
khususnya
##3%
##ajo
그런
##سلحة
##াডেম
정부의
mary
চালু
##isissä
monia
целью
##ционной
käytti
الأكبر
السلطة
উত্তরে
condition
australian
osallistui
ensimmäisenä
##эн
옛
잃
##рил
##راس
##فاظ
مط
자치
학문
##bang
##irin
##kejä
##ville
kell
উভয়
bunga
olymp
upper
athari
joined
أمريكا
الفريق
##년간
##직을
##احث
##গান
##ామి
فق
বদ
강력
변경
##enzi
##ioon
ace
##oment
##orial
putri
альбо
أهمية
হত্যা
##iongozi
подвер
যুদ্ধের
toiseksi
formation
##–1
몽
##واط
##ভূম
ذو
고전
받았
하지
회의
وكل
দাঁ
পাহ
##cious
عشرة
পার্
##angnya
solid
sävel
عالية
গ্রিক
##utuivat
perman
dynasty
stories
consists
البريطاني
influenced
##вё
##ذر
깊
##군과
##keh
##nan
##зне
gp
전기
##chen
حزب
ঘোষ
হাম
hier
اكتشاف
derived
указыва
metropol
##১২
##uba
২২
삼국
##ulus
##выша
قلي
লাগ
##ineen
##which
##نائية
##ступил
talon
حرارة
##istisen
olleen
suojel
животных
কম্পিউটার
opposition
##금을
##300
##uts
##ymp
##irik
##izwa
##جهزة
уго
##angga
supr
vank
vier
птиц
لأنه
يحدث
লন্ড
##undred
hujan
نفسها
একাডেম
##engeneza
chaplin
станции
পত্রিকা
keuangan
identified
эксперимента
덕
딸
##산업
##enh
##عام
##ماغ
##బడు
ns
##bour
##pers
eti
эко
마르크
pope
بدلا
২০০৯
mirip
uusia
##isation
##uttavat
berita
стране
السلطان
অত্যন্ত
evolution
##시대
##দ্দ
##মুখ
##కాణ
##ుండ
54
ss
ملي
হতো
gard
ulio
আফ্র
##asinya
магни
вскоре
quality
предоста
sekaligus
পশ্চিমবঙ্গের
##نط
##েমন
آل
부여
قصر
##iassa
##ాబాదు
khas
täyd
егип
реко
##графии
invol
stage
దుకాణ
##ilaiset
##isahkan
taking
вызыва
airport
domestic
pakistan
terpilih
##حن
##이로
##kea
##ضاف
##iled
##ujuk
##жного
##служи
1925
মহিলা
##ologian
minggu
sukses
saudara
toiminn
понятие
увеличи
colorado
литератур
осуществля
##১৬
##학은
##acu
##rix
уз
জি
뉴욕
유엔
##위원회
##warna
luot
pale
игро
روما
jinsi
kohti
norma
конца
وفاته
prefer
внутри
должен
লক্ষ্য
tekanan
элементов
##적이
##정이
##cho
##تمي
##خصص
gh
বৌ
수출
연주
친일
##구하고
##поло
(10
gaz
باب
সিল
##্যাশন
nabi
vary
فريق
কোনও
네덜란드
##suomen
##utensa
ended
চিন্ত
##artemen
mengirim
##ww
##дя
##ঙ্
##시간
##not
##ytt
##лье
##пад
##тет
##పేట
##päiv
##читы
##ত্রে
##ৃদ্ধ
وأم
desc
tapi
বাবা
mence
полно
الطرق
সক্ষম
master
возника
участие
প্রয়োগ
intended
suggested
individuals
dikembangkan
##জর
##imw
##واف
국무
bot
fen
beta
##andika
syysk
معينة
##uksensa
bridge
luther
وعندما
hänelle
подписа
botswana
earliest
oikeuden
menghadap
##িনা
(6
gib
##্যানে
kävi
sese
whom
فإنه
image
كثيرة
##allisia
jalkap
virgin
депута
অধিকার
edition
العثمانية
значительно
##рыв
##هند
##etuj
##flik
##ikal
##ilit
##вала
##стри
##িল্প
rasa
wild
кино
cycle
сказа
mahali
urheil
المجال
недоста
التاريخية
##১৫
너
##uto
লো
근거
비해
##ilip
ঠিক
##astic
##تينات
tree
неиз
تعرض
##itystä
##লেকট্র
2014,
সহায়
স্বীক
accomp
päivän
revolusi
sequence
initially
##++
##1%
##اعر
##لول
##লাভ
##েতা
명령
##otia
##rupt
18.
ari
1910
naik
ядер
2016,
vehic
অ্যাস
kieltä
pertemuan
##rd
##вёл
##шил
mv
소비
##here
##لافة
سجل
##encan
##kiteh
আওতা
মহাস
##ointed
hindu
table
начал
أعضاء
behind
keskia
концер
vuosien
alueelle
training
##="
##스터
##학생
##خاص
##세기에
##isir
##rasi
пои
برن
объё
tarjo
চুক্ত
havain
attempt
catatan
আবিষ্কার
kansallis
tietokone
##vaa
##اعي
##গার
"-
సీ
건축
##ince
waf
কাউ
##aikut
##tered
aliz
ilip
الإق
কর্ণ
দশকে
exhib
makuu
yhtiö
каждо
aktiiv
велико
بقيادة
autonom
koskaan
senyawa
الكنيسة
colonial
terlihat
##لاط
그림
hap
lun
myr
мед
##impan
##ক্ষিত
ches
hati
hiki
lind
wiki
حياة
scott
siirt
চারটি
bandar
mfalme
stalin
valley
древне
الحديد
railway
kesäkuuta
##järjestelmä
experience
##ুৎ
##chr
##cos
##ولت
##toba
##undu
mys
опы
بمع
1928
коле
печа
انتقل
ajaran
বিশ্বক
distinct
ethiopia
ihmisten
tambahan
huomattavasti
##أم
뛰
잉
##안을
##bas
##jar
##гер
##اجة
수용
##руют
##ুয়ে
bit
ple
বসব
##overy
##возмо
insp
يزيد
2000.
прода
border
dingin
näistä
aristot
believe
heinäkuuta
##hä
끌
##فاء
갖고
기관
분석
하다
##etin
##قرار
دين
lamp
البد
과정에서
##ettava
songs
kokoon
menang
puoliv
hundred
library
екатери
director
syyskuuta
represented
##ذن
##ois
##бай
##гна
##دمة
분리
신화
حجم
arth
asui
vang
wars
##oplast
doctr
oleva
захва
потом
ম্যাক
সংস্করণ
##ón
##레스
##_10
##irs
##ائه
세워
##yote
##тона
##عددة
dak
msh
গতি
##iance
tapp
بالل
первая
captain
decided
ulikuwa
систему
##زه
##무현
##일을
##bel
##gon
##iah
##ser
세포
##atar
##inaf
зве
оши
##ilies
##ложил
mont
отве
بهذا
##unguzi
##utunut
##вшихся
##luvulta
##মন্ত্রী
simply
presence
perangkat
использование
##했을
##too
##езд
ву
##entä
rud
بنفس
##ologis
##чность
miong
жизнь
للسنة
##operasi
annual
samaan
undang
работу
musiikk
bergerak
matahari
непосред
francisco
frequently
##트로
##jas
##umn
##рое
##сок
كر
올라
##atau
##liin
##кими
toy
бор
알려진
영국의
##tinya
mada
২০০৬
2002,
meren
feature
resources
universal
##》,
##тех
##uaal
##تمال
##িবেশ
সংশ
সুল
있었던
perg
sita
لكنه
##taneet
aliye
mambo
stadi
астро
المال
##erahkan
заболе
освобо
положи
প্রতির
kampung
которым
мировой
pääkaupun
##বণ
##시는
##ذاك
상징
##ohta
##ктов
##تائج
эту
##istin
##ungwa
1951
corr
huht
العص
biaya
tässä
закры
jouluk
mexico
তারিখে
positive
философи
##-16
##мана
fix
스스로
스페인
##ezeka
opet
منصب
الحقي
kompet
вместо
artists
foundation
##9%
##oga
##yes
52
##োর্ট
lam
ওঠে
##akaan
##ంలోను
haki
läpi
susp
fleet
peria
phase
situs
বিজ্ঞ
власть
উৎপাদন
silloin
الملكية
dukungan
основной
বাংলাদেশে
kemenangan
menyebutkan
характеристи
##-7
##పా
##계가
##지지
##zer
##шру
등과
통과
##oitwa
##يمياء
bent
hung
kont
lenn
lint
huruf
путём
умень
записи
предме
konflik
أفريقيا
armeijan
определе
президент
##pro
сю
##uali
مشت
কংগ
টাই
##5,000
##ching
##ystal
diak
것이었다
conqu
jones
mekan
описы
بغداد
darwin
dibagi
oktoba
tiedon
suoraan
viwango
fakultas
относятся
##án
쇼
##이터
##정은
##lif
##von
##рье
##تاح
##বেন
##char
alc
ata
fol
চতু
##hirik
patr
আকার
১৯৭১
guard
mitään
needed
নির্ভর
প্রথমে
uniform
оказыва
إيطاليا
الدولية
образование
##হা
##ేజీ
"«
66
가족
작가
##ilin
##itos
##ohol
##درجة
ато
سمي
나타나
##শাসিত
bass
wale
афри
২০১০
2015,
внима
হয়নি
saavut
tavalla
sisältää
knowledge
##حث
쉽
##igo
##عاب
가르
##agen
##wise
##чета
##وضوع
গ্ল
చాల
받아들
##alamu
##olong
##্যান্স
equal
hours
lokak
purch
tabia
разру
সংগঠন
passed
ukuran
vasemm
письме
районе
четыре
instance
terlibat
প্রযুক্ত
keberadaan
##isf
##اله
##قسم
##езда
##ماعة
##োয়া
lif
сей
тан
فلا
##되었으나
walip
китай
##ression
##প্রাপ্ত
values
المحلية
ইলেকট্র
সংস্কৃত
vastusta
بريطانيا
##тым
##যোজ
기업
불리
성질
##päin
оли
متح
##hella
##timen
cant
বর্ষ
armed
jatuh
julai
uutta
детей
إدارة
merasa
hospital
kaudella
kymmenen
seseorang
императора
президента
কেন্দ্রীয়
##واص
mh
بخ
##лова
##পত্র
উইল
কেন
মাত
##wanda
poss
араб
мину
অফিস
infin
klabu
друга
права
южной
بعدها
chiang
forced
serial
област
الدينية
alkoivat
##яр
##20.
##بين
##صاص
##يزة
##يزن
사고
주는
##atit
##unia
دير
قتل
كرة
আনু
##acted
##াত্মক
elev
wach
kokem
гидро
الشيو
المعد
বিয়ে
автомоби
ব্যক্তিগত
previously
mengeluarkan
##당을
sr
চো
직후
확장
##pail
17.
käy
ففي
لقب
##asian
##enian
الغذ
##omatic
1999,
الديم
kuzuia
worked
työväen
pertumbuhan
respectively
##ür
##포츠
##kot
##ల్లు
сет
بات
وأي
শার
##esten
ulko
دمشق
2001,
analy
carry
faith
hatua
jotta
medic
older
законо
finally
إسماعيل
muodosta
##디오
##물이
##বনে
দর
이외
해결
##кция
##لالة
фло
জাপ
불리는
here
hotel
muuta
rasmi
##etahuan
depend
carried
подтвер
الرومان
الأوروبي
tammikuussa
##지와
드러
선택
لمن
وهم
পাথ
poly
skin
weak
##syntax
##ulated
santo
ultim
новой
berisi
polisi
сообще
украин
السابع
المغرب
rencana
четырёх
এলাকায়
প্রকল্প
assembly
keväällä
##체는
##프로
##mät
##рам
اث
##erti
##امين
äly
бес
ито
##atasi
##حيانا
1926
eläm
mama
musa
solo
weap
2003.
limit
концеп
помощи
ilmesty
majalah
accepted
exchange
lokakuuta
##어진
##ugg
##رين
##عدم
از
শৈ
교회
##ampi
##with
##اريا
оке
للغ
##oweza
##taman
инди
الفق
عمرو
দেখে
শিশু
##jualan
costa
tampil
চন্দ্র
##тических
magazine
toiminut
তাপমাত্র
christianity
술
내각
##epak
##roit
##жная
110
مات
여기서
##oiden
hend
inat
poll
bring
bunge
think
tilan
오스트리아
naapur
opened
palasi
помимо
##тической
colombia
kendaraan
হয়েছিলেন
joulukuuta
järjestelm
многочисле
##১৩
##무를
##사와
шу
남부
멸망
##prop
vat
yam
جيم
গুণ
##ahidi
##الرابط
track
долла
жидко
عليهم
বিষ্ণ
##agaimana
железно
আওতাধীন
ক্ষেত্র
##highlight
diangkat
pimpinan
executive
communities
##:"
##కీ
##계는
##웨덴
##nes
##чем
##وست
</
lud
мас
جهة
##нские
marr
гипо
أبرز
موسي
##ждений
franc
iklim
##embatan
desemba
ihmistä
সেনাবাহ
автомати
##مح
##역을
##형을
##ved
##дам
##ونس
##সিক
ay
원주
위원
##нить
aer
alu
mtv
лёг
مرا
최초로
##empaa
##heast
##uruan
tong
تمثل
ظهور
মনোন
##angaza
##estadi
komite
osaval
молеку
الأعداد
##alization
experien
pembuatan
christians
structures
읽
##공화
##정책
##лка
##ডার
우리
##един
##обще
pec
لقد
##сного
1927
baba
ibnu
trip
التم
##oliitt
##валось
mechi
tujuh
জাহাজ
দ্রুত
charge
jatkoi
testam
маршру
средне
appears
kesällä
suomeen
composed
становится
распространё
##syntaxhighlight
##orn
따른
эки
এরা
##aches
##anger
##askah
##enang
##valta
cypr
hewa
maat
طاقة
##edusta
##jiunga
patri
pelat
zinaweza
основных
pääasiassa
yliopiston
applications
##웠다
##jid
##rep
##оте
##درس
##روج
##হীন
шо
شه
نف
يك
##특별시
##ataa
##iket
##ندية
12,
lel
قسم
ছয়
##ening
##oille
vitu
wife
недо
ঐতিহ
##োগ্রাম
прибы
худож
hieman
الأخير
বাঙালি
derivat
большое
পাকিস্তানের
conservative
콜
##전의
##ضية
##يفة
95
гг
증명
##kuun
19.
tok
tör
১৮৯
노무현
##insip
##jalle
مكتب
نطاق
kuvat
месте
вопрос
уровня
الأسرة
elokuva
stadium
ప్రాంతం
johannes
mencakup
expansion
##চক
##기술
##evu
##ريش
##াহী
그녀
##cons
##خدمة
##فلون
سبب
의하여
##ayani
##jaksi
stan
تعمل
చేస్
##смотре
##ющиеся
juara
shell
экспо
الواق
police
##tamaduni
ability
quickly
unaweza
starting
buildings
pertamanya
##센터
##اكل
##حدد
##قلة
fc
رح
라이
##나라의
##ytyi
##داية
удо
والط
##inafsi
bukti
harry
পরিষদ
শতকের
వనరుల్లోకి
##-6
##</
##–2
붕
##ref
##äen
58
##brit
##فهوم
taj
##akuwa
emph
sivi
wang
সভ্য
##ioiden
##tuivat
steel
বৌদ্ধ
##тельную
patent
الطريق
প্রাণী
الهيدرو
yksinkerta
갑
##정보
##ميز
##ైదర
근대
수상
평화
포르
##isip
##itty
##utar
##лект
hun
이렇게
##lemen
##upuol
zeal
пунк
ويتم
##puolue
filip
প্রেম
puncak
virusi
герман
defense
conflict
التجارية
dijadikan
الرومانية
disebabkan
##гар
##قاد
##াস্ট
клу
ومح
ময়
##avoim
##ustaa
rand
اقتص
##attuna
amino
debut
parad
virus
прожи
models
tangga
природ
কাঠামো
mineral
vastaav
scholars
yliopisto
conference
vallankumo
البريطانية
температура
##프가
##hin
##ديل
##াখা
강조
##сами
##বারে
kai
معل
1931
seek
جبال
অনুম
హైదర
##umista
brain
kasvo
типов
الشام
claims
eniten
spectr
helsing
leaders
distingu
скорость
necessary
continuous
железнодоро
##еха
##мые
##фли
##ذور
##لقى
##abet
##bury
##hood
##umbu
##uste
##wall
##شرات
##ধুরী
imag
وادي
క్రమ
اللات
napole
scient
tavoin
الأردن
tunggal
প্রভৃতি
berjalan
combined
alexander
##민족
열린
##apor
##such
##ytti
##вари
##ার্ড
box
주었다
포함한
##funzi
সেরা
##amisen
decre
genet
كثيرا
রোমান
##tamatta
asilia
convers
resulted
الرياضيات
উদ্দেশ্যে
menyediakan
соответственно
##"(
##بو
##》(
##isd
노래
졸업
##-200
##ونيا
11,
bey
pej
وات
현재의
моду
أعلن
الول
تشمل
عامة
قيمة
এক্স
theat
##endeleo
kidogo
kiinte
konser
penamp
reaksi
десяти
العليا
النساء
##ikasikan
bertahan
kuoleman
создания
kalimantan
pertahanan
الإنجليزية
##주를
##mak
##www
##ثرة
##هاء
단순
인천
집단
##ondo
äär
حمل
##ismia
rein
فران
불구하고
lilil
guitar
##ান্ত্রিক
completed
effective
väestöstä
безопасно
menggambarkan
##جع
##مم
겪
##스코
##ald
일제
##сный
لإن
sitt
ydin
بالس
অগ্র
carol
tähän
##johtaja
kasvat
critical
హైదరాబాదు
##규모
##없이
##이션
##eds
적극
##anfa
##водя
##ুয়া
шах
১টি
##astus
laul
المك
angka
kirkk
kuusi
melko
الضوء
##tämällä
kunnes
పూర్తి
provinc
magonjwa
nykyisen
వస్తుంది
деятельность
##dy
##렀다
##gal
##mur
##лега
##чего
вся
경우가
##allis
heat
التب
الصف
تحدث
##amista
##ughter
diagn
seles
اللون
দিল্ল
liikke
luettel
বিভাগের
esitetty
необходимо
##-8
##ছি
##ঢ়
흡
##jun
##yth
##кур
##zani
##عاية
##াহ্ম
vib
رسم
drag
liqu
наро
спра
موسى
পিতা
##umisen
##فلونزا
egypt
থাকতে
ধ্বংস
arrang
kolmas
maneno
article
bandung
బస్సులుప్రైవేటు
##cp
##щу
##дёт
##بيد
##زوج
##ষ্য
##ాని
중에
해방
##aded
##annon
##اثولي
##েনীয়
karl
моне
море
بالر
ظهرت
يعني
##andria
ihmis
грузи
семей
صناعة
argued
постепе
recently
преобразова
##ضى
##어서
##lat
##sea
갈등
제정
충청
##리우스
##etan
##িক্ত
gug
지역은
##적으로는
##erior
##overs
##usiana
2012.
advan
picha
الصين
বিপ্ল
উদ্ভিদ
efforts
playing
চ্যাম্প
క్రమంలో
jembatan
ব্যাখ্যা
##누스
##동차
##кут
규정
##ترات
##জীবন
##ায়ণ
nyt
##apani
##attle
vent
аэро
##ক্রিয়
seder
teluk
##tyminen
cahaya
jackson
musical
lapangan
руководи
entertain
চলচ্চিত্রের
##েদ
##전이
##ega
##upe
##зар
##قطع
##тное
##বাদী
ajo
بالك
##eminen
chrys
posit
экипа
العقل
impact
liitto
استطاع
الطيور
انتشار
jumalan
kamerun
penguasa
perustuu
aikaisemmin
##యో
##니다
##arn
##inf
##zea
가입
개신
сил
윈도우
##ляции
hans
waka
##stream
##ওয়ায়
serve
tytär
తగ్గు
pohjan
عمليات
ukristo
самостоя
processes
remaining
использования
##요일
##شيد
##كذا
68
rp
겨울
그레
수는
##aaja
##more
##öllä
фла
جزي
জমি
##indwa
##opher
##ковых
näkö
pack
желе
мере
моно
وليس
##গুলোতে
mdogo
огром
শীর্ষ
miliar
ohella
pabrik
segala
প্রকৃত
descrip
korkein
mencari
mencoba
utawala
совмест
চরিত্রে
aktivitas
berbentuk
tampereen
الكيميائية
##구가
##북도
##tib
##ясь
تا
건국
##новь
##শ্বর
900
num
আলী
##wards
dewa
учеб
أمير
##ension
##icated
##itetty
lähti
namna
ngozi
umoja
дерев
أجزاء
huduma
content
englannin
perustettu
징
حض
عز
제시
폐지
##anin
##ৃষ্ট
بان
বেগ
스웨덴
дене
пяти
حاول
গণিত
erill
liver
sanom
целом
الفلك
حالات
مصطلح
##empatan
course
kolmen
russia
signed
অনুবাদ
pitkään
tulisan
главным
события
continue
province
المحافظة
pengetahuan
##로의
##igu
##име
##هنة
##시키고
##াতের
রান
1915
jack
koke
تظهر
##нением
dynam
teman
своём
سوريا
পৃষ্ঠ
allows
ethnic
format
diikuti
проходи
soldiers
activities
philosophy
metropolitan
హైదరాబాదులోను
##cd
##ماك
صد
مف
생성
##тиру
dola
fast
бело
friend
vuosik
инстру
పేరుతో
berpend
käsittel
penjualan
##৫০
##шка
##সাম
계산
등은
소수
아우
##yksi
##ници
sut
تبلغ
##నపల్లె
болез
সমগ্র
analog
lisään
##istuksen
приобре
తగ్గుతున్న
##ేవ
##공업
##ندن
##ورن
ঘন
২৯
##ears
##াশের
bub
kej
ott
جمع
말레이
logo
scot
أرسل
নাটক
প্রদ
##влении
##তন্ত্র
woman
присо
সিরিজ
시작하였다
কাহিনী
##ustakaan
предела
varsinkin
contemporary
строительство
##_7
##يح
##чём
##الى
ظل
것에
상호
제한
##ancy
##гель
##ন্দ্ব
ferr
##lywood
arvon
siksi
uhuru
ystäv
بأنها
বসবাস
শান্ত
brazil
kitabu
mafuta
menand
belajar
detroit
saadaan
исполни
إسبانيا
পশ্চিমে
toimivat
professor
joulukuussa
##_6
엘
##조를
##트남
##alt
##equ
##lis
##باح
##urit
##нией
이름은
##tavan
فكرة
చాలా
##angany
1920-
sipil
takes
المؤس
বিধান
ভর্তি
humans
kufikia
terbuka
франции
mountains
చేస్తోంది
diperkirakan
슈
##설을
##파의
##bac
##emy
##чек
##কোন
##বাস
##াটি
##круг
##ссия
ধরা
nord
sena
verr
жела
خمسة
label
pieni
линии
ومنها
##järjestö
makubwa
keamanan
probably
tarkoitus
merkittävä
techniques
##লো
##apy
##del
##uls
##인으로
##اسبة
alt
হিম
통하여
alan
дере
коль
تتكون
টেলিভ
domain
explor
kreikk
переме
argument
председа
pandangan
suunnitel
появились
##১৪
##선거
##рот
##ارف
).
도쿄
##ayar
##راجع
bri
тай
سير
heng
repe
виды
вновь
завод
القوة
বিশাল
##teeseen
promin
بالقرب
married
kijijini
negative
vaikuttaa
следующие
sebagaimana
поверхности
##пто
২৮
나머
밝혀
여성
윤보
제기
체제
منح
ভবন
##adili
##akili
gian
tait
vien
ника
плот
kasvaa
sektor
winter
decades
السابقة
##estadiola
elokuuta
occurred
democracy
keseluruhan
착
##비를
##이드
##aja
##hak
##äki
##일랜드
##ygen
##поль
##рина
##ালয়
##ীকার
##্টিক
182
بكر
##ellut
##utkim
сове
임시정부
##altaan
##iminal
видео
свиде
vaatim
##тические
liittyv
marrask
molekul
suurimm
অনুষ্ঠান
suomalais
background
fundamental
mengalahkan
responsible
##oz
##сур
فم
##광역시
##amaa
##рить
##نائي
rin
ved
خمس
##empia
##teena
##горит
##বার্ট
hala
سعيد
##antara
##ikkeen
العصب
النهر
##century
##ствовать
crystal
terbang
корабля
التفاعل
berwarna
extended
겸
##국민
##소의
##ీలు
бю
##ؤلاء
cia
dvd
газ
صدر
বিস
শেখ
##alkan
##wanja
##শিল্প
besi
coca
нако
القط
تطبي
ডায়
##ancang
##ightly
##tioned
caval
jumal
scene
motion
spring
перево
прибли
##ikirjoit
meeting
perusta
উন্নয়ন
penemuan
операции
institutions
правительства
×
풀
##bed
##sia
##ألة
##্যাব
cul
uns
তৈর
##engwa
##kirja
dana
hell
mart
абсо
наук
موسم
##angkah
metab
باريس
সংজ্ঞ
visual
москве
majimbo
ఋ
##ంపు
가져
나누
사라
저작
채택
##되기도
##agas
##kinä
##воль
##тили
##ющую
ورد
##েলায়
levy
milj
рода
скло
해당한다
серге
النات
সুবিধ
forest
القيمة
päivänä
serious
menganggap
##чо
##kam
##рос
##тке
এড
때는
않아
##usuf
(12
lih
pud
кто
وسي
tuki
ways
выда
النم
##istään
tällä
расте
عثمان
قائمة
ব্যবস
albert
failed
korban
mielen
dipilih
позднее
ilmestyi
pangeran
solution
বেশিরভাগ
runsaasti
mukaisesti
сформирова
marraskuuta
##هج
##가를
##ylä
##تلك
##صاب
অণ
জে
먼저
수가
##이지만
##allo
##epal
##oren
##ర్సు
gul
طرق
스포츠
##доров
শুধু
##cement
المعت
মেয়ে
golden
سكانها
الصغيرة
merkitys
mojawapo
конститу
эффектив
appointed
mengurangi
##pem
##راغ
cp
지적
##라비아
##헝가리
##usen
##دمات
##াভাব
arc
rau
তথা
##chama
##ферен
##شلونة
1912
berf
dick
меня
##atives
##ettuja
atoms
প্রচার
الانتخابات
ensimmäistä
!"
##ধা
##관은
##키아
##দুল
দি
노르
스타
전달
##ارنة
lot
лег
대해서
##খ্যান
adam
kast
pati
silm
أطلق
käynn
param
автор
এসেছে
##igenous
closed
reflec
things
обнару
الهواء
apabila
membuka
percaya
الثالثة
declared
valmista
প্রবাহিত
##bb
끼
썼
##우는
##كمة
모양
수학
장악
통신
##efin
##ovat
##uhun
##شارك
##ولية
aim
##inger
face
تحمل
সাদা
##ughuli
colla
rough
sport
কলেজে
approv
linear
высоко
некото
достига
الطريقة
కామర్సు
কোম্পানি
##elenggarakan
##ফার
##య్య
동일
##gian
##siiv
##ukio
##вели
дня
сли
##чений
انته
গভীর
##atured
##ниципа
подчи
школы
تسمية
places
европе
القاهرة
ansiosta
identity
mielestä
సంరక్షణా
chloroplast
##gl
##경제
##хом
##াপে
ఋణ
전에
##rian
##мера
laj
ura
##oitus
##ridge
ছেলে
##йнштей
##జిల్లా
danau
kunni
mimba
##kirjoit
saaren
россия
সুন্দর
##cription
perustu
selesai
алгорит
uskonnoll
##их
녹
##명은
##etä
##هاد
##িসি
см
బీ
것과
귀족
의견
##aika
##arab
##eley
##ynti
##виду
##жида
%),
عاش
কোষ
##yteen
##стями
tata
الحي
وانت
উৎসব
구성되어
kepad
писал
dahulu
metrin
сильно
tanjung
సీనియర్
expressed
kupunguza
искусства
компьютер
diproduksi
menjelaskan
##이기
صح
উঠ
공화
##سلسل
##طراب
##لاحظ
##েম্ব
##ట్టు
adj
للص
নিষ
race
##anggar
##intään
##ternal
equip
inhab
irish
يعتقد
পার্থ
##ilangan
novemba
terlalu
hydrogen
الموسيقى
కళాశాలలు
kulttuuri
protection
##트는
##wat
##шед
85
국방
다루
인사
##otek
##ссив
dor
fle
চাক
isot
shot
tunt
يجعل
শাখা
##toihin
ideas
pääll
tekst
পক্ষে
డ్రైన
proced
voimak
التربة
letters
последу
##apatikana
airlines
собственно
##세는
##ewa
##lie
##сфе
##هان
##పతీ
سف
نز
অম
경험
천연
##onan
##ائدة
##সম্প
оби
때까지
1916
لأول
##াস্ত্র
tekij
منظمة
##ultanan
##льность
manufac
приводит
ব্যাপারে
కేంద్రాల
డ్రైనేజీ
dihasilkan
protestant
используют
perpustakaan
соответствии
품
##400
##خلص
##وبر
إف
تغ
ভর
울산
차례
##ান্ট
فعل
لاع
কৃত
ড্র
##angat
simb
talo
trac
окта
сбор
ফেলে
absor
darat
komer
orbit
الثدي
مرحلة
يحتوي
konfer
первое
первую
పొందిన
attacks
включая
shughuli
commodore
kuningask
относится
recognized
##dl
##계로
##evi
##сам
##নীত
##ెంక
cn
২৬
시도
##onym
##టియం
mcc
متن
আমি
##магни
##стров
##లాండ్
kang
mess
samb
사용한다
2015.
avaru
käsit
poika
schem
পুলিশ
восста
сконча
అలోపతీ
аналоги
иностра
esiintyi
ympäristö
направления
университета
##4%
##ضح
##력의
##상은
##dos
##uke
##عبة
##مار
왔다
화학
##인들의
##влен
##يمان
hed
ile
ура
كلم
##شاركة
alik
الأي
ক্যা
তড়ি
নীতি
##arikan
##teissa
comic
cruis
alusta
##pression
classes
kristus
memasuki
existence
বৈজ্ঞানিক
современной
잔
##ias
##sep
##цен
গৌ
##odin
##ন্থে
##াপতি
رجل
لعب
##лизма
##াইটেড
hydr
luop
মডেল
వారీ
##guinea
##িত্তিক
##িস্টেম
scale
xviii
gambar
brother
zealand
констан
seitsemän
употребля
르
##치고
##erl
##uen
##дца
77
рф
২৭
의원
##tact
alg
hao
оки
بسر
قلب
চাষ
pray
tomb
كلية
করবে
শেষে
##тенциа
##كتيريا
share
strip
##itykset
immigr
данные
доступ
##బడుతోంది
featured
pengguna
العثماني
আন্দোলনের
marraskuussa
##)-
##గో
##감을
##상에
##sti
##väl
##щен
ثق
육군
##국으로
##enty
##ston
##unna
xii
вес
فاز
জাম
##ohjel
alim
phen
poet
pyör
люди
أنهم
السم
##ittely
##likasi
##валась
sebab
объём
الروا
منتصف
খেলার
স্নাত
askofu
beyond
الحصول
ketingg
বিস্তার
berbatasan
년
##вии
##вий
51
시행
한글
##지에서
##캠퍼스
##onda
row
ماي
نظر
개신교
##eleza
##మెంట్
гран
##ugosla
2001.
чемпи
দর্শন
ఏటియం
##ర్తింపు
johtaa
menyer
ব্রহ্ম
королев
التجارة
kiinnost
tersedia
palestina
toimintaa
অর্থনৈতিক
চ্যাম্পিয়ন
বিশ্ববিদ্যালয়ে
돈
칸
##개월
##aro
##حاث
నా
문자
생물
양자
##네시아
##ujud
hur
##pects
repr
умер
чаще
سواء
لاحق
مادة
##alifah
##hibiti
##oitiin
##ровать
2002.
الجنس
الزرا
পড়াশ
arthur
confir
округа
причём
различа
الوزراء
application
mempertahankan
##шё
##мую
대사
않다
조지
##원에서
##esan
##fred
##isat
##lagu
##lask
##رافي
cow
luv
циф
##pailu
##циями
##чению
bani
kall
بالب
##вшийся
apost
eisen
input
kapas
kisha
uskup
বস্তু
##ografia
reserv
timbal
ছাড়াও
కెఫెలు
mataifa
острова
экспеди
известно
##eä
##টিন
##ాక్
관찰
월드
이곳
접근
##akko
##joki
tep
حقي
هنا
##helin
##omial
##годня
flag
skot
హాల్
##ссиона
munic
santa
concep
lämpöt
unique
полёта
komunis
workers
becoming
governor
владимир
##বস
##avi
##فاف
72
لغ
২৩
반란
베네
최대
##aini
##uang
##ylän
(13
cit
kro
сфе
পৌঁ
সাধ
문제를
##andon
##anoma
##oweka
##ీడియో
neli
pius
runs
tank
الصد
ভ্রম
##্যায়ে
lenin
animal
వీడియో
purpose
العلمية
المعروف
pasangan
testament
##dt
##mah
##чих
##اصر
##ديا
##فيذ
절대
##ামের
cac
kov
sib
لان
مقر
১০০
있도록
##కీకృత
kote
пита
وحدة
##eltaan
dutch
fully
lopet
mbali
pääsi
досто
নাট্য
বিচার
##ikunnan
esitti
самого
##american
connected
menyerang
lokakuussa
헬
##tre
##ونغ
##গাঁ
يخ
모델
##емая
##صلات
##ঙ্গা
nom
অবল
বুঝ
gand
واسع
সমান
##apatan
##hirika
##كندرية
##్మెంట్
2013.
armen
عناصر
وخاصة
##గొట్టపు
الواقع
pendapat
worldwide
состояние
మేనేజ్మెంట్
##পা
깨
##nik
##عوة
##ేజి
인식
##속도로
##fall
##িসের
бит
واج
활동을
##্যায়
puhe
viji
##ayakan
##egemea
carib
klass
texas
tosin
латин
нарко
العمر
cyprus
inside
সমস্যা
menikah
allowing
муниципа
maaliskuussa
pemberontakan
##ళహ
곤
쌍
##구와
##зер
##лин
##كير
##jala
##াকাল
bic
فصل
সুই
ensi
اهتم
misri
العدد
occurs
unlike
говоря
катего
прежде
الآثار
ఏకీకృత
cavalry
removed
মিলিয়ন
মাধ্যমিক
##চল
##sec
##شري
এফ
국왕
##okus
##osia
##сфср
ign
ölj
এসব
##ustan
##ైవేట్
##ington
alish
равно
জুড়ে
శాలలో
except
inilah
sastra
vaihto
wadogo
воздей
минера
просты
দূরত্ব
##గుర్తింపు
programming
mengakibatkan
##xi
##르의
##졌고
##жит
উত
각종
문서
식물
이래
제주
##찬가지
##asen
##ende
##ukuu
lum
джа
انه
বহি
হাউ
కవర
##되었는데
##вании
##летия
jasa
tara
бого
নিচে
##0,000.
crown
maata
premi
تطوير
fourth
pemuda
signal
useimm
частью
الوحيد
pejabat
العالمي
##ogyakarta
khalifah
rakennus
середине
maendeleo
disebutkan
الاقتصادية
##연합
##이에
##지게
##플러
##화된
##dam
##هات
##సిన
స్
정복
##글랜드
##cles
##greg
##ستور
cay
бро
밝혔다
베트남
시대의
##neett
##মেন্ট
##ాక్సీ
উপরে
마찬가지
aster
staff
форме
অনেকে
থাকার
বন্ধু
ambako
fields
конфли
проект
టాక్సీ
yksittä
keskusta
kesultanan
возможности
##أو
궤
##ева
##кну
##сем
কঠ
특정
##년대에
##wara
ash
мер
독일의
부른다
##abara
##imaye
angl
hope
nick
työt
дире
ряда
сочи
تعود
পূজা
##engene
##ydestä
comes
exact
lähtö
الدكت
##igizaji
damage
словам
العزيز
النووي
కవరేజి
hänellä
ordered
näytteli
ইউনাইটেড
##এল
##evä
##িনে
ие
마르
##aban
##vari
##лизм
##اطعة
##نيات
ime
ruh
그들의
중국의
지역을
##ellyt
##endek
##ريقية
##কুমার
join
shah
trig
지역에서
herät
далее
بينها
مشروع
##kaupung
berlin
хорошо
freedom
центром
эйнштей
diterima
championship
##cus
강원
권한
안정
제안
집권
##суль
##గుండ
ame
taw
гар
وأخ
يلي
কাঁ
##প্রথম
tiap
tila
vähä
пока
пост
حديث
##ighter
lewis
mwanz
pombe
награ
জ্ঞান
memang
serbia
термина
ব্রাহ্ম
secondary
kansanedusta
##وخ
습
##선의
##apu
##они
##ادم
##اره
##ونه
53
##amed
##bean
##াসরি
lyö
вдо
##ссажи
laus
твёр
jawab
общей
أوائل
حكومة
لاحقا
pemilu
провин
الجانب
opposed
pidetty
prevent
নিজেদের
##ilization
положение
##05
##شية
집중
##ento
##erra
##peng
##িভার
anj
cli
veg
ген
ডিম
##agang
##onian
##osisi
spek
المف
يوسف
##kadang
1998,
liian
paran
pyrit
النفس
علاقة
output
vähent
начиная
otettiin
communist
dikatakan
indigenous
количества
промышленности
값
##아가
##سلم
##బాల
شر
효과
##taus
##ابية
##ুম্ব
##స్తి
119
spr
কোর
বাম
그들은
##ehold
aiku
rose
порт
الحل
مكون
impos
milan
норма
آنذاك
মহারা
saling
вокруг
الرحمن
merujuk
ప్రైవేట్
komersial
prefektur
uchunguzi
применение
꾸
##akh
62
경찰
금지
물론
##일부터
##eces
##erts
##pros
##sama
##креп
21.
বীর
##abeth
##engar
##osial
##брита
slov
অর্ধ
machi
sanaa
غالبا
মাদ্র
##elajari
agosti
maiden
mengaj
follows
kalinya
সিস্টেম
##চি
##টর
##লী
팀
##위의
سق
바꾸
완성
##aham
##деле
181
xvi
дра
теа
에너지
##world
hait
holy
حساب
يمثل
##idemok
##osiasi
kilat
newsp
sales
двумя
বাইরে
মৌলিক
kivuka
mikäli
päämin
ক্রিকে
##empatkan
growing
sisällä
приходи
সংযুক্ত
conscious
##stö
##িতি
ау
বী
분포
##idon
##utua
##жным
##قياس
রকম
সেল
식민지
인구가
##пусти
guth
تغير
ফাইন
genre
moral
msimu
голов
নিরাপ
##atorium
##cluding
recomm
yhdeks
অলিম্প
##ensional
upacara
периода
الجامعة
septemba
প্রস্তুত
equipment
operating
presented
beroperasi
опубликова
menyelesaikan
##এফ
##lig
##الج
##পাল
##বংশ
мм
계승
담당
소속
##akia
##bles
##insa
##isko
1,5
##istäm
##клады
perf
инду
أقدم
فيلم
그레고리
##encies
##тивных
partn
вслед
الأثر
string
suuria
terror
loppuun
mandela
принято
النظرية
expected
equivalent
##문에
##었던
##주로
pp
노력
바뀌
이스
##자들의
##igur
##onso
##тным
##স্বর
##ারেল
etc
زمن
##ipped
##tunut
kank
nine
ones
سليم
والز
অক্স
##ждении
##ارتفاع
покры
честь
الحال
الحسن
서울특별시
rauhan
случай
menurun
päätöks
বাহিনীর
современных
##ws
##였고
##jää
##rey
##сия
##ابط
##ক্ক
##মূহ
جا
마련
aja
aqu
시기에
fort
الفي
تمكن
صغير
##ilishi
##untien
##ুমাত্র
gives
sugar
земле
اجتما
النظر
running
гравита
সম্পন্ন
demokrat
hatimaye
perintah
compounds
utamaduni
helmikuuta
соединения
##.(
춘
##탈린
##acc
##bet
##uge
##zes
##الا
##нина
##тина
fib
قدي
##icted
##ণ্ডিত
1906
ciri
fans
дели
آسيا
الذه
print
spons
преду
ракет
рсфср
halafu
kirjan
догово
الموقع
পাহাড়
সীমানা
ataupun
команди
الحالات
##ajulikana
astronom
dimiliki
greatest
liikkeen
компания
extensive
kappaletta
kilometrin
melanjutkan
삶
##ulo
##нты
##пти
##টাই
##েরণ
اض
غر
##ging
##jänä
##মূলক
##য়িক
mim
শাখ
১৮৮
외에도
##opped
##полло
##тации
стоя
الأه
##eltiin
kiose
marsh
ryhmä
খাদ্য
##isyyttä
hämeen
vanhan
натура
الشركة
experim
месторо
невозмо
الأحيان
الروسية
manufact
присоеди
الكائنات
النباتات
aiheuttaa
kioseaniki
##أل
##장과
##сед
나온
아무
##iner
##ряду
بلا
بنت
جام
তাম
폴란드
형태로
dite
finn
miji
صورة
ammat
tarak
vähän
ঠাকুর
##engkapi
##যুদ্ধের
faktor
karbon
##indahkan
##стрирова
удалось
membunuh
উদ্দেশ্য
computers
определения
촉
튀
##가의
##대표
##нюю
зи
있기
##jawa
##печа
비슷한
chol
rinn
viik
коре
معدل
##alisis
accur
факти
أعداد
তারপর
##ান্তরিত
dialek
online
oxygen
##ilaisten
পুনরায়
matkusta
الديمقرا
определение
넣
뇌
##전쟁
##투갈
##det
##াগত
미술
제품
##ocks
##voll
##احية
##্যোগ
-->
myy
uku
هما
인구의
##attor
##ولاية
##দ্বীপ
farm
funk
tari
васи
يطلق
মহাব
kruun
kudus
групп
الدور
এটিকে
গানের
##unungan
gazeti
японии
আয়োজন
notably
provins
সম্পাদক
##ababishwa
##нс
##حق
##ধর
##নো
##ads
##ebo
##تاء
(7
여행
##crib
ohj
yer
##tekij
1908
tyyl
воро
сами
##yahudi
arsit
macam
البحث
##alliset
jemaat
kwenda
والاست
ঐতিহ্য
##imbulkan
entered
ihmiset
মুসলমান
atlantic
distance
uhusiano
নির্বাচন
kirkonkyl
الجمهورية
произведения
##uz
##gam
##вос
##ناط
##هضة
##ণ্য
낮은
##book
##ekat
##ilio
##rier
##stan
##ীকরণ
25.
##tives
1913
alas
file
kauk
naim
ndio
поги
الام
التك
##ättiin
abrah
কন্যা
propag
server
الحالي
##ambahkan
активно
চিহ্নিত
families
miongoni
sederhana
ditetapkan
организова
মহারাষ্ট্র
constantine
##.'
혜
వే
내부
얼마
##سيوم
##্রাট
##కాళహ
lup
оде
##ibusi
##itiiv
##äneen
##навли
chal
luom
shape
গান্ধ
সংখ্য
##isuudet
senior
satelit
student
позволи
المسيحي
потенциа
communication
웹
##sää
##под
##ьёз
##ابر
##ارد
uw
أط
체결
출시
##ries
##груп
##জনের
23.
gil
تتح
আরব
সহজ
##atiin
##اريات
fran
isän
орде
поко
حدوث
berku
brief
depos
sites
синте
الأمن
تنظيم
كبيرا
অবদান
এগুলি
##umption
##umuisha
bodies
refers
потому
kecuali
сопрово
философ
##ification
syntynyt
последние
digantikan
organizations
##vol
##оне
##وند
동부
##تهاء
(14
cpu
daw
lyn
мог
দেহ
1907
mali
অংশে
নেতা
সাফল
হবার
##athiri
##others
ardhi
espan
сразу
##aration
lopull
yhtiön
класса
уничто
المحيط
المكان
নিজস্ব
веществ
получили
వ్యాసాలు
itsenäist
julkaistu
ketinggian
университет
##ذك
멀
##원과
##종이
##pas
##vas
##луч
##ناح
1:
خل
রং
간의
항공
##akah
##elua
##ingo
##пись
рок
##akuan
##impiä
##trans
##влено
psyk
vaati
المشت
এমনকি
алкого
военно
потреб
వనరులు
তুলনায়
chrysler
suosittu
kahdeksan
intelligence
järjestettiin
##--
##’,
؛
##위가
##ski
##дил
اغ
몇몇
여운
해외
##acts
##ehet
##enes
##kala
##гани
gad
неё
أست
جان
আদি
কুর
##unjuk
bamb
صاحب
لندن
##ebasan
##eltään
##щается
charg
intel
lives
الصحي
قاعدة
والمن
##unction
kertoi
kertoo
perhat
silver
dilihat
restric
воздуха
наиболь
##tamisesta
краснояр
পর্যায়ে
depending
সাম্রাজ্য
##ূর
##조가
만나
##вень
##тине
177
##াগরের
aceh
barb
carb
fill
উদ্ব
대통령은
##ولوجية
أشكال
খ্যাত
##tämistä
weight
প্রতিক
হ্যারি
factors
toimint
الجزائر
الطبيعة
seuraavat
##বু
##드로
##리오
##куп
##мию
##شير
##عيم
৫৪
노예
maw
ডাক
정책을
##arifa
##eball
##нском
##త్యాల
이루어져
##গুলোকে
belas
capac
kateg
самой
المكتب
الممكن
গ্রামে
বাস্তব
నీటిని
density
mestaru
portugal
regarded
syyskuussa
принадлежа
toukokuussa
সাম্রাজ্যের
##ئا
##크라
##akl
##tid
##روة
أض
우주
##한다고
##down
##ulah
##vaih
##পক্ষ
syl
бар
경우도
못했다
##eshwa
##itasi
##uilla
отда
реда
اسمه
جيمس
바탕으로
##вольно
2014.
tanda
väkil
часов
desain
nyumba
parall
keempat
kuninka
برشلونة
వ్యాసాల
রবীন্দ্রনাথ
правительство
익
펼
##사회
##_13
69
건물
행동
##itse
##vuot
мон
убе
لله
তাহ
শীত
아니다
pant
الخي
بالج
هيئة
ধীরে
이용하여
##active
1997,
antaa
matka
ndugu
الكتب
##unjungi
causes
persia
samoin
supply
turned
visiwa
শিরোপা
storage
регуляр
связано
যাওয়ার
scotland
appearance
liitettiin
преимущественно
##efa
자본
##tely
##скре
##ليين
alp
fox
озе
বাত
##ardia
##ynnin
chir
henk
tenn
toiv
your
любо
الأج
مرات
وبدأ
বক্ত
mbele
samud
suhta
রহমান
##্যাশনাল
daniel
issued
moment
пассажи
kompetisi
principle
##리드
##вия
##ادت
##خمة
##داء
##াটা
##esin
##urun
##তিতে
##াণিত
cil
нью
সোন
##adiri
##emman
##вляет
kimb
вида
газо
заря
логи
люби
ক্রম
fifth
nykya
выска
непре
involv
матери
العلاج
যাওয়া
entinen
keisari
lilikuwa
северной
الصناعية
المسيحية
standards
pegunungan
seurakunta
helmikuussa
henkilökohta
##-0
##эй
##лог
##нке
##চরণ
무렵
인민
##amua
##ayan
##helm
##kins
##umsi
##تباط
nos
ফের
##ukkue
##систе
##কালের
tano
ziwa
التخ
كامل
وقام
muina
pasif
духов
плане
মেটাল
dibuka
kabila
legend
диалек
সরাসরি
menguas
গ্রন্থে
creating
politics
tumbuhan
hollywood
containing
significantly
##পদ
##లమ
##낸다
##문의
##fil
##hai
##seb
##رنت
##زلة
##কৃত
대립
둘러
승격
파괴
##вшее
##чено
نجد
##jenis
##ন্ধান
фигу
تشير
كمية
وفقا
##okseen
##unched
##тивной
asuin
puolu
مملكة
##принима
flight
изгото
পরিচয়
решения
invasion
профессо
reactions
измерения
vuosittain
##лл
##량이
##생활
##서관
##하의
##лок
##كام
دا
수입
##oche
##ড়ার
22.
دفع
لغة
১৮৭
스탈린
정부가
##essed
##ottaa
aksi
isol
juur
maur
края
이승만은
포르투갈
absol
dikel
ideal
peral
pwani
কিংবা
helium
huitwa
записа
beatles
выпуска
البرلمان
অস্ট্রেল
সর্বাধিক
prominent
transition
peningkatan
##شئ
##데타
##평양
##বেগ
방정
판매
##вказ
##зона
505
그대로
하나로
##inder
1500
tien
поте
مهمة
hiukk
науки
تأسيس
مقابل
celtic
confuc
sarjan
##entially
berkata
жителей
сегодня
соверше
প্রজাতি
dominican
molecules
الأوروبية
departemen
rakennettu
предприятия
샤
##-12
##بان
##خين
##صرة
63
dj
저항
##ীরের
usa
чет
كيف
시대에
인간의
##ewati
##щении
##وائية
laat
sifa
пово
суда
الرئ
بدور
buddh
drama
kiafr
входи
крепо
солне
успеш
وأصبح
মুদ্র
ukrain
возгла
конкре
kitaifa
sebutan
অভ্যন্ত
vuodessa
##صى
##수한
##low
##spe
##yöh
##zar
##äyt
##خرة
확대
##보다는
179
nin
ملا
사실상
##opter
##right
grad
ابنه
যাবে
লম্ব
##amalla
##బాలబడి
avoid
näitä
tarpe
изуча
такое
custom
halusi
marine
vastaa
pakaian
satunna
theorem
случаях
electrons
jerusalem
menghadapi
subsequently
##되자
##hta
##kal
##pak
##pes
##tie
##tue
##кле
hp
పి
법률
터키
##하려는
##chem
10%
للخ
مكة
আবু
দখল
##class
##kapai
eliz
inap
note
wolf
subur
секре
كيلوم
সংবাদ
##istoria
giving
модели
actions
itsensä
offered
päättyi
অভিনেতা
yogyakarta
советского
##يق
##vet
##ريض
더불
뛰어
목표
지휘
##anye
##cola
##usha
ара
أسس
سوق
مدى
লিপ
##angel
bund
cogn
unix
শ্রী
##zekano
alich
frans
joint
kerus
ndiyo
sulit
массы
العظم
এভাবে
নিশ্চ
##ityksiä
প্রযোজ
kohtaan
maximum
pesisir
actually
পরিকল্পনা
প্রোগ্রাম
difference
కిలోమీటర్లకు
##نه
벗
율
##사업
##점이
##dra
##jaj
##kis
##عها
##টিল
তু
##ظاهر
اشت
قرب
##amizi
##eless
pyhä
rasi
تعني
veden
исход
##স্কৃতিক
combat
menemp
survey
yaliyo
البيزن
প্রক্র
రామగుండ
arkkiteh
observed
polandia
tasavallan
##리트
##치가
##_12
##kki
##nor
##wis
##zia
##лад
##час
##لبة
##মাস
ix
أه
제조
##رسال
##ودية
##ভাগে
##ేషను
24.
dos
sky
여전히
##endar
##надца
آثار
مؤلف
##adinya
##itable
##ukuran
kuvaa
мозга
свето
أراضي
اتجاه
mwanam
reveal
москвы
مباراة
leaving
связыва
الفيزيا
puolella
движение
completely
entertainment
##طا
##단의
##бин
##зан
##лях
##عرض
##مثل
붕괴
전환
충돌
##piir
##నూరు
гро
pier
قناة
لويس
দাবি
পক্ষ
রাখে
##ikasta
arvio
corps
skill
tower
yksik
солда
aprili
doctor
сочета
художе
максима
сохраня
describe
parlemen
perhatian
концентра
##ిస్తున్నారు
aleksander
##sy
##리지
##kky
##кка
##рас
##الأ
##لاة
##ীকে
초대
평양
##agua
##akti
##ekwa
ডিজ
##ంలోనూ
jälj
pria
обви
keker
käänn
войск
থানার
courts
gained
##angkaian
dikirim
ধারাবাহ
sittemmin
названием
##4)
##öö
##ذة
##yer
##ксу
##язы
কী
교수
##kuat
##ölle
##тета
##رائي
##ানির
##াস্ক
wit
নোব
관련된
3000
الرب
করছে
কোটি
২০০৪
경우에는
drive
murid
ranga
الجبل
بطولة
প্যার
স্ট্র
eisenh
yliopp
##ancurkan
guthrie
الاقتصاد
caribbean
menguasai
pendukung
komunikasi
খ্রিষ্টাব্দের
##ؤس
놀
##وته
나가
##انوية
bush
opin
wave
معاد
마이크로
##edonia
##менных
euroa
hypot
kalli
khmer
onkin
solar
vanha
يتكون
##aguliwa
danish
encour
jotkut
kinach
laitte
mengel
работе
التطور
الجهاز
কলেজের
পর্যবে
concord
require
украины
المعركة
medieval
అవసరాలకు
elections
технологи
leadership
##류의
##10.
##ديه
শো
반발
##речи
##িবার
sap
মেড
হাল
가까운
더불어
서비스
##eding
##ennus
acts
fuel
mapa
polt
summ
солн
ثاني
رسول
목적으로
##aribio
##assaan
##বিদ্যা
##ায়নিক
bekas
rates
هؤلاء
##ingatan
##ollisen
hutokea
площади
понятия
البداية
medicine
occasion
uwezekano
произведе
understanding
억
##력은
##abi
##oes
##мым
##нил
##مام
##ঘাত
계열
선정
##tejä
##ukai
##ساهم
20,
oks
нем
##cript
##pania
1890
daun
hahm
tell
täyt
artis
lived
mikro
trees
النيل
##angulia
##గిత్యాల
keperc
mengal
moving
европы
الدماغ
ডিগ্রি
samping
karibuni
الكاثولي
diperlukan
menghubungkan
##গু
##리학
##etz
##зме
##رمز
##وتر
기계
표면
##니스탄
##ambi
##prot
##quar
##гина
##нена
тен
জড়
##safat
##বারের
kulj
meks
oire
трак
##obatan
##utions
##стойчи
##тивные
fisik
татар
toista
vector
beragam
passeng
pekerja
বিদ্যমান
elokuussa
постепенно
specifically
##ফর
##হর
##토벤
##/19
##800
##طال
##ুতি
치료
회복
##ehen
##ملية
فلم
stop
varm
##فاعلات
brand
bukit
expla
sepen
tahap
write
স্টেড
##ционные
haraka
tuleva
весьма
চৌধুরী
hänestä
sanottu
waislamu
wanaweza
определи
pelayanan
правитель
формирова
##kt
##ав
##উজ
잇
##asm
##пии
##بعد
##زام
kv
హి
에스
영역
총독
##itat
##ربيع
##াহিত
هدف
##части
kima
прав
##ailand
##పూర్లో
etnis
hyper
rival
прямо
الأقل
واسعة
সহযোগ
agreed
device
hindia
joukot
tulisi
партии
##বিজ্ঞানী
memakai
relatif
вооружё
крупных
జగిత్యాల
friedrich
mendorong
officially
রাষ্ট্রপতি
স্টেডিয়াম
memproduksi
исследований
##دل
##대전
##শ্র
67
보수
##하고자
##علوم
178
gog
pon
vai
بحر
كات
국회의
케플러
##evile
##ختلاف
fyys
grew
omaa
wear
дело
коор
مياه
يعيش
আমার
주장했다
##itteen
##ustann
##্যান্ট
appar
ujung
الأمم
قيادة
tietoa
wealth
пересе
membeli
writers
বিস্তৃত
##vuotiaana
karjalan
architecture
##ьи
##jek
##علم
##হাট
তে
사랑
하이
##شارد
503
ফলা
##asily
##uduki
alph
riwa
кора
ныне
المث
অনুর
ইঞ্জ
জাদু
만들었다
##ikansa
2018,
route
toleo
##batasan
kasvoi
naskah
puolet
vijana
বিবর্ত
সমর্থন
hallits
berbasis
campuran
koulutus
библиоте
institution
ధ
##로를
##-14
##sub
##джи
##لاس
##ورت
소유
좋은
##mond
##nama
##вной
##াচার
alis
obat
saya
কমিউ
##usisha
##তত্ত্ব
fixed
paras
корпу
পতাকা
ammatt
البناء
దుకాణం
conclud
johnson
русской
الإنتاج
প্রান্ত
menengah
создание
subsequent
প্রক্রিয়া
administrasi
##рк
낳
짧
##라엘
##رجة
##ন্ব
##১৯৯
##icts
##ента
##жены
##пози
##نتين
lub
বাগ
সান
중에서
##erkki
##единё
alla
golf
ming
sien
##fanana
##unuhan
##utettu
akili
kohta
المفا
ম্যাগ
##ikkönen
kartan
verran
предна
প্রচুর
laporan
prinsip
supreme
абсолют
kilatini
räikkönen
##구에
##산의
##시와
##트를
##raf
##рец
##ъек
##وصا
حص
강한
##iete
##ними
##рных
##জায়
bed
riv
uny
сай
##kitso
##order
##влека
##িতায়
ehkä
jobs
meni
noud
sunn
руси
сена
слов
أصدر
سرعة
لعام
##খানকার
itali
##лекопита
السودان
الشمالي
которому
অন্যদিকে
viimeinen
berhubungan
kansainvälinen
распространение
##국에
##ألف
##باء
##خور
##নগর
##্জন
##–17
شك
صي
매년
##unza
##емое
##عبير
wel
মাহ
রোম
২টি
##ammin
##istui
harm
muot
tipe
بدون
বয়স
대통령이
##anteen
##oikeus
inher
নোবেল
##illisen
affair
wanted
##ebutuhan
##istetaan
##тельными
angkasa
koostuu
saattoi
##anfaatkan
attempts
mwenyewe
обнаружи
peraturan
территория
характеризу
environmental
##دى
##غا
##পন
##단체
##밖에
##вки
##лер
##ؤون
##واح
##াশে
mn
쓰는
파리
##muka
##star
##اخلي
747
rut
سوى
فهم
বিধ
##ikizo
##oting
barr
heti
jama
mish
ассо
заво
пото
alkaa
erään
kabar
связь
بصورة
boston
purpos
swasta
окружа
рублей
статус
সম্ভবত
osittain
কলকাতায়
находятся
সম্পর্কিত
eisenhower
peringatan
##järjestelmän
##하에
##реж
##тел
##افع
##ময়
৬০
나뉘
여름
##part
##town
##лена
##мами
##рока
##чена
##سبوع
13,
erä
nir
выя
той
يتح
বাঘ
있었고
##omena
##ристо
kard
mbio
sini
отря
##kauden
views
الموس
##indungi
##unjukan
bronze
crisis
harian
lukuun
mwanzo
osaksi
propor
الفضاء
মন্ত্র
স্কুলে
##ствовали
overall
следова
defeated
electronic
euroopassa
государственной
##زر
##600
##fin
##iac
##вла
##الق
##ماه
밖에
전개
##부르크
##eech
##onge
##обла
##щает
##عاون
##াক্স
##িবাস
##కుంట
ডার
##lerin
##ниями
mete
saba
কখনও
গ্রী
잉글랜드
angin
daily
urefu
البول
তড়িৎ
##ভিত্তিক
opetta
satuan
vizuri
المرأة
আলোচনা
সম্রাট
aspects
berusia
maskapai
##тт
##ৎস
##라의
##uji
##ynä
##াঁদ
##ర్మ
ль
##계에서
##omes
##umbi
##দন্ত
##িলের
hib
ice
msa
وأس
##ubali
##öistä
##িন্দু
1911
basi
ثورة
قياس
প্রে
الكبد
ولذلك
dramat
такого
энерги
authors
devices
quantum
পরীক্ষা
doctrine
requires
muodostaa
radiation
множества
শুধুমাত্র
「
##교를
##르게
##함을
##جهة
##—18
نش
실행
##нике
##يلية
كام
##aging
##ivoim
1800
hamm
hann
ilme
lili
pans
riit
asked
dream
kuche
shang
vyake
##ifikasi
আরেকটি
artinya
whereas
площадь
স্বাস্থ
##anchester
daughter
theories
membutuhkan
великобрита
transportation
##단이
##와는
##say
##öks
##рип
몽골
살아
##로서의
##ahit
##elam
##lein
##ائها
##ارها
##বস্ত
##లుగు
zim
##jakan
##nyata
##turut
##صالات
кара
паде
عامي
##льский
perso
взгля
спект
إقليم
درجات
আদর্শ
kelapa
kertas
menjual
naisten
tampere
исключи
средств
ప్రత్తి
advanced
generasi
terpisah
situation
млекопита
производство
ঊ
##스에
##র্দ
소재
##ador
##usto
##الجة
##ريدة
##وحات
тка
جسم
전쟁을
##jukan
##لالات
beet
brig
mund
نجاح
##teeksi
##utuvat
##গুলিকে
cinta
kinga
kuulu
термо
والسي
ويوجد
barcel
ilmiah
figures
pääosin
typical
الحيوية
berperan
selvästi
الرياضية
జిల్లాకు
controlled
kaupungissa
käsikirjoit
##sky
##ндо
##افر
##باط
ig
jr
쉽게
##amar
##inti
##otic
##writ
##энер
##োজিত
##্রেড
30.
سري
কাশ
শিক
##aleja
sout
выну
подо
##emahan
##imweng
miche
tuomi
ленин
وزارة
নামেও
##ওয়ার্ড
belong
combin
figure
stable
##ционного
liikenn
minutes
periaat
الخليفة
penyanyi
объектов
البيانات
kebutuhan
православ
expression
노태
침공
##ardo
##järv
##اديم
##راوح
##కొండ
محم
ينت
##icial
##র্ঘ্য
грам
жерт
пыта
مربع
উক্ত
শতকে
##arawan
##hiriki
1999.
2017,
effec
liike
menit
أبناء
দশকের
easily
liquid
skitso
##ervation
georgia
ratkais
العراقي
golongan
интерпре
получила
peringkat
complexity
settlement
официально
differences
профессиона
쇠
##부로
##agu
##дне
##цам
##কুল
##পরি
##াদশ
##였으며
##적이고
##ydet
##тков
##وافق
kug
мыш
사실을
##andan
##спосо
conj
osin
কল্প
사람들은
##lahden
alami
chris
kesku
utamb
العين
تعريف
কাব্য
принял
أعماله
##కాళహస్తి
zingine
الشعبية
powerful
advantage
##yc
##ал
##ভব
##১১
##개발
##백질
##화의
##ssa
##wer
##ేదు
88
مث
경쟁
보유
위험
##emar
##wali
##нили
##щены
##াগার
গোপ
로마의
베토벤
##ব্যাপ
ages
greg
zone
исти
వెంక
kierr
верши
تعتمد
مجموع
যাদের
##ilipino
bidhaa
greece
maissa
reduce
shared
urutan
грузии
বোঝায়
justice
নিয়মিত
policies
toisista
importance
menentukan
huhtikuussa
kepercayaan
##سك
##자에
##형은
##pin
##pur
##työ
##нес
##برة
감소
본래
있지
플라
##free
##pace
##ظرية
##вшись
##метра
##كسجين
##েক্টর
doug
fell
lock
nusu
snow
vene
نظرا
대해서는
일반적인
judul
mixed
polyn
seinä
umeme
walit
полёт
ресур
বাড়ি
##istettu
##lawanan
##фикация
helped
isänsä
marked
rekaman
биологи
tapahtui
mwandishi
organized
historically
##벡터
##గర్
건너
경향
군주
비중
산맥
##일리아
##abad
##ohja
##udin
##স্টি
27.
bug
vul
صوت
데이터
실제로
##ilaan
##isina
chel
core
köyh
totu
общи
تزال
رجال
আর্থ
##pohjan
##рудова
jeshi
linna
metro
näkyv
rekor
কাজের
সমন্ব
##enhagen
pengan
spoken
меньше
المناخ
granted
ihminen
liittyy
الصحراء
vilevile
অস্তিত্ব
প্রত্যেক
kesäkuussa
##bt
##طى
##구역
##arr
##pet
##صدر
জম
대략
동아
##ajah
##enee
##щена
##డీలు
현재는
##akkan
##inity
##rahim
##্লেষণ
says
ইতাল
##etahui
##влению
1990,
anton
dimas
naval
optim
syrjä
التحر
assign
cooper
kompos
masjid
toyota
другим
серьёз
আমাদের
পার্টি
পুরস্ক
nimensä
##ступления
memegang
শতাব্দীতে
manchester
governments
menampilkan
##kav
##صرف
73
৭০
나오
##amii
##fast
##বিতে
bom
лин
شيو
ford
hunt
merc
доли
차지하고
piste
sides
تختلف
##entikan
maalum
орбита
బీడీలు
reasons
sikukuu
yohanes
большая
البشرية
cameroon
komponen
relative
долларов
americans
ruotsissa
secretary
রাসায়নিক
pengadilan
##라야
##왕의
##일의
##сах
##مرض
##কাম
##েতু
حس
لر
그해
세종
오스
철학
##дить
##цент
##راءة
tro
بمن
গেম
##공화국의
##chron
##eista
hole
мифо
الوظ
مساح
والل
ولقد
##tional
##ప్రధాన
kapin
trial
vanke
ثانية
جائزة
الباحث
البروت
يستطيع
الثلاثة
thailand
অভিনেত্র
exception
ottamatta
substanti
pembunuhan
государств
pääministeri
##ـ،
##চা
##롭게
##약을
##die
##على
##قام
##وحة
승리
제도
##vien
##ীর্ণ
##సముద
abb
хло
একর
국가의
말했다
##stein
##valtu
mang
разо
الأو
الحب
نشاط
يحمل
কখনো
emplo
славя
রাস্ত
చిన్న
speech
капита
tilalle
уровень
puolesta
скорости
состоянии
principles
sopimuksen
সাংস্কৃতিক
siirrettiin
государственный
##rec
##sah
##xon
ঘর
측정
##jeni
##rium
##لاسي
##يدات
tip
##oliki
##stand
##ykset
##িশালী
baku
jeff
miko
ring
zero
مثال
##teesta
##лением
koord
mempr
ordin
split
напря
income
kritik
simbol
##elahiran
sepuluh
teatter
brittilä
ternyata
mayoritas
taloudell
##_14
##lap
##стр
##так
হে
새로
##astr
##ikuv
##tuot
##ارضة
##رافق
##علام
##ড়াই
mip
##thing
##поста
##ينيات
astr
cars
fysi
jeni
joit
kaiv
varr
музе
وراء
২০০০
২০০৫
##contin
##yttiin
##начала
babak
edist
horiz
zenye
السبب
كنيسة
##gerakan
cayman
labour
অস্ত্র
##oversial
mediter
الثقافة
العسكري
##opimuksen
something
получения
##عف
##만의
##луа
##وسع
##াজন
대원
정상
##arto
##holm
##omaa
##ждён
##يمون
bla
най
دعم
صنع
ফার
##irian
##kerta
##timet
##ناطيس
##ويورك
pick
task
이름으로
##lement
lewat
linux
plate
voice
мужчи
المحي
joukku
oldest
toward
tunnus
kijamii
kutokea
matukio
perhaps
الأطفال
baseball
kiafrika
ufaransa
mengetahui
increasingly
безопасности
##رر
##صي
##ًّ
β
##сят
##স্র
작성
##osha
##osph
##ucks
##били
##زيمة
##طوير
orb
дом
ини
##isinä
##untia
##ూరులో
umbo
vaim
vote
наза
напо
الحس
عنصر
ইন্দ
পুরো
이스라엘
ehdot
infan
بسرعة
লীগের
writer
пользу
сравни
cardiff
daratan
victory
заключа
expanded
skitsofr
memerintahkan
##9)
##hän
##she
##ادق
##انع
##ياب
##কেল
##্টা
목적
완전
음력
크로
##ivia
##تبطة
##كسون
aat
fab
got
оса
ويل
খুঁ
ধাত
ভাব
전쟁이
haud
keju
kish
газа
وإلى
##unjung
apart
blues
gradu
micro
pilot
usage
valtu
особо
করছেন
పల్లె
argent
calvin
kulkee
kuuluv
wawili
ولكنها
tuotant
ইতিহাসে
নিযুক্ত
প্রদর্শ
সীমান্ত
berkeley
melayani
puoliväl
западной
cambridge
toiminnan
التقليدية
perbatasan
teollisuus
immediately
sijaitsevat
'(
##))
##»;
족
##kke
##zen
##زال
74
ওঠ
석유
신앙
##orin
##льци
##حيدة
##াঞ্চ
suc
ман
##inkan
##терна
moto
pikk
seem
الكر
অল্প
boleh
drink
marit
plans
price
urusi
الغاز
শহরটি
albumi
kuljet
liitty
চতুর্থ
##фицирова
السياسة
المدرسة
achieved
filsafat
kunnassa
peräisin
المعروفة
kesempatan
yhteiskunn
##07
##cs
##시마
##бре
##غال
사후
인한
##사에서
##elea
##krip
##nant
##tech
##শেষে
ими
يرى
মাম
##agnet
##ikati
##ipuol
##sburg
vara
الأق
تسبب
##ceeded
1,000
calon
libya
эволю
المجا
aksara
ibunya
mobile
yellow
пласти
rahasia
concrete
neighbor
kaikkiaan
командова
состояния
determined
puheenjohtaja
십
##전은
##체에
것도
공용
진출
##engk
##ত্তর
##বরাহ
kyk
تأس
##orian
##perin
##undwa
##ామిడి
epäs
haja
hiil
maju
sall
sank
يزال
고등학교
buruh
swiss
الضغط
تماما
ক্ষতি
마찬가지로
##চ্ছিন্ন
bishop
buatan
chanzo
аполло
النواة
وتعتبر
##umpulkan
jäsenet
opening
peoples
الكربون
గొట్టపు
protestan
пространства
##కో
##드를
##분의
##دخل
보면
아테
천황
현실
##term
##zama
##اتية
##ثلاث
cin
cot
ukr
رائ
못하고
##aksud
##itusi
##произ
##যাত্র
##াগুলো
sara
vetä
vina
поки
стои
тонн
آلاف
##ikahan
1994,
adapt
latar
parti
иркут
মিত্র
klasik
подраз
الأوسط
##untungan
minimum
ottoman
praktik
järjestö
saksassa
tercatat
সংস্কৃতি
toisistaan
প্রতিযোগিতা
굴
##르고
##지방
##텔레
##형이
##wil
##цом
##تهي
##لاج
4-
##/200
##eltu
##ilun
##usul
##طيسي
##সিংহ
##্প্র
ika
ира
চীন
##astaa
##াগুলি
1904
holl
адре
delta
expos
perce
sarat
позна
الإله
الاعت
والمع
অ্যাড
ম্যাচ
accept
extrem
kuolem
الأربع
అన్నది
##ственная
contrib
merilis
স্থাপিত
ilmavoim
kirjaili
yanaweza
الألماني
الميلادي
আমেরিকান
berpendapat
competition
##위는
##ুকে
##্লা
যথ
##iday
28.
umb
بكل
خرج
##ভুক্ত
taiv
след
стол
теат
титу
خالد
مسجد
మూడు
##akaran
##toivat
discip
exists
spirit
масшта
بطريقة
محاولة
länsima
wagonjwa
означает
русского
العلاقات
bagaimana
similarly
pernikahan
##жо
##나무
##شرف
##రాజ
ей
তো
##user
##вича
##বেদন
##াপ্র
14,
rit
ستة
فمن
মিন
한다는
##телям
mode
جهاز
এটির
নিতে
##isters
alone
bands
mount
yusuf
главе
##ologies
badala
permin
sekutu
supers
tärkeä
vitabu
должно
اعتبار
الكريم
зависит
الأسنان
المرحلة
launched
liikenne
процесса
পার্থক্য
konservat
yerusalem
দিয়েছিলেন
agriculture
##_8
é
빼
##cht
##leb
##ses
개선
독재
말을
심각
##pitä
##sing
##вало
##اتهم
atp
cak
jin
nus
всю
мел
কের
##ровки
väit
xvii
прис
цвет
بهذه
سانت
مصدر
사용된다
하나이다
1997.
bible
sched
সূর্য
##annissa
alfred
atlant
tapaan
оружия
أحيانا
##tämiseen
ibrahim
johtaja
setengah
perguruan
##دت
š
둔
##간다
##제국
##해가
##_15
##xic
##জেন
날에
hul
kop
хол
나머지
##versi
##বার্গ
sell
uefa
силу
شبكة
프랑스의
##umbani
alkan
memer
musta
steve
сверх
строе
تحقيق
artist
maanti
mapafu
proved
النشاط
ఇక్కడి
matemat
monarch
الواقعة
parallel
purposes
занимает
элементы
মাদ্রাসা
describes
kelahiran
combination
helsingissä
представители
представления
classification
##01
##صح
##부와
##yai
##гам
##кин
##ائن
##ريج
선수
작업
##iton
##هولة
##প্রক
##্রমে
suv
сна
чел
ভেত
강력한
##abaya
##adhim
##rasia
hamb
شارك
##inzani
##িভার্স
salib
sauti
tewas
компи
могли
المرا
যুগের
failure
превыша
slightly
vähemmän
chemistry
popularity
మరుగుదొడ్ల
##islestadiola
mahdollisesti
##সু
즐
##미터
##خيص
국경
신문
##kata
##omea
##жать
##рией
sle
راب
ريت
হোস
기능을
##utaan
##ходов
feel
mars
onge
инже
сети
পরিম
##ettuna
##utusta
##падает
##россий
going
index
kiell
nomin
passa
wides
auring
elimin
fantas
negoti
raamat
useful
входит
অবলম্ব
penjara
persian
sesuatu
باعتبار
kannalta
terbatas
академии
শক্তিশালী
components
##تة
##كك
##জল
##াং
##권의
##dim
##fal
##ued
##кор
##лым
##تار
##ষ্ম
##ుడు
আঁ
৪০
৮০
뒤에
불과
비율
##ares
##osuh
##wesi
##змом
##ново
##زايد
##عتها
bik
nut
tyr
రాజ
వదల
dies
kami
äiti
путе
ряза
مالك
హింద
##ikseen
lahan
pysyv
শিকার
prison
safety
гипоте
الملكي
শব্দের
##tructure
becomes
древней
работал
প্রতিনি
algorithm
attention
particles
positions
välttämät
отношении
содержание
గ్రామంప్రధాన
##2-
μ
액
##식에
##어들
##형의
##eba
##egu
##onc
##بيه
##কান
##াসে
كن
묘사
세르
##وحيد
##ولين
##কীয়
##ektor
##elewa
##immin
##kansa
##oloni
##tajat
##جموعة
lemp
marg
unes
алфа
клад
cable
istri
menaw
pyhän
الأند
##aporkan
##ituksen
##tymisen
armeij
sehari
испыта
общего
اختيار
saatiin
সক্রিয়
##тического
existing
setempat
suurempi
versions
половине
মুহাম্মদ
الاجتماعي
dilaksanakan
##পে
윌
##공산
##량의
##루스
##트의
##все
##يوش
##ামে
##ఇతర
99
종합
참석
통한
회원
##ност
##ющем
##واصل
##োদ্ধ
май
그래서
##jojen
##tamia
##вился
adat
wing
##anggil
##edakan
##isikan
1995.
luost
movie
равен
район
##ওয়্যার
persib
полага
المذهب
correct
reports
directed
inspired
mchezaji
memenuhi
протяжении
##фы
##ادئ
비밀
활용
##aram
##elih
##ukur
kaz
واش
##ulasi
kept
kuku
ryhm
يبدو
১৯৯০
##ayansi
##uneita
##সমূহের
1995,
2019,
uzazi
youth
تتميز
balkan
displa
malang
vision
должна
театра
setting
terbagi
الجنوبي
الزراعة
প্রশিক্ষ
সংক্রান্ত
temperatures
##삼국
##щем
##اعد
##র্ট
98
대체
보다
##하다가
##anon
##arki
##hehe
##tani
##мато
31.
فرض
তেল
문제가
사람은
위해서
이것이
이름이
##onton
hume
peli
идеи
##anikio
##iltaan
honor
notes
মূল্য
সৈন্য
##ittänyt
wadudu
динами
অভিযোগ
সরবরাহ
potensi
중화인민공화국
elokuvan
координа
kuninkaan
kehilangan
##৩০
##৬০
##방송
##산은
##신의
##jum
##zep
##اين
##لقب
##করণ
##ళిక
fi
রি
সচ
도착
비난
##acho
##assi
##бран
##купа
##плуа
##గిరి
단백질
##akati
##haria
демо
مثلا
ছাড়
##динами
1996,
virhe
отвер
إلكتر
تصميم
বেড়ে
orders
comment
demille
порядка
constell
melewati
mengakui
основным
الروماني
wanafunzi
отдельных
menimbulkan
##류를
##пой
##ديو
경영
준비
##abor
##iona
##okas
##zeko
##zidi
##হেতু
тип
উপস
인하여
##жению
adap
demi
khan
تشار
##ствием
##স্বরূপ
графи
الصوت
##utuksen
##вляются
anjing
начали
অভিহিত
জয়লাভ
closely
langkah
majelis
имеется
рациона
উৎপত্তি
variable
vuodelta
александр
heinäkuussa
особенности
определяется
##ীম
##량은
##량을
##div
##roy
##ناه
가정
대구
행사
##oter
##roll
15,
26.
29.
die
ани
للر
পথে
##ampak
##works
disp
edes
evol
kerä
vess
الكل
##joista
##paikan
##propri
পাঞ্জ
cancer
kilich
sarjak
script
sector
центре
المنتج
catalan
الرسمية
প্রকৌশল
williams
проблемы
keskimäärin
##غو
##lev
##rus
##جري
##ناق
вв
فه
근처
불러
원로
##우스는
##اصيل
##্রয়
mao
그에게
##estys
arke
tema
пять
কালো
##프가니스탄
##ungkap
##তিক্রম
1998.
bened
candi
disco
kalah
shoot
دائرة
ঢাকার
##western
mapema
materi
pieces
sekret
showed
языках
التهاب
المسرح
michezo
suomala
السيطرة
العلاقة
المستوى
ক্ষুদ্র
bakteria
capacity
ongezeko
partikel
ulimweng
mafanikio
nimettiin
ইউনিভার্স
resistance
возникнове
instruments
వదలబడుతోంది
짐
##рид
##тое
##ьер
##امه
كأ
기여
사립
살고
처리
##arno
##atom
##icks
##mine
##äntö
##несе
##رائب
asc
سيا
##стана
nort
oksi
vaak
рома
사이에서
##ناطيسي
empir
navig
penal
введе
##ческому
epäonn
jangka
lazima
search
ympäri
الحسين
##kielinen
suggest
terveys
الشخصية
النهاية
টেলিভিশন
residents
suurimmat
konferensi
московской
tarkoituksena
##fc
##gs
##mr
##사령
ще
정리
편입
125
bce
পাস
유일한
##aliza
##eskus
##inium
##tinen
##ulang
##приня
http
امتد
حسين
##kaitan
advoc
taust
имели
الفرد
تحويل
ناحية
বোর্ড
postik
обрабо
الحملة
kikubwa
platform
содержит
সাহায্যে
советской
اليونانية
##06
##ৈত
##하나
##ناع
2:
강제
대응
상업
이민
죽음
##까지는
##avaa
##egal
##eksu
##pool
##seud
##жное
##ুকুর
esc
pig
эфи
لون
##স্থার
mkon
rica
впло
اليس
পাখি
সম্ব
##heshim
2016.
глубо
иметь
специ
إجراء
الصلي
রক্ষা
##ложения
actual
daging
lanjut
muihin
الدفاع
আকর্ষণ
বলেছেন
contract
memainkan
pendapatan
pernyataan
constitutional
##rav
##يمن
হক
당선
종종
##자들을
##eluk
##ково
##اوية
aur
కాల
##istoa
##teran
nair
имел
উয়ে
বছরে
rasul
празд
اللبن
যেকোন
హిందూ
ontari
воздуш
вообще
প্রত্ন
##ologists
spesies
equation
literary
napoleon
получить
thousands
permintaan
##02
##ণে
##음악
##정치
##_18
##jäh
##lov
##yin
##إذا
##ذين
##شرق
##ডেম
##রাস
భౌ
복잡
한강
##arme
##ibar
##itto
##raja
##هوري
fan
rug
skp
tac
قطع
일어난
한반도
1870
alij
homa
misi
pank
وزير
وقيل
জটিল
##engele
1700-
hamil
messa
ottaa
prest
وأيضا
compil
ditand
дороги
الرسول
উপজেলা
finland
seksual
الكلاسي
aplikasi
kejadian
kilpailu
organisa
процессе
##operasikan
eduskunta
reformasi
оборудова
философии
గ్రామంఇతర
الإمبراطور
vuosikymmen
##চন
##르가
##isv
##sol
##сил
##تية
##حات
##درا
[[
서양
일을
##upan
##ান্য
যৌথ
운동을
중화민
##ogram
##okent
##ulate
##ulizo
##unggu
##петер
##ড়ায়
##পক্ষে
user
والآ
독립운동
##itting
##odassa
##াভাবিক
dubai
тропи
بنسبة
تعليم
시작되었다
aiheut
andrew
newton
العلمي
متعددة
ويعتبر
এলাকার
kambing
kuingia
respect
semesta
рекомен
ছড়িয়ে
действий
законода
распреде
الدراسات
asukkaista
copenhagen
sijaitseva
الإسكندرية
씨
앨
휘
##ниц
##ори
##ائم
##ناف
##ందీ
সঠ
김성
나치
조성
축구
확립
##ajia
##elec
##lien
##وفية
350
jet
ost
শতা
##레일리아
##olate
##দ্দিন
##గోళిక
kika
reun
väär
цело
أصغر
আহমে
ভালো
রূপে
extra
книги
преде
বাধ্য
ভিডিও
kampus
kokoom
mongol
syntyy
данный
обусло
বিতর্ক
বিমানব
planned
الخارجي
భౌగోళిక
operated
tarakimu
alizaliwa
berfungsi
kifaransa
menerbitkan
populations
seurakunnat
##لل
##ovo
##yle
##све
##خطط
##عاء
##واس
##সাধ
##িমা
(8
ht
공업
국토
위의
##과대학
##해졌다
##ibit
##ärvi
##ريان
##বায়
##ালার
hes
isä
ski
хро
للط
브라질
##pread
##ত্রের
rare
окон
##льному
1991,
erosi
saatu
সূচনা
인도네시아
##tymistä
agency
kannat
majina
아프가니스탄
##puolueen
hukuman
israeli
কার্যকর
cornwall
external
molemmat
suggests
vaikutti
neuvottel
الفلسطينية
##شد
##গে
린
싱
젊
##學校
##같은
##고를
##려고
##시로
##여자
##eko
##пом
##шек
##يدة
فص
৪৬
తా
김영
체포
##asha
##esia
##okal
##ابلن
##ভাষা
bys
gay
osu
rar
sha
ule
تمر
기존의
대규모
한나라
##ambat
##eksen
##лении
##ার্থী
epid
fame
tahu
الأط
জাতি
##рабаты
jääki
spent
музей
назад
резко
##alankan
##usishwa
niissä
kongres
граждан
сначала
ক্লাবের
স্বীকৃতি
peralatan
vaaleissa
widespread
প্রতিষ্ঠাতা
непосредственно
##gé
##öm
##대중
##гах
##الع
5-
оз
نب
갖추
금속
배경
중세
패배
##월부터
##rans
##ältä
##ত্তা
игр
مهم
শ্ব
##okeza
avat
biji
##imbaji
##облада
decay
neliö
глаго
المعم
وبذلك
ক্যার
ছবিতে
বিদেশ
소프트웨어
lasten
uwanja
contact
scholar
winning
родился
эксплуа
التسمية
ريتشارد
calendar
proteins
utambuzi
dinamakan
regarding
statement
сопровожда
muodostavat
translation
→
##epp
##lih
##osu
##reh
##urb
নম
보존
##tane
##кали
##حصاء
кад
বরং
যথে
독립을
들어가
##ipoti
##ায়ার
معين
canon
miten
sudut
легко
العرش
خلايا
দৃশ্য
sääntö
альбом
diction
جمهورية
ম্যানচে
большого
небольшо
предлага
নির্ধারণ
గణాంకాలు
erityisen
otherwise
penampilan
verrattuna
الكهربائية
##08
왔
##시코
##neg
##siä
##рва
##سته
##قيم
##وقي
##ণিক
tö
পট
మద
이듬
##어졌다
##ichi
##mies
##oral
19,
сын
بإن
##black
##elämä
1880
1909
jees
kaya
wame
ними
খেলে
##intern
##tivity
##రెడ్డి
потре
проме
demand
hyödyn
masomo
mundur
temple
смысле
واستمر
ম্যানে
الأولية
المالية
আক্রান্ত
providing
প্রযুক্তি
০
##독립
##류가
##지도
##chy
##orf
##sil
##weg
##جاب
##داب
##شفى
##ঠের
хе
대기
바다
보는
애플
재정
제거
흡수
##radi
##udes
afg
fun
jyr
syy
이후에
##ettyä
##täviä
##দ্রোহ
##্শনিক
cryp
دخول
jambo
reign
война
الشعر
تمتلك
ছেড়ে
paitsi
##eritakan
ambacho
ilmuwan
quarter
জেনারেল
koordina
continues
magnitude
filosofian
menjalankan
voimakkaasti
##»:
##سد
##권이
##석을
##하이
##12.
##uro
##عفر
##ফের
%)
తయ
권력
다이
못한
오히
위협
의사
하루
활발
##하기로
##ennä
##type
##urak
##্যাড
##allin
##личия
##нисти
plus
samu
панк
тира
ميسي
audio
persi
ميناء
নিয়ম
caesar
kichwa
muista
основы
السويس
উদ্যোগ
নেওয়া
critics
насчиты
operator
surabaya
సిబ్బందీ
menawarkan
##ei
й
##어도
##했기
##gah
##رسل
##كول
##াউন
যত
서식
판단
##으면서
##elar
##enea
##ople
##ukum
##ättä
##بعاد
##لبية
##న్ని
lov
ric
wir
পদে
제외한
##ambut
##uster
##বিষ্য
cair
свер
رياض
দিবস
2017.
asema
maksim
الأعلى
##ayangkan
delapan
measure
tärkein
элемент
##upuolella
johdolla
työntekij
восточной
ultimately
allekirjoit
mempelajari
pääkaupunki
প্রয়োজনীয়
ulkopuolella
을
##위로
##퍼슨
##jiä
원소
이룬
##bill
##пуль
звё
سوف
한다고
kaas
kein
nähd
sort
سعود
##చెరువు
cerem
enzim
huomi
koulu
paint
беско
созна
تغيير
لأنها
গোষ্ঠ
##erjakan
##рование
armada
circle
stabil
tulkin
tunnel
الوصول
بينهما
военных
церковь
الأحداث
الجمعية
rejected
чемпиона
attempted
bersamaan
elizabeth
shinikizo
ব্যবহারের
홀
##일이
##isc
##uny
##টিত
##োধন
##–15
단체
흔히
##film
##ttps
##tymä
##дида
##దిరి
إما
موت
##amkan
##oinut
##opäiv
##point
تزوج
পটার
রঙের
১৯৮০
##ukiman
bonds
enemy
kuond
kwake
titan
изото
ত্যাগ
মাসের
comedy
medium
hadithi
tuottaa
большей
высокой
পার্শ্ব
স্থায়ী
acquired
antiikin
দার্শনিক
তাপমাত্রা
фактически
incorporated
consciousness
##থি
앙
##교의
##리히
##전문
##who
##yed
거절
알아
최종
##four
##ectic
##eraha
##запад
##حافظة
##حوالي
(199
arms
asuu
maml
mult
rute
semp
гото
крем
сара
الصي
ولما
ينتج
##ivoire
plays
самый
وهكذا
গুপ্ত
##juangan
##ululizo
knight
موجودة
receive
паралле
постано
الرابطة
helsinki
pohjalta
yhdeksän
внимание
প্রতিরোধ
contained
contohnya
postikodi
’
괴
덴
벽
##당과
##후의
##qur
##يبة
공연
백제
##anal
##ogue
##oinn
##trop
cyr
rid
حسن
জেম
차이가
##ommun
1896
frag
kuda
stim
vinc
леги
##ikunta
##yhtiön
##গ্রন্থ
babyl
mikoa
steph
##yatakan
kanker
prince
raised
неодно
dioxide
rapidly
riippum
suhteen
uislamu
weapons
функций
প্রেসিড
concepts
mengatur
suffered
উইলিয়াম
программа
স্বাস্থ্য
kansalliss
дальнейшем
seuraavassa
применяется
##론의
##호가
##esa
##lav
##тку
##جلة
##ديث
##ران
##ির্
اص
거두
귀국
민간
충분
##하다고
##adel
##паде
##مكان
18,
hog
raf
swe
نور
ফিফ
제퍼슨
하는데
##iliwa
pair
речи
стру
тело
bangk
induc
manif
vifaa
масса
факто
البيت
##entrasi
здоров
برنامج
অবস্থা
village
крестья
historic
semuanya
দিয়েছেন
destroyed
melibatkan
republican
dikeluarkan
государство
##-9
##ডে
##обо
##نيخ
##এইচ
##কেই
##ব্ল
그렇
너무
논쟁
떠나
본격
##idel
##kaus
##omon
##udun
##тная
##ائمة
##صدير
##র্তা
каз
سعد
কমে
비교적
쿠데타
##forma
##ivity
##osken
##বিত্র
osti
otto
реши
ربما
২০০৩
이루어진
##ajaran
1990.
1996.
abstr
clock
coach
lähte
sayap
песни
цикло
تصنيف
مليار
##ционный
alonso
biblia
kisasa
listed
tarafa
اللغات
যাত্রা
##aksanaan
##ampaikan
awarded
forward
ristiri
roughly
второго
##engenezwa
fighting
сотрудни
practices
generation
##기고
##작용
##box
##روض
개정
브루
철도
협력
##ding
##ulty
##гами
ago
xav
세력을
이듬해
1860
азии
##wahili
kedok
kituo
moder
pesan
pintu
держа
михаи
путин
تشكيل
##ictions
colour
conven
kuishi
muissa
määrää
криста
самолё
portion
управля
##ennettiin
الألمانية
المجموعات
surrounding
turvallisuus
##উই
##гры
##১৯৮
96
np
외에
위에
중의
##bian
##زابي
%).
eug
شعر
আনা
##elezo
##usnya
##стами
haik
kiri
наде
أصول
عمره
মর্য
innov
kimal
mimea
overs
tekni
герме
колле
табли
цвета
كتابة
castle
strugg
научно
уровне
afrikan
lapisan
القبائل
সহায়তা
municipal
отношение
derivative
dinyatakan
꽃
##개혁
##문이
##but
##kem
##ray
##شاب
##ليس
إع
김일
사냥
인근
힘을
##점으로
##urhe
##ينيا
sia
фра
إنه
সুন
##icara
##ships
##ুসারে
bapa
mika
অস্ব
আলোক
রয়ে
সবুজ
hijau
kanan
ohjel
pysty
saari
sanot
yksin
одном
الإير
الحمل
dewasa
jurisd
kuinka
prayer
satisf
spaces
частиц
ধর্মের
abraham
anthrop
materia
sodankä
знамени
বিবেচনা
##heshimiwa
nykyinen
toimitus
অর্থনীতি
отечестве
اللاتينية
territories
##ফি
##রো
##노동
##_11
##law
##гор
##نيا
##িলি
##্না
감염
사무
##kina
##luas
##mäki
##ukia
##uver
##ytyy
##прав
##اسات
hif
зев
সিম
##amana
##ведён
##элект
nest
цели
القل
تحول
দত্ত
되었으며
##okkaan
##ব্যাপী
miezi
piece
selat
traff
летом
إطلاق
অপরাধ
choice
waters
الماضي
باللغة
রাজবংশ
المبكرة
그레고리력으로
bertugas
kigiriki
victoria
পড়াশোনা
যুক্তরাজ
berjumlah
seuraavan
vähintään
городской
предложил
অভিনেত্রী
developing
yhdysvallat
встречаются
administratif
первоначально
##수와
##aux
##ube
##্তন
мг
টে
సో
##aval
##come
##oval
##вило
kod
män
teb
ата
وست
রোড
면적은
##elman
##ublin
##yivät
##ympär
arti
korv
окси
угро
##uvasti
1993,
chamb
match
pelin
pione
weeks
будут
تكوين
বিবরণ
archae
colony
export
jarang
kutamb
päivää
uudist
наряду
lengkap
metabol
ontario
переход
오스트레일리아
##including
officers
ushahidi
институт
##tification
aiheuttam
frequency
inflation
keuntungan
constructed
центральной
presidential
concentration
establishment
traditionally
##ফে
##ীদ
##ంబ
##내고
##디아
##랐다
##았고
##чие
##ويد
يا
그에
시각
탄생
##افات
بدء
বেঁ
যুব
##tajia
bant
bowl
dian
peak
tuan
viii
моди
член
এখনও
জর্জ
태어났다
##alance
kweli
sillo
utend
valmi
стати
كيميا
##actions
##immista
##luvulle
aseman
exclus
разные
список
اللاعب
সত্ত্ব
heavily
refused
theatre
русском
الأثرية
kategori
vanhoill
включает
গ্রন্থের
ভিত্তিতে
правления
britannian
듣
##스카
##ppi
##tig
##ypp
##рги
##قول
##ল্ল
78
결성
만큼
발행
소개
시설
일이
##받았다
##born
##imbi
##medi
##ulin
##кана
ern
pup
охо
هام
চির
নাই
##erasi
##زابيث
1901
mkat
фили
بالد
مسرح
있었으나
##ikiran
count
inner
marej
ельци
البال
قصيرة
মিশ্র
##aratibu
##clusion
dokter
effort
путеше
albumin
arrived
conspir
ilmasto
ketidak
studied
больших
المصادر
তাদেরকে
barabara
croatian
mewakili
producing
сравнению
inayofuata
составляют
খ্রিস্টাব্দে
##">
척
획
##혁명
##нса
##فصل
성격
안에
추측
투표
풍부
##otas
##unyi
##жает
##шими
##برية
بتح
দাব
##house
##rates
##ukaus
##দানের
1897
1903
anta
eläv
folk
irak
sanc
капи
маги
قائد
لكرة
يسمح
আমরা
ত্রি
##called
##ongoza
любой
أفراد
للاست
ఇక్కడ
kadiri
murder
palkin
pengaw
измени
الخليج
الرجال
defence
наличие
никогда
colonies
العمليات
itselleen
demokraatt
processing
tergantung
publication
##ün
##가가
##ukt
##علن
76
yk
시장
응용
##hiri
##kkää
##lima
xiv
джо
تقد
নজর
ভয়
মনো
과정을
##poika
##াসমূহ
konk
гали
ছবির
নকশা
##ifanya
bersa
lebar
الاشت
تقديم
ফলাফল
dibawa
hadiah
henkeä
kritis
собира
visible
الإصابة
البلدان
alliance
captured
espanjan
neuvosto
obtained
interview
kekerasan
menentang
sejarawan
предназна
agricultural
##ইউ
##구스
##년일
##eki
##цах
##غيل
##োলি
дю
টু
만약
##우스의
##elia
##from
##стен
##োলার
অসম
##iaika
##влены
##нское
##турой
##جمالي
hart
kike
neva
sugu
заим
الور
উদ্ধ
ডলার
##adaban
##angkut
##িক্যাল
liber
reput
объяс
إيران
الحية
الصيد
লম্বা
##issance
##льского
inayot
signif
suurta
австра
الطبقة
ইঞ্জিন
ভবিষ্য
instruc
kirjaim
kontrak
pilihan
respond
نيويورك
brothers
المباراة
menestyks
mfululizo
состоянию
সাহিত্যের
investment
применения
influential
profesional
предприятий
##_9
##యి
죄
##시를
끝에
혼란
##akat
##arit
##ehti
##sten
##ينما
##ందుల
unk
درا
صور
لذا
가능한
##elmän
##ubung
##тории
diku
kart
ligi
plas
tuho
viip
اتفا
مرور
হস্ত
1994.
drugs
edell
ganda
рядом
اعتبر
আগ্রহ
উপকূল
##tävissä
##ложение
cairan
الفيلم
পণ্ডিত
kohdist
normally
stations
преоблада
সর্বপ্রথম
keskuudessa
laboratorium
##sd
##ণী
훨
##권은
##얀마
##تاز
##শিপ
إخ
도로
뿐만
이광
증거
형식
##arai
##otyp
ars
محل
বসু
관심을
사람의
##ковые
eräs
fern
атом
häiri
komik
nyuma
puluh
suoja
turki
линей
точно
معرفة
আকারে
atomic
comics
kaiken
kirumi
rivers
rooman
yoyote
вплоть
памяти
abandon
englant
linguis
случаев
الفلسفة
مجموعات
joukossa
pedagang
భౌగోళికం
argentina
kristinus
organisme
introduction
##طو
냉
##러운
##시가
##äne
##ضان
##ورو
##ينو
공공
##ager
##enya
##onga
##ääll
##екти
##порт
##تمام
##رجمة
##فيات
dry
nye
uut
цве
সোস
రాయ
월드컵
##ambia
##andin
kuti
laun
shor
torn
winn
чита
شديد
وصول
##isinya
depth
eläin
goods
ratio
towns
насто
новое
соору
النقل
وخلال
আবদুল
##teisiin
extent
measur
saying
senate
الجزائ
##числения
douglas
الفيروس
cultures
довольно
الزراعية
authorities
большинстве
##03
밑
##스키
##obo
##tex
이른
##imir
##rani
waj
ورو
모습을
이야기
##ahasa
##uting
##নিস্ট
elää
yale
кило
одну
спла
الجل
মঞ্চ
১৯৭০
##elussa
##tified
##ментом
beach
ghana
какой
معروف
يعتمد
paikan
народа
القرية
কর্ণাট
সংসদের
##ственном
bakteri
bernard
horizon
tieteen
الأساسي
criminal
employed
nyumbani
известны
technique
classified
городского
mathematical
administrative
##دن
##베르
##분을
##자치
##нто
##ряз
##থার
61
яр
এত
গর
방언
훨씬
##주의를
##appa
##ario
##atis
##caya
##ykke
##нять
##реги
16,
عائ
##atnya
##etoim
crew
djib
hyvä
kary
mini
боги
види
ирак
мари
صلاح
১৯৪৭
##portun
##няются
basin
hergé
korva
quite
সিনেম
##antinya
##oksella
##olainen
##спомина
asukas
burung
chosen
বিক্রি
মাইক্র
coastal
saluran
крупные
монасты
kutumika
sulawesi
tuotanto
কর্মজীবন
wataalamu
elektronik
pertunjukan
температуры
##하라
يغ
구별
넓은
리눅
유리
##älän
##лета
##чить
##وبات
##াবনা
mai
нам
كول
হেল
##aikka
##েশনের
palv
попа
судь
форм
شهدت
##amaian
2018.
anime
heter
inten
pemak
saksa
нефти
القدس
ছবিটি
sought
заявил
коммер
объект
спустя
chronic
menjaga
merebut
monitor
tourism
yleinen
промежу
финансо
একাডেমি
সংস্কার
হওয়ায়
##opatikana
technical
البكتيريا
historians
##tp
##تز
쌓
##ikh
##цем
##فاد
pd
행성
##윤년일
##jely
##wahi
##خفاض
##গাঁও
##িন্স
euk
nyw
شار
오스만
오히려
emin
erit
대부분은
##ностей
canal
meant
أصحاب
الأما
شخصية
ضريبة
নির্ণ
পর্বত
##ekuensi
commer
inspir
joihin
lintas
tampak
যথেষ্ট
##براطورية
chromos
emerged
kennedy
marejeo
nairobi
nucleus
tarkast
التابعة
المدارس
##বিজ্ঞানের
improved
katikati
временем
действие
kuolemaan
provinces
жуковский
постоянно
экономики
вследствие
обозначения
kepemimpinan
происхождение
##zh
##لو
##ঘর
##টস
##–3
##백만
##세에
##크는
##jon
##kah
##sey
##شرت
##عار
##فرد
##ونا
نم
ভল
나무
살해
서부
선포
저서
##ziwa
##لفاء
50%
kyt
nev
суд
##attan
##هائية
##ينيين
mort
всем
пище
семи
##ration
##ষ্ট্রে
glass
miguu
uzito
vastu
княже
крови
رواية
জীবনে
##amiseen
favour
patung
taajam
tempur
квадра
tahansa
استعمال
alphabet
rautatie
household
kappaleen
spiritual
mengangkat
అనంతపురంలోనూ
существование
##xx
맹
##당한
##수록
##gre
##ينغ
##াণী
اي
넘어
요한
인종
##되었던
##шему
##কেরা
أبد
أدت
ناب
পিত
사회적
##esium
##новки
##িবাসী
1895
dice
istr
plot
pyth
يذكر
খুবই
পরের
সিটি
##руются
adams
banks
holds
kujit
ruled
одина
تفسير
বিহার
##aliknya
##apishwa
##atangan
##mestaru
waziri
التشري
ব্যর্থ
illustr
seiring
tunnust
академи
స్టేషను
individu
অভিনয়ের
categories
kutangulia
scientists
большинства
космонавтов
ম্যানচেস্টার
characteristics
##-"
##نق
##zaa
##ума
##انس
##করা
عش
فح
فس
مئ
되면
어떻
오르
의존
지식
##멕시코
##acha
##also
##apar
##aped
##täjä
##ukti
##لامة
##াকের
nah
опа
ссы
##athan
coff
hear
отец
الإغ
অতির
মহান
##teista
##tirely
akawa
diant
sympt
книге
athena
sovell
turing
инициа
الساعة
الملكة
تشارلز
وأصبحت
kidemok
unknown
единицы
entirely
onnistui
tietokon
mentioned
произошло
##6)
##바이
##화와
##"("
##лая
##بيا
##ভেন
명성
중반
탄압
한일
##졌으며
##cium
##ekin
##evia
##kons
##mäen
##okir
##trin
##емым
##افعي
##ুরুর
fly
rok
tau
сад
فار
وبي
##annan
##anouk
##aseen
##eissa
##влена
anna
benz
صحيح
والا
দূরে
세르비아
##ilingi
##intaan
##возгла
adolf
chair
kursi
pohja
silti
turut
välit
метод
особы
рефор
учили
basket
espanj
mengus
метров
চিকিৎস
konsert
интенси
комбина
finished
возраста
родились
discovery
vapaaehto
kedokteran
maintained
sebaliknya
työskenteli
встречается
##(1
##مه
##년을
##음이
##maj
##сии
##хам
##روط
##فال
##নির
mz
##기에는
##alih
##udia
ضغط
উপল
필요한
##полне
##সংখ্য
##েশ্বর
flat
fung
ohio
omat
solm
пожа
كتلة
গেলে
차지한다
##estari
##hehebu
grant
proto
satur
добро
самом
أحداث
لبنان
artikk
chocta
iliyot
unable
избира
сейчас
البيئة
chelsea
theater
бесконе
действу
লিখেছেন
##েন্দ্রনাথ
opportun
الإيطالي
##لح
##한국
##ean
##far
##lir
##вит
##فوذ
pm
ذي
고유
김정
진보
침략
##주었다
##adat
##anni
##ashi
##heys
##lang
##rees
##usat
##стую
20%
заг
ألب
تقل
عكس
فرق
নেট
이르러
##aanza
##ijing
##ilini
##vasta
##وتاسي
goal
джон
الآر
حقوق
فيصل
مسلم
আসলে
##oversi
##wealth
##wisata
caffe
crime
owned
sanan
väkiv
الموت
শারীর
##kehitys
##ukselle
afghan
diubah
suosit
walter
посред
факуль
الشتاء
উয়েফা
বিষয়ক
bencana
cornish
оригина
ক্রিকেট
ব্ল্যাক
##tamiseksi
berkuasa
mukaansa
konstitusi
জনপ্রিয়তা
##일러
##2).
##_19
##лён
##раи
pö
кп
লা
개편
왕국
재판
투쟁
##iser
##oney
##твор
17,
انق
عضو
하나님
##oskop
##скопа
hetk
sans
vaar
있었으며
##ikolla
##ilassa
##менные
##метров
##ющийся
sinar
اسمها
পিতার
ভ্রমণ
##وتاسيوم
leaves
nakala
rogers
samuel
الكلمة
প্রেরণ
সমৃদ্ধ
dickens
ollessa
большую
природы
নিশ্চিত
headquar
sihanouk
комплекс
существу
структура
происхождения
##rt
##ão
##زيا
##ليد
حف
কত
받는
배우
양성
요소
입학
##ilas
##odon
##اعية
90%
hob
nya
tag
маг
ضرب
সাব
자동차
##posti
##ärven
##никам
##никах
##زيادة
##ঙ্গের
##নিষ্ঠ
dulu
kort
nost
olet
told
чрез
الاع
الرم
aivan
asidi
hicho
tekee
tried
بلدية
##uneiden
##ওয়ার্ক
intens
kepaus
madrid
потеря
বিজয়ী
lukisan
manager
physics
кандида
বাড়িতে
bilangan
menghind
useimmat
নেতৃত্বে
dirancang
dilengkapi
расположен
kidemokrasia
##>,
##تس
##ভে
##산이
##esm
##tol
##wez
##zym
##бла
##оны
##رفض
##طاج
166
pom
aven
cina
toko
холо
فيشر
মিশর
buruk
exped
jakaa
kartu
kulta
глаза
общая
حيوان
قبيلة
نتائج
চীনের
জীবনী
##atalous
##oksesta
kamili
punaka
schumi
калигу
отобра
соотно
বিষ্ণু
##ababishi
decline
состава
সাম্প্র
abdullah
geografi
producer
seksuaal
virginia
utaratibu
kirjailija
interpretation
kansallissosial
##서의
##일본
##rig
##зий
##ئلة
##اوي
##وجب
ас
পশ
농민
생겨
행렬
##관으로
##mati
##pass
##خصصة
##كتاب
##উন্ড
109
auk
isk
jun
бол
зам
সাঁ
সাদ
당시의
##innut
##сибир
anay
lien
##forest
##органи
nimeä
санкт
مراكز
যোগ্য
కదిరి
తయారీ
10,000
স্নাতক
cocaine
samudra
teoksen
withdra
функция
الحالية
রাজনীতি
academic
collabor
kolonial
kualitas
saratani
الإسرائي
conducted
matematika
существования
todennäköisesti
##)》
##09
##ax
##령을
##티나
##log
##جاح
##جية
##كين
##ফুল
اد
৭৫
간주
젊은
점을
통제
편찬
##드리아
##하다는
##ardi
##haan
##iper
##umes
##داخل
liu
فين
চাপ
##eluun
##ওয়াল
1898
abol
bann
teos
مترا
##lainen
##uksell
##غرافيا
1600-
benua
manip
ulama
ключе
الهدف
পানির
##istered
cender
minuut
varust
изобре
членов
الجبال
##atangani
pemilik
wenyewe
yugosla
генерал
сторону
hutumika
michigan
monaster
опублико
billboard
প্রধানমন্ত্রী
##tš
##uw
##xy
##বৈ
##니는
##대와
##cat
##ego
##kur
##োতে
অশ
독자
리그
명이
민중
전파
##소프트
##elty
##iria
##قيدة
dod
брю
ستي
قيم
هند
##train
html
kuil
osaa
proh
putr
виль
прем
أظهر
flood
hands
paulo
бассе
الساح
القصر
لفترة
দেবতা
మూసిన
##কেন্দ্র
kiinan
medali
выдели
الكتلة
আল্লাহ
ihmisiä
الداخلي
kuongeza
tapahtuu
العراقية
berkaitan
dipandang
diperoleh
функциона
কমিউনিস্ট
perjuangan
ব্যক্তিত্ব
mathematics
శ్రీకాళహస్తి
##زع
##শব
짓
##면에
##700
공급
뉴턴
중단
항상
허용
##었는데
##적이다
##apua
##emic
##دارة
طرف
مال
헝가리
kiih
linc
qing
дыха
това
دورا
يشكل
##enzake
##মহাদেশ
heitä
среды
জায়গ
##anzibar
##ormatan
apakah
muongo
yanayo
মৌসুমে
সাংবাদ
berlaku
esittää
декабре
русский
сопроти
считают
الأحياء
الأمراض
institut
involves
sciences
началось
среднего
المجاورة
জ্যোতির্
వృత్తులు
kapasitas
mwigizaji
mainstream
suunnitelm
##끄는
##ehi
##gio
##juh
##как
##زيل
##ملت
##وطن
##وكب
gn
기온
서버
원칙
죽은
##ipel
##koul
##odor
##ксуа
##িন্ড
kiy
mko
waw
চর্
사용할
##риста
##тения
1871
soko
xiii
като
спут
لبعض
##tajien
johor
pangk
proof
вселе
మందుల
##itawala
talvis
العنصر
অনুপ্র
খেলায়
সপ্তাহ
##adilisha
##sekarang
fantasy
forests
madhara
wastani
проведе
দেওয়ার
criticism
peradaban
নির্বাচনী
semenanjung
corresponding
##غب
밤
칠
##력과
##틀러
##하겠
##rek
##র্প
فا
সন
강릉
베이
옮겨
편집
##인들을
##funk
##ikio
##jauh
##miss
##وريد
21,
eye
бур
লোহ
##esian
##under
##waktu
##ెల్లం
pras
zisi
архе
квар
عرفت
يرجع
গবেষ
사용되는
lands
plane
البلا
##tämisen
homoni
sakram
säilyt
tertua
এশিয়া
স্বামী
হাসপাত
##allisten
binafsi
covered
officer
каждого
привело
считать
الرابعة
avioliit
kisiwani
mencegah
sembilan
президен
dedicated
manajemen
sijoittui
последний
الإنجليزي
mechanical
membuatnya
toimintaan
continental
inayoandikwa
infrastructure
##эф
끊
숭
융
##now
##жай
##قاق
উঁ
마을
친구
함수
##까지도
##äsen
##нуть
дис
لكي
বেন
##aliin
##hasil
##itage
##joona
##সিদ্ধ
maap
wasi
реша
удоб
чере
سقوط
وأما
يشير
চক্র
##ashion
##bergin
ajoit
psyko
squad
парла
препо
إسلام
قليلة
ব্যাক
candid
fellow
random
олимпи
välinen
الخلافة
affected
berhenti
বিজ্ঞানী
миллионов
experiment
sepenuhnya
tavallisesti
숨
##명한
##äät
##его
##лию
##فعة
수교
승인
피아
##aani
##only
##нено
##тива
##циол
##قيات
##টিউট
isa
미얀마
cote
dada
iman
runo
usko
whit
боже
лето
##కుప్పం
دقيقة
halisi
howard
isotop
muundo
penins
sydney
العمال
inhabit
হারিয়ে
প্রদর্শন
ব্যক্তির
mengklaim
suomalaisen
изображения
yliopistossa
sisällissodan
млекопитающих
взаимодействия
##ీల
##거리
##면을
##물로
##eby
##lik
##рки
##غان
뜻을
아내
지난
지닌
하기
##tyvä
##very
##перь
##ويلا
rup
wol
мае
пиш
وتأ
조선의
##adafi
##aidia
##alent
##okasi
##yasan
##торая
##তাবাদ
##সারিত
##ూర్లో
staf
মিনি
১৯৬০
만들어진
아일랜드
##isillä
##vuotia
##لمانية
exerc
jacob
kalta
mkono
padat
store
säily
telep
voisi
байка
стары
الرجل
عائلة
##ologist
campus
dijual
korkea
resemb
tehnyt
размер
بمدينة
স্বর্ণ
вынужде
музыкан
побереж
протоко
diameter
magnetic
альтерна
অতিরিক্ত
ইন্ডিয়া
component
kedudukan
организма
происходи
революции
statistics
খ্রিস্টপূর্ব
relationships
##mb
##يك
균
##르만
##트라
##피아
##abd
##bek
##inj
##اجد
##جمة
##ديق
сё
구체
오른
##asai
##awai
##spec
##teer
##timb
##ябрь
##ుత్త
22,
etä
iki
сми
قبر
قطر
সিক
##aling
##uessa
##щихся
ajoi
mamm
otor
thir
циол
الاص
ভক্ত
대통령의
andre
aspek
fresh
ollen
roles
rolls
sinne
speci
vaihd
выход
المطل
##omagnet
dagang
editor
##▁
##a
##i
##e
##n
##t
##s
##o
##r
##l
##u
##k
##m
##ا
##h
##d
##о
##ل
##p
##и
##е
##а
##g
##y
##c
##н
##া
##ي
##র
##b
##т
##с
##р
##م
##্
##ে
##в
##و
##w
##v
##ن
##్
##л
##f
##ি
##j
##ر
##ä
##ت
##к
##ా
##ন
##ి
##ర
##м
##ب
##ক
##1
##д
##ం
##п
##ة
##য
##ত
##ع
##ব
##د
##0
##ు
##স
##у
##ల
##న
##ف
##я
##س
##ه
##క
##ল
##ы
##ম
##г
##ك
##প
##ق
##أ
##2
##з
##మ
##়
##9
##ح
##б
##య
##ద
##స
##ప
##이
##й
##দ
##ь
##ч
##వ
##다
##ু
##గ
##ో
##ج
##z
##হ
##х
##의
##ট
##త
##에
##5
##는
##এ
##।
##জ
##শ
##،
##8
##ీ
##3
##డ
##গ
##ط
##ж
##ো
##하
##ص
##ش
##ী
##4
##7
##로
##6
##ى
##ట
##خ
##을
##ই
##ю
##إ
##ц
##চ
##ষ
##ث
##가
##고
##ভ
##한
##ే
##ز
##ö
##থ
##지
##ذ
##অ
##ং
##ধ
##ض
##은
##ఉ
##ш
##서
##ছ
##ড
##x
##기
##ూ
##대
##ф
##ও
##으
##బ
##আ
##ণ
##를
##غ
##사
##খ
##도
##인
##উ
##щ
##시
##ె
##ై
##జ
##리
##э
##어
##శ
##ئ
##자
##아
##국
##১
##년
##정
##있
##스
##나
##수
##라
##ё
##일
##부
##과
##들
##ء
##주
##전
##제
##그
##ফ
##ً
##해
##되
##«
##»
##—
##০
##적
##చ
##었
##ణ
##성
##q
##ূ
##ౌ
##여
##ظ
##ఆ
##동
##ష
##학
##హ
##구
##ّ
##장
##ఫ
##৯
##원
##였
##అ
##ৃ
##২
##상
##와
##교
##థ
##ొ
##만
##중
##공
##위
##게
##조
##భ
##화
##유
##했
##ధ
##보
##문
##세
##َ
##며
##ُ
##신
##계
##선
##경
##소
##–
##비
##것
##명
##관
##민
##르
##월
##ঠ
##개
##৫
##우
##등
##산
##당
##마
##면
##회
##역
##치
##러
##용
##후
##ঙ
##통
##미
##연
##된
##ళ
##영
_
##트
##군
##ঞ
##발
##ఇ
##진
##오
##৮
##৬
##방
##모
##분
##৭
##생
##반
##آ
##거
##무
##ঘ
##재
##”
##৪
##체
##내
##터
##식
##데
##단
##드
##간
##작
##৩
##물
##음
##니
##프
##안
##종
##운
##바
##ఠ
##타
##ঁ
##ؤ
##ৈ
##양
##때
##행
##실
##할
##파
##ృ
##요
##남
##현
##ৌ
##ఈ
##려
##호
##ِ
##크
##본
##노
##강
##포
##력
##차
##두
##독
##법
##설
##각
##속
##표
##던
##형
##히
##결
##ఖ
##업
##권
##카
##태
##임
##야
##ৎ
##·
##토
##레
##합
##함
##ـ
##않
##립
##직
##루
##건
##불
##출
##’
##왕
##또
##입
##천
##초
##심
##예
##족
##까
##키
##받
##외
##같
##점
##ఎ
##é
##따
##령
##금
##른
##북
##말
##았
##ъ
##집
##래
##배
##없
##평
##약
##언
##질
##ఒ
##추
##많
##최
##특
##편
##달
##광
##론
##번
##알
##청
##란
##록
##복
##향
##판
##ఏ
##격
##승
##피
##람
##저
##김
##네
##처
##베
##근
##석
##코
##준
##열
##류
##변
##매
##황
##목
##항
##총
##투
##악
##환
##더
##“
##활
>
##울
##술
##병
##린
##디
##버
##티
##존
##감
##‘
##》
##《
##백
##온
##육
##쟁
##쪽
##살
##난
##박
##름
##증
##창
##ْ
##브
##메
##절
##능
##급
##랑
##ঝ
##별
##확
##련
##철
##삼
##품
##망
##탄
##책
##졌
##새
##테
##및
##날
##견
##순
##페
##져
##든
##량
##쓰
##참
##탈
##규
##접
##축
##극
##؛
##협
##료
##곡
##친
##°
##́
##올
##충
##누
##송
##너
##림
##돌
##애
##필
##못
##ٍ
##완
##š
##측
##께
##ঃ
##글
##갈
##막
##째
##뒤
##럽
##농
##봉
##앙
##침
##워
##케
##ঢ
##플
##혁
?
##헌
##암
##쿠
##겨
##색
##윤
##밀
##논
##담
##길
##희
##범
##높
##곳
##패
##취
##머
##슬
##á
##큰
##ఘ
##벌
##칭
##험
##손
##념
##즈
##퍼
##응
##죽
##혼
##즉
##ఔ
##례
##귀
##쳐
##웨
##습
##채
##잡
##런
##풍
##락
##씨
##압
##움
##왔
##폐
##랜
##났
##율
##느
##늘
##ü
##효
##뉴
##징
##츠
##허
##써
##ঐ
##찬
##획
##착
##볼
##찰
##폭
##클
##덕
##될
##택
##럼
##걸
##섬
##렸
##골
##칙
##균
##맥
]
##í
##핵
##맹
##갖
##줄
##궁
##뜻
##검
##퇴
##맞
##헤
##좌
##닌
##엔
##염
##억
##슈
##얻
##폴
##흥
##층
##므
##끝
##몇
##숙
##빈
##커
##긴
##ó
##잘
##혹
##묘
##훈
##−
##힘
##킨
##벨
##홍
##켰
##익
##옥
##갔
##찾
##널
##첫
##녀
##컴
##밝
##앞
##엘
##득
##몰
##센
##엄
##넘
##뿐
##혈
##략
##칸
##블
##냈
##틀
##몽
##롯
##릭
##흐
##퓨
##혀
##턴
##둘
##괴
##척
##놓
##떠
##캐
##밖
##끼
##톨
##률
##됐
##ٌ
##α
##낸
##멸
##팔
##•
##ā
##슨
##칼
##ō
##휘
##먼
##륙
##푸
##먹
##켜
##픽
##램
##좋
##렇
##릴
##끌
##션
##델
##빠
##붙
##욕
##굴
##얼
##낮
##σ
##大
##핀
##링
##액
##덴
##싸
##휴
##잔
##틴
##춘
##­
##è
##눈
##혜
##탕
##겠
##쳤
##콘
##떨
##꾸
##곤
##죄
##겼
##〈
##〉
##님
##냐
##৷
##릉
##벽
##떤
##웠
##렬
##콜
##캠
##벤
##빌
##잠
##탁
##객
##랍
##샤
##텔
##낙
##땅
##넷
##왜
##욱
##윈
##맡
##×
##촌
##킬
##템
##ঈ
##흑
##몸
##십
##촉
##å
##넓
##렀
##융
##흔
##돈
##곧
##늑
##싱
##빛
##섭
##잉
##칠
##헨
##山
##믿
##؟
##ο
##ی
##쇼
##렵
##졸
##팀
##갑
##겐
##곱
##혔
##둔
##렌
##學
##읍
##덜
##답
##룬
##몬
##μ
##슷
##값
##놀
##풀
##ঋ
##탐
##톤
##폰
##ç
##옮
##흡
##٪
##털
##à
##옹
##„
##國
##짐
##즘
##힌
##듯
##맺
##짓
##헬
##헝
##랐
##쓴
##ρ
##£
##ν
##붕
##웅
##벡
##딸
##큼
##β
##옛
##멘
##ž
##롭
##쉽
##깊
##겸
##ι
##쌍
##잃
##ঔ
##ł
##홀
##뛰
##깨
##뇌
##쇠
##쇄
##숭
##룡
##→
##듬
##ú
##金
##돼
##쿄
##넣
##궤
##썼
##τ
##셀
##녹
##꽃
##ε
##읽
##씩
##둥
##솔
##납
##렉
##λ
##롤
##겪
##콩
##튀
##짜
##컵
##텐
##π
##王
##엽
##κ
##′
##냥
##섯
##컬
##ø
##ఋ
##ñ
##룹
{
##뉘
}
##찍
##뢰
##쉬
##숨
##킹
##â
##ć
##삶
##셈
##멀
##탑
##웹
##δ
##뀌
##č
##文
##끄
##됨
##ঊ
##얀
##즐
##벗
##잇
##튜
##펜
##롬
##ī
##「
##」
##셔
##펼
##낼
##앤
##냉
##城
##컨
##高
##낳
##짧
##팅
##켓
##뜨
##빨
##젠
##앨
##밤
##튼
##校
##ô
##웃
##빼
##윌
##흘
##東
##李
##컷
##엇
##픈
\
##첩
##밍
##랫
##젊
##낭
##묵
##ū
##γ
##道
##ã
##맨
##젤
##듣
##빙
##눅
##딩
##섰
##닉
##ē
##닥
##州
##씬
##æ
##中
##켈
##멕
##밑
##і
##人
##쌓
##三
##훨
##떻
##혐
##겔
##룩
##핑
##子
##뮤
##덤
##틸
##ë
##잎
##텍
##뒷
##젝
##롱
##폼
##힐
##끊
##θ
##꼬
##슴
##쥐
`
##€
##뉜
##ω
##ఐ
##봄
##퀴
##ì
##쓸
##『
##』
##첨
##뿌
##랙
##륨
##숫
##팽
##곽
##홈
##天
##日
##꼽
##괄
##삭
##랭
##멜
##一
##正
##ê
##پ
##南
##렴
##덩
##펠
##±
##띠
##훗
##宗
##늄
##펴
##궐
##ί
##묻
##왼
##神
##η
##앗
##흉
##꿈
##書
##춤
##گ
##韓
##듭
##팬
##섞
##뤄
##벼
##즌
##⁄
##ఊ
##꼴
##렘
##덧
##셰
##옷
##펑
##덮
##쌀
##닫
##떡
##퀘
##녕
##싶
##앉
##뮌
##횡
##ा
##곰
##뇨
##빚
##뷔
##닐
##ı
##義
##랄
##옆
##좀
##本
##끔
##밴
##셋
##ఓ
##北
##닝
##꺼
##늦
##빅
##웰
##海
##川
##맛
##新
##쫓
##뻗
##깔
##댐
##י
##큐
##뚜
##法
##्
##平
##눌
##흰
##ά
##武
##民
##숲
##上
##樂
##붉
##꾼
##明
##좁
##φ
##成
##î
##安
##氏
##ό
##市
##쿼
##公
##政
##닭
##西
##녔
##띄
##德
##朝
##等
##部
##主
##럭
##ß
##ᆞ
##∼
##會
##쾌
##太
##長
##엑
##帝
##캘
##뽑
##싼
##렐
##묶
##컫
##光
##긍
##뿔
##都
##뷰
##찌
##聖
##水
##敎
##υ
##뼈
##륜
##촬
##깝
##닿
##딘
##짝
##家
##ý
##ï
##룰
##겹
##럴
##밥
##ş
##經
##딱
##팜
##漢
##事
##仁
##軍
##굳
##ו
##府
##봐
##앵
##콤
##元
##쩌
##ڤ
##틈
##훼
##小
##륭
##田
##뤼
##캄
##렷
##펙
##ś
##깥
##슐
##햄
##룸
##셜
##र
##君
##院
##툴
##낱
##쏘
^
##χ
##原
##쿨
##地
##깃
##젖
##寺
##톱
##ò
##史
##넬
##뱀
##톰
##郡
##無
##꼭
##돕
##떼
##멤
##삽
##古
##똑
##솟
##탓
##皇
##ה
##빗
##京
##늬
##윗
##ă
##白
##끈
##島
##江
##틱
##ǔ
##記
##ə
##켄
##世
##릿
##킴
##ń
##和
##行
##춰
##・
##샘
##化
##的
##§
##之
##代
##鮮
##녁
##쏟
##훌
##ě
##歌
##븐
##굽
##制
##껍
##샌
##퀸
##全
##同
##ר
##年
##理
##女
##쯤
##五
##區
##朴
##音
##꾀
##닷
##멍
##셨
##羅
##닛
##옴
##잦
##콰
##đ
##쑨
##方
##生
##語
##門
@
##月
##딕
##봇
##官
##論
##릇
##탱
##字
##縣
##걷
##낌
##둑
##봤
##붓
##슘
##냄
##밭
##ύ
##겁
##팩
##흙
##河
##治
##馬
##끓
##陽
