[PAD]
[unused0]
[unused1]
[unused2]
[unused3]
[unused4]
[unused5]
[unused6]
[unused7]
[unused8]
[unused9]
[unused10]
[unused11]
[unused12]
[unused13]
[unused14]
[unused15]
[unused16]
[unused17]
[unused18]
[unused19]
[unused20]
[unused21]
[unused22]
[unused23]
[unused24]
[unused25]
[unused26]
[unused27]
[unused28]
[unused29]
[unused30]
[unused31]
[unused32]
[unused33]
[unused34]
[unused35]
[unused36]
[unused37]
[unused38]
[unused39]
[unused40]
[unused41]
[unused42]
[unused43]
[unused44]
[unused45]
[unused46]
[unused47]
[unused48]
[unused49]
[unused50]
[unused51]
[unused52]
[unused53]
[unused54]
[unused55]
[unused56]
[unused57]
[unused58]
[unused59]
[unused60]
[unused61]
[unused62]
[unused63]
[unused64]
[unused65]
[unused66]
[unused67]
[unused68]
[unused69]
[unused70]
[unused71]
[unused72]
[unused73]
[unused74]
[unused75]
[unused76]
[unused77]
[unused78]
[unused79]
[unused80]
[unused81]
[unused82]
[unused83]
[unused84]
[unused85]
[unused86]
[unused87]
[unused88]
[unused89]
[unused90]
[unused91]
[unused92]
[unused93]
[unused94]
[unused95]
[unused96]
[unused97]
[unused98]
[unused99]
[UNK]
[CLS]
[SEP]
[MASK]
##an
##in
##en
##ال
t
##er
ال
##is
##at
##al
m
##ar
k
s
##on
d
##it
p
##as
##he
##es
o
##un
##el
##ta
b
##or
w
##il
the
1
##ik
##ak
##am
##us
و
n
##ed
##ст
م
l
c
##ti
п
y
a
h
##ang
j
##em
##ার
##et
##য়
##ah
в
in
##ut
##но
##ur
S
##ing
##ul
##ни
##and
(
##im
##ol
v
##ad
##om
##ра
с
স
f
of
##uk
K
##্র
##్ర
и
##на
প
r
##ко
##ের
##ia
M
ক
ف
"
ب
ব
##ро
##্য
T
##ir
أ
##os
A
##ic
##id
о
##го
P
##wa
2
##ية
এ
##um
##్య
##ре
ع
##le
స
క
and
C
##то
##sa
ప
to
##ent
19
##ist
##ot
##ان
##ion
##ны
se
في
ل
##ap
B
##ли
##eng
ت
الم
##ya
di
##ри
##ান
##లో
##ات
##ль
##ле
হ
I
##ва
ম
##ok
ya
##iv
##не
من
##ين
по
##్రా
ja
వ
##ek
##ంద
on
##ка
గ
##all
##si
д
##00
##те
##ec
##ro
H
##্ত
##ме
##ార
dan
##ag
##ло
##న్
অ
yang
##ud
##än
D
ఉ
на
##ాల
##ла
##ار
##во
##ch
na
e
##్రామ
ত
ي
గ్రామ
##لى
##la
##ки
##та
##ari
th
ন
R
wa
##up
##ها
##aan
##ai
L
ك
##ers
##টি
কর
##че
N
##op
##మీ
##ми
이
##ام
##tä
##డి
##да
as
g
##een
إ
##ве
men
##ab
al
న
##ంలో
##াল
দ
J
б
ku
##ти
##od
##র্
##ika
##ig
আ
প্র
##িত
##ాయ
##ain
##িক
per
for
জ
##kan
E
##ja
##న్న
##ep
##েন
##за
##де
##ation
##ada
الأ
##tr
##ся
W
##eb
##av
##ంది
##ara
is
##ung
##ian
##ير
وال
G
##ug
##ha
ber
##ana
##мо
##ма
##re
##ون
ح
##ిక
##িন
##ter
ко
F
##ول
##ay
ar
##li
un
الت
##را
##ци
U
ద
మ
5
##য়ে
##ుం
##으로
##ty
শ
##ско
##రు
##emb
##ري
য
##ля
##ac
##же
го
##ما
##ip
##za
##ру
an
The
V
##ния
##ow
##ాయి
ter
الع
있
##th
##ви
##ev
##nya
su
র
కి
##ায়
В
##eg
In
##কে
ق
20
у
##),
##ka
ه
а
##لا
##্ব
س
##న్నాయి
со
##).
##ет
##end
ра
##ih
నుం
##ди
200
10
##aj
##స్
##tu
##াম
##to
it
##ние
was
##اس
গ
##ith
উ
##에서
##st
నుండి
##్ల
3
не
##ly
##ూర
##ста
##িল
##по
wh
##ib
ن
at
##త్
##ce
##akan
con
or
বি
O
على
ভ
##اد
к
##ور
##لي
kat
##uh
##ess
##ama
##ää
##oh
##te
##ски
ఉన్నాయి
##ali
대
##ov
##ais
про
##ity
##ча
##asi
##tion
그
«
##ere
##కర
##াত
ad
##اب
ర
meng
##্ট
##og
##est
pr
##сти
దూర
ও
##engan
##ub
об
С
##ть
أن
##্ষ
э
##ista
ج
##ell
##чи
за
గ్రామం
dari
with
##دي
##aka
la
dengan
201
##до
##oit
П
এক
##ер
사
##াস
##ans
الح
that
seb
దూరంలో
##ных
##াব
by
ni
##ill
##وا
##لك
pro
от
##াক
ప్ర
চ
##yö
##per
при
##alam
পর
##yt
##си
##বং
##сто
##ini
##adi
ఆ
18
##ুর
এবং
##ant
##if
pada
us
బ
##eh
১
##нно
##amb
г
—
ఉంది
##ish
إلى
##isi
##inen
##ду
జ
##ili
##লে
సౌ
##కర్య
సౌకర్య
##াদ
##und
##ani
##గు
##ాన
##మీప
##ড়
во
##يا
##ong
لل
##శాల
الس
##িয়
الب
##tuk
he
##نا
mu
##alah
##ద్య
##ন্
##oc
##tam
అ
##ina
4
##бо
##ры
수
com
##ys
الق
katika
##uks
##క్
##ేంద
##ks
Ch
##äl
గ్రామంలో
mer
##ще
are
kwa
vu
##uv
из
సమీప
mem
Y
ই
##amp
##ua
করে
##ew
##رب
st
##rom
бы
##ги
সম
be
##ään
కేంద
##াজ
ini
##ির
##وم
##хо
##عد
##ich
untuk
ma
지
##ine
##ula
##তে
ка
వి
##any
##assa
##ens
К
##zi
##со
##్రం
సం
##tiin
##ien
##",
الج
oli
##се
##াই
হয়
до
##ные
ke
##uc
##atu
##льно
u
##ost
##isen
##ate
থ
sa
##తు
ch
##qu
##었다
##ko
##na
##하였
##ছিল
##্থ
dalam
199
ф
기
е
الن
##ies
##му
ex
##েশ
ش
##ard
##aik
د
가
##ائ
##ست
전
##ুল
##టి
form
বা
##رة
ole
정
##ast
##ata
بال
##ht
##ছে
##ji
##iden
##га
এই
##ef
za
##issa
##هم
অন
한
##ют
##ous
##তি
##".
##сь
##يل
তার
있다
##сть
##вы
##unn
6
##ше
##ши
##ät
from
##తి
##ধ্য
el
##ita
ফ
tah
عن
الك
##asa
خ
জন
##ri
##ala
కేంద్రం
##oll
##emp
вы
مع
##uu
নি
то
##kin
الإ
7
##ra
##vat
##లు
##ki
пре
##se
##ota
##19
те
##atan
##asta
##зо
##عة
##دة
ре
##ati
##ort
##sä
##িস
##man
아
##رو
##iki
мо
##па
시
##ke
##ikan
كان
##пе
ме
الف
ol
##rit
##ind
ল
##це
##yn
##ту
##ue
##ты
##ust
##agai
##েল
##하는
##art
##্যা
##са
الش
adalah
tahun
వ్య
##ని
##্চ
##సు
##قد
일
##يم
중
si
-
##이다
##ный
সাল
##্প
##ку
##ну
##лу
ч
##oin
##är
##ాలు
##жи
##ంగ
##ారి
##اف
tr
##ake
##ется
##ial
ka
##ికి
것
సౌకర్యం
А
##بر
##اء
##щи
##ной
##utta
##anya
##ect
##ore
##ర్
##ver
##au
М
та
##eta
mw
##ann
##ానికి
##мы
Al
dis
##বে
##ally
##ear
Н
##пи
주
제
##oka
##essa
##äs
##డ్
##tic
الد
다
Р
##দের
et
##ক্ষ
একটি
О
myö
##قة
##umb
8
##imp
en
##بي
##ff
##ుత్
##ern
##্ক
##000
##aa
val
##కు
وت
##ря
##ల్ల
##하였다
я
##aw
memb
هذ
자
раз
##ня
kut
##esta
##ated
인
##pp
##لم
##하고
##min
##ామ
##сле
##ীয়
sp
sek
వ్యవ
##ilm
పా
##ере
##했다
##elah
##াহ
which
খ
##out
ر
ల
చ
##ne
##ంట
##onna
##িনি
유
##في
##است
##سي
##ство
bah
##ক্ত
pen
co
198
menj
##ord
oleh
Т
##ోగ
ser
ఇ
##رك
##зи
##ской
ا
أو
##ob
##్వ
এর
##لة
##so
sel
등
২
кото
উপ
التي
##äyt
sebagai
##uol
sh
##కి
##uom
##ary
т
##зы
##ime
##стве
##чески
##ود
ac
An
వై
الخ
##ive
వైద్య
9
##하여
##েকে
##mä
##দ্
##mer
vi
##ukan
عام
##ome
##াপ
ط
공
Г
##angan
##ark
##сте
##ge
##ции
де
что
##esti
##ingg
Un
##ment
ذ
were
бо
##من
##iri
z
hav
##ame
##ivat
##ాం
##పు
##ena
##ట్
ма
경
re
his
##ure
comp
الذ
Д
##вля
formula
года
##ebut
##নের
##ారు
##iin
Th
১৯
er
##ного
##apat
##ical
থেকে
মধ্য
##istä
##يد
##oja
##বি
국
##ond
ص
##ult
పో
##كن
##iku
##eli
##రుగు
##డా
197
위
##лю
##ui
##اح
##تم
res
15
##olog
mel
Б
##وي
##ষ্
kes
##తో
##مة
তিনি
##ide
hän
12
##orm
##hd
par
করেন
mas
##ism
হয়ে
পরি
##ского
##না
##ettiin
es
보
##her
ис
##وس
##our
الر
##্গ
##ons
not
##вле
조
##স্থ
##ীর
##нии
##ным
##ye
И
সং
з
విద్య
وأ
##yo
myös
##usta
##ву
##io
##مل
##ను
##apa
##itä
##্ড
196
its
##وج
inc
##ran
الص
##äk
##ella
17
나
##aya
##ition
##uga
##రి
করা
నీ
##ная
##ement
##سب
##jo
##isha
하
##illa
##దు
'
##كان
##idak
غ
##되었다
##ight
##اع
##ile
##ته
has
ধ
##াগ
mat
##imb
##وب
ব্য
##ille
##itt
동
##ther
##ঙ্গ
St
بن
##ea
##্দ
ছিল
##ఠశాల
పాఠశాల
194
##ন্ত
##тель
##angg
##ке
##మిక
ak
의
си
ста
ki
##iwa
peng
గ్రామానికి
но
وه
По
##нт
##jen
##্ল
##에는
sy
menjadi
kar
부
##ugh
Ind
##fu
jo
ab
##వు
##బడి
Per
tidak
ве
have
16
##టు
##ల్
##inta
##tern
ড
##uus
##্ম
##hem
##نة
##োগ
고
##eka
##20
juga
##жа
че
году
это
##idi
##قي
се
মধ্যে
##alla
##ор
দে
세
##ৃত
Ar
ভার
##enn
под
##ve
##uan
##isten
##حد
##ations
для
##ষ্ট
##ানে
##خر
##ска
ث
##িম
hi
비
##су
как
##كل
##iko
##iet
##ts
##iksi
যে
ప్రా
ما
##ely
##으며
pol
sen
##بل
లో
##omp
nch
##ওয়
##سم
##gr
অব
vuonna
##تي
##сно
##itu
সা
так
pää
##ства
##ossa
연
##рова
м
개
발
##ోగ్య
సౌకర్యాలు
হল
##র্ত
kir
الث
##িয়ে
서
##দ্ধ
##한다
##стра
##شر
itu
ఈ
##би
영
##তার
##фи
##jan
##্ন
Mar
##вер
الط
also
sec
##zo
##مر
##гра
##taa
##ан
##ды
##اني
ei
##inn
##صر
##ound
##াশ
##oul
بين
సర
had
##دين
käyt
##ఫర
సరఫర
##্যান
##র্ব
##yl
হার
pem
##هر
త
소
ovat
관
##ков
meny
##сси
##রে
ker
##ন্দ
atau
##tor
##eri
##ite
##ুরু
##tama
সালে
##ass
وي
##aks
Pada
ভারত
kun
195
ప్రభ
##ుత్వ
##ха
##aji
пере
ప్రభుత్వ
##فة
##ike
##elle
up
##one
tul
ny
kuwa
##eksi
모
##ారా
lu
বিশ
cha
الل
##der
##aksi
حي
##তা
##يس
##ров
vo
11
##ote
##ারে
##సాయ
kw
بعد
구
নাম
##جم
lain
ద్వ
##శు
ద్వారా
##ön
##تب
##ones
వ్యవసాయ
때
##গুল
##ugha
ters
కళ
lä
##ний
kem
##ail
##мен
пред
("
##пу
##arg
##les
##0-
сво
కళా
జన
కళాశాల
##unc
وب
##ry
신
str
কো
li
పై
##pr
##ahan
##ాణ
ul
##ющи
##об
set
their
##وق
##బడిన
##্স
పైబడిన
hu
##্রে
.
Pr
상
рас
##тельно
lugha
##ারণ
##тов
##alan
শহ
##0.
##aus
että
joka
##istor
##tain
##كون
미
২০
use
##pi
##att
As
여
##oks
##حت
도
##aran
ag
##নে
mwaka
##ank
##täv
##gun
##lä
##alais
ఆర
Suom
##зу
##কার
لم
##াকে
وم
193
##ిక్
ли
오
##నీ
En
##صل
ఆరోగ్య
ча
all
fir
##నియ
but
##0,
해
##land
##ign
সে
toim
##fr
##اري
##ubl
##ates
##థమిక
##াবে
##isti
mi
pal
##ఖ్య
##রের
##lud
ان
أي
##isa
##uah
##oa
##own
##الي
##iti
##ংশ
సంఖ్య
can
문
هذه
су
##18
ప్రాథమిక
##hir
##isesti
ind
##ني
cl
లే
dib
##ар
cons
##yd
It
te
##ский
this
##ত্ত
##esar
dit
الذي
met
##డు
wor
##عت
##ీసు
##్యాం
14
##స్థ
##ater
ed
tai
##ila
సామ
##opul
성
##জন
##uksen
mus
##ార్
amb
rec
Amer
##uden
nchini
##적인
##ele
##يرة
ছ
##عل
Л
##».
kans
##amu
##قل
##ld
통
13
tu
대한
##are
##ارة
রাজ
des
##han
##elm
##age
##awa
kep
kama
os
##ются
ta
##me
ми
است
জন্য
않
##")
##عض
other
مح
ইউ
অনু
##ale
##стро
Se
##erk
##دينة
రో
##ంగ్
muk
##ayo
##2.
##ach
##essä
##اص
one
##yh
##wo
которы
సరఫరా
##ুক্ত
##ten
tersebut
##ిల్ల
##زي
##ثر
Z
##uku
##హద
##duc
##తుంది
##we
##»,
X
yh
##ей
تم
##رن
##سل
##اج
##зова
##lah
##ima
내
교
##rist
##적으로
##ند
##ebih
bahwa
##anj
been
ট
రహద
రహదారి
его
মা
##رض
##yp
##রা
##мя
##ষ্ঠ
##স্ত
,
dik
app
##ারা
##ikk
##ice
includ
##ade
##ిల్లా
마
##بد
##taan
మం
##vi
##ఫీసు
##1.
##كر
##eks
##ase
##انية
mutta
##تح
##int
##issä
##iss
##చి
প্রতি
선
##ational
##ence
il
##ustr
##род
ذلك
mil
##লা
же
##гу
##ose
##ath
am
গ্র
##бе
حيث
##onesia
кон
воз
##াক্ষ
##пре
##ikuwa
such
He
##лся
ин
mereka
ne
##eber
##uri
##its
##ুন
de
вре
##క్ట
ঘ
##الم
##va
rep
##hed
##кт
또
wak
mon
후
##يو
##이라
##ven
##త్ర
ব্যব
##iset
##мер
Is
##ber
##త్త
##нных
(19
##ది
있는
##ura
##enye
first
##لال
##دم
##ца
생
bec
##ym
lebih
భ
##قت
bar
##про
##ధ్య
Vu
జిల్లా
На
##بة
##들이
Э
pla
##সং
##াণ
##kat
হিস
##వే
##لف
##ces
dapat
##ем
##iten
##ద్
##upakan
comm
만
هذا
##iz
반
##র্ম
لا
pel
##থে
##চ্চ
##of
kul
##hes
##вя
무
##aman
jäl
##ope
##тив
##нь
##ديد
##asti
##2,
##يات
##থম
##부터
##ember
le
కు
##joit
puol
##illä
هو
##osta
##ional
##াদের
##eet
##ాజ
##usi
সাক্ষ
##에게
##িতে
నీరు
##طة
был
orang
merupakan
남
##ener
##цио
##ذا
##هد
##গ্র
##gunakan
##ettu
##ైన
##াড়
##itas
##들은
أك
##యం
##ادة
##েক
كانت
##در
##ual
##вой
##ثل
telah
ле
##되어
##মান
거
од
##ীন
##tions
##жно
обра
##ైవే
все
man
강
пра
##తోంది
##old
##োর
##্যাল
ia
##pa
##্যার
или
sekä
##uring
nd
ver
##чно
##iliki
ভারতের
방
##luv
##లి
##েম
##ij
바
##perti
##vin
также
آ
##нием
##خت
tak
##مال
##val
원
име
##äm
##elu
##isk
##ted
##పత్ర
##нов
neg
مت
##োল
الو
##িশ
ilm
불
##omm
##ever
##."
##ак
따
дру
bag
##стоя
সাক্ষর
##ция
satu
##лы
used
##cr
علي
mod
more
##нию
সাক্ষরতার
##ungan
같
ant
some
##ors
##اط
са
##hi
##َّ
##প্র
##ными
##стви
##fter
##ге
sebuah
##бы
##عي
##omb
##్లు
##ба
당
##asan
كما
##ited
##أن
##త్తి
##فا
المن
/
tek
##нной
##лись
లోపు
berb
ро
##tim
##ুম
##tin
ట
##immä
Ф
ض
లేదు
##్ట
чи
##ky
##ైవేటు
##cc
##지만
##рии
##amm
##tö
##ihin
rel
##anyak
испо
##els
##17
watu
cent
##ారం
##jä
most
##ша
##িব
كل
pres
це
min
Ku
##িয়া
هي
##ree
##ходи
##جل
সালের
##зна
##ోన్
##షణ
##ща
ни
##رف
না
విద్యా
##ene
##1,
##ную
##حي
inf
బ్యాం
##5.
##াষ
현
Indonesia
pl
##ఫోన్
৫
যায়
ви
##న్నారు
노
కింది
joh
##ాజిక
కో
##된다
##тся
dip
har
సామాజిక
um
##ents
imp
##igh
##াঁ
వ్యవస్థ
sub
two
па
##etw
##وع
##ton
ఉత్
suur
계
##బ్ల
явля
##وت
శ
##رق
##5,
##ole
##ঞ্চ
الغ
##ivers
ఉత్ప
mend
saat
##при
##ভিন
hal
nim
pend
##oun
##র্ণ
وقد
##ärj
into
분
결
మొ
year
وع
##ellä
కూ
ili
memiliki
장
##лё
스
##مي
##eberapa
##логи
perus
##ская
##yr
mukaan
–
zaidi
##까지
프
##దల
##orang
##port
##ఒక
да
they
##সংখ
Ki
прои
##주의
##ingga
reg
##ainen
karena
##mas
విద్యుత్
kota
##oko
দু
ము
కూడా
##tää
##keen
##కె
##ars
ইউন
Mw
##صب
##وف
Е
##zwa
vä
##oto
ప్రైవేటు
##ied
##ном
Ро
##kit
жи
##ivät
##ican
##학교
##রণ
##inya
మార్
dir
##oli
sup
والم
пер
##ত্র
##onom
Con
seperti
##رية
독
ens
akan
మార్కె
##বার
실
##্রি
##зыва
##ству
##నూ
au
어
Sel
অবস্থ
##ussa
##ask
وفي
##ীব
বিশ্ব
##فس
##وية
op
역
pos
##িত্র
##сту
تع
ఒక
بد
New
ком
##জ্
##лее
З
##äär
##uran
##3.
##imm
##ধান
##oy
##app
##руп
##tiv
##ould
##ром
##нные
없
##oth
gr
##asil
##لب
##ذلك
##ida
sem
এটি
192
##empat
##ory
##isia
##вет
vuod
##stem
##ারী
##gan
##unia
##سة
##ck
##tif
##res
##సర
명
##udian
##van
keh
##lu
##ack
##4.
##خل
স্ব
##uni
প্রথম
who
##ash
##anda
than
কম
##evel
##жде
##إن
##сло
বাং
over
##estä
প্রক
২০০
##wan
##istr
##డల
%
##বর্ত
##etta
##ikana
popul
mb
한다
##alle
ز
##ered
##orn
Bar
##isu
##ahd
Br
많
id
##ేష
మండల
చే
단
##하기
말
##ood
##arkan
maj
##క్క
осно
##uka
জনসংখ
У
##স্ক
##uuta
##ksi
স্থ
trans
이후
##хи
اله
ఏ
పోస్
عند
알
##سا
coun
##েবে
##ough
##iseen
##дер
##reat
##كت
зна
##ред
##ku
после
##umi
##ma
##inal
This
##েষ
##ней
##пра
##3,
##6.
##4,
##ানের
acc
##ano
وج
##лько
Hän
진
##undi
исполь
bi
দ্ব
사용
##6,
##اه
##ధాన
teta
বেশ
##ee
##دد
##ран
받
##াত্র
সাথে
মু
jälkeen
col
Со
##يت
##mp
##able
pers
له
##10
تق
gro
##tia
আর
작
Sp
إن
##টির
যা
##циа
##টার
ру
##The
terb
##খানে
kol
Eur
##ских
বছ
وكان
##erah
kor
হিসেবে
##fa
##에서는
mak
హ
vasta
jul
##hel
سنة
##uksi
কি
##رج
পা
##ings
المع
##র্থ
##urn
lang
##kon
##15
##ori
##дов
II
secara
الأم
##గా
మా
out
бе
##enc
최
##ulla
##ولة
may
##্যের
##면서
sc
##ভাবে
##oni
sur
##wn
Tr
##tyi
##etween
##дар
يت
##ిజ
pe
Ad
##పల్ల
##ace
ఎ
##mi
군
예
dec
المت
##вши
dil
يم
фи
##upun
종
Kat
చె
##ance
##oma
Brit
teh
##하게
vaik
ev
##ions
()
నీటి
##9.
##ble
##ريق
ref
##যোগ
##ేషన్
##uat
Ко
بعض
সম্প
##ورة
##umber
inter
part
##7.
##arly
##ছেন
ди
##ased
##нного
##tak
off
besar
##%।
##রি
우
##8.
##bl
##জ্ঞ
Ma
특
kn
only
ইউনিয়
##8,
kil
Wil
##으나
وق
kas
##anc
##ком
30
##enä
##مد
##erg
##7,
kemudian
##ines
##вод
##국의
did
##ros
25
полу
ভাষ
ket
##ode
##িকে
сло
##وري
histor
:
##тер
두
##خرى
##ump
##uhan
Sh
##täm
##нный
##মে
파
##гда
##ou
포
пе
##jak
Afr
تح
##enal
김
##كم
po
ор
Par
kup
##том
between
pemb
##با
##abu
الز
va
Ser
Di
боль
##9,
##وات
def
jon
ব্যবহ
##ারি
డి
##తా
##ett
он
##ola
##త్య
rak
me
##াচ
##راء
##etty
##пы
##alia
syn
##మా
banyak
##amba
main
##atur
أم
মহ
قد
Х
##erinta
kuiten
Or
beberapa
##orth
##ire
##ান্ত
hall
time
##imu
##ছিলেন
lak
##лей
##ru
##ink
##tur
##খন
Suomen
many
##ock
##ury
ph
##outh
exp
system
##ূল
৬
మురుగు
##oon
##200
قبل
рабо
##men
##aga
কোন
kuul
нача
##ema
Col
الي
##افة
hy
##ুদ্ধ
ول
పారి
##itar
##صف
##োট
film
##اسم
మురుగునీ
väl
కార
##jat
##сы
##حة
##usu
##되었
aw
재
Mwaka
соста
##lut
##మి
##عية
int
##ться
##ino
##يز
নে
menc
민
##ingi
##кой
after
inayo
jot
язы
সু
da
produc
##ibu
##overn
##عب
পূ
কা
আল
pertama
##arib
##تها
##పత్రి
##వారి
ومن
##ishi
##дова
পরিচ
##ulan
##iel
భూ
kuin
”
new
время
hii
##imbo
కార్య
##ওয়া
##apan
2011
##ход
##تى
##들을
would
##kä
##నే
обла
##angkan
সময়
##ont
안
##бли
జరుగు
Pro
горо
##red
##బ్లిక్
vir
##ower
పబ్లిక్
ensimmä
المس
##েলার
систе
##uut
أس
그리
##rough
##ins
##ివ
##الة
sis
##నియోగ
వినియోగ
##uj
spec
qu
##들의
##zung
##సుపత్రి
##udi
yhd
yake
ఆసుపత్రి
##সে
물
##unnan
kutoka
ثم
산
##హి
Ка
##als
##ск
было
బస్
##ركة
##ек
##ild
publ
과
##ities
،
##12
##лось
diff
##لق
when
##каза
пи
##entuk
были
##ур
kel
##స్తు
##ärjest
بم
contr
##కం
##inc
Joh
##شكل
antara
##imerk
তাদের
##16
wana
##ident
##вых
##lam
##вые
##طقة
##ech
تت
##eo
##ناء
##োপ
vya
##elum
لت
##пера
지역
##eni
బస్సు
설
##اض
##oim
##పతి
##нима
##una
##ept
##ulai
##onn
##পর
aut
työ
##নি
##..
##лась
ob
خلال
##اريخ
no
there
##зда
##elä
##طي
##ুরুষ
##рия
her
##äksi
##ев
বছর
《
Vuonna
bers
그러
im
do
lis
##ania
##ise
পার
##ishaji
dem
##akar
추
평
초
var
##చార
##isin
হয়েছে
##tive
##గణ
‘
##ాలయం
##su
తి
##గణన
జనగణన
ష
Во
##্জ
ক্ষ
kesk
ada
مس
##гла
북
##ক্র
행
##ami
объ
ছিলেন
negara
##til
차
idadi
dim
##ork
##ick
##rop
##ческих
مثل
পুর
##tan
##খা
##ెడ
##alta
মান
##كي
##్యూ
##ös
##uli
##ics
الآ
왕
kanssa
##ное
##স্ট
로
nam
kundi
ప్రత్య
సహ
dep
##리아
বাংল
##ూర్
##స్త
tar
##alo
air
ప్రధాన
وهو
##는데
call
##శుధ్య
పారిశుధ్య
##iga
حتى
##erman
terd
##ayah
##ots
బ్యాంకు
##ంగు
الأس
వైద్యశాల
##чё
##ضا
##ైన్
##ложе
চল
##థకం
gener
ఆట
따라
tiet
##raf
ав
রা
##рой
##াতে
yle
av
일본
car
##):
##ల్డ్
##ెడ్యూ
Eng
షెడ్యూ
##চ্
మార్కెటి
షెడ్యూల్డ్
يع
ఫోన్
వినియోగం
##았다
##omin
العالم
##кра
ra
му
##خص
요
сто
##ూరు
##от
##ica
৪
##ীত
غير
సి
##спе
양
Kar
##ثير
Росси
тер
alb
inv
ins
##hip
##ском
##ческой
కొ
##fuat
свя
yhte
외
Q
##قا
শহরের
pros
Ab
##ongo
para
그는
##ishwa
##sab
পুরুষ
##دا
##unta
##মন
ut
100
##angk
so
##ভি
190
##ative
##ность
sep
tim
##నరు
##ily
хо
“
운
##kaan
##emaji
была
##ral
##opp
##evelop
under
стра
rem
olivat
##air
ked
함
##had
##াদেশ
##ثة
##ren
##الية
সর
되었다
tunn
Ag
##از
kec
ndani
##ности
##ника
through
wasemaji
##িপ
Wh
##akazi
sin
করতে
থাকে
##жду
For
br
jonka
##ze
##arah
##eter
##alu
শহর
##unan
##য়েছে
పథకం
On
##తున్నాయి
##ందు
pit
##년에
##క్ష
##فر
##టా
##esk
때문
kus
##ন্ত্র
эле
##era
##వాణ
##라는
##ating
##itys
또한
##14
##িক্ষ
##ool
##কের
형
।
При
##преде
##13
Fran
##ni
출
##লের
om
them
##unya
##মি
##াকা
##ేరు
##াধ
seorang
같은
##تر
други
ш
##ত্য
является
ఉత్పత్తి
##들어
రవాణ
##క్కు
ime
##зва
samp
##ское
##akukan
##িং
బాల
##oj
##ادي
##ansa
##ollow
##టీ
##ott
학
dia
##ربية
х
##قط
##పి
их
##vel
Sa
##owever
##క్కువ
liit
المح
##ెలి
kepada
##enk
##спо
##olla
##ished
ఎక్కువ
eli
సే
రవాణా
##기도
##দেশ
##ман
слу
##сла
polit
бу
##клю
##akin
##anan
muut
фор
berk
Ч
##лове
##zungum
মে
নারী
##act
km
tetapi
##وك
##ital
కోడ్
kaik
work
##ছু
##কাল
أب
조선
##imerkiksi
##anz
##లోను
أنه
표
wil
ep
##ists
##ved
##äh
ولا
كب
وهي
Mus
##시아
kos
ين
these
where
setelah
##ilais
kuitenkin
##్రీ
tark
##نت
দিয়ে
koh
##лов
##ert
пу
##atta
##టాఫీసు
టెలి
వారం
during
##ిజ్య
ఆఫీసు
పోస్టాఫీసు
##িকা
50
kon
ba
oper
##asional
KK
##agu
వాణ
##hesab
##ئي
వాణిజ్య
mji
بل
govern
##nam
সাম
##usia
##льных
years
시작
الله
태
play
##సరాల
pre
dunia
##ikä
##ific
##uta
##uman
تش
##োন
##тия
countr
##три
##نية
##ward
##వసరాల
##ision
known
##وز
##لس
##ject
At
alue
yli
##юще
সব
iko
##нения
##50
వ్యవసాయానికి
sed
##য়ের
##ظم
Mal
##erb
##aki
##hesabiwa
##ira
##మైన
med
mar
##ంత
##ления
United
사람
##лек
##emm
ih
##веде
집
নিয়ে
##라고
ko
##ولا
гра
##బా
রয়েছে
জীব
##ph
건
##راب
##ause
##торы
##чения
##িজ
отно
им
##ড়ে
we
##elev
##ie
سي
적
##fuatana
##цы
предста
Gr
atas
والأ
La
##ensä
임
dr
vuos
국가
##ము
##দি
Ka
أع
##ствова
end
##zungumzwa
##utus
다른
beg
conc
1,
##тор
পর্য
가장
vuoden
কাজ
kaup
bahasa
##ен
##বিদ
##iter
stud
يمكن
digunakan
##ilan
Can
##وض
##une
##টে
##ాడ
kek
총
##form
dua
sang
매
##etään
##кры
##anta
##ainishaji
더
ot
عدد
그러나
##াড়া
develop
##সম
##äiv
##েত
Me
입
##other
ولك
##он
##agi
jossa
noin
##iä
##జు
రా
각
##uksia
وح
للم
vari
##vä
경우
কিছু
##ারের
bo
Chr
##oman
##umlah
Kufuatana
uainishaji
মার
found
పొ
##ople
##جة
progr
বেশি
челове
৩
##isiin
##af
##тери
##uda
##tien
##كس
trad
##ولي
about
ass
및
Le
24
##رد
pu
##iseksi
##اته
bagian
##ధి
##фор
inayozungumzwa
imehesabiwa
##ced
##ular
##hasil
##anga
ent
المدينة
произ
##ভিন্ন
అందు
tangg
189
исто
number
জনসংখ্যার
war
tap
##anza
##unt
differ
##গুলো
ку
يق
ఇం
##urch
##ingan
에
##되는
##পুর
##ষণ
wal
రోజు
##ona
wakazi
##লেখ
##ete
Univers
##esi
hänen
##이며
##рак
ha
##тре
##чение
орга
ollut
##ll
##ские
pas
van
কার
অংশ
kwenye
1.
ولكن
음
более
పాటు
##iong
##ственно
হতে
위해
pia
언
##انت
ар
세계
tan
বিভিন্ন
##ంటల
কারণ
wake
called
مدينة
##শ্চ
##yy
##tym
వాడ
##াভ
గంటల
##కా
##судар
##غير
##పల్లె
hanya
##عا
크
##బ్
##ällä
##أس
Mak
মাধ্য
Ang
peny
well
উত্ত
ihm
##াত্ত
osa
##াট
Amerika
বে
##нее
masa
wilayah
##وى
##fer
##arak
##দ্র
فيها
follow
বাংলাদেশ
##ెం
##eza
그의
tav
23
kab
চলচ্চ
##حر
مست
##ంటే
lainnya
##сли
bu
##uussa
অধ
pemerinta
Pa
Su
nama
tut
wali
শুরু
##ью
మీ
fl
##بات
##ঞ্জ
##رت
##enti
##обра
বলে
প্রকাশ
vain
##osi
##пол
배
##ём
sol
aj
##জি
أكثر
##하며
вой
kom
##ওয়ার
##ানা
ur
суще
##িন্ত
కంటే
##য়ার
War
##جد
Ш
##uko
##она
한국
term
##вления
약
käs
변
##డ్లు
созда
Kwa
অনেক
తె
being
##unj
لي
##lin
##ungu
eff
any
##ناك
##োক
##০০
광
##ческие
##льной
между
번
రోడ్లు
##ন্ড
##이나
cap
peri
спо
made
##)،
##رات
maan
##চে
##hadap
화
sign
회
##anu
julka
loc
##II
##لية
sing
##تاب
##бу
##,000
##жет
##oitti
him
##ష్ట
نظ
స్ట
##вого
Ne
##ämä
seh
وس
##uki
달
##ology
both
##స్తుంది
##нако
আদ
체
##وان
Tim
kata
##ట్ట
bl
আম
##하지
baru
##نس
##ئيس
##امل
Ia
обще
##utan
অন্য
##వి
jotka
Seb
дол
muod
muun
##وة
188
Bel
add
##্বর
опреде
akhir
##ద్ధి
##нк
##غة
##ন্ম
pi
اب
examp
##udah
##্যাস
প্রধান
##vu
জাত
##ull
নামে
করার
##ume
груп
##urr
muassa
##kk
while
sama
##ুট
yks
langu
##شار
মত
##্যান্ড
##خد
간
Car
##щё
سب
##atin
лю
점
بت
به
##aph
##lor
##ikat
الا
##ник
속
##isiä
high
##00-
sta
yaitu
##oita
##ange
প্রায়
government
وك
then
sana
##ames
tod
##ئية
పార
##وار
##فض
##ческого
menggunakan
##11
22
##র্শ
##에도
##خدم
including
##్లలో
সঙ্গ
##ron
bel
typ
often
ব্যবহার
১৮
미국
pes
пла
##ologi
##яб
sangat
কল
##the
##నా
sai
##che
Comm
فإن
##ected
##ূপ
ба
এখানে
John
Мо
당시
voi
##ässä
contin
##لاد
##వులు
##ets
##жда
##koa
вер
##ত্ব
##য়া
##otta
##aku
##дин
##–19
الض
##খে
##ipp
##ظهر
##ర్లు
century
열
again
186
2000
three
эк
##برا
##nen
카
عبد
serta
##ox
تن
Europe
##ску
Бо
##ంగా
সহ
##eral
hel
##గ్రీ
##াব্দ
డిగ్రీ
##েন্দ
وف
##arang
##har
##ojen
##ин
kemb
##uru
##ulu
##وعة
##জাত
arv
sm
Kib
Yhd
৭
disebut
정부
##통령
fam
##risto
##থা
##orld
em
poh
sam
다음
পারে
tingg
المست
Dalam
##ৃষ্
##عم
مق
tent
새
##мени
Wak
القرن
##кон
##стре
##грам
moja
ali
రాష్ట
##حو
##세기
только
자신
##డ్డి
##30
Pol
##arge
أول
হন
##ющих
Sch
##unut
직
##ays
pert
To
##భా
##ao
cre
대한민
অঞ্চ
##క్టర్లు
komp
##ভাগ
terj
salah
##ants
##ingkat
group
##ধারণ
##ంచి
والت
##емы
##ection
##তিহ
##ذه
diper
Ing
저
##ield
##yks
##писа
##сов
Ge
мно
অনুস
läh
opp
##lex
##NA
##umia
разви
За
##чита
##ility
ru
উৎ
##하다
jat
##ورية
##সল
ва
гла
##arga
##amoja
শিক্ষ
##нд
##arac
##ogo
الملك
keb
##жения
##رح
##قية
writ
mk
##ove
##تين
##ulis
Des
##kim
많은
একজন
000
tur
##فاع
##зе
##ature
##ently
##ohta
##ких
অর্থ
చి
것을
Kim
జనా
ге
##arat
##льные
జనాభా
##ధ్యమిక
##emen
##ler
обо
প্রতিষ্ঠ
천
##راض
##বর্তী
మాధ్యమిక
world
##ুব
##води
##").
స్టేషన్
확
ai
##cess
memper
##يب
ون
##idup
##سبب
##ually
ти
##fore
##وجد
##son
kiel
##তম
##etaan
أحد
hingga
##র্গ
##డుగు
daerah
##ెక్ట
её
আগ
##ారుదల
inst
##льного
بها
##পূ
##ెక్టార
##ترة
siir
Es
Rep
تحت
এল
##ather
##oint
العام
tuli
##erm
aikana
것이
##lic
##oot
использова
##హార
##ane
##ci
##িণ
##ingin
أيضا
##jän
modern
koko
সর্ব
##ife
##br
##হণ
দক্ষ
intern
##чных
##이라고
데
##лия
26
বল
early
##ئة
##ästä
fil
##ger
베
##oksi
ха
называ
##ically
)
kali
호
##uter
##ন্ধ
##truc
##рт
Am
kap
তারা
했다
##되고
##вре
때문에
##%,
##గి
##শ্চিম
##стру
rev
##عتبر
박
##luvulla
##తర
##িয়ার
활
awal
##ason
##سلام
Ed
##ెక్టార్లలో
##మ్
сле
عشر
##istem
피
##ived
Har
مد
মূল
27
##tyy
##orp
##usk
Histor
참
tanggal
সাহ
Air
became
##جه
cer
لأ
కా
kons
##كا
##يش
##ule
##షకా
187
##షకాహార
##нта
hiv
واح
##allis
##lec
может
Gu
memp
##ాగు
##ämän
అందుతుంది
أخرى
##yat
people
বয়
kuten
##lo
মি
tal
later
##iver
lev
seura
vai
처
ap
##ليم
##личи
sekitar
##টা
sej
disc
##ولى
##ارات
<
본
##ams
member
జరుగుతోంది
##xt
##impin
##ষ্ট্র
kok
которые
అవు
##্টি
##luvun
kwanza
Nov
##ন্ন
##ikut
##omet
result
##isy
partic
2008
##েব
2010
بأن
##фе
##umu
إلا
2007
ec
##фа
대통령
sampai
##нти
있으며
##ator
oh
##ুক
Са
##uruh
##তিক
государ
##ueen
san
long
назва
##పుర
valm
الأول
##вая
ки
alk
##йстви
##ingine
esimerkiksi
##ilö
##డాది
##"),
##త్తూరు
ఏడాది
га
##డుగునా
పొడుగునా
organ
مش
Pres
21
##antu
##okuv
common
##ماء
2005
##ister
city
السي
##ves
##عات
mag
الاست
##nyt
##ление
##ora
رو
감
##ught
bin
##пер
Sc
##ركز
paik
##tui
kembali
##agian
##uma
run
##ho
మొదల
بشكل
Bo
##вый
pamoja
##нная
prov
আস
존
##يني
example
##цию
##جر
Ма
orig
চলচ্চিত্র
juu
##لات
album
##сты
##نوب
##itta
Та
##рито
##مو
Set
Co
umum
эти
berd
##пример
하나
Mon
40
##ющие
উপাত্ত
তৈ
Kr
pat
Ter
##ityks
পর্যন্ত
28
##াংশ
##бра
있었다
##িন্তু
sebelum
radi
##بية
نفس
органи
##ুষ
resp
Austr
send
##ute
Ц
mark
##సం
라
##ций
##పం
##ju
sija
States
##গুলি
والتي
##циона
التق
##lan
근
sal
##amaan
prot
##которы
##тур
Mer
same
কিন্তু
##led
##uss
##ربي
Ber
2009
##েন্দ্র
উল
##umo
사회
##ensi
suom
##теля
ব্যা
মাধ্যমে
terhadap
##বাহ
kä
##ят
##ikka
kirjoit
##తీ
lead
jouk
##ela
год
목
আই
##ustus
##জ্ঞান
역사
##িন্দ
hari
div
তাকে
##oti
leg
##cis
منها
##idaan
لكن
kati
##им
##ومة
জেলার
##ows
Ра
##дом
##смо
##صبح
##رس
Re
mf
##мати
фу
পদ
থাক
삼
된다
##masuk
bulan
Ra
fe
само
World
##غم
것이다
##به
##нг
##يلة
each
##tal
##akarta
##ческий
হয়েছিল
##ilih
##িস্ট
state
kub
поз
American
Sen
sehingga
쓰
بح
##ony
larg
것으로
Intern
wakati
మొదలైన
##though
##েন্ট
if
স্ট
hadi
وإ
##ga
##нным
i
occ
ক্র
##itti
оста
##এর
2006
charac
##rat
ilikuwa
red
prod
##కర్
##over
##ements
##gen
baada
stand
##였다
여러
kur
art
состоя
##سية
##alif
##పూర్
pun
뒤
major
tempat
##illion
##sh
##yk
lakini
tuot
##ুগ
증
Pen
Cl
Afrika
বৈ
محمد
కేంద్ర
##েই
정치
dig
##스트
##aha
Cent
##ting
Kik
Christi
##indi
##esty
انت
현재
eng
yl
مص
##osed
##uld
России
##스는
##నగ
그리고
Tur
يكون
##لاح
ఒకటి
города
##رائ
함께
Mat
##ارت
consid
##సమీప
=
##شي
El
##اق
##্ভ
non
sever
আছে
##льный
Kan
বর্ত
বিষ
toimi
##вест
দক্ষিণ
##ito
##ross
##gris
복
##ution
భూమి
кла
하는
সাধারণ
##이라는
Nam
##apo
##way
sat
فقد
##তিহাস
##ств
##телей
##tar
mara
##ైద
miaka
selama
##тора
kuf
తాగు
##-2
নদ
##uduk
aina
عمل
использу
যোগ
##osa
##ర్ల
Не
##ুপ
own
##нер
المد
##gn
못
которо
##ণ্ড
이름
##enda
వనరు
##uwa
##дё
##eria
##خدام
##ضافة
British
নিজ
উচ্চ
##افظ
##ارية
masih
##지는
##olloin
##40
##kap
##jia
##ogr
##োধ
##еди
Yhdys
##ينية
equ
의해
oike
##onj
##рио
tarkoit
##рь
##ages
법
విద్యుత్తు
إلي
వృ
##eman
편
##اصة
Kir
ఇతర
يتم
##мента
జా
##كية
области
##বাদ
##коно
দেশ
تلك
том
##ائل
law
##োম
তবে
mahd
include
##ీడి
সরকার
##يف
##োস
However
##awah
##вым
2004
##ল্প
যুক্ত
철
مجم
прави
пол
small
##tua
##weza
사이
들어
로마
নির্
##కర్త
zina
ц
కార్యకర్త
iliyo
య
##aru
кра
ఆర్
который
অবস্থিত
##my
##anjang
berbagai
##itte
##вое
pid
경제
아니
тем
##ekani
Inggris
##aris
##yah
##нение
програм
##اسي
##لاف
ইউনিয়ন
##스의
##puol
mov
الجز
##odan
määr
##기를
##isme
المص
##jana
##లోనూ
Er
##وط
##urg
##itus
Setelah
##니아
##aten
29
bagi
pern
##нное
##ahkan
##see
membuat
మురుగునీరు
##лли
nä
তা
will
##het
этом
##тра
##طل
##следова
##ెట్
##фо
##ాలువ
mulai
통해
##кси
دي
suatu
##inä
##)।
##ёр
uk
##elta
عليه
المج
##atakan
కాలువ
design
##వా
##bon
##po
##ঙ্ক
incre
২০১
অনুসারে
هناك
ভূ
##ides
##চ্ছে
##ress
second
##tuu
##্যাম
##emmin
주장
리
func
##졌다
dikenal
##رم
Mu
##ников
##ల్వ
bisa
##kir
##umah
##ereja
অভিন
wan
타
డా
termasuk
##for
kuk
##...
##sel
Peng
백
##arin
could
voidaan
##alui
##ians
পশ্চিম
##ంచ
Pal
##лом
లు
##ives
стро
seur
ఉన్నారు
tä
kal
##كو
0
lap
항
##usat
основ
##шо
##ese
كم
##hemmin
several
전쟁
##وح
US
##jaa
권
##వుల
##ల్లో
уча
##له
##راف
식
##రంగ
##ారీ
청
రై
##قال
sä
##alis
##ittä
##тя
##িউ
Republ
##ilah
##ording
нау
##hemu
##yc
kh
##.,
##ার্থ
##di
Engl
приме
тео
fac
##وسط
2.
terk
##하였고
عندما
industr
금
تأ
since
##namo
##ier
##iran
##кан
##lack
##ديدة
Ru
창
pien
president
Я
##는다
##త్తం
авто
fr
##25
합
##koi
لها
pain
There
심
band
North
ide
ফুট
того
цент
support
angg
##ানি
sendiri
가지
##кого
##engah
Char
قام
элект
period
عم
put
تكون
المتح
##uas
##eker
##льта
получи
mana
##كة
يوم
##СР
##ల్వే
##кти
గణ
San
jina
De
refer
العديد
##bu
##기에
##ాంక
тре
Sept
неско
##asis
##িকার
pula
päät
రైల్వే
soc
large
##zed
mm
مج
террито
করেছিলেন
##ined
##اش
##itan
పాల
сред
##سبة
గణాంక
بي
하였다
대한민국
kad
Но
Од
##isesta
##োজ
lo
ann
nchi
##নিক
ধর্ম
где
##ahaan
##ukset
prof
##ango
country
살
##্যে
이루
높
huu
би
части
ret
Gre
##మె
##لام
prop
프랑
sim
henk
নির্ম
##стью
##isto
##скую
##ছাড়া
века
Ю
Te
поя
York
##edi
##ళ్ల
Str
высо
بأ
আব
##que
সদ
قال
niin
mahdoll
##నాయ
Ir
أد
황
##uti
మురుగునీటి
because
##честве
Janu
등의
continu
##부분
eri
requ
##angi
শেষ
поли
##ats
##istö
process
Man
দুই
energ
econom
remain
큰
##crib
kim
##ectr
Ве
##ungkin
случа
##র্ক
weng
##сса
Ре
##리는
##ris
##নার
##ases
##ided
Ke
##انيا
మర
##నిమా
##eseen
mengh
ఉప
##ক্তি
##সী
bert
أش
##বা
বার
serv
##рта
Ba
উদ্
స్వ
waktu
স্থান
public
కిలో
স্ক
##eda
మే
wat
সি
বিদ
ప్రక
연구
##టర్ల
sitä
этого
కిలోమీ
సినిమా
вла
cult
##epang
tied
##чной
Kota
##de
##িনী
##рез
vast
##hat
Men
stat
కిలోమీటర్ల
##ajaan
##oss
أما
##নী
##هما
ات
2003
ప్రకారం
##ضم
حد
బా
##لت
##గల
##성을
##ليل
fin
спе
##вше
appear
تو
##ским
Apr
ابن
পূর্ব
వృత్తి
##চার
##స్తున్నారు
ты
##ేక
인구
##asar
Про
Katika
##صد
##িতা
utama
##వహి
রে
##ava
##이었다
المؤ
শত
against
جز
프로
Kis
ju
##نى
##anyika
Ni
영향
uud
bang
paling
##োয়
##اسية
##жение
আয়
vastaan
##ోద
కె
올
##োহ
##ilia
##বিদ্যাল
##ায়ী
Tiong
pur
ambayo
melalui
##laim
##ودة
##راق
శి
##ذي
##నేజ
##alin
##amat
##ники
مؤ
##рав
##স্য
Hels
##org
##ضع
kedua
Jerman
##قر
##ياء
##лага
##isasi
2012
되
##ابة
أح
##istic
счита
##తీయ
##elleen
import
sistem
ప్రవహి
esiin
##isan
Comp
المنا
الإسلام
##60
sudah
##oci
##লেজ
రాష్ట్ర
##ేమ
##ుంబ
대해
##_2
##ords
merkit
##liam
area
ప్రవహిస్తుంది
(18
##tivat
కాలువల
##vo
##кру
బహి
సమా
##శా
four
##زة
1990
బహిరంగ
different
জাতীয়
##igi
##edia
maa
అభ
nyingi
승
til
##epend
##ях
পরে
##aksan
##вания
kaksi
land
power
సమాచార
##ссо
టి
##реди
అంగ
##кие
##ానం
కం
Asia
##সি
సొ
##الات
##కృ
##మో
হত
অর্
বিশ্ববিদ্যাল
##صول
tas
জন্ম
##ভূ
##పుల
terjadi
##ikasi
before
రూ
##కార
تج
ని
##িত্ব
##вление
bawah
خط
sos
##ثم
##ument
until
uh
##గుల
يست
eivät
emp
উল্
berp
Kab
mah
##ౌర
나타
##нами
##రించి
ప్రత్యేక
##ివృ
విస్త
##ర్న
##aria
And
కుట
ketika
కేంద్రా
##ীল
##రియ
ఇది
సంత
suunn
##কল
উপর
చిత్తూరు
토
المش
##బై
Be
##iste
##স্কার
వస్తు
سن
##ొక్క
##amatan
##pe
##ouse
pak
కుటుంబ
##osk
##vät
লাভ
المو
సంఘ
ప్రాంత
కుల
##зом
మగ
##jaan
농
##temp
соот
বিশেষ
##ందిన
##tamaan
##ొక
লি
রাজ্যের
Suomessa
##াতা
بر
ইং
##onjwa
##నియర్
dist
الري
kaupung
సహాయ
##asal
##itions
##పారుదల
inah
والع
rakenn
నీటిపారుదల
##ارج
##ెక్
##enis
##దొ
anak
perm
కార్యాలయం
##ందం
##క్షణ
ఇంట
అభివృ
##ience
సంఘం
2001
South
Myö
النظ
অন্ত
యొక్క
Val
మరణ
중국
sch
విన
ఆర్ట్
మగవారి
పోలి
అభివృద్ధి
##మెంట
సంర
##ైన్స్
##েলা
##రియర్
##enting
కొరియర్
పారిశుధ్యం
##teen
##urut
مما
శిశు
సంరక్షణ
##సై
##్రంథ
బృ
దివ
పౌర
పోషణ
శిక్
উল্লেখ
##ామ్
##ాన్య
sab
пло
సైన్స్
మైద
సొసై
##్యాంగుల
బ్యాంకి
మార్కెటింగ్
##ده
##러한
##بال
বৃ
బృందం
శిక్షణ
ఆర్ట్స్
##నియత
ana
శాల
##oissa
స్వయం
ఆరోగ్యం
సేవా
గ్రంథ
వినోద
సంక్ష
##కృత
##awat
##ival
##ాండ్
mol
ään
nous
చేతి
మాతా
దివ్యాంగుల
##সব
разли
సహాయక
సొసైటీ
##ёл
కాగా
కులాల
సహకార
అలో
есть
వాడీ
మైదానం
సరఫరాల
సంక్షేమ
Па
ఆడ
లైన్
Marekani
##మోదు
ఆటో
లొక
##ీట
ట్రా
నమోదు
##uksessa
లొకేషన్
విస్తరించి
##ుల
ఇళ్ల
##పత్రిక
సామాన్య
గ్రంథాలయం
##ఫె
ఔ
ব্র
##ార్తా
vall
##ర్నెట్
అంగన్
ఇళ్లతో
జనాభాతో
టెలిఫోన్
హెక్టార్లలో
my
##నిక్
తెగల
మరణాల
ఆడవారి
Ph
독립
కెఫె
korke
అనియత
Ми
పోలింగ్
ఆటల
జనన
బాలల
##ార్తాపత్రిక
##uun
##ября
రీడి
రీడింగ్
$
##ড়া
##waida
##ీటెక్
Namun
మేనేజ
రూం
ఇంటర్నెట్
##బైల్
##షధ
лет
ఔషధ
##ామ్నాయ
సంచార
##ీటెక్నిక్
పశు
data
করেছেন
ప్రత్యామ్నాయ
৮
వార్తాపత్రిక
গঠ
పాలీటెక్నిక్
ఆశా
город
এছাড়া
మొబైల్
జాతీయ
ক্ল
బ్యాంకింగు
మార్కెటింగు
모든
సంస్థ
##atif
##ful
##iven
alikuwa
оче
이러한
Jepang
পরিচাল
##bo
nel
##보다
der
спосо
বহ
Pem
##খ্য
Li
##ikin
perust
##isp
сторо
некоторы
##대학교
рай
насе
##бле
##ubwa
##asto
##ush
জনসংখ্যা
పంట
시대
서울
##ন্দ্র
##co
##ৃতি
##рабо
##yarak
kawaida
##১৯
있었
##ствует
##বী
بو
##ukkan
они
name
মানুষ
Так
منذ
ইউনিয়নের
మరుగు
##ارس
##াজার
##্যান্য
##ave
فيه
anti
nyky
##"-
##ret
যুদ্ধ
পরিচিত
##িস্ত
##80
것은
১৯৯
которых
Kes
##tober
väh
మరుగుదొ
##خذ
Ac
Ex
중심
##اث
##esu
బో
بالم
sisäl
কে
##egara
##ture
abad
সারা
పంటలు
##lay
##قات
##োব
##jalan
päiv
بط
Mic
الأولى
##년대
다시
للت
##اخل
అవసరాల
##kok
##াইন
kelu
järjest
অন্যান্য
2014
الإم
sehemu
##واق
фа
논
온
pys
##uf
##crip
тех
যার
చేతిపం
terdapat
##ডি
commun
##цу
ثلا
Dr
Kin
быть
prosent
##let
##ling
##мина
back
Islam
##하면서
##lim
كبير
##화국
독일
위치
##itary
##tai
ঢ
##ళాయి
##ميع
These
##хра
تص
##واع
##ানো
##rench
seluruh
##나라
mp
order
존재
대부분
కుళాయి
##стано
충
##ser
##ряд
##jelm
##коло
##uvost
##umer
осо
পাল
완
Wal
##yarakat
చేతిపంపుల
##লি
Kel
##зульта
##ices
those
##шения
সঙ্গে
дву
필
##емо
lisäksi
즉
##리를
Го
##ড়ি
또는
నేరు
##ীক
코
##rod
##okea
##িষ্ট
##ల్లోకి
నేరుగా
penduduk
##ilta
ю
eks
##alainen
##ুত
No
King
সূ
প্রত
চার
##струк
sejak
##сс
문화
inform
bersama
##ural
##den
##jois
Serikat
Si
##esin
##ством
возмо
উত্তর
##ভাব
할
sillä
కుళాయిల
الأن
##establ
관계
appro
перио
##দান
##sung
طريق
يد
##личе
##чные
kuh
ভাষা
##ird
##وه
등이
##aisu
Ker
around
tinggi
##فع
jäs
##ках
(2
##بت
মৃত
жиз
##sk
##ired
তৈরি
কর্ম
##ukum
inahusu
العربية
ши
##рев
Sam
కంకర
telev
Jakarta
పం
##فت
##тие
berada
##চনা
منطقة
দ্বারা
##oph
##ляр
То
##ograph
প্রশ
Sal
كتاب
mit
##지를
기록
##lands
60
Mas
tert
##ким
పట్ట
kirj
تط
вос
suor
##했고
дан
##"،
##pail
పట్టణ
##로서
ms
##olle
##oksen
terp
kuv
kunn
##abab
##вать
2002
2013
##str
ever
أكبر
##.)
##olah
проце
##järjest
الثاني
##ape
##70
బస్సులు
##력을
##бой
##tiap
##okana
##েত্রে
Il
tentang
дви
##ges
بع
English
|
##회의
Jos
ri
문제
koul
sensa
##зма
##ateg
bus
কাল
even
##omo
##держа
hiyo
образова
##jär
ধর
Paul
##тели
##্যাক
olla
##кономи
September
Ta
##esha
সেই
usein
অভি
population
##uo
gen
لأن
জান
харак
##вра
يح
Пер
ذات
sering
##публи
функ
##الت
##ద్ద
##onia
within
откры
##akka
Makala
##mat
можно
##ior
Poh
##هل
##стей
language
포함
##uttaa
الذين
electr
##riä
una
После
##ibat
مصر
##ompok
aihe
class
##udessa
следу
mengg
käyttö
দেখা
Kit
##änä
##tään
cal
تاريخ
jolloin
Ak
బి
일부
১৯৭
single
Some
Kh
মাস
##sible
##న్నత
##oliit
French
2,
voim
الوق
নিয়
##eth
much
tapah
cor
hivyo
lö
kwamba
Ro
##тера
составля
##بلغ
lok
1980
죽
##irc
terle
##chi
##нности
المتحدة
ik
изме
много
beli
##95
వస్తువులు
##ried
언어
semua
도시
##بار
Ме
##зации
##وني
القدي
##ilo
##ибо
##تما
ак
##سمى
স্ত
##మల
হচ্ছে
حول
##రకు
이는
##ission
##дол
চে
তিন
২০০১
const
Ле
din
kis
establ
치
চাই
##ходит
##ক্ষে
##োর্
valmist
##이고
извест
##emi
##ley
Kia
##ত্ত্ব
##ческая
투
kamp
perang
program
##పె
##جلس
##ingk
##emukan
kecil
##änn
ию
asuk
##anding
పట్టణమైన
আদম
muda
распо
lil
ulk
##йской
##кла
kum
جميع
contain
##ended
##مس
##도로
వరి
anggota
##onal
কলেজ
##زم
##ాద
أث
শব
##স্থা
مخت
##যুক্ত
మంచి
melakukan
They
পরবর্তী
miel
результа
Се
খ্রি
##жё
والح
পৃ
##اك
sot
##eny
sk
##aliwa
ennen
##ivu
##hib
##الب
##cent
##ects
Это
##-19
Ok
соответ
##ুয়
ek
mendapat
##вро
##াস্ত
tit
ইতিহাস
##ikke
শিল
##ey
фо
اسم
других
##urs
##angu
baik
##ittiin
নির্ব
ist
right
##ীপ
친
##тин
بدأ
##ccess
돌
লে
Timur
ла
అం
India
National
##tip
##ించ
##isho
bro
##ోన్నత
ги
##ures
kann
##akhir
describ
Ut
উদ
##انات
mnamo
পে
তাঁ
##oista
ফলে
##elin
বড়
భార
2017
ప్రాథమికోన్నత
##ban
##حية
##avat
##hteen
character
repres
##ждения
##зя
##unga
kehit
rumah
##ness
cell
##inggal
April
##హా
##bol
помо
الات
##ementara
##твер
##вается
الولا
hak
lent
offic
##ikko
suh
поло
వీ
وخ
##amer
##тура
الان
##anggap
గృ
##والي
##ৃষ্টি
규
##zation
##кре
0.
일반
##ья
##طر
##enj
mul
##jini
বলা
##زا
تد
##ائية
based
##roduc
##графи
##acy
Vi
آخر
ng
بالإ
##щая
##asarkan
##из
##খ্যা
mis
أهم
##isuus
메
##대학
হলে
##itional
##لفة
gel
using
##простра
Wa
పర
lake
##kaa
운동
이를
##pec
##ющий
сте
life
অফ
모두
##össä
##istan
##ste
Ny
tekn
pernah
##자가
184
##press
##ুমারি
harus
పంపి
الحرب
kahd
conf
భారత
##تد
##মাণ
ear
palj
distr
##atal
Min
huom
Christ
##iving
Sov
pot
näk
గణాంకాల
Sec
wap
influ
##oop
Venä
very
##స్తారు
China
н
Си
দল
##ental
могу
بسبب
##tra
##виси
##రిగి
활동
Kun
ge
gl
##eno
##inv
Id
##ipun
near
##ট্র
direct
##대로
##aikan
siitä
##-1
##тал
kit
lim
أور
##upaten
perusahaan
masyarakat
##96
80
영국
##ropa
ঐ
##دية
##usus
свои
Sy
##ological
##wi
##সের
পাওয়া
##itsi
City
లోను
Church
খ্রিষ্ট
##мыш
raj
للأ
Kristo
##ন্থ
35
##oden
чем
عليها
million
##قدم
##గ్రా
డాక్టర్లు
##вор
""
কলক
##hor
이용
music
&
Ни
الإن
приня
##ium
##las
##read
##طق
last
윤
##ుండా
dilakukan
##র্ষ
위한
##ereza
##tik
185
due
##ীতে
যদি
reac
##ulttu
laaj
myöhemmin
maka
పాఠశాలలు
##iaan
##alian
koska
이상
##tel
sil
hyvin
(200
##anzania
##ako
иг
water
##aruh
hyö
##aba
sug
গ্রাম
Lu
tiga
##vir
##uper
الأح
конце
##ريط
##وال
##нера
التج
병
##isl
게
##ifu
##anjut
Ба
##00.
##sif
##গত
##সা
##ebru
ци
జూ
##ense
##ীদের
Rob
إذا
দ্র
Ж
##пла
##вает
popular
Her
##ాస్
ext
పక్క
##ailman
##sy
##asanya
##estern
##ande
কেন্দ্র
Os
##ших
আক
rek
пар
2015
began
cr
##ాలను
కోసం
north
success
##ర్థ
গণ
maailman
##тки
৫৯
ско
أف
ها
బయ
##ebab
hat
like
##عر
##мов
poli
November
##irikan
##ingereza
##ఫ్
del
বির
네
dh
электро
##거나
##ికీ
SM
##alaisten
Tanzania
##ba
##tio
##ключа
##లవ
##하면
إس
рус
تر
комп
##이었
game
among
univers
পুরুষদের
Kil
ఇంటి
tech
التاريخ
##sen
وز
##apai
మరుగుదొడ్డి
판
Wilaya
exc
الجم
##ukk
ben
গুরু
తిరిగి
##ССР
##туры
line
круп
వనరుల
##ధంగా
##atang
Jawa
##కరించ
слова
Hal
##انون
কারণে
##جز
مي
##ками
##నీటి
vaikut
##pan
kip
University
##బో
విధంగా
##90
числе
действи
Febru
May
الحك
অপ
##alth
##ivil
##మెంటు
maal
##attle
జూనియర్
ظ
이에
##ilar
చెందిన
##32
##uliwa
দিকে
Barat
##هي
+
kiin
##али
##يمة
ro
##দিন
##opim
##ker
##amin
చేస్తున్నారు
유럽
Kon
##పల్లి
నిమి
జరుగుతుంది
yksi
బాలబడి
మార్కెట్
##وص
##పూర్ణ
проис
##فل
##ఎమ్
##కరించే
control
পুরস্কার
2016
పోస్ట్
నిమిత్తం
##ాదక
3.
map
provin
##шин
##وائ
ду
##ukup
led
বিক
సమీ
##ంటికీ
الأخ
వ్యర్థ
సంపూర్ణ
కేంద్రాలు
##సరీ
##న్సరీ
البي
అండ్
##ిమెంటు
##ోగ్యాస్
ఉత్పాదక
సేకరించే
ఇంటింటికీ
బయోగ్యాస్
##స్పె
них
тра
సబ్
1920
గృహా
హాలు
বয়সী
పరపతి
సమీకృత
##స్పెన్సరీ
పోషకాహార
గృహావసరాల
వ్యర్థాలను
##되었고
##ivid
##టీఎమ్
##గ్రాఫ్
##ubungan
రోజుకు
టెలిగ్రాఫ్
డిస్పెన్సరీ
##학자
فر
отде
లాండ్
అలోపతి
##ణీ
##افظة
মিল
näyt
మేనేజిమెంటు
##бер
السل
##사를
أغ
henkilö
##In
علم
أنها
##etr
After
নারীদের
మంచినీటి
following
##haa
##িত্ত
lopul
##들과
##حدث
##జనీ
Ol
jal
стан
মার্ক
ఏటీఎమ్
పంపిణీ
순
##ärke
##ially
وذلك
Sin
المنطقة
##upa
##elea
##মানে
అవుతున్నాయి
стал
Katol
##ాబా
##aren
##arehe
mur
있어
##ван
##anti
ang
hasa
Soviet
পু
##వారీ
aika
రోజువారీ
మురుగునీటిని
alkoi
когда
могут
కేంద్రమైన
##bat
구성
anal
виде
##ధుల
##ambil
##జనీరి
##జనీరింగ్
Christian
##itsee
##리카
등을
##adan
টি
التح
##ches
total
الأخرى
##ount
Vir
hut
##ney
##قتص
Ки
수도
##nama
పక్కనే
ఇంజనీరింగ్
##ody
куль
التع
##рий
##omen
Dem
tuk
musim
చెత్త
##ix
브
allow
العمل
పారబో
వీధుల
పారబోస్తారు
pemerintahan
취
చెత్తను
환
মন
##että
berhasil
##дно
용
##вал
##auti
rele
কাছে
##ним
##atter
##ering
##row
vis
Eropa
совре
##روف
1970
কোনো
70
মৃত্য
##usan
Ге
##engg
human
struc
##చ్
##레이
lagi
##olution
Dia
Гер
সেন
chini
##eph
##oke
ري
ymp
##шение
многи
terletak
still
распростра
##blem
##askan
series
##ిత
##ynn
merk
##বেশ
jumlah
##iana
##ومات
ব্রি
تست
##uor
##рая
##ogn
ina
pemerintah
##yty
러
обе
المغ
##idd
##oft
##بير
أبي
প্রচ
##우스
sl
##년에는
##ياة
##ভার
이어
West
start
##فق
##тро
##uvat
##িতীয়
2018
curr
##fanyika
##ared
death
berl
До
esit
luar
31
##احة
চাইতে
##ograf
الحدي
##35
##다는
Sek
voit
south
대표
##utu
now
##ূহ
حين
##той
##toi
##xim
##وبا
##ektr
##leks
##unda
pan
исследова
##ম্ব
vil
berasal
أص
##urin
Mag
diri
olisi
갈
1999
less
##asikan
##мирова
##টের
By
##zaji
уже
তখন
##äin
##شرة
erity
puh
kapp
알려
##embang
°
지방
kuj
##udara
[
##vall
напра
несколько
##kab
seg
ещё
Pran
##ministr
అస
arg
##лем
##దులు
spe
кри
Ken
المم
##واء
ভারতীয়
فقط
##ويل
القر
##ukseen
##öt
أق
##ahasa
##াউ
tutkim
##by
##يط
##vent
الطبي
ал
উপজ
Pers
##పిన్
sar
##బ్లీ
프랑스
bentuk
##eles
along
через
##лез
접
##ونات
চাল
##ثال
##اي
##din
Су
##ately
মুক্ত
над
##ెంబ్లీ
##هة
협
kazi
hidup
fre
kif
mad
disp
##isessa
الوقت
##తున్నారు
అసెంబ్లీ
lab
##adaan
Isra
##ربع
ри
দ্বিতীয়
considered
##нем
Ви
##мери
##য়েক
всех
##طب
##erial
##ondon
pass
مجموعة
времени
##اية
قر
##aian
еди
দেন
около
వదులు
ক্ষেত্রে
##ized
yao
1960
##চিত
Jo
prim
vile
వదులుతున్నారు
##мии
cond
politik
позво
##시키
##hod
##তুন
##лаго
드
log
vah
##اقة
##мент
##ములో
function
##ungai
##риа
##тей
ইন
##عدة
point
నుంచి
##зм
뉴
##дей
হবে
##round
laut
লক্ষ
##బ్బ
##gani
বর্ণ
##ينة
dic
특히
lin
help
##قب
lagu
##개의
##ties
##మలవు
arm
##льное
అమలవు
নির্বাচ
అమలవుతోంది
##льная
##راد
1991
يج
##tävä
درج
الساب
und
##рения
political
##ago
aik
музы
##вета
DNA
уни
##ائر
Med
prosenttia
обы
교육
##asia
180
##মা
국민
다음과
##alimb
Selain
manusia
##كرة
место
وكانت
##рё
مر
open
##isestä
Selatan
standard
atom
show
Mc
хи
تس
జలవ
##েম্বর
జలవనరు
##تج
Pi
report
Однако
జలవనరుల్లోకి
vielä
##이는
Da
العل
##పురం
গবে
what
##정을
بإ
##로운
##mm
##란드
Mei
вто
вое
##форма
свой
##кло
упо
##earch
ধারণ
elokuv
##alimbali
##oid
##다고
##into
memberikan
##angun
##ден
##пло
##epat
হিসাবে
problem
##arm
기원
Mel
crit
500
Charles
exper
Prancis
##ফল
দশ
##গর
##gin
##änyt
##وقع
ود
والذي
kan
##_1
##상을
##ner
atta
mais
حوالي
واست
##udesta
সংস্ক
muodos
##avy
##uce
Ur
الأع
mbalimbali
##вом
##них
##ihat
Van
##도의
##비아
ومع
##0,000
##je
##ప్
##дера
##ক্রম
##ex
لح
##vers
huko
jenis
##шая
ولم
##도를
일어
##”.
##ubah
Lib
maailm
যেমন
##صة
##arian
част
namun
##роме
##ступ
##ходя
lop
কথা
##tanut
pa
ঘট
без
##위원
##ria
##ungg
Kem
##ories
akhirnya
##line
hig
sul
সাহিত
##aliforn
لإ
##innan
గుండా
##kö
##дь
##기는
ডি
국제
значи
##ادية
জীবন
প্রাচ
которой
Tiongkok
##ean
##tah
Ли
bid
record
jää
##زل
갖
##abat
top
নতুন
##로는
##aham
##alnya
СССР
తారు
два
##слу
##akit
связа
setiap
pesawat
##yi
juta
##bi
##ণের
Sur
##ication
individ
##unk
পান
##tical
##eskipun
질
ir
London
주요
cod
European
##udaya
kubwa
vuosina
تب
##شت
chem
kuol
Japan
часть
independ
national
자유
Cro
Kal
kik
Um
##etti
gu
স্প
качестве
окру
vuotta
ప్రాంతాల
Bl
ty
##дела
##ality
terdiri
meninggal
ensimmäisen
দেয়
##тий
##сков
자신의
পরিবর্ত
##вил
Mad
mikä
территории
##ient
tetap
Belanda
Bal
وأن
mener
berm
বর্তমানে
rece
##36
أبو
##قى
Yah
দেখ
##щения
##자의
Mor
tel
important
##atao
military
##ую
##غي
కన్న
usually
##odi
##лен
باسم
mengen
##ehd
##joon
##цев
##కల్
Mes
##adian
##emaan
وجود
опера
কয়েক
##embangan
##امعة
##onomi
##usten
తిరుగు
образом
إد
##eme
##eva
##صور
##نان
сим
##انب
##aifa
##osof
##alaiset
системы
Для
##পূর্ণ
##urahan
sebagian
##ivi
عدة
1998
team
الخط
Dunia
##কারী
শব্দ
사건
kaikki
발전
##ests
послед
Historia
##olm
##via
##ালী
##ilip
##্মান
аль
الحر
గ్రామాల
##lement
##alue
jota
사실
##вший
hand
ধরনের
present
한편
Ket
##orpor
Из
##하였으며
Sw
##тных
হিন্দ
##tum
members
wapatao
##шь
면
##pal
جم
vers
экономи
암
##으로는
##zing
Arab
الدين
야
##들에게
##جي
##طلق
##etah
ryh
Juni
три
##ضاء
##kiel
الدولة
الأرض
##itution
##iano
Jul
রূপ
దూరంలోనూ
##omat
##ابات
##عداد
దూరం
taist
полити
##зд
##war
mo
Ва
##37
##47
중앙
similar
##ekerja
lopp
제국
종교
##oper
বাংলাদেশের
iliyofanyika
##isiwa
##нность
tärke
julkais
являются
##র্ঘ
##urkan
Sing
##allist
возможно
сер
kasv
##иболее
버
##위를
##äärit
허
এমন
norm
##ুস
걸
পৌ
согла
##него
##aweza
down
##rew
Aug
##arsin
##iman
dek
продол
##aribu
البل
##ভা
나라
স্থাপ
동안
##äv
32
вме
##ালি
##ালে
Pas
ছোট
Maj
하지만
kuna
రక్ష
루
##stit
Ali
yana
رئيس
이루어
##ebabkan
способ
##일에
##etu
material
গে
##sian
##urther
##inese
##imo
##adil
##oung
Kep
Kom
নামক
build
##ör
##opa
##ential
производ
لن
make
Gereja
రక్షిత
##سن
##sin
##ليون
hali
must
olle
బోరు
##ety
##রিক
১৯৮
الفرن
తిరుగుతున్నాయి
##okuwa
##isessä
অন্যতম
##мой
##пад
للح
##চেয়ে
view
sababu
##emper
vapa
vol
##upunki
বিভাগ
##кий
Na
নিউ
##도록
##াধীন
All
ajan
শ্রে
Vuoden
##koh
##idikan
##мет
ঘো
количе
##лн
##цо
얻
##шей
##ابل
##ideo
another
iliy
simp
المي
vuoksi
##ikia
Ass
относи
arr
##ander
##нными
##క్టరు
والب
##hm
##38
##lus
pusat
ensimmäinen
Pe
لب
gas
채
##llä
penting
##45
##тому
대학
##اليا
খেল
곳
rah
##াব্দে
পৃথ
веще
침
##enteri
الروم
Dav
ain
физи
##민주
দিন
##kabla
##BC
Ha
중요
পাক
##ither
##нской
chang
viime
prac
বাংলা
귀
##ادر
##ామె
Band
작품
##정부
##كتب
الدول
mwa
circ
البحر
various
##atural
##ческое
##서는
Yhdysval
way
মিটার
##igr
##arti
##uncil
##лий
منه
nope
Central
One
সবচেয়ে
Acc
tuh
yleensä
##سر
##rib
##ссе
##ittu
##ters
##াপ্ত
##iston
которая
مم
##esus
##డికల్
##uvu
few
head
2012,
సిబ్బ
الأمري
##ёт
বই
عبر
ফ্র
##доб
коман
become
పారామె
গুরুত্ব
పారామెడికల్
kys
১৯৬
##ength
great
luonn
90
বাহ
##lear
naf
вне
##iva
##вно
민족
Neuvost
##araan
##ences
##takan
##ريد
যৌ
##하기도
ওয়
Mp
##enta
##ised
막
##권을
##iba
##িয়ান
الأك
##hasilkan
##ِّ
১৯৫
##вали
development
وبعد
light
1992
cour
eneo
اليوم
Mi
প্রয়
##براط
##annya
لد
Lis
##adhi
##wards
الأش
##unyai
##ymmen
##казыва
ambao
Columb
complex
##شف
sw
##elit
2020
Canada
##avan
Dis
##ham
Roman
##ье
##র্বে
camp
##므로
뜻
##기가
##мини
Italia
##ops
##tiö
처음
##toon
##ريقة
claim
অবস্থান
받아
##yttä
##ado
##امة
America
Nor
however
countries
##ాస
চর
mab
represent
##لاء
иде
##olais
##ضة
##arik
lib
##логии
Mkoa
коро
Union
perin
joista
return
##سيا
গ্রহণ
##ান্ড
человек
استخدام
##বল
##르크
##টিশ
Fr
আন
##нном
##গ্রাম
1995
jout
bahan
place
##allinen
করত
معظم
애
##لكة
работа
##장을
dij
yhty
Chinese
##랜드
##нах
##بدأ
##াদা
low
kaupungin
날
tarehe
занима
মৌ
생각
ras
নদী
##An
##ర్గ
Tu
tanah
kirk
المر
##كري
민주
Tah
beh
নয়
##Ch
Mac
Utara
invol
##da
##ency
##тен
##цией
##itive
##teita
النا
করেছে
mempunyai
##34
##omes
##teet
##след
러시아
الشي
##rin
উৎপ
eikä
##гре
Em
وش
الانت
olevan
находи
##75
##سين
mass
Perang
길
Myös
season
الشمال
имеет
khusus
developed
والن
##ذكر
Dec
##isuuden
##ero
##ible
##tyä
##yak
##arch
aff
lay
##uksesta
##mu
맞
##인민
go
##onin
##سمية
sum
##ША
##zini
Pel
musik
##ит
##err
##로부터
##tahan
ইংরে
레
১৭
##চ্ছ
(1
45
##যোগ্য
late
suos
history
##ষণা
чтобы
Neuvostoliit
발견
##ways
##держи
специа
Uk
১৫
같이
усло
##ট্ট
she
الوط
Yahudi
끝
вс
##wango
Latin
model
kautta
결과
관련
##ommun
berg
##بع
##льным
সম্ভ
##oro
##toh
##нав
১০
##awan
соб
عمر
ব্যবহৃত
বিষয়
##III
##сут
##ক্স
فأ
vaan
##raft
zili
البح
given
Ру
발표
الشرق
Australia
الأد
radio
المسلم
käytetään
##سات
##طار
##ekan
Bro
выра
bernama
##,"
##شأ
##ুলে
##িয়াম
school
##ilu
berikut
أخ
##هاية
##াকার
##اة
##جن
##entr
##times
##زب
##운동
тран
##ল্যান্ড
method
##اسة
##গুলির
например
##esh
দূ
every
матери
biasanya
##uted
##нови
por
post
의미
গান
الثال
niiden
##راك
##وير
1997
##arn
##osp
Sm
Kabupaten
##стов
она
Juli
1996
##воз
ست
##tice
মার্কিন
نس
##ঠে
##자를
##ästi
পড়
mkuu
field
##elf
##ively
##народ
১৯৪
1994
pasukan
##гов
##inea
మండలానికి
##хе
##aper
(20
зем
##سط
##هور
компа
##39
##ступа
كبيرة
##DP
다양
##uatan
Port
case
comb
##тельных
ام
계속
دون
العلم
##فن
##ono
##سيم
William
##কা
축
##aye
Cal
దూరములో
##olf
theory
kila
двух
jäsen
##neo
sijaitsee
##щих
ug
Да
##ম্প
ضد
##akter
anim
maupun
عب
وص
##ested
##чного
##حل
##শন
##eal
proses
systems
الثانية
##شاء
So
اخت
##ностью
yhdist
##con
لع
##কর
Alb
дли
##uncul
Trans
jalan
##24
..
##ksiä
enc
During
mencapai
##ojia
When
##ческим
الرئيس
داخل
berbeda
##SA
탄
##عود
sour
##ificant
Januari
##ظمة
개발
##ilis
Rom
США
тру
need
piir
general
##대의
##ato
##toa
##шие
wr
зо
##ague
##emba
kyl
গড়
##isteri
##ظر
Бе
##itor
Ens
##alaisen
without
published
نق
##adem
##ikiwa
##fi
##لاق
매우
##গ্রহণ
##ায়ের
itse
liik
##alifornia
кор
রাষ্ট্র
##يه
##yden
numb
##85
##хов
##ديم
BC
সী
##abung
##তল
##ৈতিক
temp
সদস্য
অনুষ্ঠ
##gi
জার
폐
##tynyt
##ющей
##isena
##utama
njia
turn
määrit
mik
caus
##21
##tävät
##раб
##imen
теле
areas
versi
Presiden
প্রকাশিত
잘
##erta
##upi
##eder
##idge
##тельности
볼
##্রম
Га
মোট
2019
Ruots
menunj
International
একই
largest
책
57
local
##86
sijoit
Mo
قي
paljon
практи
##제를
##وبي
음악
이전
believ
페
##лии
##حاد
say
##имо
##oleh
মনে
##iness
তাঁর
hyvä
XV
##ules
Kas
said
আদমশ
الموج
##েশন
##에서도
##oyal
другие
species
Us
مو
ইউর
##едера
terkenal
পাশ
этой
namba
жизни
##нё
##గ్
Ин
그리스
самы
차지
##чный
origin
প্রাচীন
##ষ্ক
##вшие
bas
##знача
ympär
кре
##리가
##جلي
энер
author
doc
অঞ্চল
Dengan
300
##ثي
##aih
##ilt
##ips
##্রী
##thers
##্ধ
##burg
كتب
نحو
mbili
الإنس
কার্য
الرياض
##ండ
##্যাপ
grow
بينما
##berg
##ليات
Bud
للع
которого
menyatakan
##33
##োজন
упра
الرو
истори
##atio
##omor
التن
الهند
##راج
##OS
Tal
##ments
home
##нского
johta
German
social
##인의
ور
ана
##jek
##win
##aine
##ున్న
##most
III
поч
వ్యవసాయం
মতো
##olojia
পাকিস্ত
극
##도가
##eft
১২
##нную
event
часто
Euroop
temper
##ues
1918
dianggap
##شرين
Hänen
সংখ্যা
jum
##르는
গু
Mah
##alami
однако
##вую
##طاع
##ుకు
##empi
##osti
##েস
##iap
##াদি
Kus
terbesar
##скому
число
উপন
##iaa
উই
##evat
লেখ
সার
##ababisha
기준
##ards
రోడ్
although
আদমশুমারি
представля
##ালা
does
섬
##ict
диа
##자는
годы
Const
karya
määrä
دول
ট্র
##мышле
##нача
hasil
إذ
##등학교
##ведения
kelompok
significant
вну
형태
영향을
##جين
jatk
يوجد
##uksena
сохра
##endelea
##ny
##sequ
##ekana
##ective
##هب
##imia
বাস
suku
##kazini
agama
첫
이것
##ender
##ously
##нский
##спубли
##غر
Im
sosial
группы
##చ్చ
Pan
1993
Rans
##iction
sebelah
Universitas
##기의
##ويم
всего
কব
##omaan
##udella
child
##iger
##egr
##gor
##пара
held
আন্দ
শিল্প
California
##64
##ন্দির
অক্ষ
призна
nyingine
##수의
##вших
వేరు
yliop
##성이
شكل
ভাষায়
##use
##نين
##api
Dan
rat
лишь
##zz
##ياه
4.
luas
##ুদ
##kien
##اصمة
uskon
sebelumnya
১৬
bangsa
mec
один
بالن
##тельные
collec
##لمة
##নাথ
Об
miljoon
produced
##кро
##োমি
##tors
rock
Other
väest
языка
##وفي
되어
perd
отме
AS
জল
##jibu
##äll
##тно
##াইট
kl
ло
pyr
ভূম
##যায়ী
объя
реги
region
sejarah
절
##স্ব
Bas
واحد
bukan
introduc
ব্ল
1945
elektr
osallist
Helsingin
밝
Ку
##اجتما
одно
ఉన్న
가능
주로
##공화국
مركز
الراب
##పో
##ربة
Mji
дея
мар
অধ্য
lähes
بالإضافة
بما
##لسط
км
##тиво
Mart
Tämä
необ
##22
x
Et
발생
새로운
##truction
##يع
##인이
##get
##ссий
real
ব্রিটিশ
##кое
mt
শু
hili
##ington
##identif
Pl
сы
전체
uch
سكان
hallit
##శనగ
против
##식을
James
основа
##িদ
пос
నిజ
supp
Idadi
mengenai
تز
##راسة
imm
respon
##তন
##östä
##фика
states
يش
##enin
عهد
yhteen
##্টার
##ర్గం
numer
##dom
##الح
##ستر
Hall
lalu
والإ
##зии
##ريف
Ap
ад
పె
luk
jimbo
##ضر
##했던
##рту
0,
3,
거의
많이
##ствии
##ాబాద్
##어를
##কালে
Kig
day
##olewa
الحيو
Beberapa
وقت
వేరుశనగ
##);
##фф
밀
##진다
المق
administr
##sp
##শ্য
Res
уг
##atas
встре
множе
##ulikana
##نع
1950
barat
individual
##رع
##fan
##mon
##aranya
числа
associ
##бя
##mann
Все
##atian
alle
Ensimmä
##নায়
اعت
##inväl
друго
ব্যাপ
##تل
##bit
mob
ten
شخص
فترة
##ونية
Sum
##antan
행정
##orge
وغير
yenye
##났다
بق
##верх
##ేందుకు
వున్న
하고
Sej
ub
vy
군사
Kid
##idence
XI
##মাত্র
According
##ukung
short
##fe
육
힘
##бор
##فضل
##uteen
numbers
##97
##сом
##নৈতিক
##ంలోని
saan
##itwa
влия
కొరకు
toiminta
##31
##sib
useita
##раз
있고
مرة
##верси
প্রজাত
##RI
##eltä
tun
prote
organi
##ansainväl
##кус
최초
##ismi
perk
##erin
درجة
##년부터
##utti
##мости
left
##াৎ
##ewe
##лле
Zh
فت
방법
län
##строй
باست
వాడేందుకు
production
##క్టర్లున్నాయి
측
গো
రోడ్డు
গ্রন্থ
شي
##تيجة
Kip
ترك
wengi
##akunn
##ikir
ehd
tub
ভাগ
groups
included
##27
mal
নাট
بالت
손
dev
times
войны
Met
자연
##aton
Rec
languages
##গোল
##দর্শ
احت
##ulkan
1989
헌
అన
Bur
собой
##fek
##ائي
##рита
তাল
##числе
##খ্যাত
Allah
выпол
strong
الولايات
이탈
##atia
puhe
الفترة
##시에
##строе
five
masuk
человека
앞
##화를
##apt
##িয়ন
##েন্স
৯
줄
Kec
##ститу
muncul
##تاج
кни
поэ
pääs
أصبح
##angkat
joiden
kuning
связи
family
##ayu
##лла
وط
kirkon
##wala
##пада
##суще
দেব
أنواع
##тии
##lege
##äänn
Republic
찾
##iny
##inda
Hen
##asing
##дели
шко
তাই
المب
اللغة
established
##قيق
каж
ней
만들어
raja
##ব্য
##тами
গোল
##antin
ম্যা
##65
운영
##side
Mil
아니라
makan
##94
##명의
##гии
##র্ভ
##ihen
##ীক্ষ
بار
##زية
비판
lah
дости
alueella
বো
mach
широ
شمال
##imi
##oses
ألف
كثير
দুটি
resmi
##92
##ెడ్డి
defin
kilomet
##omu
##тем
فيما
suurin
మండలంలోని
##자로
인간
Kor
perc
глав
আন্ত
నిజామ
##ями
Он
##98
##াসন
Cub
Hol
##maan
##jien
##tian
نوع
East
mwan
##—19
গা
##itsem
berj
Gener
activ
itsenä
существова
##خط
패
아이
Roma
الصح
original
পি
##etter
смер
أثناء
generally
##ude
وتم
##antai
импера
role
сооб
разрабо
লোক
поль
الحم
Lisäksi
디
Qu
##otor
ful
kolme
former
включа
##reg
##рёх
Cr
##ajan
##wili
taas
took
স্বাধীন
##صار
nuc
##ствуют
kokon
##vention
##itz
##щее
موس
king
свое
العم
মুসল
##yv
##ugu
ভৌ
##нению
luku
ক্লাব
langsung
##াসের
দায়
যখন
древ
##FA
지원
though
##ুখ
##лосо
##zu
##ينات
##ন্দর
أوروبا
##ensa
##ilai
##لايا
book
järj
الجنوب
নির্মাণ
##be
##పే
과학
##isista
pengh
relations
##ambo
الإس
##astern
sekarang
উপজেলার
##нци
##েরা
##పురంలో
mesin
অভিনয়
عل
مل
고려
##jian
##গ্রহ
huo
computer
государстве
Bi
##вают
inay
##wak
##iety
Gro
এলাকা
##قم
jok
ضمن
##되었으며
అనంత
##нова
별
##ric
##ysk
부분
кар
트
##اول
sent
enemm
##над
##imin
##änsä
##ুদ্র
bre
বিপ
##انا
사망
مب
##했으며
точ
মিশ
##ائد
والد
وعلى
폭
##ামী
##прия
kuts
maji
##প্রিয়
##aps
cont
руко
##ждение
ولاية
##তির
소련
##صبحت
সাধারণত
##put
CD
##000.
Many
Алек
merkittäv
준
##독교
5.
##으로써
asi
않았다
##্লে
##ihak
মাল
##وء
##োপা
অভ
##olan
Eneo
##3)
##왔다
Hi
mean
tumb
содержа
অনুযায়ী
히
##älä
##দ্ব
##aysia
석
플
##apua
1980-
obser
##wh
##도는
##kar
##endo
plan
##zaliwa
своей
Ko
##onen
##ulau
uta
আবার
penggun
##ালো
##oike
phys
France
расположе
##طف
##য়ন
##деля
сти
##itaan
##tojen
পড়ে
##اخ
##atures
either
##mar
даже
utara
నిజామాబాద్
ос
공산
##ähkö
With
tanpa
##_4
##াফ
##мом
##سام
##elek
##кова
সকল
##asiun
пара
পরিবার
sementara
##28
된
##টিকে
Prot
body
mengalami
##aster
##tivät
утвер
প্রাণ
বর
Fir
##ervat
saja
период
কন
##ford
##ovel
এসে
##inning
##uasaan
বিল
alussa
selatan
సిబ్బంది
లేరు
August
##عى
##umen
Sem
tuom
edusta
tehd
Kenya
Wakati
##aut
##rik
##дра
75
We
##ball
##elmä
191
attemp
epä
huwa
lama
الناس
ব্যবস্থা
##جار
زي
이승
##لكتر
alip
mujibu
economic
sometimes
산업
Pia
тор
পুন
হলো
krist
##ذج
##월에
##erintah
প্রভাব
vuodesta
##েড
Jew
##ীগ
##ীরা
##доро
kirja
బోరుబా
Ар
##ends
David
##89
##스가
##اسع
حق
read
tof
##incip
games
##과의
ря
##olic
God
если
ради
ছাত্র
экспе
further
##uttam
строи
ditemukan
##জার
##غل
##нтро
వర్గం
услови
Kristen
##time
##ikali
##ought
##ensive
bekerja
##명을
##km
넘
Пу
##শিষ্ট
اللا
이탈리아
শিক্ষা
terakhir
ti
আধ
key
##aista
잡
Kol
Rev
space
Kanisa
pitk
выпу
profess
Although
##AN
##াইল
이론
##imba
##قيقة
ঘটে
##конча
కన్నా
kansan
크게
Jac
six
##26
##نف
##itia
##toja
عملية
మొదలైనవి
##طان
36
переда
##పోషకాహార
##erv
تقع
##ологи
Моск
muist
##가지
##টিতে
##বঙ্গ
prom
saar
благо
##umika
искус
настоя
প্রস্ত
কু
kaw
населения
##ikon
rest
тыся
يؤ
기술
필요
##ened
##tämään
##군의
Ста
##ikuussa
బోరుబావుల
##ток
إم
##ying
las
одной
Malaysia
kutokana
##öl
##처럼
##eum
##سكر
ту
офи
##грани
varsin
##yan
يز
기원전
pulau
##పల్లెలో
##ioni
dih
ambapo
표현
carbon
tofauti
transport
##োদ
##abi
##umba
tämän
militer
##нва
##প্ত
##жной
মাঝ
julk
having
악
##هود
England
##arv
Dep
واحدة
সময়ে
##عادة
себя
особе
##тельство
##istaa
الرغم
হিন্দু
##يميا
eur
keti
##িন্ন
yak
جنوب
##тельной
##জা
##프리카
##ison
agar
내용
حالة
##bor
##rup
##udul
যান
treat
##부의
##aisen
##tific
arch
годах
bidang
##2)
Oc
##enne
##lain
Pat
##uivat
যেখানে
##кая
Din
খুব
향
##pää
Hit
hom
huh
উন্ন
совет
মাত্র
##тельства
##번째
##umizi
separ
##ellisen
করেছিল
capital
##84
##блю
Dar
conn
lask
живо
পাঠ
alam
kolm
السكان
membentuk
jopa
القديمة
keluarga
##kos
unit
sejumlah
##িট
ঠ
Tel
যুক্তরা
들
jos
##aribi
nafasi
##icult
বিদ্যাল
검
##غيرة
kid
уда
##udet
##ولوج
...
가지고
teki
##кта
##нтра
##ющим
150
لاح
Mpya
kiji
##tt
##리에
해당
##ница
পায়
объек
##nis
siku
Mereka
kulttu
##ثلا
##ites
His
Untuk
предпо
service
written
테
##ozi
생산
চলে
годов
обеспе
##غط
##uja
Uh
##utum
уве
##adang
этот
##adakan
month
появи
البلاد
##fl
선거
않고
##stan
##هو
##ظيم
정책
##ored
##ware
আগে
ইসল
기독교
natural
(«
Sk
정의
দ্য
##ikuti
خاصة
누
take
мето
##87
##이자
##ikit
##াগুল
Tahun
##সর
##ارب
##مان
결국
##треб
hab
Bang
зада
##تو
##র্ড
তথ
Israel
দায়িত্ব
##وبة
спи
##ictor
очень
erilais
জনপ্রিয়
##egi
없다
selv
дека
الاح
press
repla
filosof
App
##ющего
আন্দোল
##pecially
##শে
Ти
##joen
##okeo
##uhimu
empat
forces
bila
##entukan
##версите
담
벌
##داد
##ihan
damu
পঞ্চ
techn
따르
##ariki
##ступи
pitä
##яза
##ক্ট
valta
Kusini
##sur
##ندي
Keb
sty
الأور
##стан
##하였으나
##িত্রে
research
необходи
##راضي
vuor
উচ্চতা
##িফ
ж
##روع
ذكر
##adamu
поня
force
الكثير
##рд
글
##aged
Park
huol
وكذلك
created
информа
church
TV
##idän
muu
শতাব্দ
##usp
##ystä
##loy
공격
##alit
ugonjwa
##юз
컴
Kore
янва
##ুয়ারি
hukum
вопро
should
perform
результате
##লার
##হার
상태
##্রিস্ট
##جمع
##ottu
##менно
hänet
##نب
kuch
этих
liter
совер
hyväks
পদার্থ
##oms
##alli
##iani
mtu
система
##oi
نج
반대
##onic
##ющая
Baada
George
##ন্য
##телем
##щение
Coun
প্রা
takrib
##',
몇
##amii
নির
earli
välillä
position
terutama
##하려
##сма
하여
sett
космо
социа
siihen
presiden
##cul
সংগ
described
만들
##ittle
meas
যদিও
помощ
##TV
ä
##해서
설립
أيض
##aikka
рели
মন্দির
specific
급
##akai
وما
##oitta
President
##এস
##jer
##мерикан
saav
1990-
интер
الجيش
recogn
Кра
이승만
Также
rather
দেওয়া
##day
##امي
##ongan
পদ্ধ
стали
puolue
городе
puolesta
핵
##сел
##wani
##ায়ে
среди
литера
ব্যক্তি
##yys
##сми
فرن
##umani
писа
josta
효
##orts
##osin
##ugas
codice
темпера
person
은
##ثار
##সার
১৩
과정
jiwa
Евро
мест
cross
kekuasaan
##SI
##ارك
##يسة
##০০০
вз
البر
named
others
##수가
##awi
##eneo
##ikki
##ikian
##haribi
rap
গিয়ে
berdasarkan
##"।
##فه
old
nuor
ইত্য
পত্র
black
lähet
timur
kuuluu
menyebabkan
##డ్ల
Sta
pred
##67
sugg
third
##действи
negeri
মুক্তি
##ez
Up
гу
আরও
asti
word
сент
played
##সমূহ
cara
ভিত্ত
Emp
Fin
saa
##uktur
الشر
مجلس
الحكومة
~
##uva
reduc
##emassa
Etelä
##ng
##ezi
##sar
##గ్గు
Mod
berh
بناء
أعمال
##aca
##uth
আহ
శు
비롯
##امية
##ناصر
sym
большо
##bert
##ampir
запи
অ্যা
meningkat
##щие
||
##aval
##each
день
попу
video
engine
промышле
##йн
지배
##eper
kuu
##iddle
seuraav
possible
##지가
Те
Pet
инте
dasar
final
সৃষ্টি
##com
##jel
##män
##ainan
##গুলোর
poliitt
##ложи
حكم
العلا
ইউরোপ
##ityksen
express
##대한
hit
##idupan
బావులు
Menurut
গুরুত্বপূর্ণ
##ён
혼
평가
ibu
دور
больше
certain
##Ar
##ئات
اكت
রাম
##জাতিক
свою
نفسه
mungkin
menunjukkan
বিশ্ববিদ্যালয়
##ప్ర
بش
##ukok
##পূর্ব
hata
media
company
addition
televisi
название
представи
##pada
Oktober
hubungan
##”,
##দ্য
Ди
che
##ukaan
কর্ত
valti
bahari
начале
menghasilkan
##학의
##ريب
##يري
##পাত
그가
##다가
##cer
سل
##aries
type
والج
##osition
мы
##ungsi
وهذا
##iselle
##ellinen
##TP
##ీం
##군은
##älle
sota
talo
##োমিটার
устано
sekolah
বিজ্ঞান
##тах
##ينا
Kek
зависи
Agustus
Venäjän
##제로
##ونة
бли
dial
tote
الحد
##ularly
terms
Pohjois
সাহিত্য
Ха
came
cukup
Saksan
ঝ
১৪
##درسة
ино
##upung
metal
состав
శుద్ధి
الاجتما
##كار
인도
vel
Wind
анти
সমাজ
##няется
работы
Yhdysvall
##দে
##াখ
없는
большин
##ids
##عيد
유명
вза
tamp
##bed
##чёт
لف
##aksa
따라서
않는다
Rich
الدم
menerima
Дж
인해
##నగర్
cur
полё
##тирова
декаб
##ُّ
##няя
##تمع
##লিক
##ziki
##дро
65
이유
গঠিত
exist
wrote
скоро
status
nasional
##tamb
valtion
wengine
##чу
##ুজ
##াঘ
##نات
half
случае
Menteri
panjang
##yek
##র্য
##ands
العامة
continued
منت
যুগ
نظام
##িও
풍
##okr
##pir
##ندا
yr
ফর
onn
##light
liitty
ему
##estim
##itkan
1940
sesu
##дой
১১
##okka
Mis
hyd
والف
والق
4,
##erus
##aknya
dibuat
##వర
##리의
##하자
Pend
বন্ধ
##ederal
национа
industri
##туа
jä
형성
tuj
موج
##ordin
rend
toimii
official
Де
ну
Bay
identif
혁
##рей
Ав
ডে
##osis
окт
##immat
1917
Saat
Februari
##هرب
##aint
জয়
yali
авгу
актив
##ca
##수는
##rad
##ورا
чу
ملك
الجن
противо
##ليا
##пита
Maan
মূলত
##adikan
অ্যাল
valtak
##스탄
##arnya
구조
##tiiv
изда
التص
অর্জন
##48
헤
##퓨터
계획
আইন
##oteen
While
ছবি
এরপর
##ingu
الثق
kapal
##embangkan
##23
కర
다양한
Осно
القي
разме
খ্রিস্ট
##тельность
##""
##فات
vih
сов
للإ
##대를
بب
Kos
hum
study
Мар
##attom
##вание
игра
сере
built
##র্জাতিক
সম্পর্
##go
##ged
##inggi
দর্শ
avulla
##গোলিক
райо
চট্ট
ekonomi
##োড
##виа
##تمد
قب
400
Це
##ствие
1930
list
уров
##طع
##운데
##amo
If
##rich
##ницы
vak
কিল
Cath
гово
Frank
##cy
##вар
আত
##으로서
##емых
##лича
ارت
sijaits
##non
vahv
above
kawasan
ভৌগোলিক
##_5
##শ্ব
##utui
advan
walio
berkembang
Ul
فع
##ক্ষণ
##cient
##ুদ্ধে
##zim
38
##ombe
##ungi
Muh
sold
Robert
##রাজ
vit
আবি
Kans
Mand
осуще
প্রচল
##طح
##äärä
##يران
мира
التقويم
эта
1919
##чь
##력이
같다
wid
أهل
##ereta
##ismin
Most
##зирова
Aleks
level
المناطق
##emuan
kill
energy
mendapatkan
##وث
결정
pet
##76
##mei
XX
##ente
جزء
##taminen
##тру
##هيم
CP
##usti
dhidi
especially
##واقع
বৃহ
المسي
класси
طول
Герма
##тек
##ترا
##alik
##entu
johd
mieh
wenye
тради
kilpail
kuitenkaan
##جا
##ansi
##omas
##боль
kam
Greek
তত্ত্ব
edelleen
##기로
##사가
##ebr
##дии
##لاب
(),
ধরে
కామ
تف
##uluk
##isyys
##ittel
##jects
1987
musi
lähtien
المسلمين
##29
##프트
Sim
how
polic
##inu
Abd
##رائيل
الخارج
হওয়ার
##allisesti
আন্তর্জাতিক
سا
السن
##arr
##tir
##astaan
zaman
mic
##으로부터
ilmu
jika
симво
البرو
joukko
উপন্যাস
بص
##تبار
송
##лет
조직
era
заме
Council
##ators
##কালীন
সমতল
##istrik
##зов
##нте
حم
번째
##omer
tab
1988
tamm
комплек
##গণ
##어는
직접
##ружи
umumnya
##wana
keis
released
몰
탈
##리스
##시켰
##him
##اند
##less
##াধিক
ken
uwe
учё
చేయ
mmoja
Sejarah
##음을
##uch
Исто
##alaisia
##министра
käyttää
позволя
наиболее
##ذهب
abs
сме
بالأ
vaikka
##ায
##uju
আফ
##oles
مكان
কলকাত
sedangkan
##74
##ico
Soc
##ending
##جرة
노동
##arth
buah
পালন
##Ка
##hab
بج
##face
sää
ليس
seen
والس
##дет
От
berarti
menulis
##opi
##اما
Pulau
верси
المخت
##antikan
ohjelm
পূর্বে
takriban
##ampu
##enga
##udan
pihak
##حدى
##েলে
Cap
Chi
det
##unani
Black
материа
##";
##কম
Yh
just
diber
memen
العثم
있던
pek
##atkan
##ристи
poin
الموا
(,
Reg
пись
##ংস
Af
মাদ
jauh
song
доро
dekat
некоторых
##дви
ধার
erot
domin
السنة
পত
##umin
##доста
والش
струк
форма
##uksista
##েও
##이지
##에서의
##anut
##্দের
كون
##unung
##ربعة
##وعات
Day
lat
vip
изобра
البريط
الإمبراط
ша
##okan
язык
deter
прези
الأمر
kunnan
обычно
గ్రామాలు
частности
অথ
বস
##wood
##стран
కరీం
frequ
yleis
##제의
서로
##amil
##ূর্ণ
vanh
October
December
##াঁচ
وضع
##oilla
##onial
التش
kadhaa
показа
##ahi
##aste
Puol
ثلاثة
market
страны
##вен
##hari
##ৃতিক
##arily
Dari
River
প্রাক
определя
العالمية
অবস্থানের
##46
##قه
쿠
##ске
##шим
##tial
##uhkan
aloitti
##하던
##افت
ويم
중요한
##jaksi
culture
##do
##তু
mid
يكن
##88
공식
дей
కరీంనగర్
##들에
##wal
##лан
##inäk
Ver
##eland
1948
least
##ويت
Sun
цер
своих
sedang
pohjois
##ат
##pro
설치
lyh
Germ
బావుల
университе
erityisesti
##par
##elee
##гово
##льку
civil
sähkö
مليون
পৃথিব
Sebagai
رس
##used
Ste
тыс
cann
апре
العرب
الاقتص
traditional
খ্রিষ্টাব্দে
##kia
##ulta
##тего
бра
ولي
##ittää
side
памя
الوسط
##жен
##pite
Alex
buku
ثلاث
Tämän
##শীল
##োনা
##త్తు
wao
##anger
diam
kand
kond
suff
##ashara
키
ger
دائ
##ментов
Maret
সেখানে
perustettiin
##hu
Вы
মস
가운데
Laut
tatu
Western
##lar
##عمل
##lant
있는데
프로그
1970-
Cor
##ником
Conf
তথ্য
##ietnam
opisk
tinggal
##성의
Sol
uli
علا
Paus
الطب
теории
##나는
##장이
আলো
Nasional
##-20
##ابت
6.
##ulia
##unge
##ান্স
Hind
krit
বিস্ত
শহরটির
সম্পর্ক
Hu
유지
##ains
এদের
##сматри
Kiaustr
둘
##되지
##мец
##anne
den
##essaan
mengak
##কি
##스를
##انة
##ades
للب
avail
##isuutta
##ege
##äkö
##бур
##жных
степе
Eg
높은
বিন
Mark
sitt
পর্ব
الثلا
প্রদেশ
tingkat
##وين
신라
нео
الثالث
##atic
##موذج
range
wanao
వున్నవి
##цен
سم
##neet
Han
লীগ
সির
seri
মানুষের
##AT
##oran
##చ్చా
cop
изу
##fuata
Kong
ঢাকা
central
##টন
##িড
##нец
##وريا
الحكم
joissa
Kelurahan
Kiaustronesia
##ysi
##ilos
attr
free
буду
соеди
sumber
الحياة
العربي
Kerajaan
##خب
##волю
humo
change
##1)
##렸다
##lied
Кон
따르면
vaih
##kyl
##ابع
নব
보고
##년까지
##insi
##туре
حسب
Cons
menyebut
##stä
현대
bur
dok
అను
##ibabu
الشيخ
aikaan
karibu
elements
##াম্ম
نهاية
используется
##42
##99
##tek
Nä
##쪽으로
cat
سنوات
##тельного
Yhdysvaltain
##خي
좋
돌아
##্রাজ
lik
এখন
##overed
parts
একে
dawa
January
##계를
##hal
전투
rad
gelar
terus
School
kisiwa
strateg
월
UN
far
good
joita
women
пробле
kansainväl
##lav
dam
ইত্যাদি
throughout
##اذ
##দার
##okra
##лого
##فاعل
tapa
tarv
выше
неза
менее
##чина
deb
pad
uuden
##어로
##해야
ры
##ques
Bab
বাই
রাখ
instr
sound
maeneo
##68
Bat
educ
##enjohta
##ulation
territ
##지의
##kkä
##рами
##াযোগ
##ুনিক
##uksissa
Uingereza
structure
##يج
Red
млн
##rogen
kush
##78
whe
меха
##ydessä
Olimp
broad
чисел
Kecamatan
55
역시
##elis
kud
##личие
##etahui
estim
শ্রেণ
higher
##তী
##хва
##شاف
আজ
тек
фак
July
adop
never
works
muhimu
kutumia
##원을
##tei
##িটি
طب
قص
tro
миро
শক্ত
March
##수를
##ору
##يرا
жа
##alme
##اتها
##angka
##рах
##рит
##ূলক
##рода
##দিকে
June
##istu
sif
##రుపతి
చేయని
##সভা
лу
wimbo
mengambil
##BM
##пов
১৯৩
hold
Боль
إليه
party
##학적
참여
##olak
sod
وان
وصل
bahkan
##েট
좌
##emu
mg
##unuh
##anish
##inter
##ingana
Guinea
Katolik
version
বর্তমান
сла
##craft
##stein
Кроме
источ
attack
tehtäv
составляет
##లా
Ug
لج
##mark
##ecess
trade
ফুটবল
مختلفة
بلغ
sasa
##বিজ্ঞান
##гни
##రువు
kuw
keske
##인다
##지고
##খান
Ga
برو
عادة
##인민공화국
##ountain
Yunani
##pen
##ivyo
pul
##aiset
cost
maks
четы
##untaan
##ческую
1960-
synty
formed
##اهرة
قدم
আর্
испол
##kut
dest
возду
##واج
고대
지구
Chic
##ikwa
الظ
##uneet
yakni
##kn
##вич
يس
##ably
mor
surat
altern
religi
образу
الكتاب
didirikan
##62
##efu
أر
학생
##obal
##rask
##tual
##нове
Lap
Вла
##ultan
محافظة
##ственных
princip
##49
##ej
33
##arten
##okone
метал
الماء
বিখ্যাত
##шли
Cer
ajat
##gether
স্কুল
##ography
kurang
##дий
Sup
##alili
##isenä
fail
kuta
##ubahan
вместе
প্রদান
Gl
##tures
оказа
Desember
##жу
커
##ган
##osen
تتم
মতে
наблю
upande
написа
##وضع
정도
vas
extr
kerajaan
봉
##car
##ead
##يين
Do
জুল
বিভ
##вести
అవుతోంది
উল্লেখযোগ্য
##ший
##шки
Raja
impro
право
##ulle
##yang
2008,
캐
দী
##েক্ষ
age
##entti
посе
2007,
1986
fund
نسبة
উপস্থ
সম্ভব
international
##)·
##ساب
চি
дела
##encana
forms
##allisen
business
##ماع
컴퓨터
Party
lingk
##скольку
##ху
대전
##санд
شهر
দিক
issu
меди
الصنا
maisha
Vietnam
enemmän
##াবি
이때
##ivan
(17
الآن
##ваются
##тар
ডিস
రెం
kohd
prec
আমের
muiden
стороны
##였던
albamu
অঞ্চলে
Canadian
##fat
##سان
아버
##utes
নিক
Radi
Since
mjini
udara
regard
পরীক্ষ
##andingan
##järjestelm
pendidikan
##_3
ير
##ajar
Gold
##alized
##ادات
hizi
##ografi
kymmen
постоя
menurut
sebesar
১৯২
##viron
##teiden
العصر
ইসলাম
daripada
##try
##ويس
##শেষ
حل
pil
hivi
بالق
দ্বীপ
information
##osh
sij
хра
##antor
##образ
1984
##ittain
المجم
অক্ষাংশ
maailmans
পশ্চিমবঙ্গ
##제가
##মার
Oy
진행
##anner
##itted
kita
##masing
General
##থমিক
Tai
mta
ভাই
Angk
Film
বাড়
proper
syntyi
Spanish
Republik
##군이
##ssä
성공
에너
##onsa
للس
받았다
situ
nousi
بداية
##anyakan
Negara
##jouk
kina
kuva
терми
kuhusu
symbol
##স্প
5,
тя
남아
이르
전통
реа
তুল
##arufu
occur
##adu
최고
##াঘিম
Suur
karne
terli
tulee
##janjian
범
##회를
hid
kah
hard
البط
##ikuuta
##রী
초기
jät
##ensus
##طية
##همة
##িংহ
요구
##ющее
##ালের
##ector
best
belum
##alaupun
Africa
Provin
দ্রাঘিম
যুক্তরাষ্ট্র
##لد
##전히
##كال
##стри
##enyewe
chlor
komun
African
##CA
##ষ্ণ
IP
시간
##ركات
##aking
##вшего
хими
##uksiin
সম্প্র
характер
কিলোমিটার
introduced
홍
##нга
وا
##ৃষ্ণ
طبي
##versi
##estyks
##лой
##стой
Nig
ইয়
কাঠ
##istam
أشهر
కచ్చా
получа
낮
جد
মুখ
##ectiv
##ilihan
Karena
которое
##حا
클
##인은
##vaa
##هار
Бу
##like
##isissa
##первые
inaweza
బహిరంగంగా
##69
##خرج
пя
##hael
Lou
sov
للك
Kamp
wote
##44
##ضي
Ada
##irkan
Mash
julkaistiin
حر
পো
Tan
kabisa
particular
##الد
kaum
tena
##ections
প্রাথমিক
##79
She
kot
난
##ery
인정
##عتقد
hus
rais
Seura
официа
keskust
##IA
তর
##бира
##عمال
Ked
بدأت
jolla
চিত্র
Euroopan
দ্রাঘিমাংশ
##no
역할
##imal
dyn
kiinn
means
свобо
বৃদ্ধ
##ahm
##ابه
##урна
special
käyttöön
full
Вели
##oottor
suunnit
যোগাযোগ
##500
##дук
##ours
##self
Wash
Korea
previ
akibat
জার্মান
простран
##-3
##فية
생활
##ears
##etap
##чным
yhtä
ulkop
##etä
##tok
##хода
##ূদ্র
Вер
##торов
zake
ওয়ে
الإنسان
ట్రాక్టరు
##щий
##eing
##ianz
বহু
##민주주의
Nyky
received
miljoonaa
Esimerkiksi
##أي
##িভ
##каз
##ুপ্ত
deg
kib
обу
الشع
وقال
восто
itself
pemain
##5%
##సి
##кам
##zima
Nob
Rus
мор
matk
coast
making
центра
современ
##lip
##лых
##ссы
##стер
##ساعد
won
##িকায়
మండలం
toisen
নেত
thus
будет
రాష్ట్రం
সভ
##чная
usk
##ahari
color
##engaruh
##estival
Muslim
##জীব
сдела
##рен
().
##isata
##жении
sequ
Commun
across
##িরে
أل
laj
tokoh
##스와
##eja
##дия
##attu
либо
##itystä
lower
ধারণা
penerb
sedikit
##ebar
fig
বোঝ
##пей
##рон
##ysis
гру
ظهر
সম্পর্কে
울
##ram
1946
evidence
valittiin
##الف
##ilimia
##DS
##мор
##جاه
1979
определё
вра
##uperä
##зация
care
والص
Hitler
hampir
tertentu
##)"
##teli
للن
Mach
##uniani
biasa
النبي
internasional
##41
##irm
##했으나
বাঁ
##atizo
island
College
международ
##طور
##টিক
penc
rate
##াড
•
##oki
##ror
##чен
연합
Pemb
host
বলেন
sepanjang
##//
##erst
##osto
Pak
কাপ
agre
meet
зако
multip
demikian
available
##sta
분류
cel
1982
Baru
имеют
adanya
##avi
기능
Sar
##unguza
количество
##kwa
##cial
##هورية
1973
##гласно
manuf
কর্তৃ
Instit
kiwango
котором
##أة
##부에
##ukua
sodan
zinaz
описа
talous
voitti
Александ
##ুই
##пли
##ikel
join
অথবা
участ
istilah
yhteisk
followed
##군을
##vis
##зем
##выми
fav
নিম
terl
стре
ident
రెండు
##roduksi
الإنجلي
পরিবর্তন
케
##명이
##вед
Go
аб
##тной
рав
отра
الإد
Papua
comput
الخاصة
আধুনিক
некоторые
##ils
##ورد
Му
بغ
1941
exec
বস্ত
matumizi
##లంగ
Fre
Wat
ste
##aisar
Фран
таких
осущест
관한
##gelm
Пре
rule
watoto
россий
##تهم
##নাম
##ilas
##batan
الرا
النس
##aisesti
mechan
##وما
##াইড
##inus
Jum
myötä
الحديث
##IV
##RT
Neg
উৎস
kuoli
площа
взаимо
различных
##갔다
ib
##াত্ম
##িনীর
psy
##aisia
##uanya
bank
النو
##ohjelm
##inj
##tis
##الك
Ib
ني
##Amer
قائ
Raya
стала
battle
##حص
##ৃহ
##اير
بك
##irim
##сона
ven
توجد
كذلك
distinc
이미
ped
##allan
1985
يعتبر
সমূদ্র
압
ху
주민
গঠন
##ографи
riipp
##ственного
huomatta
##원이
##виде
CO
Fl
##ئيسي
##صرية
##াণ্ড
##ппара
పల్ల
##antung
доста
косми
పెద్ద
প্রতিযোগ
##eye
##تون
Хо
حك
لق
Den
von
##సంధాన
него
suara
dibangun
Kur
ves
##engene
##тельный
pemimpin
అనుసంధాన
##тых
##idia
1000
find
##entang
tekem
complet
##বন
##সন
Vol
##ান্তর
taaj
والك
##шёл
##atim
مار
##లంగాణ
food
jaka
mir
بيت
معد
защи
সাহায
своего
##aly
##net
hä
Ла
##tics
##ختلف
##erson
ограни
##কো
##acam
kär
##istus
الأص
جامعة
##тельное
развития
##شل
혹
##구려
##мир
##евра
peruste
##oda
##روب
160
fis
työn
فقال
ক্ষম
maintain
продолжа
Ри
আশ
##ষ্টা
анг
وصف
Egyp
خارج
indic
olleet
melawan
semakin
పోతున్నాయి
##pu
##ям
##eff
##ческом
Peter
затем
effect
принци
떠
##ems
##трен
##েত্র
##aguzi
منهم
##ikassa
kertaa
science
includes
##eck
##ложение
budaya
##пти
##шего
##atuan
##istik
High
provinsi
together
##рус
##etus
##Un
않았
bir
epis
долж
##্যাম্প
значение
కేంద్రంలో
##–20
فن
일으
##otel
##াবার
jar
моз
মুহ
##سكرية
филосо
cyc
town
according
먹
##oba
각각
успе
দীর্ঘ
rights
vuoteen
помощью
الاتحاد
##83
الأب
ajili
Dinasti
##93
##nä
##ేజ
##рию
##افي
##ansk
Ath
Lab
1975
দলের
যেতে
##action
Great
toukok
인터
أقل
##field
##ified
গড়ে
중심으로
##etwork
suuri
masalah
##르트
##اعت
##াঙ্গ
##্রিক
mch
##льную
##скими
##ন্ত্রণ
Влади
উদ্দেশ
Nigeria
এছাড়াও
##AS
зву
وإن
يظهر
mobil
تعتبر
located
maalisk
##ilä
##سيس
##طيع
##وجه
ox
##engo
##teja
للد
kiasi
##ственной
asilimia
##://
분야
않은
lemb
relat
##وغ
##와의
##ece
الأف
##argaan
etelä
dimulai
##var
##гие
##عضاء
##annel
angk
আত্ম
##isellä
##ారెడ్డి
käyttä
النظام
الغربية
الأمريكية
##77
ছে
##نيسة
fem
##льном
компо
перед
빠
Georg
أصبحت
##вляется
Francis
consist
получил
##간의
##당의
##len
##াগর
##elun
##ights
такие
Sungai
almost
অঞ্চলের
চট্টগ্রাম
tarkoittaa
##55
설명
syö
всё
بقي
##yksen
1981
Army
aloit
সঙ্গীত
##ols
را
지도
##uble
фото
إحدى
العب
##isella
2011.
Rusia
belak
##yör
##вёр
##рок
##fiti
10.
عنه
##istiwa
##льными
current
##sc
대신
1974
করলে
الألم
истории
1939
alka
upon
zote
Че
외교
أحمد
جديدة
দেয়া
কলকাতা
##oo
##شاط
ألم
helm
Mungu
films
তিনটি
Федера
الموسي
matokeo
##ipe
Би
기본
태어
##افية
aver
bumi
dise
الأرد
американ
##43
##нет
جدا
##antas
Budd
عالم
johon
Singap
thought
떨
জু
ren
أجل
next
pili
##egiatan
masing
olemassa
required
##학과
헌법
кли
মাসে
থেকেই
Ketika
Muhamm
মুসলিম
Windows
instead
아래
##того
##ريبة
##াবাহ
jam
died
size
types
নামের
гражда
associated
##사의
fa
##ceed
##yhte
чле
##unced
days
فرنسا
##체의
##rot
사상
##াবাদ
Pri
متر
##точно
children
##CO
رب
아들
지금
##imet
sex
لذلك
ఇద్ద
kontr
ছাড়া
kommun
বিরুদ্ধে
##임을
##مية
##ుంట
##фици
##ффек
eth
ilmi
saks
হলেও
Paris
cases
applic
తెలంగాణ
##eshi
600
piti
أمري
2005,
reform
పారుదల
Britania
produksi
##82
견
ah
عض
##agan
Tor
Yle
заня
представле
##১৮
##지에
##tod
##uke
7.
kij
meta
##ership
реали
الشخص
##оз
فل
mash
ilman
বিমান
##-,
##pia
##جال
##leen
##lete
##يرات
Cat
Kiv
Pre
সাং
কম্প
novel
Основ
языке
##allista
##ekn
##ভাষ
임시
##ومية
учи
আসে
Если
joten
influence
kehidupan
##부는
жен
Corn
card
omin
নিজের
##امج
ఒకరు
ఇద్దరు
##cl
خص
وظ
##amani
##ianza
##imana
##intang
Smith
চেয়ে
##ability
energi
posisi
kappale
##72
##Suom
##ayaan
##ocrat
లేని
##ungkan
increased
##erd
##ждё
연방
lima
الرح
بواس
রায়
##akseen
людей
histori
популяр
Kn
않는
Ben
Kif
##нений
##iptakan
العراق
Kibantu
##ss
##라이
##قبل
##هدف
##десь
##িতার
гер
уче
সিন
రామ
##empuan
##ishing
##ческими
বৈশিষ্ট
##91
##rel
##ادل
##هاز
##iade
Kap
мог
##тором
Bern
кисло
Empire
kaupunki
особенно
বিদ্যালয়
##AM
##itiz
##otes
##oksia
hilo
المل
value
করতেন
saanut
##тай
tw
অস
##order
Bank
mata
##োয়াড়
young
element
전국
##cast
##ewan
##ొట్ట
సర్
хотя
kesäk
نظرية
membawa
совреме
стандар
reported
##даря
##বন্ধ
يحت
Para
sopim
commer
kereta
Согласно
뿐
##리고
##어가
##uel
##راع
##عيش
##ikkö
جاء
##aging
##ede
##yth
##кви
##طرة
Put
##board
rendah
নির্মিত
##ued
##нин
##ورج
어떤
Cla
kev
Krist
февра
##aisaran
toinen
ব্যক্ত
##»)
##قرا
با
zin
Camb
উৎপাদ
Richard
referred
penggunaan
##সূ
##ুণ
빈
Bu
실시
##oihin
1944
2006,
niitä
History
himself
protein
Meskipun
##문을
##طات
বু
물질
##tiön
##тные
Sir
##annin
##otaan
yote
##조선
##মের
Rak
##anted
##onstr
lähe
rann
срав
типа
দেবী
లోనూ
власти
облада
approxim
##("
##81
격
와
Фи
그것
pah
সম্ম
pekee
Российской
প্রতিষ্ঠিত
##ৌশ
##পার
فال
পরিণ
State
filamu
religious
##AC
오늘
две
##দিষ্ট
الخام
القلب
##ложения
участи
الأمير
характери
##SO
식민
##каде
##ллек
عدم
##Kongo
##asion
utam
почти
Washington
##raw
##uck
شركة
Совет
কোম্প
отноше
প্রশাস
elektron
##atra
##atti
##lukan
سبيل
##темати
немец
одним
##angunan
transl
wanita
খেলোয়াড়
##른다
##ৃত্ব
Jam
ويت
고구려
##ettua
##fanya
rail
House
музыка
##vironment
направле
##ارع
لكل
past
деся
মসজি
второй
##lle
##ект
##عرف
##نائ
yrit
##erbitkan
Ruotsin
defined
movement
##회는
##set
##ائق
##واة
пор
এতে
дере
обна
##త్తులు
ialah
pitää
##ootball
Tengah
tentara
##ستان
##োচ্চ
Del
##alaman
মার্চ
훈
##زمة
##طلح
##ীরে
جديد
Maria
الشعب
cities
многих
particularly
##шую
물리
1976
القد
##فو
##aihe
##ales
lost
uang
সন্ত
##urunan
আক্রম
সম্পাদ
экспери
الفرنسي
##kul
##hana
test
المز
##ikkeen
sungai
возник
##رخ
##uhi
لو
пти
زوج
عرض
স্ম
الحج
Street
الإسلامية
##63
##kil
##вин
증가
학교
##apkan
myön
форму
января
functions
##ova
개념
##avia
##oney
##yllä
##고등학교
##менты
trav
دولة
পরিবেশ
##িলা
لهم
minyak
requir
##дко
##тил
##pret
جعل
hatari
##rac
지지
##johta
prob
typically
شع
هن
للا
enää
hous
بالع
vaiht
проек
##హెక్టార్లలో
characters
##제는
##ads
##ضمن
##فاة
##amia
##futa
##koja
Che
cry
sisä
севе
রাজা
harjoit
julkaisi
##sat
37
되는
Bra
##chiev
##лирова
mampu
taken
팔
##원의
##رفة
Cy
অল
##رابط
wad
##이가
##бом
##ابي
등장
발달
##াব্য
Tak
soft
heinäk
baadaye
প্রচলিত
বিশ্বের
services
##Al
##ms
##원은
лё
여기
বের
mill
филь
الآخر
সীমান
League
alueen
встреча
##udu
كث
##емые
##мена
Gal
দিল
роль
##жности
##ination
основе
религи
الجزيرة
##год
##ومي
Vä
এম
##urun
##uttu
సర్వ
때문이다
ongelm
studio
〈
##tas
##elas
amba
lopulta
##-4
##োভ
Div
Eth
Ref
ولد
Yang
بواسطة
নির্দেশ
Neuvostoliiton
##আই
변화
상황
Aut
Раз
##aston
teori
тысяч
Thomas
provide
##-5
##kais
##öitä
##োর্ড
aka
القب
المخ
নদীর
프로그램
ketiga
Kiniger
রাজনৈতিক
##»،
##آن
##opol
স্ন
моло
asukka
kecamatan
puheenjohta
##زن
Ä
##vasti
1961
1983
pala
الرس
##eption
##negara
##нирова
отсут
menyer
الطاقة
##فظ
##냈다
##apun
гор
সুর
purp
uses
##endele
المركز
Chicago
meaning
chemical
##정한
##мая
UK
기반
সাম্রাজ
mendirikan
GP
##cing
##rain
##وبية
أمر
রক্ত
style
Michael
binadamu
##iff
##сни
##siin
##ivate
##olusi
fore
neut
muita
compet
Olimpiade
##ريل
공화국
##anded
журна
##onekana
mukana
объеди
আবিষ্ক
##pl
##yu
망
##eku
##opo
##вили
1972
##ainkan
2009,
train
ইংরেজি
транспо
государства
##EC
##부를
Mb
영토
##ched
hup
saw
пря
كال
1978
From
Hata
##чества
suhte
heidän
##vil
##зяй
##عدد
Ca
Va
إق
هد
##zuri
Its
وين
##umiwa
kuat
অর্থাৎ
సర్వీసు
consider
mengatakan
태양
لدى
오스트
##owers
neljä
##atikana
Britain
Italian
بالنسبة
bergabung
##২০
##umkan
1977
eten
কয়েকটি
##uhnya
initi
района
মৃত্যু
kekuatan
community
##%)
آن
정보
##র্তি
зая
##level
star
whose
kuliko
tengah
сентября
FI
وغ
##gram
##ured
inn
লেখা
##akunta
Germany
Catholic
##66
##وقف
아닌
##رحلة
##indah
prib
jalur
kerja
nimellä
puolestaan
##상의
##тря
6,
تخ
تل
কাহ
##andang
mwili
كانوا
##agangan
economy
organisasi
دم
##щего
120
Inter
начала
building
##구는
##물을
바이
통합
##tock
##дель
##рует
##ধর্ম
Kih
##uneen
viol
السب
##ক্রান্ত
larger
الخلايا
터
8.
연결
##кола
Сер
শুধ
##ilija
Cong
minkä
perhe
исклю
ambazo
##zek
শে
##hest
##lymp
Sep
кня
يون
##ishio
##oming
##ranch
words
makanan
الميلاد
##нан
##هام
##তায়
tre
조선민주주의
##지로
##roy
##ميم
##কদের
##রণের
foc
##ingia
anno
##ন্ত্রী
Joseph
datang
многие
yhdessä
wanaoishi
পরবর্তীতে
relationship
##ES
묘
##nin
##ster
হাত
army
##ودي
##وسي
제공
제외
##uler
Cel
বিজ
даль
الحق
legal
الوسطى
periode
tradition
yhteydessä
폴
##fur
%.
##ring
##муще
Lak
haj
موا
##ходят
1967
bond
kini
nota
اليون
очеред
perinte
##CP
궁
##jib
##liit
##ябре
But
hyv
بسي
আরো
1964
পরিষ
kabla
имени
настоящее
рассматри
##가는
##رير
##ప్ప
Ep
mut
حياته
yksity
kufanya
successful
##otu
##امن
##–18
Uf
##atat
##oted
Mex
Cour
bora
neuv
যিনি
minor
##బి
Пе
##мест
동시에
1963
1969
bola
веке
причи
alkaen
পরিমাণ
mengine
##ــ
##మై
##пле
전자
##র্গত
сем
يقول
diter
memas
##anjutnya
##ню
##uzi
تمت
যৌন
##iting
##kseen
مناط
tangu
white
поверх
প্রত্য
##تش
##جوم
##evan
##kään
##ائلة
الوا
##71
మి
внеш
الساد
allowed
##스로
##인을
Ша
চৌ
ill
##ester
##логия
club
المه
وعند
usawa
происходит
##정희
##iks
##اهر
출신
##тика
শ্র
fall
seks
পাঁচ
##uments
Earth
থাকেন
Partai
keskit
sebanyak
##(19
Sab
сам
حدي
coll
know
##andishi
এশ
أعل
##рение
pasar
takia
majority
সর্বোচ্চ
increasing
др
رم
##atus
##мень
نهر
দূর
ettei
দেশের
одного
foreign
중화
##imer
сре
chrom
стать
المعل
أج
##ynyt
Ini
emb
пси
live
мире
نسمة
ikiwa
television
##도에
##kiä
의한
##etak
ряд
مبا
непо
achiev
##asu
##och
추진
##asem
Sub
1949
архи
##epatan
مناطق
produce
diberikan
맡
##jah
##key
##icha
##фере
aud
খান
##anyama
2000,
molec
октября
##مت
놓
머
업
##었고
34
Ja
asp
পৌর
kosk
един
basis
cepat
palvel
##ственный
samalla
meskipun
practice
##erc
మూ
혹은
##eden
##ourn
1968
miss
##ibatkan
పోతోంది
##iaal
##্লাহ
Pää
있다고
rauh
Sejak
panas
подго
##isional
saakka
##omi
바로
후보
##enes
##opia
1965
blue
فكان
##elling
##akunnan
Sultan
joutui
группа
##eluarkan
marrask
##شة
##슬람
##ills
##طلاق
Chap
حركة
tavoit
stasiun
Columbia
붙
##off
##öin
##там
##шла
64
দৈ
작은
##ريات
##osial
hava
التأ
##ilosoph
ambaye
компью
Company
February
##বর
##선을
##бро
##мей
떨어
##했지만
##okon
##лами
Зем
شرق
##aisin
teor
ground
commonly
provided
##구의
##слав
gag
сту
فوق
নেই
ఇలా
오늘날
##urity
##স্থান
##itteli
cause
depan
kutsu
##liament
Island
относя
##BS
##াবা
##omba
ফিল
##anjar
elok
جانب
রচিত
##isistä
##ড়িয়ে
molek
المدن
sesuai
ব্যান্ড
alkuperä
##кс
##과는
##تبة
##elly
Nur
Pyh
неф
لدي
وتت
కిందికి
##avyo
##otti
att
##assif
##istry
##uther
surv
худо
গেছে
##ambuki
механи
العلماء
##서를
##lia
##pol
Mk
تؤ
উভ
##ানার
##uttiin
Louis
osoit
إليها
System
concern
течение
##61
##fun
##েনের
ing
1958
фран
الأغ
##руется
##ведение
প্রবাহ
##allisuus
প্রয়োজন
상대
##andi
##auta
tri
1962
వ్యాస
arvost
length
Kingdom
familia
industry
remained
##писы
##jassa
1971
loss
запа
роди
##selves
rakyat
##leh
상당
##asif
sill
البشر
##impinan
Bahasa
necess
source
президе
##мия
jäi
##forman
##istics
대한민국의
##ampions
Associ
waishio
##ministeri
##어의
##риан
ses
نشر
কখন
##тного
1966
oman
اللي
##زو
##цуз
##etun
##kota
##куль
রোগ
사이에
sens
yaani
إنتاج
Johann
health
menuju
отлича
##julikana
ditulis
perempuan
##-17
##лев
PC
zil
гре
luok
مجال
##aransa
المرك
الإمام
##소를
##eti
##нен
건설
스페
통일
##ায়ন
Def
Как
عرف
##iding
sano
بالح
والث
##ennäkö
রাজ্য
স্থানীয়
اع
بس
##ehti
son
ран
keber
ulkopuol
능
##전을
##াশি
Кар
이름을
might
tasav
jouluk
kerran
pember
الوطني
История
##73
##sim
##онов
uus
важ
##خابات
##послед
kepala
hallituksen
##St
##cks
##وفر
##text
##держ
বাণ
미국의
##ettel
الكب
##িকভাবে
##োপাধ্য
Group
возра
duniani
pembangunan
##ثيل
##طلب
py
##anak
##лова
ris
мая
অপর
able
সংগঠ
##engkap
##сей
##тый
اج
부산
pap
vin
1947
asam
Selama
смерти
average
perubahan
مك
##heil
beb
nimi
мень
kuanz
onnist
গভ
приро
декабря
принима
администра
##رش
##이사
##uis
##سمي
##كثر
구분
기타
##ando
##uvan
##voim
##вить
Los
upo
##kojen
Carl
Республи
##%.
بف
reb
Russ
puut
Укра
трёх
Saint
bound
labor
##ulg
##тая
##কুম
##প্ট
##র্ধ
##자들은
Law
##ভূত
##pond
##ving
##–200
Län
##impia
العشرين
;
눈
##eam
(5
##onto
via
##ittäin
الخلي
produk
jabatan
##장은
##치를
##%),
##»).
##رعة
##ামা
7,
기후
이런
##oopp
Tam
суб
박정희
hank
##isions
##чей
##ведё
täh
suoj
säil
##andung
расши
kupata
##ectively
Katoliki
предприя
находится
Pu
선출
지나
##시켰다
##ache
sla
бере
ছিলো
রচনা
yhtye
Protest
впервые
##ظام
##نيف
ফল
##ukti
port
verk
대부분의
##드는
##dis
##حيث
নভ
রঙ
Hel
кру
이슬람
Micros
invest
বিষয়ে
августа
aircraft
appeared
##لز
##상이
##aces
##ৃত্ত
Por
Sat
##anyol
##ekaan
##ganti
##istön
желез
ancient
몸
##nim
##ريم
ше
##되면서
সমস
code
##чением
تأثير
পরিণত
внутрен
القانون
kematian
అనుసంధానమై
af
선언
amp
пов
النق
##ground
mfano
critic
voivat
응
##ius
##щую
##কটি
##াসি
##laya
##জন্ম
최초의
##itude
lina
tämä
допол
##elitian
kipindi
bangunan
последова
칼
Лу
##idem
##вшей
##сных
(16
خاص
##tahun
##нских
Bill
функции
Mashariki
presidentti
##대에
##성은
##sia
##ثلة
##صال
##ডিও
##বিধ
##يدرو
doll
once
##järven
Yesus
ঘোষণা
events
kupitia
related
serikali
##(,
##تبط
##alem
##став
رأس
Perd
июня
2010,
Abdul
manag
suorit
Sementara
##IP
IV
영화
##ناعة
Pac
Uch
XIX
##বাজার
##ొట్టపు
стало
مختلف
বছরের
calcul
##например
##েবল
비교
아랍
كأس
##enced
##াকায়
реак
##arakan
الحرارة
belakang
##িৎ
##호를
##риф
##برى
Az
ইর
##innä
Sil
نقل
milik
puolueen
##ift
##lov
##mos
찾아
##이었던
##تمبر
тро
يجب
##atory
##imman
##надле
назна
రోడ్డుతో
##েনে
##ادرة
##osisi
court
menet
полови
অন্তর্ভ
themselves
##hl
##নীতি
চিক
##ading
##ম্যান
aiko
##anjung
кораб
إضافة
##jalanan
апреля
##AR
##рко
임명
##емый
محد
clos
Royal
päätö
марта
الاحت
শক্তি
밖
##학을
##회가
##yst
##তের
국내
##vien
##راعة
Dir
api
hor
জুন
الجسم
tangan
##jerumani
berikutnya
##зь
##গ্ন
##ريبا
bal
শাহ
##ersey
edusk
lokak
syysk
оконча
পরিচালিত
temperature
##ুঁ
##عاد
##াসী
주의
dom
مارس
বর্গ
아프리카
Восто
Govern
believed
##تن
##حيط
##ному
ask
kre
알려져
##istyö
##ukses
Mari
laki
অধিক
##angsung
fulani
##됐다
##جيل
eh
##aign
##unsa
cab
nje
কবি
koos
##жность
##্রিয়া
months
muutam
sekali
প্রমাণ
education
##교육
##cal
특징
##يناء
Pur
##anies
июля
##todoks
changes
##.”
##лки
##كيل
##িশন
শিশ
профе
action
Ranskan
проводи
개의
교통
올림
##ক্ষম
##ట్టి
Use
gre
তাপ
alat
kats
হ্যার
sijaan
الكبير
المواد
subject
features
##нам
보통
للق
মাই
##okset
klub
contoh
walikuwa
##체가
##uts
##wab
##onta
##тить
##hemat
kont
видов
points
problems
অন্তর্ভুক্ত
##দা
##egang
##িয়াল
fact
katso
monet
termin
النبات
Britann
основном
##사는
##시의
##тка
##ريس
Пи
하며
##astr
väk
لما
##мерно
##ريقيا
мини
armei
maana
Boeing
nature
генера
తిరుపతి
##পি
##হত
##্ঞ
##ళ్
##-18
##ర్తి
Kuna
العد
##ijakan
Jimbo
membantu
##ريت
##طاق
##ষ্টি
##্যাগ
وتح
يول
импе
الوح
saman
##Со
##스템
##kka
##viä
##وائل
rik
##abila
إسرائيل
creation
المختلفة
##edy
##elt
তৎ
가진
##lies
##zazi
##াজিক
##ানোর
بير
يعد
Sudan
creat
widely
গবেষণা
leading
##kee
Mt
공동
Cop
وسط
نموذج
চরিত্র
started
несколь
lingkungan
##اتي
##مبر
##ওয়ে
squ
нор
##iment
defe
режи
##ibuted
Henry
ويمكن
kuului
maarufu
низ
دار
অস্ত
Domin
সমর্থ
일반적으로
##aleissa
##onyesha
특별
##hara
##koon
Sav
##uries
##usaha
Piet
dini
tiba
quant
البعض
القوات
##ollisuus
struktur
perkembangan
##epo
##hoa
##olo
##спа
개혁
브라
800
kiv
##যুদ্ধ
mkubwa
বর্ণনা
##اهد
##erit
##ায়ক
vap
কিং
يقوم
Jalan
conduc
independent
##58
##장에
اس
عصر
determin
##대가
uj
##чное
IBM
мир
খাল
تسمى
awali
emerg
войска
первый
project
##톨릭
##ovin
смы
역할을
эффек
Depart
другой
##цей
شب
Act
টেল
##ৃতীয়
Liga
##umpang
Radio
نتيجة
Москов
неболь
menemukan
##rak
مغ
##식으로
Itä
bis
вол
حصل
وتع
নগর
##asema
##iriwa
1956
##ваться
বিদ্য
রাজধান
particip
uudelleen
##hell
изо
শির
Phil
sisi
2005.
dalili
little
начина
спу
##arier
##প্রিল
Kesk
täys
побе
##utusan
1800-
الشرقية
kulttuur
принадле
permukaan
(3
##выше
##обре
##وجود
##ويلة
juut
يعرف
First
المقد
Spanyol
##лав
42
보내
hai
সংঘ
জানা
units
ziliz
Среди
Martin
المثال
outside
concentr
##":
##nu
##mit
##usa
##aana
flu
##aring
##باراة
aset
أمام
##elengg
##ension
2004,
raken
믿
##cha
Kl
Po
세력
فهي
العق
##التالي
Museum
Muhammad
땅
##лья
##هاب
##ন্স
있을
전문
asal
lämp
উপাদ
মাঝে
growth
hallinn
misalnya
##대는
##miä
##obi
##فاق
##াবল
مز
##allon
##äyttö
Card
Kati
বিবে
##hirika
##ference
##ibution
berupa
##ственные
−
##гия
##টেড
##tric
##сной
##టులో
suk
بلاد
cover
يناير
ভাষার
mwisho
dibanding
suomalais
প্রতিষ্ঠান
##자인
##tys
##ниц
자기
##erse
##িক্স
##েব্র
শিব
бога
মানব
##ulauan
ভারতে
##ilities
##ellisesti
##গা
##관을
gol
وتق
وجد
##imate
##organ
Yesu
yhteis
awalnya
surface
personal
প্রশাসনিক
곧
##enz
##tom
##нки
##пыта
вет
تعد
##ikkaa
ayah
##চন্দ্র
Nobel
lahir
аппара
whether
increase
##rie
##هتم
od
##umbo
scr
рез
##gerak
gaya
توفي
বঙ্গ
시작했다
close
##tamalla
الإلكتر
properti
##جب
숙
##eto
##щей
##ukka
itä
##ports
##দর্শন
coin
собы
##abuhan
الرابع
تستخدم
Another
dirinya
поэтому
Kemudian
##ct
##ymp
##ানী
##ulun
saap
маши
пози
##смотря
moved
muoto
গবেষণ
##ilangan
কর্তৃক
Islands
digital
свойства
##شق
##كد
##ген
##اكم
##خفض
##laki
##toim
rot
seni
acara
применя
независи
##ис
부족
##yhtiö
tamb
jamii
saivat
selalu
просто
سبتمبر
##ambarkan
effects
siirtyi
употреб
historia
математи
##56
니
##كور
##rata
লাল
##anywa
Ulaya
pinta
Север
পারেন
access
মাধ্যম
designed
interpret
##последствии
pertandingan
##سطس
그를
##inga
Dre
Мак
হ্র
##okrat
Nama
разде
##тельным
physical
ог
সৈ
기간
##apur
##труд
wam
kend
নেয়
caused
cultural
kulingana
জগ
유대
حرب
مون
নেন
موقع
يبلغ
милли
tujuan
느
ky
يص
tra
проя
kimia
limited
существует
잠
##avu
##زيز
##ড়ক
##মিত
##্যো
48
##zech
##ৃতির
(15
чёр
대학교
##alled
##amini
Prof
অক্ট
оборо
الجديدة
##.).
##وام
##املة
amm
цар
##htenä
##ustaa
1943
ques
ruots
##engahan
контро
الكيميا
পঞ্চায়ে
##док
##atar
##ores
##седа
##جزاء
jak
Тур
نوف
##дения
Serb
Zhou
daya
huru
asili
parlam
##ääk
##تبع
عد
يب
##zuia
haya
mkoa
uusi
went
مستوى
served
##িখ
আপ
##akun
##iltä
##حداث
সদর
воды
женщи
Vaikka
الأسود
ভূমিকা
melihat
멸
##epp
정권
pop
siv
কেবল
##ettuja
##tamista
always
##cription
lähinnä
달리
두고
##вобо
Wam
##вался
##мость
below
today
##ken
##اعة
Ор
ат
##itin
coc
enn
see
기준으로
melip
السيا
عبارة
##образова
##ft
##관이
##alb
##ارا
시민
aino
পুত্র
##ilainen
##umumkan
এপ্রিল
Internet
jaringan
الشمالية
##오는
##анк
##طبي
ды
아르
##장으로
কাম
infr
aktiv
стран
techni
##집트
##onc
##tih
##рую
##чил
గు
마지
##한다는
হাস
gain
players
##или
##برز
##ссии
##cript
desa
pengg
yhden
ইংরেজ
longer
private
얼
##업을
##ীতি
시절
##인들이
##하는데
Ant
hayo
بذلك
##براهيم
অ্যান্ড
eventually
##রত
##이를
##100
##eton
##agang
##uskan
Cast
hoit
penj
targ
warga
cerita
##캠퍼
ار
이야
##inin
bud
있다는
تبدأ
ইন্ড
##icient
tutki
السود
التاسع
concept
hallitus
kirjoitti
mengikuti
##েজ
##스크
##지역
##iew
##বের
جن
hyp
##based
1942
eläm
soit
أعلى
kerto
يستخدم
আক্রমণ
নামকরণ
gerakan
বৈশিষ্ট্য
##قص
·
##راز
더욱
##iaya
##ipal
##ovan
##носи
##ويات
Camp
тела
##met
##rid
##ৌশল
##ohan
Kut
vär
كيل
algor
häntä
mfumo
সমালো
player
varten
penulis
##머니
##치는
My
Ча
##자들이
##cher
##usun
##সময়
глу
صحي
غرب
فهو
لتح
##ällöin
lähel
тогда
Ireland
নেতৃত্ব
অন্তর্গত
perusteella
Yhdysvalloissa
##ংগ
##sek
Ob
মো
예술
রেক
##usion
##স্ট্র
1959
Kiin
وبال
বন্দ
kaupp
систем
الدولي
kansall
historian
полностью
##ML
##aal
##রায়
Eli
##avior
hapa
меся
والخ
gereja
맥
##년의
##종의
##cel
##тво
##ాల్
Oh
예를
종류
سطح
##ypill
Oper
নিম্ন
##inkerta
Secara
conver
данных
brought
berjudul
penerbangan
##되며
এস
##head
##olis
jär
পেশ
বংশ
come
وهناك
Common
poikke
স্থানে
milioni
asukasta
companies
kutsutaan
##én
##bar
##eke
uf
يف
##hing
##year
Leg
бук
الدي
পুরাণ
##respond
произо
aiemmin
northern
takaisin
##شع
##호는
##ناة
Аф
кро
##orong
1957
التد
mengk
الشكل
employ
الكهرب
##utettiin
pidetään
అనంతపురం
implement
kilometriä
##مع
##emat
##дина
pay
сра
##ahaya
##ointi
коми
সিদ্ধ
legisl
methods
الحديثة
kegiatan
Например
conditions
##연구
##ماس
##원으로
##iche
##itung
##ublic
##пасно
pois
Young
luonnon
antaranya
প্রতিষ্ঠা
construction
##কশ
흔
##이트
##лью
##что
##ابن
AD
정당
##했는데
##alau
##inan
##oken
##тики
일본의
جورج
রেখে
পদ্ধতি
##ientific
highest
##59
##syn
##бри
##ুরী
##бора
بول
جيش
উঠে
কাছ
জাহ
Saks
Mesir
слово
বৃহত্ত
называется
চলচ্চিত্রে
##সহ
넓
##وزي
집합
##huri
ফুল
alit
lack
reta
rout
##ampuan
##ehatan
cells
schol
uwezo
отпра
##alahkan
teknologi
옥
##вов
##হ্ন
환경
후에
##্রাম
170
Sed
дво
тот
##uture
##عودية
kään
##aminen
added
обяза
##unnassa
classif
অনুষ্ঠিত
constitution
##AP
퍼
##سمبر
Nap
이들은
##orary
##ртуга
cust
kulj
السف
العض
##вались
##телями
akiwa
tehty
النوع
contains
Германии
beginning
##্ণ
Жу
수립
##েন্ড
Bob
Ist
نيو
গাছ
##vuoti
site
المط
বলতে
##attiin
story
kahden
опубли
Sumatra
populer
working
matibabu
السياسية
##ذب
##зей
##фер
9.
##iles
Jal
jud
নাগ
위하여
реки
blood
الحركة
ముగ్గు
results
الإسلامي
поскольку
##బీ
##식의
إل
표준
##дами
##ётся
löy
제국의
##ching
rata
syyt
policy
##amezaliwa
interest
пользова
হর
agr
1938
الزي
শহরে
1950-
ফেব্র
বাণিজ
recent
sitten
находя
космонав
ముగ్గురు
##사로
##ipo
##рица
mpya
ঘটনা
శ్రీ
##чности
siten
##ристиан
kappal
kijiji
الأكثر
السابق
التعليم
Ujerumani
엄
##цер
인물
Tok
выс
হাট
가톨릭
마지막
##aktor
##ataan
stated
وغيرها
মুহাম্ম
Tionghoa
##িগ
점령
##이기도
##لسلة
kin
mew
ran
أدى
##బాటులో
именно
الداخل
federal
komputer
replaced
##кли
##كات
지리
ост
রেল
##tämät
aliy
umri
الفن
nguvu
##ковский
mostly
అందుబాటులో
블
##دان
Av
Ng
রো
##raga
ভাল
##tuvat
efek
self
umat
بأنه
анали
возвра
المملكة
##SM
##체를
fle
بني
1900
astr
kier
palv
Award
nilai
указа
الإنت
معركة
చెరకు
County
earlier
построе
directly
southern
deta
integ
massa
صغيرة
##etapkan
మొత్తం
lopulla
৪৮
실험
##البا
##طفال
##ঙ্গল
등으로
idea
الجد
Czech
kuong
menik
публи
Indian
Красно
##tp
##교회
##의를
##жды
##سون
ps
Ги
명칭
불교
##아시아
이집트
##kohta
##tänyt
ভাবে
Green
##ression
Negeri
చెరువు
কলকাতার
meliputi
software
নির্দিষ্ট
##들도
##sit
##лют
##mään
##urus
mix
فتح
subs
##utuskan
käytänn
muodost
##Gu
##িপি
قط
유전
গুল
##함으로써
чего
أساس
نادي
পরিস
যারা
##perial
народ
প্রবেশ
memberi
regions
наблюда
kuuluvat
##53
##나다
##kea
##кар
Ec
too
hyöd
##вшиеся
speed
subst
baadhi
##계의
##ajat
##tari
تنت
perl
অঙ্গ
##istaan
техно
##enarnya
primary
значения
الحيوانات
##upp
##гло
##غات
구역
##saan
ويق
##edung
alku
##joiden
القدم
##asiassa
практически
##사에
##ätä
##ুটি
39
৫২
개최
공간
혁명
Luc
올림픽
##allin
যাতে
##bedaan
Massa
meter
Poland
ноября
##ungkinan
taistel
движения
mendukung
##াও
##마다
##পতি
##র্জ
거주
##cean
##osan
##ائرة
##توبر
Com
oma
##iliar
##iling
##lawan
##чными
المصري
billion
perdagangan
##এন
##maa
##uno
##দেব
1-
##yssä
정부는
##akula
হাতে
подоб
keluar
proposed
membangun
##ইন
핀
##린다
##امت
##াপক
##eful
est
أصل
হাই
##äännö
ball
tour
Пред
শাসন
##никами
أكتوبر
তৃতীয়
বিশ্বাস
색
##ীনে
Ud
남북
##icho
##olta
##järvi
##ستخدم
хоро
ফিরে
##imatta
আয়তন
muziki
partai
berlangsung
##특별
강화
Бер
تطور
2011,
jarak
rules
terve
Daerah
percent
wanyama
Microsoft
##ধি
##вей
44
##سلوب
رقم
للج
##iform
##ineen
##iriki
##lines
1954
rank
jälleen
অংশগ্রহণ
낙
##umbe
##روفة
##لسفة
tax
Эти
##tiete
coal
vier
الوز
##asiswa
berubah
subsequ
Japanese
সম্পূর্ণ
performan
సౌకర్యాలున్నాయి
##Cl
##식이
##ize
주변
##jaya
12.
Don
Lee
Rel
ساب
away
timb
title
стату
listrik
রাজধানী
tradisional
meninggalkan
##ংক
روا
##ющими
Chuo
Kaik
spir
голо
remov
Romawi
islands
ألمانيا
가까
حدث
terc
citiz
ruang
työsk
##влением
المصرية
separate
perjalanan
организации
##Во
골
##렇게
##주는
##шло
Nd
##akir
##wake
##enger
Chile
kunta
print
living
metriä
величи
pressure
Christmas
পঞ্চায়েত
##জে
곡
##과학
##рин
통치
##engk
##iled
##жные
이것은
##icans
läht
west
২০০৮
запад
первой
involved
الفرنسية
##orporation
Association
##54
##스타
##াপন
Ms
최근
##utup
##aduni
Суще
প্রভ
العرا
والده
Colomb
الكامل
recorded
##এম
혈
##روس
আও
방송
비슷
BBC
বাক
##новре
Star
الشم
বায়
ఇక్క
occup
сопро
##ocratic
Jersey
বৃদ্ধি
##KP
##ьё
##국가
##име
##ابعة
juh
gave
водо
своё
nucle
الجزء
Banjar
financ
ارتفاع
الجديد
نوفمبر
adopted
##تا
##гля
##тые
##قاء
##aker
##älla
You
Его
Hong
kyse
অবশ্য
Seuraav
menarik
степени
производи
겨
될
##жей
уч
##ান্দ
시스템
وبين
eriko
পূর্ণ
Angeles
menolak
المعلومات
##కొ
##jät
##তেন
이해
рим
Cape
varia
массо
kaupun
রেকর্ড
berakhir
campaign
mwingine
##ум
##ইং
##이어
##ocr
##tid
##сер
##поли
##сред
##ার্স
lit
##entin
1955
deal
##alahan
الثورة
##puolella
региона
penyakit
environment
##বহ
흥
##حاء
##ليف
Lo
Ri
صف
ভে
রহ
শর
알바
##ehto
##kiin
##িনের
тон
نصف
লাই
Rock
terg
الأر
مايو
রক্ষ
##illaan
Jewish
depart
reason
отмеча
ديسمبر
অক্টোব
ধর্মীয়
announced
##AF
움
CC
Ду
##oitu
الشب
pääka
интере
##minister
Croatia
memilih
Provinsi
menjabat
yliopist
развитие
diketahui
##57
##국이
##umm
##шее
md
##http
##idae
1936
евро
##bility
ingin
vaike
поста
পেয়ে
উপস্থিত
returned
##нто
##جان
받은
출판
eaa
##ittee
##kitab
##стоит
2006.
জুলাই
father
taloud
##andangan
Records
smaller
Федерации
correspond
##IC
##্ফ
휴
##can
##ipa
##بدو
##بيض
##বির
Ky
অত
과거
영어
##aves
##стом
apa
чер
acqu
trib
قامت
দিতে
johti
مساحة
##বীন্দ্র
اليهود
программ
##위에
##সুম
##మ్మ
8,
কণ
문학
번역
##luku
##لمان
##ত্তি
11.
Аль
النب
##isille
dinam
names
sifat
момент
ঐতিহাস
##ственное
karakter
##భి
긴
늘
##elan
##سكري
Lev
বাজ
##lying
##لسطين
kone
##uminen
العصور
2-
그래
##indo
##ohol
##вшая
##كوين
##onald
Flor
prep
spes
##ataifa
2008.
Kanada
সরকারের
Kiingereza
##кую
##বাম
##লেন
유일
##jata
Lin
Sis
сол
ули
كار
##ettav
الها
মারা
الاسم
మించి
elämän
বাহিনী
డాక్టరు
##ET
##식은
##чка
##مسة
Ot
외국
Was
sit
asli
east
huon
Court
counter
lopussa
##১০
డ
##ুরি
다르
법칙
kak
##ekuwa
##hdist
##osing
##ready
##utkim
phot
мета
носи
parha
pysty
поряд
середи
সামরিক
variety
informasi
##нка
##нок
##اسب
##ريك
(4
Rä
কৃ
otti
teks
уста
2007.
warna
Таким
Portug
Uhindi
vanhem
##ظة
Ло
##odia
##sien
##лект
##пере
##شارة
##ماية
cho
nit
base
kaks
الكم
tiete
губер
الفيز
##andikwa
markkin
поддерж
##شب
##자와
مض
##akup
##anto
руб
الفر
dirilis
институ
ফ্রান্স
todennäkö
늑
##있다
##ধার
##ళ్ళ
##кими
Off
عاد
##known
Vuos
коло
край
sella
разных
ব্যাপক
##engaruhi
sources
الولاية
##opl
제작
##allo
Kij
sah
##asons
##erian
1937
Cuba
dipl
পরাজ
memory
المياه
الرئيسي
обеспечи
##سمح
২৫
##tire
شبه
pian
##istien
عاصمة
الغربي
মৃত্যুর
যুক্তরাষ্ট্রের
##పాల
Ty
تك
জো
##elaj
##اعدة
##াক্ত
bad
häv
смо
معا
##ambar
##istit
##пуска
##чении
1952
Song
usia
ভিন্ন
الخلية
المسجد
keadaan
правило
multiple
программы
установле
##BA
##iro
«"
달러
##ومان
لين
##ellow
##ikaan
##తున్న
Love
batu
perh
авиа
закон
المرض
##ollinen
cannot
nation
очередь
##격을
##»),
##লেক
مخ
وض
도입
##పేట్
নীল
мона
పూర్
армии
техни
বাজার
выделя
commercial
##йти
##лые
##دات
##ريح
이와
지속
##alon
Bec
##aving
الأل
##uksien
fight
teach
Украи
মসজিদ
center
ইংল্যান্ড
##মু
##تلة
경기
##ider
нет
বিত
সাই
##öiden
1933
коне
Music
##itation
vallank
students
الأمريكي
##джа
##رجع
tor
##irika
##sifat
##চিত্র
1900-
paper
create
pengaruh
products
vaikutus
##Са
##وش
옮
희
##حاب
##راث
এন
##dion
##hden
рам
비롯한
##aftar
##tävän
كلمة
##osassa
Grand
Salah
kusini
সমুদ্র
الأراضي
kalangan
estimated
##ekk
##нев
걸쳐
##igan
##odes
Гру
অভিয
Monet
Banyak
السوفي
যুদ্ধে
স্থাপন
##OC
#
##점을
##wah
##,000.
##utive
##uttua
text
النف
ships
заклю
##ционных
станови
التالية
కామారెడ్డి
##물의
##keä
##мпи
CE
성립
##earn
##entä
Tar
ase
ধ্ব
##ustuk
Kons
ilit
luov
استمر
понима
শিক্ষক
esiintyy
множество
##jal
##osc
##tax
##لاع
##র্ন
لس
نص
##isah
##баты
##цами
ওপর
প্ল
##جلترا
grup
##tanian
Color
mudah
complete
käytetty
philosoph
##وسف
يأ
해석
##inka
##urat
##جراء
Fil
fri
tyy
Пра
ква
বাল
##riage
Konst
Между
أغسطس
يوليو
msingi
продук
##ственным
kehitys
yhtyeen
##ом
##اضي
시기
мощ
уби
সংস
Papa
alun
данным
##ianzishwa
##дя
##성과
##ras
##umn
اخ
لص
실패
##atie
##ksen
##اسعة
##েক্ট
Som
rul
род
లభి
##frika
##nessä
والغ
plant
venälä
العلوم
الكويت
##ei
##ব্র
هم
##하거나
##table
remains
বিশিষ্ট
조선민주주의인민공화국
##ফট
আট
반응
طلب
##하였는데
##ellen
أيام
আসেন
berat
উদ্ভি
##allisia
##тегория
সরকারি
dipakai
흑
##문화
##برت
##طول
##রূপ
면적
방문
##chus
##ొన్న
مرك
১৯০
##ounds
##umaan
поля
##bahasa
eight
الياب
নির্বাচিত
##국은
##aju
##জ্জ
내려
##aven
##tage
Art
Bag
бло
অতি
##ainya
##িকাংশ
Turun
Sebuah
kirkko
المعاد
Angkatan
nopeasti
##মহ
##otus
##্বিক
Dal
эпо
تنا
দার
mche
trop
أفضل
Piala
artic
বেশির
Center
мнению
дальней
приводи
##пря
##agen
##ungo
##ثمان
Pes
اقت
وير
1930-
تحتوي
##enderal
прекра
раство
تقريبا
Sebelum
diadakan
الإمبراطورية
ـ
##널리
##нда
ca
uz
##aden
##вода
##имуще
близ
categ
ডিগ্র
##которые
largely
maailmansodan
먼
흐
##도시
##소가
##تمر
মড
평균
##well
White
точки
الباب
পরিচালক
construc
approximately
##Th
##ুশ
왜
##сад
##خول
Лю
فض
##력으로
##인들은
Uni
Wan
leo
সাত
위치한
##intah
##ماعيل
Komp
Пере
##roversi
состоит
পৃথিবীর
##istettiin
transfer
вещества
##Ро
##ана
추가
##echn
##estö
##utuu
700
huk
yhä
رغم
##াপাশি
hawa
Сред
২০০৭
garis
прото
##zingira
التقلي
elected
kampuni
руковод
reaction
##াসা
##irik
##otte
##ктор
Ros
jään
يسمى
nyimbo
অধিকাংশ
деятельности
##ез
##তো
##장의
##sue
EU
OS
부르
##isms
##tilä
peg
web
مرض
##arter
Stud
timu
дома
sepak
Paulus
diberi
француз
opiskeli
##ফা
##ffe
##عين
фе
관광
지정
##ikio
##rary
##قلال
মের
ohja
تقوم
##change
Pusat
Queen
näkem
normal
প্রকার
conflic
nuclear
##োপাধ্যায়
পাশাপাশি
রবীন্দ্র
transform
##족의
##uin
##ogen
##াসিত
Mur
ним
##inggu
fire
tunt
сель
اليم
seven
##పల్లిలో
begitu
সামাজিক
serangan
yhteensä
##ici
##صلة
작곡
##пута
Ren
луч
يصل
##itect
##andard
##াব্দের
mengi
pohjo
المنت
global
область
huolimatta
mengandung
!
윈
##일보
43
결혼
##рого
фай
وتن
##ektur
##usika
Mary
lines
osuus
запре
ওয়ার
##upungin
Victor
behavior
기초
만든
##wapo
##yhty
näh
sik
Pari
ahli
kart
siis
গ্রে
##katifu
ভিত্তি
отличие
системе
республи
السعودية
콘
##ؤول
##য়ী
보여
##elli
##emia
##ilik
خلف
##äällä
Stev
lään
игры
орби
регу
Keski
tubuh
সেপ্ট
##tention
kifupi
всегда
##erdekaan
writing
##сен
аэ
৫০
sea
ска
বাদ
없었다
##ствия
##براير
يعمل
##ession
الإسب
Disney
formal
definition
##اغ
##لاك
##لين
이동
##صلاح
экс
وتش
মোহ
있어서
##tured
More
cred
عنها
처음으로
##essään
روسيا
habari
tapaht
বিভক্ত
schools
выступа
Internasional
##خة
##চু
##gar
##زين
নর
##صدار
596
Ras
Rog
Дру
##attor
happ
##oliitt
##тельная
Taiwan
pendek
##erusalem
tehtiin
demonstr
ডিসেম্বর
প্রস্তাব
জন্মগ্রহণ
##심을
##.),
##rip
##বেদ
##واخر
Cha
Gen
Vil
logam
قانون
Palest
likely
медици
seitsem
keturunan
memutuskan
##هن
##역시
##uge
##uns
%,
Of
##నీరు
ion
وجه
##нении
tall
себе
ходе
الفض
##ournal
##uangan
يونيو
السادس
сохрани
numerous
культуры
ঈ
졸
##경을
##만이
##있는
Sn
దు
등에
##refu
##zeti
183
Keh
وحد
경기도
mitä
##asivat
радио
جزيرة
##indakan
##льности
discuss
founded
biashara
##만을
##akk
اح
북한
nuk
Япо
зда
아버지
##скоре
perp
##idents
##koivat
Besar
bakar
missä
دراسة
крупней
response
وبالتالي
빛
##tag
##قتل
##قدر
وو
질량
##hire
খাদ
##স্টার
born
борь
пода
المض
بريط
##elaskan
killed
##itettiin
underst
document
independence
##فاض
##يور
조약
##ائزة
you
##راسات
রাখা
২০১১
공산주의
##udukan
colon
sakit
Modern
النادي
Congress
পাকিস্তান
স্বাধীনতা
##세를
##лам
##чки
북쪽
sad
জাদ
##rodha
##ющихся
2000-
الزمن
ম্যান
pribadi
##رى
৩০
마이
##голь
##роят
RNA
aks
أخذ
নার
##orium
Anti
arah
Agung
Никола
Industr
regional
Singapura
లభిస్తుంది
meningkatkan
##قق
티
##리와
##해를
##bel
##sih
남쪽
##erik
##্যাট
وله
##iring
1914
ansi
알바니아
Super
heavy
shown
siirr
internal
kusababisha
##일은
##rah
##гом
##ماد
##회에서
##agaz
##ione
mun
مرت
Beat
lisää
الكون
চিকিৎ
todell
తాగునీరు
нескольких
##тчи
3-
움직
Old
গল্প
দেশে
##atasan
##тивных
antoi
lokal
الخاص
belief
hyökkä
zinazo
বাণিজ্য
الموجودة
باستخدام
##성에
##نها
عق
거쳐
##ইংরে
vif
##ented
löyd
весь
lakka
titik
tunnetaan
Pemerintah
properties
##రో
##aig
##sol
##চের
정신
##하지만
##يرية
13.
تضم
বেল
인구는
magn
القديم
ilmoitti
mennessä
##51
##6%
##ivy
##oca
##ppi
##상으로
##িকান
вид
রাস
позд
kulit
ক্যাল
হাজার
neljän
office
already
käytössä
##기관
##인과
##лый
##واد
어느
বাঙ
kind
هنري
ilmes
usaha
أربعة
compon
التالي
mengembangkan
##8%
##rof
모습
이들
##ujen
##yawa
Bor
نسب
يقع
있으나
##hirik
vita
поле
поме
##antine
accep
равно
##জ্ঞানিক
ihmisen
согласно
기존
##াড়ি
##াপের
Abu
Ven
##город
সড়ক
##angkap
الحزب
##istance
конструк
الرئيسية
pengembangan
##öm
##حب
Op
##으므로
##wide
정치적
##alien
##ottom
##ванто
FIFA
drug
kesel
الدوري
উপাদান
চেষ্টা
Jamhuri
memenangkan
##vy
퇴
##ম্ভ
##లోపు
Nic
ото
رفض
كلا
জ্ঞ
ফেল
##olled
##ville
##িয়াস
кана
بحيث
সপ্ত
##elekea
bebas
оружи
কৃষ্ণ
amount
placed
الحالة
কম্পিউ
property
Kaskazini
operations
##시켜
##yll
해안
##нены
##قلية
Jok
ark
сни
دخل
##itors
##قاومة
vaihe
##adiliko
иногда
তালিকা
menesty
называют
##мно
##িরা
রস
자리
##kein
##uluh
Arm
Сан
Conc
mwana
психо
##tamisen
الأخيرة
kaskazini
penumpang
therefore
originally
соответству
맺
##isc
##etin
##клад
##নীয়
بور
مقد
জিন
##äneet
##انيين
Ethi
Malc
sawa
মহাক
হলেন
##teessa
2009.
మట్టి
Academ
Middle
disease
etenkin
pattern
происхо
Myöhemmin
kemungkinan
##체로
없이
##일에는
##бере
##тный
Wab
hot
mau
etel
risk
золо
والر
Venäj
السياسي
##новременно
##По
##টিং
##dang
1953
Serv
huku
لهذا
mwenye
society
কার্যক্রম
производства
##az
##두환
##lit
##мма
##роб
##чер
لك
대중
##했다는
Kul
Var
zao
الهي
একটা
##inding
kasus
kilom
приве
بسيطة
চিহ্ন
##alaista
##ediakan
future
volume
##anjutkan
network
влияние
memerintah
워
##haw
##мос
##шта
##اشا
##হের
##্বল
교황
많다
무역
##odox
муж
পুল
대하여
Form
hizo
وبعض
অত্য
##ombang
harga
relig
торго
الشمس
##anggung
integr
suomen
февраля
তৎকালীন
approach
Institute
kemampuan
relatively
зависимости
##PR
"(
hol
1932
asem
chake
motor
sekal
shule
কাঠাম
##ingkatan
##ковского
религиоз
الطبيعية
##동안
##lad
##цов
##юза
رؤ
Tod
hon
sop
وبد
সংর
##oskus
##িকল্প
забо
tepat
формы
устрой
الفلسط
যন্ত্র
peristiwa
염
##гру
##تان
추정
##iers
##inet
Det
##ances
##منطقة
Play
доку
вызва
tapahtum
అనంతపురంలో
исследования
--
Ал
표기
##agam
##king
##কর্ম
##annut
##ounts
1934
sair
জায়
লিখে
enter
মৌসুম
uskonn
##ambukizi
العاصمة
supported
представляет
##이의
##크로
##জের
##utch
##డ్లూ
dar
আরে
캐나다
урав
käsit
tieto
تحديد
##okraatt
##ционной
aikais
превра
الثلاث
##формирова
##্কে
Ev
농업
##وارد
Bon
Hii
kelas
lento
yanay
operasi
ঐতিহাসিক
относительно
##AD
##তর
싸
##ipi
##ليب
1/
SS
되고
##inut
250
515
ndi
жан
의하면
Melayu
Eastern
release
tanaman
подготов
প্রাকৃতিক
ঋ
##ولد
게임
##west
Sri
ори
নানা
##eperti
##ulated
##రోడ్లూ
أنحاء
levels
обозна
kondisi
studies
السنوات
programm
##52
##дж
##حم
##жит
وآ
널리
##ello
##uria
##ellig
##нному
##يطاليا
Early
house
посвя
বিবাহ
diambil
##aksanakan
##elesaikan
العسكرية
পরিচালনা
##당은
##ogy
언론
شهد
شيء
একক
보인다
Belg
Kenn
arvi
path
tend
التس
لمدة
joukk
الجزي
##isaalta
berper
highly
الحدود
القرآن
составе
##ungkinkan
благодаря
memperoleh
ফেব্রুয়ারি
మట్టిరోడ్లూ
##도와
##회에
##تيب
불가
자료
##itik
##вита
উপক
Kaisar
plants
означа
المادة
product
প্রতিটি
христиан
возможность
##рю
##헝가
##انو
##يون
কৃষ
##risis
Turk
силы
প্রণ
block
bakter
электри
election
centuries
##bly
##pit
Ji
দৃ
leh
##метри
acid
##uuteen
rapid
ulang
двига
niistä
শুমারি
##ekerjaan
episode
الوطنية
Southern
erittäin
populasi
শতাব্দীর
##Ki
##Eur
##бов
##ربون
Arg
জ্যো
##allaan
linal
quick
требо
##enggara
career
জীবনের
divided
المجتمع
প্রাপ্ত
##SS
벨
##тон
##طاء
##হিত
قل
수준
##eval
##heim
##okok
##ynti
##راكز
Ram
ush
##anned
##iassa
Tekn
الحض
সত্য
##iences
prior
разно
আগস্ট
##uksella
aluksi
zilizo
আন্দোলন
الجنوبية
সিদ্ধান্ত
##োষ
##중에
##jam
##uba
##мых
##шем
اش
개인
##anyi
##high
##orks
##াঙ্ক
##uncak
wata
البن
الفيل
ambalo
একাধিক
##leveland
sebenarnya
образования
##১৭
##전에
##шен
유래
한반
##imaan
mati
Каза
নিকট
viisi
##zations
greater
поддержи
##산을
##조의
জৈ
소설
##iant
##صابة
япо
이상의
Force
penuh
yhtenä
towards
western
penelitian
##세의
##تائ
##২০০
Бы
বন
관리
##чную
##عيين
##هائي
kuz
কেউ
পের
전두환
##ubern
##жений
Post
vält
вели
أربع
bantu
ndege
psych
saira
##enalkan
##umbuhan
Gunung
käsitt
расска
ominaisu
действия
primarily
tammikuuta
##VD
##কু
##పై
##동에
##많은
##vey
##кса
##حتى
##زيم
##ورك
##hail
##леко
##ভূমি
gar
Тем
قوة
واض
##ineet
Kaar
link
друг
নিজে
Anton
tehdä
সংস্থা
penghargaan
##기와
##수로
##comp
Bus
GDP
jur
saf
Тер
قدر
##akoul
Jean
give
Orang
mitta
threat
коллек
প্রতীক
Malcolm
destroy
ইউনিয়নে
##দী
##eus
##اتب
мл
వె
##вила
Ibr
That
نقطة
места
##formula
странах
##بن
##উল
찬
##jau
##ربط
رأ
وث
##acks
##াস্থ
##াহরণ
avi
##acara
##itaji
Elec
reli
##elokuv
2003,
sisäll
зрения
ক্ষমতা
analysis
##ampionship
##নং
##্শ
##дор
##احل
ud
৫৩
పు
관측
##itos
##вето
bab
inj
пле
جون
핀란드
Miss
твор
التر
siinä
теоре
jonkin
chakula
menciptakan
##oe
쓴
##라도
##يدا
##রাধ
##్రి
수행
##bour
нас
1929
joko
Jesus
англий
فبراير
division
territory
mahdollista
##조는
##гип
##اهدة
ফ্ল
카이사
##teitä
العن
##ansion
pitkä
স্ত্রী
bermain
establish
yhteistyö
##mo
##선이
##acu
##дже
إي
##eena
##etts
##itty
##ссов
Pot
Воз
##itual
##восто
alih
cast
بعضها
obtain
target
reached
Northern
erilaisia
kelurahan
칭
##hen
##ارض
৪৭
##neen
##жный
##писи
##сные
##امات
ess
wag
yal
ত্র
одна
Kongo
ফরাসি
##тически
Pacific
ainakin
meminta
অক্টোবর
dipimpin
kebanyakan
##1-
##خم
라틴
타이
##chen
Mun
##ledge
kesken
täysin
kebijakan
##시킨
##лог
##গড়
##ankä
##eltu
##стья
##র্ষণ
Ger
kisi
yllä
তুলে
##enkilö
putih
বয়সে
better
maassa
الطبيعي
dibentuk
Некоторые
##xi
##비스
##akh
пы
২৪
##agne
##ukul
vik
أرض
##emmat
Maka
hapo
##landia
хозяй
resour
sotila
##asilitas
sosiaal
ఉత్పత్తులు
„
##내는
৪৯
##ajak
##igen
아시아
일어나
##hesis
nelj
raut
учре
قرية
وفاة
runsa
tugas
permainan
используются
взаимодействи
నిజామాబాద్లోనూ
##선은
##ాసన
윤치
황제
##oton
дет
##askah
Berk
нару
పేరు
##গুলিতে
juuri
কর্মক
সমস্ত
সূত্র
##رط
##عه
##।"
##ega
##мат
##تال
##হ্ম
규모
동쪽
전해
점차
##월에는
Nik
نشأ
있지만
##ahulu
##estig
Nazi
##alikan
heart
mtoto
valko
образ
الكبرى
##చిత్తూరు
contrast
компании
অ্যালবাম
##airs
##sign
##يروس
عين
##äärin
##ствен
temb
дней
поро
##سبانيا
aktif
حاليا
active
sempat
ব্যবস্থ
##мирования
элемента
menjadikan
technology
##এই
##গো
##정에
##vän
##সিড
실제
##kofu
##либо
bak
Они
수많은
gene
viit
##ologia
Dewan
##tyminen
##tamiseen
station
другими
নভেম্বর
পরিবারের
##화가
##ধীন
##িমি
국립
언급
##asty
##تيار
##ropol
тому
mrefu
إنشاء
##utuhkan
barang
terbentuk
##كب
빌
##난다
9,
لش
##liin
##ombo
##ছড়ি
حال
Tunn
##aturan
##eltiin
2010.
Koska
jumla
kuuka
terka
factor
issues
matter
рамках
বিভাগে
contemp
potential
##티아
##িখে
৫১
##ftar
##undo
##емой
##мере
##мира
##سباب
Inc
lem
افت
مؤس
소프트
완전히
##estar
##ääntö
##وانين
Rail
coup
##ровать
badan
keras
minim
putra
الجام
الغرب
বাস্ত
publik
সম্মান
الأعمال
শ্রেষ্ঠ
탐
59
HT
Ке
오래
##يتها
cru
জেন
하나의
##ongol
brit
Under
دولار
энергии
отношения
Konstantin
historical
##bes
##ocks
정도로
##বিজ্ঞ
cair
pela
Кали
Album
Media
front
neigh
vähem
##istinen
Second
travel
федера
السلام
المجلس
algorith
преимуще
утвержда
##혔다
##сон
##тни
명의
서쪽
##ique
##mmär
##paik
##واجد
##াপুর
mto
معه
কুম
##oston
Sula
enam
ther
Spain
whole
الترك
kahdeks
##어와
##유럽
##적을
##ajo
거부
원자
조건
##atit
##evät
##леку
##чены
##েক্স
Mol
инф
1923
##thodox
##ization
##satunya
pantai
الأحمر
voimakka
##쳤다
##ihi
47
du
광주
어려
이로
##ikal
##uasa
hyl
사람이
인터넷
##itial
books
যাত্র
##ications
достаточно
##IN
정착
##시키는
##elma
##isar
##tiet
Bib
মাছ
##سيمات
1922
dens
stor
вклю
খেলা
##issaan
новых
протя
অ্যান
koulut
##겼다
##국을
##ovu
##бир
##ويا
부정
##тали
10,
hud
Ива
бое
محا
##arabu
##odies
Umum
قوات
কাজে
శాసన
sense
spread
названия
Cleveland
treatment
управления
##구를
##লেও
원래
##وامل
517
Cup
Way
cut
ero
hip
বিব
alif
لهذه
존재한다
benda
собра
столи
##ominasi
daftar
object
reflec
transm
الشرقي
animals
practic
المتوسط
authority
käytettiin
الاجتماعية
maaliskuuta
##IT
푸
##ook
##yar
##ныне
##غيير
tua
##joita
неко
##undang
2013,
إعادة
Reform
দক্ষিণে
ষ
46
Гу
사업
##anii
##ساوي
##علان
##غراف
Sea
للف
শাস
관계를
##жением
learn
saada
##фикации
perusti
Columbus
additional
নিয়ন্ত্রণ
##шу
##стя
يل
적용
ban
##ambah
##ilang
1921
1935
Chad
Mosk
kaki
этим
Camer
benef
علماء
দেখতে
বুদ্ধ
entire
быстро
استخدم
mathemat
mengubah
programs
জানুয়ারি
##법을
##్రమ
##جميع
Cas
##oitus
##peror
বিপর
остро
كتابه
##ubernur
должны
শব্দটি
упомина
الداخلية
dibandingkan
##فيد
여겨
##ابلة
оно
##ikkön
kerr
lyhy
Ново
##tually
focus
Helsin
selain
сотруд
Государ
##)'
##동을
##이란
##جاج
##وفة
##ক্ল
мя
جي
정확
##했다고
##aina
##enia
##েলের
##ప్పం
للش
##immät
Beng
Fred
lisä
perlu
ymmär
перво
البار
##enangan
кванто
lähellä
##부가
##ريا
##ధన్
تي
요청
조사
##idin
##াকুর
유명한
지역의
farm
ajatt
malam
river
акаде
крити
сторон
##itutions
context
культур
matatizo
pertengahan
##চর
##론을
##리로
##ovi
##wer
##يته
##বিক
기념
아직
##حيان
##সঙ্গ
кур
লিখ
##umivu
##yksiä
expl
সিংহ
사람들이
##unggal
##ائف
##োলা
윈도
이끌
##ئاسة
взя
##емого
bara
emas
север
##ствовал
##kenalkan
esiinty
персона
activity
difficult
##చె
##ائص
ys
ভি
결합
페르
##하도록
##гото
Gar
গৃহ
자신이
##ائنات
grav
week
사회주의
##hester
2004.
hewan
mainly
muutti
saattaa
surround
##ভর
##kas
##احب
##مرة
대륙
20.
Hab
নকশ
পাত
সফল
keep
الخل
##uruhan
##ইংরেজি
আলাদা
সেন্ট
పల్లి
المؤرخ
##ilaisten
সাহায্য
организа
seurauksena
##ьи
£
##인데
##-13
##zil
Fe
어린
##ithi
##гани
##чном
##্যাত
Roh
মেট
##ening
Leon
done
تقدم
يعود
లోని
##yataan
Jacks
Organ
makes
union
طويلة
mengur
simple
إبراهيم
Wakristo
информации
##পু
##계에
##ahu
##تمل
##واب
##সেন
##েয়
보호
##ulus
##бина
##вшим
##читы
فان
##osten
neur
olah
osan
poor
безо
пора
অধীনে
##illinen
مباشرة
claimed
##-15
##сня
(;
41
받고
취임
##ثناء
тур
দিব
##water
step
Arist
aikaa
pyrki
ситуа
##рования
regular
alettiin
menggantikan
##들로
##esa
##тём
নৌ
이주
##erto
130
##jalla
Mont
Sund
##indano
stars
sukup
своим
##ilaisen
troops
нового
tradisi
الأنواع
performed
##تع
##ేశ
##슈타
##لائ
방향
isi
##ikent
##ohjan
Tang
##ambang
##illeen
##ocracy
kutoa
thous
воору
سلسلة
##udayaan
Awards
siellä
##chusetts
Russian
tertinggi
Kekaisaran
##단을
##лин
##তান
পথ
논란
##덜란드
##itch
##бург
bul
нём
রাশ
##emaat
##right
Pert
luom
وهذه
pergi
тепло
عديدة
బోధన్
версии
changed
расстоя
##আর
##nic
##дах
##нди
##ముద
가리
##క్కజ
Bah
قاد
Hill
لاست
ليست
사용하는
##ellaan
атмос
широко
##ప్రైవేటు
Наиболее
располага
##См
##움을
##bre
##جات
ইত
작용
##bles
##كاني
##ورات
140
어머니
##acter
##angga
##ساعدة
Iran
Marx
move
##kinnon
teams
ولكنه
الثامن
mengumumkan
##가와
##dan
##зия
##insa
##ocol
bay
##aikut
طالب
##amanan
##чество
##পশ্চিম
##িয়ায়
birth
этому
العهد
bisnis
rajoit
فلسطين
পরাজিত
provides
позволяет
toukokuuta
##PS
##খল
##lym
##راح
유사
##فسير
جبل
##говор
bomb
laws
zile
النص
##urches
центр
##täminen
উদাহরণ
##IS
##고리
##키는
##pel
##tap
##гну
Ju
মূ
동맹
##메리카
##igus
##irin
14.
ميل
##oxide
##্যন্ত
##శ్రామ
kuno
male
mies
suhu
счёт
##శ్రామిక
centre
circum
oikeus
##াত্ত্বিক
восстано
selanjutnya
పారిశ్రామిక
##add
##мые
##تهر
##وله
49
Je
##hall
##штей
##িম্প
أثر
Rome
näin
##ellään
##ولوجيا
##ولياني
Lakini
degree
Центра
العناصر
citizens
pidettiin
##CC
##Afr
##ois
##سيد
단위
##egal
##ెల్ల
15.
تصل
##ampil
##eensa
##ising
##iskan
1905
neno
##usiano
unsur
работ
زيادة
বিরোধ
Uganda
присут
మొక్కజ
##ubungkan
display
অধ্যাপক
kannatta
మొక్కజొన్న
পরবর্তীকালে
##দু
*
슬
##남도
##пар
কথ
이사
##adha
##back
##emea
##গঞ্জ
##ardin
Berd
Bots
tarj
세계에서
здесь
самых
tumbuh
বাংলার
memulai
sotilas
الكبيرة
Confeder
الخارجية
##7%
##되기
##이스
##olk
##вок
##جاز
),
##ولات
Tib
تكن
عقد
এটা
পাখ
##atiiv
попы
الشه
بالف
লেখক
అన్న
разре
##omestic
fungsi
nearly
proyek
револю
পৌরসভা
Austria
первого
constant
##rj
##సీ
ঔ
##кет
경상
생애
##ioon
##اعات
##هداف
تشكل
জেলা
##islamu
merek
ubongo
berdiri
المجموعة
##щим
##ذية
##ette
veh
이유로
##степе
থাকা
Brown
imani
saham
tekij
Buddha
dimana
latter
выполня
mountain
##MA
##-10
২১
반면
##erve
##খালী
##্রেস
Пла
দান
##crete
Jika
Thus
পৃথক
소프트웨
##ottiin
jelas
taite
الإيط
طريقة
কবিতা
##isation
Battle
double
letter
meraih
ইন্টার
সন্তান
решение
إنجلترا
একমাত্র
tunnettu
valmistui
diterbitkan
##군에
##어나
##zia
##علق
চী
রচ
শী
즉위
후반
##град
##тона
Cre
Jud
act
한국의
ship
моря
##unning
Filip
theor
микро
السري
সংগ্রহ
Society
moottor
империи
العملية
পরিকল্প
Festival
decision
mengadakan
##?"
엔
##vig
##рку
##сля
##বান
##명으로
##etut
##واجه
##িকের
Lew
nne
Под
gold
পানি
것이라고
Sunda
Tidak
hitam
أبريل
##istence
huhtik
romaan
tyypill
scientific
##োঁ
##సభ
##asy
পল
성장
주도
##helm
##туру
595
look
الخص
حدود
##adilan
##ikkaan
award
elimu
требу
tullut
viiden
الخامس
সময়ের
Transport
classical
direction
resulting
##2%
##세가
##종은
##тет
##ক্য
있게
##kinn
##كندر
Maa
Max
డ్ర
##ক্ষেপ
Ball
Jews
Näin
Spec
aine
date
служ
تعرف
হওয়া
శాసనసభ
reduced
wanawake
প্রজাতির
discovered
Ensimmäinen
##пор
바탕
##oria
##tömy
Wah
our
مدن
పరి
##elled
plat
wide
излу
укра
##atives
أواخر
вариан
দৃষ্টি
البحرية
সম্প্রদ
kuningas
työskent
kesehatan
##'.
##bs
##وها
##ন্ট
##ట్ల
암살
천문
Two
bet
وفق
되었고
지역에
##araja
rang
##asinya
reach
super
верну
завер
##tahankan
Sebagian
strength
broadcast
huhtikuuta
Massachusetts
##ae
##정의
##лах
동물
##umed
Dev
বান
##phere
Bell
대표적인
Kikuu
গ্রুপ
সুযোগ
päätti
языков
الأبيض
##Категория
memungkinkan
##MS
##igg
##tav
##гна
##ائع
মর
북부
##issi
##لادي
##واعد
mif
شعب
사이의
##ultas
##uuden
roll
всей
доба
باشا
ثابت
وحتى
sävel
таким
الذهب
দুইটি
##alliset
keskus
обознача
примерно
الأساسية
অবস্থায়
اليولياني
##pä
##যুগ
zi
##циях
##يريا
уро
##estin
##ষ্ঠান
1924
Club
moyo
млрд
أغلب
ماري
##اعتبار
darah
urban
проте
الأصل
##kirakan
Rakyat
Because
liittyi
objects
tunnetu
содержи
materials
##DA
##adh
##лок
##فين
##كلة
56
كي
সৌ
파견
확인
##вале
Hak
Пет
##ilman
##odore
##oment
Миха
الأز
Italy
Perus
issue
metsä
দুর্গ
церков
applied
городов
Walaupun
সেপ্টেম্বর
##원에
##тию
cm
다만
##장에서
16.
Tex
말한다
##0.000
##chang
true
عاما
يؤدي
Fried
clear
shows
жизнь
مدرسة
অস্ট্র
##uncurkan
Academy
которую
специали
ইউরোপীয়
различные
collection
использовать
##بط
##উট
##টো
##পথ
##రా
##당이
##소는
##신을
##uci
##мон
Чи
공개
자주
##었으며
##لندا
Bow
уси
##orial
##строи
ikut
seli
wall
kisah
magne
vallan
wisata
bersifat
memimpin
kecepatan
rakennettiin
##으면
##bal
##рил
##بور
참가
##elua
##моби
##াদার
Sik
خلي
##ায়িত
bado
decl
التف
القص
##катери
Medan
Edward
জ্যোতি
Denmark
дополни
বৃহত্তম
agricult
berusaha
условиях
##3%
##ER
그런
##سلحة
##াডেম
Inj
aiv
roh
정부의
Meng
চালু
##isissä
yhdys
##isyyden
käytti
الأكبر
السلطة
উত্তরে
osallistui
performance
옛
잃
##ias
##راس
##فاظ
مط
자치
학문
##kejä
##osit
##тием
উভয়
break
pelay
possib
أمريكا
الفريق
football
perustus
Perjanjian
##fs
##nd
##년간
##직을
##lis
##احث
##গান
##ామి
فق
বদ
강력
변경
##etuj
##sial
##sten
##ujuk
mes
lait
أهمية
হত্যা
##iongozi
immedi
первых
Alkitab
যুদ্ধের
общества
Australian
##–1
몽
##irl
##osm
##лка
##мах
##واط
##ভূম
ذو
고전
받았
하지
회의
##atom
неу
وكل
দাঁ
পাহ
##ettäv
##вляет
disk
evol
pist
عشرة
পার্
Apple
عالية
গ্রিক
enough
joined
доказа
bertemu
nykyisin
البريطاني
##ذر
깊
##군과
##hin
##tol
##вид
##рое
전기
##akas
حزب
ঘোষ
হাম
##тивно
kulk
Mnamo
hutan
noted
yaliy
celebr
ingawa
اكتشاف
consists
kokonaan
olahraga
##১২
Ту
২২
삼국
##izwa
##выша
bor
قلي
লাগ
##cious
##نائية
mand
opet
säte
выбо
##ступил
حرارة
##ilaiset
##istisen
Follow
отказа
hallitsi
কম্পিউটার
##금을
##300
##por
##more
##جهزة
ylä
laps
sets
täyt
لأنه
يحدث
লন্ড
##undred
ndogo
такой
نفسها
подвер
একাডেম
Chaplin
parties
পত্রিকা
mazingira
presidentin
suomalainen
덕
딸
##산업
##rix
##top
##عام
##ماغ
##బడు
##väen
Bir
마르크
##ahara
Peny
Sang
heng
laiv
есте
بدلا
২০০৯
##isahkan
##uttavat
kadang
lokasi
السلطان
অত্যন্ত
kompleks
животных
architect
##эн
##시대
##দ্দ
##মুখ
##కాణ
##ుండ
54
##life
чув
ملي
হতো
##which
мало
птиц
আফ্র
asing
teoks
pindah
считается
identified
পশ্চিমবঙ্গের
##вё
##نط
##чай
##েমন
آل
부여
Moh
elä
myy
قصر
##жного
##листи
##ాబాదు
ответ
దుకాణ
valtio
bantuan
##isuudessa
tutkimus
##حن
##이로
##inz
##now
##ллю
##ضاف
kla
Афи
##tavat
##ковой
1925
myth
soon
грани
сокра
মহিলা
##ologian
kantor
saavut
derived
указыва
Colorado
previous
##১৬
##학은
##dhi
Ah
VI
জি
뉴욕
유엔
##위원회
##тина
Kam
duk
##eskus
روما
Suomi
конца
треть
وفاته
লক্ষ্য
account
prevent
станции
Magharibi
элементов
##적이
##정이
##تمي
##خصص
বৌ
수출
연주
친일
##구하고
##aini
(10
nor
yan
باب
সিল
##্যাশন
Batu
Yhty
pohj
فريق
কোনও
네덜란드
kysym
альбо
комму
চিন্ত
omista
mengirim
financial
##ঙ্
##시간
##ulo
##పేట
PT
##isir
##ত্রে
##ৃদ্ধ
وأم
##akaan
реше
বাবা
##andika
##tioned
benar
mirip
الطرق
সক্ষম
##tahanan
persen
coordin
প্রয়োগ
Botswana
##KI
##জর
##лье
##واف
국무
antar
ended
معينة
должен
وعندما
##начально
Wilayah
предоста
distribution
##িনা
(6
Ek
##view
Squ
käy
клю
##äisin
##служи
##্যানে
Town
joto
فإنه
##Suomen
Class
kohti
кажды
كثيرة
стране
অধিকার
Pakistan
sekaligus
seurakunn
suggested
العثمانية
##ps
##bur
##рыв
##هند
##flik
##very
##িল্প
Pla
don
##romos
ulio
тяжё
Luther
المجال
##ervative
earliest
Sedangkan
التاريخية
##১৫
너
##bil
##lak
##mod
লো
근거
비해
##enzi
ঠিক
##encan
##impan
##تينات
Samp
wind
تعرض
##eminen
##odesta
##লেকট্র
2014,
evank
সহায়
স্বীক
sexual
вызыва
intended
##++
##1%
##اعر
##لول
##লাভ
##েতা
명령
##epak
18.
adv
##olong
1910
migr
syks
##cement
2016,
atmos
favor
gagal
অ্যাস
joilla
suunta
Perdana
väestön
소비
##arvo
##here
##rupt
##لافة
Fer
kri
кам
سجل
##estam
deep
угле
আওতা
মহাস
##ointed
nimen
أعضاء
kielen
увеличи
kaikkien
pertanian
##="
##스터
##학생
##خاص
##세기에
##roit
yet
برن
##abrik
##annon
Rais
##ologis
##тивной
চুক্ত
##akultas
suuren
address
machine
senjata
location
marriage
আবিষ্কার
instrument
dikembangkan
##кто
##они
##шил
##اعي
##গার
"-
సీ
건축
কাউ
draw
whom
الإق
কর্ণ
দশকে
##тивные
термин
بقيادة
eastern
koskaan
nykyään
toiminn
الكنيسة
pemilihan
##вёл
##لاط
그림
##inaf
Out
##embly
##warna
##ক্ষিত
добы
حياة
ensin
света
চারটি
review
الحديد
attempt
section
compared
electron
Following
kesäkuuta
khususnya
influenced
professional
##FL
##ুৎ
##emo
##ولت
##apah
##ilit
##orps
##undu
cle
имя
بمع
1928
Wall
Kalim
Scott
انتقل
##oiminta
aliran
বিশ্বক
equival
Ethiopia
scholars
terpilih
продолжи
##أم
뛰
잉
##안을
##اجة
수용
##руют
##ুয়ে
Dam
Työ
hop
Свя
বসব
Tour
объё
يزيد
2000.
peran
examples
heinäkuuta
끌
##ief
##зне
##فاء
갖고
기관
분석
하다
##قرار
вод
دين
##overy
Arch
Lake
البد
과정에서
##ecting
Muita
graph
подписа
menghadap
syyskuuta
##ón
##ذن
##دمة
분리
신화
How
حجم
asui
kävi
vary
yeye
##oplast
kieli
памят
ম্যাক
সংস্করণ
sequence
represented
##На
##см
##레스
##_10
##igu
##ائه
세워
##uali
##вала
##عددة
গতি
##возмо
Roll
بالل
##ettava
Coast
basic
сказа
maahan
архитек
изменения
##زه
##무현
##일을
##rea
##ugg
##езд
ga
세포
##ilies
##ложил
infl
بهذا
##unguzi
##вшихся
hujan
mpaka
##luvulta
##মন্ত্রী
metode
свобод
decided
maumivu
##했을
##atau
##ocal
##ston
بنفس
##чность
Tangu
للسنة
menang
distinct
huomattavasti
##트로
كر
올라
##apor
##ders
##hard
##toba
알려진
영국의
khas
২০০৬
2002,
diagn
risti
начал
female
##eseorang
компози
terlihat
ainoastaan
valtakunnan
##》,
##تمال
##িবেশ
CPU
সংশ
সুল
있었던
веду
لكنه
المال
##erahkan
famous
kieltä
প্রতির
##istuksen
terbaik
которым
järjestelm
##án
##ол
##বণ
##시는
##kko
##ذاك
상징
##تائج
##alkan
##iance
1951
turv
العص
Sever
money
Mexico
তারিখে
##agaimana
возника
tindakan
##-16
##сок
Ком
спа
스스로
스페인
##ustan
Hari
منصب
##tyivät
الحقي
отрица
работу
Channel
систему
industrial
##9%
52
##aism
##мимо
##нети
##োর্ট
сце
ওঠে
##enian
##ంలోను
mita
Udara
прода
বিজ্ঞ
keskim
উৎপাদন
lembaga
الملكية
বাংলাদেশে
значительно
##-7
##పా
##계가
##지지
##oku
##шру
등과
통과
##chem
Tom
##ezeka
##oitwa
##يمياء
Will
kode
accomp
segera
sukses
вероят
أفريقيا
gelombang
Government
menyebutkan
##FC
##NI
##ento
##ondo
##ссия
مشت
কংগ
টাই
##5,000
##apani
игро
похо
것이었다
Jones
ainoa
board
بغداد
fiction
kansallis
쇼
##이터
##정은
##jaj
##oga
##تاح
##বেন
##oleo
##thur
চতু
##ishop
##taman
##ungua
আকার
১৯৭১
Wales
oleva
долго
финан
behind
needed
tenaga
নির্ভর
প্রথমে
terkait
إيطاليا
الدولية
Kepulauan
относятся
engineering
##MP
##হা
##utt
##ేజీ
"«
66
가족
작가
##ampi
##ituo
##ukit
##درجة
Bos
سمي
나타나
##শাসিত
২০১০
2015,
makuu
ранее
হয়নি
##agazine
tavalla
средства
perbedaan
##حث
쉽
##عاب
가르
##нтов
##поло
##وضوع
গ্ল
చాల
받아들
##akers
##alamu
läpi
##্যান্স
pohon
захва
সংগঠন
dibagi
mother
perman
council
Екатери
sisältää
প্রযুক্ত
reference
Corporation
##CD
##اله
##قسم
##езда
##ماعة
##োয়া
فلا
##되었으나
kifo
rise
Hindu
cycle
gramm
maxim
monia
objek
studi
##tamanya
##প্রাপ্ত
karier
simply
начало
районе
Despite
command
المحلية
ইলেকট্র
সংস্কৃত
bergerak
terlibat
بريطانيا
Francisco
##ype
##гер
##тым
##যোজ
uv
기업
불리
성질
##anzo
##umwa
fit
био
متح
##acted
##ektor
Long
বর্ষ
##amerun
kepem
новые
إدارة
Oktoba
mantan
kuanzia
medical
участие
puolustus
разработа
frequently
কেন্দ্রীয়
##zh
##isf
##zea
##واص
بخ
##pres
##unis
##чета
##পত্র
উইল
কেন
মাত
##osoit
Kich
kumi
prak
спор
অফিস
##ughter
chati
uusia
внима
بعدها
Chiang
konsep
passed
الدينية
alkoivat
эксперимента
##ww
##20.
##ölj
##بين
##صاص
##يزة
##يزن
Hy
Mf
사고
주는
##mani
Dua
Gib
hen
Мно
دير
قتل
كرة
আনু
##atasi
##hella
##াত্মক
Over
jälk
الشيو
المعد
বিয়ে
##elompok
первым
initial
ulikuwa
instance
транспорт
ব্যক্তিগত
individuals
##당을
চো
직후
확장
##akes
##ruun
17.
get
oil
оши
ففي
لقب
##lemen
naik
отве
الغذ
##hariki
##isivat
##tuivat
1999,
Julai
upaya
детей
الديم
leader
worked
consequ
mengeluarkan
respectively
##포츠
##igo
##wise
##жная
##ల్లు
Age
oll
rav
буд
гео
بات
وأي
শার
##esten
##wanda
دمشق
2001,
Civil
позже
puoliv
tekanan
إسماعيل
muodosta
suunnittel
##디오
##물이
##বনে
MP
оп
দর
이외
해결
##ukio
##ниях
##لالة
там
জাপ
불리는
##timen
##торой
semi
##etahuan
Stalin
taking
wilaya
записи
оказыва
الرومان
distingu
presence
الأوروبي
formation
pekerjaan
##지와
##ben
зе
드러
선택
##dium
Gab
لمن
وهم
পাথ
##ukkue
Kamb
hahm
hiki
##likasi
green
путём
разру
умень
olleen
заболе
السابع
المغرب
carried
suoraan
এলাকায়
প্রকল্প
##체는
##프로
##bus
##mät
##тех
اث
##arts
##teri
##امين
##iaika
##حيانا
1926
Musa
Wood
vank
##syntax
2003.
полно
Darwin
Tamper
berisi
помощи
##isuuteen
taistelu
lokakuuta
##ür
##어진
##mis
##رين
##عدم
Lä
از
শৈ
교회
##ipil
##اريا
Mul
للغ
##astra
##oweza
Dani
Mill
rasa
الفق
عمرو
দেখে
শিশু
forced
концер
চন্দ্র
believe
shirika
большой
toiminut
তাপমাত্র
литератур
Christianity
술
##jas
##kom
내각
##itto
110
Doc
vid
مات
여기서
ikan
kopi
täyd
неиз
ядер
##jualan
Costa
equal
rangi
rasmi
описы
오스트리아
palasi
следует
Colombia
positive
হয়েছিলেন
joulukuuta
##rd
##১৩
##무를
##사와
##йка
남부
멸망
##eces
جيم
গুণ
##стров
##тации
кино
печа
##الرابط
jatuh
varha
عليهم
বিষ্ণ
People
opened
diamond
мировой
আওতাধীন
ক্ষেত্র
##highlight
accepted
keduanya
tambahan
определе
##:"
##కీ
##계는
##웨덴
##дам
##зер
##وست
</
РС
##agon
##edic
Jär
unc
جهة
flow
perb
susp
реко
أبرز
موسي
##umisen
##ждений
Times
целью
##embatan
ihmistä
সেনাবাহ
##De
##مح
##역을
##형을
##гли
##ونس
##সিক
원주
위원
##atih
##etik
##нить
maf
эпи
مرا
최초로
##empaa
##heast
linn
تمثل
ظهور
মনোন
##angaza
##estadi
##umista
jinsi
regul
border
merasa
الأعداد
##alization
alueelle
toiseksi
tuolloin
Christians
##RC
읽
##공화
##정책
##low
##ডার
Аб
우리
##trol
##мана
MTV
Uta
шта
لقد
##aches
##ämeen
##нская
##сного
1927
kump
التم
##валось
avoid
জাহাজ
দ্রুত
##operasi
jatkoi
##ographic
Berdasarkan
##syntaxhighlight
##jun
##чем
따른
Haw
Kre
এরা
##ambat
##tekij
##throp
##ungwa
طاقة
##edusta
carry
kenra
stage
Virgin
spishi
tampil
values
victor
первые
Desemba
appears
membran
предполага
organization
##яр
##웠다
##emy
##درس
##روج
##হীন
شه
نف
يك
##특별시
##ندية
12,
ton
опы
قسم
ছয়
##ayani
shar
wiki
ঐতিহ
##нодоро
##োগ্রাম
Taman
##empuran
aktiiv
mitään
teknik
освобо
الأخير
বাঙালি
подтвер
##ropolitan
পাকিস্তানের
콜
##전의
##imw
##jid
##ylä
##еха
##ضية
##يفة
95
증명
19.
Net
Uts
sav
пои
১৮৯
노무현
##стями
ilip
مكتب
نطاق
##aisuus
purch
месте
права
##ollisen
gunung
native
предме
уровня
الأسرة
ప్రాంతం
основных
##চক
##기술
##ady
##ريش
##াহী
그녀
##uste
##خدمة
##فلون
Ott
sud
سبب
의하여
##oiden
room
мину
стар
تعمل
చేస్
##смотре
##ющиеся
закры
الواق
liitto
feature
Johannes
mencakup
Parliament
становится
##센터
##tär
##дёт
##اكل
##حدد
##قلة
Kw
رح
라이
##나라의
##lima
##päiv
##داية
HIV
lip
sak
ато
##avoim
##hibit
Ibnu
Wais
vaat
والط
##inafsi
Ennen
долла
পরিষদ
শতকের
samana
climate
currently
maambukizi
వనరుల్లోకి
administration
##-6
##</
##–2
붕
##col
58
##iday
##водя
##сами
##فهوم
##oille
berf
cand
tätä
геро
সভ্য
##puolue
bring
বৌদ্ধ
##тельную
branch
сообще
الطريق
প্রাণী
الهيدرو
##фу
갑
##정보
##ميز
##ైదర
kö
근대
수상
평화
포르
##ekas
##iaat
##rown
fif
이렇게
##enang
##indwa
##jabat
##tinya
##upuol
Kata
Tuom
medi
slow
Этот
ويتم
##taneet
প্রেম
zamani
Suomeen
composed
التجارية
dijadikan
الرومانية
##قاد
##isip
##াস্ট
Ham
Jon
Nok
ومح
ময়
##insip
##ismia
Blue
emph
inti
اقتص
##attuna
ransk
новый
##amental
কাঠামো
ability
hänelle
quickly
stories
Research
pertamanya
البريطانية
##프가
##ева
##ديل
##াখা
Ho
강조
##ayar
##বারে
aid
нер
معل
##ahidi
##etisi
1931
Both
свет
جبال
অনুম
హైదర
##amisen
Carol
Harry
типов
الشام
Helsing
quality
ihmisten
Alexander
##рам
##ذور
##لقى
гг
##awai
##bury
##izin
##ytyi
##един
##شرات
##ধুরী
Leo
##funzi
وادي
క్రమ
##aisiin
mayor
магни
اللات
##tamatta
Napole
prefer
tavoin
الأردن
প্রভৃতি
diangkat
domestic
императора
kemerdekaan
##민족
열린
##aded
##лина
##ার্ড
Hot
Pir
кле
주었다
포함한
Karl
Stan
সেরা
##anning
limit
tulev
كثيرا
রোমান
berita
mahali
powers
resulted
zinaweza
الرياضيات
উদ্দেশ্যে
menyediakan
##"(
##بو
##》(
##upe
노래
졸업
##-200
##aaja
##ebra
##lask
##tely
##ونيا
11,
Lav
Mia
rum
еже
وات
현재의
##untaa
wood
أعلن
الول
تشمل
عامة
قيمة
এক্স
##ternal
Tuhan
older
vapaa
кроме
##endeleo
внутри
положи
العليا
النساء
##ampilkan
##ikasikan
##järjestö
создания
kabupaten
pääasiassa
الإنجليزية
большинство
##주를
##ثرة
##هاء
단순
인천
집단
##amaa
##band
##enth
##ilin
##itif
Add
Mem
fal
лёг
حمل
فران
불구하고
жидко
##angeran
депута
##ান্ত্রিক
ayahnya
ilmesty
bertahan
literature
##Pr
##جع
##مم
겪
##스코
일제
##anon
##umbu
##вари
##сный
لإن
Kama
بالس
অগ্র
##andria
##ottelu
derivat
четырёх
vastusta
హైదరాబాదు
experience
communities
##규모
##없이
##이션
##New
AN
SI
적극
##endi
##блио
##кипа
##ুয়া
১টি
luot
пунк
المك
##ioiden
Techn
самым
الضوء
Econom
kidogo
పూర్తి
Nations
Orthodox
వస్తుంది
university
alternative
menggambarkan
##TS
##렀다
##aja
##www
Cur
lar
경우가
Bulg
symp
аэро
التب
الصف
تحدث
image
اللون
দিল্ল
asilia
depend
kauden
kunnes
власть
বিভাগের
armeijan
järjestä
mabadiliko
##-8
##ছি
##ঢ়
흡
##väl
##fect
##isma
##otia
##чего
##عاية
##াহ্ম
Int
Lud
Mob
ata
haw
رسم
##angsa
Book
Fort
Road
موسى
পিতা
##etters
##فلونزا
kuvat
phase
থাকতে
ধ্বংস
observ
процесс
berjalan
esitetty
непосред
disebabkan
బస్సులుప్రైవేటు
##Se
##Sh
##بيد
##زوج
##ষ্য
##ాని
중에
해방
##hanc
##ylän
cip
pyh
##اثولي
##েনীয়
Lind
Tamp
Terd
союз
بالر
ظهرت
يعني
decre
night
tarjo
صناعة
argued
signif
musiikk
философи
necessary
Kalimantan
впоследствии
##PC
##yä
##ضى
##어서
##eds
##зар
Ци
갈등
제정
충청
##리우스
##elar
##urit
##тное
##িক্ত
cam
지역은
##적으로는
##erior
wife
##amista
##lannin
##usiana
2012.
прожи
الصين
বিপ্ল
Mongol
cabang
উদ্ভিদ
চ্যাম্প
క్రమంలో
dukungan
hallinto
автомати
ব্যাখ্যা
expansion
structures
Республики
##누스
##동차
##alk
##lif
##uls
규정
##anom
##edom
##стях
##ترات
##জীবন
##ায়ণ
Toy
rob
##istin
insp
инди
##ক্রিয়
Santa
amino
apart
hours
mechi
talon
geomet
Jackson
unaweza
investig
religion
completed
pelabuhan
yleisesti
opposition
চলচ্চিত্রের
##েদ
##전이
##isd
##фли
##قطع
##enge
##বাদী
mam
##astus
##etapi
Bumi
wale
بالك
астро
العقل
четыре
استطاع
الطيور
انتشار
hundred
европей
perustuu
pertempuran
##RA
##యో
##니다
##нде
ца
가입
개신
##aika
##рина
##тиру
Tol
윈도우
##ляции
Lord
Temp
##inkaan
##ওয়ায়
తగ్గు
claims
عمليات
Bandung
император
##요일
##nes
##rog
##рип
##ясь
##شيد
##كذا
68
겨울
그레
수는
##epas
جزي
জমি
##akuwa
##ivoim
##opher
Cypr
Tiet
kent
коле
وليس
##stream
##গুলোতে
Cross
Miaka
biaya
dance
শীর্ষ
alasan
county
kuzuia
ohella
politi
screen
প্রকৃত
mencoba
চরিত্রে
الكيميائية
использования
##구가
##북도
##yne
تا
건국
##ixed
##usen
##শ্বর
900
осе
удо
আলী
hewa
sita
Роди
أمير
##lantic
##ounted
أجزاء
joskus
museum
kolmann
namanya
Tampereen
ensimmäisenä
##yg
징
حض
عز
제시
폐지
##новь
##обще
##ৃষ্ট
DVD
эту
بان
বেগ
스웨덴
##elman
##inger
Oleh
حاول
গণিত
laske
потом
الفلك
حالات
مصطلح
Russia
Sistem
অনুবাদ
المحافظة
remaining
väestöstä
continuous
многочисле
##MI
##로의
##rey
##هنة
##시키고
##ници
##াতের
tam
রান
##споль
1915
Navy
تظهر
##нением
lähti
своём
целом
سوريا
পৃষ্ঠ
allows
молеку
Ukristo
berbentuk
resources
హైదరాబాదులోను
##obs
##ماك
صد
مف
생성
##ekni
##merk
##круг
Ahm
Lat
tot
##akili
Lama
##ancang
Egypt
merah
serve
tilan
uutta
Приме
каждо
పేరుతో
Program
standar
continue
progress
характеристи
##৫০
##jul
##tit
##оло
##সাম
계산
등은
소수
아우
##taja
##жным
Cam
Ray
Rod
##astic
##ellyt
Land
تبلغ
##ikiran
##నపల్లె
nomor
সমগ্র
toisin
Kamerun
berpend
mencari
uniform
evolution
seseorang
తగ్గుతున్న
##ేవ
##공업
##kes
##ندن
##ورن
ঘন
২৯
##ekat
##iner
##such
##াশের
Spr
haz
جمع
말레이
drum
недо
أرسل
নাটক
প্রদ
##влении
##তন্ত্র
melko
vehic
সিরিজ
시작하였다
##empatan
ajaran
কাহিনী
##ustakaan
Tällöin
предела
effective
##_7
##يح
##enh
##чём
##الى
FC
kr
ظل
것에
상호
제한
##Brit
##iket
##ytym
nyk
##ন্দ্ব
##lywood
بأنها
বসবাস
শান্ত
kasvat
saadaan
إسبانيا
পশ্চিমে
kymmenen
toimivat
самостоя
processes
Международ
##_6
엘
##조를
##트남
##apy
##mus
##ulf
##шка
##باح
##нией
ajo
cov
фон
이름은
Nämä
Sand
Watu
elin
weap
наро
فكرة
చాలా
1920-
lilil
walip
худож
المؤس
বিধান
ভর্তি
diikuti
utafiti
Франции
buildings
చేస్తోంది
perustettu
распространё
슈
##설을
##파의
##zab
##чек
##কোন
##বাস
##াটি
##ygen
##Союз
fos
mig
sid
ধরা
##uruan
heli
väit
خمسة
##jiunga
Willi
ومنها
signed
Европе
приобре
##লো
##рот
##인으로
##eran
##erts
##ikot
##rief
##тров
##اسبة
হিম
통하여
##engwa
haki
ster
мере
huruf
kasvo
seles
Амери
تتكون
টেলিভ
Suurin
Tetapi
middle
naapur
dynasty
leaders
conflict
knowledge
##১৪
##선거
##ارف
).
съ
도쿄
##usuf
##راجع
бес
мас
سير
##alley
Scot
hosp
##apatan
##iminal
Uuden
turun
القوة
বিশাল
##ituksen
##teeseen
arrang
charge
menand
models
tuotta
маршру
بالقرب
##пасности
Detroit
tunggal
২৮
나머
밝혀
여성
윤보
제기
체제
##uhun
сет
منح
ভবন
Zeal
poss
tapp
chief
##tämällä
Daftar
kasvaa
makubwa
السابقة
elokuuta
occurred
поверхности
착
##비를
##이드
##Kar
##нью
Rh
##일랜드
##ataa
##ilön
##рить
##ালয়
##ীকার
##্টিক
182
Rah
Tup
уго
بكر
##ellut
##нские
##соеди
##ходил
임시정부
##edonia
keski
songs
семей
Brazil
liikke
miliar
kijijini
অনুষ্ঠান
fasilitas
previously
mengalahkan
فم
##광역시
##نائي
dog
خمس
##adili
##ennus
##горит
##বার্ট
سعيد
العصب
النهر
##ствовать
التفاعل
walaupun
преобразова
겸
##국민
##소의
##hak
##так
##ీలు
##гель
##ؤلاء
rac
صدر
বিস
শেখ
##ament
##intas
##wanja
##শিল্প
Best
News
моду
القط
تطبي
ডায়
mdogo
orbit
sijain
##ikirjoit
menteri
корабля
উন্নয়ন
berwarna
oikeuden
vaikuttaa
##Or
×
풀
##kah
##ألة
##asik
##্যাব
তৈর
Mara
osak
pelk
rump
موسم
cryst
брита
экспо
باريس
সংজ্ঞ
kinach
tangga
tiedon
Москве
десяти
недоста
автомоби
ఋ
##ంపు
MM
가져
나누
사라
저작
채택
##되기도
##uang
##ющую
Say
rom
Рим
оди
ورد
##tinen
##েলায়
Kuus
Petr
учеб
해당한다
##istään
Chrys
liikk
mwezi
takes
النات
সুবিধ
Albert
annual
sheria
القيمة
belajar
##isuudesta
ympäristö
необходимо
universitas
##тке
এড
때는
않아
(12
McC
nar
Поэ
وسي
corr
seek
Пари
النم
Viime
Запад
عثمان
قائمة
ব্যবস
pitkään
päivänä
ilmestyi
বেশিরভাগ
condition
mukaisesti
##هج
##가를
##equ
##äki
##تلك
##صاب
অণ
জে
먼저
수가
##이지만
##siiv
##ర్సు
фро
طرق
스포츠
##icial
##okasi
##ridge
pari
শুধু
##ightly
infin
المعت
মেয়ে
Public
سكانها
liberal
الصغيرة
combined
tietokone
marraskuuta
##мым
##шед
##راغ
지적
##라비아
##헝가리
##ende
##دمات
##াভাব
Big
alu
win
তথা
##empia
##ottel
##sburg
##شلونة
1912
дене
друга
линии
päivän
vaatim
প্রচার
Stasiun
minister
question
appointed
menganggap
الانتخابات
!"
##La
##ধা
##관은
##키아
##দুল
দি
노르
스타
전달
##eley
##epal
##esan
##ارنة
대해서
##доров
##ферен
##чений
##খ্যান
Dick
kayu
tree
желе
рода
спра
أطلق
##antara
##avalry
##рирова
Länsi
table
এসেছে
##igenous
##immista
Persia
reject
الهواء
decades
efforts
الثالثة
Tenggara
declared
ortodoks
প্রবাহিত
##ax
끼
썼
##우는
##كمة
모양
수학
장악
통신
##aily
##شارك
##ولية
Well
تحمل
সাদা
##ughuli
debut
think
экипа
কলেজে
##ontakan
##unction
концеп
теория
dipilih
الطريقة
కామర్సు
কোম্পানি
operation
##elenggarakan
одновременно
##DL
##gal
##stö
##ube
##ফার
##య్య
동일
##anfa
##even
##wali
##wall
##тили
Nat
Yks
Yli
##angat
انته
গভীর
##atured
##hibiti
##ниципа
Later
дерев
прибы
تسمية
married
القاهرة
ansiosta
సంరక్షణా
runsaasti
mengurangi
pertumbuhan
responsible
##경제
##াপে
ఋణ
전에
##ancy
##olar
##мера
ulko
оцен
ছেলে
##йнштей
##జిల్లా
Akhir
jalkap
সুন্দর
joukkue
perustu
достига
mielestä
녹
##명은
##сур
##хом
##هاد
##িসি
బీ
것과
귀족
의견
##uaal
##виду
##жида
%),
Ace
Top
Tul
عاش
কোষ
##asian
##ivili
Pope
Sher
jadi
repe
vaal
деле
ниже
الحي
وانت
উৎসব
구성되어
##intään
##isiksi
##century
playing
సీనియర్
probably
perangkat
##이기
##olu
nu
صح
উঠ
공화
##воль
##سلسل
##طراب
##لاحظ
##েম্ব
##ట్టు
Ann
للص
নিষ
Wana
Charl
kitab
namna
seder
track
вновь
подчи
يعتقد
পার্থ
##ционные
Contoh
metrin
древне
перево
distrik
membuka
colonial
incorpor
الموسيقى
కళాశాలలు
menjelaskan
##트는
##lat
85
Ев
국방
다루
인사
##ссив
CIA
ито
চাক
##engar
##inder
näkö
يجعل
শাখা
##anggar
Irish
inhab
болез
পক্ষে
డ్రైన
failed
инстру
переме
церкви
التربة
Novemba
##apatikana
expressed
sisälliss
##öy
##щу
##세는
##law
##هان
##పతీ
Tš
سف
نز
অম
경험
천연
##rian
##ugos
##влен
##ائدة
##সম্প
Dip
циф
때까지
##чиная
1916
Simp
لأول
##াস্ত্র
Olymp
منظمة
##ultanan
##льность
urheil
terlalu
Jenderal
ব্যাপারে
కేంద్రాల
డ్రైనేజీ
соответствии
##NS
품
##400
##evi
##tiä
##خلص
##وبر
إف
تغ
ভর
울산
차례
##efin
##kinä
##ান্ট
Bog
Dub
Эта
فعل
لاع
কৃত
ড্র
##ктора
гипо
наук
ফেলে
##palvel
Treat
aliye
erill
الثدي
مرحلة
يحتوي
పొందిన
##тической
layanan
percaya
включая
soldiers
приводит
pertemuan
искусства
Revolution
convention
деятельность
##Le
##계로
##asp
##iso
##নীত
##ెంక
২৬
시도
##olin
##టియం
dat
äär
Анд
متن
আমি
##లాండ్
Bond
kich
사용한다
2015.
atoms
käynn
পুলিশ
##kirjoit
ukuran
Верхов
అలోపతీ
Kristus
artists
konflik
esiintyi
##4%
##Ab
##ضح
##력의
##상은
##yes
##оне
##عبة
##مار
ОО
왔다
화학
##인들의
##amen
##roph
##ryhm
##upan
##yond
##يمان
Vik
het
veg
дер
كلم
##unnat
##شاركة
hati
terh
الأي
ক্যা
তড়ি
নীতি
earth
karib
katol
kuusi
havain
hieman
##ensional
argument
বৈজ্ঞানিক
perjanjian
yliopiston
pembentukan
잔
##uto
##yön
##äjä
Gi
গৌ
##amed
##ayer
##hood
##ন্থে
##াপতি
Pop
wah
رجل
لعب
##ehold
##lympi
##vasta
##াইটেড
মডেল
వారీ
##alifah
##িত্তিক
##িস্টেম
Santo
XVIII
kikuu
писал
свиде
ilmoit
agreement
следующие
Pendidikan
activities
dihasilkan
recognized
сформирова
르
##치고
##ref
##дца
77
Fa
РФ
২৭
의원
##aret
##iber
##igur
##rier
بسر
قلب
চাষ
##akala
##emman
жела
كلية
করবে
শেষে
##كتيريا
##ampilan
##itykset
##బడుతోంది
Zealand
العثماني
আন্দোলনের
Commission
diproduksi
используют
##)-
##Tr
##За
##их
##గో
##감을
##상에
##sea
##сам
##щен
Vo
ثق
육군
##국으로
Far
pin
فاز
জাম
##atini
guru
inat
semb
ways
меня
море
أنهم
السم
##angany
##teissa
##валась
mambo
tabia
yhtiö
الروا
منتصف
খেলার
স্নাত
humans
segala
библио
الحصول
совмест
বিস্তার
keskusta
руководи
mahasiswa
kemenangan
vallankumo
##TO
년
##вии
51
시행
한글
##지에서
##캠퍼스
##aban
Гра
Кла
дня
оке
ماي
نظر
개신교
##chama
##మెంట్
верх
##fektur
##ikenne
2001.
klabu
mekan
расте
দর্শন
ఏటియం
##ర్తింపు
athari
johtaa
promin
ব্রহ্ম
bintang
despite
terbuka
التجارة
featured
Palestina
অর্থনৈতিক
techniques
keseluruhan
käytännössä
современной
চ্যাম্পিয়ন
বিশ্ববিদ্যালয়ে
돈
칸
##개월
##حاث
నా
문자
생물
양자
##네시아
##etan
##onym
Son
anc
msh
сил
##ковых
dead
harv
milj
سواء
لاحق
مادة
##Guinea
##unched
2002.
ihmis
miong
завод
школы
الجنس
الزرا
পড়াশ
письме
##тические
autonom
الوزراء
kupunguza
появились
institutions
mempertahankan
##mur
##мую
уз
대사
않다
조지
##원에서
##akko
##رافي
Jer
XII
бан
##abara
##ipuol
##чению
Nord
بالب
##вшийся
kunni
label
বস্তু
Arthur
compos
ছাড়াও
కెఫెలు
selesai
electric
solution
pembuatan
tarkoitus
употребля
yksinkerta
##öö
##ьер
##টিন
##ాక్
Хи
관찰
월드
이곳
접근
##oren
##tact
حقي
هنا
##imbol
##годня
Глав
హాల్
##ссиона
Toinen
cahaya
closed
sektor
полёта
##тических
content
perusta
extended
kimataifa
berbatasan
##OM
##বস
##kun
##orb
##лга
##فاف
72
لغ
২৩
반란
베네
최대
##meij
##okus
##ukuu
##вень
(13
dro
кто
сли
পৌঁ
সাধ
문제를
##andon
##oweka
##магни
##ీడియో
heat
mind
الصد
ভ্রম
##্যায়ে
Found
mimba
округа
వీడియో
mission
terbang
viwango
понятие
العلمية
المعروف
yhdysval
операции
existence
keputusan
##ФСР
##чих
##ъек
##اصر
##ديا
##فيذ
절대
##enee
##kans
##ামের
Jan
Mit
Анг
لان
مقر
১০০
있도록
##istäm
##కీకృత
alum
tait
valt
وحدة
##тивный
conqu
ideas
teman
видео
নাট্য
বিচার
esitti
вместо
senyawa
valmista
предложе
komunitas
##En
헬
##uji
##äen
##ونغ
##গাঁ
يخ
모델
##емая
##صلات
##ঙ্গা
অবল
বুঝ
##omial
Hans
Manu
Pius
tasa
vill
واسع
সমান
##كندرية
##్మెంట్
2013.
Dutch
komer
عناصر
وخاصة
##тивного
##గొట్టపు
planet
الواقع
##ification
training
Несмотря
మేనేజ్మెంట్
##шё
##পা
깨
##عوة
##ేజి
인식
##속도로
##acts
##isat
##isko
##тным
##িসের
Bad
kov
Рас
واج
활동을
##্যায়
##luding
##oitiin
multi
pener
العمر
Cyprus
course
gedung
lisään
Совета
обнару
সমস্যা
Science
Sekolah
kendaraan
menyerang
##ళహ
곤
쌍
##구와
##muk
##كير
##icul
##ises
##поль
##াকাল
Vat
esc
fas
فصل
সুই
##eleza
##endek
Each
maat
опти
اهتم
##egemea
##fanana
##isilla
Eisen
bunga
jotta
solid
العدد
ilmais
occurs
الآثار
ఏకీకృత
মিলিয়ন
churches
security
মাধ্যমিক
направления
##Ма
##চল
##zen
##شري
ск
এফ
국왕
##ship
sig
тол
এসব
##ైవేట్
выда
моне
Texas
огром
জুড়ে
శాలలో
metall
сильно
দূরত্ব
removed
##గుర్తింపు
Minister
becoming
mengakibatkan
##gu
##르의
##졌고
উত
각종
문서
식물
이래
제주
##찬가지
##били
nom
انه
বহি
হাউ
కవర
##되었는데
##вании
##летия
Tamm
নিচে
##0,000.
##тенциа
Badan
Broad
Carib
arvon
juara
share
تطوير
ethnic
الوحيد
##tainment
Vuosina
attacks
confirm
العالمي
##ogyakarta
identity
tersedia
середине
connected
kuningask
الاقتصادية
##연합
##이에
##지게
##플러
##화된
##Ind
##okk
##sch
##هات
##సిన
Фа
స్
정복
##글랜드
##orin
##ستور
клу
밝혔다
베트남
시대의
##মেন্ট
##ాక్సీ
taid
উপরে
마찬가지
Misri
форме
অনেকে
থাকার
বন্ধু
ambako
unique
вопрос
законо
టాక్సీ
menikah
neuvost
allowing
Committee
##أو
궤
##iji
##mir
কঠ
특정
##년대에
##amic
##atol
##utar
Wag
лег
독일의
부른다
##artin
##endar
Bali
koke
tuki
ряда
скло
تعود
পূজা
##omatic
##ydestä
fully
الدكت
hakuna
osaval
самого
العزيز
النووي
కవరేజి
##tructure
pimpinan
ইউনাইটেড
##TC
##এল
##zes
##кну
##коб
##িনে
PS
마르
##arry
##kins
##osia
##деле
##اطعة
##نيات
Lim
bit
äly
그들의
중국의
지역을
##ريقية
##কুমার
지역에서
muuta
scene
بينها
مشروع
impact
словам
частью
meeting
saudara
##tamisesta
президента
##hä
Ly
강원
권한
안정
제안
집권
##inux
##пись
##суль
##గుండ
Mos
hap
rib
وأخ
يلي
কাঁ
##пусти
##প্রথম
Hisp
kiny
sivi
verr
حديث
##eltaan
##ighter
ystäv
জ্ঞান
##uksensa
Berlin
fisika
доступ
природ
Tanjung
ব্রাহ্ম
Terdapat
seitsemän
##وخ
습
##선의
##eko
##ادم
##اره
##ونه
53
##ayan
##iton
##with
##াসরি
Cult
weak
Lewis
Their
أوائل
حكومة
لاحقا
##stances
kolmen
pabrik
катего
الجانب
classes
pidetty
purpose
নিজেদের
diterima
management
merkittävä
Constitution
##05
##ibr
##ped
##شية
집중
##িভার
ISO
lel
Осе
ডিম
##istui
##opter
##ottaa
##ссажи
Sitä
neli
road
المف
يوسف
1998,
pyrit
време
النفس
علاقة
Serbia
alusta
vuosik
euroopp
mojawapo
otettiin
penguasa
количества
промышленности
값
##아가
##سلم
##బాల
شر
효과
##onso
##wara
##ابية
##ুম্ব
##స్తి
119
vet
Ана
কোর
বাম
그들은
phen
пути
الحل
مكون
##ipment
input
manga
ottel
picha
آنذاك
মহারা
الرحمن
notable
opposed
ప్రైవేట్
initially
꾸
##ald
62
경찰
금지
물론
##일부터
##ambi
##onda
21.
Cay
Kud
lun
বীর
##aniki
##onian
##rison
Paav
heav
অর্ধ
Lenin
ngozi
макси
غالبا
মাদ্র
##elajari
Agosti
konser
mengaj
serial
Develop
follows
kalinya
ordered
সিস্টেম
hydrogen
universe
ensimmäistä
##сё
##চি
##টর
##লী
팀
##위의
سق
바꾸
완성
##holm
##креп
181
XVI
thr
вся
에너지
##клады
laul
حساب
يمثل
##estaru
##ilishi
##kadang
##osiasi
exact
বাইরে
মৌলিক
Kivuka
korban
высоко
ক্রিকে
##empatkan
##ственная
экспеди
সংযুক্ত
##elligence
##opimuksen
recently
Владимир
Administr
##ux
##Пе
##apu
##িতি
বী
분포
##ekka
##fred
##قياس
Syn
রকম
সেল
식민지
인구가
##alafu
##icara
Guth
Manc
rain
пяти
تغير
ফাইন
Milan
Polit
নিরাপ
##atorium
##igizaji
spectr
অলিম্প
периода
الجامعة
critical
প্রস্তুত
toimintaa
относится
Department
applications
menyelesaikan
##এফ
##мар
##الج
##পাল
##বংশ
MS
kg
계승
담당
소속
1,5
Tab
flo
ile
pir
hier
kote
أقدم
فيلم
그레고리
##графии
Ketua
Machi
mbinu
tujuh
служи
الأثر
##inggian
##kilpail
maneno
saling
virusi
северо
sisällä
النظرية
##문에
##었던
##주로
##ivo
노력
바뀌
이스
##자들의
##bean
##sama
##স্বর
##ারেল
dew
kih
زمن
liqu
евре
سليم
والز
অক্স
##ждении
##ارتفاع
opera
الحال
الحسن
서울특별시
analog
прибли
বাহিনীর
Mountain
expected
Commodore
##였고
##ابط
##ক্ক
##মূহ
ке
جا
마련
##akah
##akia
##lagu
##oche
Suk
etc
시기에
##helin
##влено
Desa
Jack
Jina
الفي
تمكن
صغير
##enteng
##toihin
##ুমাত্র
Saksa
честь
اجتما
النظر
toteut
Mandela
loppuun
menurun
Поэтому
সম্পন্ন
скорость
helmikuuta
собственно
современных
##.(
##Gr
춘
##탈린
##don
##кур
##сив
##الا
##elty
##ряду
Vis
قدي
##yteen
##ণ্ডিত
1906
Bani
Koko
Open
fish
luop
آسيا
الذه
Wimbo
perak
РСФСР
##unungan
провин
الموقع
পাহাড়
সীমানা
manufac
vuosien
Португа
الحالات
presented
##BI
삶
##টাই
##েরণ
Mr
اض
غر
##jänä
##нина
##মূলক
##য়িক
Syd
lää
Осо
শাখ
১৮৮
외에도
##полло
الأه
Kiose
pieni
virus
খাদ্য
##isyyttä
output
الشركة
##aisuuden
##ционного
Federal
ataupun
merujuk
musical
records
Эйнштей
الأحيان
الروسية
الكائنات
النباتات
aktivitas
komersial
Kioseaniki
keberadaan
chloroplast
##أل
##장과
##vet
나온
아무
##jeni
Jus
Mir
بلا
بنت
جام
তাম
폴란드
형태로
##amkan
##icted
##teena
Also
afya
моно
صورة
##yhdist
batas
gives
ঠাকুর
##engkapi
##ografia
##যুদ্ধের
Pohjan
##indahkan
molekul
dimiliki
merkitys
উদ্দেশ্য
aiheuttaa
penjualan
beroperasi
kilometrin
опубликова
возможности
촉
튀
##가의
##대표
##нюю
##сед
있기
##road
Pun
ved
비슷한
##ambia
##tunut
сбор
معدل
##encies
ultim
أعداد
তারপর
##ান্তরিত
просты
ratkais
পুনরায়
Septemba
الديمقرا
##AL
##mb
넣
뇌
##전쟁
##투갈
##dän
##zer
##вия
##лит
##ьёз
##াগত
미술
제품
##ager
##anss
##tood
##احية
##্যোগ
-->
mac
газ
هما
인구의
##ристо
##солют
##ولاية
##দ্বীপ
fast
يطلق
মহাব
##alisis
##ättiin
pääsi
scale
двумя
общей
الدور
এটিকে
গানের
recomm
Японии
আয়োজন
иностра
সম্পাদক
##ababishwa
##ТО
##юр
##حق
##ধর
##নো
##acc
##zin
##пто
##сия
##تاء
(7
여행
##piir
##arifa
##impiä
##tered
1908
besi
uran
waka
chall
kepad
poika
البحث
каждый
والاست
ঐতিহ্য
##imbulkan
entered
большое
удалось
মুসলমান
নির্বাচন
magharibi
الجمهورية
##IX
##akl
##jit
##ناط
##هضة
##ণ্য
AP
낮은
##avaa
##egah
##ilio
##wing
##печа
##ীকরণ
25.
lic
##ibusi
##иболь
1913
poll
ника
الام
التك
##anteen
islam
групп
কন্যা
##umuisha
accept
ulkoma
الحالي
##ambahkan
চিহ্নিত
negative
মহারাষ্ট্র
Constantine
##.'
혜
Ox
వే
내부
얼마
##ambu
##ohon
##вшее
##سيوم
##্রাট
##కాళహ
Juh
Pic
##ardia
##itiiv
##ittäv
##unjuk
##äneen
##навли
##части
Bers
Bush
Conn
Finn
Hung
Merk
baga
runs
Human
chama
গান্ধ
সংখ্য
kwenda
secret
yksilö
первую
المسيحي
Atlantic
equivalent
kappaletta
соответственно
웹
##evu
##ryp
##соб
##ابر
##ارد
أط
체결
출시
##illy
##imeä
##জনের
23.
Cab
Mik
Wad
bes
эко
تتح
আরব
সহজ
##اريات
Yeye
Васи
حدوث
##eltään
##udeksi
analy
الأمن
تنظيم
كبيرا
অবদান
এগুলি
##umption
except
последу
magonjwa
fundamental
температура
##АО
##bin
##бин
##وند
Ху
мм
동부
##ekwa
##usha
##تهاء
(14
sac
Гре
мед
দেহ
##andan
##illed
##isted
1907
Pier
bass
vang
араб
অংশে
নেতা
সাফল
হবার
##athiri
##edakan
jawab
liian
census
refers
класса
المحيط
المكان
নিজস্ব
##engeneza
growing
веществ
festival
membunuh
uchaguzi
муниципа
వ్యాసాలు
осуществля
melanjutkan
##ذك
멀
##원과
##종이
##Per
##дил
##ناح
1:
خل
রং
간의
항공
##amar
Рус
Adam
diak
##ilpail
##ofauti
##others
doctr
herät
المشت
এমনকি
mafuta
mielen
suojel
восста
వనరులు
Several
তুলনায়
ditetapkan
организова
##--
##ns
##’,
؛
##위가
##rec
##сем
UE
اغ
몇몇
여운
해외
Elä
неё
أست
جان
আদি
কুর
##jalle
Life
klas
صاحب
لندن
##ebasan
##щается
accur
lingu
vaati
преду
الصحي
قاعدة
والمن
Secret
Yhdist
kertoi
kertoo
kuolem
places
profes
##omething
острова
Chrysler
পর্যায়ে
সাম্রাজ্য
digantikan
transportasi
järjestettiin
##zy
##ূর
##조가
##рос
만나
##omal
177
Mab
Vih
zim
##ahden
##াগরের
Mkuu
উদ্ব
대통령은
##ولوجية
Distr
mikro
أشكال
খ্যাত
Hämeen
damage
format
proced
конфли
প্রতিক
হ্যারি
Istilah
сопрово
الجزائر
الطبيعة
starting
##বু
##드로
##리오
##tyt
##куп
##мию
##شير
##عيم
Od
৫৪
노예
##ries
##доль
##пози
Ten
аре
ডাক
정책을
##orian
##ynnin
##త్యాల
이루어져
##динами
##গুলোকে
ракет
summer
المكتب
الممكن
গ্রামে
বাস্তব
నీటిని
tulisan
алгорит
воздуха
исполни
принято
compounds
সাম্রাজ্যের
университета
##TA
##ئا
##크라
##روة
أض
우주
##한다고
##amua
##পক্ষ
pec
тан
경우도
못했다
Plan
Real
alim
batt
rool
shot
Окта
اسمه
جيمس
바탕으로
##вольно
2014.
kirkk
micro
Sosial
vaihto
vähent
Service
постепе
приходи
برشلونة
వ్యాసాల
imperial
компьютер
রবীন্দ্রনাথ
diperkirakan
использование
##Ко
익
펼
##사회
##_13
69
건물
행동
Abb
Bol
لله
তাহ
শীত
아니다
الخي
بالج
هيئة
ধীরে
이용하여
##altaan
##okrasi
1997,
antaa
Когда
норма
الكتب
##unjungi
Многие
уничто
শিরোপা
команди
যাওয়ার
Scotland
syntynyt
liitettiin
자본
##ulah
##ziri
##паде
##ليين
кры
বাত
##atiin
Masa
стоя
الأج
مرات
وبدأ
বক্ত
##angnya
রহমান
##্যাশনাল
dingin
issued
memang
signal
turned
Россия
случай
хорошо
utawala
термина
центром
memasuki
состояние
принадлежа
##리드
##ادت
##خمة
##داء
##াটা
##abet
##otan
##umsi
##তিতে
##াণিত
Bre
Kuu
fer
ohj
সোন
##itasi
Four
отда
поко
ক্রম
Feder
comes
genre
rough
нарко
Health
immigr
vasemm
минера
натура
العلاج
যাওয়া
##ervation
regarded
الصناعية
المسيحية
mtakatifu
sederhana
##-0
##ds
##চরণ
SA
무렵
인민
##تباط
Hug
оце
ফের
##কালের
Древ
вида
التخ
كامل
وقام
Teluk
часов
মেটাল
instit
সরাসরি
menguas
невозмо
গ্রন্থে
Airlines
получили
присоеди
Hollywood
extensive
containing
##পদ
##లమ
##낸다
##문의
##ssa
##رنت
##زلة
##কৃত
ок
대립
둘러
승격
파괴
##чено
Mov
рей
نجد
##ewati
##ন্ধান
تشير
كمية
وفقا
##okseen
pombe
مملكة
##ferensi
##ография
##принима
পরিচয়
mashariki
application
##йт
##량이
##생활
##서관
##하의
##Con
##inf
##nia
##вий
##шой
##كام
دا
수입
##ging
##ujud
##ukai
##ড়ার
22.
Nar
Rub
VII
دفع
لغة
১৮৭
스탈린
정부가
##akuan
##ilaan
Coca
ensi
이승만은
포르투갈
##jelman
hatua
новой
কিংবা
bodies
scient
Beatles
البرلمان
অস্ট্রেল
সর্বাধিক
##ollisuuden
железнодоро
строительство
##شئ
##데타
##평양
##lek
##джи
##বেগ
NH
бю
방정
판매
##alaa
##anye
##intö
##вказ
505
aim
меж
그대로
하나로
##essed
1500
Mich
заря
люди
مهمة
Surat
bukti
hauta
macam
mbele
تأسيس
مقابل
Celtic
Confuc
eniten
string
вокруг
##American
##entially
প্রজাতি
creating
الأوروبية
샤
##-12
##лад
##сах
##بان
##خين
##صرة
63
CN
저항
##ীরের
Sak
Sym
كيف
시대에
인간의
##allel
##ammin
##щении
##وائية
Deng
dark
Обра
الرئ
بدور
##amalla
situs
Союза
وأصبح
মুদ্র
##arganya
жителей
অভ্যন্ত
Dominican
julkaistu
rakennettu
##HO
##صى
##수한
##bah
##yöh
##خرة
확대
##보다는
##reme
179
ملا
사실상
##jenis
##meren
ابنه
যাবে
লম্ব
##బాలబడి
Ransk
capac
науки
Bandar
halusi
istana
motion
things
vastaa
weight
##ствовали
berkata
college
factors
связано
случаях
##aisuudessa
##되자
##ski
##zep
పి
법률
터키
##하려는
10%
Syr
теа
للخ
مكة
আবু
দখল
Aceh
Norm
Terb
alik
intr
поги
твёр
Enter
Jalur
upper
كيلوم
সংবাদ
##istoria
column
reaksi
päättyi
running
silloin
অভিনেতা
astronom
distance
pengguna
Jerusalem
Yogyakarta
##BT
##يق
##hde
##tue
##ريض
더불
뛰어
목표
지휘
##agua
##ркут
Hor
Tun
أسس
سوق
مدى
লিপ
##uilla
пост
শ্রী
##adinya
##hatian
##zekano
гидро
чемпи
العظم
এভাবে
নিশ্চ
##abungan
##ityksiä
Elokuv
потому
প্রযোজ
actions
kirjall
kohtaan
offered
restric
families
потенциа
পরিকল্পনা
প্রোগ্রাম
కిలోమీటర్లకు
##نه
벗
율
##사업
##점이
##tre
##töm
##лях
##عها
##টিল
pä
তু
##тета
##ظاهر
фло
اشت
قرب
##amizi
##kaisu
##utaan
naim
nämä
rinn
تعني
colle
lopet
viera
##স্কৃতিক
inside
البيزن
প্রক্র
itsensä
nations
రామగుండ
Polandia
shughuli
##리트
##치가
##_12
##ned
##لبة
##মাস
ry
ам
أه
제조
##ohja
##resh
##رسال
##ودية
##ভাগে
##ేషను
24.
Alk
nan
Кур
여전히
##icine
края
آثار
مؤلف
##ukuran
##ästään
chain
kokem
lähtö
Прези
мозга
أراضي
اتجاه
dahulu
giving
Москвы
причём
مباراة
kufikia
rencana
الفيزيا
vuodessa
conscious
Aleksander
appearance
significantly
преимущественно
##طا
##단의
##keh
##pem
##عرض
##مثل
붕괴
전환
충돌
##arif
##arto
##ogan
##вели
##лада
##నూరు
зве
оби
##aissa
##eding
Käyt
face
Афри
قناة
لويس
দাবি
পক্ষ
রাখে
##ikasta
##teesta
Kedua
Musim
kapas
moral
##кобрита
Aprili
karbon
kiinte
yaliyo
majalah
cardinal
describe
puolella
electrons
##ిస్తున్నారు
воздействи
образование
##BB
##On
##리지
##öll
##الأ
##لاة
##ীকে
초대
평양
##idon
##kuat
##onge
Lyn
Кли
ডিজ
##eless
##ంలోనూ
умер
##avasti
##itable
asuin
shape
массы
синте
থানার
gained
gambar
huitwa
propos
yhdeks
говоря
изгото
##angkaian
активно
ধারাবাহ
observed
computers
названием
президент
##4)
##ذة
##uen
কী
교수
##agas
##lamu
##vari
##ältä
##رائي
##ানির
##াস্ক
Leb
নোব
관련된
##aisha
##aksud
##anker
##терна
3000
الرب
করছে
কোটি
২০০৪
경우에는
##менные
##менных
latin
tarpe
الجبل
بطولة
প্যার
স্ট্র
menemp
Guthrie
dikirim
edition
соверше
actually
lilikuwa
الاقتصاد
Caribbean
menguasai
измерения
ensimmäiset
определения
খ্রিষ্টাব্দের
##NU
##ؤس
놀
##not
##зме
##час
##وته
나가
##play
##tyks
ölj
##надца
##انوية
معاد
마이크로
kuvaa
meren
войск
يتكون
##aguliwa
oxygen
reveal
التطور
الجهاز
কলেজের
পর্যবে
##ulttuuri
require
Украины
гравита
المعركة
kokonais
అవసరాలకు
население
произведения
##류의
##10.
##hol
##uit
##ديه
শো
반발
##ajah
##itse
##িবার
মেড
হাল
가까운
더불어
서비스
##alaya
##hower
Gall
фигу
ثاني
رسول
목적으로
##aribio
##intaan
##বিদ্যা
##ায়নিক
puolu
هؤلاء
suuria
записа
работе
cavalry
letters
решения
сохраня
البداية
억
##력은
##рас
##مام
##ঘাত
Им
Ио
계열
선정
##ehen
##odin
##гина
##груп
##ساهم
20,
Eks
1890
Like
aliz
pair
Major
Popul
keter
maata
плане
النيل
##angulia
##tämistä
##గిత్యాల
Европы
الدماغ
ডিগ্রি
density
##hancurkan
karibuni
matkusta
الكاثولي
произведе
background
menghadapi
organizations
##ус
##গু
##리학
##رمز
##وتر
зи
기계
표면
##니스탄
##ahim
##alat
##esis
##lues
##onne
##речи
##скре
Rad
জড়
##eball
##safat
##বারের
Time
desc
lehd
tano
##active
##стойчи
angka
euroa
sulit
Danish
Manner
animal
catatan
dilihat
বিদ্যমান
kahdeksan
molecules
##järjestelmä
Perusahaan
contemporary
##ID
##LA
##uz
##ফর
##হর
##토벤
##/19
##800
##ewa
##kky
##طال
##ুতি
치료
회복
##ince
##jing
##нена
##ملية
jus
فلم
##andar
burn
mama
реда
##فاعلات
Khmer
brief
strip
Земли
স্টেড
Social
dibuka
চৌধুরী
notably
pejabat
sanottu
Standard
syksyllä
Краснояр
dikatakan
diperlukan
##উজ
잇
##пии
##بعد
##زام
హి
에스
영역
총독
##irce
##kirj
##ربيع
##াহিত
Kad
هدف
fans
velj
пока
##obatan
##పూర్లో
lived
round
выска
изуча
الأقل
واسعة
সহযোগ
##ingatan
Elizab
Hindia
encour
kokoon
manner
модели
##বিজ্ঞানী
выпуска
главным
связыва
జగిత్యాల
Friedrich
রাষ্ট্রপতি
স্টেডিয়াম
memproduksi
исследований
menghubungkan
##دل
##대전
##alm
##мин
##শ্র
67
보수
##하고자
##علوم
178
Hav
Rek
بحر
كات
국회의
케플러
##ampak
##asily
##estys
##ettyä
##evile
##ختلاف
juur
مياه
يعيش
আমার
주장했다
##ustann
##্যান্ট
uhuru
голов
الأمم
قيادة
##batasan
##istettu
##фикация
agreed
haraka
huduma
puncak
tulisi
потреб
samping
storage
крупных
বিস্তৃত
##vuotiaana
operating
Eisenhower
completely
##hai
##kam
##علم
##হাট
তে
사랑
하이
##wezi
##роди
##тере
##شارد
503
Map
nat
ফলা
##uduki
##ukkas
##valta
Itäv
syrj
пита
المث
অনুর
ইঞ্জ
জাদু
만들었다
2018,
Pengh
brain
expla
kohta
sites
suhta
##hailand
kasvoi
прежде
বিবর্ত
সমর্থন
nykyisen
näytteli
mendorong
предприятия
##aq
##эй
ధ
##로를
##-14
##лер
##لاس
##ورت
소유
좋은
##alih
##lein
##yksi
##াচার
Ana
Gog
Kev
grew
mapa
ndio
varm
কমিউ
##তত্ত্ব
arvio
পতাকা
concep
возгла
البناء
దుకాణం
conclud
memakai
membeli
relatif
yksittä
الإنتاج
প্রান্ত
положение
difference
প্রক্রিয়া
правительства
##лл
낳
짧
##라엘
##رجة
##ন্ব
##১৯৯
Чу
##aped
##жены
##ними
##тива
##шими
##نتين
Osa
Фор
বাগ
সান
중에서
##единё
Maur
isot
jasa
ryhm
##ikansa
##unuhan
##usisha
ardhi
fleet
spons
therm
المفا
ম্যাগ
##ensions
##ikkönen
Calvin
verran
väestö
প্রচুর
Johnson
toimint
площади
pasangan
Räikkönen
principle
kansanedusta
##구에
##산의
##시와
##트를
##وصا
حص
강한
##osha
##জায়
рок
##kitso
##влека
##িতায়
Greg
polt
слов
أصدر
سرعة
لعام
##udelle
##খানকার
Night
Telev
непре
Väestö
causes
##лекопита
السودان
الشمالي
director
которому
অন্যদিকে
##BO
##CH
##국에
##ори
##язы
##ألف
##باء
##خور
##নগর
##্জন
##–17
AL
HP
شك
صي
매년
##icks
##udin
##емое
##عبير
Ilm
Kro
убе
মাহ
রোম
২টি
##eluun
Stat
Tans
isol
wach
بدون
বয়স
대통령이
নোবেল
fields
##allisten
##ebutuhan
##тельными
kecuali
koostuu
saattoi
##яд
##دى
##غا
##পন
##단체
##밖에
##äät
##кле
##ксу
##ؤون
##واح
##াশে
Ti
쓰는
파리
##icts
##اخلي
747
dak
nyt
سوى
فهم
বিধ
##eista
##ikizo
##iluku
mora
noud
виды
##angkit
ideal
maala
земли
успеш
بصورة
##indungi
custom
рублей
সম্ভবত
##tikuussa
Further
hutokea
##anfaatkan
Waislamu
কলকাতায়
equipment
reactions
находятся
সম্পর্কিত
существуют
##Br
##SD
##하에
##hta
##leb
##افع
##ময়
৬০
나뉘
여름
##lien
##onze
##рока
##чена
##سبوع
13,
fen
يتح
বাঘ
있었고
Lagu
Skot
meni
ново
сами
##ohanes
##станти
##тность
alkaa
kruun
liitt
newsp
الموس
##unjukan
Boston
Valley
конкре
الفضاء
মন্ত্র
স্কুলে
ihmiset
leaving
пассажи
Fakultas
prominent
технологи
pengetahuan
##زر
##600
##све
##الق
##ماه
밖에
전개
##부르크
##iper
##щает
##عاون
##াক্স
##িবাস
##కుంట
god
ডার
##uhtin
##систе
pale
কখনও
গ্রী
잉글랜드
##ходили
البول
তড়িৎ
##ভিত্তিক
supply
säilyt
المرأة
আলোচনা
সম্রাট
Berikut
Kilatini
berhubungan
##ৎস
##라의
##াঁদ
##ర్మ
mv
##계에서
##enty
##joki
##kiwa
##দন্ত
##িলের
adj
бит
وأس
##omena
##ubali
##িন্দু
1911
Lemb
коор
трак
ثورة
قياس
প্রে
Frans
charg
الكبد
ولذلك
диалек
berusia
brother
পরীক্ষা
keuangan
requires
itsenäist
muodostaa
শুধুমাত্র
Euroopassa
ketinggian
##Ми
「
##교를
##르게
##함을
##جهة
##—18
Ik
ax
نش
실행
##يلية
Ari
gug
som
كام
##ahnya
##gress
##orter
1800
Muut
omaa
дели
faith
withd
woman
прямо
##illisen
আরেকটি
beragam
experim
স্বাস্থ
defeated
обнаружи
aikaisemmin
Великобрита
Championship
##단이
##와는
##бре
몽골
살아
##로서의
##radi
##ائها
##ارها
##বস্ত
##లుగు
alt
Сле
##itiet
##jasta
##ritik
##turut
##صالات
обви
عامي
##льский
adult
fisik
onkin
vyake
إقليم
درجات
আদর্শ
aiheut
beyond
divisi
linear
tietoa
vector
vizuri
сочета
Samalla
Tampere
позволи
средств
ప్రత్తి
Williams
democracy
perhatian
множества
membutuhkan
ঊ
##스에
##lie
##дри
##под
##র্দ
Ан
소재
##ewas
##мами
##الجة
##ريدة
##وحات
Fam
Yan
جسم
전쟁을
##لالات
نجاح
##teeksi
##গুলিকে
write
солда
والسي
ويوجد
##шинство
Kunnan
lukuun
osaksi
puolet
##стрирова
maximum
menjual
الحيوية
suosittu
الرياضية
జిల్లాకు
Convention
henkilökohta
##фы
##افر
##باط
ан
쉽게
##ikuv
##onga
##ulin
##лена
##порт
##োজিত
##্রেড
30.
Pit
سري
কাশ
শিক
Doug
Main
wear
нико
##emahan
##heless
##hiriki
##рудова
Stock
крепо
وزارة
নামেও
##istossa
##ওয়ার্ড
mfalme
окружа
aspects
finally
الخليفة
berbasis
berperan
kaudella
объектов
определи
البيانات
officially
philosophy
노태
침공
##ardo
##itim
##uvun
##тков
##щена
##اديم
##راوح
##కొండ
бро
гим
محم
ينت
##aleja
##র্ঘ্য
Berb
tomb
مربع
উক্ত
শতকে
##isters
1999.
2017,
Pasar
أبناء
দশকের
Barcel
moment
алкого
convers
месторо
العراقي
##erintahan
##It
쇠
##부로
##dam
##কুল
##পরি
##াদশ
##였으며
##적이고
##assi
##ewat
##jala
##tava
##ydet
##нили
##وافق
Had
Pad
Sih
Tuk
hao
той
шах
사실을
##eshwa
##ortun
logo
pati
কল্প
사람들은
Chris
Ocean
asked
bekas
vanho
العين
تعريف
কাব্য
Termin
easily
партии
пересе
энерги
أعماله
##కాళహస్తి
понятия
الشعبية
worldwide
##ভব
##১১
##개발
##백질
##화의
##wat
##äri
##нил
##ేదు
88
NA
مث
경쟁
보유
위험
##щены
##াগার
Not
গোপ
로마의
베토벤
##oseks
##uting
##ব্যাপ
Hann
Matt
Meks
carb
grad
poet
выну
వెంక
##arawan
kesku
kuche
تعتمد
مجموع
যাদের
##ilipino
Greece
orient
Грузии
বোঝায়
##ercayaan
Georgia
নিয়মিত
toisista
varsinkin
vuosittain
соединения
##سك
##자에
##형은
##cho
##rep
##оны
##برة
감소
본래
있지
플라
##apas
##rium
##ظرية
End
Ves
Web
kej
Она
мыш
##вшись
##كسجين
##েক্টর
Angl
Deep
ones
نظرا
대해서는
일반적인
##orders
Armen
Tästä
kilpa
награ
বাড়ি
##lawanan
Turing
guitar
герман
tapahtui
terpisah
Democratic
##järjestelmän
sebagaimana
##벡터
##jää
##గర్
IX
건너
경향
군주
비중
산맥
##일리아
##buzi
##лово
##স্টি
27.
صوت
데이터
실제로
##elola
##okter
##ниями
Gard
oire
تزال
رجال
আর্থ
##arters
##влению
Water
absol
comic
paran
semen
Город
сразу
কাজের
সমন্ব
kolmas
maissa
yritys
весьма
المناخ
Concord
metabol
исключи
الصحراء
selvästi
অস্তিত্ব
প্রত্যেক
secondary
Development
##طى
##구역
##uro
##صدر
জম
대략
동아
##aiss
##echt
##డీలు
keg
현재는
##oloni
##্লেষণ
muot
газо
ইতাল
##tional
1990,
Hukum
Tanah
hypot
sebab
sipil
tarak
التحر
##enhagen
device
helped
joukot
rauhan
reduce
stable
догово
আমাদের
পার্টি
পুরস্ক
hallits
liittyy
##ступления
kuoleman
memegang
mwenyewe
advantage
situation
শতাব্দীতে
Manchester
##egu
##рец
##صرف
73
৭০
나오
##рных
##বিতে
Cil
дра
тка
شيو
пыта
차지하고
##ikahan
Shang
alami
balan
inher
kuulu
länsi
optim
virhe
تختلف
##entikan
##ционный
academ
propag
предна
принял
такого
బీడీలు
Yohanes
entinen
البشرية
Cameroon
exchange
powerful
долларов
Americans
seuraavat
uwezekano
концентра
রাসায়নিক
pääminister
характеризу
##라야
##왕의
##일의
##obe
##مرض
##কাম
##েতু
حس
لر
그해
세종
오스
철학
##tery
##راءة
Mto
nas
Лин
بمن
গেম
##공화국의
##kiteh
##valtu
##нском
ката
любо
отря
сочи
الوظ
مساح
والل
ولقد
##arikan
##estasi
##ప్రధాన
Marsh
rates
taifa
vähän
ثانية
جائزة
##ifikasi
corpor
fourth
laitte
marked
меньше
проект
الباحث
البروت
يستطيع
Emperor
الثلاثة
##vaaleissa
অভিনেত্র
ottamatta
menentukan
##dt
##ـ،
##চা
##롭게
##약을
##spe
##على
##قام
##وحة
AC
승리
제도
##zidi
##прав
##ীর্ণ
##సముద
ame
nad
একর
국가의
말했다
##kiaan
Ming
Slov
fuel
iron
sini
tiap
Поль
الأو
الحب
نشاط
يحمل
কখনো
sales
views
রাস্ত
చిన్న
propor
granted
sebutan
получила
algorithm
состоянии
সাংস্কৃতিক
siirrettiin
ঘর
측정
##okas
##нике
##феры
##لاسي
##يدات
Luk
##ykset
##িশালী
Jeff
jälj
pria
race
vetä
дире
пото
مثال
##aribia
##ayakan
Tälla
akili
offer
исход
латин
##kitsofr
Jumlah
Toyota
street
säännö
##elahiran
##untungan
pääosin
Thailand
policies
theories
utamaduni
млекопита
importance
menampilkan
##_14
##cus
##луа
##сят
Om
হে
새로
##hors
##okal
##тине
##ارضة
##رافق
##علام
##ড়াই
nov
tay
##лизма
##поста
##ينيات
Koul
tyyl
viik
وراء
২০০০
২০০৫
##yttiin
appar
armed
zenye
покры
السبب
كنيسة
##erumani
mwanam
näiden
অস্ত্র
الثقافة
العسكري
##roversial
manufact
получения
peningkatan
##عف
##만의
##eba
##وسع
##াজন
대원
정상
##Cola
##icon
##itat
##ждён
##يمون
taj
чет
دعم
صنع
ফার
##oples
##tiede
##метра
##ناطيس
##ويورك
Free
Part
fell
file
opin
이름으로
##ampung
##guruan
##ilding
##йского
Labor
Power
Rumah
fixed
keker
самой
المحي
belong
satunn
timbal
wealth
zingine
الأطفال
exception
pandangan
Kesultanan
seurakunta
programming
##رر
##صي
##ًّ
##дда
##স্র
см
작성
##тори
##زيمة
##طوير
tex
##gebra
##ikati
##tamia
##циями
##ూరులో
Even
Penn
keks
varr
الحس
عنصر
ইন্দ
পুরো
이스라엘
##ordina
##unjung
sides
корпу
بسرعة
লীগের
Cayman
exclus
spoken
данные
Cardiff
workers
Karjalan
melayani
wanaweza
memerintahkan
##9)
##еты
##ума
##ادق
##انع
##ياب
##কেল
##্টা
목적
완전
음력
크로
##akti
##osph
##teer
##تبطة
##كسون
Hay
Väl
cas
Пол
ويل
খুঁ
ধাত
ভাব
전쟁이
##andom
##anssi
Seri
وإلى
Titan
секре
করছেন
పల్లె
shared
wanted
украин
ولكنها
article
регуляр
ইতিহাসে
নিযুক্ত
প্রদর্শ
সীমান্ত
Berkeley
puoliväl
rakennus
профессо
скорости
Cambridge
التقليدية
sijaitsevat
'(
##))
##He
##»;
##ün
족
##fil
##زال
74
ওঠ
석유
신앙
##arno
##ucks
##льци
##حيدة
##াঞ্চ
Hus
tet
Бра
Ещё
сум
##ulasi
nine
разо
الكر
অল্প
##kauden
##lahden
cruis
stone
ресур
الغاز
শহরটি
Albamu
kertas
kulkee
kuuluv
polisi
চতুর্থ
##фицирова
заключа
السياسة
المدرسة
achieved
peräisin
библиоте
المعروفة
##07
##시마
##غال
사후
인한
##사에서
##idel
##unza
##дить
##শেষে
Hon
Kai
Tay
يرى
মাম
##jakan
##вился
Chel
Nabi
says
الأق
تسبب
##ceeded
1,000
Libya
dimas
kanta
lämpö
peral
wakil
автор
المجا
oldest
художе
minutes
theorem
##islestadi
Division
Pangeran
Ufaransa
Toisaalta
elections
controlled
kebudayaan
leadership
##ОС
십
##전은
##체에
것도
공용
진출
##down
##otic
##лизм
##ত্তর
##বরাহ
Inf
tol
تأس
##ామిడి
Satu
жерт
يزال
고등학교
##akaran
##ilarly
Urusi
alish
etnis
tosin
trees
الضغط
تماما
ক্ষতি
마찬가지로
##চ্ছিন্ন
assign
средне
النواة
وتعتبر
##umpulkan
figures
الكربون
గొట్టపు
Gubernur
основной
differences
##Is
##Мо
##కో
##드를
##분의
##siä
##стр
##دخل
ау
보면
아테
천황
현실
##aani
##enya
##ivia
##pool
##дена
##اتية
##ثلاث
Вол
Оте
رائ
못하고
##যাত্র
##াগুলো
olev
pyör
пять
тонн
آلاف
##inzani
1994,
iklim
tekst
মিত্র
Produc
swasta
الأوسط
Ottoman
magazine
pendapat
সংস্কৃতি
commission
toisistaan
প্রতিযোগিতা
##НК
굴
##르고
##지방
##텔레
##형이
##joh
##orr
##тел
##цом
##تهي
##لاج
4-
##/200
##abad
##emar
##ента
##теря
##طيسي
##সিংহ
##্প্র
Deb
Leh
тен
চীন
##oting
##াগুলি
1904
Berg
funk
olet
vaim
vote
общи
##assaan
##atokea
##oikeus
alich
boleh
ehdot
lives
memer
murid
oppos
royal
umeme
الإله
الاعت
والمع
অ্যাড
ম্যাচ
##aryanya
Inform
domain
kreikk
الأربع
అన్నది
majimbo
merilis
স্থাপিত
Kiafrika
الألماني
الميلادي
আমেরিকান
формирова
государств
berpendapat
пространства
##Ph
##Ра
##위는
##рее
##ুকে
##্লা
যথ
##pitä
##vere
28.
Ran
pud
tum
بكل
خرج
##labor
##onton
##ভুক্ত
chuo
corn
vähä
خالد
مسجد
మూడు
Kudus
Linux
Swiss
parad
exists
friend
بطريقة
محاولة
lapangan
uhusiano
العلاقات
pendukung
состояния
determined
protection
subsequently
understanding
##나무
##ket
##työ
##شرف
##రాజ
তো
##imea
##jiji
##octa
##вича
##বেদন
##াপ্র
14,
Hir
Inv
Isa
оки
ستة
فمن
মিন
한다는
##astaa
##ustin
##телям
Java
seem
логи
جهاز
এটির
নিতে
##entina
##odassa
##utunut
##ционно
Yusuf
belas
главе
напря
##ologies
##tically
Toisen
капита
اعتبار
الكريم
Mediter
devices
الأسنان
المرحلة
perintah
означает
процесса
পার্থক্য
দিয়েছিলেন
##_8
빼
##eed
##erl
##evä
##pon
##пом
Ад
개선
독재
말을
심각
##elph
##järv
##اتهم
ATP
কের
##abaya
##akati
##ipped
##isinä
##oyote
Tätä
mall
بهذه
سانت
مصدر
사용된다
하나이다
1997.
Espan
catal
সূর্য
##actions
##annissa
##elliset
buatan
explor
lopull
maalum
tapaan
Аполло
оружия
أحيانا
Captain
Ibrahim
Profess
contrib
pakaian
зависит
occasion
työntekij
complexity
организация
##دت
둔
##간다
##제국
##해가
##_15
##urb
##вос
##জেন
날에
##opes
##otal
##saar
Abr
Les
выя
оте
나머지
##irian
##oking
##ровки
##বার্গ
Alue
Ferr
XVII
شبكة
프랑스의
##umbani
объём
تحقيق
Alfred
Daniel
Setiap
halafu
income
isänsä
должно
статус
النشاط
ఇక్కడి
الواقعة
yanaweza
মাদ্রাসা
Ruotsissa
describes
organized
Helsingissä
##01
##IF
##صح
##부와
##Mag
##гой
##зад
##ائن
##ريج
선수
작업
##abor
##oshi
##term
##вало
##жать
##هولة
##প্রক
##্রমে
Let
Хот
ভেত
강력한
##adhim
Orig
Vene
ilme
maju
поки
чаще
شارك
##падает
##িভার্স
спект
المرا
যুগের
##anguage
Varsin
dramat
proved
toista
превыша
attempts
miongoni
kebutuhan
మరుగుదొడ్ల
##সু
즐
##미터
##خيص
SP
국경
신문
##ador
kug
kyk
راب
ريت
হোস
기능을
##Mille
##angel
##efore
##undwa
##произ
##риста
##ходов
Ford
Game
cosm
পরিম
##ayansi
##ettuna
##ungkap
Bible
Steve
rival
schem
tewas
взгля
могли
##вляются
Philip
terror
অবলম্ব
kuninka
باعتبار
daughter
kannalta
tumbuhan
движение
Kaupungin
something
শক্তিশালী
disebutkan
expression
increasingly
##تة
##كك
##জল
##াং
##권의
##гам
##лым
##تار
##ষ্ম
##ుడు
IM
uw
сю
আঁ
৪০
৮০
뒤에
불과
비율
##acho
##päin
##utua
##velu
##wesi
##змом
##زايد
##عتها
Ped
రాజ
వదల
##ropri
crew
ehkä
levy
коль
مالك
హింద
শিকার
##gerakan
bacter
maiden
toimit
الملكي
শব্দের
bandara
minimum
reasons
tilalle
প্রতিনি
osittain
Protestan
отношении
indigenous
గ్రామంప్రధాన
##2-
액
##식에
##어들
##형의
##بيه
##কান
##াসে
كن
묘사
세르
##osuh
##town
##zeko
##وحيد
##ولين
##কীয়
Esp
gal
rin
suc
##eller
##جموعة
Barb
Such
UEFA
mbio
Ряза
##anggil
##начала
piste
الأند
##aporkan
Organi
اختيار
##tempuran
kutokea
liikenn
saatiin
সক্রিয়
##ennettiin
Uchaguzi
invasion
slightly
মুহাম্মদ
depending
positions
الاجتماعي
combination
governments
##DR
##Си
##পে
윌
##공산
##량의
##루스
##트의
##дио
##щем
##يوش
##ামে
##ఇతర
99
종합
참석
통한
회원
##elih
##oral
##vard
##ättä
##ющем
##واصل
##োদ্ধ
Ill
그래서
##jojen
##kansa
Chem
conv
haja
##ikseen
##льному
1995.
mixed
sepen
Южной
##aratibu
##ওয়্যার
Persib
figure
kaisar
mapafu
minggu
useful
Второй
масшта
المذهب
becomes
periaat
Computer
expanded
memenuhi
penyanyi
интерпре
половине
kompetisi
peringkat
протяжении
käsikirjoit
##IM
##ادئ
비밀
활용
##apar
##atre
##hehe
##ukur
##unti
##толи
озе
واش
##archy
##lavia
##ulang
summ
гран
паде
прис
يبدو
১৯৯০
##gezeko
##সমূহের
1995,
2019,
تتميز
##fanikio
##okrasia
moving
должна
authors
satelit
الجنوبي
الزراعة
প্রশিক্ষ
particles
সংক্রান্ত
β
##삼국
##seb
##اعد
##র্ট
98
rh
ve
대체
보다
##하다가
##ajia
31.
jen
сей
فرض
তেল
문제가
사람은
위해서
이것이
이름이
##emään
##haria
Educ
aiku
kong
laus
obat
Хотя
заво
##uneita
kabar
духов
মূল্য
সৈন্য
inilah
kuljet
nyumba
пользу
অভিযোগ
সরবরাহ
kijamii
perdana
중화인민공화국
##ollisesti
vähemmän
radiation
substanti
##৩০
##৬০
##방송
##산은
##신의
##гей
##اين
##لقب
##করণ
##ళిక
রি
সচ
도착
비난
##fast
##greg
##pped
##плуа
##слов
##цент
##గిరి
KRI
Ukr
gun
sir
waf
юго
단백질
сезо
مثلا
ছাড়
##itting
##joista
1996,
Asian
menaw
msimu
sugar
yksik
إلكتر
تصميم
বেড়ে
##mintaan
sports
общего
correct
rekaman
serious
sesuatu
различа
launched
relative
setempat
الروماني
отдельных
mengetahui
menimbulkan
dilaksanakan
##류를
##ديو
경영
준비
##arus
##হেতু
Rud
oks
uku
ини
উপস
인하여
##kerta
##lihat
##undur
##береж
##жению
Holm
газа
تشار
##স্বরূপ
alkan
kateg
olymp
Иркут
Ленин
الصوت
Little
tunnus
অভিহিত
জয়লাভ
Persian
উৎপত্তি
Александр
popularity
университет
##ил
##ীম
##량은
##량을
##aul
##liä
##гры
##ناه
가정
대구
행사
##etyn
##mond
##мато
15,
26.
29.
Tav
све
للر
পথে
##jista
Bara
Hume
Tent
here
нерв
الكل
##appale
##iltaan
Semua
Sodan
mbali
wides
позна
পাঞ্জ
##johtaja
Golden
Talous
opetta
المنتج
##хождение
keempat
terbagi
الرسمية
প্রকৌশল
keväällä
matahari
melewati
mengakui
specifically
##We
##dh
##gl
##غو
##Nya
##pos
##мый
##пой
##тое
##جري
##ناق
ns
فه
근처
불러
원로
##우스는
##arki
##hezo
##kina
##mine
##äsen
##жное
##اصيل
##্রয়
Pap
hub
Ита
нем
그에게
##elmän
##uster
kesä
osin
কালো
##프가니스탄
##llikkö
##তিক্রম
1998.
exhib
kiell
settl
دائرة
ঢাকার
kannat
showed
языках
التهاب
المسرح
Catalan
pesisir
порядка
события
философ
السيطرة
العلاقة
المستوى
ক্ষুদ্র
Saksassa
setengah
suurempi
versions
Основные
nimettiin
välttämät
Константи
ইউনিভার্স
профессиона
వదలబడుతోంది
определяется
##US
짐
##امه
Фе
оз
كأ
기여
사립
살고
처리
##elia
##бран
##гами
##несе
##стен
##رائب
Ibu
obl
سيا
##нское
Suci
Tiga
cold
fyys
psyk
vina
ныне
사이에서
##ناطيسي
отвер
##ческому
synthe
серьёз
الحسين
##kielinen
##tämiseen
Airport
pekerja
suggest
الشخصية
النهاية
existing
টেলিভিশন
kansalais
toiminnan
командова
kesempatan
##사령
##kor
##pat
##uty
정리
편입
##купа
125
Eti
Зна
পাস
유일한
##aliza
##ambut
##eling
##erved
##inium
##приня
Imam
dewa
elev
miji
исти
силу
امتد
حسين
##kaitan
Among
judul
klass
menit
الفرد
تحويل
ناحية
বোর্ড
##inikizo
courts
toward
vijana
подраз
الحملة
kikubwa
kitaifa
student
абсолют
directed
golongan
terminal
занимает
সাহায্যে
attention
اليونانية
правительство
##06
##ৈত
##하나
##луч
##ناع
2:
강제
대응
상업
이민
죽음
##까지는
##rees
##wick
##анта
##ুকুর
BCE
Boy
Non
Чер
لون
##immin
##osken
##стана
##স্থার
Hart
Rica
poly
اليس
পাখি
সম্ব
##bangan
##heshim
2016.
Hänet
Merah
hydro
lewat
tästä
имели
إجراء
الصلي
রক্ষা
combin
speech
начали
орбита
الدفاع
আকর্ষণ
বলেছেন
kesällä
overall
purposes
председа
kehilangan
revolution
pääkaupunki
##oes
##дея
##يمن
হক
당선
종종
##자들을
##asha
##اوية
Sid
కాల
##ostaa
Fair
Helm
imag
kept
উয়ে
বছরে
##лением
иметь
اللبن
যেকোন
హిందూ
##stitusi
Bangsa
Kepala
Ontari
Tinggi
Ukrain
faktor
menyel
ympäri
Первый
пласти
প্রত্ন
##ologists
Napoleon
penemuan
terbatas
координа
pertahanan
Pemerintahan
##02
##oz
##ণে
##음악
##정치
##_18
##ohj
##إذا
##ذين
##شرق
##ডেম
##রাস
Ya
భౌ
복잡
한강
##writ
##هوري
SKP
قطع
일어난
한반도
##antik
##elewa
##jansa
1870
Jama
Kall
Saar
alis
alla
dana
kale
köyh
воен
وزير
وقيل
জটিল
##engele
1700-
Adams
ottaa
равен
وأيضا
Ingawa
gazeti
الرسول
উপজেলা
Finland
الكلاسي
capacity
процессе
##operasikan
bagaimana
గ్రామంఇతర
Foundation
الإمبراطور
##DE
##dr
##চন
##르가
##edd
##yai
##сил
##تية
##حات
##درا
[[
서양
일을
##ogue
##okak
##веро
##ান্য
Rab
maw
যৌথ
운동을
중화민
##eissa
##lined
##ulizo
##unggu
##ড়ায়
##পক্ষে
Dana
Good
jeni
pack
raya
والآ
독립운동
##াভাবিক
Dubai
bands
vanke
walit
بنسبة
تعليم
시작되었다
helium
sastra
العلمي
متعددة
ويعتبر
এলাকার
Aristot
closely
suhteen
ছড়িয়ে
действий
الدراسات
memainkan
правитель
Copenhagen
sijaitseva
tasavallan
الإسكندرية
씨
앨
휘
##Car
##alt
##sää
##жне
##ائم
##ناف
##ందీ
সঠ
김성
나치
조성
축구
확립
##iona
##seud
##дент
##وفية
350
Ihm
Mao
cul
сна
শতা
##레일리아
##iliwa
##pread
##দ্দিন
##గోళిక
Khan
sifa
испа
мифо
أصغر
আহমে
ভালো
রূপে
##isikan
##рабаты
досто
едини
বাধ্য
ভিডিও
Andrew
Malang
negoti
script
senior
বিতর্ক
বিমানব
elokuva
failure
الخارجي
భౌగోళిక
internet
философии
components
settlement
puheenjohtaja
представления
##لل
##خطط
##عاء
##واس
##সাধ
##িমা
(8
공업
국토
위의
##과대학
##해졌다
##eluk
##ergy
##ibar
##ريان
##বায়
##ালার
Ban
taw
للط
브라질
##ত্রের
Nair
harr
##utusta
1991,
angin
babak
peace
колле
সূচনা
인도네시아
##alankan
Office
extrem
kilich
olympi
pemuda
sector
полага
아프가니스탄
##puolueen
কার্যকর
campuran
neighbor
operated
suggests
yliopisto
оборудова
الفلسطينية
Pertempuran
Большинство
temperatures
##شد
##গে
린
싱
젊
##學校
##같은
##고를
##려고
##시로
##여자
##Mar
##кор
##шек
##يدة
فص
৪৬
తా
김영
체포
##ابلن
##ভাষা
Beg
تمر
기존의
대규모
한나라
##ার্থী
Perk
aksi
flag
silm
tuzo
сети
الأط
জাতি
Games
nomin
säily
назад
термо
##agement
обрабо
ক্লাবের
keamanan
liikkeen
компания
স্বীকৃতি
perbatasan
menerbitkan
প্রতিষ্ঠাতা
##PA
##대중
##pes
##ryh
##الع
5-
نب
갖추
금속
배경
중세
패배
##월부터
##ayed
##теше
##ত্তা
Ира
Нью
مهم
শ্ব
##ikodi
##inaan
##nyata
##okeza
##ombin
##öistä
nusu
saba
sala
työt
valv
##imbaji
##облада
Field
Vasta
siksi
spent
المعم
وبذلك
ক্যার
ছবিতে
বিদেশ
소프트웨어
##usishwa
elimin
kitabu
lanjut
pengan
syntyy
urutan
jäsenet
nimensä
setting
Национа
التسمية
ريتشارد
vaikutti
получить
Kansainväl
immediately
muodostavat
→
fu
নম
보존
##acha
##eler
##ennä
##мбле
##حصاء
Sah
bil
teg
বরং
যথে
독립을
들어가
##arafa
##class
##ায়ার
arab
harm
saya
trip
Егип
Чере
инже
стол
معين
##Pohjan
##imweng
вариа
славя
العرش
خلايا
দৃশ্য
Atlant
ditand
kuingia
جمهورية
ম্যানচে
greatest
variable
содержит
নির্ধারণ
గణాంకాలు
berfungsi
komunikasi
yhteiskunn
الكهربائية
##08
왔
##시코
##DOS
##гах
##سته
##قيم
##وقي
##ণিক
Bh
IC
পট
మద
이듬
##어졌다
##adat
##ifer
##igaw
##ijär
##irds
##kata
##otas
19,
cac
بإن
##oster
##ulate
1880
1909
Bapt
Cold
cogn
heti
ними
খেলে
##రెడ్డి
Utama
arsit
going
munic
ordin
tanda
combat
lazima
pieces
tärkeä
wawili
испыта
смысле
واستمر
ম্যানে
##eritakan
opening
seksual
الأولية
المالية
parallel
আক্রান্ত
প্রযুক্তি
peringatan
০
##독립
##류가
##지도
##reh
##yse
##нат
##сии
##جاب
##داب
##شفى
##ঠের
대기
바다
보는
애플
재정
제거
흡수
Hat
Run
cli
tep
이후에
##igned
##ipoti
##личия
##দ্রোহ
##্শনিক
Herg
دخول
##elussa
##thesis
##utensa
Studi
drama
urefu
Здесь
район
الشعر
تمتلك
ছেড়ে
Cerita
writer
ambacho
respect
typical
জেনারেল
kiinnost
vuodelta
##tification
continues
magnitude
menjalankan
##»:
##سد
##권이
##석을
##하이
##12.
##orf
##sky
##yer
##عفر
##ফের
%)
తయ
권력
다이
못한
오히
위협
의사
하루
활발
##하기로
##ikoa
##্যাড
Dig
Nim
Sha
Гор
всю
ими
##asket
##нисти
Perl
acts
stop
ydin
ассо
ميسي
Bened
Meski
artis
perce
ميناء
নিয়ম
Series
السويس
উদ্যোগ
নেওয়া
DeMille
Cornwall
సిబ్బందీ
paikallis
providing
residents
subsequent
сопровожда
##NT
##어도
##했기
##Ivo
##رسل
##كول
##াউন
যত
서식
판단
##으면서
##ario
##caya
##ytyy
##بعاد
##لبية
##న్ని
Las
Pah
aat
pep
игр
পদে
제외한
##opäiv
##ötila
##বিষ্য
Niin
epäs
totu
vess
адре
алфа
имел
رياض
দিবস
##ajaran
2017.
Nomor
ammat
drink
kerus
sotil
полёт
##ittänyt
##yatakan
Kansan
Orodha
hyödyn
الأعلى
##ayangkan
##estament
osoitta
работал
##upuolella
Surabaya
johdolla
province
tarakimu
элементы
executive
kepercayaan
প্রয়োজনীয়
ulkopuolella
을
##위로
##퍼슨
##jiä
##nan
##nik
##дне
##цам
원소
이룬
##akat
##udra
##тная
Ala
Row
سوف
한다고
##uissa
Gran
Ilmu
oksi
люби
титу
سعود
##aduate
##uvosto
##చెరువు
plans
usage
компи
строе
تغيير
لأنها
গোষ্ঠ
##ollista
Advent
discip
الوصول
بينهما
hukuman
quantum
рациона
الأحداث
الجمعية
Helsinki
Elizabeth
ব্যবহারের
widespread
keskimäärin
##MT
홀
##일이
##টিত
##োধন
##–15
단체
흔히
##imbi
##దిరి
إما
موت
##inity
##oinut
##Петер
##плоть
umbo
пово
تزوج
পটার
রঙের
১৯৮০
##Ivoire
bersa
kierr
taman
ত্যাগ
মাসের
##atangan
##vattiin
Pertama
comment
tuottaa
victory
writers
পার্শ্ব
স্থায়ী
generasi
proteins
rejected
wagonjwa
основные
создание
দার্শনিক
attempted
pelayanan
তাপমাত্রা
transition
voimakkaasti
mahdollisesti
##ок
##থি
앙
##교의
##리히
##전문
##zan
##тку
거절
알아
최종
##atis
##user
Fox
Tro
##eraha
##ivity
##حافظة
##حوالي
(199
Suku
asuu
diss
fair
korv
mars
nähd
прав
الصي
ولما
ينتج
Kitab
bunge
diser
ujung
وهكذا
গুপ্ত
##juangan
actual
bidhaa
kuolle
myöhem
republ
موجودة
channel
keisari
peoples
receive
военных
الرابطة
pohjalta
tercatat
প্রতিরোধ
menawarkan
populations
##kh
’
괴
덴
벽
##당과
##후의
##cle
##eld
##يبة
공연
백제
##arit
##tied
##unyi
##usak
##вило
let
ule
حسن
জেম
차이가
##ectic
##okent
1896
Samu
beet
kast
mkon
pall
vara
vide
wars
wild
##গ্রন্থ
Catal
adapt
erosi
lahan
prime
valtu
##teisiin
ammatt
dialek
legend
liquid
Uislamu
dioxide
winning
большей
функций
প্রেসিড
inspired
suffered
উইলিয়াম
স্বাস্থ্য
pembunuhan
verrattuna
дальнейшем
##론의
##호가
##asm
##lik
##rol
##جلة
##ديث
##ران
##ির্
اص
거두
귀국
민간
충분
##하다고
##oinn
##oven
##udun
##unes
##work
##مكان
18,
Jot
Suh
Xav
نور
ফিফ
제퍼슨
하는데
##licit
##сконе
Vita
sand
tien
väär
нако
##okkaan
Seinä
Video
alone
kanan
kotim
tähän
резко
البيت
##entrasi
##tymistä
Square
mundur
برنامج
অবস্থা
planned
rapidly
whereas
насчиты
##engenezwa
equation
mchezaji
mengatur
দিয়েছেন
постепенно
mempelajari
##-9
##PM
##ডে
##tle
##лиа
##نيخ
##এইচ
##কেই
##ব্ল
DC
그렇
너무
논쟁
떠나
본격
##fall
##ikus
##utur
##ائمة
##صدير
##র্তা
dry
lup
سعد
কমে
비교적
쿠데타
##ostuk
##বিত্র
Holy
cars
kaya
muin
rare
клад
ربما
২০০৩
이루어진
1990.
1996.
потре
تصنيف
مليار
Alonso
اللغات
যাত্রা
##aksanaan
##ampaikan
Israeli
Through
awarded
высокой
acquired
внимание
Kifaransa
contained
destroyed
последние
Protestant
asukkaista
kekaisaran
melibatkan
dikeluarkan
communication
##Hz
##ТВ
##기고
##작용
##Qur
##ynä
##раи
##روض
개정
브루
철도
협력
##emon
##zhab
##кали
##пуль
мел
세력을
이듬해
##aight
##oured
1860
Anne
Hamp
beta
mode
tipe
Азии
##wahili
vaihd
Путин
تشكيل
##ecutive
Biblia
epäonn
forest
joukku
league
materi
sehari
server
Seperti
artinya
työväen
Independ
constell
ternyata
الألمانية
المجموعات
allekirjoit
tammikuussa
##উই
##itr
##käs
##১৯৮
96
외에
위에
중의
##enea
##part
##زابي
%).
pic
شعر
আনা
##antum
##thing
alph
lääk
أصول
عمره
মর্য
##ведены
Jenis
huomi
kwake
miten
mwanz
корот
эволю
كتابة
Bahari
listed
raised
wadogo
военно
сравни
уровне
Country
upacara
эксплуа
القبائل
সহায়তা
Football
komponen
koordina
известно
parliament
##SU
꽃
##개혁
##문이
##شاب
##ليس
إع
김일
사냥
인근
힘을
##점으로
##vuot
##ينيا
Bac
Wap
aja
إنه
সুন
##istys
##jukan
##ripsi
##ুসারে
Alan
Vinc
osti
অস্ব
আলোক
রয়ে
সবুজ
одном
созна
الإير
الحمل
##ellista
desain
kuishi
samaan
дороги
театра
частиц
ধর্মের
##ственном
Bandara
alkohol
portion
аналоги
বিবেচনা
##ajulikana
##heshimiwa
contract
অর্থনীতি
اللاتينية
официально
безопасности
##ফি
##রো
q
μ
##노동
##_11
##sub
##ukt
##نيا
##িলি
##্না
ву
감염
사무
##born
##uver
##жает
##اسات
সিম
##kapai
##ведён
Otto
adap
love
tuho
цело
القل
تحول
দত্ত
되었으며
##няются
##строен
##ব্যাপী
param
shoot
tahap
إطلاق
অপরাধ
flight
muihin
mwanzo
määrää
patent
вскоре
الماضي
باللغة
রাজবংশ
Shirika
praktik
следова
المبكرة
그레고리력으로
Revolusi
politics
পড়াশোনা
যুক্তরাজ
dinamakan
maendeleo
অভিনেত্রী
Yhdysvallat
##gg
##수와
##ikh
##weg
##обо
##тан
##্তন
Tw
Жи
টে
సో
##haan
Mid
وست
রোড
면적은
##amana
##ublin
hope
##uvasti
1993,
Steph
penal
veden
верши
глубо
تكوين
বিবরণ
Treaty
Abraham
Ontario
daratan
matukio
오스트레일리아
Victoria
kirjaili
aiheuttam
berjumlah
universal
предложил
derivative
dinyatakan
filosofian
Существует
распространение
##КС
##ফে
##ীদ
##ంబ
##내고
##디아
##랐다
##았고
##iah
##rig
##sal
##дре
##спи
##чие
##ويد
يا
그에
시각
탄생
##aram
##bian
##ghan
##ires
##rawn
##ungs
##usto
##межу
##нять
##افات
Cyr
Зев
بدء
বেঁ
যুব
##verse
##влены
Data
arvo
daun
tahu
এখনও
জর্জ
태어났다
##histor
Liver
berku
horiz
pwani
sudut
графи
преде
كيميا
##luvulle
اللاعب
সত্ত্ব
measure
refused
الأثرية
##including
Ortodoks
partikel
предлага
গ্রন্থের
ভিত্তিতে
Britannian
определение
##ав
듣
##스카
##kav
##xic
##льт
##قول
##ল্ল
78
YK
cy
결성
만큼
발행
소개
시설
일이
##받았다
##appa
##otto
##udes
##ukia
##usul
Ern
هام
চির
নাই
##лимпи
##زابيث
1901
Cook
идеи
بالد
مسرح
있었으나
##elevat
split
vastu
цикло
البال
قصيرة
মিশ্র
effort
inayot
самолё
Afrikan
arrived
рекомен
уровень
المصادر
তাদেরকে
Croatian
Nykyisin
Portugal
проблемы
сравнению
inayofuata
keskuudessa
surrounding
производство
খ্রিস্টাব্দে
##">
척
획
##혁명
##ovo
##zal
##فصل
성격
안에
추측
투표
풍부
##baik
##jely
##برية
box
mip
Кри
фер
بتح
দাব
##heilu
##ympär
##দানের
1897
1903
edes
folk
luon
sena
toiv
цвет
قائد
لكرة
يسمح
আমরা
ত্রি
##antasy
##called
##ongoza
partn
sauti
verta
будут
أفراد
للاست
ఇక్కడ
ilmiah
police
satisf
الخليج
الرجال
studied
العمليات
составляют
competition
##가가
##علن
76
시장
응용
##amma
##ovat
##чить
تقد
নজর
ভয়
মনো
과정을
##timet
##ubung
##ukaus
##тории
##াসমূহ
Arts
haud
pomm
ছবির
নকশা
##toivat
decay
الاشت
تقديم
ফলাফল
##utuivat
dibawa
simbol
Извест
центре
heavily
johtaja
الإصابة
البلدان
Assembly
concrete
obtained
mwandishi
principles
##Sp
##ইউ
##구스
##년일
##лая
##غيل
##োলি
ho
Ши
ей
টু
만약
##우스의
##োলার
Log
net
অসম
##akkan
##турой
##جمالي
Hend
Kent
graf
jazz
mish
task
угро
الور
উদ্ধ
ডলার
##adaban
##angkut
##ettävä
##ifanya
##িক্যাল
Three
pilot
إيران
الحية
الصيد
লম্বা
##ictions
Bagian
armeij
kuinka
päivää
unders
гипоте
الطبقة
ইঞ্জিন
ভবিষ্য
lengkap
riippum
نيويورك
mewakili
المباراة
producing
vaaleissa
состоянию
সাহিত্যের
seuraavana
предприятий
architecture
##_9
##యి
죄
##시를
##aro
##mel
##udh
##вит
##рье
끝에
혼란
##hess
##ينما
##ందుల
XIV
درا
صور
لذا
가능한
##annan
##tisen
VIII
diku
sugu
wave
подо
اتفا
مرور
হস্ত
##лектро
1994.
Erity
neliö
tälla
اعتبر
আগ্রহ
উপকূল
jurisd
kisasa
здоров
الفيلم
পণ্ডিত
##aissance
Nykyään
esimerk
ihminen
##следствие
captured
itselleen
সর্বপ্রথম
developing
constructed
##ণী
훨
##권은
##얀마
##ehi
##tie
##лён
##تاز
##শিপ
Ai
إخ
도로
뿐만
이광
증거
형식
##ekin
##luas
##рией
محل
বসু
관심을
사람의
##elson
гото
реши
##amaian
Yleis
kisha
moder
staff
интен
легко
معرفة
আকারে
##antinya
Kirumi
export
jarang
naskah
orders
stabil
yoyote
вообще
rahasia
spesies
الفلسفة
مجموعات
Kigiriki
భౌగోళికం
Argentina
thousands
vähintään
Conference
применения
##طو
냉
##러운
##시가
##bet
##dim
##sec
##ycl
##äne
##ضان
##ورو
##ينو
NP
공공
##ffic
##imir
##prot
##تمام
##رجمة
##فيات
সোস
రాయ
월드컵
##uutta
##yivät
Pang
fysi
user
شديد
وصول
##paikan
Stone
asema
kuond
menja
paras
passa
ryhmä
uzazi
Ельци
специ
النقل
وخلال
আবদুল
##ematika
##новения
Baadhi
Rooman
Undang
Помимо
Сконча
некото
الجزائ
##числения
больших
случаев
управля
الفيروس
Vuodesta
распреде
الزراعية
большинстве
##03
##Ad
밑
##스키
##aux
##cop
##rav
##ämp
##тла
##хан
이른
##tejä
Hil
Кор
ورو
모습을
이야기
##attan
##নিস্ট
Uusi
elää
joit
инду
панк
الجل
মঞ্চ
১৯৭০
##alitas
##awasan
##ментом
Ghana
Turki
käänn
книги
песни
празд
معروف
يعتمد
##oksesta
demand
henkeä
prison
القرية
কর্ণাট
সংসদের
Douglas
apabila
contact
korkein
الأساسي
employed
menentang
правления
##Bl
##دن
##베르
##분을
##자치
##ebo
##থার
61
এত
গর
방언
훨씬
##주의를
##kkää
##tani
##ykke
##лива
16,
fed
ika
عائ
##asili
##esian
##poika
##tyvät
Irak
stim
sääd
грам
заим
صلاح
১৯৪৭
Babyl
Hergé
Kimal
istri
kalah
lähte
notes
plays
сверх
цвета
সিনেম
##oksella
##спомина
extent
kutamb
памяти
собира
বিক্রি
মাইক্র
Bernard
abandon
reports
ristiri
semesta
visible
граждан
kutumika
কর্মজীবন
practices
institution
pääministeri
concentration
pemberontakan
##эф
##하라
##kot
##жай
AI
Ve
يغ
구별
넓은
리눅
유리
##apak
##вёзд
##وبات
##াবনা
Cow
lih
най
كول
হেল
##alaan
##ektif
##েশনের
Hell
leve
marg
sort
форм
شهدت
2018.
Buddh
Pyhän
matka
putri
sayap
القدس
ছবিটি
Newton
kritis
заявил
неодно
journal
крестья
একাডেমি
সংস্কার
হওয়ায়
##opatikana
angkatan
сотрудни
البكتيريا
##تز
쌓
##Str
##irs
##obo
##ряз
##цем
##فاد
Ис
행성
##윤년일
##free
##خفاض
##গাঁও
##িন্স
Gil
شار
오스만
오히려
##andin
##ormon
##utrad
Djib
Kang
Prod
tank
대부분은
Examp
Pasif
Pener
bonds
makao
nyuma
أصحاب
الأما
شخصية
ضريبة
নির্ণ
পর্বত
##aliknya
##amiseen
##apishwa
##ekuensi
##olainen
##ululizo
Engine
medium
sought
square
измени
যথেষ্ট
##edicated
##olaisten
##براطورية
Baadaye
Kennedy
Nairobi
Supreme
emerged
penjara
королев
التابعة
المدارس
##itionally
##বিজ্ঞানের
experien
maskapai
medieval
включает
Жуковский
экономики
classified
##لو
##ঘর
##টস
##–3
##백만
##세에
##크는
##wez
##ейн
##йна
##одо
##شرت
##عار
##فرد
##ونا
نم
ভল
나무
살해
서부
선포
저서
##zito
##لفاء
50%
Ars
##point
##влена
##стами
##هائية
##ينيين
Trad
tuan
дело
след
##isillä
##lainen
##utions
##yhtiön
##ষ্ট্রে
meant
rekor
revol
sanot
крови
нефти
رواية
জীবনে
##льского
harian
sääntö
входит
kirjaim
menjaga
merebut
tahansa
استعمال
stations
mafanikio
otherwise
mengangkat
городского
అనంతపురంలోనూ
непосредственно
##Ne
맹
##당한
##수록
##ينغ
##াণী
Же
اي
넘어
요한
인종
##되었던
##emin
##omon
##tymä
##কেরা
Pin
тип
хло
أبد
أدت
ناب
পিত
사회적
##esium
##octaw
##ullah
##новки
##полне
##িবাসী
1895
Gand
Hess
يذكر
খুবই
পরের
সিটি
##руются
Child
messa
ruled
taust
yksin
تفسير
বিহার
saying
tampak
visual
winter
التشري
ব্যর্থ
##issosial
элемент
స్టేషను
Sulawesi
yhdeksän
অভিনয়ের
konservat
kutangulia
influential
большинства
ম্যানচেস্টার
##-"
##SP
##نق
##ray
##انس
##করা
Du
عش
فح
فس
مئ
되면
어떻
오르
의존
지식
##멕시코
##also
##ichi
##iler
##odon
##لامة
##াকের
Nyk
Typ
hay
tip
##empur
##irman
kant
pitu
маги
الإغ
অতির
মহান
##tirely
Space
Umoja
induc
myönn
ndiyo
saatu
sport
weeks
соору
##okteran
Oxford
conven
online
paitsi
strugg
динами
الساعة
الملكة
تشارلز
وأصبحت
nucleus
perhaps
никогда
nyumbani
onnistui
временем
mentioned
resistance
sopimuksen
##6)
##바이
##화와
##"("
##pla
##roc
##zaa
##بيا
##ভেন
명성
중반
탄압
한일
##졌으며
##atik
##cium
##seen
##udia
##емым
##افعي
##ুরুর
Dor
Teh
ple
Хар
فار
وبي
##anouk
##ijing
##istoa
##uessa
##ногда
core
kein
läns
moto
кило
музе
صحيح
والا
দূরে
세르비아
##возгла
Adolf
Hivyo
quite
мужчи
##aratani
##ocolate
##рование
Athena
artist
iliyot
jangka
mengus
suosit
wadudu
метров
народа
চিকিৎস
второго
District
bakteria
ongezeko
uchunguzi
maintained
työskenteli
vuosikymmen
##(1
##Ба
##مه
##년을
##음이
##yed
##zee
##روط
##فال
##নির
Aw
КП
##기에는
##airo
##mies
msa
nob
phr
ани
##▁
##a
##i
##e
##n
##t
##s
##o
##r
##u
##l
##k
##m
##ا
##h
##d
##о
##ل
##и
##е
##а
##p
##g
##y
##া
##н
##ي
##র
##c
##т
##с
##b
##р
##م
##্
##ে
##و
##в
##ن
##్
##w
##v
##л
##ি
##ر
##ä
##f
##ت
##j
##ా
##ন
##к
##ి
##ర
##ب
##м
##ক
##1
##ం
##ة
##д
##য
##ত
##ع
##ব
##п
##د
##0
##ు
##স
##ల
##న
##ف
##у
##س
##я
##ه
##క
##ল
##ы
##ম
##ك
##প
##г
##ق
##أ
##2
##మ
##з
##়
##9
##S
##ح
##య
##ద
##స
##ప
##이
##й
##б
##দ
##ь
##ч
##వ
##K
##다
##ু
##M
##A
##గ
##ో
##ج
##T
##হ
##z
##의
##P
##х
##ট
##C
##త
##에
##5
##는
##এ
##।
##জ
##শ
##I
##،
##8
##ీ
##B
##3
##డ
##গ
##ط
##ো
##하
##ص
##ش
##ী
##4
##ж
##7
##로
##6
##ى
##ట
##خ
##을
##ই
##إ
##ю
##D
##H
##চ
##ц
##ষ
##ث
##가
##R
##고
##ভ
##한
##ే
##ز
##N
##L
##ö
##থ
##지
##ذ
##অ
##ং
##ধ
##ض
##은
##ఉ
##서
##ছ
##ড
##E
##기
##ш
##ూ
##대
##J
##ও
##으
##బ
##আ
##ণ
##G
##를
##غ
##W
##F
##사
##খ
##도
##x
##인
##উ
##ф
##U
##V
##щ
##시
##ె
##ై
##O
##జ
##리
##어
##శ
##ئ
##자
##아
##국
##১
##년
##정
##В
##있
##스
##나
##수
##라
##С
##ё
##일
##부
##과
##э
##들
##ء
##주
##전
##제
##그
##ফ
##ً
##해
##되
##«
##»
##—
##П
##০
##적
##చ
##었
##ణ
##성
##ূ
##ౌ
##여
##ظ
##ఆ
##동
##ష
##학
##К
##హ
##구
##ّ
##Y
##장
##ఫ
##৯
##원
##였
##అ
##ৃ
##২
##상
##와
##교
##థ
##ొ
##만
##q
##중
##공
##위
##게
##조
##భ
##화
##유
##했
##ధ
##보
##문
##세
##َ
##며
##А
##ُ
##신
##계
##Р
##선
##경
##소
##–
##О
##М
##비
##것
##명
##Н
##관
##민
##르
##월
##ঠ
##개
##৫
##우
##등
##산
##당
##마
##면
##회
##Т
##역
##치
##러
##용
##후
##ঙ
##통
##미
##연
##된
##ళ
##Г
##영
_
##Д
##트
##군
##ঞ
##발
##ఇ
##진
##오
##И
##৮
##৬
##Б
##방
##모
##분
##৭
##생
##반
##آ
##거
##무
##ঘ
##재
##”
##৪
##X
##체
##내
##터
##식
##데
##단
##드
##간
##작
##৩
##물
##음
##니
##프
##안
##종
##운
##바
##ఠ
##타
##ঁ
##ؤ
##ৈ
##양
##때
##행
##실
##할
##파
##ృ
##요
##남
##현
##ৌ
##ఈ
##려
##호
##ِ
##크
##본
##노
##강
##포
##력
##차
##두
##Л
##독
##법
##설
##각
##속
##표
##Z
##던
##형
##히
##결
##ఖ
##업
##권
##카
##태
##임
##야
##ৎ
##·
##토
##레
##합
##Э
##함
##ـ
##않
##립
##Ф
##직
##루
##건
##불
##출
##’
##왕
##또
##입
##천
##초
##심
##예
##족
##까
##키
##받
##У
##외
##같
##З
##점
##ఎ
##따
##령
##금
##른
##북
##말
##Е
##았
##é
##ъ
##집
##래
##배
##없
##평
##약
##언
##질
##ఒ
##추
##많
##최
##특
##편
##달
##광
##론
##번
##알
##청
##란
##록
##Q
##복
##향
##판
##ఏ
##격
##Х
##승
##피
##람
##저
##김
##네
##처
##베
##근
##석
##코
##준
##열
##류
##변
##매
##황
##Ш
##목
##항
##총
##투
##악
##환
##더
##“
##활
>
##울
##술
##병
##린
##디
##버
##티
##존
##감
##‘
##》
##《
##백
##Ч
##온
##육
##쟁
##쪽
##살
##난
##박
##름
##증
##창
##ْ
##브
##메
##절
##능
##급
##랑
##ঝ
##별
##확
##련
##철
##삼
##품
##망
##탄
##책
##졌
##새
##테
##및
##날
##견
##순
##페
##져
##든
##량
##쓰
##참
##탈
##규
##접
##축
##극
##Ц
##؛
##협
##료
##곡
##친
##°
##́
##올
##충
##누
##송
##너
##림
##돌
##애
##필
##못
##Я
##ٍ
##완
##측
##께
##ঃ
##글
##갈
##막
##째
##뒤
##럽
##농
##봉
##š
##앙
##침
##워
##Ю
##케
##ঢ
##플
##혁
?
##헌
##암
##쿠
##겨
##색
##윤
##밀
##논
##담
##길
##희
##범
##높
##곳
##패
##취
##머
##슬
##큰
##ఘ
##벌
##칭
##á
##험
##손
##념
##즈
##퍼
##응
##죽
##혼
##즉
##ఔ
##례
##Ж
##귀
##쳐
##웨
##습
##채
##잡
##런
##풍
##락
##씨
##압
##움
##왔
##폐
##랜
##났
##율
##느
##늘
##효
##뉴
##징
##츠
##허
##써
##ঐ
##ü
##찬
##획
##착
##볼
##찰
##폭
##클
##덕
##될
##택
##럼
##걸
##섬
##렸
##골
##칙
##균
##맥
]
##핵
##맹
##갖
##줄
##í
##궁
##뜻
##검
##퇴
##맞
##헤
##좌
##닌
##엔
##염
##억
##슈
##얻
##폴
##흥
##층
##므
##끝
##몇
##숙
##빈
##커
##긴
##잘
##혹
##묘
##훈
##−
##힘
##킨
##ó
##벨
##홍
##켰
##익
##옥
##갔
##찾
##널
##첫
##녀
##컴
##밝
##앞
##엘
##득
##몰
##센
##엄
##넘
##뿐
##혈
##략
##칸
##블
##냈
##틀
##몽
##롯
##릭
##흐
##퓨
##혀
##턴
##둘
##괴
##척
##놓
##떠
##캐
##밖
##끼
##톨
##률
##됐
##ٌ
##낸
##멸
##팔
##•
##슨
##칼
##α
##휘
##ā
##먼
##륙
##푸
##먹
##켜
##ō
##픽
##램
##좋
##렇
##릴
##끌
##션
##델
##빠
##붙
##욕
##굴
##얼
##낮
##大
##핀
##링
##액
##덴
##싸
##휴
##잔
##틴
##춘
##­
##눈
##혜
##탕
##겠
##è
##쳤
##콘
##떨
##꾸
##Ä
##곤
##죄
##겼
##〈
##〉
##님
##냐
##৷
##릉
##벽
##떤
##웠
##렬
##콜
##캠
##벤
##빌
##잠
##탁
##객
##랍
##샤
##텔
##낙
##땅
##넷
##왜
##욱
##윈
##맡
##×
##촌
##킬
##템
##ঈ
##흑
##몸
##십
##촉
##넓
##렀
##융
##흔
##돈
##곧
##늑
##싱
##빛
##섭
##잉
##칠
##헨
##山
##믿
##؟
##ی
##쇼
##렵
##졸
##팀
##ο
##갑
##겐
##곱
##혔
##둔
##렌
##學
##읍
##덜
##답
##룬
##몬
##슷
##값
##놀
##풀
##ঋ
##탐
##톤
##폰
##μ
##옮
##흡
##٪
##털
##옹
##„
##國
##짐
##즘
##힌
##듯
##맺
##짓
##à
##헬
##헝
##랐
##쓴
##£
##å
##붕
##ç
##ρ
##웅
##벡
##딸
##ν
##큼
##옛
##멘
##롭
##ς
##쉽
##깊
##겸
##쌍
##잃
##ঔ
##홀
##β
##뛰
##깨
##뇌
##쇠
##쇄
##숭
##룡
##→
##ł
##듬
##ι
##金
##돼
##쿄
##넣
##궤
##썼
##ú
##셀
##녹
##꽃
##읽
##씩
##둥
##ž
##솔
##τ
##납
##렉
##롤
##겪
##콩
##튀
##짜
##컵
##ε
##텐
##王
##엽
##′
##냥
##섯
##컬
##ఋ
##룹
{
##뉘
}
##찍
##뢰
##쉬
##숨
##킹
##ñ
##λ
##삶
##셈
##ć
##멀
##탑
##웹
##Й
##뀌
##文
##끄
##됨
##ঊ
##σ
##얀
##즐
##벗
##잇
##튜
##펜
##κ
##π
##롬
##「
##」
##셔
##펼
##ī
##낼
##앤
##냉
##城
##컨
##高
##ø
##낳
##짧
##팅
##켓
##뜨
##빨
##젠
##앨
##밤
##튼
##校
##웃
##빼
##윌
##흘
##東
##ô
##李
##컷
##엇
##픈
\
##â
##첩
##밍
##랫
##젊
##낭
##묵
##ū
##道
##ã
##맨
##É
##젤
##듣
##빙
##눅
##딩
##섰
##닉
##닥
##州
##ē
##γ
##씬
##中
##켈
##멕
##밑
##人
##쌓
##三
##훨
##떻
##혐
##Ö
##겔
##룩
##핑
##子
##뮤
##덤
##틸
##č
##잎
##텍
##ë
##뒷
##젝
##롱
##폼
##힐
##끊
##꼬
##슴
##쥐
##і
`
##€
##뉜
##ఐ
##봄
##퀴
##ì
##쓸
##『
##』
##첨
##뿌
##랙
##륨
##숫
##팽
##곽
##홈
##天
##日
##꼽
##δ
##괄
##삭
##랭
##멜
##一
##正
##پ
##南
##렴
##덩
##ê
##펠
##±
##띠
##훗
##宗
##늄
##펴
##θ
##궐
##ί
##묻
##왼
##神
##앗
##흉
##꿈
##書
##춤
##گ
##韓
##듭
##팬
##섞
##뤄
##벼
##즌
##⁄
##η
##ఊ
##꼴
##렘
##Š
##덧
##셰
##옷
##펑
##덮
##쌀
##æ
##닫
##떡
##퀘
##녕
##싶
##앉
##뮌
##횡
##ा
##곰
##뇨
##빚
##뷔
##닐
##ı
##義
##랄
##옆
##Å
##좀
##Щ
##本
##끔
##밴
##셋
##ఓ
##北
##닝
##꺼
##늦
##빅
##웰
##海
##川
##맛
##新
##쫓
##뻗
##깔
##댐
##י
##큐
##뚜
##法
##्
##平
##눌
##흰
##武
##民
##숲
##上
##樂
##붉
##ω
##꾼
##明
##좁
##成
##安
##氏
##市
##쿼
##ά
##公
##政
##ό
##닭
##西
##녔
##띄
##德
##朝
##等
##部
##主
##럭
##ß
##ᆞ
##∼
##會
##쾌
##太
##長
##엑
##帝
##캘
##뽑
##싼
##렐
##묶
##컫
##光
##긍
##뿔
##都
##뷰
##찌
##聖
##水
##敎
##뼈
##φ
##륜
##촬
##깝
##닿
##딘
##짝
##家
##ï
##ý
##룰
##겹
##럴
##밥
##經
##딱
##팜
##漢
##υ
##事
##仁
##軍
##굳
##ו
##府
##봐
##앵
##콤
##元
##쩌
##ڤ
##틈
##훼
##小
##륭
##田
##뤼
##캄
##렷
##펙
##깥
##슐
##햄
##룸
##셜
##र
##君
##院
##툴
##낱
##쏘
^
##原
##쿨
##地
##깃
##젖
##î
##寺
##톱
##史
##넬
##뱀
##ò
##톰
##郡
##無
##꼭
##돕
##떼
##멤
##삽
##古
##똑
##Δ
##솟
##탓
##皇
##ה
##빗
##京
##늬
##윗
##白
##끈
##島
##江
##틱
##ǔ
##記
##ă
##켄
##Á
##世
##릿
##킴
##ş
##ə
##和
##行
##춰
##・
##샘
##ń
##化
##的
##§
##之
##代
##鮮
##녁
##쏟
##훌
##ě
##ś
##歌
##븐
##굽
##制
##껍
##샌
##퀸
##全
##同
##ר
##年
##理
##女
##쯤
##五
##區
##朴
##音
##꾀
##닷
##멍
##셨
##羅
##닛
##옴
##잦
##콰
##쑨
##方
##生
##語
##門
@
##月
##딕
##봇
##官
##論
##릇
##탱
##字
##縣
##걷
##낌
##둑
##봤
##붓
##슘
##냄
##밭
##χ
##ύ
##겁
##팩
##흙
##Ё
##河
##治
##馬
##끓
##陽
##ǐ
##א
##国
##石
##놈
##엥
##훤
##信
##ğ
##定
##宮
##龍
##Č
##夫
##臣
##굿
##듀
##솜
