[PAD]
[unused0]
[unused1]
[unused2]
[unused3]
[unused4]
[unused5]
[unused6]
[unused7]
[unused8]
[unused9]
[unused10]
[unused11]
[unused12]
[unused13]
[unused14]
[unused15]
[unused16]
[unused17]
[unused18]
[unused19]
[unused20]
[unused21]
[unused22]
[unused23]
[unused24]
[unused25]
[unused26]
[unused27]
[unused28]
[unused29]
[unused30]
[unused31]
[unused32]
[unused33]
[unused34]
[unused35]
[unused36]
[unused37]
[unused38]
[unused39]
[unused40]
[unused41]
[unused42]
[unused43]
[unused44]
[unused45]
[unused46]
[unused47]
[unused48]
[unused49]
[unused50]
[unused51]
[unused52]
[unused53]
[unused54]
[unused55]
[unused56]
[unused57]
[unused58]
[unused59]
[unused60]
[unused61]
[unused62]
[unused63]
[unused64]
[unused65]
[unused66]
[unused67]
[unused68]
[unused69]
[unused70]
[unused71]
[unused72]
[unused73]
[unused74]
[unused75]
[unused76]
[unused77]
[unused78]
[unused79]
[unused80]
[unused81]
[unused82]
[unused83]
[unused84]
[unused85]
[unused86]
[unused87]
[unused88]
[unused89]
[unused90]
[unused91]
[unused92]
[unused93]
[unused94]
[unused95]
[unused96]
[unused97]
[unused98]
[unused99]
[UNK]
[CLS]
[SEP]
[MASK]
##ال
ال
م
و
##00
ف
ت
ب
##ية
أ
ع
في
##ان
ل
##ات
الم
من
##ين
##ار
00
##ني
##ام
ك
ي
##لى
إ
##ري
##ها
##ون
تص
##نيف
تصنيف
س
##را
##ول
الأ
0000
##ير
ح
وال
ه
##لا
الت
ق
الع
##دي
##ور
##اب
##لي
##اس
ن
##ما
*
ج
على
##اد
(
لل
##يا
الح
##وا
الق
##رب
##رة
الس
د
##يد
##ائ
الب
##وم
أن
##لك
ش
##عة
##ست
##اء
##عد
الج
إلى
##يل
الد
الإ
الش
الن
ر
بال
##اف
خ
##دة
مع
##مة
##عب
##وس
الف
عن
##رك
الك
##في
##قد
##وب
##من
##لة
##هم
ا
##مو
##مي
##قة
##سي
##وي
عام
##سب
وت
##نا
##بر
الر
##ود
كان
##لم
##كان
ص
ط
##است
##اح
أو
##بي
##مل
##دم
هذ
##نة
التي
0
##اص
##كن
ذ
الص
##اني
بن
الخ
غ
##''
##بل
##مد
##قي
##تي
"
##حد
##لف
الذ
##رو
##اع
##لام
##يات
##رن
مح
وه
الط
وي
##رج
ث
##زي
##وج
الث
##الي
##ته
##رية
هو
##مر
##تح
وأ
##اري
ما
000
##كت
##مع
##كي
##0000
الل
،
الو
ان
##كل
##اج
##ند
-
##شر
##لاعب
##ارة
لم
##حت
بين
هي
أم
##انية
##عت
##قت
0000.
بعد
##لس
##يس
##هر
##ينة
##صل
##اط
.
##سم
##وري
##قع
##بد
##خر
##ثل
مد
##لاعبو
##يرة
##نت
آ
##الم
##بة
##رف
##لال
##مال
##يث
##كون
لا
##وف
##رض
يت
تم
##سة
##عل
مت
مس
مج
أي
##وت
##يم
است
##er
هذه
الذي
##هد
وب
##رت
##خت
##an
##عض
الي
##ولة
##اليد
##ادة
##كر
##قل
سنة
##in
##دد
علي
##طة
##يت
بد
##رق
وم
##يف
حيث
هذا
##ديد
##با
كل
##ربية
الغ
##صر
##وية
##ثر
ز
##مواليد
ض
##اض
##ريق
##ذا
##ادي
##ورة
ذلك
##وع
##لب
الأم
##اه
المد
بل
##أس
##وق
##أن
##از
تع
##ركة
اله
##on
المن
كرة
##راء
##حي
##وات
##000
##حة
وقد
0000،
كما
المت
##ولا
المس
''
أك
##وك
##خص
##شي
##نية
عدد
##).
سي
المع
##بات
وع
وج
أس
##خل
كانت
##كرة
##ليم
##ريك
##كم
##اسم
##افة
##ar
s
t
وفي
تت
ين
تح
##صب
##وان
##نج
قبل
##وفي
##بار
##فس
له
##مس
قد
##en
##خاص
##اق
##ذلك
:
ول
المتح
##al
ثم
المج
عبد
خلال
##عي
c
لت
##ضا
##صف
عند
##َّ
##or
العالم
##ولي
##زة
مق
أب
##مت
وكان
نس
##مكن
وهو
##الية
##اريخ
##وز
##أش
قدم
##طقة
##رد
ومن
الز
##رات
##نس
وس
المتحدة
المح
##بية
##تى
##)،
##طل
##رس
تق
##ريكي
##ئيس
##طي
##الة
##وني
##es
##تها
##دا
سكان
#
الا
##عية
##ورية
حسب
##غير
##كس
##فة
##ارات
##at
##جل
##رح
##مه
بعض
##فلام
مثل
دي
##خرى
وق
##حص
الأس
تش
حتى
##ركز
أول
مص
p
##ارك
##أشخاص
وف
غير
والت
m
##ئي
##انت
والم
##خد
##ياة
بي
##وار
##is
كت
الآ
لي
##هة
العام
##يني
الأول
(0000
##بع
##قا
يع
بت
الإس
محمد
##امعة
##إن
نسمة
وح
##ثة
بش
مدينة
البح
##he
##ولى
##نوب
##وى
وهي
الله
مست
##شت
##ربي
القرن
أع
##افظ
المص
##خدم
إن
بح
##ملك
d
##ئة
لكرة
##ناء
##مثل
##انيا
##ظم
##قط
##برا
ولا
أحد
##در
##عداد
##لع
##سا
##فض
##جي
المست
##جة
b
##ضم
##عات
##اك
##اث
##ولايات
مو
اب
##بت
##راق
ولك
##لات
##ارس
##غة
المغ
##وة
##اي
القدم
##سك
a
##ثير
##ic
##ظام
##ابة
##عم
##لية
##ارت
ولكن
لأ
بط
##اسي
تن
##فر
عمل
واح
o
تحت
##اة
أيضا
##كوم
##أفلام
##يلة
##فت
##رجة
فيها
الحياة
أح
يمكن
##اش
##ملكة
أنه
كب
##ماء
f
مش
وك
##بلغ
إي
للم
الولايات
##it
##لت
##ضع
أكثر
##سبب
وإ
##جد
##جم
##راض
والأ
##راف
##خدام
##رائ
##بن
به
##لعاب
ني
##قات
بم
##ختلف
بر
##افظة
الشي
##فاع
أمريكي
##ريكية
##le
انت
##حصاء
##وسي
الاست
الجز
العربية
##مان
##عتبر
##ظهر
الأولى
##رياض
يق
السي
##ناك
##ارية
ون
لع
بج
##بال
الملك
تج
##وفيات
الوط
##راج
##لاد
منت
##re
##الات
##وح
##سات
نادي
##وير
##موعة
مؤ
##فع
والس
##حو
##امل
##خب
##ميع
##ذي
##ابعة
##رى
##ينية
أد
البي
إس
تأ
الض
الإسلام
بها
##وائ
والتي
المش
التع
نفس
##.0
##مية
##به
##ro
##يش
مغ
##ائل
بو
##ائية
##وروب
##لاح
##اسية
جز
جامعة
سن
للس
##اليا
فت
للت
##صد
##وط
##الت
يكون
بشكل
قام
##هي
المدينة
الرس
يتم
بأن
##ريط
وز
##نتاج
##بط
##وسط
##نجلي
##دية
##لق
منها
المملكة
قيد
##فا
##كا
##حدى
##ذه
أخرى
##امج
##صة
عشر
المؤ
بدأ
##اعد
العل
##سية
تقع
العديد
فإن
منطقة
اليمن
##رم
##ليل
تد
سكانها
فرن
تعداد
أف
##تما
##jp
##سن
##ديدة
the
l
##خة
ست
ات
##ديم
##صول
الات
أغ
سب
أش
يوم
يد
لها
مي
##jpg
##طف
##ستخدم
عليه
المو
بلغ
##جر
رئيس
ملف
##عود
of
التح
##".
##وجد
##ion
##قر
##قدر
منذ
لس
##ضافة
إلا
##راد
##راك
##-0000
##تم
إحدى
##غم
##صبح
##له
إلي
أمريكيون
g
لكن
##and
##اية
##us
##اخل
بأ
##اصة
##ياء
##طر
العمل
فر
##as
هناك
,
تلك
##قليم
يقع
##el
عندما
##ثي
##لط
##سبة
تكون
w
بع
والد
ذات
##قية
##..
والع
الرا
##حاد
##حية
الثاني
##كو
البحر
تط
حد
##كة
##ندي
تس
بالإ
##ed
الدوري
##زية
ثلا
##واء
##ol
يح
ام
##ريد
##ودي
h
##لاف
##جه
مصر
ابن
##ودة
مما
شي
حول
##احة
##ابات
##قب
اسم
فقد
عم
طريق
أث
الذين
يج
الكت
لإ
–
الحرب
##وه
n
التج
##ونية
بسبب
##ائزة
##زل
##يدة
##ضاء
ينت
##تين
##ch
فيه
##قتص
##ارج
##قدم
وش
##نان
##كومة
##يب
إد
##طب
##un
**
الإم
##والي
##امة
##زب
كم
##سين
##الب
##اند
الثانية
##ركات
للأ
##جز
جميع
##تر
##ظمة
أخ
##مبر
المنا
##ماعة
التق
##شف
##ومات
##الح
##يز
بإ
أبو
ري
##يو
##هل
##ظر
لد
الدول
##ينا
لح
##وص
الأع
البل
##مهورية
##كور
##ربون
خط
الفرن
لعب
##وض
##فضل
in
##il
اعت
ود
الشيخ
مجموعة
##am
أما
كتاب
##غي
الوا
الأخ
وذلك
##ائر
التن
##ائي
##رع
##هما
##واع
يقدر
##حدث
الان
الجنوب
تاريخ
##جن
##روف
##ليات
##ممثل
##يه
يش
الأمريكية
ألم
##طار
##فل
##ابق
##لسط
##ليون
ظ
##يران
شخص
را
##ing
تضم
##امي
الأد
##ندا
الأك
##رسة
موس
##يرية
عليها
##طن
عدة
##ur
##اما
عب
الأن
##ابع
##كتب
ها
قي
##خرج
##ثم
##ئية
الرسمي
##اسة
كأس
آخر
الشرق
ومع
استخدام
##بح
الثال
الرئيس
ولد
##طح
##لعب
مه
لج
##ادية
الدين
##et
##باتات
##تمع
##انون
علم
##فق
##شرة
المنطقة
##قص
##عر
مركز
جهة
##فن
##قيق
قائ
##انا
دول
محافظة
والإ
##ادر
##,000
أحمد
الدولة
العراق
##ضة
##انب
التابعة
القر
##ربع
بالم
المغربية
##ائرة
##ستر
ترك
الأح
إقليم
كبير
جنوب
لأن
«
##لاج
##-0
بالت
##لاق
##كية
أنها
##لاء
الإحصاء
بني
##احت
##رير
مختلف
##اعت
##اقة
إنتاج
لاعب
##ورا
منتخب
##ويت
##om
والح
##طلق
##داد
مجلس
شركة
أكبر
##ريف
حق
فقط
##ضر
دور
##وبر
لسنة
##أة
الشمال
##ريب
##"،
##قى
##um
##قال
0.
العربي
قال
مرة
ضد
)
##سمى
للإ
##وال
إذا
واحد
عض
نوع
##ra
##ميز
##-00
الفت
المه
الوقت
0000)
ولاية
والذي
##وغ
أوروب
##ديث
بطولة
السكان
##انات
##اذ
##راسة
##ثال
ور
وكانت
حوالي
##وث
باسم
##نع
ينتمي
##شار
الطبي
##يون
قص
##اجتما
اليوم
اخت
##اته
تر
##وريا
الدو
##ديو
قر
##باب
واست
##اخ
الرياض
##جوم
##ولوج
##عضاء
##زم
للسكان
##جو
عمر
نظام
زي
الأرض
##اهرة
رس
##id
أهم
##تربون
(0000)
##لفزي
المركز
##سر
##ent
احت
مر
حين
الأخرى
##كنى
وبعد
##نى
يست
##زا
##عمل
and
المق
##أم
العم
العالمية
أص
##لح
/
##تص
عل
وقت
##ريقة
##قم
e
##روع
المر
##ياه
الوطني
والسكنى
##اير
أبي
##لاب
الانت
لعام
v
دون
للد
##خط
وص
##ويل
أصل
لق
##بير
للح
شمال
##انة
##ريات
##هود
داخل
فرنسا
##طق
##th
أوروبا
##ابل
##فور
الإنس
##تل
وجود
##بدأ
حم
الحر
##رفة
الهند
##حل
##هاية
##اطعة
##انيون
أمريك
الياب
##قاف
(00
##ينات
لن
الموا
الحي
كبيرة
الحم
عملية
الشر
##ارب
وغير
التص
عبر
##نباتات
سلة
##ظيم
##لين
منه
جائزة
الصح
##خذ
##شيخة
إسب
##طفال
بمد
الشعب
القي
مغتربون
سكانه
##يط
##اعة
واحدة
بك
أثناء
##شاء
إم
البر
##os
##نجليزية
##ac
الأش
التاريخ
##تيجة
##مث
##ورك
##عودية
##عادة
##يين
##الد
##ديمة
إيط
بجماعة
الاتحاد
نق
##كتاب
##غيرة
##براط
##عا
موا
##رنامج
##ليا
##معية
لمشيخة
المنت
الطب
الجيش
الدرجة
##هور
نظ
##ميم
ضمن
بما
##لسل
##كار
##اعدة
نحو
##ia
##ألعاب
##اول
تب
باست
ارت
فترة
المي
ذكور
##غط
##يلم
##وبة
العامة
##ضي
##ريل
##ونس
بير
##سط
تز
##شرين
الرح
الاحت
يس
البريط
##زيز
##غل
##ذكر
حل
اللغة
اس
ملك
النس
المسي
وخ
##ويس
عرض
والن
الاجتما
وط
##اصمة
##نيا
الشخص
##عيد
العلم
وأن
##ابت
##راسات
##سكرية
تو
##نين
j
الحكومة
##ig
##im
##ارد
بينما
قب
##طاع
##ريا
##ad
##غر
الإسلامية
##صار
##ربة
وا
##ريم
(0
##راب
##سيا
يبلغ
##صور
##فاق
##كات
بالإضافة
##مبية
معظم
##زن
##يفة
##هاز
أمريكية
##قيقة
r
##ومي
شكل
##رائيل
##حافظة
درجة
سنوات
##علام
الخط
##نيسة
الألم
نش
عقد
فيلم
تي
##ائز
##لسلة
##ندية
k
سطح
تف
##ريس
الألعاب
بول
الثالث
ولم
خاصة
##جار
##ag
##وش
##ul
0.0
##ابقة
ويت
الفترة
مارس
##ولد
##يفية
مض
##ومة
بق
التش
##جا
السعودية
##هدف
كون
##ation
##خي
مبار
يؤ
##ناة
أق
وعلى
الأف
الحد
بيت
لبن
متر
##نف
##ريت
##ئيسي
القوات
##ستان
الوطنية
##لمين
##كتوبر
##ثار
##وليو
##ونيو
##st
الاقتص
أعمال
وسط
##وء
##ليف
والف
##اهد
##عى
فيما
قرية
للع
بغ
##iv
##نب
ألف
##اصر
##ائق
##em
أصبح
بالن
بالق
إحصاء
ثلاث
الظ
##براير
##خري
حصل
##ريقيا
نوف
الخاصة
طول
يوجد
##جب
الكثير
يناير
##زلة
##راز
##شق
القد
##جال
الآن
##افت
بناء
##قرا
الى
##جين
تست
البط
نشر
##وما
##ونة
##هرب
##الف
##ائد
##اسع
حالة
الدم
##هب
00.
الموج
##صبحت
##شع
##ائلة
السل
مليون
أل
ظهر
اكت
لدي
الناس
الروم
مب
أجل
أكتوبر
جزء
ولي
با
مف
##راضي
مجال
وكذلك
وان
السلة
الرغم
##سون
سبت
وصف
##رعة
تأس
##طع
مك
##اطق
والج
لو
النظام
القديمة
تك
الأولمبية
##سمية
##رحلة
دار
##ut
حي
بور
##سيس
##صح
طب
##مود
يز
##بو
##ir
##غا
st
الدولي
##مار
شرق
وضع
الإنسان
والق
يعتبر
أنواع
##جات
##ارع
##ct
ليس
##راع
وتم
آل
##واية
##ابي
##رط
العد
فريق
شارك
عالم
##هاب
##سام
مقاطعة
صف
##قافة
مايو
الفرنسي
##الك
التد
##لحة
##ضمن
##تصغير
ثلاثة
##قه
##ers
مرت
##اريس
كلية
بريط
##ريون
التعليم
مار
سبتمبر
##تش
السن
##وانات
ألمانيا
##طية
الأوروب
##ينما
##هار
جدا
كتب
يقوم
##باط
حاليا
مؤس
أفضل
##لايا
##سيم
##زمة
وما
وهذا
##سمبر
بدأت
##كال
البلاد
نهاية
كار
الوح
تبلغ
حكم
فأ
صح
مكان
##عمال
فع
عادة
نفسه
منهم
المجتمع
##هيم
##ادل
زوج
السلط
##حات
##يرات
##لد
##نون
الجمهورية
الأص
بالأ
المعل
فبراير
##وسيا
دم
يوليو
تلفزي
الوسط
##ئات
المناطق
الأمريكي
##سطس
يونيو
نج
##رش
وين
يحت
الكتاب
بار
وتت
جي
لاح
##واج
##بكة
معد
الأمير
أج
للا
الإد
##وفر
العثم
##طرة
##طلاق
##ربعة
موقع
نسبة
فه
المب
##ادات
الشمالية
طبي
مختلفة
النق
الأرد
##ِّ
##ot
حر
نوفمبر
de
ديسمبر
##قبل
##ويورك
##امية
##ائرات
شهر
الفيلم
حرب
##وجه
للش
##ناعة
لب
مساحة
##فظ
إذ
المز
##تمر
المخ
##حا
سم
كيل
فلسط
##طلب
إسبانيا
re
فيديو
الام
فى
الثلا
##كام
اج
موسم
بواس
##وين
##جرة
والش
الدولية
ميد
##عودي
##اره
بداية
مل
العرب
##0.
بس
##op
الترك
رب
##ie
إدارة
##وعة
يجب
بدور
السنة
الفر
برنامج
##اهر
ذكر
الخلي
تعتبر
الإسب
اليمنية
##ونغ
##المي
اللي
الخام
عدم
القص
##جية
##فية
جد
دوار
##عدد
حركة
بص
لدى
الجن
##صوص
والث
الغربية
العق
فل
يستخدم
##عتمد
##كب
القب
موج
##ter
##لاقة
بواسطة
##ينغ
##وقف
الأغ
##اتي
##الع
##وخ
عنه
رم
مز
تمت
كي
##نز
##راقي
##لاقات
##جاج
المصري
ـ
فاز
الشمس
الرئيسي
يلعب
العلمي
أشهر
در
##ورات
الخارج
##غال
أمريكا
الني
تستخدم
=
أحداث
دولة
الوز
##جيل
##وسف
أغسطس
وتح
قامت
الجنوبية
##آن
عهد
للق
##هاد
##وزي
0000-0000
00%
##كتور
##سل
##تون
أعلى
أفريقيا
##بيا
##اركة
الشع
##حيط
##حمد
##افع
##ورد
للج
##احية
##/0000
##صال
كذلك
لمن
والمع
##ممثلات
إب
خارج
القاهرة
هد
عد
##ماع
##برى
الحكم
00.0
إيطاليا
تخ
قائمة
##وسيقى
التط
سل
الجزء
لش
اللعب
عضو
الفرنسية
##خراج
برو
##ادرة
المف
التأ
لتح
##ويد
##جاه
##وذ
##كمة
##اعر
##راث
توفي
وتع
##حداث
عين
رأس
##خريجو
إنج
##قيم
طو
##كثر
جديدة
تأسست
الجام
أفلام
##ؤس
##ائزون
الماء
نيويورك
##ist
##براهيم
الأمر
الحديث
##ولوجيا
الحق
أهل
وصل
أقل
##وسية
##ab
##غات
اليون
الجديدة
أبريل
##ندن
كث
##-000
##شاف
بمديرية
صد
##لوب
مستوى
المرض
##ورج
##جهزة
التس
الكويت
دوري
يعمل
لكل
خي
##فيذ
الشرقية
قسم
##خصص
غرب
بقي
##سان
##ساب
مبا
الصيفية
##ونت
أمام
al
سبيل
والب
##مج
كثير
ميل
##شة
##ولاية
المعلومات
سلسلة
لص
شع
##اعات
العب
##مدينة
المصرية
المياه
##وست
##رخ
##بطة
##ويات
سا
فض
##شل
##نات
جون
الفلسط
##براطورية
##اسب
حيات
##ضاف
##اتب
##جراء
بلا
##أي
لمدة
##ائب
##رز
العلوم
بالع
##ذج
للن
أيض
فوق
##هداف
##دان
نتيجة
اللا
السابق
شعب
##عدة
##دين
المرك
المك
والص
##طاق
مدرسة
كول
is
##خابات
##عتقد
إليه
عبارة
رقم
نت
نقل
وث
رح
##ماية
0000–
##قف
السف
اي
##اضي
جانب
الإيط
لمحافظة
لف
##رتفع
لهم
##يدا
أولاد
السود
##od
وظ
##سكري
الطاقة
انتقل
العسكرية
##ارا
الداخل
##لغة
الحدي
المجلس
إسرائيل
جديد
أصبحت
##ختي
آسيا
##قاء
##كيل
الآخر
##رنت
##الج
السياسية
قوات
##ائمة
النو
##اثولي
##ضوع
المسلمين
##اون
الجزيرة
تل
الأعمال
دورة
الكبير
##علوم
حزب
تابعة
الإسلامي
صغيرة
##ديا
##اليفور
النوع
مكتب
كام
مث
مخ
الحل
##سيون
##تاريخ
جزيرة
##ارض
##رين
مسير
##طلح
الحزب
جن
جبل
الشركة
##راعة
##منت
##شارة
##og
بلاد
فال
##ورت
المغرب
##امن
##اكم
##طيع
##ce
##ap
تنت
##هولة
##اليفورنيا
(000
بب
الهي
لندن
وتش
##ذهب
إبراهيم
##حائزون
##خفض
##لمان
##ديل
##دت
سوريا
النف
السب
##اليون
##نيات
##داء
##شأ
##لومات
العاصمة
##زو
المرت
##دمة
منصب
هول
وزارة
##ابه
##اوية
الجديد
الأطفال
##وائل
ويمكن
الجامعة
##قتل
##واف
##هير
##بيض
وو
يكن
مجمو
كال
المط
عق
##فاء
لبنان
##اديمية
تقوم
حسن
مط
المض
المحت
##برز
لذلك
بف
المقد
(0000-0000
باستخدام
المشت
##وبي
قرى
باريس
نهر
هم
آيت
جاء
نف
##غو
يعرف
وغيرها
فن
##ضية
الثقاف
رجل
العالمي
عاما
##روا
دين
##اليات
لهذا
##ختلفة
الرابع
##oc
التر
سلط
رياض
##ريبا
##احب
البرو
##متاز
##ولات
إضافة
جمهورية
الرئيسية
للف
##بنى
##باق
محد
الكبرى
فتح
لك
##ip
الكوي
##رها
بالح
##ess
##ليب
العصر
برا
الجسم
الحركة
##دمات
باب
العزيز
تؤ
##qu
##ميل
ارتفاع
متح
بالنسبة
خاص
بغداد
الجزائر
##تأ
الحكوم
وعند
المواد
##قق
الفريق
أساس
##تا
الدي
##ونا
##خول
وقال
يص
الأمم
ch
جعل
##ــ
دراسة
##علن
قناة
##وام
ar
والك
قتل
البريطانية
مان
الموس
توجد
جام
عرف
##مغ
##ونات
##لامة
00000
وإن
الساد
الأكثر
مناطق
0000:
##تهم
##غيير
##ارف
السيد
الصنا
##انوية
##جزاء
العليا
كانوا
##ريض
الثورة
##مسة
##مالي
##''.
##غان
##طيور
المختلفة
الصف
0-
المؤس
##نجليزي
##علماء
##هام
الإنت
سان
##ديمقرا
##غيل
الأز
##ؤول
عاد
##طات
##روفة
غال
تطوير
##يميا
وفق
ماي
كلا
##ay
يف
القانون
فران
يعد
##شن
الأمن
الإن
خلف
إليها
سليم
أت
العشرين
المثال
حسين
##عددة
الاجتماعية
##قلال
دمشق
##هتم
الدفاع
##امت
##علم
العض
الجوية
الاسم
##ماد
##عبد
الكب
انه
روم
اليابان
##ناول
##اتها
##حتى
un
إل
المبار
كر
##رائي
##مثلة
والخ
##لسلات
##بك
##عيش
لما
اث
يوسف
وض
أيام
##وتي
##|000
وغ
بان
##صابة
##رافية
##ابن
بأنه
ذو
##ماكن
##الأ
مدي
##هرة
منظمة
المدرسة
وادي
##حاء
الغربي
تونس
تعمل
البحرية
الأه
الوسطى
بات
##لبية
الكهرب
##نجليز
مكت
##لترا
وزير
دوا
##افي
to
الصين
##ائف
##ائه
وتن
سيدي
اليد
##ريقية
الخارجية
مسرح
مأ
زيادة
##...
##واد
القرآن
##لندا
وآ
بلدية
إنشاء
هن
##اوي
مسيرته
##شيخ
معركة
تحديد
القرية
##est
##طاء
##صي
##مين
تأثير
الذه
##التالي
##انيين
##الق
نمو
##راس
هيئة
##px
##لاك
النها
##هات
البش
فهو
##سمح
##if
##ينيا
التف
وتق
##مرت
جورج
##ريدة
الكنيسة
الجنس
الطريق
مراك
الاس
حدث
..
##ظمات
##فاعل
##كد
##علق
##اسعة
خلي
##ريح
ياب
##صلاح
السوفي
اد
##ظة
##صدار
السري
مواليد
##اغ
فلسطين
##ستاذ
درا
##ian
يقول
##عرف
التقلي
مجلة
مقد
دائ
##سيسات
##احث
##تأسيسات
أستر
##مح
دولار
الدراسات
البرت
الملكية
##أمريكي
##عين
##ورغ
وهناك
الفي
##وتر
الداخلية
الخاص
##ومية
للط
##ph
ستي
شار
إيران
0000,
مباراة
السياسي
##رجان
الباب
اشت
عنها
الزي
##ران
اليهود
##اله
##لكتر
العلاج
##ممثلون
سانت
##ub
##بالإ
روسيا
مرض
##لمون
##''،
وحدة
سين
##ine
الأخيرة
لين
أدى
أور
الحديثة
for
أعضاء
y
جمع
##لاع
تعرض
##0)،
##ow
سمي
##أمريكيون
الرحمن
بالف
تعد
##ثيرا
شر
##ويا
##اصل
الإعلام
##وعية
مسلسل
##وند
والده
المسرح
العملية
المرأة
يأ
النفس
##راح
وحتى
الجم
سابق
الجمعية
##بين
الحج
الرب
الإمام
##وحة
والمن
##رجع
##عام
الشباب
##لفة
##واة
المجموعة
الاعت
نسب
أسب
##ائع
يؤدي
##وارد
الثالثة
تتبع
##ساعد
##كري
السعودي
العلمية
الكث
بمن
##جنة
تقريبا
وترتفع
أمر
##شا
##زاب
##ard
إعادة
##مم
##حيان
افت
أربعة
إف
##هادة
التاسع
صنع
المدن
##طول
اش
أرض
فهي
##اجة
الديمقرا
الإسباني
##اسات
البحث
##te
##نتين
تحتوي
مباشرة
النساء
كوي
##قار
##اشا
##ُّ
الخلايا
دخل
القط
الجهاز
الخامس
معت
الأي
البعض
##يلية
##فاض
العلماء
##ونيا
الحرارة
##فين
##ائج
الدكتور
##زين
an
##ريبة
السلام
لاست
##بيق
بعدها
تعليم
واض
كاليفورنيا
سعيد
##لائ
الاخت
فان
##عه
عالية
قل
##av
الخي
ألعاب
بحيث
قوة
##شد
##قام
##روي
##الإ
اختي
##ابية
##احل
معه
الأسب
##ud
تركيا
##ell
##ئاسة
##نادي
إنجلترا
باللغة
##خدمة
قط
أز
السلطان
ظهرت
0.00
##علان
او
مين
##نوان
طويلة
دواوير
##كيم
##اعي
##شكل
وحد
الحض
##the
##رر
##فيد
شبه
بذلك
يصل
وله
نصف
بالس
##لمة
آن
أنت
##لندي
##ترو
وير
الغرب
##واي
الحدود
اقت
المسيحية
##:0000
التالية
الول
المال
النظ
##فاظ
العثمانية
المحلية
أمريكيات
0,000
##رجمة
وبالتالي
##!!
محمود
##اهدة
تأسيس
اللبن
توا
##وجود
الشرقي
##ذب
المسجد
##هن
ويل
المل
صالح
عمليات
غر
مرك
لأول
##ov
حقوق
##زوج
حكومة
القديم
أنحاء
##يدات
قانون
النبي
فكان
الفن
ممثل
##اريا
##بان
رسم
حياة
شهد
##ity
الشكل
البار
مشروع
سك
##لالة
طلب
أربع
الفنان
##موت
تقدم
الميلاد
روب
الأردن
الأصل
الإنجليزية
##واخر
نور
##جان
جان
الواقع
##يسار
السورية
بيروت
جيش
وبين
الأو
البن
أر
##عليم
i
الجد
الفض
تحقيق
##كوين
وجه
تنظيم
##رسل
لان
##باح
##شركات
##عاد
##صلة
الأراضي
البيضاء
000.
الأر
##وكس
وهم
##بدو
الممتاز
التجارية
الأحمر
0-0
تا
تظهر
##ؤون
##كند
##سكر
استخدم
##ile
##خاصة
تشي
ساب
مخت
##انو
عشرة
سف
القلب
##مبي
يسمى
##مام
تكن
##شفى
##اسبة
البد
##حب
##قلة
عمان
##شاط
متن
##وبا
صورة
##تال
قصة
ألب
الأكبر
النادي
##راءة
0000–0000
##ظاهر
نطاق
شبكة
مشت
##وائية
##حاب
الأساسية
كلمة
(0000).
##زام
##أو
##ber
السلطة
عصر
سعود
##لمات
##كلة
##ill
بالج
لقب
والمس
الأب
##ستور
مرحلة
رجال
الإمبراطورية
مساح
تغ
الوزراء
كيلوم
امت
الصغيرة
##عاية
ومد
السيا
كري
صاحب
خالد
والغ
##لادي
##أعضاء
بمع
قطر
يعود
أخذ
##املة
السادس
نقطة
المعد
النمو
البيانات
00,000
##ده
الاقتصادية
##وامل
حص
وسي
عزلة
ملي
الري
الخليج
##تهر
المحيط
##حر
##وتا
اجتما
المكت
المفت
##الجة
الطبيعية
بالقرب
الإمارات
بلدة
##زال
وأي
أند
لمد
يحدث
الإنترنت
##ورو
ولكنه
الإيطالي
الحديد
##ستي
th
مسجد
##واعد
السينما
##ليين
##ولت
باشا
عائلة
شيء
##رطان
##ran
00،
الها
مات
الثلاث
لغة
النب
##الس
الحب
الطي
للب
pr
##راتي
الكاثولي
شخصية
##موز
واج
الأبيض
##عدم
##خيص
العسكري
البريطاني
##يدرو
##لاس
الحالة
##يرو
##لل
##all
طريقة
لهذه
##ذك
تسمى
الألماني
##ak
النج
ro
يو
الدينية
الغذ
سواء
سجل
##روس
##فسير
الأوسط
يظهر
##بعد
##وانين
صناعة
الحصول
والط
جبال
##ائها
الجبل
الموقع
##زيا
اغ
##واب
##فو
##شيد
المخت
##ذية
الحمراء
متعددة
حياته
##وفير
سري
رغم
الحيوانات
on
رفض
طائرة
##يتها
محت
المتوسط
اض
الشعبية
تعرف
بهذا
بتاريخ
خمس
##حن
لجنة
##بحث
بالك
ظهور
الأوروبي
##شب
سوف
دا
الاشت
المرحلة
##مرض
##نائي
##داب
المعت
##):
الأرج
##حيح
عديدة
حدود
##كبات
الدور
تشمل
البحرين
الشخصية
مرات
وبعض
أحداثها
الإنجليزي
تور
##باء
سياسي
الجزائ
ومس
نص
الشعر
##ge
إير
تقديم
##امين
وفاة
لقد
##اريو
##راجع
صغير
##لو
##فيات
##ابر
تحمل
إست
اسمه
##ابلة
التابع
قلي
le
##دارة
وفقا
##up
الكبيرة
##وبل
##وقي
بكل
##لسفة
الحس
##برت
##عرض
قاد
مؤسسة
وات
المعروف
##umb
القائمة
الموجودة
##بول
سيد
الثقافة
قائد
الهواء
##لقى
الكتب
كامل
ليست
المسيحي
خمسة
بدون
لكنه
بري
##'',
##وسيقي
##قامة
حال
أبرز
الإنتاج
##ميات
الاع
العراقي
##شرف
نبات
##جمالي
يحمل
هدف
سير
##اولة
##ماك
أواخر
علماء
تصل
##رأة
الألمانية
دع
يا
محلة
جهاز
طالب
نا
التون
مديريات
لقرية
البطولة
##حم
##دى
##لاة
الور
##قول
##زر
معينة
الطبية
العمر
بريطانيا
##ينيون
التخ
لمع
##طور
كثيرة
##فات
غالبا
المث
جمعية
ليت
##اكل
بدلا
##فاف
للغ
باك
##عيم
إنت
مرا
المرا
بالد
سباق
الحالات
حجم
##قصى
##ربو
نفسها
كثيرا
الأوروبية
##واصل
##ينت
##جع
##افر
مسي
##ماعيل
ne
والر
##ضايا
##طال
للك
لوس
##حيانا
المادة
فقال
##بلوم
##وائز
##ثلة
##وبات
##صالات
##هج
بنت
السوري
تلفزيون
الياباني
##ou
يزيد
##طوير
السكانية
##art
الأحيان
وكل
##مسلسلات
##تيب
##هوم
ابت
صدر
##رجات
الكثافة
الكريم
##برة
##ثمان
إنجليز
تشكل
العن
البرنامج
##كين
بمس
قصر
الموسم
##ممثلو
كات
البص
التالي
الوصول
منح
حمل
حس
عز
##طفى
##فترة
##وله
##ht
##اسوب
الطائرة
##الى
##كاني
رؤ
بالر
الأعلى
نجاح
الأث
نشاط
حالات
ويتم
##رافيا
السابقة
##شطة
سليمان
##:00
رواية
##روج
##بلي
pro
0000).
الإير
تصميم
أمير
##ارضة
##ؤلاء
كن
con
##اربة
##اعية
نز
فلا
##على
نها
الأق
التاريخية
##ائدة
##bn
اقتص
##سته
برامج
يعني
تمكن
##كلي
الجما
الفنية
##رافي
بنفس
عسكرية
النار
وهذه
إسلام
الكيميا
صوت
الهجوم
بخ
ملا
عليهم
الرق
##جلس
إخراج
بأنها
كور
بث
اللجنة
النات
##بيب
نظرية
##ذة
##ينو
##ord
##لبة
عامي
##ناصر
الشه
##علقة
معهد
##se
ار
الرومانية
هجوم
الجمه
لر
حديث
##ديات
##ناف
##ذر
عاصمة
الحالي
##ضح
##ولية
##ri
الأسود
مربع
##وكي
المجال
اليم
##مها
لغ
##man
##),
يحتوي
تحدث
##ذاك
حض
حدي
##رائيلي
##صاص
##مط
##هول
مدى
مدير
بقيادة
##ديس
اللون
##لكية
##الن
الزمن
كوم
##سياسي
أسست
##قرار
##بيت
العراقية
##رجال
فإنه
السابع
##قاط
وليس
القرى
بعنوان
لعزلة
وانت
##موعات
خص
فرنسيون
أبناء
##انس
بسي
##راعية
يخ
##واقع
مكون
##ريقي
ناحية
##حدد
مصطلح
واش
الحقي
##ادث
##روض
قبيلة
يعيش
##هاء
سعد
##ne
مقر
الصوت
إطلاق
الطرق
الفضاء
أسس
المدارس
معهم
##بيرا
القوى
البدا
الأخير
المؤتمر
قصيرة
##حق
منتصف
الحسن
المقا
المالية
##يروس
الشرطة
##0000.
##خم
جنس
لأنه
##/00
##جري
##تن
الاجتماعي
التك
أصول
اللاعب
##اليم
com
الثامن
##ارقة
سكن
لصالح
روما
جم
التلفزي
عش
كا
العصور
ضع
##الاسم
وجد
عامة
##وسيقية
##ماغ
أستراليا
القدس
وعندما
فعل
يجعل
الإج
##راوح
##واق
التب
الشري
يم
واسع
العين
الأكاديمية
##age
##نها
فص
بسر
عربية
##شرق
مون
##كندرية
الأدب
##قوم
##طباء
##خصصة
اتحاد
##كتورا
جيم
##مدن
##سلام
عبدال
يب
se
الشام
إجراء
كتابه
الفلسطينية
معدل
الطبيعي
مملكة
أجزاء
تمثل
الشمالي
ذا
يك
##فيف
يمت
الألب
ميداليات
تلفزيونية
العلاقات
##بالإنجليزية
مفت
##ردية
##بس
##our
مقابل
مال
كرو
ساعة
##قسم
انته
ثاني
البراز
ظل
##».
الفق
##'')
الطريقة
العهد
##سيك
##لول
الثانوية
##ظي
##تان
##رقية
##ربط
شهادة
##بعة
الجانب
القوة
##راجات
كندا
##فيل
المستوى
##مات
قاعدة
؛
##طا
مأهولة
##قاد
##ستير
العالي
المسلسل
##ik
الرياضية
##ith
رأ
الماضي
##ليس
##شح
##ينيات
##وسع
أغلب
فصل
هام
##مدربو
أداء
منف
العص
الساعة
جمال
سوق
هنا
فا
العظم
السنوات
مضرب
##اعتبار
الغاز
البداية
##لز
تقد
النمس
(0000-0000)
##ant
الموسيقى
ممثلة
طوله
##ائم
سابقا
مطار
قرب
##/0
##thumb
أهمية
##وقع
المباراة
##ضان
الضغط
الحص
أعلن
##اجد
##متع
از
(''
الأقل
ويعتبر
الرياضي
للمع
كأ
يمثل
##غرافيا
##منة
##ياب
زمن
إسماعيل
الروسية
الشركات
مم
أوائل
العمليات
##رسال
رائ
قيمة
'
مصري
كوك
##شئ
##ارق
وسائل
##بارات
##بهة
يعتقد
الرواية
للمس
أط
المعهد
بكر
امرأة
ومنها
##وجيه
بحر
تشير
##عبير
درس
لط
##موية
مدن
قيادة
عرب
صور
لات
##."
تغير
##اريع
##رام
##جلة
##ودية
##pe
بمدينة
عراقي
سويس
الكلية
وأس
##قييم
en
وبدأ
روا
##ائص
##ادن
مكة
والاست
لله
isbn
تنفيذ
##ادق
المنظمة
الانتخابات
ومح
##تو
لاحق
##براطور
حدوث
بيل
##ich
!!
##قوط
الأشخاص
ثورة
لاحقا
الإدارة
##ربيع
استمر
علاج
كبيرا
فاس
##ولوجية
##iz
##ولين
تغيير
سبب
النا
##يفا
وأيضا
##ثناء
الأل
الأج
تعود
علاقة
##تاح
فور
##مص
كنيسة
##ندسة
##ارنة
واله
##ort
الدراسة
حب
##تهاء
##قعة
##ضيف
##واجد
الرجال
باس
##نساء
##ستون
وقام
القدرة
##راحة
الملح
##نيين
##كنولوجيا
أهداف
##أماكن
as
##مارسة
محطة
العدد
دعم
ماري
الدار
##جمع
المشروع
##يار
الفيز
هؤلاء
وخاصة
اكتشاف
##شخص
البع
##فاقية
##خفاض
مصطفى
للص
بمو
بطريقة
##وفة
ففي
وحصل
موسى
بعضها
##رياضيون
أغنية
##عار
##نغ
الاص
##جيش
يطلق
##لاحظ
أطلق
##ate
0،
ير
##ذور
حرارة
##طيط
واسعة
##رال
السويد
أفراد
والا
##ريمة
##فنون
مراكش
الهول
##ضى
ومت
الملكي
السودان
##نائية
الدرا
##يته
دفع
فكرة
الصحة
الوحيد
by
انتشار
لويس
مساحتها
##لكترو
##ادت
مهمة
أكس
وسام
جزر
##ثرة
##ميزة
المسلحة
أوب
##شية
•
##شرات
البلدان
تون
إج
##بحاث
الفلسطيني
##قوق
مساعد
يحي
جو
بينهم
بينها
الهندسة
اص
فهم
قدر
التقليدية
##يمان
file
أجهزة
تزوج
##دب
تشكيل
##جون
السوق
الأسرة
لعبة
الأحداث
مياه
اهتم
الإلكتر
نسخة
==
عص
الأهلية
ولكنها
التجارة
شعر
آثار
سوس
##ast
##باع
اند
ضغط
كاف
##ديق
##لفات
##خطط
الصحية
##فال
ثابت
المستخدم
تتكون
عاش
الضوء
الدع
##حصول
الرقم
المركزي
##جلوس
ويبلغ
يتكون
‏
##تبة
##ملية
##rom
ناب
النظر
##ملت
##ابين
##ديه
##جموعة
##وعي
##وريون
##جت
##نوات
سابقة
##خلص
##اصيل
##طرا
والمت
##أت
تخرج
جما
##راقبة
اختيار
الاقتصاد
تولى
##ايير
##ib
الخدمات
توم
القاد
##لاث
##جهة
ويح
##00.
##هان
للإحصاء
##شط
##عها
##ناح
دير
الآثار
تأليف
أقدم
صلاح
الصناعية
ستة
الفرق
طرق
عضوا
الزوج
##ندس
المرج
التراث
مواقع
نقاط
دولية
لون
مهرجان
فار
الإست
الجنوبي
##مالية
يشير
##رافق
الملا
لديه
دائرة
دو
##مون
فق
##انج
دقيقة
موضوع
##رار
انف
النبات
##وتو
##دييات
الخدمة
معين
تطور
هولندا
at
لديها
##ليه
شارع
الأمراض
##ويم
##رتبط
##هيل
اف
##سيارات
##علنت
##حيوانات
المطل
المنتخب
حقق
مادة
أشكال
##بطولة
0.000
##ألف
##امات
والأس
تحرير
##ئيون
##ارتفاع
##ies
تعتمد
##تهي
وتد
##روح
##ight
##دراج
الإشارة
ويست
##اطقة
للر
##بيقات
##مرة
##عاون
الابت
##سكو
الثلاثة
##سفي
##يدية
##uc
اللات
مؤتمر
للخ
##ليد
آنذاك
الحكومية
كولوم
##روة
للاست
##ندق
نائب
الحاج
يغ
##طى
الوطن
سياسية
البرازيل
الثقافية
ورد
بحث
أست
وفاته
أنهم
الأساسي
##مدافع
im
البول
حاول
قت
تماما
وبال
فرع
بأس
وبر
اليونان
##يق
ملعب
##اورة
##قياس
##يدر
نوبل
وتعتبر
##تس
محاولة
نجد
الرسمية
بولاية
تسجيل
المكان
##ادئ
##وها
##ical
وأصبح
الطلاب
##قطع
##ارجي
البشرية
بصورة
ليبيا
##لون
##شير
##غب
ولقد
الإسرائيلي
الطفل
الخص
##ust
رسالة
##io
##زيادة
سام
العرض
##ثوذ
##كذا
000،
سبق
وراء
أراضي
البناء
وأم
خان
معسكر
لكي
ته
ألمان
أير
المعروفة
قطاع
##رفين
##ؤساء
دخول
المؤرخ
##ory
يتح
النهائي
المستقبل
##راي
الأند
كومي
البرلمان
##نه
مصريون
مصدر
السيطرة
##ذاعة
الوق
##ريش
حف
المريض
تعيين
البلد
تجمع
اللعبة
سعودي
الأط
الأنواع
النص
##دول
ثانية
المعم
##ft
##ass
القبائل
القل
##اخلي
الوس
##واح
كتابة
##راغ
الرئ
##الغ
والتح
النجوم
البلا
الأعضاء
##خرة
إع
منش
بسرعة
الجو
##ary
##ain
##سد
##ok
المعركة
##قلية
الأفلام
##الا
خصوص
أه
يستطيع
عثمان
مصرية
معروف
##انغ
الموت
##دمير
الجوي
معا
نظرا
البيئة
الرجل
خدمة
قلب
مهم
he
وتس
الباحث
##واز
صحيفة
فرقة
الطيران
رمز
##بعاد
##عدام
##عبر
##فورد
كافة
z
##وفا
قرار
##انه
بتح
البشر
فرنسي
معلومات
طرف
##مثيل
##ثيل
##ترا
الشريف
للمن
##خطوط
الرك
تناول
##كانية
الزراعة
والز
##ial
الحمل
الاحترافية
آسفي
هما
إطار
##كير
فرق
عنوان
##نم
الأمو
خل
قطع
الخل
نب
الشت
كوريا
صار
الممكن
يتبع
القسم
الإغ
تعني
كيف
##»،
##az
يه
كمية
##طلقت
##كتوراه
00-00
أوس
تزال
حكوم
“
ولدت
سرعة
##عبة
##يسى
كيلومتر
##ah
الجي
شه
00,
##de
##مييز
##نيع
بجامعة
رد
مصورة
##زالة
حضر
المرضى
ذي
تصوير
تسبب
الأور
or
بدء
##جزء
##ميت
##طرابات
##ure
المها
وتأ
الوحدة
ed
ومو
القصة
الكون
التحرير
كلي
##اشة
وتصل
يعتمد
القمر
##شاركة
اعتبار
نظر
مطل
سوى
##ومان
##يدالية
الجنسية
##راكي
مدة
القان
##pt
##تمام
كلم
الفنون
الكاثوليكية
##ish
متحف
##ركان
السبع
cl
##كاتب
##باه
##سيمات
##ناه
والآ
##عمار
##واص
##oun
البرامج
##وسطة
أطفال
الأفريقية
##كتابة
الآسي
##ناع
جامع
##صدر
##ئا
##لازمة
##ادا
بهم
أحيانا
##ائنات
##ens
السبب
##اين
إح
##واريخ
##الث
حلب
حصلت
دائما
المبا
##حيون
النشاط
الكر
##أنواع
الصي
القصر
##اسا
##ry
يهود
sh
##ld
باعتبار
mar
كبار
##زيمة
مدريد
يحيى
##هضة
نقص
سيف
الرأس
##ern
آي
##ملوك
شك
وقع
المشاركة
الحال
مرو
إجمالي
##اليب
يضم
صنعاء
##خور
منع
مجموعات
##غرب
##ائن
be
##ائس
##روط
أصد
الذهبية
##وحيد
##اجي
للعمل
هار
0,
العمال
##ريج
الهدف
واشن
##ذين
##ناق
السياسة
يزال
توزي
هنري
الهيئة
##ادلة
مور
فريد
الدماغ
أرج
x
الحسين
&
الشاعر
##جاب
ميت
##ذن
يسمح
الأجن
اللغات
التركية
سيا
آلاف
وصول
إصدار
;
##بور
النقل
يصبح
##ang
بصف
la
تطبيق
وست
##صاب
الال
0000/0000
برج
##خفضة
خلالها
##رمز
النهاية
الطائرات
##شراف
wor
التهاب
المحكمة
المحلي
مالك
خرج
القطاع
البيت
تتضمن
الطبيعة
##ثوذكس
وإد
##عمر
##خمة
##رائيلية
إما
وبد
مكن
am
الهر
##أك
حقي
الصورة
اسمها
السم
واشنطن
بنسبة
البلدة
طاقة
الوف
##تية
0000)،
أنجلوس
المرتبة
رسول
عمرو
##اصرة
خدمات
##تز
ناطقة
لتن
##اتحاد
بلجي
##جاد
شركات
##سياسيون
محل
استطاع
سيت
##اطة
شيخ
للعلوم
نموذج
##ivers
وقعت
حماية
##طين
المركزية
##جام
قلعة
الفرقة
##دع
أسماء
##ثور
فارس
الإسكندرية
شاركت
البرتغال
##ob
واعت
أسرة
##خصوص
##وزيع
##انع
الطيور
المتعلقة
فلم
##اكمة
الفقه
##طراب
الاقتصادي
##يدان
السيارات
دراما
000,000
##وته
المحي
الإف
ذك
انق
رمضان
##راه
##مق
أثر
##لمانية
علوم
##ياز
الذات
القناة
##جمات
##فيه
الواقعة
##غار
أولا
السوفيتي
تتح
جماعة
خليفة
بالإنجليزية
عناصر
النفط
##رفض
السلطات
##خال
##رفع
المستخدمة
نتائج
بهذه
التركي
الطبقة
##او
##لابس
##بيه
تتم
التصوير
الإخ
##فعة
##ملة
بلد
فس
##رسان
##شخصيات
##دون
لفترة
فئة
خطوط
sc
##ng
***
الرابعة
الاحتلال
تقل
الحيوية
فيصل
##ly
##كساس
الكاتب
##ئين
كارل
تختلف
##وزراء
سلطان
##ive
الفلك
مجتمع
##رجم
تبدأ
##شرت
##قيمت
##فير
##كما
##لفية
عمله
إث
الكويتي
طف
##بون
##سكي
##ment
ساهم
الولادة
##شم
التشري
يابانيون
البرم
##شاب
##جلات
الاستقلال
الفني
##جتمع
الزراعية
هيل
وشارك
سر
والتن
##0)
حلقة
##for
##تحاد
سويسرا
##انيات
طويل
##جارة
اكتشف
##ودا
##شعراء
اتجاه
العصب
##ae
##اطر
قياس
مقارنة
تحول
الشخصيات
جا
الأفراد
##دائية
الأغنية
الديمقراطي
الخمس
الكن
النسخة
##ug
##قيه
لخ
##واحي
موت
المواقع
إيه
لكنها
##طائرات
المؤسسات
بطل
العناصر
##منح
##oh
##آت
رفع
##مسي
التربية
العالية
تحويل
الدورة
النباتات
##امه
##وافق
الحاسوب
إكس
الطعام
##فى
##كول
جريدة
الجلد
##فقة
ابنه
حساب
الحالية
زوجته
القضاء
درجات
رج
الشبكة
##روب
صي
يتعلق
##عتها
بشأن
الإسرائيلية
##بغي
مليار
ونصف
##cl
##وريوس
بهدف
تشار
##0،
عباس
النووي
روس
روبرت
##ندوق
قصص
##وعا
##مويل
##ريز
الكهربائية
يقدم
الإي
عيسى
لمس
##نق
الملكة
الديمقراطية
##عفر
ولعب
##جير
الساحل
##زان
لأفضل
اللبنانية
باي
المسؤول
مبنى
اثنين
الساح
##ويق
شرح
مسرحية
##بيع
معرفة
تحتاج
فرد
النخ
القاعدة
أوكر
لوك
##pl
##جاوز
جسم
انها
فضلا
##طورة
مواد
(0000–
قليلة
سلام
مصادر
ويد
النهر
##ابد
كاتب
sch
الإيطالية
الأصلي
والسي
التعاون
##قوب
المحافظة
##ازات
##واط
##ايا
##ظهرت
الحقوق
الثقافي
الاه
لديهم
كوب
##وائم
يقل
##ابط
حاز
نجم
أنشأ
ph
الصد
الوظ
تتميز
والمو
تدور
ويس
الإقليم
دبي
مقت
دراسات
ريال
##ديان
خلايا
يشكل
##رتها
المكسيك
##olog
##واجه
فرض
مقا
مؤسس
##اقات
##خدمات
عمره
##بطال
سيل
##كوس
ويكون
ذه
الخض
وصلت
##راتيجية
مكتبة
عمو
الرومان
مديرية
##افس
طيران
مول
جيمس
نشرت
رصد
سورية
##صورة
عائ
رئيسا
جير
واد
الغير
آر
الميلادي
جين
##ليمي
مير
المنش
الكيميائية
##فز
##نسان
##ئلة
الإنسانية
وتقع
حملة
##ورين
##وادي
فمن
##sh
المجاورة
مثلا
##عمليات
##ـ،
##أل
##ذار
مرور
المعرفة
مباريات
ويوجد
##قبال
عيد
##نيه
هير
وعدد
منزل
##لالات
##طنين
مؤلف
##بوب
اح
الفيديو
انضم
كاب
##وفية
أنظمة
التحكم
البلدية
##0000)
ليف
ماسة
القتال
##فار
موجودة
وصفت
الشعبي
القيادة
العلاقة
ضرب
##ساوي
النقطة
##قتها
تض
الممثل
ترا
مجموع
الصحراء
##نو
ماك
##ond
الحجم
ex
الكه
الإصابة
سالم
##ونه
##مز
new
ولذلك
تول
لتق
سقوط
صباح
يذكر
أبطال
with
0000–0000،
برلين
أعلنت
الأسلحة
##إنشاء
##زع
الكتابة
##ندر
القيام
##افحة
الزواج
##per
##اديمي
جزءا
العثماني
النيل
طي
##لفاء
##عضو
العش
متوسط
##دوز
##عامل
سكنية
##وائي
##ضيع
إخ
ورئيس
طائرات
##بكات
ألي
##ائة
##نديون
##كيو
سينما
كيلو
موسكو
##لوك
شعبية
كهرب
الست
##لكتروني
يبدأ
سلا
لأنها
##pr
مسؤول
##ack
الاتصال
##زايد
يلي
##منظمات
مستقلة
الصغير
##حدات
##ادم
##منع
بض
رياضية
(0)
##اضر
الوضع
رئيسي
تجاه
ثقاف
العائلة
بالط
النز
إنه
الروسي
##لاه
رحلة
##ميس
مفهوم
##راكية
الجامعات
شديد
موري
خس
توفير
مونت
قرر
الحو
##ناث
##تق
إيف
الفعل
رك
قبر
استعمال
المنورة
قدرة
جر
لتش
التو
رسميا
يرى
##اتهم
يون
##راكز
##سور
##كيون
دراسته
##جمو
فول
المكون
تؤدي
للدرجة
##سيج
##ازي
قديمة
المحور
##ألة
عي
ليون
##فرن
فح
لذا
##برامج
##وريات
أمين
+
غزة
المدنية
الموضوع
##لافة
أمن
##روية
##ماذج
تكوين
والعلوم
##فاءة
الناحية
وخلال
##اتل
النت
وعمل
الأمة
##يمياء
الأربع
##sv
الأسنان
##ريين
الرائ
##لاند
اليابانية
##رمى
الآخرين
##ريغ
الدستور
أصدر
##فيز
أدت
ملح
يبدو
وابن
حمد
بدا
الواحد
الهيدرو
دورا
أسلوب
يل
فوز
كويكبات
##ارير
وتوفي
مارت
##غن
قيام
الإسبانية
##مير
##رفية
رتبة
##ئوية
بالرغم
سلطنة
وجدت
سوي
النواب
التأثير
الأوراق
##ؤه
أعماله
##قيات
##ide
##طان
##مرار
##اطعات
حما
##باك
جوائز
pl
شاه
سيتي
يرجع
univers
توفر
مقتل
تدخل
الداخلي
##ff
##يتي
##صات
إضاف
##رابل
##تيريا
الصيد
##tern
بيانات
##قتصاد
قبائل
تعريف
عامل
##ديون
الجهة
الصور
تسمية
محددة
##ائفة
وتحت
الحلقة
سبع
##إذا
المؤسسة
المقاومة
##وضح
يدعى
##ارته
مدار
قوية
تفسير
اللاتينية
##هران
للمرة
الاستخدام
مارك
##ساس
للتح
المقدس
الملعب
##خار
##امنة
##شارات
0000–00
شغل
المكر
##ـ.
كنت
مالي
الأوس
اع
لوح
##دراجون
للحصول
بحسب
الكلا
##واكب
ربما
بتق
##شلونة
نو
الفرد
##طنبول
te
رسوم
وعبد
سال
شت
##جابة
حاكم
المصادر
كين
الاح
حج
الفع
##خاذ
القرار
##مؤ
الولاية
مقرها
الكرة
##حكام
مجالات
تعلم
المهد
الاض
##لطة
البابا
##ثمار
كاملة
مسب
لبعض
انتخابات
##ire
##قاذ
عددا
##ational
الخارجي
##متها
##ركية
##فه
تقنية
الدقيقة
النهائية
تشغيل
مستشفى
00.00
ومنذ
الإيرانية
##ويه
شمس
الكربون
ألا
##لامات
هان
الأصلية
المدني
الحقيقي
##==
الدر
اعتبر
رسمي
يوما
بينهما
وزراء
نظم
##دو
##مور
##فان
##ناطي
##ريه
##ence
الثق
السويس
الصحافة
##ويلا
##نر
##كمل
السير
النجم
وغيرهم
توزيع
إحصاءات
الفصل
فير
العظيم
##ئيا
واف
##راعات
شأن
المتحف
مستويات
بالش
البروت
النظرية
##غيرات
عكس
حز
##تيال
##ديب
##عدل
##اطئ
##سيكية
الأدوية
أنط
تث
سلاح
أصحاب
والمح
الذهبي
المصطلح
أرد
##رقام
التصميم
##na
البرتغ
الصحي
المجموعات
##يع
التقنية
رق
خصوصا
تحليل
##فاوض
##بليو
العلوي
الأحياء
##ثدييات
الكامل
##كاغو
وتر
طبقة
معها
بيد
##مست
أعداد
فون
##ريبية
والمد
##لغ
المهمة
وذ
##ction
الرابطة
كولومبيا
النح
معروفة
محرك
وكالة
##end
الروماني
*''
##جاز
للسيدات
ألماني
الوث
##وزارة
بوت
ألبوم
القول
البرية
الجنود
...
ياس
الجبال
الصينية
التحق
##ue
المحيطة
0–
المقر
عراقيون
##بري
التنمية
##همية
خلق
##ver
السفن
##عون
أساسي
كانون
##نجة
وعن
فري
العظمى
##ولوجي
بحيرة
كاثولي
اليونانية
أصغر
السك
##ماح
العقد
الأجهزة
الموافق
##po
##يرا
نيو
ناصر
##ite
مراكز
##كبر
الجزي
##اده
تصبح
ليكون
الحاكم
للغاية
##جيب
التى
ويقع
التونسية
الرياضيات
##ماط
##اهم
##ازل
##عو
ذهب
ومست
##مالك
الكلمة
تعيش
##تينات
##ليام
##خاب
أغاني
حفظ
##حدة
##ابيع
المسرحية
الأندلس
كتلة
التدريب
ساعد
##يلاند
طوال
مثال
##png
##ظيف
##دل
##وهات
الأرجنتين
جندي
يسبب
##قدمة
الكل
الحكومي
الشمسية
تجارية
المسيحيين
زين
الانف
النمسا
طال
آخرين
الشيعة
##هري
الناج
رئاسة
يأتي
فج
##land
##نامج
قواعد
الجائزة
القومي
الناتج
وإلى
##شارد
##ضب
بوس
##امر
وأصبحت
البيزن
الجزائرية
##طبخ
##000.
0000-00
مترا
فيت
ويش
##حاث
##اشت
جيد
النقد
وحدات
vol
القائد
الخامسة
##ريان
وتص
الأردنية
##ric
##ليق
##دخل
##صفر
##طلحات
المحد
وتكون
##سيق
##ارين
##غرافي
القلعة
برشلونة
والي
قليل
تاريخية
##يح
الإدارية
أجن
##فيفة
الرباط
##ائعة
أقصى
أستاذ
عبدالله
##ثقافة
أمم
ممن
##غبة
الآسيوية
##svg
##الين
تنتج
بلغت
الطف
الحرة
from
تقسيم
##ult
##عيين
الخليفة
وأخ
##لافات
معرض
##ريكا
الوزن
اختبار
اما
##ps
جيل
##فسهم
رابطة
الموصل
مراحل
##ier
بالمن
##نيت
يحصل
جغرافيا
إسلامية
برت
النروي
00-
تركي
مجمع
جل
الجر
##ys
##كيف
اللح
وهكذا
الدموية
تقرير
منظ
جعفر
انخفاض
النصف
سبعة
##مائ
##ارسية
وأكثر
الرعاية
مشاكل
000.0
بلاده
world
إغ
##ناط
##زون
##رابة
##تهاب
تحسين
##روايات
تشرين
الحملة
مدارس
##رسوم
جاك
انتهت
علمية
الاتصالات
##وانب
السرطان
القديس
ترجمة
##حايا
##رابلس
الغذائية
##داخل
الليل
عسكري
##فون
جزائ
##وكا
اليهودية
سيارة
##ناطيسي
السجن
الريف
ra
##ابا
الأستاذ
الوحيدة
وبذلك
القدر
ميناء
##سو
##نوع
المؤلف
##خرا
زال
والتق
تمر
فك
وتشمل
التيار
##نمارك
ريت
متنوعة
شيكاغو
##مغنون
وأق
وعدم
##قطاع
##اطع
تقدر
الكويكب
إعداد
معاهدة
##لاسفة
ابنة
##وحدة
يخت
الحقيقة
##ign
كلها
##ذيب
الأربعة
فشل
أماكن
ناد
##اسبات
سميت
الإلكترونية
شهدت
التم
الأولية
صدرت
المائية
##br
##)''
الأدبية
الحاجة
قيم
وسلم
استخدامها
ليلة
التشغيل
مقاومة
##يرون
زوجة
شباب
##واني
press
##زيد
ستيشن
وبي
##مارس
النصر
##اشر
##ويض
##كتشاف
والاجتما
##خين
أذ
تعالى
تكساس
يريد
مكناس
##ازة
##مالة
زوجها
##حلة
المفتوحة
والمعلومات
غز
وفاز
بمث
قان
##طيب
الاد
سد
موسيقى
طبيعية
sp
ساعات
##شفت
تيم
##كسجين
التل
النووية
(00)
الده
##كوك
ينتج
##ولف
قدمت
السلوك
افتتاح
بعدما
##دات
##-0.
##com
معل
##انى
أقيمت
##co
الأرثوذكس
##use
وترك
الدائرة
##ربين
أحياء
اللغ
##000000
الأثرية
بوب
الفيزياء
##ؤية
التنظيم
فلوري
عرفت
##ريخ
طن
بون
وعلم
سود
سنويا
##ont
السطح
##ربما
تار
##افظات
فلكية
الخطوط
إثر
حرف
يحتاج
##ئذ
##وره
لآ
لواء
والعشرين
##ماج
حمض
الحف
جنب
الفص
مسافة
##افسة
##ارها
قصير
الفكر
التونسي
الاج
##ubl
نجوم
وعادة
الأخضر
##ستانت
استقلال
ثنائي
غرفة
التغ
القس
المبنى
sy
كو
وسجل
ويندوز
الفلسفة
الصوم
##امرة
عربي
##أح
تأسس
##وسوف
##برية
تصدر
مسلم
اليس
الجامع
أرسل
##.,
##قين
أولى
باقي
##هو
زم
يشت
عقب
##ath
bo
ووف
الإصلاح
##الش
##ثيقة
##que
##قيام
تسمح
الشهير
علاقات
الموجود
المتن
المنزل
تلقى
university
##we
كس
فصيلة
الظروف
##باقي
الدعم
##قايا
لمركز
أبد
##ach
العوامل
ومؤ
طوكيو
##نيون
##كسي
المسيح
##فرقة
كيميا
اول
##وقات
col
سمع
##كوب
مايكل
##جيات
##مجيات
شقيق
##لاوة
هند
##رائية
##fl
##يهود
##اولات
##ace
الخلية
وأول
وإذا
بمثابة
##وارع
البك
بمعنى
##ظل
##لامي
بالمع
الأشعة
الفوز
التنفيذ
وفى
النهضة
الجماعة
##مرأة
صنا
##يلان
روح
اسكت
للفنون
الحفاظ
##غطية
##يسية
الطو
الصلي
الجبهة
الحرية
##ium
المطلق
قض
وأش
##وائر
##ؤها
(0000)،
بنا
أنشئ
الأعراض
حام
رؤية
بريطانية
##رون
بجانب
الروح
البشري
##ويب
##اكرة
زيد
##أمين
بحلول
##ظرية
واخت
إيطاليون
##فيذي
مخرج
##-00000
اللازمة
##.،
القض
بعده
شاعر
القومية
##عوبة
بموجب
النسب
بالغ
المشتري
##قاب
الهندية
ناج
علمي
##كتشف
##بدال
##ck
الذاتي
بالب
##رجل
##يره
خطر
الرسول
السفر
المكرمة
|
##سيوم
ضعف
##ong
##تيبة
لتع
السلسلة
##خرية
العقل
الكبد
بقية
##مدة
دبليو
وإداري
تدريب
قضية
ad
##غنية
انس
##ung
##رائم
الصباح
##ياجات
الوجه
بوجود
##مثلا
منصور
##اور
##اليف
سياسة
##قيب
##und
يساعد
الإمبراطور
000000
المنتجات
ومحمد
ملوك
سرطان
واحدا
بلجيكا
##يسر
شخصيات
استمرت
##ادثة
الاث
رئيسية
حديقة
التعامل
وصفها
الحديدية
##شين
اق
الشريعة
##الص
يرت
والتعليم
دليل
العثور
تميز
متحركة
رود
##فعت
##حول
ويعد
##ورن
ديفيد
أولمبي
الموسيقية
##فيون
موظ
المشتركة
التجاري
الذاكرة
##متلك
قضاء
par
ينبغي
##طبق
للز
##ost
القيمة
عاص
##مكان
تلعب
الماج
الذهب
##bo
الجزر
ميدالية
##رياضة
الموارد
معالجة
##اكا
##بره
ويليام
أعراض
مبارك
يعانون
رسمية
العودة
ملم
مشكلة
رام
الفك
##فاد
##راعي
بتأ
ميز
الحروب
##وبية
فيليب
wh
صفحة
يملك
تمتلك
بذ
بلاي
يتميز
وأنه
واستمر
بولندا
أسباب
ثمانية
##....
##يان
يط
##دران
##افا
إيطالي
المعارضة
سما
الشتاء
الأهداف
ويع
##غرافية
أكسيد
##داة
المزيد
العرش
الأمور
00.000
التربة
كلمات
الثمان
##شو
##ind
##وكب
##ice
كمال
إعلان
بكثير
سقط
اليه
التعليمية
طبع
قاسم
الآداب
##باعة
المباني
##ics
موسيقية
##افات
الجمعة
الألبوم
الجمع
لوحة
##زيم
الأساس
العصبي
لعدة
وتج
##ma
ماء
##سيمة
##افية
الإله
br
##ork
##شام
##انوي
الكائنات
##روق
طراز
قاعة
الجنسي
للأس
السيدة
المخرج
##رحي
##ولو
ساح
##وفى
يقت
التدريس
برن
الدب
##ضيق
لنا
اعتزل
مرتين
الكلام
##تماد
الجيل
وطنية
0)
زالت
القوانين
التعبير
نسبيا
وبعدها
##ظار
صحيح
الناصر
غالب
##غانستان
الكونغ
العلامة
المذ
الكهرباء
شباط
الأيام
الأمين
باكستان
عامر
##ئر
أمراض
الكيمياء
##سيل
##بروت
##ومن
العذ
القادر
##رنسا
الجمهوري
أراد
بالخ
روايات
باد
##رعان
تمتد
comp
تقلي
الصيف
غيرها
ثالث
المناخ
المدى
##la
المصدر
%
##وكو
##رائب
قطعة
النفسية
##ازية
##فاعلات
مباشر
المحرك
##قرة
الشرف
السريع
إمكانية
الكشف
##موع
ساحة
##دوج
الطبيب
البالغ
##رازي
مها
مقبرة
الجنرال
مرمى
##يوش
##برات
طرابلس
بلي
للأطفال
ونج
##سبانية
الصراع
##لان
المنتج
مساعدة
##/0/0000
##وتن
هات
##ونها
##تار
##تيك
موقف
حجر
الأبحاث
وزي
الجمهور
سيكون
يختلف
التمثيل
##ارث
آب
الاتجاه
قمة
##مدافعو
واص
للشباب
##افسات
##كه
لتكون
والمست
وتعد
طواف
الهجرة
##ition
البو
اتفاقية
بز
كاس
جوزي
النتائج
000-000
يتحدث
البحوث
انح
##ائح
##ale
##اهمة
يدخل
التفاعل
##التي
النفسي
##روات
##اهيم
بيع
ملايين
المغربي
غي
عملت
تقول
بمح
ساحل
دخلت
المقدسة
##اكي
الذكور
وعرض
##غلال
##هورة
##sp
أسبوع
الأداء
##لقب
لوي
##زه
##بورغ
اشتهر
صلى
نشأ
طبية
محكمة
قوي
الأصوات
##راجعة
الإنج
الذاتية
##ارو
##غالبا
تخصص
القضايا
##كلية
يقرب
للدولة
الثل
رومان
مستقبل
بتن
##برنامج
والبي
##سع
الأماكن
##eric
##ناية
##هلك
المجر
##يمين
واس
عائل
وآخر
الأرضية
المكتب
##كمال
صدي
تدعى
تنتمي
##شرون
إقامة
بعيد
المتب
##ركي
دفاع
رش
انتهاء
بدر
خدم
شهرة
الأنس
سلم
تبعد
##لندية
الطبعة
شعار
فهد
أكاديمية
##سبورغ
التطور
##بيين
##رهاب
##جرين
طنجة
الحيوان
##.''
##مواقع
ديوان
بحرية
دب
جنود
للقوات
لمنطقة
الضو
بيان
##دريب
وأع
إسبان
الصحف
العنف
والأن
##نيل
أوكرانيا
ضر
دولي
للمو
##سكريون
des
واضح
السلاح
##بيعات
فروع
ac
بنتيجة
الشهيرة
لام
الصدر
##sc
##one
##صنة
بحوالي
me
الار
توماس
يتضمن
القت
تساعد
سطات
صفوف
يشمل
القن
التلفزيون
ريتشارد
٪
##قدة
لعبت
##ائيات
##are
##ram
##اليه
أنا
الشيوخ
واي
وهما
##لاثة
##زق
الهندي
السكاني
المسلمون
".
##جاجات
##تيات
تضمن
خليج
الشرعية
##ear
شرف
التشي
القارة
الديني
القبض
##ائط
الوفاة
الته
متعدد
الأسماك
##لقاء
يقارب
المشاكل
تاي
ببعض
تقييم
لتحقيق
نصر
##كشف
صن
{
##شات
الدكتوراه
##اخت
أبيض
متلازمة
خطة
الحادي
##زني
بالكامل
##شهد
##انظر
##فيين
##نتج
مجرد
##شرح
##أندية
الإتحاد
اعتمد
تبع
يعطي
منهما
لأي
ومص
السيارة
الوادي
الافت
أرم
hist
لتحديد
ناش
##امرات
متف
يعقوب
العصبية
كف
##ؤسسات
لشركة
الابتدائية
##وأ
##ai
تستطيع
جيدة
##لقة
أض
للي
كوبا
مشاركة
جزي
البنية
القانونية
كريست
الفيروس
##رتين
بسيطة
اخ
بالفعل
##لاص
##لغات
##زف
##سيكي
لمح
وظائف
استخدمت
نيوز
الإذاعة
لتس
برون
موجود
##عن
fl
توقي
##زيغ
توجه
##غاني
النحو
خصائص
بريطانيون
أقيم
##خير
##وزير
بتص
المواطنين
##وائد
كيفية
وقتل
فإنها
أطول
##رغ
bl
لأس
الدست
##خلق
الدعوة
السائل
##ضعف
##ناز
أهمها
لإقليم
الأنظمة
القصص
الأمطار
دوق
وزن
ونشر
##يتد
شديدة
كفر
##لهة
##كلات
مدرب
للمركز
الخب
تتراوح
وسب
##رأ
##بيل
##هلاك
طبيعة
السفينة
النطاق
##وهو
السماء
مقالات
فرنسية
ومركز
ليصبح
تابع
##مهاجمو
ظروف
أبحاث
الفتح
ذوي
ووضع
بعضهم
وجنوب
ويحت
البسي
تجربة
للو
لغات
الجميلة
##حدها
##وران
دينية
##نك
جورجيا
التقد
طبيعي
##جيع
الارت
ممارسة
يمتلك
الطرف
##اقية
سعوديون
البيض
الاجتماع
الأت
وضعت
وانته
0:
إت
##اشية
الانق
عوامل
##ريطة
دائم
بالص
خير
متأ
##__
عدن
تقدير
##ئون
الصلاة
وظيفة
إنجليزي
##جلي
استخدامه
##هذا
الأستر
عالمية
سلطة
يقال
عدا
عموما
فو
اللواء
##ملا
منز
قس
بانت
لنادي
ماريا
##بوط
##وازن
المجالات
المنظمات
##yl
فإذا
##دار
##شعاع
سيم
سجن
الفضائية
##ساهم
توقف
##اليين
##حاق
وأبو
شخصا
كوميديا
##رياضيات
الكويكبات
الهد
حافظ
ترتيب
مسابقة
##بيعة
يمر
تزيد
##شستر
الوقود
##اتذة
المساحة
##سباب
ولما
الأقصى
##مائة
الأولي
##مخرج
الطلب
يحاول
##راوي
سبا
##حف
##طبة
##منا
تهدف
مركب
ورغم
البصرة
ذاته
مراد
الحجر
التقليدي
عزل
الحية
واضحة
وإنما
يجد
طرو
مقعد
بالله
##قلت
إلكتر
##وستس
العظام
الشهر
الرسوم
##ندوني
الرحلة
وربما
الهولندي
الأزهر
هل
##اجر
السوداء
الجزائري
تسمي
مسار
العدو
الماجستير
عود
المقب
نهائي
أولمبية
لمدينة
##يك
##عاء
العائ
المشترك
##iss
الإلكتروني
رفي
وجعل
وقيل
العاشر
المذهب
تبقى
أية
لاعبة
##جمة
##فادة
عال
الأطل
##طنا
وأخذ
image
ناف
الدنمارك
الإع
##ابيب
##ليان
##="
##ايد
##هيز
بوي
تحصل
فكانت
##جراءات
سلوك
غاز
##act
وذكر
الأوكر
##ضمان
اهتمام
##لاحظة
التحالف
##وسيع
السد
والض
الجامعية
بالي
##العزيز
اتفاق
لإنتاج
لتص
المرجعية
##شيح
الرسالة
تشارلز
قوانين
الأشجار
الأميرة
النجاح
0%
الحرم
ملكة
حينها
إدوارد
man
السرعة
القصيرة
الجل
الفار
الأبعاد
حاج
##ثى
طور
وبل
التواصل
الكلمات
##ؤاد
بدي
سيناريو
##كاليفورنيا
##فردة
التض
##لمانيا
الجميع
##غرق
السادسة
بالقاهرة
بروت
ظاهرة
الصناعة
##كشاف
قادة
مواجهة
الملحق
اجتماعية
##ورم
قن
##انق
الرياح
##اضية
الضفة
الأطباء
لبنانيون
جسر
اليومية
برازي
##me
##واتف
يونا
المطار
سيما
طروادة
اعتماد
##شروع
جرا
عبيد
اليمنى
##وسا
##صلحة
فيل
أشعة
لعلاج
##ـ"
##بيون
cent
مبنية
المكتبة
أخيه
##متد
زاوية
الفردي
الإطلاق
##ذى
res
حوض
سفر
جاءت
##eth
أسفل
##داول
صوتي
##وصيل
ألك
القراءة
##وسة
أسر
للض
إزالة
##ينز
حاصل
حالي
وبقي
##الخ
أساسا
##قتصادية
الخطاب
الصيني
##مول
##اذبية
الأزرق
##ore
الحين
الغذاء
##ظاهرات
##واهر
حلقات
##les
##محافظة
الاشتراكي
##ليت
##وهان
روز
اللبناني
وقف
الغابات
##دريس
الهاد
صحي
##اكو
##ثيق
الرأي
قليلا
الخيال
الاشتراكية
##تب
محترف
ويقوم
##كلين
البوس
التنفيذي
##صرية
##erv
##وكول
##اقم
##ضير
قادر
والشيخ
تملك
طبيب
خليل
أوف
نمط
واجه
تدريس
التركيز
يهودي
ربط
قاب
##ذرة
##اطمة
وبلغ
تركيز
##وديوم
##ليلة
بوش
مؤقت
##دير
((
لاس
سفينة
لجميع
الفم
إصلاح
معنى
الموسيقي
##رفت
الوج
أنفسهم
##ويين
تطوان
سول
نار
##كرر
شيئا
##لنديون
حضرموت
الحرارية
##فيس
إله
راف
يشبه
التخصص
العضوية
المركبات
##طلبات
البعث
0000-0000.
##محمد
حفل
ولها
كير
##))
حتي
##لينوي
##mar
نح
قدي
بنية
أقرب
مقدمة
يتطلب
الزجاج
الطويل
##المع
أمي
الشاف
##شتاين
##")
##قلب
##amp
##ology
##وطن
##يتان
قديم
##ina
المستشفى
##سابق
ربيع
##ضاع
إشارة
البحري
##اكن
##احف
أعد
طفل
حديد
##وبيا
المثل
دبلوم
نات
والدراسات
جذ
عنصر
مناسبة
وار
it
und
أسود
##قائق
جدة
ميس
##تيح
الناش
##صفات
لأكثر
##رنسية
الكتلة
وني
##مدرسة
der
فقدان
##وادث
##كسون
أخبار
##مغتربون
ويب
قائلا
وبح
أشخاص
##ated
مئوية
الصناعي
##هاي
بأي
وبط
شمالا
صرب
ريد
الميث
—
##ياته
جهود
الجناح
الميكاني
أرس
قالت
معبد
طبقات
##هيار
##ؤسسة
بنيت
الإعلان
##فعات
دان
##درائية
حكومية
المجتمعات
##اوز
اتخذ
##دوات
واقع
الوليد
يونايتد
أخت
وقبل
##اهز
المباشر
##uk
##تصاص
خاض
وأف
تشبه
فين
المرتبطة
يكتب
الفيل
الإث
بوم
##سكا
وغالبا
الحقيقية
##ويون
##son
##ضاة
النور
رومانيا
##ورى
##يتين
المعاصر
co
##الذي
عالي
زعيم
##.00
##شفيات
بلقب
كروات
الكنائس
المقاطعة
##بحر
##يناء
الهجري
النموذج
##شك
وزوج
فرانك
الصالح
كاثوليك
##ياط
##خدرات
بكلية
ذكرت
تعزيز
يستعمل
تشت
النصوص
المساعدة
تعديل
##ردام
احمد
المتع
المهنية
تدمير
والأم
فازوا
إرسال
الدخول
القطع
حرية
الذكر
اختياره
الأنشطة
الحسيمة
البكال
##لها
القضية
##تج
بسهولة
قادرة
اجتماع
استط
##كلم
تؤثر
شف
فرصة
التصنيف
الغالب
مصن
شيوعا
سهل
الأغاني
السينمائي
باله
القريبة
##ائت
كه
##ائهم
والمه
الواحدة
للأمم
الربيع
##اطي
بقوة
أفكار
القاضي
وكتب
المتحركة
##زت
##ينس
##عراض
الأكسجين
##شيخات
انتقلت
منخفضة
##مادي
مطب
##اساتش
البنك
العمارة
بالميدالية
الطويلة
فازت
الحمض
عبدالعزيز
##تحت
##جزائر
الرج
##امون
أبا
##قارنة
الكهربائي
##ًّ
كوكب
الفرع
فلوريدا
##ii
أبيه
الشيوعي
الدبلوم
الدواء
الأشياء
الإداري
الهيدروجين
فنان
حقيقة
وكما
الأخبار
فلما
الأجزاء
للتن
محلية
وتست
البري
المؤمن
##ناطيسية
للرجال
لاي
##فذ
##أشجار
0000-
المصريين
##وطة
أفغانستان
المتمر
البيئية
##ral
موضع
ضم
عودة
##لاط
يعت
كتابات
ويقول
سيارات
الاهتمام
##قس
مسؤ
##باس
##غوط
صحة
الأطراف
موز
التجمع
كشف
##ورها
للمح
شاركوا
بتس
بنك
مشترك
القيم
el
##نيوم
##شى
##ختيار
ويستخدم
##صيب
##وابط
البرون
تأتي
المجمع
الرسم
ثقافة
##con
دوم
واع
ومنهم
وتط
##امو
وأح
الأوسكار
##ادين
علامة
مشارك
جوزيف
الفنانين
##يلد
أساسية
السفلي
الطلبة
جهد
فنلندا
لمو
##نيطرة
مبدأ
قول
صديق
بقايا
آلة
##ere
##int
والل
يوغ
بعيدا
المطاف
الدنيا
ثلاثية
##بق
##صرف
##رائط
##رقاء
الحضارة
المتعددة
##فرع
##جرام
خسر
فات
إسباني
##صلت
وخصوص
##sk
##أب
مهد
إمارة
##ستا
تاون
المشاريع
##اواة
##رنج
رشيد
##برغ
بعمل
ملحو
##كليزية
تركيب
الإغريق
##سيطر
مشيخات
الأرثوذكسية
##اطير
##رغم
تتطلب
انتقال
تمثيل
ترتبط
الحميد
##عقد
تخت
اكثر
أعوام
السكر
الاتحادية
##غييرات
أني
##جابية
التعداد
''(
مهما
##وريد
مدخل
##ساء
##وليا
إسطنبول
المشارك
##ولاي
هاجر
##باي
##ساد
تقريب
حدثت
أعظم
التوالي
مئات
مداره
الأصول
واحت
التخطيط
##ريبي
خلاف
الترا
بمنطقة
الحربية
توس
ضوء
##اساتشوستس
##اظ
##غاء
صيد
بوسط
##كيد
صلاة
أطلقت
المنز
##cy
بصفة
##",
##سف
تفاعل
رو
ميلاد
##ذاء
##ينه
المنصب
##لسة
شارل
كباقي
الدليل
وجهة
الشؤون
##وعات
ماد
لنفس
الطالب
رحل
الهلال
الأطلسي
خيالية
##صا
أتل
المقت
يمتد
اختلاف
كاز
فاست
##ايت
##قتين
إنها
العاملة
فيروس
زراعة
الحماية
الزاوية
##ارتها
خارجية
وجاء
الجودة
ab
بشدة
لاغر
##كروسوف
##ابهة
الميت
ميلان
وتحديد
الموظ
اللاعبين
##ـ)
بود
##غرى
pol
الأفكار
الناتجة
المالي
##هلة
السوبر
##ضمار
التحليل
##صابات
##ئاب
قضايا
مستشار
المصابين
##قن
##لاحقة
##كروسوفت
الأسلوب
##كاك
المتأ
التجارب
##طيف
##واجهة
توجيه
هندسة
الرياضة
المهددة
##كنة
##رسون
00/00
##ata
##يلين
يدل
التقدم
us
الحاضر
##روز
القطب
تام
##ert
##هيئة
ضخمة
##old
##موي
##يلول
الروا
داود
موسيقي
(0000-0000).
الكم
يأخذ
والثقاف
##حدر
الأهلي
وسيلة
##ذف
روك
المعادن
##نيفة
وقامت
تحوي
كميات
أرب
##غني
الفكرة
لدراسة
أنمي
زاد
الإق
نال
##وجي
تبين
##au
أبن
##ستاني
أحدث
##af
بفضل
اللقب
الألوان
##يله
##صفحات
##غلب
##عمرات
بيئة
الاقت
شن
(000)
أتباع
الفيزيا
ونظ
##اديث
##وحات
##be
فيينا
لتصبح
ii
##أبطال
شجرة
هارف
أدوات
##رؤساء
الصخور
ضو
سلالة
بجائزة
السباق
##ru
للبن
لاغرانج
اليمين
منتجات
##che
خش
##تهما
وبدأت
المضادة
(0000–0000)
##وبين
البخ
fran
نشأت
امتداد
فؤاد
القنيطرة
##دام
الفلب
وبسبب
##طو
هرم
طلاب
كونغ
والدها
يوميا
##oph
وعد
القاسم
##ويج
##آثار
وبناء
الشامل
##ئل
بيتر
الأسد
نيسان
الأصغر
يلت
##حيث
##بداع
بمحافظة
الهات
تواجد
مستقل
##وفرة
تقت
يبقى
وتطوير
جب
سو
تلق
##عمان
الرحم
عامين
##باني
بطول
وفيها
##فعال
شؤون
##ase
المبكرة
ماس
الشديد
أقسام
##برمجيات
الملوك
الأحزاب
##قاطعة
تعرضت
لقاء
السنين
القرون
والعمل
الكيميائي
غام
##راءات
أمل
##أول
بالتح
زيارة
سيطرة
سوري
التعلم
العضلات
يتمكن
لث
الخلافة
بنفسه
أظهرت
النوم
نقد
الأجسام
الكمبي
المعارك
البرج
والاجتماعية
الفضل
المقام
##لوف
أيرلندا
"''
روت
المظ
كجزء
كونه
فترات
##فتاء
##ations
##ضمام
قرابة
الغلاف
ويعتقد
؟
##ستها
سوريون
ولهذا
##فيض
بيس
درب
فتاة
وأما
هامة
مغاربة
لكون
التقويم
التاريخي
##معارك
الاط
الأما
كونها
النارية
تجعل
رصده
الأسباب
للاتحاد
##تهرت
##امع
##يتا
##ولان
##انيوم
##ملح
يجيد
##aw
##اسيا
##شرطة
##0000،
المار
الانس
احتلال
بوصف
وتستخدم
##راقية
##لفزيون
##lin
الثابت
##مولة
هشام
قراءة
السابعة
##شان
يث
الأردني
المشاهد
##الحة
##وائف
##اهير
العادية
##ـ(
عرضت
شرقي
الاول
فضل
الأسواق
حصول
الانتق
المدير
السوفيات
المغناطيسي
##ax
##واه
##بريد
تغطي
رين
الباحثين
أوراق
الجان
##هادات
البكتيريا
مريم
الأدبي
##جزيرة
حبيب
رأسه
حينما
##فعية
اتصال
ارتباط
الرشيد
##to
إعلام
00000000.
كلما
ملكية
التنفس
السياحية
##ندو
##ix
الاف
الإخوان
بلدان
وتبلغ
مسيحية
##اضرات
##ره
حياتها
##tr
وتف
الجامعي
رضا
اليسار
##ابون
الغز
سلمان
الجهد
no
عمي
##ابرات
الفل
##رقة
##دمج
باتجاه
##سياسة
##وزع
مذ
جميل
احتمال
مصنع
المشر
المعماري
##راثية
طارق
تتعلق
ميدان
مدرس
العاملين
##ليك
##هايو
أوغ
النتيجة
ثل
##شعار
تموز
فحص
يعرض
##رجي
##port
##فاضة
بورت
عادل
نجاحا
لاستخدام
we
النقاد
ازد
حاجة
صيف
العدل
والتع
داني
نخ
هيكل
يض
البند
المساجد
يسكن
حديثة
مشاريع
أيدي
المراكز
أحمر
الكي
##شيغان
هزيمة
##اتم
##زيل
تاف
طرح
نجح
##قراطية
مارتن
بمساعدة
الأجنبية
نصوص
المشكلة
##والد
مناص
باول
مطلع
تجاوز
##ton
##وهي
##able
النرويج
##لفظ
بارك
خيال
فاطمة
##تنام
فندق
العدين
يعيشون
##ئك
الابن
كويتي
أفارقة
اقتصادي
##شارك
med
أزياء
جرى
بالض
وعضو
ذهبية
##كسر
##مهور
##وايا
حبي
يقود
لور
قريب
##خابية
##ood
شاب
##ann
اتخاذ
الكلاسيكية
الإناث
##واس
سار
النسبة
إفريقيا
خض
الاتفاق
أصدرت
الهامة
##نتها
رأى
اضطراب
الجهات
مكافحة
##زيج
سفن
التطبيقات
الاستعمار
##ئمة
الإب
الكمبيوتر
##00)
##سيسكو
أنشئت
سافر
الوعي
الثامنة
الحدث
مبكر
مؤسسات
##مسلمون
مشتركة
ap
##خبات
غيره
car
جرت
لمدارات
الوحدات
لتلك
التفكير
الشاب
لمداره
إق
##أنه
وجي
##زابيث
سلوف
##خطوطات
دراجات
تري
وتسمى
الأسبوع
وعم
أجريت
التصويت
مشاهد
وتوجد
##ect
##وديو
##yn
داع
ستار
ملال
وتخ
##حوث
لمنع
محركات
##فص
##ros
##صيد
##واحل
قصائد
##رفي
##فرد
للجيش
إنتاجه
كاست
##فيا
وأحد
##نزاعات
صندوق
الفارسية
أقوى
شو
وتضم
وليام
هاري
متت
نع
وكي
الاب
الأسر
السط
مساء
المعالجة
##وقد
##شآت
أقام
##كندر
mpo
سلامة
##البة
##ادور
الجرا
##قدام
قوى
##مى
00.0%
##ica
##ناها
كرد
##فلاسفة
رعاية
الشعوب
et
00:00
##انك
##حوال
##عمرة
الترجمة
الوزير
التكنولوجيا
ثانوية
ونتيجة
ضابط
الشارع
السياحة
كتبه
تشخيص
حقيقية
الخضراء
##gy
publ
المرة
باليد
التسمية
ويؤ
وبشكل
بالاست
والأخ
أعلام
هج
الظاهرة
نباتية
المناعة
المسب
محدودة
الزيتون
أمو
اللم
##سوف
##وروبا
السح
الطبقات
##قتصادي
الغناء
استن
الباط
الأموال
بريطاني
المهم
جس
##طوان
).
ليل
##ظيمة
أمثال
##ماري
هرب
##رهابية
طهران
ولل
##وسم
والذين
الطوار
الشعراء
##اضل
ايضا
ثلاثي
الوهاب
البطل
ذاتية
محدد
موطن
الذك
##ضور
##يفر
##كرم
دن
وكاتب
الصناعات
بالتعاون
##روري
يجري
هنالك
مراقبة
ألمانية
رأي
دعا
تقنيات
زع
المهندس
##فنان
##خصة
##ائقة
##.‏
داف
جريمة
إضافية
##حاولة
أين
للحكومة
##كاس
كتبت
المتوسطة
فب
##خيرا
##وحنا
بالمس
يجمع
ومر
والان
مانشستر
لنظام
والتص
##ستين
##وضيح
00،000
##ؤال
نائ
قصيدة
##ويف
##غراض
لحقوق
بشر
##فاوضات
النمط
غض
انتهى
السع
##مض
واق
الخز
وقوع
تحالف
يعاني
##ئيات
بالز
ممكن
##وبرا
المصن
##ماس
ودي
المسافة
المستمر
##أر
##شتالة
جنبا
##مادة
حزيران
##فيت
##الط
##يدو
السوفيتية
##احات
لابن
قاموا
##عسكريون
بالعمل
ابتداء
مرتبطة
##جنب
مميز
نوعا
##ويش
فاع
الصهي
سح
##اكيا
##رابطة
للان
##0,
اخر
سوء
##خان
##ماة
وكن
جبهة
سيرة
##أثر
الخصوص
##لياف
يشارك
اقتصاد
##ms
##ريع
##دوية
##قيمة
وتب
stud
مظ
أخر
حمص
تنتشر
نسخ
لحماية
##يلاء
##كاثر
باخت
حرة
فيني
الفرنسيين
حكا
الصلب
بعدة
يرتبط
##جزر
برك
الأسماء
الصوديوم
##روني
ماج
البحيرة
##تحف
والمؤ
##ward
مجدد
##ild
بالأس
الأنسجة
الصوتية
اقتصادية
صنف
الغزو
الوك
قابلة
##لافيا
لعدد
كثافة
معدلات
تعليمية
##ash
##org
##ليمة
بالذكر
قيل
مؤخرا
المعدنية
##عتين
خنيف
##غد
عثر
الارتفاع
##ke
قريبة
وقتها
##لفت
ونا
##ديلات
##bs
##سبرغ
أوت
ونقل
##كرار
مسألة
الإح
التلفزيونية
النظم
##ركبات
ويلز
سنتين
بتع
قديما
الساحة
ثابتة
وخصوصا
##روعات
الحرف
بدرجة
ک
ذكره
بنظام
بوضع
تايم
معايير
الكاملة
##قيقات
##ؤل
خنيفرة
##عيان
الصار
##جها
طرد
ينظر
دستور
والثاني
لز
مسلمون
والعديد
الهولندية
ديزني
راشد
الأفريقي
يصف
يؤثر
الإقليمية
##تيس
وظل
تحكم
الراحل
ببطولة
هارفارد
("
per
##حوادث
التعرف
الزمان
##col
غزو
مقات
الزيت
تزوجت
##روائيون
البريد
الهادي
##طرنج
للث
##عمارة
تولي
البقاء
بإنشاء
اليوناني
شراء
السما
تستعمل
فرانسيسكو
الفائز
قرن
حققت
سفي
سور
المتوقع
المساعد
وجز
انتخب
والتر
النسيج
الأدوات
ريك
عمه
الالت
تنا
ويعمل
##ضبة
القواعد
أنس
كافية
والات
##احبة
مالية
##att
تدفق
الميز
فرج
##ربيجان
الكال
بدوره
القذ
وتبعد
الممتازة
لإن
الليبية
##لفه
##تيار
الشافعي
##ger
##ميه
##اميرا
إصابة
##صرة
كرا
##رعاية
باعتبارها
##كانت
اختصار
كح
##بعث
ظلت
##ca
##قوائم
العباسي
للولايات
##order
##لقاب
##زيون
تربط
##قاعد
المناسبة
يربط
##كاتبات
##ict
سراح
البروتستانت
إسحاق
محطات
البكالوريوس
##حه
مماثلة
التمييز
العدالة
##oci
##بيان
##ohn
سع
تيار
##قمار
اقترح
الدخل
تصنيع
باستثناء
##رويد
أبين
روي
ويكي
##شيا
الترب
حيوان
لبناء
##ذان
عرضه
منتج
##ans
::
ناق
##gl
ولو
الأمثلة
##أبو
فعلى
الذى
الخشب
qu
كريم
يسوع
##ظهار
##ــــ
خطط
##لتا
بعث
ميكاني
##ott
الزم
##سرائيل
التحت
الطول
##سندر
برم
الوظائف
نان
تعطي
غادر
النشر
مركزا
وكتاب
ليد
غولد
لعدم
##يلو
##بارية
##ماض
كع
واسم
لألعاب
##ve
خوان
##يتو
##ount
##ضرورة
نارية
##غور
##منية
##منطقة
##يتس
منصبه
u
روسي
قنوات
الصغرى
ميش
حديثا
##ree
ودخل
تكلفة
التغيير
يابانية
كوميدي
##وزن
##ومه
ge
dis
أود
وهى
كتبها
المنخفضة
متزوج
##وليد
الكويتية
المعمارية
التعريف
الرقمية
تخص
الجذ
##فري
جابر
للمدينة
##صلات
السور
مبادئ
الشهيد
##اهي
كله
لدعم
المستقلة
##لحين
الخير
##ممة
##left
##ريجي
##ريضة
كلام
##raph
جودة
إدخال
##انتا
ترب
للمت
والمص
تعليمه
##طرت
ملت
أشار
ثنائية
tra
يخرج
المجلة
##ودانت
مخطط
york
comm
مركبات
history
اغتيال
##وقيع
يتمتع
تاريخها
##عوة
بنج
رسائل
وثيقة
##orn
عالمي
##ism
الشح
ويجب
صعوبة
##ابقات
جيدا
واستخدام
الفلاح
قابل
وزيرا
عائلته
آدم
باف
بنو
والثقافة
الرئة
والأح
أسابيع
الحلفاء
الشعرية
البرمجيات
طبقا
فاي
##ارن
تذكر
إثارة
الأوعية
تارودانت
##ron
المعارض
##ورز
فش
ديم
##القرن
تمام
الجدول
##نيد
كرب
كبرى
##تلر
##ظبي
وعاد
المطب
عادت
المنازل
##لاي
أخذت
مدين
ويسمى
الروايات
حت
جوج
القانوني
##ater
لدرجة
والتج
الوجود
منق
سريع
مغربي
النقاط
يتراوح
الوزارة
##ient
تعز
الخيرية
##اها
##فيلد
التعرض
##ودان
الشخصي
بتقديم
##بطية
الخلفية
التدخل
الشيء
##ضرار
عشرين
##وتة
##ديسون
وعلي
قشتالة
##يص
بوسطن
المضرب
##ينيين
العادي
##مرد
ند
غياب
مرس
أعيد
##زما
السوي
وتخرج
الكاري
تلفزيوني
##واتي
أثبت
فنية
الفردية
##يلات
أبر
كوري
##ـ/0000
الحوار
البروتين
can
الأعظم
اليمني
##حوالي
المهدي
##جرون
ديل
كاي
غاية
عشرات
##حلول
سميث
السكن
##ونخ
مسقط
عالميا
##كره
##ien
##هاجم
##وارز
لنقل
الكات
الماضية
إيجاد
الإصدار
الكاثوليك
##فراد
صراع
يطلب
التسجيل
حصار
رياضي
هر
الصحيح
خطأ
بينه
الحركات
##طم
جميعا
التحقيق
##ونسو
بتر
##هرية
التسع
أساليب
##كمون
قضى
ألفا
خلفي
الترتيب
فضاء
للمي
القائم
##وطنة
ورو
عنهم
مولد
##صدارات
انتق
للملك
المخابرات
الليبر
للمعلومات
##كتوريا
##-000-00000
gu
والعالم
##ضات
##du
شير
الاخ
المنح
##مرات
المعدة
##زيف
سنغ
الفط
وتعني
حظ
##ياكل
يفت
##قود
صربيا
الأعداد
والولايات
##iew
فيهم
يناهز
والدته
متعلقة
التجربة
بالمدينة
الجريمة
المعاصرة
##يدي
قم
##لاجئين
##لاعبات
إليهم
الظهر
العاص
المخدرات
##ثا
##عان
بيضاء
##بني
##ime
ومي
##سير
منخفض
شا
أدوار
الساق
للحزب
لتأ
بعدم
إعطاء
عملها
أثرية
الكواكب
سكر
يشغل
000.000
##pro
##عارض
كوين
للحفاظ
تطبيقات
##الو
رحلات
الفئة
استقال
الإيراني
الموقف
الانتقال
cont
النفا
##سه
##ديانا
لاحظ
لانت
وتقوم
ريو
الدفع
المجاهد
الجسيمات
المقدمة
ترج
والو
##ينتندو
مكونة
متوسطة
نماذج
مائة
العامل
المقات
##ياغة
مهام
العادة
##أشعة
ورق
بتش
جنيه
##سبانيا
##طوع
فقر
##لاقية
والتنمية
##رواح
يضع
وبالإ
المركبة
الأميركية
الفرس
##.)
##ick
قررت
##بيات
##ندسين
لمجلس
يتعرض
بنى
الهيكل
الأمنية
##قيد
##وسين
##0.0
##فالات
أخرج
كريستي
الدراجات
أصوات
خياليون
مقاطعات
بوك
محسن
عرقية
##ريعة
أمه
بالعربية
##ذكورة
المعايير
##معاء
##ومين
art
سبي
لتطوير
##ندونيسيا
توفيق
##ستن
الاق
أبواب
المقاطعات
الاغ
بوكس
##ديين
استقر
الفلسطينيين
##رومان
إذاعة
ملحوظ
علامات
إنش
غربي
لقي
اخرى
الرئاسة
##مبراطورية
المحتمل
المهاجرين
##vel
الكلي
وأخيرا
وشمال
المعنى
##لقي
##وقعة
منا
وثلاث
##قاومة
صدام
مناخ
معالم
##قالة
تتألف
أوك
بمصر
الهاتف
الملابس
كيلومترا
معارك
##سيت
أصيب
يذهب
##دائي
إنجاز
مناق
محافظ
كرواتيا
الجماعات
##هوة
##بتون
بمر
0:00
##ساعدة
محيط
مسيحي
×
ترت
وطلب
يشار
أثينا
أرجنت
البوسنة
المشهور
##یة
##لعت
هوب
المهام
تحدد
الألف
المؤرخين
البيزنطية
عاز
تقليل
##ـ00
وأهم
إنس
ورا
تبادل
رئ
اختراع
الخصائص
سيتم
البتر
تلت
جوية
##فبراير
الكول
اسكتلندا
##هداء
gen
بابل
الإجمالي
الأنا
داخلية
##ندما
فيتنام
بعدد
شروط
##وبول
war
جنوبا
##نبلة
للدراجات
شرك
يوحنا
التطوير
الجبلية
وأقاليم
برئاسة
دفن
الضرائب
ربع
ماساتشوستس
##صن
الحادث
##وريس
صفر
لفظ
ويعرف
متخصصة
الحرس
المطلوبة
يوفر
الضباط
زيت
ومش
(0.0
الجسر
صاروخ
باري
يشعر
##كسل
الباردة
اليهودي
do
نيك
الأدنى
الألمان
##واض
##اهدات
##وغواي
يحدد
درع
رون
نساء
شين
ووصف
الحيوي
حقل
:0000
القارات
خب
تقارير
الحراري
##جح
##ارئ
فرح
قيس
ريف
المراحل
نيجي
بئر
قتال
تشتهر
النحاس
إمام
تأثر
##يطاليا
أكد
##وكة
شاهد
البطن
مواطن
##bl
##ودو
لتر
بدورها
cr
فرا
جونز
الخرط
وبالرغم
البرتغالي
##pen
##مبان
العمي
الصعيد
##حياة
تلف
اعتقال
البلجي
em
الهاش
مفتوحة
صب
##فيلم
الغرض
الحصار
##اردو
جيف
سرعان
الجوائز
##كاديمية
الهادئ
##شيط
منس
للعديد
##وضة
جوانب
والتاريخ
عضوية
قبرص
##انم
##قرى
براون
أون
##املات
واشت
المنق
##بالإسبانية
##يده
شائع
##ثيوبيا
##خبارات
محاولات
00)
##شال
##حدود
مروان
mod
شريف
الأشكال
الفكرية
ag
##ديها
يهدف
intern
##iel
##يرس
ميونخ
تكنولوجيا
بيتا
العاش
للدراسات
##ؤوس
##أحزاب
وعين
الأندية
منشورات
ومه
الرؤية
بته
ميث
هونغ
الكبار
المزارع
##قابل
##نسية
جلال
تحولت
##موا
##اندو
##مسيحيون
الأصليين
##rans
فرص
يتجاوز
التشخيص
المطلوب
##اصلة
فانت
ياباني
##راقب
جول
انتخاب
##ادرات
##زمات
##وتين
البرازي
فنون
منفصلة
##قدرة
فرس
وزيادة
القادمة
التغذية
##قدار
مجلد
الرصاص
لأسباب
##كاب
المتخصصة
ده
داي
للآ
الكحول
ثي
اضطر
##xt
فرط
الأحد
الطراز
americ
##ائيل
##وامر
مفتوح
##ديف
روج
الصلبة
الدراسية
عما
تجارة
مشابهة
يكونوا
الرسائل
إك
ياسين
القليل
باعتباره
##ذات
متع
الاش
خلفية
كارول
النبوي
التاسعة
المتظاهر
القنوات
##ودور
##سيطرة
الوص
أشجار
حكمه
المرح
الهوائية
##زيارة
##جيال
##ضائع
يمنع
محمية
الدرافت
00/0/0000
0-00
مرتبط
المنافسة
##لسي
البور
الأمريكيين
هتلر
للوصول
تجري
تسعة
تنمية
جميلة
الأيمن
##وزان
الشف
تتمتع
الأتراك
الإجراءات
##أهل
طابع
##صت
##بوس
ببناء
دقائق
الأيسر
تعيينه
فعالية
اه
لض
للطاقة
##حض
##فصل
pp
##.000
##اندي
استبدال
ربي
##ماثل
الميد
مقياس
الإيمان
حضور
وامت
مهندس
##جدية
تردد
نادر
هاشم
الحشرات
تاج
النواة
##red
##ريجيا
العيون
حماة
قبول
مناه
المنصور
للتعليم
شرطة
##صدق
##ther
وبن
المستهلك
زار
شرقا
باسكت
##أحداث
آذار
للانت
##يرها
واخ
الاز
حاسوب
##طنط
رواد
يدرس
والهر
##طفل
##قاش
##وارث
00:
##لسطين
الخمسة
لمجموعة
الجاه
##طاج
تركز
##اخرة
die
الاولى
##ليج
##ربات
الصعب
الفحم
عددهم
##ائيا
غرف
مذكر
مستمر
التفسير
##طاعم
بمعدل
والثانية
اجل
##ستردام
##حسن
##ئه
توي
رموز
زواج
السلم
##ous
فخ
وأد
خروج
البحار
بسيط
##رجانات
##سس
##مش
()
جلب
volum
الغدة
الاعتراف
جملة
ومعظم
يمارس
أهالي
القتل
الحساب
الكالسيوم
##لر
مسعود
##غون
جه
رع
لفت
سيناء
السج
المعرض
لمست
الرئاسية
شب
باع
يوغوس
المؤقت
##راوية
تدعم
سورة
المتقدمة
##منتجات
سنتي
قدرات
الفرصة
##نود
إلغاء
لإعادة
##وقيت
التنفيذية
المباريات
مساجد
##ياف
كينغ
المناسب
##مارسات
المعارف
المقالات
تجد
الثم
المعالم
خز
بلغاريا
tr
##ماليك
تطورت
المحطة
بطولات
لعمل
ومنت
أعقاب
الصواريخ
الثمانينات
سوبر
##بدل
##نسون
نابليون
العثمانيين
الأدلة
المقابل
##ta
لتخ
الخش
يتناول
خطاب
البطولات
##تك
التحتية
زك
##بيقية
العاط
بدايات
نينتندو
##يدين
تأخذ
التقارير
أحكام
الكام
كفاءة
الثوار
الحبوب
##عدين
توحيد
أطراف
##مدد
متفرج
الحجاز
للنساء
أبدا
الجس
##وريين
ويعود
##برد
##طلع
تقام
درعة
قوله
طويلا
أفريقي
إلينوي
التقنيات
##يلندا
ً
##نيس
فنز
عمرها
##بالأ
نفوذ
الموافقة
##جأ
##مراض
تمنح
العي
النهار
العقيدة
##ياح
طولها
##برج
لاب
##اقي
##طيل
فأن
##احتها
اكتشفت
##لسفية
تقي
السلع
##ثرت
أنصار
ويقال
مايكروسوفت
مخط
للمست
##pa
حو
دل
##قطاب
احد
الثدي
انط
نون
سباقات
إحص
للكتاب
مكونات
المحاكم
مديرا
البصري
المائة
##يمون
يعملون
##تحار
قبيل
موجة
##دمشق
##قادة
آخرون
##يرت
##قوس
##ution
بكال
حروب
أهلها
السوفييتي
##طلة
سحب
القوم
استعمل
أعط
يونس
باه
بيوت
جدول
تجميع
لرئيس
##افلة
راي
لسب
##وفيتش
ومصر
المطر
الحارث
انفجار
##تيش
##هرس
عمق
النجف
المرشح
##زياء
لود
الأسفل
العدوى
##قدير
##فانيا
الخروج
وأب
الهرم
##راها
##ادلات
وقالت
المؤمنين
q
نادرة
الحقبة
انتصار
##ren
جذور
سرية
السكري
##ors
شج
أثار
الضخمة
دورات
غالبية
المحركات
##ana
حلف
##افورة
أداة
ليلى
للدفاع
وتاريخ
##ربت
الخرطوم
##ces
حوله
وتعمل
##uro
##لفيا
وفرنسا
الطوارئ
##آل
##ank
##ريرك
الصلة
الوثائق
##ins
مرج
##فيزيا
ماكس
##كامل
بيك
##الدين
السين
المعبد
##اتا
حن
الكوكب
الانتهاء
هكت
للبحث
انع
وإعادة
وتقديم
السريعة
##جامعة
كوس
##وشي
رؤساء
مركبة
كوت
متخصص
ومنشآت
##حروب
اعتبارا
الأوكرانية
رياضة
تتواجد
##ردن
أنتج
تبدو
ودفن
الفات
##جهات
أزمة
ترجع
تخزين
تربية
ووفقا
##bert
مند
أسرع
للغة
الشبكات
المباشرة
تنقسم
##form
##غت
##رشاد
##أمراض
مضاد
##سائق
بست
حادث
لحم
##ame
الزعيم
فما
يتواجد
شح
تمثال
واجهة
الفيدر
حصن
نواة
وقدم
ويرجع
روى
عقود
أيلول
عودته
رعب
فيزيا
##ضمت
خبر
خلاله
فلسطيني
##دمان
التحول
لإدارة
عنده
ذاتها
القادة
##وازي
نباتي
ميشيغان
##عمدة
الهم
العباس
##رائيليون
أدب
هجمات
الاختبار
أركان
هندي
الجغرافي
أنتجت
الملفات
##stem
تشيلي
المادية
وأحيانا
bar
وور
بابا
ويظهر
وكانوا
##وضاع
الرأ
أبوظبي
السفلى
الإرهاب
بنس
##يلالت
##مجموعات
معاوية
الموظفين
العج
فلسطينية
##انغا
##زملاء
ويتكون
##ابير
للنشر
##يسوتا
وجمع
##ضال
ساف
فلك
مكانة
الأحكام
بمه
وتو
لوجود
الدهون
»
خور
الورم
مخل
خريطة
المدخل
أولمبيون
##اكهة
نمس
غرين
ألوان
تجارب
تواجه
تاريخه
الساحلية
##fer
منازل
رجب
وول
للمر
انتشرت
البروتينات
##كيميا
تحقق
العنصر
تدريجيا
##00%
##نام
بالاض
تمييز
البخاري
##الر
نيف
الذرة
مسح
##صدقاء
رف
سعر
يتألف
الفرعية
##خيل
##اكاة
اشتهرت
المذكورة
##sch
##وبان
وبها
إز
الامت
القمة
المنط
اجت
يورو
مميزة
##سيف
##انين
##قلعة
##ونيون
هيدرو
##جرد
كش
0.0%
حامل
يعلم
الروس
ويأ
باير
بكأس
0,000,000
تسب
##لبنان
الحكيم
الزراعي
0،000
الفتاة
##عال
مثلت
ind
الجاذبية
نصب
بنشر
للمؤ
##انز
##سلي
هى
ضرورة
ويحمل
##فقه
الاتفاقية
امام
تافيلالت
حمزة
فقام
محور
شبكات
البيزنطي
تعا
##ئيل
صحية
الخطر
الهجمات
##طوانة
إنسان
وجميع
الجهاد
##ريطانيا
##صحاب
الصرف
##اذا
##اضرة
يهودية
الشوارع
##هيد
--
##ربول
دمج
##wik
##لاغ
##طعمة
##سائقو
وحيد
الديانة
##والى
##erman
حميد
للتق
المسائل
تونسيون
##خصية
صحفي
##اسك
حدد
##كاملة
كاري
إسم
ستكون
المسار
كونت
العاب
الأزمة
حزم
قرون
لأحد
يترك
del
القوية
وفيه
وإدارة
البسيطة
الصحابة
##سبير
##طنطينية
لبناني
##كيت
مضادة
ملاحظة
تجاري
إمارات
الآلاف
بلديات
بالعديد
أذربيجان
pe
علا
الأدوار
الكندي
##هى
جدار
وحسب
المحافظ
والخدمات
##قصص
##ظهور
##وسيه
صلة
ومل
الحجاج
:*
المول
بأمر
الشعور
كوميدية
اضطرابات
##ex
##خوذ
##دمر
##قاطعات
توقيع
الاعتبار
##نتو
البال
المخل
الصادر
الأجانب
##باين
بولي
والتش
ودرس
الويب
قتلوا
الكومي
مقابلة
وانتهت
سمح
وتعرف
العقلية
##ونسون
سكوت
air
mon
مسيرتها
المدنيين
مكعب
مرتبة
والإسلام
##يادي
أري
السبت
عمران
الأولمبي
الرم
يقيم
##فرنسيون
الفلبين
أمتار
معتمد
والمش
معظمها
شاشة
لوصف
##حين
شيد
بمرض
ولعل
000،000
##ock
##وقفت
هذة
##ديرا
الكروية
ضمان
الاند
والصح
الجغرافية
##فسر
ترى
للتص
مشوار
الشائعة
##كز
عرش
يعادل
جوان
بأكمل
عندها
بنحو
للعب
##صيل
##قاق
##مرين
الانح
سانتا
سعودية
صواريخ
##(0
فلسطينيون
##واك
##داقة
دام
000,
تايل
العكس
الجولة
التشريعية
لاف
سج
##ابتن
بقيت
حارة
هدفا
الاعتماد
##طبيق
##قالات
##بالغ
البث
ترجم
اللقاء
البرازيلي
المركب
الأحوال
الإعلامية
ونادي
التوازن
##كتبة
##نانة
آلية
شريط
##موسيقي
العشر
واستمرت
أنغ
##أطباء
كارت
المبكر
يصدر
الجراحة
##lect
##ترات
##متدة
الير
سوني
مهارات
##اشات
are
سيطر
الكوم
ذاك
عهده
بالتالي
##رجاع
يكت
##كافحة
للبي
تعاني
معامل
للبلاد
وبالإضافة
gr
الحضرية
##كك
##كرا
القبيلة
مشر
المشاة
ماليزيا
##فرق
##الته
##فلون
##ينيه
أسي
إيرانيون
يحب
افتتح
عمالة
الغرفة
المدرس
النسبية
##واطئ
دقيق
فمثلا
##بيد
خلا
قصف
بنات
الباك
العائلات
جاي
جوني
مجددا
اللاحقة
ومساحتها
##وود
##ملاكمون
كارلوس
وجامعة
##ظى
##سمة
ber
بضعة
أوهايو
يدفع
إسلامي
بدعم
الطيب
والتأ
والأدب
##رادو
##روحة
يواجه
##شور
spe
شدة
##بريدج
حسني
أمامي
الجليد
لتحرير
##''"
##ينج
rev
تاب
يوف
مذهب
القرارات
##let
ولاد
##row
##ماه
بخط
سامي
لتقديم
##وارب
اصط
المأ
min
شري
فرانس
الليبي
المعلم
ثلاثين
##00000
بعثة
##علي
سنت
للأن
إلكترونية
##ارعة
##ريته
##مصطلحات
##ثف
##طلاع
اكتسب
المئة
حركات
كد
##اسيون
نوعية
الهوية
ومات
الجدار
امتصاص
وعشرين
التقرير
المدافع
بطاقة
مرتفعة
##كى
##طوي
أولي
##علانات
##رارة
##سيحية
##افل
ass
##دعى
##راتيجي
انقلاب
##لطان
وافق
بعيدة
وغيره
مطر
الشاي
الحوثي
عددها
##فرغ
العز
طائر
الكورية
الوسائل
##led
يحقق
##برع
##كررة
داك
عثم
مبلغ
ناسا
مناصب
أحدهما
السرية
##eg
شق
ومثل
الاستعم
الحديقة
نفذ
الإضاف
لإنشاء
ومنطقة
الصومال
تدل
الورا
بكثرة
باللون
جيب
مقدم
##لحان
بحري
والجنوب
##ose
##ركت
##فيزياء
الحاسب
تاريخي
##ound
جناح
الشاه
معارض
برازيليون
##ددون
##جيرات
ورقة
السنوي
البرلمانية
نجيب
هاما
الجيوش
الثلاثي
العر
عظم
الشرعي
##فورت
هور
المميزة
##ondon
ستان
عرضة
السكك
القياسي
الممثلة
الوكالة
إدريس
الاكت
رجلا
الجنين
بدراسة
واللغة
الدوائر
##
احتل
يدور
باستمرار
##orth
##ضاءة
بدقة
##متلكات
الزمني
الإجتما
##قان
##عدات
جوجل
الشرك
الريفية
##ديقة
شكلت
المشاركين
تعت
متس
ثقافية
العملاء
##ll
الفصيلة
##كيك
والفنون
0-000-00000
##امى
مسلمة
التناس
الشاشة
##ليوم
مزدوج
مغامرات
المشهورة
سوفي
يهتم
الجلي
انتاج
البولي
##ette
جذب
##مراجع
الفضية
استمرار
(0000-0000)،
عظيم
الثقة
##ايل
##ناعات
بحكم
العيش
الليم
##لادلفيا
مغني
وعالم
الآلات
راك
التلف
ميلادي
وبحلول
##itt
##غازي
بالمو
الصحفي
الموجات
##اجئ
##رابي
وحل
للات
مترو
شم
##اردة
##جابي
سات
الامير
والعربية
والمجتمع
دعوة
##مدافعون
لزيادة
والأسود
تنقل
أمستردام
كهربائية
شملت
##مناطق
الجمال
فني
زميل
وضعها
القياس
إتش
##وافقة
الأرجنت
الحاكمة
##راط
سمير
التسعينات
تسع
دال
##صاري
برب
داء
ذاكرة
والبل
وأثناء
الزرقاء
الصادرة
##قاع
af
جاز
خفض
قلة
john
##دامة
التغيرات
آية
تحيط
منطق
كلاعب
##ance
##عداء
التقى
المكونات
##اتيح
والتس
بارت
العمود
الميناء
حيوانات
##بث
يؤمن
الستة
الفور
ينتقل
الفرسان
المحترفين
##تيان
أندية
المهاجم
##nal
فعال
##ograph
المقص
الألياف
##صين
##اهية
تعب
دوره
##of
##bur
##ديك
بتج
بوابة
بوينغ
طائفة
الحروف
##ضباط
لجامعة
والنشر
##دلة
هاد
الرو
الآلهة
السياسات
الاستثمار
##صلا
##هيئات
يقومون
الانفجار
المعلمين
##عوبات
باحث
اللام
تجديد
الزوجي
المحتوى
##روعة
##ولون
ويز
زياد
الإنجليز
أيار
##lie
##ليو
سيدة
عمود
وارت
الأفضل
du
##-00.
وتك
##لتين
الجه
كوست
وعمر
تفاصيل
##نجر
وري
الحكومات
بوف
مشهد
أولئك
الفساد
##موح
جنيف
التقسيم
دوغ
شام
##رادات
الطفولة
المتاحة
##ara
##ادو
منط
##فتح
##ساطة
التنا
الصاروخ
الدستورية
##راكة
مسيرة
التخلص
تخطيط
نائبا
الجليل
إجراءات
##mer
##ember
أدخل
وينت
أخيرا
توليد
##زاز
##طاف
الحن
ضباط
##ورانيوم
الاستش
الهندسية
هلال
inter
وخارج
##سيد
تفت
حدة
الثقيلة
المسرحي
للميلاد
##ضعاف
لمت
أمور
تتمثل
ستيفن
والبح
بآ
تسليم
والهرسك
المشي
##رادة
تشارك
##روت
##ذاهب
##ley
الخس
الحاد
##رحت
##وفيا
الأض
محفو
يجوز
الصليب
أرمينيا
النازية
استهلاك
المخاطر
##وده
تجنب
المسابقة
##سلم
##نيست
فكر
لحزب
مؤشر
السائد
##ارى
بوز
بغرض
المور
خلية
##ودين
##وقية
gre
##لاميذ
جنوبي
المراه
توسيع
الانتشار
##ليها
بجوار
##وقاف
تفوق
تهديد
سوداء
المرور
##شاكل
للتع
الفرات
##ينين
##(0000
حولها
سيدني
الثنائي
وأخرى
وطني
##خن
##إلى
الثانوي
الغازات
وأل
##زيغية
000–
يبحث
الخميس
##وتية
والمر
فاروق
00/00/0000
##دور
##وتها
أمثلة
إندونيسيا
أقر
الرد
لفئة
إشراف
يمكنه
##نيك
##ons
##كتر
ma
إش
جوي
عموم
##ثالث
##صدير
حار
ضوئية
المشرق
القرنين
##لاقي
بحوث
بنجاح
للمرض
##بادل
##طيات
غريب
اعمال
##بغ
##ement
الخطة
خطيرة
جماعات
تنتهي
للمرأة
استعادة
##زز
شيوخ
الكرب
##0-
##اسيب
##قلين
لعملية
##ise
ملكا
أبرزها
الأصفر
العبيد
اجتماعي
مراجعة
##هروم
بمست
حوار
##مغنيات
القرص
والبحث
وتتميز
المساواة
##ull
##وتشي
وتتكون
للثقافة
واستخدم
ثق
##واحد
الحصن
السليم
الشهادة
عج
فد
غاما
الأرز
والثقافية
بفعل
الركاب
الجانبية
السوفياتي
مصف
تصنع
تونسي
ويبدو
##حيل
##ويبلغ
الكلى
لكتاب
السويدية
##تع
##gen
##قراطي
يعبر
ترشيح
والشع
ويج
##قاعدة
مولاي
الاعلام
فيكتوريا
##gr
##زامن
ولايات
جعلت
بالولايات
##مادا
تصف
##رسالة
##منتخب
بكالوريوس
##اقب
واب
واقت
*0000
الحلقات
المستشار
##iam
##ius
##كتلندي
السبعينات
##ورس
وطن
وجيزة
##انيت
كانا
##منافسات
##ha
كسر
##إي
##موض
كيميائي
وعب
قريش
الإشع
مواقف
الجزيئات
الميدالية
not
استئ
##دن
تير
شبي
استغلال
مغربية
أرك
طيار
فلسفة
قانونية
سيس
صفة
أنشطة
النسخ
الأرقام
والسياسية
ضخم
كيب
##لاحظات
القوي
فردية
##طهاد
##ep
##باغ
##وتس
pal
أظهر
الساخ
تعادل
بلاك
شاطئ
دقة
غربا
ونظرا
إليزابيث
##مخرجو
الشمسي
القذافي
محافظات
الفحص
القمح
الفقيه
للنظام
الإنساني
##سيب
##ates
##اسيوم
##ينيسي
توقع
اختار
وتمكن
اذا
أسهم
طيور
نفسي
حيوية
##كتات
##وستن
تراجع
وأحمد
المدرب
المسلم
الشيوعية
القضائية
إنما
المريخ
الشارقة
الخطأ
القطن
أحادية
الأسطول
الحسيني
كهربائي
الانتخابية
##igh
##ثافة
راس
فعالة
جامعات
##وسبة
all
الفرا
نابولي
الطرفين
العذراء
الكندية
فيلادلفيا
البرك
##uss
##يرز
سوم
كوني
ملابس
البيوت
بعملية
رومانسية
##انها
وبهذا
صرح
زادت
##قها
ورم
يقصد
الآلي
الكونغو
جراء
سنين
##تة
حادثة
والبر
الحجري
مذي
0-0000
تستضيف
##وتش
البرمجة
الملائ
##مطبخ
##باكات
نموذ
فريدريك
غذ
كلف
##ؤسس
دبل
أحسن
القم
جديدا
المستخدمين
##روضة
بمت
بريت
فردي
فوكس
كندي
الدير
نشرها
الجهود
الخلفي
##شيات
لابد
القسطنطينية
##ford
##اقبة
رحمه
مغنية
وأعلن
يمكنها
ويضم
توفيت
النبوية
الاستقرار
أيرلندي
البصرية
الجينات
##اكية
##سترا
لوف
وترأس
إشب
وبطولة
السر
استجابة
أسلحة
المسؤ
إيطالية
مصد
صفحات
التكلفة
##ضوح
كق
##صدرت
جعله
0000-0000،
باليمن
تتجاوز
جاكسون
ويحتوي
##ائقي
cell
يدعم
الفارسي
مينيسوتا
عروض
مكسي
##اركت
##نسخة
بتهمة
مدنية
السماح
ومجموعة
عيون
كتابا
##رص
دروس
وتمت
تعاون
الكردية
المستوط
##خرين
##يوانية
##emen
رائد
المرافق
واستطاع
الصليبية
والاقتصادية
##فعول
اللطيف
البلدين
الطوائف
##شيما
مرف
التعا
##ولدت
واط
باط
بيته
للطيران
كيميائية
##رائد
يومنا
##فوق
العبد
الفقر
المنظ
الخطيب
##ane
مسئ
للمشاركة
##ماش
حارس
الغذائي
لإي
البعثة
احتياجات
##مؤرخ
اتهم
وحكم
المخطط
##rop
##ونين
للذ
المتحدث
حكام
مهنة
شعبان
وإخراج
fe
جزيئات
والجماعة
##ناشط
نين
الميكانيكية
##عملة
لهما
الورق
ترتفع
للإشارة
##cess
##اعرة
part
ميلانو
أيوب
تصور
شعبة
مستخدم
الاضطرابات
كإ
##ited
##ستراليا
مشاهدة
مدر
المسمى
##فف
##لمه
##مدارس
يحضر
##sa
##زار
##مالا
عصره
يستمر
##ؤدي
##ترام
معالج
ويقدر
##صفة
توج
مبر
اللاس
المحليين
##المس
يميل
system
international
##صباح
إبان
الوع
البيان
الفراغ
الثقافات
النسائية
كتل
##سنوات
تسعى
##فيق
تركية
لضمان
الأسترالي
##ray
##راضية
عائشة
التوجه
الزهرة
##قتال
بداخل
جبر
بلغة
عدنان
##موسيقيون
الجماعية
واث
بارز
شائعة
gl
تحتل
الراف
حظر
##هرومغ
حماس
حيفا
يؤكد
ألبرت
هائلة
مخيم
الأمعاء
القياسية
##ome
ثقة
مجرة
##رقس
##شون
أنور
القوق
زمنية
##لائه
ومقر
##كيمياء
أوقات
الحدائق
الرقص
sup
فلور
هكذا
##صري
##جرات
يفعل
تتحدث
للرئيس
##بيريا
so
المقط
تصغير
لوزارة
##وريت
سمك
أدنى
النخيل
النقدية
هزم
وطب
الإذ
وبما
##كتين
وصح
الأذ
المقرر
ho
رول
صناعية
معي
ليفربول
حامد
مزيج
البدي
المهرجان
##الله
باز
كليات
الذهاب
تنمو
يحكم
لبل
متج
الإحص
مقدار
أشد
النقي
لأغراض
##rist
للاحت
الفيروسات
##ضل
بند
##تروجين
ملفات
التردد
وزوجته
القطبية
تأسيسها
##جرت
##ذاب
##بيوتر
الخم
النماذج
سون
##مائية
يتسبب
عراقية
لتج
يحوي
السمك
العروض
الأنهار
##ظمي
وود
بالا
الفاع
تايمز
خسائر
للقيام
##فران
##لائل
الآش
سنوي
انهيار
اللاجئين
##حراس
أدلة
مقام
لقياس
خطي
ولف
صدور
##عينيات
تستمر
العاشرة
##مسك
##الون
##يتهم
مناف
##شيء
ساهمت
##ox
##enn
كيت
وشهد
اللاه
الكونغرس
علاء
انتها
استقبال
##اميم
عاط
البوت
بالانت
##ركب
##براطوري
لجائزة
##hed
)،
##ings
##ba
سرد
واز
المبر
تمويل
إرهابية
##)؛
##ـ/
##فسي
والذ
بالاضافة
##ناسب
بحاجة
والطب
بوع
الذكاء
الأهمية
والتكنولوجيا
##ournal
ازداد
جدران
مقاعد
صقلية
منزله
نمساوي
التوحيد
رفضت
trans
قرارات
المفهوم
##نافس
للحياة
الأعصاب
ببط
دائمة
london
الخليل
التقاليد
##لن
##عطاء
##موذج
##وراق
أحيان
البرونزية
##اكس
##ناطة
نزل
للبل
التكن
المفر
national
يومي
غينيا
الشورى
##:000
متسا
البني
##ute
غضون
الخوف
##يتار
##امعات
أشرف
أعطى
عمال
الأثر
الأوائل
الأمامية
المعاهدة
أدي
الفاط
التوجيه
سريعة
موسوعة
أوروبية
الشريان
تنج
الظاهر
الأورام
التشكيل
بالمقارنة
##ميث
تنشأ
الأنف
لحركة
المتظاهرين
##ونيل
وأطلق
##ادى
##يعاب
مؤسسي
نابلس
بتطوير
كنديون
البندقية
##بتة
سقطت
سفيان
علاوة
والله
ضبط
جواز
المحاصيل
خام
يفضل
مجموعه
والهند
الجماهير
اك
زهرة
##فلونزا
الربع
دورية
الموالية
الاحتجاجات
##air
##رضت
وتقدم
التلفزيوني
بإسم
الأديان
##نسا
ضمنها
الأمام
هز
##ماثيل
ستيف
##درالية
البير
مرتفع
مبيعات
##قطة
طه
##داثة
بحق
الحش
وحده
نيكول
##ual
##متر
##لاسل
##نجوم
المنس
الشاطئ
المختار
القادسية
##هرام
الضر
التسويق
جده
تاريخيا
##ربا
##وليس
بإمكان
##طوبة
بولس
##كتوراة
الملي
والدة
##اوف
es
داعش
واصل
##جامعات
ويم
##ترويت
ووصل
نوعها
##جدل
لولاية
##حوا
قصور
##وسفات
كمحت
القدماء
##idge
بريد
التام
اختلف
الحوض
الطابع
المستشفيات
##وفات
بدل
غرام
##‏.‏
وبني
تصرف
لاحت
المحدودة
نست
book
للشركة
والعراق
المتمردين
##ساع
cam
للحرب
وتحتوي
السنوية
##yr
##اطب
البرب
##eral
gaz
بأعمال
التخصصات
##--
##ايخ
مظهر
اختصاص
الموجة
القليلة
لوب
منفصل
العبرية
##ولته
فوج
طبعة
##ليوس
يده
مهدي
مصالح
الثوري
ضي
##ريال
ساك
التوزيع
"،
##حدون
##رائق
##وموس
har
##دياد
##زوجة
##هرباء
نقابة
الصيغة
البحريني
صم
##ادته
دوران
جونسون
##صلي
##رايين
دورها
فهناك
ومدينة
##فاية
بكون
خفيفة
صحراء
المعنية
##ij
##الفة
##ومتر
احدى
الفضائي
المذكور
##موس
طبق
award
إحداث
إدارية
السيدات
تخل
نحن
بطرس
المسئ
ويذكر
##par
ساي
قبة
نهج
إداري
مشهور
نه
فورد
بتونس
المكونة
إين
الملف
تتوفر
اندلاع
البضائع
##سوق
وهنا
تكت
يساوي
المؤتمرات
##ملاعب
اثنان
الدائم
موقعها
##قدت
##اتين
للتأ
##موني
ووس
تنتقل
فريدة
الأكاديمي
##صير
##ونيت
موعد
يقلل
جزائريون
##كوي
المسألة
##خات
##لاحة
aust
بقتل
##وليوود
إيمان
مواسم
##وقة
تفجير
دينار
موارد
انطلقت
##yd
##انقراض
السيرة
للعلاج
والمناطق
بتأسيس
المماليك
يوغوسلافيا
وكت
اتجه
شعره
مضاع
أسعار
الحارة
##وجة
الدقيق
##اختراعات
ثبت
##فاقيات
سينمائي
حصان
المستويات
##سيو
ev
الرخ
تأمين
عمارة
بالجمهورية
ser
أيد
موم
يمين
مسرحي
##غش
يقط
فحسب
قائم
فضائية
##قلا
كعب
0–0،
والسب
الرحيم
بالمغرب
الباحثون
العمومية
##وتات
عصب
القلق
المبادئ
والمؤسسات
_
##راة
##المن
ودعم
##ثمارات
البغد
مضادات
القلبية
##كيين
الإل
##يشة
اللوحة
(0000),
مسؤولية
##إم
پ
##اسيس
##مسلسل
0-0,
أتراك
السادات
##نح
##ونتو
طيبة
وكيل
الخلق
للكاتب
##ade
##جوء
##كاف
##ليفة
نيوتن
كردستان
##لسن
هارت
لتت
بعين
##لكترونيات
قانوني
##اهة
شغ
قرص
وام
للصح
##lo
##حتها
وأج
انتخ
ديني
السهل
##سمم
##صاف
حمو
قطار
الدراسي
كيني
هندية
بالمنطقة
ثمان
رغبة
الستينات
##يرين
حاد
الإعدام
##زايا
##ميري
##وكان
زمان
يوضح
يولي
كاتدرائية
خال
غرار
الصفحة
الضوئي
معارضة
البترول
راج
وخمس
الذرية
لصناعة
باسمه
الواضح
##0%
##زى
##واكه
وبه
باولو
محدود
تايلاند
##ular
يرمز
مكانه
المحقق
النباتية
##ions
##دعاء
تنس
حلول
مشاة
الحوز
يتولى
##cr
##داي
##دفق
##وضى
وإي
##هواتف
##ناد
##مركز
باق
الظهور
الثدييات
العلامات
##إس
##ail
##لزال
ذكرها
المسؤولين
الرفاع
صل
قار
##زيمات
##.0)
الجنة
الفلكي
##أنا
##لاقا
تحاول
عرضها
حياتهم
##مجموعة
الكار
المشهد
اليسرى
العنوان
بمناسبة
##زيت
ملائ
منظور
وفيما
أنشأت
يجعلها
البارزة
الرش
##cent
##حقاق
##يتام
القرم
##غام
علما
يكفي
شمالي
مخصصة
##أكاديمي
الاصطنا
نيجيريا
كيس
inst
شهور
غلاف
يونغ
##وكولات
000-0
الصفر
المغول
الترفيه
التكوين
##اعم
##يتر
##وائح
أحرز
##وكر
ارتبط
الغدد
الستين
أنطونيو
##وغو
up
خلل
خطوة
بإعادة
الإعلامي
الدبلوماسية
##رقم
##هبة
int
جولي
عمار
المستن
المعالج
##تحق
الجين
محاكم
الزبير
بمدرسة
الجمعيات
تيز
ويطلق
الأقاليم
ووجد
الريح
الغني
##ـــ
أسد
عماد
الطائف
استعداد
الأغذية
##ks
mo
##الز
##طوانات
طريقه
والأد
البريطانيين
رض
وعلوم
ويرى
للشيخ
##mat
##بادئ
##صلية
ليتم
إثبات
ممتاز
الأزهار
##خطيط
##سيليا
جميعها
مسيحيون
مري
أخبر
##nd
er
توسع
##يفان
##right
الضع
وتظهر
الميدان
المنزلية
أى
##ساتين
أعاد
البدء
التاج
مطورة
موريت
التجار
##صلب
##ولاينا
##اهن
##فلت
##ورب
##كومي
السلف
حوادث
النظريات
##فرة
##هدد
بدءا
مبني
الفوت
الثقيل
الصوتي
التركيب
##زاق
cor
أسامة
فرسان
مستمرة
##بياء
برتغ
##ائتلاف
بأسلوب
طل
##بعاث
غزوة
##صحفيون
مختصر
مقالة
الشديدة
بطر
##نترنت
مرضى
أسسها
ألكسندر
أكمل
إيقاف
المراد
دست
وتنظيم
يصنف
أعلاه
تشكلت
قرطبة
النزاع
للاستخدام
##عيب
اهل
كثرة
الانتداب
##0"
##ym
گ
****
أستراليون
بروس
شامل
ورفض
حقيقي
ونظام
##ساعة
ترأس
مسددون
والآخر
ماجستير
المحافظات
##لسات
pre
وصفه
صديقه
ديترويت
best
لتحسين
الجوانب
##اءة
المصاب
##آة
##بيك
##أمون
مرشح
كاليه
##اقفة
عوض
القصير
إيجابية
##وهم
فصول
الغشاء
للمجتمع
المكتبات
##min
مجرى
هاجم
خوسيه
الصندوق
وأمريكا
##أنها
##وجين
مشابه
الديمو
##ايته
##هرات
السمع
تغطية
بإنتاج
بنغ
نفا
مزيد
##so
رضي
العتي
##قبائل
##إنجليز
والانت
##فكر
##كرز
يميز
##جنود
##فتاح
ياسر
الاسب
الخبز
السويدي
##ya
##قيادة
صيغة
للمستخدم
النمساوية
##bc
##زنة
##يوم
لسان
المميز
نيوزيلندا
di
##خلاص
يرغب
إشبيلية
قوم
والفرنسية
حفر
صغر
تلمي
سائل
طاهر
يحيط
##حويل
المقيم
##tt
##وازية
تهتم
المري
برصيد
مستخد
الكوفة
##ميين
ste
عاشت
والفض
السكنية
البالغين
##ندات
جسد
غرا
الشهداء
متتالية
##res
##اسط
##فرت
##ويك
وإنتاج
##ho
تعدد
السيف
mos
تخضع
هادي
إنديانا
الوراثية
##صارات
النائب
المناعي
المهارات
الصهيونية
بإن
جمعة
رفعت
غولدن
الوظيفة
أصلا
وأمر
الطقس
##edia
##انكا
شرط
مبت
تمكنت
أراضيها
الحادثة
أبل
مدني
مقال
أنماط
german
##غطي
##gypt
##لوان
##وسون
زكي
غازي
نصيب
النادرة
##ياض
ميلا
متابعة
الأمامي
##جبت
##ثارة
أعض
سلف
لأجل
المجيد
الانترنت
##دال
الإحت
الغال
صحيحة
وبالم
السبعة
الاستفادة
تضع
مناسب
الحليب
العقود
التطبيقية
سوب
ينص
شعراء
مطالب
وأنها
النوبة
الاحتفال
بروتوكول
##بؤ
##قدس
تحد
خرا
ساس
إحياء
شعرية
أغلبية
##عيا
وفتح
شقيقه
##ife
##باز
##eter
##افرين
الاثنين
##خصيات
هجرة
الإغريقية
فط
##غيرا
##مولا
fil
gro
ممر
ربيعة
حرم
ساو
يسب
##وانية
##ورادو
خادم
منظمات
سنه
ليح
ناس
نام
أوكس
لمصر
التوسع
للحركة
##ience
تعبر
الخبر
الدائ
القدي
مركزية
المعدات
##اربين
برمجة
##تت
بغض
الهض
العلا
وتولى
المفترض
فنزويلا
اجتمع
تقويم
الخبراء
الذيل
قدرها
القصيدة
النبلاء
##ادير
وتل
محر
لمساعدة
البلجيكي
po
0-0.
حكمت
يسعى
التذك
حمراء
فرعية
##مقاطعات
##نيويورك
المعتقد
##فاوت
الفج
ساند
##واصلة
ويشمل
الخلاف
لمعرفة
##أحمد
تيل
الحقل
السوائل
الاستجابة
je
وشر
اتباع
المنهج
الزمنية
الأنصاري
##كوف
##رتون
تذك
وشي
المبت
##اطا
##يتش
##،000
عقل
لمص
أموال
للتكنولوجيا
##alt
ليم
جيوش
خلفه
لحظة
كاملا
الأموي
غرناطة
إحد
الشب
الإعداد
المواطن
فم
##وقود
صعب
وتز
البيئي
والمواد
الاستخبارات
##صى
المنطق
الاستيلاء
##تيت
بيرو
غالي
الجدد
الرضا
تزايد
بمقدار
هولنديون
##ner
##ربه
##عدا
##كرو
هيوستن
السياسيين
”
##____
##وانئ
استطاعت
000)
توضع
عشيرة
ووزير
سنغافورة
##ونج
##اهري
شاملة
والعلم
والثلاث
##ستم
##ower
##ريري
mus
إيمي
الحظ
توضح
والعب
المقبرة
متطلبات
الاختلاف
صمم
رؤوس
الجراح
##شابه
تريد
##ليح
sm
##ريبات
بالث
المجلات
لمواجهة
##تاب
منهج
بارزة
جانبي
معتزل
##ختبار
بقدر
وخرج
رئيسة
صياغة
الصغار
##جاعة
##ملات
بشرية
جزئيا
ينتهي
##ايش
##يري
تساوي
موجات
وأكبر
إيراني
##رئيس
قمر
الناص
للمحت
##اجين
##زيين
that
ولادة
الجماعي
##ظف
##الجات
هكتار
وبالن
الحكام
القصور
##ضت
##mon
بام
عكا
عملي
الفتيات
خار
زايد
فتحت
شوارع
##اناة
فئات
بأنهم
الرقمي
المزمن
مشهورة
الصحيحة
الفقراء
##ave
##yemen
استش
البيع
وممثل
زراعية
##ليكس
##هرت
مرح
##ابلات
وحقق
لوحات
وشكل
عائلات
##ولندا
ماجد
انخفض
بإطلاق
السويسري
ذكرى
العملة
الكليات
##ka
وكيف
جعلها
حاولت
\
سيب
مسمى
##الجولة
الدائمة
ضيق
ليلا
نظرة
يقبل
تتعرض
لتوفير
##رتب
##ازيا
##راصنة
تلقي
بجميع
توصيل
وها
بيري
المعتمد
الاستوائية
تطلق
قارة
وضعه
##فنانون
volumes
##فيزيائيون
##ene
سرا
عادي
ومدرسة
للمنطقة
الثنائية
##بيرغ
جراحة
لينكس
ناجحة
المزدوج
تنص
##ائقية
##رحيون
##علامات
##رحمن
طاقم
شاهين
إثيوبيا
الصوفية
تعبير
جرائم
الإشعاع
الأغلبية
إبن
أيمن
جولة
##اشتراك
لخدمة
محتوى
الرحلات
##ماق
##المو
##طلبة
##كلمة
##واحف
اثر
السفارة
المسؤولة
الفيزيائية
##ركيز
تعل
النش
وتنت
يستطع
موافقة
وارتفاع
والكتابة
البروتستانتية
##ميمه
احتلت
جنرال
كلميم
السباحة
المناصب
أبوه
إيفان
العباسية
وصدر
لحد
وليد
المحددة
الدستوري
السينمائية
##ze
##التح
##ياطي
قاتل
وانتقل
##كتة
##ضارة
توف
والبن
الهنود
الشطرنج
سياق
عارض
كريس
الخفيفة
قدره
وأنج
الثابتة
##اقه
##outh
مقب
البذور
المشكلات
##هلا
##المت
##كمية
وتشير
وشركة
لروسيا
للتنمية
her
قسمين
التأسي
الحكمة
اعتمادا
##gh
أوسع
لوضع
الصفات
المولد
##own
##ella
##تشير
هضبة
مبكرة
الجندي
ساحلية
أبيب
bi
تاك
ديف
عنا
كمد
حمدي
محلي
الثلج
بزيادة
##فلك
arab
ضريح
للحد
الوسي
المستعمرات
##صفح
##ific
أتى
أوم
##اريين
للسلام
السينية
التليف
بالماء
للأندية
##chn
##قرآن
والياب
##هبان
##يفيا
زرع
بعرض
زجاج
الرموز
أعمالها
##yle
كج
00–
شرع
حفيد
الآية
تتغير
الشائع
الأمراء
الدرقية
##ake
##ظيفي
##وايته
فولت
السودانية
هدم
يخص
ابنته
التهديد
go
توص
للنا
يصنع
بروسيا
لمسافة
مصنوعة
reg
متى
يرفض
##لاباما
هرمون
##ابري
جمه
##ident
##يطالية
أدبية
تكريم
الرئوي
للعالم
دكتوراه
##أى
اللسان
##ames
حجة
عيار
لحفظ
##مدادات
عقدت
##مقاطعة
معقدة
اللهجة
التمويل
إسرائيليون
##فكار
أعمار
الشروط
الطابق
##فهوم
mag
##راغون
باعت
تشهد
ضواحي
مونتي
gazette
التطبيق
العرقية
##ald
##جسام
آمن
قاضي
مؤلفات
المحتلة
##اصلون
العاج
السريرية
باخ
يتيح
الدوا
الزوار
لتنظيم
مؤرخ
الطائر
الفلكية
ذرة
المهني
##شرز
##يمكن
أجمل
الاي
تكاليف
اتصالات
##موك
قاع
نوك
التوتر
النمساوي
##ازن
##نتوس
وسم
رابع
الحربي
تاونات
تحديدا
السابقين
##حاكم
فوت
شخصي
ملام
السعيد
جزائري
التنسيق
المراقبة
##عومة
ضمت
يرأس
أرضية
بالات
ثانيا
الخبرة
والدتها
إلكتروني
sec
التصنيع
##ari
##سنة
كرك
مخاطر
إنجليزية
##داع
تذ
''"
الشجرة
القتلى
اللغوية
##بيري
was
للمش
يقتل
المفق
##اليل
##فعيل
##وافذ
##الحرب
هنود
ويصل
ضربات
لفريق
التغير
لمنظمة
##لسون
الجب
الآلية
الصديق
##سى
##خيم
يبعد
مباني
##جور
قرأ
تكري
السائدة
رغ
##رحية
صادق
وأقام
الفنانة
النفايات
##ؤلؤ
##سيين
بالسجن
الصحيفة
##%)
##قاض
##قطار
باحت
أبعاد
الفضة
بورصة
الكائن
الوفيات
بطي
(0):
جامعي
المجرات
##ذقية
##قطعة
##مداد
##ندسون
جزئي
حاتم
الهبوط
##قلق
داخلي
الأوضاع
والإعلام
##ونز
##وفين
أسم
##لابة
بتلك
أوامر
الفندق
الملاكمة
##ستانية
الآلة
الخلف
القطر
الحبيب
الكاريبي
الحمام
##ham
##ple
##بدء
وحاول
إنتاجها
مستعمرة
المبيعات
##ماعات
وايت
##hr
##يدز
اللحم
##فرز
##تيكو
##رشيف
الود
بالتع
جبلية
##جغرافيا
الممتدة
المواقف
الإقليمي
المجاهدين
##شفة
##منغ
mat
وليست
للفريق
المنتجة
فقدت
مخصص
##درج
##الأم
##ثرين
يرد
السوداني
ضخ
شأنه
أحادي
بالان
الزيادة
##عاف
dr
غار
##أشكال
جوهر
خسارة
##ts
راد
انضمت
الأساليب
##ator
alps
القو
البنز
القهوة
منفردة
المتبقية
##قاتل
طيلة
كالي
القضاة
##لور
##متسابق
الإطار
لحل
الكو
مزارع
بنغازي
gazetteer
إمبراطورية
##lam
صلب
سارة
إغلاق
جند
وحين
يقضي
الدقة
الشاذ
العوا
وتشكل
الصحفيين
##ضول
##بلية
##يطان
الغام
الخطوة
الدوران
القوقاز
الاختيار
##'':
وفد
ارتفاعه
الإشارات
##ثية
##لحق
آيرس
خاصية
اليورانيوم
ريم
السلامة
برف
خرجت
قتله
بروتين
##زج
##ائك
##عمق
##مارة
##يسون
بتك
بنقل
تمنع
والعد
##مهاجرون
وحي
أنهى
ببساطة
الجوفية
sur
لآخر
نبيل
##iev
##صنع
توب
ويق
طلال
كالم
زكريا
اقتراح
الحافظ
المصورة
my
##رائح
شتى
متط
##ديمير
تتحرك
الكنيست
الاكتشاف
##تحام
تحديث
المواضيع
فيلا
دوائر
بالأبيض
##آكل
أسطول
دكتور
مسلحة
مطبعة
وانضم
لتنفيذ
للمجلس
رومانية
الممارسة
##باد
مجه
هاي
بشير
شعوب
إسقاط
لتعليم
والشرق
بيلي
تدفع
ميجا
البلق
محي
فالي
جماعي
التحقيقات
##hel
##زرة
##مادى
انش
بضع
ضفاف
إداريا
##osa
##ليني
arch
بقوله
وحدها
السلبية
##ضج
قريبا
المالكي
الإنكليزية
##دس
##ثرات
وجوده
وأوروبا
##cc
off
شمل
كيم
وعي
##ملوكة
العضو
البوند
الاعتقاد
##حيين
اير
سبور
فهذا
يدعو
القريب
كانتون
الوظيفي
##روم
مفيدة
انطلاق
ورس
ومنع
تثبيت
الإلكترونات
##وكل
##arch
إحت
will
يصيب
راديو
الحوادث
الثلاثين
##اسين
الناخب
##زلج
##غذى
##وضع
##idae
غني
قلق
وخط
أدوية
مكاتب
##رتينمنت
الفعلي
##ظات
معلم
استولى
معظمهم
eng
برز
عديد
وقسم
##جموعات
السام
مفتاح
لعائلة
الضحايا
##ذائف
إعت
اعتقل
##خرط
##وقا
##رابط
ران
##ويدية
بكتابة
المتنوعة
التفاعلات
المخطوطات
##uch
(00.0
الطور
بمحرك
شأنها
الدراما
الشاملة
##eng
##اجم
الصفراء
العناية
##ital
الكف
حضارة
وأربع
##غرة
مشي
##راهيم
##ياتها
فالم
##ومنيوم
جور
عليا
فشلت
لمديرية
##:‏
سط
جود
بشار
شريك
وكذا
وتحقيق
##خصائص
المسح
متاحة
الأسبق
العقيد
##ئها
##غذية
##اميكا
##مساجد
أبعد
أديب
توقفت
العضلة
لبنانية
الأرجنتيني
تبعا
يتحول
أستاذا
##rad
0,0
##كلترا
##ئن
sol
##ative
##اردين
المم
تلقت
تميم
يغطي
##رسامون
بالجامعة
ارس
يان
غريبة
##ورف
فسي
ينتشر
معادلة
##مجمة
عزيز
قائدا
تورينو
المنخفض
##طه
حازوا
البنفس
##ظروف
ويلعب
المائي
بوزارة
المفاهيم
بالتن
الرأسم
##ردد
جار
دوميني
الرقابة
الكفاءة
الفرنسيون
يحد
##أنظمة
##كونسن
العط
حقبة
وسوف
##علاقات
class
أرقام
الأبو
انتشر
تشجيع
american
##هيب
تشك
سفير
غلوب
المئوية
للسيارات
مرصد
##أساتذة
##سكندرية
##وشة
أجري
خلفا
للجنة
الراين
##ize
عليك
سياسيا
الأجنحة
##ماي
0/0
فقه
روسية
لدولة
##نجي
حائل
وجزء
##لفانيا
ألفونسو
الفعلية
##أجن
سمو
##مارات
##حاصلون
أرجاء
المضمار
00000000
الممثلين
فرانكفورت
غنية
كرات
فيزياء
التغييرات
##افيا
جرين
للمد
بلغراد
البرتغالية
##وضي
القادم
التأمين
الأسترالية
##صق
لمش
أزيل
صالحة
وثائق
المطبخ
0000–0000.
سعة
القاب
المخط
تزويد
يوهان
الرغبة
##اوة
##ريو
##منتج
بيض
مره
المند
مرافق
مسائل
وأضاف
الفئات
التعليمي
لمر
##مامات
دالة
التعب
الأرضي
النعمان
أعمدة
كتيبة
أسطورة
الحرام
الغابة
وسوريا
##جمه
الدوحة
للهجرة
والمملكة
الاستعمارية
pa
##رحيل
تشري
صفات
ضحايا
##خوان
موث
ضعيفة
ويتميز
إط
جواد
صعود
##روش
حيدر
وافت
الظلام
دانيال
cal
نيل
سينا
فالت
الأذن
اللازم
الموحد
مشاهير
##حان
عدي
ورث
soci
موظف
0000؛
##مغنو
ملغ
وعرف
بروكلين
##جائزة
##هامات
إنتر
##ياع
##irst
##وارت
لوم
مقطع
هوية
بوينس
طالبا
الأهالي
الارتباط
##ject
جاه
الشم
تجهيز
##متسابقو
##iver
تان
ميخ
وكات
الكأس
مابين
الجميل
الموجهة
كسب
يمنح
المان
أنابيب
استخراج
الساحلي
##ثبت
##أكيد
##واجز
بفوز
بوصة
الجمل
الأوبرا
الضوئية
المناسبات
غوان
المرف
اعتراف
الحضارات
##باخ
نبي
تميل
مشاعر
القابلة
المخصصة
كامبريدج
قنا
الكور
الوفد
ver
تيس
ثلث
الخيل
المدر
تزداد
ثقافي
الإشراف
الأساطير
وألمانيا
أرجنتينيون
حفلات
فيتامين
##اسر
حيز
معرف
خمسين
الفاتي
العلوية
##عياد
تنشر
امتدت
الليلة
الجدران
##سليغا
آلات
الكش
بديل
المدة
خارجي
##لوفاكيا
إشارات
##اهما
ودر
الزور
خطورة
للجدل
الأخلاق
##مصر
##أنمي
هاني
وظيف
الجرح
مثلما
##عث
محب
يديه
الأست
بخصوص
مصلحة
البغدادي
##ناقض
معم
آرثر
السفير
المسلسلات
إض
يبق
اللق
ويرت
مواضيع
الأعوام
مقدونيا
عر
جري
خصي
براد
الحقائق
الممارسات
شاكر
وظهر
رائعة
ميامي
المدفعية
قلت
عظام
ميزة
القبر
تأكيد
للموا
المهندسين
##براج
الإمارة
الدبابات
##وراة
##الشيخ
##التهاب
وحصلت
القطار
بمشاركة
الثلاثاء
##anc
فجر
كود
ذاتي
لنفسه
الأبطال
كريستيان
##قاية
هوم
ولت
بقاء
كونان
##ونتاريو
الأطعمة
##ستو
سلك
ستوك
##ريزونا
##ليعة
بوضوح
والدي
اندلعت
مؤلفاته
##مدي
إيت
الكيل
كويكب
##ايك
نك
##ural
تراث
خليط
سجلت
يقف
المرس
والإن
بالمملكة
والعشرون
##الل
##لماني
سياسات
ألبانيا
اختبارات
##cd
##هولم
أرن
حادة
إنهاء
##go
##أد
##ety
##جميل
ماز
##ليمان
محاول
التنوع
الطاقم
نباتات
المعادلة
##ئران
##سيان
ومعه
بالمر
قالوا
الحداثة
الواسعة
الجراحية
المحمولة
##:0
##تيه
آند
وثقاف
للإنسان
البيولوجية
##li
##ese
عبده
التمرد
##بها
تطل
شتاء
ونشأ
##مقالات
الفجر
محليا
journal
##my
##استر
##لاديش
لاند
نجحت
احتجاج
مئة
أجنحة
الشرب
تكرار
حكاية
المؤرخون
##سنط
##اريت
بلوغ
مقاتل
القشرة
تسجيلات
والاتحاد
##وافل
##تحديد
حزام
يخضع
يورك
التوصل
وتوفير
المفاوضات
##سبان
##ولها
ent
للدراسة
##اهو
##روفا
##ديمقراطية
##رداد
ساد
مرب
لمرض
المتس
عظيمة
border
الطائفة
المفاصل
##صام
##ائحة
تلا
##زاوية
##نجلترا
أجسام
الفصح
مائية
مظاهر
القتالية
والتلفزيون
##عكس
ميلي
تسميتها
##رشح
لقضاء
##لمس
##يونات
خواص
معجم
الملت
بالغة
والمل
التقييم
##جلد
act
ليبر
الأثري
##مخت
##خبار
قصد
باها
ولأن
التشيك
عميد
تخفيض
يتغير
الكمية
للموسيقى
التجريبية
##ds
##نش
##هاض
##قدان
اقل
الالتزام
##غوب
واك
##والتي
النم
خبرة
واكت
ابريل
المجد
مجهول
والتجارة
##ages
وحص
المنتشرة
المسؤولية
##بذرة
تتخذ
طعام
بإجراء
ولكنهم
المرتفعة
##بونة
##كسية
لجان
وصولا
احترام
التزام
الجراند
المحويت
##لبس
##واري
موض
نواب
اللفظ
الخلوي
##flag
##line
##خدير
##سيات
##شيعة
أيا
درج
وذك
أربعين
استقرار
الآسيوي
ارتفاعها
الكاميرا
##كيز
بعل
حرك
القبة
صوفيا
القصوى
أتلانتا
##نظ
##زلي
##كأس
##وريو
والحد
حصة
شيش
الصحفية
الكبريت
العراقيين
الزوجة
أندرويد
المقابلة
##inc
##تبع
وكر
وغالب
جانيرو
جغرافي
لتعزيز
وإنشاء
الضروري
والتوزيع
##طاة
حذ
##واصم
##وليت
المتط
المتخصص
باغ
##ينيوس
الشك
وانتهى
المقدم
المبارك
بكين
أميرة
فيمكن
دراستها
##تصاب
غضب
لير
##جمعات
##واحدة
##مؤرخون
إمكان
وتحديدا
الانقلاب
جال
##ذبحة
تسي
المحدد
احتمالية
##ین
كرم
char
هذين
##لاتينية
المادي
المعدن
هولندي
##-0)
##انيه
##كسيد
لأب
##useum
فائدة
الجملة
الانسحاب
##راش
av
##بابا
طلبة
أسماك
المعقدة
فرانسيس
المحتملة
##ديوي
##لسكوب
صعبة
نفسية
وبينما
الانتباه
البوندسليغا
##ink
##لكة
##اليوم
للطب
##رويج
val
خطوات
والشر
وسميت
##ذير
مكاف
الجانبين
الموسوعة
كيلومترات
سائر
لأنهم
للمخرج
الاختبارات
##قرر
أرت
لتف
فيكون
يتوقف
وسياسي
عبدالرحمن
تبث
الطوب
تضمنت
إنترتينمنت
##نسيا
مضيق
العلي
النامية
والمعروف
دوس
وقص
##وتيوب
أدرك
شعبي
وأبي
المجلد
dav
mil
حاس
حروف
فضية
لعلم
اشترك
كندية
استنادا
تستضيفها
للمساعدة
##دمرة
لبي
##بيديا
بقيمة
سلبية
هارون
المصنع
الراديو
##ira
##ove
كلين
الطيار
توصل
ومما
his
توت
كاش
مكث
القش
وظهرت
تتناول
تتحول
##معاهدات
الراحة
بتعيين
الزمالك
##ميمي
##ياحة
count
الأرمن
الجنائية
إيل
ابي
وهن
كييف
أوبرا
الإسبان
البولندي
##ٍّ
وإس
أسرته
البعد
السياح
الخلفاء
الشيطان
إنجليزيات
الاختلافات
##عوا
البوم
##net
إذن
##دراجو
##زايدة
##فلاند
أمرا
وكون
وكثير
تمتاز
الآباء
للثورة
مغامرة
##ino
##لاست
##وفان
منصة
يسار
مكتوبة
السبعينيات
جنا
##اخستان
الحليم
المرحوم
##ior
##وافد
##ريكان
أصدق
ينقل
المصل
##تمون
##مدان
خلد
سقف
الإط
عبادة
والنساء
والهندسة
الامبراطورية
inc
بمجرد
وعليه
مساحات
هوائية
وتحسين
°
##اهل
##بريط
##رتير
زينب
فتحة
فعلا
مصمم
##باريات
العذبة
الفتاح
التكاليف
##era
##اميكية
نشاطه
الفاتح
اللجوء
السلطنة
تأثيرات
المبادرة
##انوس
##بادي
حرق
عاصم
الفير
##ذل
##حادي
##خارف
##غداد
cap
قوس
فورت
وتمثل
لشبونة
ی
##تحول
##أعلام
انظر
كليا
العرق
الغنية
المخيم
بالضرورة
مستقبلات
وردت
والإد
تشيكوس
الأوقاف
الحجارة
أكل
غوغ
دالاس
تعكس
دواء
يصعب
##لاهوما
البحيرات
استراتيجية
##جاع
سنا
فرجينيا
للسيطرة
##كث
##ثبيت
تمرد
الاحتياجات
وثم
البت
تؤكد
يروي
المجرة
روماني
الإنشاء
0/
تين
شون
الخال
حارات
العشرة
متوفرة
التوقيع
للقضاء
##رث
met
عصام
الموض
تمارس
مزرعة
##راتيجيات
البوابة
##da
##طت
##شيل
##iter
استث
بطرق
سواحل
##تشي
##قطت
ألت
سلطات
كتائب
كوكبة
للإنتاج
##ستية
علينا
السلالة
##":
##يمس
##تمرات
كليب
العيد
رأسها
منتظمة
بالانقراض
براغ
حلبة
رالي
وساهم
الدجاج
المساء
المصانع
##خبيل
اثناء
مانغا
المقال
لتشكيل
##وكالة
الحجة
المنعم
الوريد
معدنية
موريتانيا
معز
ولبنان
##بيط
##ورث
انتح
سريعا
الكوري
بمسافة
وجودها
اسب
لسي
هون
فيرج
نظريات
الألفية
##-00000-000
جلد
ككل
##اصورات
الجدل
العميل
مساهمة
وجائزة
##une
وتتبع
الوثيقة
##بما
##ميها
أصفر
الجنسين
الروابط
##كنز
المصف
##ثوم
قو
حلم
dist
المصر
والتقنية
##طفاء
منحت
الكري
ثماني
يحدها
والسنة
إيد
بحد
مفر
حقول
تشريح
السنية
أكسفورد
الشتوية
##شه
##car
##خرفة
may
بعب
##بالفرن
كرئيس
الأخطاء
الثورية
##fe
##مؤلف
بوج
تصد
اصبح
سيطرت
قرطاج
المفتوح
##قذ
##ool
##تهى
##اطية
تجار
المعتمدة
والمضمار
##gin
##'')،
##طعام
جلي
هبوط
ومنه
تميزت
توضيح
السياق
العظيمة
##ئب
ممث
آراء
جوقة
خضراء
والنا
المضاد
الهواتف
##اريف
عاب
فكل
##مرتبة
للطائرات
##ada
مرسوم
وارنر
الفيزيائي
##ئت
##ثث
لجمع
مقرا
والقط
##لغاء
سند
شيوع
أمراء
بدمشق
شرعية
وبالت
يومين
قز
##ارسو
##همال
كيو
سعاد
اللحظة
المغاربة
##000)
rel
ديك
يفصل
الجسد
سياحية
المتقدم
درست
ضعيف
وجهه
قدرته
بالفرنسية
##ris
مود
جاسم
إبريل
المؤلفات
البوتاسيوم
يسم
##كايات
وأنا
رحلته
##وصف
زب
##لفين
mic
لاج
خميس
بثلاث
توازن
الميكر
للمسلمين
المستقبلية
##").
##قدات
##فونون
المبد
##وراس
النع
صخور
##روك
##'').
أسفر
لمنت
##اقتصاد
مجالس
البسيط
متميزة
الظواهر
المؤقتة
كويتيون
الالتهاب
النشاطات
##mo
##no
##رجح
##ولث
برود
إفراز
معدات
والاحت
الحيوانية
##ياج
أوز
##قانون
يكتشف
الأزياء
##dr
##قيا
فی
##واضع
بأكثر
النموذ
كالتالي
والمغرب
(000-000
الإسكندر
تبر
##فاعلية
حساسية
والسياسة
##ريكس
##نيها
##وافر
الضي
تقرر
فوزه
القرآ
دوغلاس
المنشآت
##rib
مؤك
لمكافحة
##ora
##افلات
بفتح
بيير
شوقي
مشتق
الماس
الرمال
القصيم
##ثرا
##رقص
##والم
الكس
شهاب
حملات
وكندا
يسيطر
##ذرز
##omen
لمؤ
صنعت
ماهر
السني
العسل
مصانع
وتختلف
الواردة
مسلسلات
الحساسية
sa
حمام
ذراع
##مركبات
أسواق
معيار
##ique
يركز
الارض
تحميل
##عاش
##ميص
##وزا
tw
##غريت
تصيب
لجعل
وهران
الأحماض
##فهم
##سترو
أزرق
الديوان
يوفنتوس
##أسماء
تخصيص
جنسية
ca
عمد
ويخ
وكأس
تسيطر
الامام
النفوذ
للجمعية
0000–00،
الأربعاء
##رضة
ومخ
##فساء
##ونيك
محرم
مأخوذ
كربلاء
الأوامر
البلقان
اليدوية
##je
ter
صارت
عينة
يثبت
مماثل
المغني
قلا
المرء
هجرية
##ula
##قراص
شيف
باني
برين
إنقاذ
أشهرها
كوريون
الرطوبة
بالاشتراك
##اقط
##موث
phil
تقبل
معمر
وأدى
الذراع
##ode
ولذا
البنوك
الطباعة
0-0000-0000
##اشي
##باص
##غول
##="0"
عوف
بطلب
##مدفونون
الحادة
الأحرار
##ally
##ذاكر
هايد
وحسن
عف
##زاوج
##نبورغ
صعيد
000.00
انقطاع
##اندر
أسقف
ايام
وصار
كليفلاند
للمحترفين
##ler
##كاة
جدد
##earch
تحضير
أراغون
الصادق
الأبناء
اللاذقية
##دأ
##سيه
##قون
ox
تطلب
جهات
وكلا
اعتقد
والفن
كانساس
ويلسون
edition
الأدباء
الحملات
الأصدقاء
للجمهورية
##خا
##ays
##وجب
تصفيات
حرارية
الاعمال
##خيرة
حية
##هتمام
بإست
وعاش
إجازة
نوعين
##اداة
##اطئة
تكتب
فهمي
والتف
المطلقة
##قلاب
باج
##كستان
القصف
بتنظيم
مذكرات
##حام
اخذ
ذرات
رباعي
##وارزمية
بتنفيذ
##ures
ذرو
للمص
أثبتت
عادية
##خلة
fr
رجع
متصلة
##مدية
##نجاح
تنظم
السيادة
سيات
الأمل
الميل
مركزي
العقبة
هامبورغ
!
ستالين
سكانية
الغريبة
تقليدية
الانتحار
الابتدائي
##رقى
##قلات
ضربة
دبابة
قومية
##رمين
(0000-
##:"
##امب
تروي
فوزي
الدماء
الفكري
وتتضمن
ألاباما
الهيئات
اليونسكو
##ret
إيس
##ذاكرة
اللحوم
المساهمة
##اليس
##وديا
##وريك
هوي
تحرك
وائل
يختار
تغيرات
الأركان
والقانون
لأم
أسلم
حسان
ورفع
وعام
السؤال
الشريط
اللغوي
المفوض
انسحاب
الجرائم
##angu
##تيكت
##فضلة
##ليكون
أيزو
يقرأ
ودرجة
الذرات
تغييرات
##ille
جوه
ساخ
تسلسل
انتخابه
فورمولا
##لكي
##ظائف
قري
##مادية
تركت
جمعت
يخدم
الامر
تشتمل
جمهور
الفلاحين
che
هوت
يتع
##ديدان
انهم
وأسر
##ربونات
الأشهر
##اميك
##إعلام
أصاب
##سنطينة
وحيدة
بأسماء
الساعات
كولورادو
الفيدرالية
##وفن
##عبية
لهي
بعضهما
الدورات
##أكاديميون
جيه
غوت
ليش
مضى
##رحلات
##ليزية
دارت
ردود
الكهرومغ
##مرا
##رائه
##وذية
ear
حيا
الفشل
تقاعد
كينيا
وبحسب
يزداد
##وركسترا
للطلاب
القولون
##بالفرنسية
##ss
##وخة
##aria
##فاهيم
وذات
مختبر
نووية
والبط
الآراء
الأخلاقية
الكلاسيكي
##نقل
##أسرة
##قفين
علاق
يحتل
للحكم
ومجلس
اعتمدت
الكلاب
وتعزيز
الناشئة
##over
##طالب
##كيلي
سكة
##ماركي
بعام
رخصة
نقله
الدوار
كلاهما
لتكوين
الإقامة
المصالح
##gram
##حياء
##سياسيو
موجهة
التحكيم
##fel
bu
غن
##بطات
##لتون
وتطور
##الميدان
الرمادي
الأحاديث
##die
sk
##بلجة
##قرية
السرط
وتزوج
خراسان
بطرسبرغ
الأناضول
أشارت
تدهور
محفوظ
وأعمال
التفاصيل
##oss
قطب
##velop
الطح
##قديسون
##كوادور
الملقب
الإمكان
##فيديو
الفول
فلورنسا
جنين
غطاء
مكتوب
بارتفاع
السريانية
##ودع
##esch
##ولكن
سنج
كشفت
كينيدي
موناكو
الوراثة
لمعالجة
هوليوود
إسرائيلي
إسرائيلية
الضرر
البنات
كنتاكي
المكتوبة
##ux
##تيم
##ادها
عجل
أحوال
كلوريد
ميخائيل
كمس
##خصائي
وحمل
فائقة
يقتصر
الأقسام
القطاعات
##جيت
سيئة
المتف
كاتبة
مساحته
منظومة
القصائد
متساوية
يعتقدون
الستينيات
مسلح
نسبي
المعي
الثروة
الأسئلة
##رأس
باح
هال
##نتائج
حربية
يحتمل
ينقسم
الأرجح
روايته
وآخرون
أفريقية
الحرمين
##وجو
##ودن
##ماثلة
زعماء
##هائي
الوب
ينشأ
مدافع
ووالد
التصرف
الطاهر
القطري
وبالنسبة
والاقتصاد
لذ
للمه
بفترة
واعتبر
التبريد
السطحية
الأنابيب
الاستراتيجية
##سبي
##متهم
موريس
للمياه
الإفريقي
شل
منى
جيشه
مسكن
لتجنب
التلوث
القدرات
##فرسان
##وانيا
البلي
المرو
ويمثل
استعاد
السامية
##بيس
أصح
عرق
عضوي
السحر
السوم
إسبانية
المحمول
الناجمة
##‏:‏
##ادقة
اعتز
عبور
لغرض
تقارب
وتوزيع
التدخين
عينه
يبين
متميز
وتمتد
المبدأ
المظاهرات
##كتلة
إنشا
عدوى
عطية
فورا
نذكر
يتخذ
الناف
الحرير
للنادي
##روه
##شركة
mac
##مودية
النك
champ
تحريك
ووادي
بولونيا
##نزير
ايف
ومز
توني
الداف
شتوكة
العسكريين
المصطلحات
##00،
##وغا
##واها
للعد
##قيس
##ستيك
pat
مسل
##الياب
##تهابات
الجرم
الطبع
العنق
غيرهم
مساهم
القطرية
الاعتداء
##فيظ
##احبه
آيوا
الأوروبيين
جوا
وأرسل
أصدقاء
البلاط
الجرعة
المساعدات
إخت
بالآ
بالو
موسي
مدرسا
ملاكم
research
الأميركي
الخمسينات
##سعيد
تأي
##زيانا
بوتر
تدرس
للأرض
التدفق
الإنتاجية
##راص
اعترف
يتحرك
أجنبية
البشرة
##su
##لوي
##ثروب
##كسار
##نيته
نجمة
المعدل
الأوقات
##ظن
:-
0–0
فتم
club
##روحيات
ومانغا
##فيحة
ببل
أشياء
لسنوات
الرائدة
الفاتيكان
التا
ماني
نشأة
التصوف
الاضطراب
الثمانية
##ste
##نال
##نيو
##يلر
vis
العينة
مبادرة
##اضطرابات
باستعمال
ثور
سائق
يمني
اعادة
الموز
التحلي
الجذور
تايلور
دراسية
مسؤولة
استكشاف
##اطرة
ثمن
##هندسة
فيرن
كائن
القنابل
والعلاج
##اعمة
##دهار
رغب
غور
##بابات
الرص
وأسس
##bridge
أسنان
الحار
صناعي
ميشيل
الإصلاحات
##تيف
##لمذ
هود
وعل
تغلب
وثلاثة
التقليد
##med
##فها
sal
##طنطين
ساوث
غانم
الجيزة
عط
bas
سترا
المجرية
عنق
##رسانة
تساهم
نهائيا
وتحليل
##العلاقات
##اسيات
سببا
الإبد
البارد
الشحنة
الغطاء
الليثي
وسرعان
التبادل
التخزين
##بلدون
##راثيم
أكشن
##اعتماد
الطلا
محلول
الشهرة
الواجهة
##ولاذ
van
بجمع
ودعا
الكوك
##ars
##سوم
##اربعة
شهرا
فيله
الرائد
##تهاد
##قتهم
sub
ودول
اختير
الاصط
احتفال
الفيفا
##.(
خاصا
دلتا
وأنت
الفيت
انتصر
السالم
لإجراء
البدنية
الموضوعات
مبد
نوت
##أعمال
##رائها
وحفظ
موظفي
الحريق
الصحراوية
##امير
##تحان
بحي
الطائ
الطين
تعامل
للشعب
الهضمي
الأحساء
الفائدة
الماشية
الأندلسي
التأثيرات
أتم
تازة
تشغل
قلوب
نالت
نزار
نوري
اعداد
بريست
فيقول
يلاحظ
الخرائط
التشريعي
##توفي
فاج
تصنف
اعتقاد
بوصفها
##بوت
##الفعل
##هاجمة
لايف
ابنها
السمو
مسبقا
تكو
الآونة
الأقمار
الحادية
##معت
عزم
فريقه
أوسكار
منافسة
والموا
العادات
##قلي
##ئتين
خلع
شرب
##ألمان
العت
اللف
نووي
نادرا
واجتما
##بالألمانية
##بالت
ارتفع
سيادة
السهول
محاكمة
##ett
للناس
##قالي
هجر
##رقسطة
##كليزي
اليا
العنب
الغضب
ممثلا
##وغرافية
جماعية
الإبداع
المسماة
المرتفعات
أخوه
تسلم
ولديه
تيزنيت
المنصورة
##lap
وقب
##راقصة
نورث
وجرح
وجهات
##وترونات
البالغة
ليو
##الاست
بيكت
الجيد
متزايد
##كش
##ark
##شيري
أنبوب
الهام
انتقد
الممالك
الثمانينيات
##يراد
يقرر
وتنفيذ
وحوالي
المسلمة
##اسل
متنا
##ديوهات
المتوفى
جنوبيون
##تف
##عدى
هرت
الإعت
السند
الكاف
القيود
المتعدد
الشرايين
##"''
ke
##inal
##انتس
ابو
لول
ولن
ظفار
فجأة
الرعب
الكلب
ورجال
القيصر
المتهم
0/0/0000
##غري
خوف
ديي
شان
واه
ورف
حزمة
ساعدت
صغيرا
النيران
والاتصالات
نتج
إعلامية
بنسلفانيا
نسيج
طريقها
والغرب
##add
ant
رسام
الرمز
حوالى
الآخرة
البوذية
المصابة
المصنعة
للكنيسة
الند
بوجه
دراج
يوضع
بأداء
والتط
الأئمة
الكاميرون
0-000-00000-0
##ليز
هين
صبري
وضوح
الأرب
سياحي
فوائد
مدرجة
وتحدث
إصابات
الشعار
وحماية
والموسيقى
##كف
##حرب
لعل
الزه
ركاب
روائي
##arm
##دعي
##حدار
هيد
time
أمية
البولندية
الأوروغواي
##روى
أباد
أضاف
كوبر
ونشرت
الأنصار
المقالة
الوقاية
##ألب
##وانا
port
مجمل
نفي
##والده
التنس
السجون
رونالد
الحفلات
الانتفاضة
##by
##رتهم
ليب
نرى
##طوعين
حافة
techn
والاعت
##sy
gra
##فيسور
ينظم
النمر
واسمه
يجعله
أساسيا
الاستع
القراء
بزيارة
كنا
القيامة
إمبراطور
حماد
christ
فيكتور
##اقين
##لطات
##لوكوز
الباقي
البلدي
تورونتو
##نير
##غاثة
hum
أحب
##عارضات
لماذا
المطلب
فلاديمير
ويمبلدون
غلا
##سيوية
الصل
زوجي
الأير
حجمها
الجافة
الاحتفاظ
بالمدرسة
##مذي
##اقشة
##ريدي
شاع
كويت
الحفر
تخفيف
للعام
ويشكل
مشواره
ابراهيم
اختصارا
اليرموك
##احي
##مترج
الحمد
شكلها
وأشهر
ومكان
الجدير
مناقشة
والدين
الدماغية
##اذفات
تكونت
رائحة
##ماعيلية
الحصان
طفولته
وبداية
الدكتوراة
وظلت
أحلام
والخط
الفطريات
##بسة
##طيون
لائحة
##يلفانيا
محاضرات
##قطر
غل
النه
تنوع
معتم
قواته
للاعب
الاكتئاب
##رته
قات
##وستاف
تقسم
حنيفة
تأثيرا
الحديدي
##وون
##بطين
تسير
رحمة
لدول
##ملحدون
وتعلم
جلسة
اتخذت
المسلح
##بنس
##يتون
فاين
الضعف
هاواي
الكتابات
واليابان
##تلاند
##ليقات
بغير
عباد
##سمبورغ
وساعد
##:-
##نجم
بتف
جرام
وذهب
يقام
بقرار
اختراق
للزراعة
سلوفينيا
##أدب
##زات
الزب
فرناندو
لبرنامج
##لاحية
بالتص
انج
إدراك
ترميم
العموم
##رائيليين
الإلكترون
##استه
كأول
يتصل
يضاف
إعدام
اعتبرت
العملي
والحياة
الانضمام
##ico
##خلا
##فيو
##رافات
الحز
طابق
ناتج
واضحا
المثلث
الحركية
برمجيات
الغالبية
tur
جوز
فخر
مصل
تشيل
تفيد
فتحي
ووفق
يموت
عصبية
منتشرة
الأبجدية
العملاقة
إلخ
صرف
مرش
bern
الممر
لينين
البحثية
التعديلات
##افير
جويل
عملا
قنابل
الصخرية
الغازية
الفلسفية
ويك
الفسي
كأفضل
ويشير
يرتدي
وروسيا
بأكملها
للقانون
##علب
##تيلا
أكي
##0,000
##يازات
حيوي
##ريغوري
يتمثل
الزهور
الواقعية
##,''
##اعا
##ظرة
##لفل
##عالم
فوك
لوحظ
لحساب
لكنهم
للضوء
والرا
استغرق
كوسيلة
للتجارة
##sm
##قبض
##ميد
##ents
##تيكا
##فاوية
آلام
الكرك
الناب
صينية
ماركس
والحديث
غا
وعض
بأول
البنا
عنيفة
الفروع
##cal
##تكساس
الإت
تيمور
صباحا
لاعبي
رئيسيا
الهاشمي
لجمهورية
##صية
طيف
بطريق
سياتل
الأبواب
##iy
نروي
وقطع
نقدية
وأفضل
دمر
تسكن
رفيق
برتبة
##الإسلام
الحجرية
المدرعة
##جران
تخدم
صالة
للبر
نعرف
الروب
للمواد
متقدمة
ويعتمد
kn
توك
وحق
##سترول
##يسلندا
أوباما
الخيول
معروفا
والكثير
الحوثيين
بسب
خرو
أوتو
كروز
يعكس
إدراج
وشاعر
النجمة
تسميته
والبعض
المتميز
برونزية
##ازر
اط
##ظيفة
بنز
##نانين
##قرارات
الإستراتيجية
##ci
##mid
##berg
##ning
جوف
عارف
عقبة
أطباء
الهرب
##بريطانيون
ويكيبيديا
##صم
##يخ
##قرب
مريض
سلاسل
الأعشاب
##بارك
year
المذاهب
ثقب
غيل
قدمه
##الونيا
state
نواحي
الحاجز
الوالي
بتصميم
التنفسي
##وعب
##كسدة
إدلب
الفرض
##كنا
الوصف
وقوات
ومدير
المنتخبات
مقط
أخضر
عازف
ينبع
style
اعتنق
مسابقات
ميلادية
##ury
##صحيفة
مواط
يولد
البكت
السحب
فعندما
والصين
central
##مسا
أجبر
وجزر
ستريت
مغادرة
انتشارا
وتؤ
بعمر
ستون
بيدرو
خبراء
بثلاثة
لاعبين
وبعضها
الرفاعي
العديدة
والثالث
والمعروفة
##رافة
##قتله
##وثائق
اخترع
قيمتها
الأعلام
المسيحيون
##عبي
فإ
##هارة
##عبرية
ماير
يلزم
الثمن
الحمر
غابات
واليون
##تنا
##ظور
##نزه
##رباط
غون
الناق
يوناني
##ييس
##كرين
مذه
نوح
وأت
سجلات
للسنة
instit
التنبؤ
بمختلف
واستقر
##ied
##اطف
شعور
إلقاء
الصدمة
الأجيال
المواجهة
##ويرة
يخل
أولم
فبعد
لنشر
المرجح
##ster
##ماطم
شهرين
مقسمة
وأشار
الأمان
للشؤون
أريزونا
##ship
##لازل
##ميلي
ولاح
وحركة
يلتقي
القارئ
المناهج
التسعينيات
##pal
##ليط
حاك
رفقة
نظير
ويقدم
تأسيسه
وأستاذ
مرد
تأخر
حملت
العضلي
الفيني
بإرسال
سرقسطة
والغاز
##شوف
مجد
##يروان
موته
يوتا
الأغراض
والفلسفة
أوكلاهوما
الإجمالية
الليبرالية
##طام
##كلاند
الخصم
تتسبب
خلافة
عملاق
ونائب
berlin
إنترنت
الأسهم
والكتاب
##ena
##موه
##هارا
اور
عميق
وحقوق
الجبار
الجيدة
الرزاق
الجزائريين
##ئذنة
##احنة
first
الغزل
الأنثى
الأهرام
للإسلام
##غاس
ir
##ature
##أجرام
أورا
صغار
الشأن
الشوكي
التعذيب
العبادة
نهائيات
المكسيكي
##قيع
##برتغ
##جانب
أخي
##نازير
السعد
science
##هاتن
##مخرجون
الربط
##بارد
##جبهة
##فاهم
##ياغو
كمن
أرسلت
أوريغ
لأعمال
الأسعار
والأطفال
##any
##كمان
##ودها
حدا
لبث
وقر
موني
بالخط
ملامح
المحطات
##out
توفى
أهلية
قنبلة
الذكية
النقوش
الاختصاص
##der
##ola
أبولو
لورين
وتحمل
الأعداء
سويديون
متجنسون
المستمرة
nov
دجلة
يدرك
بحضور
عضلات
الاخرى
الفصول
وبخاصة
المستعمر
العثمانيون
##work
##المح
الكولي
الناطق
زملائه
المحمية
##gro
##وبه
##نظام
برس
##لسنكي
بمكة
عائد
ليصل
نوعه
أنقرة
الجفاف
التوراة
مسرحيات
السوريين
##صاد
##نوبر
bro
جراحية
##وصل
شحن
تواصل
يفترض
##-000000
للبنات
##أما
##هال
soc
غري
##نهاغن
التز
publish
البعيدة
الخليجي
##ضن
##عرب
##ليلا
عجز
مدف
##واجدة
بحثا
لقوات
مرورا
منتظم
##rit
إند
الحضور
##ريوس
##ظاهرة
ادعى
تثبت
دوما
##ونيتسك
قادرا
الملاحة
بورتوري
إحصائيات
##ga
##ura
قدمها
لدينا
تجاريا
develop
الخليجية
تحط
إفني
شبيه
الكرد
ماريو
بإدارة
وعلاوة
ينتمون
الفقهاء
بالرياض
##شعر
##كييف
لافت
الإيث
معاملة
ومناطق
والتدريب
يستخدمون
##طحات
وجل
للماء
التحديد
السواحل
##ـ).
##نجاز
نعم
الحام
حدائق
مفاهيم
أكاديمي
الأموية
##نبرة
أجد
صبي
الحفل
شبيهة
للعيش
الفورم
مانويل
القبطية
اللوحات
المرسوم
البلازما
الفنلندية
##ama
عوا
يسير
القبول
إيرانية
##رواية
أوضح
الغر
ترين
فأخذ
البديل
اللورد
ووق
##ensis
euro
life
منير
الأخر
المحل
المكي
ومؤلف
أحاديث
التخلي
الرئاسي
##سوس
rec
فيس
يرسل
الصلح
عينات
استشهد
أردنيون
بنغلاديش
##قرت
""
##ield
##قعات
مبي
0–0.
حجما
منظر
نشره
مؤقتة
الفوضى
##امتة
ملب
أحدهم
انطلق
بركان
وتشكيل
##قيف
##يلي
##ثبات
serv
يتسع
إظهار
الخطط
القطيف
الهاشمية
أعت
صلبة
##وغرافي
براءة
مستوح
يتوقع
للمملكة
##ابيح
king
الحبل
قوائم
أزيلال
التقني
الفقري
الجمجمة
##سامح
الهج
تسببت
الحلول
التطورات
عذ
أثرت
بلدا
لولا
تخرجه
المنشأ
الرئيسة
المنزلي
بمجموعة
والدفاع
الحواسيب
##عوم
##rian
تلم
-0000
الفهم
ناروتو
النباتي
وإيطاليا
##aut
لعرض
ونال
فردين
الواسع
الناخبين
شد
زهير
يحكي
##olution
الخشبية
العملات
متكاملة
champion
##ür
سأ
مطلق
بمرور
أوساكا
الذكرى
معماري
##ماغي
one
زينة
مرسي
وأعيد
وتعتمد
##ضافت
تسا
قتيل
نقلت
الأيوبي
التأليف
المساكن
آنا
صقر
يسهل
مشتقة
قتالية
السماوية
##اپ
##زئة
sw
كلب
ناجي
العفو
المعز
صفراء
يمكنك
بإضافة
للفيلم
والتحق
المضادات
##رياضياتيون
تشيكوسلوفاكيا
##نوف
##اقير
##إدارة
pers
الجند
يساهم
تايوان
بيكتشرز
التابعين
##وشن
وطرق
القنا
عميقة
كلارك
ويصبح
وبالفعل
الجزيئية
eas
out
رزق
كجم
سبار
ملكي
أولية
كلثوم
التلال
الأكراد
##ازف
##اغواي
اربع
حسام
البقر
الجور
درويش
المالكة
كتاباته
##ضاوي
مسج
وأك
أراض
أورد
لاقت
يكشف
المحر
التعديل
رياضيات
##قرأ
عت
ــ
##قصور
ذوو
اللب
الوض
تراج
وابت
أحزاب
انحلت
وافقت
مكسيكو
دونيتسك
والخارج
##oy
##كرياس
##هراني
##ينيوم
عصور
ميكر
colle
البلغ
الحبي
معاصر
وقدمت
أنغولا
تقليدي
للجميع
##رول
##منى
##ندة
ودور
المرات
الفيلسوف
##za
##وارق
محم
يور
##ريحات
كريت
وتلك
فأصبح
داكوتا
الأوساط
##قيح
##نتان
أنك
تبني
أضعاف
بقرية
الفعالة
المشاعر
فرنسيات
نمساويون
والأعمال
##ايدة
##راكب
تليف
استبد
مصممة
الوسائط
مونتريال
التناسلية
##::
##rol
au
##أفضل
##ابيلا
##سكريا
pres
بحجم
المرئي
للعراق
المعابد
والتعاون
كازاخستان
##جبال
##ديلا
##ريرة
##لاحق
يوك
الشيعي
المراجع
والسلام
التصفيات
والزراعة
##ٌّ
##ini
##حيم
##ورخ
##براز
للتش
للفن
بنائه
تصريح
تونسية
إصدارات
الروحية
المحيطات
##زيه
##كلا
##لوا
إيم
نحت
الضم
وقوة
إلياس
بوصفه
والأع
ألاسكا
برعاية
جغرافية
##قباط
##يانة
اطلق
وأيض
بمركز
والأق
ومخرج
أوريغون
##ony
##|''
##جددة
عني
##باراة
الدمش
حكايات
وتركيا
الأفعال
المقصود
الأسطورة
عس
##يسكو
معن
الخضر
الليزر
الموتى
اسطنبول
الاتجاهات
##ظير
##ينوس
بهما
تكمن
منفذ
وكلية
التأكد
بالقوة
العبارة
المتوفرة
##orm
##سكك
##ومبي
وأجهزة
والأردن
التعليمات
##ipt
خصيصا
الكثيرة
والقوات
الوظيفية
##حط
lib
حصد
استر
تحسن
مسجل
david
الغرف
تتمكن
قلبية
لأداء
وصلوا
ويبدأ
العميق
المفضل
انفصال
الباطنة
للأبحاث
كارولينا
ڤ
غابة
نتوء
يمكننا
النسائي
##its
##ضار
##ثرية
ألغ
غناء
ليوب
الطيف
خلدون
الأرواح
الانتقام
كأن
أنهما
##ization
الجيني
الكومن
أعمارهم
##كاية
زاك
لست
إقام
قيصر
يتضح
الترج
عقوبة
هلسنكي
##bi
##wa
خم
##جموع
بمص
ثان
##duction
بتشكيل
المصارعة
##مانة
##وائع
هاج
##عائلة
يتكلم
وصناعة
society
والرئيس
التربوية
الثلاثية
الحسابات
بالجزائر
##عق
##اءت
##جوما
##ختار
city
مطعم
وقود
كنائس
لإطلاق
الإمبراطوري
##por
##لامية
##وعيين
قلبي
##000.0)
سهولة
مقاطع
مقربة
الأعمدة
السعادة
الجاهلية
##va
##ines
##سيبي
غنى
جمادى
العينين
الهزيمة
أيرلنديون
##عطي
##نتر
##ئناف
spec
عضلة
وحيث
egypt
البدو
البيانو
الإماراتي
والإنجليزية
##cle
إني
قمع
##طورية
خفيف
المتد
تعويض
وقائد
الإخراج
البطريرك
##فاة
##ادمة
you
##حوصات
الهضم
تتأثر
الجلدية
السياحي
المقاعد
الاتحادي
الضرورية
الفورمولا
##فساد
برد
منغ
ناغ
فائق
لاول
سنوية
وبقيت
يرتفع
برازيلي
التجمعات
0-00000-000
##ئبق
str
فاش
high
والاس
##مهندسون
##بتين
##ميون
عات
نفط
sign
لكأس
اللذان
محمولة
0000/00
بالمركز
السيناريو
##ugh
##أحد
بكت
##ائلات
البه
ظاهر
الإسم
بوردو
##وديوهات
البخار
بإصدار
كمحترف
التلفاز
الغنائية
المتغيرات
##)"
##هاني
##وراء
أجر
##اريكا
استح
توري
مرمو
مقره
ويشت
برفقة
امتلاك
##ble
##هايم
طائ
##تيبات
##كتورة
نظمت
وشرق
public
وبريطانيا
##ومو
##قاعة
اصل
بسم
##احنات
روجر
شباك
شهري
احداث
الخبي
بناؤه
للنقل
السجناء
##فيتش
##وجات
تارك
كولي
يفقد
يجتمع
##aint
##ثيان
##كنائس
نسبه
ومنح
يسجل
بالمح
دييغو
والحي
المؤسس
الفنادق
##ano
##زيق
##مودي
sim
حبوب
يعلن
ثانوي
مدينتي
الجريدة
الحريري
والدولية
وضم
يحق
خيار
طلبت
ينجح
بالأح
بخلاف
تقليد
نوعان
لإقامة
الناجحة
والاجتماعي
##ويسرا
بافت
الجوه
الرمل
تراكم
والدول
كلينتون
والتطوير
##سمت
##ردات
##شارع
النحل
##ek
##عاب
##شتات
##لافا
نشط
##ional
أكدت
دافع
مصاب
وعدة
north
زيدان
نقلها
##ـ(000.0)
المختبر
##yp
##(00
قاض
##conom
أليس
تعنى
وأكد
أسيوط
ربحية
البعيد
والأمن
المدرسية
يابانيات
المغناطيسية
##ورجيا
أوستن
وتعرض
الخالق
مكانها
الأنباء
الاحتراق
##ديمه
##قبرة
تتيح
قدما
وسمي
موزعة
مقاتلة
تطويرها
##ec
##ديت
##قاطع
##قاها
بقد
تشر
بورتو
السائق
شهادات
يمنيون
السجلات
المختصة
##تهد
##هذه
##رتبة
mor
##عملية
##نظرية
سهلة
عانى
عملة
ينمو
نشاطات
العميقة
للإصابة
##عط
##أخذ
تعر
جرح
يقد
سراي
لهجة
الصنع
(00-00
الصيفي
##املين
تنافس
لاحقة
وتعود
جسيمات
الحوسبة
بافاريا
الكهربية
المتميزة
كريستوفر
##اموس
##راعنة
لغير
الشحن
سيمون
عندهم
وبرامج
##صارى
##اريون
برات
الحلق
تصحيح
النخبة
محاكاة
والشعر
الثورات
الزائدة
##formation
كوبنهاغن
##ml
##قراط
سعى
بعضا
ترشح
منحة
إضافي
بقليل
كبريت
الدالة
جامعية
الفلاسفة
يتفق
يسمع
اليومي
##oll
##طري
{|
##نساس
كمع
00%.
جيني
ينسب
البلع
الفرج
جيرسي
المبيض
الفقهية
##لقد
##كوني
ساع
وكم
##روجين
الرض
بقسم
وتلقى
استقبل
الأثناء
مرتفعات
##طالبة
التبغ
تنسيق
شكسبير
نيكولاس
المسرحيات
الرومانسية
تهم
مصح
##إلينوي
صوتية
وابنه
والماء
الكابتن
معمارية
وأستراليا
##yt
##ross
##رعون
ثمة
##ating
اتفق
جافا
جراح
خوفا
مثيرة
هولمز
الغريب
المتنقلة
##غلاق
##أجهزة
##اسمين
صممت
كورت
هابل
هرمز
توافق
نوكيا
الرملية
مانهاتن
##amil
##كاري
##يقاع
##وقاية
جرعة
لتصل
بديلة
رقيقة
قسطنطين
الإشعاعي
##ida
##خلف
باش
ضيف
this
آمنة
رائع
أبراج
اعضاء
الأوز
يقولون
باختلاف
الرياضات
والمجلات
##لفزة
بالل
وجوه
فالنسيا
الجنسيات
##جول
فغ
جنسي
يفوز
مختار
التميمي
##نسبة
نقط
لشؤون
استئصال
الصهيوني
نم
##urus
اكس
فتت
أوري
أقوال
الحزم
كاد
معدن
بروكسل
العابدين
المحافظين
##لسفي
فنج
للتر
(0.00
يوافق
عليهما
مظاهرات
والسياسي
الأمازيغية
##البات
الإش
درامي
ويأتي
الصعود
بباريس
وفلسطين
sl
كط
##ورام
فاضل
طالما
مستوي
قطاعات
المرشحين
}
##ربها
##رالات
أهله
ابرز
مهند
أسوار
دوليا
مهددة
وآسيا
المعتاد
استقالته
السوفييت
##uel
##ven
##ياها
تند
للفرد
mem
##أدوية
بارد
بنما
هيرو
الأديب
التحقق
الكرسي
بكثافة
المجالس
بحرينيون
الإفريقية
##نفذ
##uary
##قترح
وفع
##.0000
cult
##مستكشف
##ينغتون
بالإن
الطلاق
مجلدات
الاندماج
النانوية
ديمقراطية
##ريسي
صحفية
انتباه
بكميات
البادية
المتكررة
##يزو
##وارض
ترع
أسوأ
بأحد
قويا
للأم
ألقاب
قياسي
مصنوع
موحدة
المدار
لفترات
الاستعمال
البنفسجية
##تيون
برق
أقدام
أمنية
تشابه
تشييد
مستوطنة
فيزيائية
##اصد
na
دف
##ابست
خالية
والعق
ويعيش
الثمار
هاب
أمره
حمود
ديار
لحكم
لموقع
الإجتماعية
##تهن
أثري
قبله
##فسيرات
والتى
##الولايات
الباقية
تفاعلات
كيان
يضمن
المنه
لودفي
##ابح
##سمه
##كيس
##المة
##ركيا
إرت
الزع
صفقة
حائزة
الطقوس
ضرورية
هندسية
الأمانة
الخسائر
الموحدة
العقوبات
الامبراطور
##ماعي
تنز
بركة
##برازيل
الأمثل
والحفاظ
##لوس
شكلا
وتتم
ممارس
والمغ
المقيمين
##ael
##هيري
ثال
متد
##راعاة
##راهية
لنهر
الالم
تأهيل
سراحه
ومسجد
ميزوري
البحرينية
زنج
أوزب
لانه
مراه
قبالة
الحفريات
##als
##وطي
##اثان
mer
تأهل
حاجز
مائي
الخطي
تتشكل
تعليق
للقرن
تكريما
وتأثير
##اوى
يصب
##التين
حاكما
##ولوجيات
ازدياد
افتتحت
##واتيمالا
لعمليات
الإصابات
خن
ضده
بادي
لكونه
منفرد
القاعة
المئات
الفاكهة
الناصرة
ستيوارت
أونتاريو
البابوية
نض
##دمجة
##مساك
##ليموس
بيئية
والني
الخلافات
##روقة
وفر
تربة
حلمي
قراء
هدفين
الواجب
حسابات
المتصلة
##ريكو
ودع
##أسماك
##رافقة
تتسم
وقته
الباز
معترف
التراب
النقاش
فرانكلين
ويسكونسن
والمنظمات
##ضمون
##سفراء
إصاب
بندر
بورغ
فيلي
مفيد
التوت
تقتصر
بفرنسا
والقرى
محتويات
##طيق
حش
##اذبة
شائ
قوام
نخبة
نيابة
تينيسي
مشكلات
ودراسة
الجسدية
الخطوات
الفائقة
الكومنولث
##أولاد
##فرنسا
work
لطفي
ماكد
هدفه
والأربع
بالإعدام
##fr
##vent
ذهبت
فخرج
فدان
للإن
علميا
شخصيته
##تيل
##شيش
طاق
الفيض
island
##........
للأعمال
الفريقين
##خرد
الجع
حداد
مدفع
كنانة
المنفى
الديانات
المحاضرات
إستراتيجية
##زاس
##غلبية
الإض
سماع
موجه
وصوله
المبلغ
والبيئة
استقلالها
الأوكراني
##ياش
قضا
##لافية
هداف
بمجلس
للدول
متغير
يتعلم
قصائده
##يدون
ارض
طيب
تجرب
زلزال
ولاعب
البلوغ
قابلية
الإجهاض
فعاليات
##شرا
##سارة
##غشقر
تمد
لمحمد
وإسرائيل
والعلاقات
##ويع
##lapse
وأمه
ادارة
والحيوانات
##وضا
##يسين
فيد
بالذ
غاري
لأبي
للتج
الورد
بنسيل
الهروب
ستوكهولم
##دمت
سمر
سونغ
نزاع
langu
بتسجيل
مستقرة
الخريطة
##ثمر
##00.0
##عيون
إشع
##خارست
عربة
group
الفين
حمدان
صاحبة
وكثيرا
التقديرات
المسافرين
##حيى
mad
تغيرت
مكانا
نانسي
بالمست
للتعبير
منافسات
الأنبياء
##فضاء
##مائي
dec
إيز
غيب
فرو
لكم
تيري
درعا
سكاي
غشاء
كأحد
كرسي
ماذا
الحقول
المثالية
كارولاينا
##اندة
ممت
##قهلية
محرر
##ملحنون
العود
ويحدث
الدروس
المناف
تقاليد
فيزيائي
تضر
أضيف
بيبر
ضروري
المأمون
العلاجات
(0000–0000
ضف
##انيس
إرب
بهي
دمرت
عانت
وجبل
ألياف
بكتاب
عاملا
العمري
##لينغ
##وكسي
سبر
mark
فقيه
القوس
جاماي
ممكنة
العقاب
المخصص
والاخت
يعرفون
باراغواي
##وصور
يعل
وأهل
عرفات
منافس
school
الأطلس
السلبي
الصعبة
والصحة
المفعول
كمح
أقصر
الرع
متاح
##بطولات
الخريف
النقيض
موضوعات
التيارات
##ونو
##قيقا
rad
زعم
##ision
يشهد
يصور
المحسن
وطريقة
الإدراك
##oma
##ract
##وارج
cat
les
عزت
نزع
##فقهاء
عقدة
الأرم
حصوله
داوود
موقعا
اكتساب
أسترالي
00°
آرت
نهي
أجرى
ثقيلة
الكاتبة
مناسبات
أوي
##بداية
الرغ
تذهب
ثروة
يافا
توظيف
والحص
يومية
استفتاء
كمبيوتر
مفاوضات
الجغرافيا
أننا
رمزي
يأكل
خيرية
أرثوذكس
البطالة
البلديات
##انح
##خذه
قف
##مجلات
رايت
هائل
الجاف
المشروعات
##افن
##ونيات
الأمد
وبلغت
oxford
أقاليم
اللجان
##gu
##رسم
##طحة
رمادي
عريضة
المفضلة
النوعية
والآداب
الاستمرار
##جيج
##كنت
##شعوب
##ichte
ساكس
عاصفة
وبالأ
وإيران
##يرسي
الين
##كندناف
black
بصفته
ميثاق
هياكل
museum
تقدمها
دبابات
والدولة
النيتروجين
##mp
اذ
إريك
الروك
ترخيص
ممثلي
يعترف
التضامن
السنغال
بالسكان
العصابات
زام
وخل
أوجه
التنقيب
العلاجية
الكاثوليكي
##kh
##أق
##cer
pap
كلاب
أوضاع
والخي
المقطع
مسافات
الفوائد
فرانسوا
للاتصالات
##سباق
التمه
النهج
انشاء
الرازي
الزائد
الكافي
المربع
وقاموا
الصويرة
السوربون
##uck
حرس
أسعد
مراس
واتخذ
استضاف
العروس
والمنطقة
يسبق
معاني
وامتد
وذكرت
وطالب
لجمعية
مخطوطة
المقابر
##wh
##بى
##way
##حون
##وتار
بلده
قيود
للتس
ميدي
وجون
التحص
الشبي
المذي
جوسون
القصبة
المهنة
وخدمات
والبحوث
المصنوعة
##ja
bur
فاض
وبم
طورت
هاين
يقسم
أنسجة
اللؤلؤ
حائزون
فيلهلم
اهتماما
للدلالة
مارغريت
والطاقة
##ماها
##موقع
:''
##وفسكي
آليات
الخلط
تنشيط
عبيدة
بالمرض
كيمياء
البارزين
الإعلانات
##لخ
##جزة
land
فلقد
وعملت
عسكريا
##عله
su
يحل
تفرض
ضياء
الأطر
يسكنها
المعاهد
قسنطينة
للجمهور
##ضد
ضح
##طبعة
عاج
كاظم
مثلث
مستح
وانه
south
العائد
للسلطة
رخ
حلت
لاه
##جارات
شكري
نشطة
الثلث
بمبلغ
المشار
مجانية
مصريات
استعراض
المقارنة
##unis
حلق
##وسوفو
##برتغال
تحفيز
رضوان
مغلقة
والجد
القرشي
بتغيير
تدريجي
ابتدائية
الخمسينيات
##els
##فقد
##فيك
##قيبة
##وغان
jan
دوب
رشح
لإست
المنع
جازان
فأرسل
الصحابي
المعاني
الانتقالية
المهرجانات
##نجرة
حقن
##واصات
brit
بيرن
##موسيقى
شرقية
الباري
العميد
وكيفية
الهياكل
بالمشاركة
##أع
##جهود
##شاير
ربه
وقل
بيتش
روابط
الأحجار
##اقش
حري
سؤال
فراغ
##نسانية
شارلوت
شيشاوة
مسؤولا
جزائرية
##gan
الفخ
تترك
ندوة
براند
وليون
ينطبق
كائنات
مروحية
##بست
التت
يشرف
تيمية
وصاحب
القسام
تعليمات
##دوا
##قيته
##ثمرين
تتصل
لوري
موقعه
الصداقة
##بنسيلفانيا
##بعوث
خات
مني
ميك
روان
يوني
الدرد
الرفي
مقابر
لويزيانا
والمدينة
الاسكتلندي
صر
tim
00).
سرقة
وثاني
بالياب
التوصيل
الجزيئي
والإدارة
تقلل
تلام
صناع
وشبه
اصدار
رقمية
صيانة
الشفاء
الصيدلة
للتدريب
##ثيو
##رنست
ظبي
left
ستين
ليلي
الدوم
شبابه
00.00%
الحافة
تستهدف
والحرب
الأقليات
سينمائيون
##ria
bel
شوك
بذور
هاون
وارسو
يمتاز
وتعليم
الظاهري
##ضغ
##بعثة
##روان
##ناوين
زائر
وتشت
أسئلة
اضافة
تعترف
محلات
والمي
والبحر
يشكلون
المعسكر
المناظر
##نث
film
العزف
حاملة
الفارس
والجيش
وشاركت
التوقيت
الانقسام
القراءات
بنسيلفانيا
##alk
##فئة
##قاسم
الظل
لاين
##ناشطون
أدولف
وفيات
للمسجد
ووسائل
يتعامل
الدرجات
المدارية
##یر
##met
##وجا
##cept
##جماع
صعد
وآل
ببطء
بروم
تورب
الصفة
خشبية
لتشمل
يتوفر
الروضة
التجديد
القبلية
التنظيمية
##شئت
ايه
رات
وأص
##press
أنثى
صربي
##سيحيين
أواسط
المصد
أوروبي
الإحساس
البعثات
مستشارا
##رحل
##ولمة
يغير
أصناف
الأجل
بمعهد
بأنواع
eastern
الصالحة
المولود
##وثة
خد
تعق
وموا
الداخ
بكامل
معتدل
##ography
الآتية
وتدمير
ميزانية
اجتماعات
يستخدمها
##زاد
##قارب
غود
صيني
اجراء
سبورت
للجسم
دائرية
الجولان
المرضية
0000-0000:
##باض
##بعه
##ادون
##قيان
ركن
تدعو
سمات
علية
وجدة
المناق
لليهود
الأجنبي
العمراني
آلي
الغي
بجيش
حازت
ينشر
الجوز
المدف
بطاقات
الإعاقة
المجموع
وعمليات
##اسى
##غلي
حريق
والى
وللم
مسارات
إنسانية
المرتبط
والصناعة
الاصطناعي
##اعون
سبأ
صاغ
فيشر
قروية
واشتهر
ومراكز
cambridge
##burg
##ينون
##احثين
ودار
العرف
تمرير
شقيقة
الرجاء
المفتاح
الدبلوماسي
الرأسمالية
##new
طلي
لشخص
تسويق
كارثة
التقاط
السبيل
##طون
##ابها
امر
شيعي
لوسي
تبريد
وبلاد
والفقه
##ئته
##امس
##جنوب
##فترض
##ملعب
وته
جيمي
غران
فيلس
الركن
التوقف
بتحويل
قياسية
مارشال
معتمدة
ملبورن
وأنواع
ويتضمن
##ید
##هيمن
حاص
##ناديق
##يدرات
متصل
ميلو
نتاج
الأيدي
الترجي
وفاتها
وثلاثين
##زرق
طر
##ومون
##يداد
فلي
الصب
عقيل
البصر
الصمام
المستقل
للجامعة
##eschichte
المقاتلين
##ؤوا
##سيط
mal
##درالي
العس
بعلم
فانه
لونه
نادى
وشغل
تتوقف
والمث
الخيمة
المرجع
أسبوعين
بعمليات
الإصدارات
##ty
##her
##ops
##فعل
##اعدي
##دلال
شيب
علوي
كالت
##ريكتين
توليه
الشيرازي
دبلوماسية
##ani
##ادف
هبط
##ادثات
##شابهة
الدن
رمزا
غانا
البكر
الفلم
المعن
يونيف
center
كاثرين
التسلسل
والأخرى
البروتون
##بقى
##isch
##ثمرة
jul
جرج
ردا
غلي
يفوق
ضاحية
نسبته
الروحي
الضابط
يمكنهم
بودابست
##كاو
##بهات
دعت
منص
الصوف
الكعبة
الصراعات
والحكومة
##bar
##عري
##قيت
##ائبة
والكر
قدرتها
انتفاضة
وخارجها
*00
مائ
ودم
يظل
أمان
شرعي
اتساع
لتاريخ
william
##atic
hol
##عندما
ألقى
مفاج
الفطر
ألفريد
الأسرى
استيعاب
الدعاية
بناه
فوري
قاعد
لاسي
house
أقراص
بحقوق
والمخ
الفاعل
إستخدام
##أغ
##نصر
##ريرا
برذرز
مزودة
ملاحظ
برلمان
التفتيش
الروائي
##آيت
##جمان
##سيما
##لاوي
ميغ
منظم
هواء
right
جلسات
histor
الإخبارية
##ole
##ides
##ناوي
##واته
ناص
ويص
الفقار
النجار
أولمبيا
الأنبوب
المكسيكية
kh
##stal
##فلسفة
هاوس
books
الفرص
يشتمل
باتريك
وثائقي
الانجلي
الفترات
الاستحقاق
وبالتحديد
الألومنيوم
##حسب
##قبة
مصب
وبت
ورج
استع
بقلم
تدرج
الدرع
اللاتي
وتنقسم
التكامل
تنفيذها
##فيلي
##معالم
##ونيوس
تحلي
خريف
سطيف
نايت
نيوج
وحزب
يفتح
الجبر
العجز
التحرك
لبطولة
المساهم
##gre
##ضاي
##قصاء
back
بلال
خبير
لطلب
البطي
البوب
الصخر
associ
للجهاز
موجودا
##sl
##قصر
##تحاق
##كونة
قاط
خزان
الدنا
غرامي
##استخدام
السمات
للأشخاص
(0000–00)
##تاحة
##وبرت
اهم
بأم
تشاد
ذروة
وحدث
الكتف
وأصيب
الوقوف
الفصائل
المسجلة
الأولمبياد
##اتة
##ادرت
تفقد
القفر
جانبية
للبحوث
والأرض
العنصرية
المسابقات
داخ
##ضادات
open
يكمل
اليدين
الشبكية
الأفارقة
المعتقدات
##)).
##البي
##تمين
##طارد
غزا
هوك
لاخت
يدعي
تنطوي
المطاعم
عاصمتها
الأربعين
##part
##الأس
##رحان
اصطنا
للملا
مجزرة
ووجود
وأعلنت
العينات
الكوميدي
وشك
##قنوات
رياح
وقاد
أصدقائه
الخلوية
الزهراء
العدوان
الفئران
الموانئ
ويليامز
الرافدين
الكوميديا
##فط
##أكثر
##كولن
تيت
حذف
شعاع
ألحان
النصب
منصات
وأعاد
والجزر
##كيا
حث
##urch
mich
للاعت
إقليمية
المنامة
الميزانية
الجيولوجية
##يض
##تام
##راخ
##هنة
بمق
أمضى
يفهم
مصدرا
الحداد
المنشورة
كاثوليكية
##مسجد
وأست
مستقب
هاتين
وأخرج
وتبدأ
ينحدر
للمرضى
الرائعة
الليثيوم
##نجاب
bir
بلف
حقا
كبر
##أمراء
##دبلوم
فبدأ
ونحو
يوصف
الغوص
نادال
هجوما
وموقع
الإجراء
بورتلاند
##")،
آش
ذمار
متبا
احتفظ
شمسية
والدكتور
##ped
##معة
red
كوز
يرفع
السعر
نشاطها
منتخبات
الإضافية
الاحتمال
الانفصال
النزاعات
##قطب
##مدت
cd
##لتهم
علق
حجرة
صيدا
الآبار
وكتابة
الغزالي
سانتياغو
##=0
نقش
بحجة
زمني
يعطى
الخاض
السعي
زيورخ
ومنظمة
التربوي
الشيعية
العشائر
المعرفي
بوليفيا
والمحيط
##اذب
##يفو
dem
بوغ
تحل
صلي
دفعت
عفان
فأمر
لبيع
اطلاق
عقيدة
لمعظم
بالشكل
المصلحة
lo
ماه
ناز
##ارتين
##مانغا
المرق
مؤقتا
الرطبة
العنكب
المضيف
والمياه
##دود
##انول
##جيون
##موها
net
ساكن
عسير
فعله
ليبي
commun
القاتل
باتمان
التشريح
الساخنة
##جيه
##قبول
يدي
عمدة
ينصح
أليكس
تتطور
وأنشأ
ابتكار
##sten
##أمير
##ركيب
san
محط
للبح
الجوف
الحجاب
بالجيش
مختلفين
##نتس
##عبان
ديد
صيغ
ووض
بأسم
مقار
ورجل
الجار
مشايخ
الكيما
جنوبية
التعادل
##رادي
##ستار
##زونية
##ستهلك
معقد
سماها
العظمي
المضاع
حديدية
مواصلة
والمدارس
##bre
##ـ)،
##نفط
##يرغ
##atus
##شيون
##ieved
أبلغ
سليمة
لسكان
الخواص
وإصابة
الإفراج
التمريض
##aa
##(0)
##ذكاء
##وردون
لرفع
أفعال
تحتفظ
حالته
السلمي
الجذعية
عائلتها
للطباعة
الإكوادور
##رسول
##وقوف
مجل
ذالك
شعيب
لتقييم
المرجانية
##تمت
est
لتد
ورك
##هيرية
بجنوب
كركوك
العملاق
المؤثرة
##ذكرى
##ينيو
أتت
ذيل
##راضات
بنور
تفصل
صيفا
مثيل
وحضر
النطق
وتشتهر
التعدين
المتاحف
والمسرح
##باو
##ones
##دوار
##ظيمي
تأش
نوم
##وفيون
أردني
الفاس
ينتظر
التنين
زيارته
الخديوي
التجريبي
ob
##publ
خلط
##كواكب
سلبي
مصير
أنجبت
توثيق
نافذة
أوبلاست
مارسيليا
رص
##ريحة
##قرون
mas
رقص
000:
fall
تصدير
صديقة
قطرها
بأمراض
متسابق
ألبومات
سلوفاكيا
##صهار
##قلوب
sam
over
جوار
قدوم
ودفع
التأكيد
الفولاذ
بالعاصمة
المستدامة
المعاملات
##كوت
##ليفه
##وطين
##سلسلة
mart
المتنا
الكريمة
المليون
يونانية
الإيجابي
والعلماء
المحاولات
لوكسمبورغ
##اتو
##خلي
##ruct
##اكنة
علی
ومق
الهل
بروف
أوسلو
الشيش
تسهيل
منشأة
الحبشة
الحلبة
التشريع
الكشفية
المرتفع
والشركات
##صان
##فاقم
مقص
طفلا
مايك
الفخذ
شهداء
والأش
النقود
بتحقيق
قضائية
ملائمة
الصليبيين
##نعة
لتم
أغني
البا
رأيت
##وموسوم
زمالة
شديدا
صحابي
ودخلت
robert
بأكمله
صعوبات
استدعاء
مستخدمة
الشريفين
ستانفورد
البنكرياس
##هوب
جدل
##لاطين
اكبر
بيكر
الزكاة
الوسيط
وحاليا
اكتشافه
الحديدة
التأسيسي
والتقاليد
##ناس
//
##airo
حبه
وقرر
زواجه
شواطئ
نجران
ارتداء
متطورة
الإرهابية
السويسرية
##ئيلة
ياك
ووري
أرباح
منتدى
وتقول
الفرار
لكونها
للمنتخب
البركانية
##باش
##بورن
##داني
##وثات
##بابوي
متجر
##منتجون
أصحابه
المحدث
الناطقة
المفاتيح
الاستهلاك
##لهم
زيم
سني
دماغ
محام
السرد
رمسيس
غامضة
التقاعد
##بارا
##حدرات
داون
تفعيل
للمريض
واليوم
الدماغي
القنبلة
البدائية
الإحصاءات
البيولوجي
لار
السلك
تستند
معناه
social
للمادة
والمدن
الأولاد
العشرات
بوخارست
المؤسسين
والإسلامية
الميثولوجيا
é
##قيل
ep
##كانا
##ويتش
bre
فضي
كيوتو
لشراء
يحتفظ
النازي
وانتشار
##سبه
##فلي
##نته
pop
موحد
##بعاثات
الراش
الشرع
وأصدر
econom
الفنلندي
الكثيرون
الملائكة
##iet
##شاون
##وراي
إيث
تظل
جاف
هيت
retr
ملحمة
انتظار
نورمان
وينتهي
مجتمعات
المحاسبة
الاستراتيجي
##ادس
##الآن
جوب
صوم
مفق
ووز
##أجسام
وأبرز
أنواعها
الأصابع
000-000.
الدقهلية
القرآنية
المعاملة
والرياضة
المستعملة
##عج
##رحة
##كست
##نيش
##يند
بإي
كوف
ودون
ورأس
تأثرت
حاكمة
وفيلم
واقعية
الكتيبة
##كونت
أمكن
تقيم
رأيه
إتمام
الامن
قائما
وفازت
لإزالة
وإعداد
مضاعفات
والبرامج
##iana
##مايو
حفلة
إنجيل
الأنج
التها
الساس
أبنائه
اكتملت
الرقبة
السامي
الفقرة
##أخ
##ita
##حصل
##صون
##واهد
فاد
هوف
ورش
##علامة
##والذي
التوس
مبيعا
والآن
الخيار
الزائر
المنيا
لتسهيل
أنطاكية
بلو
##ities
وتقل
##(0000)
##راجعات
الحلم
تقاطع
السامة
الكلور
المثانة
التدريبية
##بيدي
##جالس
##شفير
دامت
يرون
مؤلفة
ومؤسس
يعالج
الموسي
البروست
اللهجات
##لبن
##وانه
تفض
صام
فأر
امتد
دنفر
أندرو
الممل
انواع
بنشاط
الساخن
الجراحي
##صره
أمة
أيه
سمعت
مدرج
وأقل
وإلا
المنف
خرائط
لفيلم
الشعري
لتوليد
الحريات
تلقائيا
##”.
##cke
##اوم
##ددت
الرف
الغض
مثله
وعبر
أدناه
الراد
السكة
تليها
ملتقى
مساعدا
##ological
تعديلات
والشباب
##كيميائيون
الاعتقال
##افؤ
##يرن
غاب
يام
##ثالثة
الآر
بخار
تبنى
شيعة
بديلا
دلالة
comput
وجزيرة
الملاعب
##سكة
##جازي
لبر
##اريات
##لاجقة
بشراء
مساكن
واجهت
المهبل
##ىء
##ago
##يلا
##cycl
نمت
تؤمن
نافع
##دوريات
يتأهل
الطيبة
الالكتر
والنظام
والمسلمين
da
##بابة
##سيوس
##ونيس
أئمة
ألتي
تنفي
ذرية
صوتا
طقوس
مملك
محاطة
اللذين
اندماج
طبيعيا
استكمال
الفقيرة
##ينيس
كيه
الرؤ
دفعة
(0,000
الأمني
التحدي
تشيلسي
نيفادا
الإقلاع
النفطية
##التص
##وليه
تبحث
درهم
وزيرة
ومدرب
البياني
للشركات
وانخفاض
التلاميذ
اسكتلنديون
##صحف
##تمبر
##كملة
سبح
لحن
##العاب
##مائها
للام
ليفي
مصنف
وألف
أفندي
مومباي
المواصلات
##رنها
##فجار
##لطنة
polit
أسرار
انتجت
والإس
وايضا
البلطيق
المبنية
لسباقات
للسينما
##pp
##موال
##يرلندا
بمكان
والمعدات
والمشاركة
##رحات
##رقابة
تلوث
مصرف
وجبة
وحاز
والمج
الأغلب
المسجل
استبعاد
مشاركته
الليبرالي
##ala
زر
ييل
##عضلات
تدمر
##فيليات
أصابع
اللوم
دائري
مذكرة
مسجلة
العرائ
الإثنين
الدهنية
النواحي
المحاكمة
##lex
صحف
##عاءات
أجمع
روبن
لعبد
##-00-00
أسفرت
أقلية
الجها
حدثنا
سعادة
طباعة
للهجوم
اعتقاله
العبودية
##itz
ومج
بروك
دبلن
##مكانية
جمعها
مقعدا
واسعا
ولفئة
الرجوع
التمثال
والسلوك
العاطفية
الإسماعيلية
##ولوا
##ersch
بيتي
ثبات
قتلت
مزود
ووجه
بالمت
ترميز
الكردي
المرمى
المنقار
##mos
##ives
##وعيون
بشرط
كلير
وغرب
ومعت
البئر
الشغب
بنائها
غذائية
ومنتخب
لمحاولة
مصطلحات
البريطانيون
##rag
شمع
لاغ
مضر
##المست
إستر
بلون
أعيان
المنص
بالضبط
الدوائية
فرديناند
##تبلغ
vir
ترو
جني
##-000.
paul
بحركة
رائدة
الكلوي
المدرج
ببغداد
حكومات
ماركوس
الصفحات
0000-00،
المساحات
##موند
سلمة
ونظر
بركات
كبديل
والتد
والمق
الأمية
المرصد
لتحويل
مفاتيح
وكليات
ولادته
يحملون
تقديرات
اللاتيني
المثليين
المصريون
##ديرة
بيا
غول
long
text
خارق
ميلر
##dition
المهن
الثلوج
الخفيف
الإرسال
الاصابة
##شفي
##وذا
obs
نقي
##overn
##لحفاة
(0).
سامة
الديون
فاعلية
إنشائها
سنتيمتر
فيرجينيا
الإحصائية
##can
سخ
##قيها
سويدي
فصائل
التنقل
بسرطان
الغنائي
احتجاجات
المتزايد
بالبطولة
بلجيكيون
##har
##صوت
##قته
cur
تحب
وأغلب
وقرية
يتلقى
باللقب
الاحتفالات
##df
##سق
##ange
##بسون
##ميمة
##وصية
جيري
كامب
نافس
بالتر
نهيان
يتزوج
بالإسكندرية
##ناقش
يصح
cons
الكا
سوزان
ومنتج
الزيارة
##"؛
##جبه
##ودر
##اسمي
يتأ
##glish
##ارسيا
إناث
نيوك
ونجح
الكهف
الآيات
مزدوجة
ومقرها
يعتبرون
الخصوصية
للاقتصاد
المتكاملة
قوته
اشتغل
عالما
لكثير
متأخر
يقابل
التغلب
لاتفيا
والشام
المستوطنات
##جرز
##شاه
##الان
##سرعة
##صفور
طوب
##بلدات
##بلدان
حنبل
أرسطو
الأهم
مالطا
ازدهار
بانتظام
##idth
##über
##بورد
##جيكا
##نساخ
alp
##اضطراب
الأكل
البرد
برميل
تطورا
كارتر
هدفها
الإنقاذ
بورسعيد
أوروغواي
##جيا
##درين
##ناطيس
أصله
سيلي
قصبة
const
متوقع
الوالدين
ip
بمش
وفن
##بادرة
park
رامي
water
أجانب
أنباء
الإثي
جزئين
يشاهد
الحنفي
retrieved
##سيخ
##صيان
##كسيك
##atory
البرا
الجنا
محامي
التحدث
تلمسان
وأعضاء
النسوية
اقتصاديا
الفوسفات
المؤلفين
##ows
##حوذ
##شقاق
وقي
إكمال
ارتفعت
متفرقة
للعربية
مواصفات
##ديري
##كونات
##وطنات
أشبه
لبني
الصبي
عمليا
العتيقة
الفواكه
للتربية
eis
##ished
##ونيين
اليها
للكشف
ويؤدي
السيئة
كهرباء
مهاجمة
وعلماء
##أف
##درز
##لكن
##وبو
يتجه
أندريه
الأرجل
بتقدير
رسالته
للإمام
المعدية
للإعلام
##سبت
:"
لتك
##تاحية
cast
بلدي
بوست
نعيم
ونظم
islam
القطط
مصنفة
قيادات
مدغشقر
وأدوات
top
قبض
##رنهايت
الأنت
الاخر
تشترك
تجمعات
جويلية
##si
##-0،
##ious
##انتي
شلل
ولغ
والظ
الأبد
ويمتد
يتأثر
حدودها
دينامو
مجهولة
استطلاع
اهتمامه
المسافات
الأسبانية
كوه
رفيعة
مجاهد
انعدام
مبارياته
##do
دى
bus
##ادتها
أحدا
اضاف
لوقف
مشرف
منحه
جثمان
نتورك
الفعال
الإجازة
والقدرة
##كرت
نيس
وشقيق
التحديات
الكثيرين
##طوري
بصح
##شتراك
anal
بهاء
تخلي
توافر
ليعمل
الصوفي
كوسوفو
الكوارث
بالمياه
اشتباكات
المراهقة
للمستخدمين
##rh
##صيحة
بيغ
##شخصية
الكح
كمست
والمز
europe
theory
الفخار
الحرائق
الرحالة
المسبار
المعتقلين
##صبع
كغ
##انيف
ديب
تحكي
تولد
ذكية
تداول
للصحة
مليئة
علاقته
##بروتينات
فأس
بايت
تحظى
سمحت
##فلكيون
النضال
المستقيم
##ابو
##رجت
##ورق
##orge
تقف
مرق
مكي
ممد
##ونيوم
تكشف
سمعة
عنيف
اغسطس
القفز
تويوتا
شفشاون
العقاقير
الإيجابية
المعارضين
##:''
sn
شئ
bet
##تيمور
آيات
فالح
بجروح
united
الشامي
الضغوط
بالبحث
يريدون
الكشافة
عسكريون
والتهاب
الدفاعية
المصرفية
0''
its
kar
##أغاني
بامت
وعاء
الجاز
اكتسبت
وأربعة
السفلية
جاس
لايت
##يروسات
أثارت
الأخذ
المضي
لأسرة
بالعالم
القيروان
النرويجي
##tv
##وصي
##pect
##دخال
بوح
جهاد
شكله
ونوع
الضرب
بايرن
تأييد
مبكرا
العقلي
رسومات
القدامى
مؤتمرات
بوا
خشب
كوش
هدا
##uring
gott
كروم
الرها
تسخين
كيلوغ
ويتبع
الرومي
الغبار
بدايته
كنتيجة
البديلة
التذاكر
الهندسي
##أنظر
إدا
0/00
بانه
ذوات
وعاص
بالتق
دوقية
عشائر
وتوجه
0000),
التوحد
النيجر
الوسام
التخدير
للأفراد
##ماني
fre
بذل
نوي
phys
برأس
بصوت
عداد
يدير
##استيان
تلبية
كثيفة
نينوى
الشقيق
الورقة
للإدارة
development
##مك
##ona
mc
##فريد
##كرون
how
mid
كانو
##منغهام
اتهام
التبر
الجذر
الرصد
حجرية
فرضية
لوكالة
الأضواء
المعيار
ليتوانيا
ميكانيكا
##آي
##pol
##اذة
تيد
رفاق
لقسم
##-0000.
##زيونية
women
وإسبانيا
غواتيمالا
##طس
##نتي
##رمان
لاع
##الفات
##داولة
تضاف
لأهل
وحول
عادات
نيران
بولندي
الجينية
انطلاقا
للتعامل
الممتلكات
##uz
##بته
##شري
##قوش
##منذ
##برين
##ظيما
-)،
inv
map
....
ووقع
أخطاء
أغراض
##وهيدرات
review
استولت
اللاهوت
وكلاهما
##حك
##هون
##view
بسط
ضرر
نفق
##attle
يفسر
لموسم
وينتج
بزراعة
محاربة
ألبومها
المعيشة
الصحراوي
##ets
##ارئة
##لحاق
مضت
الخطية
مستقيم
لمراقبة
والدينية
##nee
##ware
aut
iii
##قادات
متفا
معمل
البان
كارلو
للخطر
الرابط
الناشر
لتمثيل
لكتابة
التحويل
المحامي
information
##ude
##سبوك
tre
وشع
##لاطون
آمون
أمها
تسقط
ميسي
القوط
والرس
ووصلت
(0000،
الفاصلة
الاختراع
والثلاثين
geschichte
##ée
##جعل
li
00/
انا
ترد
##راوات
rich
المتحد
والقضاء
الامريكية
الباكستانية
##مرك
##راحل
##شمال
##هدفت
ext
دونم
الحوي
القاري
المتأخر
بطليموس
مسرحيون
المتطورة
الفيدرالي
##البح
##دمية
سوفت
لقبه
مجلات
يتقدم
الاقتراع
##ؤهم
##شيه
##فقات
باث
معق
لونغ
وبيت
الأوب
ثالثة
كويتية
وتنمية
المقبلة
##لقت
قح
##وقرا
##كتبات
تصني
##لاعبون
أضرار
شهرته
مربعة
بأربعة
لتقليل
للخارج
والديه
والمعادن
##أتي
ha
##حضرات
##صحابة
تنسب
ملازم
وأصول
التوافق
الهرمون
والرياضيات
##ival
تات
تكر
ريش
جسده
##شيوعية
elect
*0000:
الفصحى
لمختلف
الأنماط
الترفيهية
والثانوية
##ns
##اسو
##تيري
مضي
أدبي
صمام
يليه
القلم
المتت
المتج
باراك
مخطوط
مناهج
تشكيلة
المشاهير
##00,
##باره
##جواب
وبإ
قدرت
##لاميذه
الحقن
غربية
يستند
القضائي
عثمانية
القراصنة
##كوا
##book
##صفية
مفصل
التلق
المرب
بدخول
بدولة
##الاتحاد
عناوين
قادرين
العريقة
المواهب
للأمراض
##ban
##بدا
##ظمه
##جاني
ben
##متاحف
disc
بدفع
يعيد
paris
أملاك
تقدمت
قرارا
لمنصب
والزي
وفريق
البارز
بالطاقة
الكيلاني
الهندوسية
##شاش
##ملأ
nat
جرم
جنو
بارس
تفعل
لدور
نيكس
خروجه
schmid
القماش
الرئتين
الصيانة
##زاع
##illa
الحضر
المحف
قصصية
الأحمد
الكونت
سوفييت
لتغيير
نستطيع
والخمس
الرهبان
##كتس
شاي
##مائهم
حجمه
لزوج
المقبل
امتياز
مشروعات
المتطوعين
المشروبات
##حكم
##مجة
ريس
وفض
##سيارة
المأل
والجزء
الدورية
للحرارة
##vi
##فول
##لفي
##ركون
بطن
شنت
بعكس
شحنة
هاتف
ولده
تخرجت
طوابق
فريقا
مثالا
والأر
القطعة
إلكترون
الدمشقي
الحدودية
الهرمونات
كوستاريكا
##زول
شط
نجل
##irect
قلبه
التمر
السجل
شرائح
عصابة
واقعة
ببعضها
والعرب
يتناسب
سويسريون
##oe
##سيكا
بجز
سكك
##ource
##بيروت
آباد
بقطع
راكب
فيرت
نايف
فتكون
مشيرا
انضمام
فلسفية
الأودية
الاستكشاف
المعاصرين
##يرمو
tem
وند
##افسية
سيست
رؤيته
زميله
وجدوا
##براطورة
ممثلين
general
للمنظمة
المستحيل
##صرا
##طرق
##عيه
##رواد
شئون
لدخول
الجزئي
بتحديد
تلسكوب
غوستاف
للتاريخ
والأكثر
اختيارها
الائتلاف
مغناطيسي
##ike
##وندي
لحج
##ماعية
براز
برزت
ودية
##بروتين
الواد
حضرية
منسوب
وسرعة
الحارس
عبدالم
وكالات
000–000.
الرسومات
##ling
##omas
##المد
شرا
برفع
قاله
قتيلا
قدموا
##التعليم
فيلسوف
الأمازيغ
التراثية
النظامية
##البر
##خريج
##عتهم
مكر
##ugust
جونغ
دماء
فوجد
فيجب
بلانك
قاسية
للفوز
مستقر
##ريلانكا
الافتتاح
الافتراضية
##تد
##جني
##hrer
##ince
##قطات
سبقت
نداء
##أوهايو
تسوية
مدرعة
0000):
الحرجة
بطريرك
فينيكس
استضافة
الشاذلي
وبرنامج
الانتصار
التكنولوجية
##cus
##لاش
##لزم
##itor
##جيلو
بسعة
بيزن
تقطن
جزيء
ريتش
عضوة
هالي
بيلار
ضريبة
وتدور
ومساعد
الإضاءة
الطماطم
للخلايا
المعادية
والسيطرة
##00:
pan
##كنيسة
أعلم
شفيق
صانع
أمامه
تفتقر
الحضري
النبيذ
للفنان
يوتيوب
النيابة
بالكلية
للخدمات
##اليابانية
##حلال
00-0
تطبق
علمه
ويمر
##كنديون
الرقة
بمفرد
متجان
سبحانه
(0000):
المثلية
فريدريش
المسلحين
##فقت
##لفا
##ارتهم
##لاندو
أنجز
أودي
صوفي
##اهتمام
##تصالات
لكلية
ويعني
الظهير
المالك
الفائزة
##ارون
##خلية
أوج
ماجي
##ستانتي
اصبحت
مسحوق
الأقدم
التنافس
تحويلها
##بروتستانت
المقاتلة
والمعرفة
المشاهدين
##زقة
##وهة
iv
##خبرة
تاجر
عتبة
لوثر
هوكس
أعماق
انسحب
ميديا
المحلول
بالمعهد
البرونزي
وأفريقيا
##yal
ang
ليا
##صفهان
نضال
وصور
شخصيا
مكتوم
ذروتها
للكثير
البيئات
الضعيفة
العماني
لمقاطعة
##ney
##بلور
has
##باطرة
فقتل
مجدي
وسبب
ونهر
يقطع
##مصريون
الراوي
تعاليم
للتحكم
نسائية
المحلات
للإصلاح
الاستثمارات
##ايرة
##تينغ
##نفية
سرير
أسلاف
لتدريب
الكفاية
المفاعل
وجمهورية
عار
##برهنة
بلات
ترمز
فعليا
##تقسيمات
التسمم
بحريني
الاطفال
الجارية
سينمائية
##الض
##مواد
ولأ
##ility
##امنتو
##فافية
تشرف
خطير
schwe
البيل
قبلها
الأقراص
المواشي
بكتيريا
الشهادات
institute
##ote
##رياء
##رياح
##مصار
##نيان
يبت
##قائمة
##كانون
فهرس
كروس
الالب
الفضي
الكتل
للكرة
الجسور
الخميني
##0).
##lor
##ليفية
تمدد
صوته
عصبي
under
التقط
وآثار
الصداع
مصفوفة
العمرية
البروفيسور
##omb
حصر
طلا
##رسنال
إكسب
بابن
وثيق
وعقد
حوران
لثلاث
أعضائها
النهرين
الاستواء
##احن
##كوري
bra
gal
##محطات
إربد
جدوى
هطول
يعقد
العوام
وتربية
أتلتيكو
والآثار
النرويجية
##بحار
##غناء
##ينغن
سفارة
الأنمي
التخرج
الكهنة
لزيارة
وإقامة
التأهيل
المزارعين
##هرا
##icle
##ظفين
سلب
جبلة
كيلي
لحسن
وتصميم
ويحاول
studies
الإلهية
العنصري
##gra
##mad
##ump
##حيا
##ديز
##ذوذ
##عدن
hy
##بتهم
##ساكر
##ميلا
##وامع
cre
بتد
جمل
##تالون
حليب
##ابوليس
afric
بوناب
هوارد
أميركا
التورب
لرعاية
لقانون
##رضا
##فاخ
##قوا
رآ
وهد
##وفاني
ذهبي
نشوء
الخمي
الميلي
تعرضوا
والثقافي
الديناصورات
##الها
but
ياق
بلوم
لادن
human
أشباه
العمق
شهيرة
وضعية
للبيئة
انتصارات
فهرنهايت
##عظم
##يدس
##ales
سمة
لعم
نمر
##اهرية
##زيئات
عيوب
ولكل
الأني
التمو
الشاط
للعبة
معتقد
إدنبرة
النقدي
ولديها
ومعرفة
القابضة
##هض
##شيز
##نوا
##ورنت
##ينيك
بشري
خضعت
لفهم
يجلس
##ريركية
##وائيات
الخطيرة
الصفائح
المتمردون
##كيه
##ديوية
متمر
وشرح
ومخت
يثير
الزنك
للعلم
لونها
الباحة
اللقاح
لتسمية
وتنتشر
استثناء
البرمجية
عزي
كهف
##مارين
يزور
الانع
وتغير
يتحقق
المعني
الملاك
للتخلص
مراعاة
أسبانيا
الحضاري
تصميمها
مستخدمي
##fa
##لوث
##وزة
##طيلة
##غارت
تطبي
وأدت
افراد
كورية
بمساحة
تصميمه
لمشروع
الجليدية
الخنازير
##اعب
##ense
##اكين
##قاوم
##لازم
بيز
مكس
عرضا
نقوش
فإنهم
الملاح
الناقد
لرياضة
متكامل
ولايته
اليابسة
##المر
##حقوق
##وتهم
##راحات
##هيزات
أسهل
ترفض
ضيقة
ونقص
يعين
##ثمارية
لكلمة
بنفسها
بوربون
مملوكة
هانوفر
وممثلة
تجريبية
الدكتورة
المتطلبات
0000/0000،
##اظر
##خلل
##انته
##لاحي
##مارك
##وفاة
بيج
فلب
##اويات
بورك
ضئيلة
قيمته
لتشغيل
مقتبسة
وأجزاء
الكونية
العائلية
بالتدريس
يطل
حراس
فارق
قاعات
النظير
الإبلاغ
الإنجاز
التفجير
الجالية
المغلقة
الغربيين
كولومبوس
والكنيسة
حكيم
خيوط
محتم
يحفظ
##ولياني
الضخم
بحثية
حكومي
تقديرا
نيكولا
السلفية
بروتينات
##ér
##يج
##och
##مطار
بطب
راب
سلي
##ديوان
رفيع
بحالة
لانها
مغطاة
الفاصل
النسبي
الأجرام
الزوايا
المختلطة
المديرية
ميكانيكية
للإمبراطورية
##ايه
##راكم
##قران
##يافة
تفر
التث
بيوم
تفتح
سحاب
وكار
وشهدت
التزلج
end
##يناير
يوري
آثاره
فيهما
وتوفر
الخمسين
##شئين
law
أفي
##اعيات
تكلم
شيدت
found
إقرار
الممن
النقص
قاموس
منتزه
أصبحوا
القبلة
انقسام
وتحويل
تدريبية
##sw
##جهز
##هرم
##همي
##ابلن
##رنين
##شرية
قضت
##اندرو
تباع
قومه
مرجع
المير
بيانو
متلفزة
يمثلون
التقدير
المطالب
للألعاب
وثائقية
الملايين
##mic
##ئتها
حمى
ساق
رواه
والتحكم
##cel
##ope
ur
cir
##كومات
كلتا
مقاي
اسمية
بالتم
modern
الانفص
المصنف
program
الانسان
المنطقية
المنافسات
##ids
##mod
##جود
زحل
كمب
تدير
تسرب
مقيم
باللغ
تعالج
المحرق
نموذجا
وأوائل
والجمع
الاحتكاك
الخيالية
المجتمعية
الانتقادات
##سها
##صرح
##ولاة
ومغ
فليس
إشعاع
والته
وتصبح
يدوية
الضارة
بتوفير
للتأكد
الحيتان
لاكتشاف
الأوربية
والأجهزة
##إد
##inn
##ركه
##ميا
##lieb
قمم
phot
الجري
الوردي
للبنين
التكاثر
بمقاطعة
صلاحيات
المفروضة
##فظة
##ريزي
##ندلس
أبى
جثة
0-0،
أخته
بولا
بعلبك
تنظيف
سلالات
الخبرات
باللهجة
##یخ
##قصي
##وزو
ستت
ووسط
الرضع
الكود
بأربع
نيبال
السقوط
بنهاية
دراغون
متكررة
المصارع
وأكثرها
##زالت
pet
أهد
hier
تعقد
تنفذ
دعوى
مربعا
بإخراج
تشارلي
مليارات
والأمير
المعطيات
##نسخ
##رايا
##فتاة
ببر
شاك
##igung
باتي
بعقد
رحيل
زائد
بيبرس
تتويج
ترجمت
جنسيا
إيجابي
الركبة
لحوالي
التنوير
الفريدة
المرابطين
للانتخابات
الكهرومغناطيسية
##تحم
##جيري
ann
اين
حشد
شكر
##سابقا
شوال
مفتي
وربط
great
أجنبي
اغنية
كريمة
لينيوس
مناهضة
التعاقد
الخنزير
الكهربي
والكويت
austrian
الأسباني
البيضاوي
ليك
ومث
خربة
تنخفض
جنديا
إيرباص
الإرها
الكهوف
المفصل
لتأسيس
##________
المعرفية
السوفياتية
##pos
حك
##مونت
عدل
wind
فهذه
لنيل
##فعالية
وتضمن
##المعروف
الأبراج
السائلة
المدرسي
الهائلة
بالتحديد
المتواجدة
##حس
##alth
##جامع
##كيما
##يزال
-00
oct
##وائها
بصنع
معان
وقطر
تحدها
الحسني
تصاميم
طالبان
ويختلف
schweiz
الإمامة
برنستون
منغوليا
المحترفة
الماركسية
##cra
##ison
أخو
سوا
شجع
##ليمتر
list
تعطى
سارت
سنان
نهضة
للشخص
واصلت
وشملت
alpine
العشاء
تصويرية
##ila
##vir
##جوب
##شيو
شجر
لمه
سهول
للعم
وليم
يفيد
ويزيد
ابنتها
النشطة
##mi
زن
##ople
##غرام
إصد
ومف
##باللغة
##لاقيات
their
وبدون
يشتهر
الدمام
الإجهاد
سيبيريا
للأفلام
##dom
##ابس
##اخر
hel
سأل
هدى
تعهد
لجهاز
اعتلال
جاذبية
التشابه
الصنوبر
القوارب
نيوجيرسي
##نظر
##متين
von
يتك
sing
بوقت
تضخم
وباك
وتميز
الدموي
تتعامل
للرواية
##عارة
يلب
جيشا
طلبه
كلغة
الصغر
تتولى
ويرتبط
المعادلات
##حى
##ysis
##رائع
##هاجر
لال
وأغ
##مجتمع
which
الآتي
كمصدر
مادية
والقي
الزفاف
كاميرا
الأقدام
العمالة
الاستعداد
##asa
##اردن
حنا
شاء
شيل
##تياله
تختص
تشعر
عاصر
واحة
وروى
أفادت
والقوة
والملك
افتتاحه
الاراضي
المثقفين
##gif
##عاز
##إطار
##تقان
##وماس
gip
شمر
عنف
##ائلته
سلمى
لصنع
نفوس
تمديد
للطفل
design
المشرف
المظهر
المكاف
النشيد
أهميتها
البنزين
القاسية
المستقب
الدولتين
الموسمية
بالتعليم
##cis
##ترة
##فصال
خطب
طرط
##inter
كعضو
الكوب
النسر
يتفاعل
العضلية
الاشتراك
للمواطنين
##cor
cy
lab
لخط
##الجزء
##حكومة
prov
تلال
أولها
مزايا
أرخبيل
000–000
السلمية
المثالي
المثيرة
بولنديون
بورتوريكو
##)-
##حبت
بصي
ملاك
وقتا
الأبر
الفلز
الكاب
الريفي
الزهري
الكوني
المستح
##انحلالات
##ستقراطية
استرجاع
اختلافات
المنفردة
##اصي
##هلي
##باري
##لاين
abo
##فونية
educ
مثير
محله
آخرها
أعداء
بتدريس
والكتب
gottlieb
المتجددة
بألمانيا
##str
##شيع
##لكت
##كينز
أفت
بوند
تقلد
تولت
رويس
محتر
ينفذ
##ington
مفاعل
واللي
العرقي
وإضافة
العامية
والعدالة
00,000,000
لاستخدامها
اثار
خطرا
فعلي
يصاب
river
سيرته
مخاوف
نفاثة
##arg
طع
##وبيل
##ander
##بترول
حبيش
ناجح
وبول
بارما
لغاية
هايتي
states
الرقيق
بناؤها
مختلطة
الجليدي
##ny
##ан
##؟"
##uan
##جبل
##غطى
##طيين
##زامنة
اثني
العف
الهز
ماضي
ميغا
الولد
المشعة
الاستخدامات
##omy
##زهر
##خصيص
##هاري
أنو
غنت
وهب
##خريطة
incl
سوسة
عارضة
أكادير
تطويره
سامسون
##انجليزية
المطالبة
والجزائر
التصويرية
اليولياني
##وردة
gold
اعلن
دلهي
ومدى
ونحن
##اقتصادي
القعدة
لتلبية
وتوجيه
الميثاق
##ائض
##طرب
love
orig
واجب
ومرة
ويخت
السقف
لفرقة
وتهدف
افتراض
صناعات
لإنقاذ
project
الورقية
الآشورية
السلالات
القياسات
##mas
##بيو
##ابته
##اثون
##اميد
##تزاز
##دراما
تجرى
صدمة
offic
إقناع
قادمة
وجبال
وكلمة
التضخم
تناولت
تطبيقها
الإماراتية
ثن
##نابل
##يلسوف
مؤخر
mosque
العبور
والنقل
التذكاري
الجيولوجي
بأح
بضم
الشق
##براسكا
beste
ihrer
استغل
الحظر
لقناة
ومجلة
الأطرش
الشيخة
منهجية
استشهاد
المجردة
الملونة
##ua
بإس
تود
طري
عون
هجري
يحظى
ملاعب
schnee
انتقاد
francke
الجبرية
الزوجية
الممكنة
عشوائية
الإسرائيليين
##ero
##طير
##عته
إر
بجد
عزبة
إرنست
انقسم
حقائق
studer
للمسرح
وترتبط
الكامنة
والرياض
##hi
##يلز
##تونس
##خائر
##مجلة
def
وتض
##كوكبة
أبنة
حائز
شهير
وطرد
المتش
بكافة
مقدسة
نهايات
المرئية
الموريت
##cul
##ساي
##يمز
جح
##فلات
##00-00
##جنرال
##حركات
##زلاند
أبسط
بوري
الكرو
دخوله
قدماء
##سياسيات
التكيف
المارك
النقيب
ولاحقا
للصحافة
ومحاولة
المناخية
ستراسبورغ
##oo
ba
##لعبة
##هالي
تدري
##أكولات
ersch
أورام
الطبخ
بالأن
بالاس
تفكير
معاهد
أفكاره
أيونات
ازدادت
درامية
مكسيكي
العامين
اليمامة
##زد
##لبوم
عدو
فيض
إياه
##chsten
ostal
زرقاء
مطلوب
##ألبومات
gipfel
الناجم
الهائل
انسداد
الألبان
الأساتذة
الملاحظات
والأكاديمية
##bra
##ذته
##كتل
##roph
##صوات
tow
باص
لوت
وولف
أمانة
اربعة
الحمى
الريش
ليالي
ماكدون
الطاولة
ostalpen
المتخصصين
##جلى
##adem
##زهار
##شنطن
لجأ
ركوب
وخسر
الجوع
الرتبة
الكروم
انخفضت
زنجبار
التراجع
erschlie
language
وإبراهيم
الإنكليزي
besteigung
##قصة
##هله
##0.00
##نازل
ترسل
موهب
لمجلة
ومواد
ويبعد
observ
التأهل
الطبري
تلاميذ
معاناة
المزمنة
والمالية
##وفو
##حسان
حنب
سيغ
أندل
تفكك
قائل
يكمن
المحب
بالدم
البربر
الراهن
بالمئة
0000000
هوس
أعطت
الزر
الغن
بيات
لوفي
وإست
أحفاد
المزاج
داخلها
دونالد
لقيادة
مقبولة
الوجبات
أولمبياد
##ثه
##bas
يذ
##aden
##اكسة
##ياطة
تال
تسم
##جوائز
##وقعات
أنتي
تيزي
فاعل
يلقب
أنقاض
اخراج
التهم
لكثرة
وظهور
ازدهرت
الخادم
بلورات
إفريقية
التبانة
المستهلكين
##سينات
تحلل
عديم
لاعت
الفاي
##مترجمون
online
الولاء
تنفيذي
والطرق
السريري
متفاوتة
انتقادات
##باليابانية
##سجة
''،
##ياطين
آلهة
فعند
لورنس
محتمل
مرضية
موطنه
نلاحظ
القلاع
لمؤسسة
وعشرون
إصلاحات
السلاحف
الوراثي
دستورية
المستوطنين
##men
she
sil
وزنه
child
الدوب
تطالب
عملهم
للأدب
والتك
البقاع
الشابة
المنظم
لإيجاد
والصيد
الأعيان
لممارسة
والخاصة
الالتحاق
##بأ
##وهذا
تغي
جفاف
لقتل
هانز
غازات
متكرر
وسكان
يطالب
engine
أغلبها
السموم
الغرام
المتضر
للفترة
مشاركت
وتكوين
وظيفته
الجانبي
المطبوعة
##طأ
##خية
##بيسة
نجا
تعلن
##iction
الدان
اللوز
تلفاز
رأسهم
والعم
الهدنة
لسلسلة
america
المكاتب
مخطوطات
البلاستيك
##خبز
##عند
##ques
##ريفي
##زويد
##سينغ
west
اسما
الشد
لغزو
##المرأة
الإبت
صيفية
غنائي
اثنتين
المصرف
الإرشاد
الهيليوم
##ider
##بناء
##حواذ
##ضمنة
##وزين
تجم
الثع
راية
رشدي
سمكة
وماي
الكونف
الوجوه
ويساعد
المنتدى
ديمقراطي
الأسبوعية
##لتر
##ليسي
بوق
00%،
other
تعارض
والخض
##وارزميات
بورقيبة
الإنجازات
والعالمية
##طنة
two
منك
##كاكاف
##ولتها
جسمه
يؤدى
يغلب
إعجاب
ابتكر
الواف
جلدية
جيران
حينئذ
زائدة
سامية
للدين
والام
يستحق
الحزام
العقدة
تعقيدا
سق
##بطان
##ماكس
##تشرين
##غانية
show
بورما
فنادق
الفريد
الفيوم
الالعاب
المختلط
المسببة
الأمريكتين
##unt
##قتان
##قلون
بقع
وأث
توصف
حارب
للتخ
ونصب
مذبحة
المكثف
الوفاء
لاتحاد
وانتخب
الأزمات
الميداني
مجموعتين
المتلازمة
##انيد
##وفيق
##وكين
don
مزد
##رائهم
عروس
##طبيقات
##ونيسيا
power
أربيل
الوصل
تحتوى
ترفيه
صداقة
لليون
يحافظ
للسماح
والروم
الأضرار
التفاوض
##ko
##،،
##رموز
##قيين
ليث
ضحية
ناشر
نفذت
وملك
super
تدوير
تهامة
لحضور
ومثال
##ماجستير
بالحكم
والصرف
والصنا
الرباعي
برمنغهام
والأراضي
##rich
ثرو
موق
الوي
تتلمذ
حراري
وآداب
الغازي
الغاية
فأصبحت
المتعلق
اكتشافها
العلمانية
##فك
##ملي
##طبقة
أحت
حفص
##ister
##كتئاب
ميني
اليوس
ستايت
عندئذ
نيكار
##مسرحيون
التفاح
متوطنة
الألواح
ومؤسسات
السليمانية
##ery
##خبة
##اعقة
تقود
طلحة
بالمه
لطلاب
ميغيل
وعمره
القران
بلادهم
لتغطية
السلاسل
لاختيار
المعالجات
البرازيلية
الكاتدرائية
##الآ
##قمشة
##وائب
رتب
سكي
متب
مهي
خسرت
صعدة
ناقل
أميال
مقاوم
ينطوي
الإجابة
بريستول
تحريرها
معسكرات
وغيرهما
الحسابية
القادمين
اليونانيين
##آثر
##wiki
##تمعة
##فاعة
##فتين
##وارا
##واصة
ele
تمس
هاف
##روائي
##قصائد
0.00%
استلم
البوي
وجاءت
بإقليم
خيارات
مميزات
والحصول
الصعوبات
والإنتاج
0-0000-0000-0
##ni
##ولم
يي
##مثال
بيلا
خطيب
هروب
يخوض
الجسدي
السادة
العيوب
محاضرة
يقودها
الفخرية
أرجنتيني
أوكسفورد
المحامين
للانضمام
برتغاليون
##ثيين
إدم
وثي
sant
بلان
بيده
أصلها
موجبة
ومسرح
إصابته
اقتحام
للأشعة
للشاعر
اللاسلكية
##bm
##اعز
##زاء
##هبوط
رمي
سماه
فيست
التاب
الطبا
اللوح
اهداف
تمكين
مهمته
أسبوعية
ملاحظات
الإعدادية
والنباتات
المعلوماتية
##نط
##ato
##حصر
##رعته
##مايز
باقر
باند
صغره
فينس
لفتح
يختص
حافلة
حديثه
خلافا
##ference
المراس
جمعيات
لأبحاث
الكافية
المحوري
المنشأة
والألمانية
##داث
##قور
ببن
كغم
نقول
يحول
يسقط
القصب
توسعت
الدخان
وراثية
يستطيعون
##إير
il
day
دوت
ووا
آشور
خامس
كلفن
واند
##وكسجين
stand
وخلفه
الإيدز
بيستون
وتطبيق
(00,000
أفرادها
أندرسون
المواصفات
##حاس
##لسان
##وارو
oper
وجهت
وسكن
ومعهد
أغلبهم
تيودور
والسبب
وبالأخص
الدرامية
المطارات
##عش
##رعات
##طراف
جها
غسل
##أجنحة
راسل
سويف
وحجم
ويتح
الحلي
اللوث
فرعون
كابتن
منحنى
الالكت
المنقولة
بالإمكان
##mal
##شوب
عك
##نهايم
meth
خريج
دسوق
لقاح
هرتز
النشط
الحاصل
القبلي
وكاتبة
أعمالهم
الألفاظ
الكرامة
المحاربين
##cap
##تري
##لوت
##ينها
تهدد
مادي
الربح
ليقوم
معلما
ناتجة
وقطاع
بضرورة
للشرطة
والابت
##كندنافية
english
الاستئناف
الاصطناعية
##hy
##زمه
##عني
##همه
##ولوم
لزم
هبة
عطلة
فدخل
كالف
james
سلمية
كولين
ونسبة
السفال
سلاطين
لرئاسة
متزوجة
وخمسين
إصدارها
الألقاب
publishing
الميداليات
##ياك
##كنات
صدى
مجر
ألفه
القف
القات
صخرية
وعلاج
السكتة
تورنتو
العاصفة
اتفاقيات
هابسبورغ
##ats
##خون
##وعه
##ابور
##هدفة
حرص
##محامون
التين
وخمسة
##كانسترو
الدمار
الديار
يوليوس
إنشاؤها
التجزئة
المقارن
النموذجية
##أرض
##تكس
ve
##سبول
مجي
يلق
##جلترا
##جينيا
##ملكات
بغية
فلام
order
الحاس
الخيط
الدري
تعاطي
تغذية
شهرية
وتسبب
##مخترعون
الجوار
الدائري
الوسيلة
والثالثة
##ias
##زوم
##يسن
##خراط
شابة
ضغوط
لاوس
وخلق
أحجام
إلينا
الخار
اواخر
الكاظم
واليمن
أورلاندو
##ثات
##حده
##هيمي
##يدته
att
تحس
رطل
تشين
فاتح
لورد
ورسم
##يدرولي
النفي
بموقع
تثبيط
الآفات
الفتنة
الكيان
كتابته
وينبغي
إنجازات
الأقلية
السليمة
الخضروات
##دبلوماسيون
التشريعات
##اعه
##سبا
##نغن
##بولي
باكو
بنين
الخمر
بالمد
فتحات
نوبات
الجلسة
الناقل
المجهول
الميلان
القطارات
العشوائية
والجامعات
##أنت
##rict
##بيئة
##ولدن
كرس
عوضا
مرشد
وفرض
الجيب
النحت
النوا
لهيئة
مصارع
وكلما
الأشرف
الجزاء
company
المتغير
للدكتور
للمشروع
الخرسانة
الاشتباكات
##اثا
##اريه
##اسير
##انتو
##انيك
ثار
##روسية
##فنانو
برية
رستم
عطاء
مصور
وأصل
الإنش
خريجي
متممة
وراثي
بالعلم
المسيرة
وبالمثل
##برها
##ثورة
##سيمي
إرس
تكس
خدي
خضع
##ولادة
بروز
جزاء
القرش
يستغرق
##كتاتورية
العاملي
لإسرائيل
##غية
ww
##ركين
##عاقد
آغا
مزي
##وديان
stre
vers
أدار
أغنى
عسكر
لاري
##سبتمبر
حمادة
هاجمت
يغادر
لثلاثة
مختصرات
لاستعادة
##برو
##غلت
##زمير
##مسرح
جاد
عقده
##ستيلاء
همدان
اشتراك
##برتغالية
القديسة
والشاعر
الجراثيم
والسعودية
بالاكانسترو
##حته
##ئصال
psy
رأت
ناه
لخلق
ينضم
##cyclop
أزواج
أمناء
اراضي
خاطئة
قوتها
ويسكن
الوارد
المزرعة
بدايتها
يتحدثون
المحاولة
والسودان
السعوديين
##باته
##ويلي
بلاط
صادر
نزيف
##التزام
وبدلا
البشير
الضحية
الفيصل
الألغام
بالعودة
المعروفين
##gar
##صقة
##ضون
nor
فهر
وخي
الدف
ألواح
الحزن
كينغز
وتونس
##القاهرة
الحامل
العسكر
لحكومة
متساوي
الصليبي
ممتلكات
والثمان
والدواء
السرطانية
##bin
##ذجة
##زوق
##جيني
##حركة
dom
سحر
شيئ
##وطنية
data
الربي
حكمها
مولود
وزنها
أساتذة
الصلاح
وتشجيع
وجمعية
للناشئين
الكوميدية
##زيب
##anth
##وسطي
بحص
قلم
كيد
##قاتها
سكري
نزول
##وتغارت
about
الزنج
مؤكدة
الموجه
مقاييس
وتقييم
austral
##بعا
##اعته
##جورة
##صرار
##غلول
##معنى
غاي
تحطم
تنجح
طفلة
عصبة
##الدولة
فكرية
هريرة
الفجوة
الشهرية
ووريورز
والتصميم
##vo
##اضرا
##طعيم
##وسائل
دنيا
ومرت
المرش
بوادي
تتغذى
تقوية
شريحة
تقديمه
ليسانس
القاسمي
الدنماركي
والصناعات
خصص
يدع
##صناعة
##رجنتين
الأسم
الرهب
الكيس
كفاية
والسم
وباقي
ومتحف
بالفشل
ذكريات
رباعية
رياضيا
وتنتهي
وكنيسة
بونابرت
الفعاليات
##رتا
##ادهم
##وصلة
داغ
organ
أوساط
مقبول
لاسيما
الجزئية
بداياته
تنزانيا
التبرعات
رومانيون
##ices
ألين
الحوت
الدوق
تتحكم
سفيرا
مرئية
مراسل
نيلسون
تعاونية
واعتبار
اسكتلندي
الانخفاض
المفقودة
بالزراعة
النيوترونات
##ima
##طاط
##كسد
##خاطر
##يمار
دوك
##إسلام
راتب
صدقي
طرفي
كيبك
معقل
الوحش
وتحتل
الرخام
الشبان
مسلمين
الآخرون
star
تحفظ
توضي
وترع
وطنه
الإبل
البرق
وتأتي
##إعلاميون
استنتاج
المزدوجة
association
##.;
##ians
##قفية
##لافي
بلم
رحم
مدح
طفرة
فكتب
وقضى
tunis
لاهاي
والفر
ترجمته
لنظرية
الكسندر
النصارى
للوزراء
##sn
##ye
##وءة
##أساة
##سكين
view
آداب
قتلى
كالح
وقرأ
##تحانات
شاشات
للشعر
مجهزة
هيئات
وقتنا
المهدية
يونانيون
##rid
##ضحى
##غلو
ec
leg
زغرب
نوبة
تصويت
والاح
الفيتن
الخاصية
المحمدية
المستشرق
المصاحبة
الكردستاني
##iff
##خرف
##رحب
##جهاز
جرذ
تكاد
رواة
manag
جوهان
الخيوط
قراصنة
مسؤولي
بالمائة
ميلووكي
الرحامنة
المفوضية
والعسكرية
##داخلة
حازم
liter
تجاهل
مثلها
مرارا
مقتبس
أنتوني
لفرنسا
القاضية
الأرمنية
0-00-000000
##بلر
##فجر
ورع
يتس
يقر
##أسلحة
إيلي
فخري
كابل
مسبق
الرسل
اعتزلت
المعجم
الإضافي
السيليكون
##bor
سبل
عيش
ارتك
##ائتمان
الصنف
الكاش
بلندن
حاملا
طفيفة
وعرفت
##ication
الجزية
المرشد
الهواة
الانتاج
بالكثير
للسياحة
الاستشارية
##قش
##هاج
##وسى
##عيمة
##ودات
درو
##أجناس
##يوليو
mill
بسام
فرعي
قارب
الراب
0000..
التحقت
الحائط
الشروق
عملاقة
وتدريب
المجاور
ليوناردو
والإمارات
##درش
##-00)
تلو
تمث
ينس
تكثر
جسيم
فيتم
مهنا
ميزات
ميمون
وشارع
الباشا
الحسية
السعدي
الشراء
غنائية
الإنفاق
الترشيح
الغارات
الأخلاقي
الأمينية
##)..
##نعت
##همت
لمي
##إرهاب
روضة
قشرة
ماتت
famil
ارتكب
امحمد
دليلا
فارسي
ليشمل
وتحيط
تستغرق
التحديث
الخيارات
المضاعفات
##ipp
##اطس
##فسية
فرت
كنع
بأخذ
تناز
حاسمة
سيستم
نعمان
ونشاط
وأماكن
إمدادات
الإنجيل
بالمعنى
والرابع
المالكية
الاستفتاء
##zo
يبر
##عدلات
راين
فانك
ولكي
الخان
العزل
تأجيل
تنازل
رويال
العدسة
المفاج
مدفعية
مستطيل
لمحاربة
العشوائي
المتأخرة
مستشفيات
##ودت
dan
بزي
ملع
##أبريل
##راغنة
##ريرية
أنشط
ملحق
وخدم
##تجمعات
volume
البطين
الحلبي
الرملي
الفائق
بصناعة
مركزها
اللواتي
المتمثلة
للمحافظة
العمرانية
##és
##ندت
##ايين
##منظر
sun
##اتورك
000%
mult
يؤخذ
grand
جزئية
دمياط
دونما
زوايا
ياقوت
govern
الحسنة
المايا
بتأليف
بوابات
تماثيل
والفنية
والسينما
##ird
##فرين
##أغسطس
##فاءات
تقضي
صلات
للتف
وسين
وضعف
القمع
تحصيل
مصباح
مهارة
هيلين
##مبراطور
بإعداد
يكونون
الخبيثة
النجمية
ماريلاند
الإبداعية
##أين
##ober
##ركبة
##osoph
##كاتير
hand
طلعت
طنطا
psych
السعة
بناها
مدربا
الأحرف
التحرر
الرواد
باسكال
داروين
ويتحدث
الأرباح
الأشعري
القوائم
للمجموعة
##cp
##سلطة
##طاعت
##فسكي
بحل
##اراته
##ريدية
##ندقية
يعنى
white
الوقف
يتحمل
الزينة
القبور
الفاطمي
الطهراني
0).
قزم
تامة
شهاد
عجلة
مايا
وراث
##أكتوبر
أجيال
بكونه
احتراق
التجميل
الصربية
العقائد
بيستونز
##جيو
##ربى
##وعين
num
أشر
جاب
##صاروخ
الغد
اللد
قذائف
نادية
الحجرة
السدود
بندقية
مؤامرة
والمعت
آيسلندا
الأحلام
ومراقبة
##غيت
##مجلس
hen
##اساكي
تبرز
قاطع
ومال
##فريقيا
فيغاس
ملونة
وعادت
الدروز
باسمها
تعليمي
لمنتخب
المفاجئ
للجزائر
الزجاجية
##حزب
##hist
##كريت
##لائم
أفاد
بازل
خطية
سماء
كثيف
وباب
وجوب
وورد
يكاد
##الرابط
##ثمانية
الباي
الصاب
بانكس
تتابع
يونكس
ائتلاف
بحماية
تتناسب
باللغتين
##;"
##den
##ائى
##لمي
##/000
##ادرا
ثري
غوي
ألبر
اشتق
بيرس
تشام
غسان
مسطح
وسمع
##كانيكا
ابناء
بالني
لتشكل
النزيف
ستانلي
للتراث
مثالية
والهدف
بالمجلس
لمتابعة
##”،
##يكي
تشو
ختم
سهم
##اميكي
صبحي
هالة
ولدى
ترامب
تنحدر
ميتال
الحركي
الصخرة
القلوب
المجري
بوساطة
الشراكة
القوافل
الموصلات
الوثائقية
##pan
##pre
##رود
##فاذ
##طابق
##بحيرة
hall
الحك
جرار
مأرب
وزاد
وقلة
يتلق
العزم
المتص
بشمال
وقناة
الإلهي
النانو
بالأرض
الأرشيف
المعدلة
الزيتونة
السراغنة
بالانتخابات
##جاهد
##حالة
بادئ
الأفق
تداخل
جارية
فقهاء
وجمال
الزئبق
ليبيون
التداخل
النوافذ
##**
##بذ
##غز
##off
##وحد
##وغل
ذر
ast
div
بدع
حاف
الما
لحوم
وطول
يفكر
إنزيم
منتجع
الكوفي
وأمراض
المراهقين
مغناطيسية
##ئلا
##درب
##اديا
##رخاء
mov
سوك
##istan
##لانية
road
الشوط
بالأم
ترانس
شطرنج
آسيوية
الدافع
الهاون
بمستوى
وتشغيل
التغطية
المحصنة
للاستثمار
##tur
##شيوس
##نجات
##هورا
who
ثير
##أنهار
عرفة
ميري
يفرض
##بلديات
##قليمية
peter
الظلم
القرط
صاحبه
البلاغة
هيروشيما
واستخدمت
الاجتماعات
##لما
ce
##char
##تصال
##تيفو
##موري
موف
مولى
درمان
التميز
الرائع
الشامية
الشواطئ
بالرصاص
المملوكي
بالتيمور
0000-00-00
##ئى
##‏،
##ible
prof
تتجه
عداء
كونس
أخرجه
لمملكة
الخسارة
تقليديا
أينشتاين
التماثيل
والعمليات
##سار
##علت
خيط
##ather
باطن
ترفع
انجاز
تصاعد
حنبعل
سويفت
مجانا
منارة
موانئ
وتنتج
إعلامي
الصافي
سانتوس
والحزب
وتبادل
الإثارة
الطحالب
المتوقعة
##ابك
##اسبا
##قضاة
##وهاج
أكت
لوج
مقل
نفر
alex
أيها
رابط
مشعل
##ground
التحو
المغت
المكث
حراسة
منشور
أتباعه
أغانيه
الوفاق
والفضة
والمنت
الأمهات
المزروعة
##elf
##بلا
eff
إبد
نطق
##جمعية
##فالية
news
كلهم
أنيمي
توقيت
وتغطي
ويجري
ارتبطت
الأسقف
الأقصر
الرحمة
المصور
الموضع
معناها
والمال
إغريقية
كمحترفة
اعتبارها
والتخطيط
الميدانية
##urs
##راسي
بتخ
روث
##acium
camp
قومي
لجيش
000).
بالبر
مبالغ
وقائع
ويدخل
وإصلاح
وتعيين
يستقبل
الديدان
الرواسب
ودراسات
الإذاعية
التدابير
زيمبابوي
أوزبكستان
##فتر
نغ
##اغوا
##حتوى
mot
أنج
إيست
تحافظ
زمانه
شراكة
ظهوره
ويشار
السمنة
إستونيا
الأمواج
التقليل
للكتابة
##ule
##دها
##غويا
##فيكا
راو
ووج
##اريوس
##بالغة
##ناشطو
رقيق
حاشية
للبيع
الأقرب
مورغان
بالهجوم
##اليونانية
احتفالات
##سيير
شاف
##ذكرات
##كاتبة
آلان
تبوك
رينو
علام
لايب
هدية
##ديسمبر
##ستيكية
إقبال
النوى
بارزا
مهنية
مواضع
وأخذت
صناديق
ظهورها
للقرآن
مؤشرات
وأنظمة
michael
للمدرسة
##اقتصاديون
المناعية
وباكستان
الاكتشافات
с
##amb
##sky
##سلل
##واش
##ليكا
##مامة
##متاع
##وادم
بدار
تركه
ثلثي
معاذ
يطبق
width
الحلة
الخرج
السبا
حملته
عناية
بتصوير
بروتون
زواجها
قياسات
مذيخرة
اتجاهات
استقالة
العمران
الهوائي
بالمقابل
سبورتينغ
شتوتغارت
hieracium
##شيك
##موج
##صبغة
##كرية
دني
راح
لاص
##ستعمل
##قصيدة
##كوبتر
سيجا
نقاش
night
الذري
تستطع
فضيلة
مفاجئ
أبرشية
أفلامه
الناتو
الوالد
بالنظر
بعناية
مأخوذة
الأبنية
النظائر
ليوبولد
##ماساتشوستس
##olf
##ثلث
wil
بيو
لني
jean
تؤخذ
راجع
يخلق
ايران
بالعد
أوغندا
النظرة
بكونها
وأصحاب
والنقد
التحضير
السريان
العاطفي
المنطقي
منازلهم
وانتشرت
الاجتهاد
الحاسوبية
البيزنطيين
##فيفا
##ويري
بزع
خبز
وصد
##راكين
##مانية
##ويدات
وانس
الاير
النقش
جانفي
مداخل
إقامته
اختطاف
الأسطح
برنارد
والسيد
إدارتها
ومحافظة
المعتدلة
الوطنيين
والفيزياء
##أيام
إمي
ضاب
ناي
##بالإن
أوست
فرانش
##يدروجين
الرسام
الكبري
النجاة
والضغط
الليمون
والاقتصادي
##بب
##sal
##يونيو
اطار
بليز
دريم
ماركو
ويهدف
##جنرالات
المجهر
المرآة
المريء
تجاوزت
القارية
القرنية
المخلوقات
البروتوكول
##osis
##ality
##inger
جالي
لدفع
مجري
الأشر
تجويف
تولوز
تويتر
معادن
church
روزفلت
عائلية
للآثار
richard
الفطرية
بمحاولة
ممارسات
والقيام
##افه
##ريث
نيق
##منستر
post
أطلس
تنام
شغلت
فولف
فيلق
الصفي
الفتى
ممالك
الفاسي
وجعلها
المتكرر
الإسماعي
يونيفرسال
##ضحت
##يدت
##شقون
يسع
##قبيلة
فلكي
ماين
يزعم
التيت
:0000-
وعملية
الداخلة
العجلات
الميزات
بالرباط
بالنظام
##نيخ
عظمة
عميل
غذاء
أصلية
القيس
مراجع
تركيات
ستوديو
##قيانوسيا
##كوميديون
كتابتها
وأربعين
والحركة
##oman
##وكيو
##ونيخ
شقة
##عضوية
##وصيات
حرفي
للسب
##نافسون
بحياة
للفرق
لهجوم
والاع
وتحول
استقرت
جيرمان
ونشرها
إماراتي
بالأشعة
ومعالجة
البطاقات
الصينيين
##ؤي
##وشو
##back
##text
ممار
صامتة
لمكتب
الهضبة
خورشيد
أخلاقية
الوضعية
نانومتر
مكسيكيون
##آمر
##قري
##fran
##طريق
##طقوس
يبد
##رافقه
برسم
بقعة
ناري
إجتما
اختفت
افلام
والتخ
##إسرائيل
اعترفت
السلوف
التشفير
الحساسة
نيوكاسل
الالكترونية
##زيس
##رائض
##رشيد
##مران
que
اري
طوق
##مقرات
جرير
فوهة
لحام
يراه
أشعار
المذه
مراقب
وواصل
##ulation
جونيور
مجاورة
كونيتيكت
التقديرية
##cs
##طفي
##ويز
##ستال
##شفية
##ضغاط
dig
تاس
طمو
فيج
كيك
##سابور
تخلى
هرقل
وصنع
يتسم
المكس
النسق
بحدود
تأريخ
سعيدة
أولاده
النظري
الوسطي
ملحوظة
الآليات
الكروات
الصادرات
المكتسبة
الإيرادات
الاحتياطي
الفدرالية
##)(
##غى
##خنة
jo
##لائع
أشت
حظي
##ments
حفرة
واين
الصدد
جداول
محتملة
الطاعون
بالحياة
استخدمها
الوزارات
بالتعادل
##ift
##oot
##ota
##سوا
زا
##بيتها
شوار
ورشة
وسار
##itable
الباق
مجرات
مرغوب
ميشال
وتبين
الذئاب
ومؤسسة
ووزارة
استهدفت
التعليق
المؤهلة
جامايكا
والمركز
##ثروبولوجيا
الرياضيين
والجنوبية
اليابانيين
##ديهم
lin
var
##فقراء
فالأ
##اليتين
أسوان
العال
القحط
براين
بورتس
تعقيد
جينات
كاتبا
وثمان
الفيلق
القطبي
الكؤوس
ممتازة
التجميع
الزلازل
بالدوري
لاستقبال
والتربية
##ams
##iro
##osp
##اماة
##ument
جهان
جيجا
شيخه
##راقبين
تركها
جبريل
فقيرة
فيروز
للأكل
يتوسط
الصفوف
الموجي
ساعتين
هاجروا
وعرضها
المعتدل
واليهود
##ضاعة
جلس
ركز
##جنبية
##عددية
##قبلات
سفين
كراي
المدي
المعب
النقط
حامية
التقاء
لإعطاء
لتخزين
مثبطات
الزلزال
المظلمة
أسترالية
الخميسات
النخامية
والأحداث
والعلمية
الافتراضي
الثلاثينات
زائ
عطا
##راهام
آبار
ديلا
رقمي
صورت
وأسل
يأمر
الأسس
دموية
شاسعة
طلبات
استفاد
المفرط
أركنساس
ارتباطا
المكتشفة
للصناعات
##di
##ely
##فينة
##وسكي
بشيء
توما
حددت
نقوم
وتخت
يلقي
##يهودية
دافيد
series
الحموي
سويسري
الأطباق
التزاوج
تقديمها
السلوكية
التفاعلية
##اجا
##rench
ألان
تيلي
سديم
للأح
منعت
نظري
وصيف
لبلاد
##الجزائر
المتصل
بتكلفة
لجماعة
للأمير
وأهمها
والطيور
الاسلامية
الإيطاليين
##تحل
##ضاد
##أيضا
##اربي
##غرقت
##ثيرات
اشهر
مغلق
يطرح
march
أليفة
الثقب
الطلق
المسم
رغبته
قائلة
كريات
مراسم
العادل
العبري
المرمو
بلنسية
كافالي
الدبابة
بالعراق
##روما
##ستري
##ـ000
عزف
bank
الزن
قالب
ومتن
يضرب
##الدوري
اللمس
جانبه
فرانز
ماثيو
مارين
ميرزا
لتأمين
للحقوق
كولونيا
القيادات
الملاحظة
الإلكترونيات
##(''
##jpeg
شقي
##ering
امير
تكلف
أقمار
الإلي
حصلوا
وسائط
العداء
والنصف
النيابية
للحيوانات
بالألمانية
##ضرة
##نور
ناقش
هزيم
تتركز
تصريف
حرفيا
##ليكوبتر
آيلاند
المولى
الأنبار
الحواجز
المداري
انكلترا
الأمازون
والرعاية
##آب
##أله
##ملف
##هره
غرق
فتى
نسي
##وديون
##ياتهم
ذكاء
مستر
نعمة
ورأى
##adding
##وكالات
أخلاق
افترض
اللائ
للنفط
معتقل
وحديث
يمنية
العجوز
الغزاة
القمري
process
والشؤون
خوارزمية
##ثق
##ush
##كاي
##ضاعف
##وهام
متخ
وتغ
ولح
شهود
أفريل
المتر
طرطوس
مطلقة
اعتراض
الجلوس
سياسيون
##كارولاينا
مهرجانات
##0+
##ساط
##ائين
##هجير
اوس
لوغ
##سرطان
##وبيون
تدار
تقمص
وبات
after
أقامت
أوليم
الراج
لكافة
اكتمال
المحلة
المقياس
النقالة
تذكارية
التنظيمي
الطلابية
##جزأ
##حها
سه
##pres
##أستر
##اطفة
loc
nav
آين
##لطوية
وسوق
وعقب
قحطان
كمادة
بالاعت
بتطبيق
لأجهزة
وقواعد
##السعودية
##بالعبرية
##مستكشفون
احتجاجا
الأغنام
المدمرة
الأندلسية
والمتوسطة
##aj
##ki
##يدن
جث
##ازول
##بالف
##علبة
آرك
##ساسية
stat
ببيع
سينت
صبغة
وارد
وبير
وبيع
وشعر
##وروبية
princ
ومؤرخ
يتشكل
الكنسي
المؤدي
سيلتكس
الرسولي
مستطيلة
الروائية
##مما
##اصير
##هانة
mel
mit
سعت
##كتوري
##معاداة
الشائ
العاز
الولي
تقابل
رسمها
فقالت
ليكرز
آرسنال
الباطن
فيرونا
والمكان
الحسينية
الشافعية
المعتادة
##غاز
os
##بيلي
play
اليع
بريس
البنت
فيلما
حكومته
عصابات
الإبادة
الحلويات
العمالية
دبلوماسي
الإجتماعي
المستعمرة
##غطاء
إلت
الخد
جودي
##داخلية
الكرم
بدعوة
بواقع
لإعداد
الاحتجاج
التذكارية
##cia
##ras
##اذفة
##ارتي
##شفاء
##مجرد
web
libr
دلال
دينا
شهيد
غلام
للخط
هولي
الأخت
ديبور
أمامية
الإخوة
للفرقة
والصور
الأشراف
فيروسات
القديسين
المقربين
الهيكلية
##رنب
##غوا
##فنت
##نسر
uk
##ists
##اصور
##نبلي
##واتب
تلي
لإس
ريفي
فالع
فقرر
بنادي
عديمة
والقر
يدافع
##ماركيون
county
الراهب
الغموض
##المسيحية
إنكلترا
استيراد
المرونة
مستوحاة
الرئيسيين
##حوش
##وصى
##قسام
لحق
##وحدات
##ونيكس
تتسع
نشرة
وسجن
##فيتامين
الشئون
##ــــــــ
مختبرات
##جميع
نير
بيني
راند
وحرب
اللين
رفضوا
رمزية
غارات
التوأم
بالعين
تصويره
روتانا
نهايته
الشريفة
الشيشان
الصلوات
الضربات
بنيامين
المنوفية
##تمة
##شأت
##عدت
##حمام
فمع
##طاقات
أنجل
اصدر
اغلب
تيمو
لكلا
##المغرب
music
بريدة
تلميذ
تنطبق
جنوده
فرحات
أنشأها
الحاجب
الراية
المحفو
التأسيس
بالقوات
لمناقشة
والأوعية
الديموقراطية
##uf
##ينغو
أذن
##الملك
##ودعات
كلود
مايس
##ission
roman
مستعر
والحض
وكبار
00-000
أساقفة
الحواف
لتصميم
الراديك
برامجها
المسارات
technology
##ado
##eds
##باتي
ألح
بيث
ركب
مفه
##قازيق
free
طلبا
عيني
للدي
نموا
وللت
بوارو
كومكس
متنها
أردنية
الحصون
القضيب
للعودة
استرداد
تأثيرها
المتبادل
المدربين
الموسيقار
##ظه
##قض
##lar
##udi
##الأن
##ذهان
##هلين
non
ألق
سرط
صهي
عيب
##ارسين
##حادية
أسسه
باكز
تعلي
وبنى
##تهاكات
أمينة
النسل
حاضرة
حساسة
ستاند
سقطرى
هيكلة
وسلوك
##باباوات
الحائز
الموضة
أسطوانة
بالدرجة
للتعاون
ويستعمل
المؤامرة
##на
##رقت
##تهية
##ميتة
##نحاة
خري
##جاهات
إلهام
الأسي
الشجر
برهان
بشارع
بفارق
زغلول
والند
القابل
المستع
ودبلوم
وراثيا
##أور
##عتان
##هايمر
##واعيد
توزع
جائز
حقيق
صافي
فطلب
##وتنهام
الحصر
حياتي
عملاء
للخدمة
وافتتح
المركزة
باختيار
الأساقفة
الدوريات
التأسيسية
##تور
##كرات
اتش
ميم
##فلوري
أعرب
تهمة
مكثف
##ctions
##نوفمبر
الباه
التبت
الفري
رينيه
العضوي
بتوقيت
أفلاطون
باليرمو
التقسيمات
البرتغاليين
##oth
##اقل
ty
##احون
##غاوا
lat
##قاربة
غيرت
كافي
وصلة
يسمي
ينزل
اقليم
حلوان
خاضعة
عريقة
وموارد
المخاوف
التضاريس
##شوفة
##يلون
أشع
سفح
##ؤولية
##رابين
بران
عريض
قسمت
نجمي
ولهم
ومار
##تانامو
الباس
معدني
مهاجم
يشترك
august
كنديات
البلجيكية
الميكانيكا
##des
##phal
##rome
خوا
صدق
##iness
صفاق
يكثر
##أمريكا
اغتيل
الإخت
يسافر
الثقفي
الضباب
بتوجيه
عشوائي
لتسجيل
تلاميذه
خدماتها
وهولندا
##سيح
log
تاش
كني
##وكانت
مافي
وكرة
(00%)
الحلو
النفق
بصرية
عاشور
السطحي
انحلال
تذكاري
محفوظة
الفرعون
الفرنجة
المنافس
والنشاط
وتقاليد
ومقاطعة
التشكيلية
##إلا
##جزات
تصب
سرب
ضوئي
وباء
##هلاكية
فرويد
قزوين
معلوم
المطلة
مخالفة
وتفسير
إحصائية
المانغا
وجماعية
العبارات
سينمائيا
المتبادلة
واجتماعية
##زك
##عرش
##فضة
ألس
زيل
قصي
ليه
##اربون
##يائية
تموت
قضاة
كالد
وقصر
ويصف
رجاله
قلادة
للإست
للعهد
##وكولاتة
الراعي
سامراء
للقتال
مجتمعة
اعتنقوا
العقارات
الفيضانات
##ذيع
سرق
برغم
صخرة
نزلت
الأنث
الإتح
الشبه
الصال
الطرد
ديانا
سورين
عشرية
كواكب
والأب
##مصارعون
second
الخوارج
الزواحف
إسكتلندي
باستقلال
##ti
##حز
##ker
##ser
##حتة
##قمح
##icus
##ظافر
اوب
##دادات
pass
أنجب
##مائيات
اشترى
الخلل
تبريز
تصفية
قضاها
إنشائه
الكفاح
بالطبع
تتفاعل
مظاهرة
00-0000
إحداهما
المزايا
والبناء
الأيونات
اليمنيين
والأدوات
##وفون
محق
##واضعة
خصبة
دفعه
##شروبات
لحدوث
نجاحه
البدني
المؤشر
لبلدية
البلدات
القرطاج
برتغالي
للهندسة
الحكايات
استعمالها
المتزايدة
##فوا
##يقظ
ic
##duct
تحو
خضر
رعا
also
أخاه
شانغ
وفاء
مؤثرة
وليلة
people
الاربع
الدلتا
المحبة
بزاوية
وتغيير
الأعياد
الاستاذ
الخاضعة
الكنسية
فانكوفر
مستخدما
هولندية
البلورات
للراليات
الجيولوجيا
##vd
##-0-
ol
##تاكي
##يواني
أندر
باسي
تسجل
رقعة
فكري
كرون
وصفة
##المركز
##قوميون
يعارض
والوسط
ويستمر
استخلاص
الإندوني
الحاسبات
الرشيدية
##غلة
##ايات
ترس
حرا
test
تحدي
تحمي
حاله
يهدد
فقامت
للنظر
ليسوا
نظيره
يناقش
##وقراطية
battle
report
المؤكد
الوعاء
بطبيعة
وكوريا
##بالروسية
البولية
لانتهاء
أوقيانوسيا
##سج
##cin
##(00)
##جملة
##شتاء
غرض
appl
بمقت
بوني
وفوق
##اراتها
الكاز
صالون
غابري
مسافر
وتابع
مجموعته
والبحرين
والكيمياء
##شبه
##دعاة
عتي
##موئيل
##وجرام
cour
أميرا
الورك
تصدرت
غاندي
للضغط
للموت
الشعاع
المبني
انقراض
لاإطار
مواطني
وقاذفات
##تاز
##يثم
##رجية
##نديز
تهي
صوب
وتي
بريك
تألق
تعلق
وأرس
ونجد
القاط
تكتشف
كربون
السطوح
الصفقة
لإصلاح
الأشغال
الاثنان
المأخوذ
المترجم
ويتراوح
الاغتيال
الجلوكوز
المواليد
الكونكاكاف
##ضحة
wr
زد
##ينجا
خوض
##acing
آفاق
خشبي
سهيل
لاسم
ومرض
اجزاء
اعلام
والشي
واللح
وبقية
وفران
transl
سكرتير
للسلطان
والمنتجات
##++
##ارم
##ربح
tv
##rown
##بالم
##بورت
##زيغي
##نزاف
tor
حور
يشك
أيسر
بادن
فردا
كنوع
لجهة
نحصل
تنطلق
ممتلك
الكمان
فلوريد
##مستعمرات
charles
الجينوم
النبطية
باللغات
##xx
rh
##عتاد
##ويضات
تقلص
رصيد
مصرع
وأخت
أحواض
الجبن
تأخير
زيتون
طالبة
كوينز
ونيوز
ووضعت
##هامبتون
استسلم
النخاع
بشعبية
وإطلاق
العمودي
المتوكل
الاحتياط
السلاجقة
الفائزين
المطبوعات
##aya
##ful
##oul
##أرج
##طبع
##ياغ
##بدور
##جيلا
##حتهم
##لاها
##ونهم
den
سوز
كذا
لإخ
وإخ
##color
##عامات
##قابلة
يضيف
##صفهاني
المحس
بإحدى
والأف
includ
الصخري
المذنب
المصير
المنبر
بتعليم
بفيروس
بالطريقة
##iii
##apan
##جنين
##يبيا
ولب
لونا
مارج
يلجأ
أمينا
إماما
بناءه
جرعات
مخترع
مطلقا
والحب
يشترط
##بكتيريا
تخصصات
للكويت
والحكم
وتتمثل
وفقدان
استوديو
التداول
0000–00,
والتنظيم
##ogle
##ائري
##شاهد
أفض
ونز
##شورات
##غيرها
حمير
ليدز
الريب
عملوا
مطاعم
هاجرت
والنج
وواحد
##شتراكية
التاجي
الرنين
الموظف
لتخفيف
مجريون
##00000000
الكتائب
للطبيعة
إماراتيون
تلة
لهن
##هاينة
000-
أعدم
حكما
عبود
##انسحاب
##نسويون
00–00
أدخلت
لسلاح
الخصبة
الضريح
رؤيتها
وتحولت
network
الإذاعي
العرائش
المبرمج
الناصري
سكرامنتو
##اجو
##اسن
##wood
##لوحة
fun
كمر
تراب
متحدث
ومعنى
##بريالية
الجسيم
العطار
الكاهن
المنصة
انتظام
##كيميائية
الإرادة
الزوجين
السمعية
النظامي
كمبوديا
##mus
##كيب
فف
##اروس
##جبين
نسل
##ضحايا
russ
##جورجيا
الغار
فتيات
وحوار
يتحكم
التفوق
العريض
استثمار
معادلات
بالإسلام
##خض
##val
##يتم
##راوة
صلح
##عواصم
تأكل
حلها
ليما
##americ
أنظار
الماك
يتابع
المسند
وإثارة
أهدافها
التعقيد
الصدرية
العولمة
المعترف
استخداما
المفكرين
المختبرات
##باحث
##جرية
##طباع
##غاتا
بقر
صخر
فاق
فلس
فلو
##السيد
##والدة
حاصلة
حبيبي
صفاقس
لغوية
محلها
وطريق
وكأنه
يتطور
##منتخبات
##يطاليون
الريان
مطابقة
يملكون
المتهمين
##أه
##جيبة
##فصيل
##قضاء
##وشان
كنف
##أشياء
##عملات
أريد
أعير
بايس
بنوع
تامر
سيري
سينغ
عقدا
تاركا
تعتقد
وصدرت
الأثير
أوكراني
استعملت
اعتباره
الترابط
لاختبار
الانتخاب
للبرنامج
مستعمرات
الاستسلام
الإيرانيين
##gi
##war
##حصن
##خدر
سائ
عشي
مخب
هوا
##هيمنة
أرضي
تقني
أندري
مثالي
وخدمة
##كويكبات
orient
التسوق
المثنى
لأعضاء
ماديسون
محترفون
المفردات
المناهضة
والتجارية
0-000-00000-0.
##mb
##اعف
أمد
لصد
لوط
##اموتو
##وازنة
أوقف
قبور
كالأ
لاقى
الأمي
الرفع
خدمته
سالبة
كروية
العظمة
الكمال
المسبب
النجمي
مدبلجة
العشرون
بمهاجمة
الوعائية
عثمانيون
الصومالية
##موما
##هدوء
لغز
بطلة
ولات
##المبية
##جيليون
##ريتريا
##نظريات
كامير
معارف
يتردد
العقار
لاتسيو
الخزانة
والوصول
والهيئات
##isa
##tra
##ماز
##ريتا
##هاتف
lou
##اعدية
تخطي
حجري
روبي
##ثوذكسي
الرفض
حقيبة
يقترح
المنذر
انعقاد
وشركات
المواسم
معتمدية
##أستراليون
المتغيرة
للملاكمة
##rd
##بعض
-0
طعم
لاد
##كارات
إنهم
الشرط
الصرب
تتوزع
والمف
ينتخب
أكثرها
ارتكاب
غارسيا
وآخرين
استهداف
الأضلاع
المملوكة
والإرشاد
والإصلاح
##mor
##ثاء
##جرى
##فرط
يوش
إحدي
شعري
##public
build
البقع
السبي
بشبكة
داخله
عيادة
وتقام
وسائر
أرسلان
اجتياز
القلبي
بأعداد
جمهوري
ومدافع
الإسكان
الخصوبة
والواقع
استعماله
للدبابات
والدكتوراه
##sen
##ضخم
##نفس
##واتج
##وراسي
الوت
برقة
سمية
غارة
مكوك
مورد
وخلف
وسيط
إرادة
التقي
بطيئة
تقدمه
ديفيس
للأمن
محاور
ويرمز
ويقصد
لتحليل
نافارا
والإست
ويشارك
التباين
المصنوع
العمانية
والخارجية
##mel
##زله
##طدم
ins
حقه
##تيكية
أضخم
لسبب
لمثل
وحلف
وولد
أنهار
الأجر
بيانا
تحكيم
تصويب
رفاقه
يترأس
التسعة
الجيري
الكروي
المؤيد
المهرة
مقاتلي
الحنجرة
العريضة
النافذة
والأبيض
والشعير
الانهيار
كيلوغرام
استخدامات
السلوكيات
##,"
##ava
##van
##تاك
##ains
##جلان
##ربان
ناط
نوب
رفضه
فقرة
المشع
شهدوا
ليعود
والذى
الأفقي
والفرن
وتأسيس
ونظرية
التقدمي
الفلاحة
الهيمنة
إيزابيلا
##ديانابوليس
##قو
##موظ
##بيرة
##فيان
##وكلي
شتا
##لائها
##وليني
بارق
جبلي
فواز
فيلد
وجده
البوش
طالبت
لطيفة
ويبقى
ويدعى
لصحيفة
محاصيل
إخبارية
الترويج
الملازم
الموساد
بداخلها
مقدارها
والدعوة
البروسية
العقارية
المتواجد
##cat
##آخر
##اذه
##نسين
لفي
ونس
##العلم
##سلاسل
حظيت
قبضة
مرآة
يقطن
##سيكيات
أملاح
عمودي
والخل
الزيوت
الأكسدة
الأملاح
والغربية
##لينز
حلا
##سياحة
تنظر
ماست
منجم
شاعرا
محاضر
مشيخة
منشآت
عبارات
قيادته
للفضاء
وتمتلك
##بالإضافة
century
غريغوري
ولاسيما
وعاصمتها
الأيرلندي
##alem
##pend
##كماش
فلن
##ستطيع
##مرضات
rock
بوبي
عدسة
لعقد
يحسن
##ration
##مؤلفون
السهم
جعلته
رايتس
مسييه
هاريس
الدانم
الفوري
الميزة
لتصنيع
نهائية
أبنائها
الترميز
المضغوط
والتراث
التهابات
المستكشف
الملائمة
##mes
##خبر
##سوي
##بقاء
##راسل
##غرين
##اتباع
تقطع
حجاج
عقار
##الموسم
أصيلة
المكب
تتوسط
ترتكز
ديانة
مناجم
وتقدر
وجهها
أخبرنا
أهدافه
المعين
بشخصية
كونراد
المرغوب
##بالفارسية
الفتوحات
الناصرية
والمساواة
الدنماركية
والديمقراطية
##mit
##آتي
##رحم
##لند
##rael
##اميل
##بهان
cas
دري
##حيوان
##طوانية
الزرق
الوحي
بالتج
بالصد
بيعها
معدية
الخيري
تجربته
لارتفاع
انتهاكات
غوغنهايم
##قلم
كذ
##روسة
##وندو
جيت
##دراسة
الخن
فلاح
حواجز
للشرب
يتعرف
الجابر
الوصيف
غراهام
لمساعد
وإجراء
يستفيد
المالحة
لينكولن
والشمال
المشهورين
كوينزلاند
##ky
##arab
##vers
##احلة
##اكاو
##رمون
##سانس
emp
جرش
##قاقير
أسير
أوصى
عمير
##هرامات
جوليا
غراند
لسباق
موراي
00-00.
الخندق
لورانس
##:(
##قلاع
أصر
تريم
النمل
خزيمة
##ألمانيا
بالذات
رئاسية
لأنظمة
والمرض
المؤدية
تصنيفها
التسجيلات
والمحافظة
##بض
##"..
##امز
##فلة
##mann
##ثيون
##ركلي
##زعاج
##غياب
##قيون
acc
ill
sum
بيب
جوش
وحض
##كسيكو
##وهرات
إزال
الخر
فلاش
قصفت
مانت
ومدن
الطبق
بوهيم
بيئات
حجازي
صحيحا
ممدوح
وحققت
الجبلي
فريدرش
مهمتها
ميونيخ
وعندها
وكأنها
ويحدها
systems
الأصناف
الحنبلي
المسالك
مذكراته
والفنان
والموارد
الثلاثينيات
##راته
##كندا
حاش
حلي
----
line
بطلا
وجيش
الليث
سميكة
وأكمل
health
الشريك
كثيرون
ومكتبة
ويلاحظ
إعلانات
##براطوريات
والأمراض
والإدارية
التليفزيون
##gs
##ئوي
##خاء
##تيرا
##غمات
##كلور
##وغوس
تهد
جورد
فساد
كولن
cross
media
التحض
الشقي
تشرشل
جنازة
ضمنهم
فاشلة
دخولها
للطلبة
وتسجيل
المتحرك
##نص
##امش
##دمجت
##كتها
##ودون
apr
lar
محظ
مسن
ناك
##دوقات
##ضاريس
##ويقية
crit
اتصل
حواف
كلوب
وإما
الشوك
بظهور
تناسب
مازال
والاد
##ستانيون
بكفاءة
مستقلا
college
للتحقيق
اللبنانيين
##تيج
##زور
##مند
##هين
##أسست
##شمير
##موضة
تتع
##وكسين
بمثل
رافق
مطال
مفوض
وكأن
اللثة
مرونة
يحتفل
الجحيم
الأوردة
للترفيه
مونتانا
ومركزها
الوثائقي
philosoph
كافالييرز
00/00/0000.
الأصواتالجولة
المئويةالجولة
##واتر
سرت
##itary
رولز
##ماريون
front
years
تتحمل
حصرية
وطبقا
الجرحى
الحدوث
المفتي
الجنائي
متزايدة
المقترحة
##قلص
##ason
##اتان
##طربة
##وانغ
تبي
سيج
##كليني
بونت
نيكي
##!!0000
##العراق
التري
انعقد
خديجة
ديربي
والحو
يهاجم
اختلفت
الجروح
الشهية
الضعيف
شعارات
الأسلاك
الرومات
القصصية
تعليمها
توتنهام
الإغريقي
الامتصاص
الفروسية
للمسيحية
المستثمرين
##ضرر
##ندين
ويف
##تحقيق
اتبع
اعلى
روست
نظره
إليوت
لحالة
ليستر
نشرته
##إسبانيا
##حصائيات
تحركات
فرانكو
لتدريس
وتعالى
الشركاء
الفلسفي
تصريحات
مساعدات
##كبة
##اخام
##سمان
gar
نوا
##زواحف
تزرع
راحة
روفر
قصته
##واجبات
light
بطلات
تقدما
سبعين
صارمة
للشمس
المنظر
تلقائي
واسمها
##collapse
التصديق
الليلية
الميثان
##قبه
##(000
##خطاء
تمه
دعي
تثير
يسري
الجذب
الكهر
بانها
موقعة
##اردينال
منطقية
واثنين
استحداث
الأبقار
الأفغاني
والأفلام
خف
##سيدي
##صاحب
equ
fer
حبس
راه
كاه
##معادن
ركزت
علنا
فينت
مغطى
وزان
وسبق
يحمي
أكسدة
أمهات
تفتيش
وكلها
##ليفزيون
##مغامرات
المرضي
للموقع
موطنها
مونستر
وقانون
الطرفية
العنيفة
الانحدار
المؤثرات
المتسابق
المهاجرة
للعمليات
الاستشعار
الشيوعيين
الإقتصادية
##put
##نديل
أجز
صان
لأخ
لتب
وبخ
##الجيش
أسطح
هامش
هوغو
يخبر
##erland
##ارتباط
أبيها
أطوال
إياها
تعرضه
خارطة
غذائي
فإننا
قادها
وأقدم
وقاعة
الزاوي
للحرية
وواحدة
أولمبيك
الصالات
المشورة
بركانية
ومتابعة
العشرينات
0-00000-000-0
##lag
syn
تدعي
فاير
##سلافيا
أرواح
ابطال
البها
عينيه
مسطحة
ويؤكد
##padding
تركمان
جماهير
للدوري
الكثيفة
المغنية
الندوات
والمرأة
والمراكز
الأفغانية
##ben
##head
##عضلة
##قائد
بصر
ربح
محا
ودا
##كندري
have
إيما
فعاد
نصير
بالتس
عاليا
منطقه
واليا
أسلوبه
بترجمة
جميعهم
سنتيمت
للتعرف
البحارة
الأمريكيون
##bu
vi
##تيوم
نية
##stein
##جرائم
##ورياس
ثمار
حالت
ريفر
سويد
مدرع
نهري
الصفا
القرض
النقب
دخلوا
يحتوى
##وغرافيا
السمكة
الإنزيم
الساكنة
المشرفة
##امح
##الخط
##نباط
أصي
تحض
جدي
##تيكات
mont
ألقي
فرضت
لويز
0000;
الخري
باقية
بعثات
حمادي
البركة
الستار
تأثيره
طليطلة
الأقواس
العدسات
##رياضياتيو
للكهرباء
##cha
##سبر
##يها
ارج
خبي
هنغ
east
sept
الغش
حفظه
لدين
مينا
اعلان
ترايل
جولات
حديثي
روكتس
موقفه
00000.
المدفع
والفكر
السعرات
المقاطع
الواضحة
للتدريس
مستقبلا
والسياحة
##جيم
ze
##ball
##ried
##ucle
##شيلي
##وفيل
محف
##تحرون
##جابات
glob
خشبة
كاهن
ليحل
وتتح
يسلم
يوجه
تقاسم
صراحة
والرو
academ
إصداره
اقترحت
العزلة
بأشكال
تيارات
عمومية
الجاهلي
##wikitable
الينابيع
والأسلحة
الميكانيكي
##خخة
##عطى
if
##thor
##جمعة
##فزات
ممل
اولاد
عرضية
وباحث
##المملكة
والأصول
والسويد
اشتراكية
بجمهورية
البلغارية
##gn
##td
##ар
##شهر
##وذة
##المؤ
##مائه
نبع
أنهت
إزاء
سالي
فاعت
قبره
كيفن
مخزن
نيوت
يزرع
study
السيت
الياس
شيراز
فاكهة
لإحدى
وجماعة
british
المنظور
والحرية
ويستطيع
والأدوية
##زلاق
lim
تحق
توز
##erson
##راكيب
##كنسون
بسعر
سوان
وأثر
وسنة
الحفظ
جاكوب
شارون
نصوصا
ومحطة
ويحيط
المدين
لزراعة
متأخرة
وأشكال
الضرورة
العلاجي
سوفيتية
مسيحيين
##كاتدرائية
الانتماء
التصاميم
المحاكاة
المقاييس
بميدالية
باليابانية
##رعت
صع
##cher
##زيلا
civ
men
ادى
##ental
##ابعين
تحفة
متجه
مزار
مشكل
معلق
مقهى
يخطط
البصل
النضج
سرحان
للاخت
متاحف
متحرك
هادئة
احتياط
الدعوى
الرحيل
الفناء
هارولد
والبلا
مباراته
الاستماع
البكتريا
المروحية
cellpadding
##esc
##irl
##ديش
##بردج
##منين
وحب
بيرل
اللوج
عربات
ويطلب
الميول
النهوض
انعكاس
بإقامة
جوليان
والناس
وتتألف
وتستمر
وتناول
جيوفاني
##ody
##ميك
##وحت
ta
##رمذي
0،0
##عازفو
دياب
فجاء
يانغ
##دراسات
الحمي
تكليف
واحده
##اركتيكا
##التاريخ
الخالي
ياسمين
السنوسي
المتوفي
المصارف
برنامجا
للبترول
الإدارات
التشيكية
الشيخوخة
##lim
##سطة
زو
##ideo
##well
##ذبذب
##قراء
##كرمة
##وارئ
##ينتو
det
تتس
دود
فيك
كيش
##اضرين
##كيمون
(00%
تنشط
خليف
ليرة
الذكي
تبديل
تقترب
روافد
واحتل
direct
الأجور
الصربي
المرسل
إيرادات
الباليه
الشجاعة
المقدرة
الانتظار
الدوميني
##-0000-0000
الطباشيري
##ih
##رفا
##-00،
سلس
##صحابه
أنفس
خاله
زيوس
ووتش
ياما
لمادة
مدتها
وأنهم
اختارت
تفسيره
غلاسكو
برلماني
للأحداث
والكاتب
##sd
##اريب
##سولة
تحص
ريج
طبر
##ابريا
##ذنبات
بمنع
ذهاب
رايس
إتحاد
الصقر
غادرت
مهامه
والجي
وكثرة
أطروحة
البكري
الرؤوس
الضيقة
موتورز
##إيطاليون
الخطورة
الفقرات
الناظور
ut
غيم
##ثنائي
الاك
عاطف
نقيب
##مفاهيم
تتنوع
مناظر
ووحدة
##هولندية
الماعز
كتابها
وتحرير
ويتألف
الحنفية
ميكانيكي
والأبحاث
##''؛
ram
بمنح
لربط
مصعب
##وبوليس
استاد
الطعم
الكنع
حافظت
سونيك
أوليفر
انفصلت
بالاحت
كليهما
للخروج
وينقسم
يوميات
الرؤساء
الحافلات
الليمفاوية
##isc
##عصر
##وثيق
مدع
يوس
##استها
##واتها
تفشي
دعما
كلفة
محيي
دعوته
سرعات
ويسمح
الخصيب
النادر
مدعومة
مسلحين
مكتبات
##000000).
الاخيرة
الوسيطة
المنظومة
المدافعين
##اهج
##فوذ
##قاة
##لاز
##ضرحة
##محور
##يونغ
بإت
جثث
##فاليا
##يرغيز
حيان
عقيد
لانك
مبان
وبدء
ومقد
الحبر
بوليت
تقليص
نبيلة
وتعيش
وسعيد
ومالي
ويعرض
كاترين
إنتاجية
المناجم
المغامرة
بالتزامن
واليونان
الاستقبال
##nes
##بلات
##ددين
##عروض
old
##وبيين
اقام
الحلف
الدرس
أصفهان
الأنبا
الخيام
السرقة
بزعامة
رودولف
لتصنيف
الترجيح
متباينة
الأمويين
المصفوفة
موسيقيون
##،.
##ثاث
##ized
##شتري
قسط
قصب
##جينية
##زابيل
##غادرة
إميل
سحابة
لهجات
الأخوة
المتعة
للقرية
الاطلاع
سامسونج
إسترليني
الابتكار
الانحراف
الاستعانة
##راهم
##وبعد
##يشية
تمو
يرض
##oseph
tele
أصلي
تمسك
علبة
وشيخ
الأعم
كممثل
متوفر
واتجه
وحرية
ومكتب
ينطلق
البقرة
انحراف
داخليا
قواتها
مخططات
الأيتام
الاذاعة
بالوقود
نيكولاي
الاضطهاد
بمتلازمة
الإثيوبية
التحليلية
غوانتانامو
##ski
vo
زغ
##cast
##gray
##john
##ماوي
fin
عشق
نفى
##روحات
anim
جريج
زوال
يبعث
الانش
صورته
كقائد
وسيتم
##-0000).
الممتد
ترقيته
فقالوا
والموت
وطبيعة
الرحمان
تصويرها
والأنشطة
والتاريخية
##الذ
##امكو
##ضابط
وحش
into
أبها
تتفق
تناس
خيري
##-0000)
##رشادات
الذئب
السرب
الممت
تراجم
للبشر
للكون
يتعين
الحيمة
العقوبة
المصلين
النبيلة
للجزيرة
مانديلا
الباكستاني
الفوتوغرافي
##0/
##gal
##rat
eth
فنت
أرضه
أولد
رافع
غوفر
لطيف
موكب
نشوب
وفرة
##واصلات
الثور
بشارة
بلايز
موهبة
لإثبات
مساوية
وتوفيت
احتياطي
استئناف
الباروك
الضواحي
بالإجماع
##kin
##هزة
##west
##ستهم
##قاله
مرن
ويغ
expl
إنتل
بكرة
وقصص
أحجار
مبارة
##وستيرون
method
المشير
صلاحية
الراقية
المدخلات
والأدبية
##ائما
##الفا
##ظايا
صحن
##اندرا
##عدمون
انتج
ترتي
ثيود
كوال
لخطر
مفرد
وسير
الرعد
الموث
سوهاج
فوزها
مجاني
مديرة
مفقود
مكثفة
ويعطي
##اسيونال
الأداة
الطائي
القسري
تنتجها
والعنف
ومشاكل
library
الكريات
والشرطة
encyclop
education
التهديدات
والثلاثون
التيتانيوم
وتكنولوجيا
##ذع
##اسه
mu
##نبات
بوخ
سيط
##aking
بلعب
فعلت
##شاركون
/0000
البدر
وأديب
record
الصالة
معادية
##معماريون
البدوية
الإنجيلية
المستهدفة
والفارسية
##ogn
##win
##جنس
طا
بخي
رشد
غلب
علمت
intro
إيصال
والصد
وغربا
النصفي
فوسفات
والقيم
وصيانة
ومختلف
الأجناس
الإطاحة
والسلطة
والأخلاق
المأكولات
بالإسبانية
##قند
##وائه
rem
حمي
ونص
##روطية
اللس
تفرز
ثمرة
جبيل
رشاد
لحما
الكنز
فضيحة
كمدير
الجنائ
الدرعية
المسموح
الممرات
الديموقراطي
##مئ
ظن
##اريز
##وشات
tro
أوق
##لابات
الإك
جاهد
نوفا
أودية
الدفن
العزي
بالعب
طوائف
عاشوا
محارب
نينجا
اختفاء
الفهرس
المصمم
تدابير
معتدلة
الأخشاب
بالرنين
district
العالمين
التعاونية
الإسلاميين
##یه
##تيث
##يلت
##شييد
##فوري
##وابت
جذر
0,00
أخري
أيون
بنسب
فذهب
لبدء
times
أياكس
الجرث
قاتلة
مجهود
وأمام
وعرضه
المثير
النقاب
بتمويل
بموجبه
تمكنوا
وتخزين
أوكلاند
جيفرسون
علاقتها
للتقنية
وآدابها
المماثلة
##نحن
##وفه
##يسا
lu
##قناع
إبر
خطف
كمت
لسن
ونت
أعين
بأبي
زفاف
وولي
احياء
كابور
وأراد
ويذهب
أساطير
المحرر
للصلاة
معاصرة
control
مساهمات
المخطوطة
المواطنة
##حرف
##زمت
كخ
##اضجة
##باغة
##قوبة
##واطع
ايل
محس
##برازي
آمال
لحرب
مختص
موضح
ريانا
والأك
الأبهر
عابدين
مارتين
ومواقع
الالبوم
التكرار
الزيدية
العقاري
الفاشية
المهتمين
سريلانكا
الاستعماري
الميليشيات
##جلت
##بهام
##هناك
##ؤولين
00,0
mass
بينت
خطبة
طرحت
نخلة
ولغة
التنج
تماثل
كانتا
لرؤية
لطلبة
مسبار
ووجدت
##spacing
##إبراهيم
بتوزيع
والتقى
والملح
يتوافق
الأسرار
الرئوية
هاينريش
العناوين
##ela
##حور
فز
##اثير
##فادع
##هيكل
يزن
يمد
خيبر
هيلز
يشرح
يصلح
##صدقائه
prote
إبعاد
الإقط
الاور
الغاب
بيريز
سماحة
مواجه
يتجزأ
استهدف
بأهمية
الأغشية
الرضاعة
السحرية
المعدني
بالحصول
والأنظمة
وستمنستر
##jo
##acy
##جيد
##شاور
ليغ
##اركية
بيعت
غارد
موصل
باردة
تيمنا
خارقة
ريفية
مايور
والمط
ومعدل
البقعة
الصفاق
الملحن
بتأثير
تناوله
لومبار
منافسه
الترميم
المتبعة
المشتبه
بالهواء
والنمسا
المأهولة
الفلبينية
##ائش
##شيف
##رينا
##نقاد
##ائمين
بروج
بيرد
حسنة
فجعل
##معدمون
##وديازي
قاضيا
للبحر
لوبيز
مجالا
مطبوع
بالرمز
دوريات
زاكورة
واجهات
يسكنون
الفرضية
المجاعة
الهدايا
بالدولة
مقابلات
بالجائزة
والتصوير
الاتفاقيات
والإيطالية
##ثين
##لوج
##esis
##size
ثقل
فله
يهم
##المات
##قاييس
تمزق
حاصر
خاطئ
معار
##ipedia
green
micro
باديس
فعالي
لشبكة
لوكاس
وأخير
وبلدات
وليبيا
الإسعاف
الطفرات
المتعلم
المحراب
المملوك
المنصات
وسياسية
التدريجي
الموجودين
والبرازيل
##hol
##elle
far
squ
شيا
##جباري
عروة
مرقد
ثالثا
سيقوم
ناغتس
نفقات
والكت
thomas
التصدي
الكهرو
دارفور
لتفسير
للدخول
مختلفا
وأظهرت
التجنيد
التوعية
المسئول
المشبعة
النائية
بالحركة
بانتصار
والبريط
الراشدين
والترجمة
والترفيه
##.»
کو
##فهرس
dia
وسن
##وترون
##وهاما
أغان
دعاء
محقق
مولي
ونزل
ووقف
يبرز
falls
اشكال
البنى
التور
تهيئة
عجلون
فيقوم
مشاري
القومى
بالمثل
لقبيلة
استثنائية
المنشورات
##عف
##cil
##ten
##رخة
##بوزي
##دورة
##عترف
كره
لند
لوز
بحثه
زمام
سراج
منشأ
وهرب
model
أرادت
جبران
نشاطا
وتدخل
ومطار
##eration
البدوي
القروض
الناجح
بالاسم
تحولوا
تركيبة
لمرحلة
مونيكا
الفاسدة
متشابهة
الحضارية
والغابات
##يمية
doc
##جيتال
##قارير
##كلمات
##يلتون
أنجح
حربي
حنان
أجواء
عقلية
عنابة
ميزان
وأدخل
وصارت
وضمان
ينخفض
أجراها
الكرات
طابقين
لإنهاء
لمدرسة
موهبته
ميادين
المضافة
حيوانية
الزقازيق
السويداء
والمباني
published
##ثيا
##حمة
##ضحك
##ولز
##يجب
0"
##روها
##فارس
god
فست
فنيا
لينت
مالا
لحظات
هربرت
يتصرف
المخلص
الوحشي
بروناي
سويدية
مطاردة
وأبناء
وتقنية
وهنالك
يديرها
التنازل
مغتالون
##باليونانية
المشتركين
cellspacing
##عده
ره
##ants
##ness
##ابان
##ولهم
ردة
##الفين
##مؤلفو
more
المآ
بداء
تشجع
مؤكد
مانع
وكشف
##صوفيون
القري
ضابطا
إطلاقه
التجسس
الشعير
وزوجها
وعائلة
التكافؤ
الدرامي
للحماية
معالجات
المؤشرات
الكوليسترول
##wor
##طلا
az
##oria
##فيهي
أدر
لفن
##إسبان
##شيحات
أوجد
بقصد
خصصت
وبحر
يكره
##estern
بشركة
مكلفة
وجامع
القائل
بولمان
لودفيغ
ومحمود
البطاقة
الحامية
الرائحة
النمطية
للاهتمام
المتعلمين
##ер
##bus
##تشو
##ادمي
##تيين
##جابه
##كيان
##لبرغ
spr
أنف
هيو
يوه
##افيزي
##محمود
بدوي
للسي
وضرب
##اثوليك
الخزر
الروي
بقياس
فنانة
لاعبا
مخلوق
##ريتشارد
الرملة
الفرعي
الوحوش
كورنيل
والفرق
البطاطا
الزعماء
المحصول
الموسوي
النوعين
المصابون
الناطقين
للعلاقات
##الإمبراطورية
##mun
##تبت
##ثيف
##حساس
كثر
يمن
##قاشات
##كورات
##لدورف
##وريرت
تفضل
وترج
##عالمات
استدع
راكبا
صلالة
عظيما
معالي
تحقيقه
خلافات
مستندة
اللغتين
الوحشية
نبراسكا
وممارسة
analysis
الموحدين
انتخابية
fa
##وعها
فشي
وسل
جواب
سايت
ماغن
نسخت
##00,000
##واحيها
guide
أقارب
الخزف
الصمت
الكسر
النسي
بجاية
تدوين
ثورات
شمعون
عربيا
أستخدم
اعتداء
الآلام
بتدمير
اغتياله
الاحداث
المقامة
المقترح
وتتراوح
يحاولون
أمازيغية
بريطانيات
##bul
##شاق
##alis
##ript
##باست
##جزئة
##محطة
##ميرا
ومط
##كيفية
أدين
عظمى
##الأمير
##ثنائية
##عدادية
أجناس
تكاثر
المنفذ
الإفتاء
التهوية
تفجيرات
جوناثان
اصطناعية
0,000.000
##dle
##فلح
##face
##ydro
##اكري
##اكسي
sem
##انمار
فقلت
ناشط
وعلا
ويضع
اعتاد
بوليف
مدنيا
ولمدة
يقترب
للذكور
مصارعة
والعكس
الفراعنة
القيصرية
ديبورتيفو
المستقبلات
##آر
##vin
##قيدة
##نتال
##وذلك
حجز
##إنتاج
##ارسون
البؤ
سنية
فاري
وهبي
يرسم
يسأل
ناديه
واضطر
##باكستان
ثقافيا
حاولوا
رئاسته
نظامية
والدعم
وجنوبا
أتاتورك
الفدرالي
الكرواتي
كريستينا
والاستقرار
##خيصة
##ديوم
##فارة
##كاوي
تشا
جيو
سطر
##ريبكة
امين
تعزز
ملحن
ينطق
##التحاق
أصيبت
أعادت
الجبه
بقدرة
لمزيد
نظائر
إذاعية
الخزان
الفتحة
النفوس
سيطرته
##فيرجينيا
أورليان
مشاركات
والمنطق
وانتقلت
المتظاهرون
الإسكندنافية
##رنك
##oung
##ween
##مائر
##واشي
dna
ووي
soft
رشحت
مصلى
ولاء
exper
الشلل
العشب
فارغة
فتحها
كامبل
منحها
ميدلت
وبهذه
french
أسبوعي
بالحرب
مونتاج
culture
الموالي
##باللاتينية
أوكرانيون
الموسيقيين
##اضى
##فائز
tom
رجاء
مدحت
تتعدى
ترقية
لأعلى
متصفح
وورلد
بإعطاء
وازداد
service
تحديدها
تشكيلها
التايلان
والاتصال
العباسيين
##rel
##rum
##صلى
بؤ
##صوفة
مكو
june
حققه
مثبت
نواف
##غالبية
(00).
cairo
أرسله
أزهار
أيامه
إحسان
إمداد
الزين
الفرح
سيؤدي
صحافة
والإج
يلتزم
الخضار
سيارته
واكتشف
الرادار
الطرقات
الناجين
للمناطق
مشوارها
التلقائي
الجرمانية
##.).
##...)
##اردز
##قدمت
##ناوب
son
بيه
دوف
##craft
##rough
just
أبيد
بذكر
غامض
غروب
قادت
مدته
الكلد
الهير
باوند
تتلقى
تشفير
فادحة
فوقها
فيلمه
يتوجب
##جمهورية
الأغني
الحيات
المورد
الأجواء
الأنفاق
العروبة
جرينلاند
##pc
hd
##الما
##هلات
كوخ
متش
صنفت
فعمل
وبار
##جابايت
وتصدر
وخالد
أخصائي
الجوهر
تتوافق
فنانين
لتطبيق
هيرمان
الأخوان
التوظيف
العصابة
النينجا
الوصاية
تحقيقات
الطائفية
القاعدية
النموذجي
المعماريين
##إل
##شليم
ببي
ترن
تطو
تمك
جرد
قرة
لؤي
##ledge
##صارعة
inde
اللع
تكفي
حبان
فايز
كاون
آركيد
بوحدة
تطهير
دلائل
الثانى
الحسكة
بتعديل
تأشيرة
التسامح
الدواجن
المتبقي
المحدود
الميزان
قانونيا
لأمريكا
استخدموا
والإشراف
##يرك
غو
إلی
ذها
مشج
ورب
##موظفو
chap
synd
بموا
رالف
فيرم
قطره
مظلة
ينشط
كمركز
لظهور
سرعتها
الأخوين
واختيار
والجدير
ومعناها
اجتماعيا
الشراعية
الصالحين
والندوات
##فله
##نشر
##یان
##زوني
##فاعي
ضلع
##تشوري
أخطر
تعين
لينا
يوحي
عنهما
أيديهم
الشعاب
المدعو
المكلا
النوري
لمصلحة
وإزالة
التأريخ
والعودة
إمكانيات
الملاريا
الاستشاري
championship
##شأة
##ففة
##وذه
##رسين
##رقها
##مصنع
##ينسي
##رسامو
اصول
ليوم
بطانة
تحطمت
تشانغ
رابعة
ساخرة
سباحة
مفعول
هيرود
ووقعت
يهوذا
##كربونات
الميتة
وهؤلاء
المشايخ
والمؤرخ
للمطالبة
استوديوهات
البروتستانتي
##إست
##لوم
##مره
##مله
##وصيف
##ومال
ham
طرخ
##رابات
head
were
حليف
السيم
الناز
النثر
بكلمة
سميرة
مترجم
الخطرة
جثمانه
عثماني
ومملكة
يقدمها
الأزواج
الطارئة
المسافر
بأغلبية
التنظيمات
الكيماوية
##قوت
حط
قذ
##ديقه
hor
وصي
##ثانية
##مملكة
إرها
ابنا
جمعه
حلقي
رودي
فناء
هواة
اضطرت
سكوير
نظاما
والرق
النبوة
بتمثيل
كاسترو
وقالوا
وولاية
##اجيكستان
الأديرة
البرونز
العظمية
القدمين
حلزونية
المقدوني
##وحش
معب
تزود
للدم
وتبع
ولقب
الصرع
بطبقة
ممرات
وأوضح
والدم
##ميشيغان
أبحاثه
اعماله
التحلل
الفتوى
المرفق
بتسليم
تضاريس
تنفيذه
مضاعفة
ومبادئ
يرغبون
إيزابيل
الجرافي
الاصطدام
الحمامات
لبريطانيا
##ét
##داك
##ضرب
##قلل
##نسب
##chen
##ming
##بلدة
##تيسة
##ركاب
##يتشي
زحف
كبد
ميا
fact
حولت
رباط
سوكر
غموض
فصيل
كالب
للاض
وفير
ويوم
يرجح
أريحا
مسئول
انتهاك
فائزون
للهيئة
مبرهنة
وتوسيع
الدريوش
المبارزة
المنهجية
المساهمين
##ev
##’’
##bro
##بكت
##صبة
##وسو
##ogen
##بروك
##حاول
##سورة
تخط
سكو
ther
تورط
ظهره
لوجه
متوج
##بيعتها
أشرطة
بصيغة
تفريغ
تنغير
زراعي
وتجمع
وصحفي
التصلب
ريموند
مجتاحة
والجبل
يستهدف
الإمساك
التسخين
العصرية
واستولى
ويتواجد
أسطوانات
كتالونيا
الأردنيين
الأسطوانة
بالاعتماد
والإسبانية
##jan
##أييد
##رفات
##عيدي
بورن
قبلي
الحاص
بارتي
بمهمة
شيرين
معلقة
العربة
اللحية
بنفيكا
دواوين
عقوبات
والأول
الاستبد
العشيرة
المخاطية
الناشئين
سينتشوري
والأفكار
0.000.000
##las
##جدة
##ضاب
##فعى
##خابي
##صفحة
فاب
محو
plan
اليق
تبنت
صحته
##مسرحية
أنفاق
إلحاق
الفوق
ثعلبة
موظفا
##فلوريدا
أعضائه
استلام
الشعلة
المظفر
الندوة
توقعات
جيبوتي
دانييل
ستيفان
متغيرة
واقترح
يرتدون
والغناء
والمخرج
ووالدته
استرليني
الترددات
بالتمثيل
الإصلاحية
إنديانابوليس
(0000000000).
##pha
##ضاح
##عمير
تاز
تبن
تيب
صاد
غرس
ميج
page
باور
تقتل
دعمت
سيني
كارب
معبر
أضيفت
السيل
توسعة
الخضوع
الراشد
الكرمل
امتحان
لجزيرة
لوالده
متأثرا
ومعدات
يعتبره
الأسوار
الفاطمية
بالتأكيد
الفرعونية
المتتالية
##iod
##كاز
##راقص
##شاشة
حذر
##شكلات
باقت
دعمه
بجمال
تشيبا
وفقيه
ويوسف
struct
البطلة
الطفلة
لتشجيع
معزولة
الأنديز
دراساته
للبيانات
##hd
##دق
##نظم
##لامس
تبت
عنخ
tour
أوين
خطرة
ستيل
مضخة
##امينات
الديو
باركر
حارثة
سكاني
لحياة
الاثني
بدائية
بلجيكي
معرفته
وتقدير
الأرصاد
البارود
البساتين
الموازنة
الإمدادات
##أجر
##ites
##omet
تحر
لطب
##ستروم
##كردية
flag
أباه
شوهد
لفصل
مائل
شيعية
قريته
family
بتقنية
وتقليل
استسلام
بالخارج
طبيعتها
للأدوية
للمؤتمر
الآرامية
الجورجية
الفحوصات
تستخدمها
مشاركتها
الاستطلاع
##بالانجليزية
المستنقعات
##دده
مآ
##باشر
##بالص
##جاهل
##جداد
##عادل
##ولاء
inf
إفت
برع
واغ
##اسيلي
##جاورة
إسمه
بخمس
تومي
عقاب
كيري
مؤيد
مكلف
##كتلندا
والكب
الجيوب
الصويا
المجمو
سبرينغ
للملكة
الحرفية
العربات
انتقاله
تركيبها
تقسيمها
الإنزيمات
فرانشيسكو
الجماهيرية
والإمبراطورية
##جى
##لسية
ماب
##سينما
أعطي
بيوس
أعالي
بصحبة
تشويه
كعامل
كوخرد
والنس
الرايخ
دفاعية
لتنمية
لقاءات
منزلها
هنديات
المنوية
والجمال
أفريقيون
المحاماة
اليسارية
والمعاهد
##ترز
##تهت
##ثلا
##phen
##داعش
los
وبأ
##مركزة
أنني
حلوى
خصمه
زوار
وهزم
أختها
الربو
ضرائب
واتهم
وتيرة
يخالف
##ورنتينا
ادوارد
بجريدة
باحتلال
النورمان
كرواتيون
##én
##اثة
##بطت
##شئة
##غله
عظ
##ربيا
##لندن
ليج
##اضلية
##بيبات
##رطوبة
##شارلز
read
بعمق
شيلي
ضفدع
فاسو
يريم
##الثورة
space
إجبار
ادريس
للوزن
الخفية
حبيبات
وأنجبت
الكميات
ناميبيا
المعنوية
المواجهات
##لدت
##نبؤ
##اندا
##خامة
##كليز
##هروب
##وائق
##إحصاء
عياش
فبعض
لقمة
وبرز
بمسجد
سبائك
نبتون
وبفضل
يتركز
التتار
المنية
بالملك
كليبرز
support
استضافت
الإحداث
الترخيص
المتابعة
المعتزلة
لألمانيا
والأستاذ
##0:
##ئهم
##بوع
##حيه
##غاف
##يشن
dyn
ref
كمي
نما
تسهم
تصلب
##فلسطين
إبداع
الإلز
الكمي
ديالى
دينيس
مكتبه
والعل
صاحبها
للهواء
الأقباط
الإضراب
الضريبة
القاموس
القواسم
المختلف
بيلبورد
ماكسويل
standard
البلورية
والتحليل
نيكاراغوا
##زعة
##قاظ
##النا
##هيرة
##تصميم
##وليين
جدير
سجنه
صليب
لعلي
نانت
وبعث
الاصل
الرطب
القاع
ذاتيا
سيزار
وقيام
ويأخذ
إنساني
الاختي
الطبقي
للمغرب
وسلسلة
##لكترونات
إطلاقها
السلكية
السماوي
القرويين
للشيوعية
والرومان
##بطن
##زود
##ضعة
op
##لساء
##مدير
###
las
عسر
هيب
##acter
##الانت
##زاولة
requ
عصير
##action
ألزاس
إثرها
كمثال
وجبات
الرماد
قصيدته
وتساعد
##جمهوريون
الحكاية
الشحنات
ريكاردو
والحضارة
وتطبيقات
يوكوهاما
##mc
##نهر
##بيرن
##ظهير
##كاوا
##وقين
يظن
بيرغ
كورد
لفحص
هذان
ويلك
mount
سريان
مختصة
التعلق
الديزل
خريبكة
روائية
لايمكن
السباعي
لاتينية
للاجئين
الاقتراح
العمالقة
القيادية
الطفيليات
##ynch
وذو
##تموند
##ماهير
##مودين
دعاة
سطحه
غريغ
قارئ
نشبت
ورود
وفهم
الزهر
تمركز
رملية
شهريا
يدويا
##المدينة
القامة
بقانون
لينكون
##بالأرقام
الأقطار
نموذجية
والحديد
أستورياس
المعلومة
والتواصل
والشرقية
والكهرباء
##كنغ
##ومع
##أكبر
##الوا
##تياح
##راما
##ريفة
##شاري
mur
كرت
##مؤسسة
chem
rout
أسرى
استف
بهجت
تراف
كلاي
وإكس
##مطارات
لدورة
لقتال
للغاز
للقلب
مئذنة
والاج
وشبكة
george
الحفرة
بإعلان
لأبناء
مملكته
نشأتها
واتحاد
وترتيب
وترعرع
وينتمي
الجرعات
الرئيسى
بالأساس
بالتهاب
تعليقات
لبنانيات
والأدباء
##أصن
##ذاة
##يدج
##بيبة
رفح
مضم
##رتفاع
ألفي
برغش
للتد
محدث
وسوء
يعزز
الماز
تعطيل
راقصة
ويكيب
اقتراب
الجماع
الجواد
الحراس
مدينته
وأتباع
ورعاية
00.0000
الشقيقة
المفقود
بممارسة
الزيارات
المخلفات
##ken
##ots
##''".
##جنون
##ضييق
maj
حجب
##أرجنت
##تصنيف
##خبراء
##منتجو
##مهندس
بفئة
ديمو
للصد
لملك
يدين
##مضادات
الحسي
المخز
جانبا
مندوب
access
الباسك
التاجر
تراجعت
لإمارة
يقيمون
يملكها
أورلينز
التجويف
للوقاية
التشكيلي
المشابهة
بالأعمال
بالتنسيق
والفواكه
الاستدلال
management
##مب
##bit
##ues
##كرام
##نبرغ
##ندور
##ينتس
-000
اتضح
بجدة
تلاه
جدلا
داكن
سرور
احتوت
الشغل
حمولة
كلامه
لمعهد
وتحوي
يكتسب
الصيام
اليورو
الفلزات
المستمع
الموائع
للإذاعة
والعربي
اليوتيوب
الإسماعيلي
##ief
##حوص
##هوف
##chan
##قاته
##ديدات
##شرقون
four
صابر
صورا
قصره
معاص
##ينغراد
الحذر
المصب
توالت
كنعان
للسفر
مغارة
أميركي
الساكن
الفلفل
المائع
المختص
بتدريب
الاشخاص
الخلابة
الدانوب
computer
الأولوية
الحالتين
والباحثين
##ظا
##don
##صلح
##ميق
##اذية
##بعات
سيث
لبس
لكى
نيت
ويا
##ألقاب
##إقليم
بغزو
سكني
كسرى
لقوة
هدنة
وتوس
وشرك
##وتونين
الماي
تعاقب
جاهزة
مدمرة
نوافذ
وسافر
##كوميديا
اختاره
الدوام
الصباغ
بتكوين
تونتيث
ديوانه
وتمتاز
الأنظار
التحفيز
للولاية
محادثات
وعائلته
الامتياز
المستقرة
مستقبلية
للاستفادة
الالتهابات
والمؤتمرات
##log
##أنف
##خلى
id
##زارع
حزن
غدا
##عادته
poly
vill
أعرف
جاوة
لورا
يغني
إخوته
الفاش
القرد
بالتأ
تسارع
تسيير
تمثلت
خلاصة
رولين
كعلاج
لأخرى
للنبي
ماجيك
وتوقف
وكيلا
الضيوف
فكانوا
لإظهار
يؤمنون
الحوامل
روتردام
واللغات
افتراضية
الائتمان
الانقراض
التوقعات
الماليزية
التكنولوجي
##مته
##نطي
##وثق
##ريتش
##سلوك
##صالح
##حديقة
name
بيبي
تقاس
ستير
عبرت
لودر
أغلقت
بالصح
حركته
طاولة
للغات
وأعلى
الأجنة
السعود
النيوت
بيرسون
نظريته
والقصص
استقطاب
القمرية
النفقات
وأساليب
استطاعوا
المراجعة
للفيزياء
والبحرية
والجزيرة
كاتالونيا
##يور
##inus
##ديثة
sea
صاح
july
ثراء
دويل
شارة
غزال
قدرا
لنوع
##بالغين
##فائزات
أطلال
احتوى
تختفي
سيدات
عصفور
ملعقة
ووافق
##براهيمي
france
آثارها
البيرة
العارف
العيني
بتحليل
رينجرز
مرموقة
مطبوعة
التطعيم
التوابل
الدلائل
المفرطة
للتواصل
##ؤم
##دهر
##قناة
sat
##.....
##شيرية
##منظمة
قماش
##ضايقات
الأفي
صنعها
وصلاح
يومئذ
المتفق
لدائرة
لهؤلاء
الأوتار
مرسيليا
فنلنديون
البكتيرية
##حلل
##شيب
##اليك
##ضامن
أرا
مام
مسم
##زيوني
dise
أعجب
العو
جافة
حاسم
فوجي
كراك
لأبو
مازن
متحد
(0-0)
الدوس
بخمسة
خيالي
لعلوم
متقدم
هيمنة
##إنديانا
بالهند
بذاتها
خارجها
كالآتي
ملحوظا
وتطورت
المرارة
بالقيام
كارولين
متجانسة
ومستشار
يحتاجون
والبرتغال
##gor
##اثي
##ذاذ
##ries
حبة
##انتون
##بوابة
أضعف
أقول
سفوح
شفاء
صرحت
ضربت
فوقه
مؤثر
منهن
وستة
##center
استاذ
التسا
باتنة
بذاته
هوائي
وتخصص
السورة
الضربة
العباد
النيكل
تستقبل
تيريزا
لخدمات
المفروض
بأنفسهم
والتطور
التمارين
الأصفهاني
##-.
##bat
##bel
##جمل
##وئي
##كياس
##ورتن
حوت
وحر
most
بريم
بشخص
تشان
سبيس
قطري
للني
مرسى
تباين
تجسيد
تعاقد
تندرج
شخصين
لليوم
ميثيل
وجعله
الابنة
المفيد
بالأمر
صينيون
محترفي
التراجم
الشريرة
للبطولة
الحوثيون
واقتصادي
بروتستانت
observatory
الديناميكية
##ро
##رعى
##ساك
gh
##اسيد
##كواد
فتن
مسا
جسور
ديلي
سببه
شارب
لغوي
وأعط
solid
إحساس
اقترب
واللا
وضوحا
##المنطقة
أرنولد
أنجيلو
اختلال
القنصل
النزول
بداخله
تقريرا
فنلندي
وأطلقت
والخاص
وبلدية
special
اعتزاله
الإدخال
الصابون
الفاخرة
الوديان
داغستان
رواياته
معاملات
الاحترام
##أرجنتينيون
هيدروكسيد
##);
##del
##صفت
##صنف
##ضوا
##ودل
ah
##زيان
##معركة
vict
أعمق
اسرة
بضرب
بنود
تمتص
مطبخ
نوال
وضمن
##سمالية
0000"
ساخنة
منافع
وترجع
وتركز
google
الخوري
الساحر
بالدين
فارسية
الأنوار
التواجد
الصفيحة
سيطرتها
والجهاز
دورتموند
معالجتها
##بالإنكليزية
##رور
##سنى
ak
##fore
##ترون
##دوري
##رجون
##سائر
آسي
font
pict
أجرت
الاذ
بيضة
مؤدي
ملخص
يبيع
##اراتيه
المبذ
تشينغ
تنصيب
دولته
للدور
اصطدام
الحوزة
الخليط
الملون
تطبيقه
الرمزية
تاوريرت
##))،
##آلة
##ترك
##هاة
می
##سمات
##معهد
##ينيز
غزل
##نسيوم
##ولاكو
your
وصية
انحاء
قيامه
كوهين
ممكنا
وتذكر
وثيقا
ينتسب
##ruction
martin
قانونا
مدرجات
منشورة
يستضيف
islamic
التصدير
التفريق
الجهوية
الداعمة
الرفيعة
المسارح
ببرنامج
بيتسبرغ
للمؤسسة
والمذهب
وتقنيات
والصناعية
والمهارات
##جيز
##سند
##فاي
##السي
##وبال
مشغ
##زويني
##قولية
فيرد
قبلة
ناعم
وخاض
##علانية
الأخص
الجثة
بالجر
حميدة
دبلجة
الذروة
خطابات
زامبيا
##ribution
الإمداد
الذخيرة
الصعوبة
بموجبها
كريستال
المستفيد
بإستخدام
##.:
##درس
##سوة
##لسك
##أشهر
##حادث
##شعال
بتم
إليك
السو
تعيد
عامه
فائز
فقيل
ماله
مستن
مقدس
##ميزوري
إمرأة
اختفى
الجثث
الهوى
تتجمع
معابد
ميكرو
نشطاء
ودمشق
##أصنوفات
الجلدي
الفاضل
للزواج
وألعاب
between
البورون
السلوكي
المفيدة
تصنيعها
للاتصال
يتمكنوا
البخارية
المؤيدين
##ali
##نصف
##غراف
أرط
أنش
وهل
##اميين
##حاذاة
some
باتت
ستاد
سويا
عقلي
نهار
وبمو
يمتص
أرشيف
الزوا
تلتقي
شاحنة
عنصرا
لوهان
العلاء
الهرمي
اليدوي
لتدمير
للمؤلف
معلومة
وأولاد
وظيفية
francis
الأسرية
الهلالي
كربونات
والشعراء
والمسيحية
##خف
##قله
##نقي
##play
##ازان
##عبيد
##قابة
##وتون
bay
عطل
ماو
##00.00
##itect
##انديز
##يزران
أدان
أوكت
ابتد
باين
بيار
دوني
ليزا
ليزر
وخاص
##تقنيات
الطهي
بالتد
تقييد
لوزير
مؤكدا
وجورج
ورياض
اصطلاح
اعتبره
الفلور
للمعهد
التقارب
الغامضة
المطران
الوثنية
تناولها
official
الصيادين
والإبداع
والتعديل
فيورنتينا
الإنفلونزا
##سول
##ليص
##خيال
##ملحن
##وظيف
ولس
##التها
##رادية
بأقل
خانة
كورن
مطرب
يخسر
##القوات
story
أعطيت
اسبوع
العون
تجنيد
تزامن
وبالق
المصحف
بطارية
وتأليف
يرأسها
##وموسومات
التلاعب
الكارثة
الكناري
والطريق
ومساعدة
والمدرسة
الدوبامين
الخوارزمية
##hu
##lan
##حدت
##زيو
##itan
##غالي
##لتان
##وزيل
تدم
بقصف
تحضر
لرجل
يضطر
يهرب
أخيها
إخفاء
الأيض
انفصل
بالتف
تحدثت
لوزان
مخازن
وتبقى
يوجين
##ثمانيون
0000/0
أربعاء
الأقوى
الطلاء
دستوري
رواندا
الادعاء
الثالوث
السبعين
الموجبة
كريستين
للطائرة
لمقاومة
مراجعات
الإباحية
بالثقافة
والوثائق
والاهتمام
##iat
##اضة
##ددا
##ough
##كانو
alt
قاص
قفز
وبث
وجب
بكسر
جواو
ماتي
##iences
##مهرجان
إيجاب
الواج
وأنجب
المقعد
اليقين
بألوان
بساتين
وبعضهم
ونادرا
الأعراق
تشيكيون
يمارسون
ساكسونيا
كاثوليكي
والجمعية
التفجيرات
##انئ
##قوة
##نار
##نجيل
حائط
سكنت
كوبي
محاط
مورو
نشيد
نقلة
##النسخة
تفاقم
شينجي
لابنه
مدونة
ناقلة
##000.000
أصولها
الاكثر
الترشح
الطوسي
الكلبي
بهزيمة
january
الإدمان
المعامل
الطيارين
منتجاتها
يوغسلافيا
##rey
##ضيه
##ناب
بمؤ
شوي
علو
##ولاند
webs
أبدى
أشاد
حساس
دجاج
عزام
نقلا
وجرى
align
الفوج
بمجال
بمهام
تمددت
التمدد
تحديات
للحديث
مازالت
وتشتمل
الزوجات
الطوارق
ومكافحة
الشعيرات
الغواصات
الكوليرا
المجرمين
للاحتفال
والمواقع
سيباستيان
##pet
##طيم
##كاره
##هرتز
شات
وأذ
يصر
##هانغل
الدس
ريان
زبيد
لباس
وملح
##شيونال
أسماه
انخرط
للبلد
للسفن
لمكان
أبرزهم
البيعة
المطرب
الهيثم
للعناصر
والتعلم
الميادين
##أسس
##شاد
##نست
##وميا
ess
حبل
ضرو
نصي
##field
##اركات
##فاعلي
أصعب
الضف
بثها
تحرر
تربي
لموا
يعثر
بالون
سببها
ناشطة
ويشغل
السيوطي
المؤلفة
المصباح
الوقائع
للمرحلة
واحترام
##ification
السلاطين
المارونية
دنماركيون
##rs
##ـ0
##hem
##kar
##خذة
##غين
##تراك
##ثيري
##سبات
##لوفا
##واتم
##وفقا
قضي
أفقي
أكرم
حرام
طراب
للحو
ماند
مولر
هانم
الانج
الراس
قابوس
للقوة
منتشر
يقدمه
اللاحق
المحرم
سابقون
الحزبية
الكلوية
المتمثل
البرتقالي
الروبوتات
##ـ:
##emb
##ومب
##داها
##كيلة
تيف
روش
ريب
شفي
ظلم
##بيتهم
##ليفكا
gard
أثرا
ودير
أعتقد
الازد
روبين
عشرون
للسكن
مخزون
الدروع
اللحام
كمساعد
لوكهيد
منطقتي
الزبائن
المتردد
للأسلحة
البروتونات
##ced
##ios
##هوض
##inae
فيز
عشية
عواد
وبمس
##العربي
##كتاتور
april
النية
صالات
مكتشف
وماري
العطاء
المكلف
المهجر
بايسرز
شيبودن
للوحدة
نجاحها
وقضايا
ومسلسل
الخيانة
رونالدو
والممثل
البطارية
التناسلي
الحبيبات
دوسلدورف
المنحدرات
##'.
##lu
##ئام
ira
sar
بصد
##viron
##اللغة
##ثورات
full
أبان
أندي
روحي
طبعت
قسما
##براكين
##تيالات
##كنتاكي
royal
إتيان
اعلنت
الطاز
ترسيم
لجلوس
لرجال
متجهة
مدنها
وأفاد
وحيدا
ويجعل
##كتلندية
أتلتيك
المطاط
المطعم
الوكيل
قطريون
لشخصية
october
الجرائد
السالمية
العنكبوت
والخلايا
والقوانين
##ves
##وعت
##vert
##باعد
##جنحة
##غرات
أسط
بسك
##hemat
gran
بقصر
تعطل
دمار
ديون
كوفي
وأور
india
ألبير
إيقاع
للصيد
ورقية
during
أستاذه
بإلقاء
بالفوز
ثقافات
لايزال
الإنذار
ومنتجات
المنتجين
والتفسير
##ـ''
##مرش
##ابله
##بيرو
##حتمل
##ذكرة
##مساح
##ناقص
##هدية
لمل
يوت
coun
البق
بويز
ضئيل
طولا
لحين
##كريتية
أستون
إعاقة
إنذار
الزحف
القار
القمم
بوتان
فقرات
كرمان
مصطفي
مكونا
والور
يستغل
يقاتل
أطلقوا
الشعبة
الصماء
تلميذه
صموئيل
منحوتة
يشعرون
بالكويت
والمقالات
##"(
##aba
##ايغ
إص
pos
ذكي
ليخ
##stand
##الرجل
##العصر
##صيلية
##ـ/000
أخير
تطرح
تونغ
ضارة
غلطة
فجوة
نيوم
وتطل
ويلي
##يبيرية
civil
medic
الشدة
المني
بمنصب
بواسط
وأقيم
ويحيى
يتعدى
العكسي
بإشراف
بالشيخ
كرواتي
ميلاده
وأهداف
وثقافة
ومدارس
المظاهر
##خالد
##كروم
##مبيق
##يوسف
aff
jun
ولإ
##ادمات
خاتم
فاند
لحمل
هيوز
وريث
ونسب
أصابت
صفيحة
للسيد
محمول
والصف
وبصفة
وسقوط
0.0000
الإصلا
الخضرة
الصدور
الضمان
ايفوزي
واتخاذ
البوليس
الفلوجة
المحاور
المضيفة
المغيرة
المكتوب
الوكالات
ليبرالية
والأفراد
الاستقالة
والأربعين
##oug
##جاك
##ches
خيل
عزة
يبث
ital
أجاب
اصغر
دارة
الاقل
الروت
كافيا
ودخول
ويخرج
يدعون
##upright
الإيقاع
الموقعة
وثقافية
سيراليون
التنافسية
المعاهدات
واقتصادية
##ais
رز
##ابعات
##لاجات
الضا
تنته
وآله
وفقد
ينقص
الاله
دوافع
فوربس
لنشاط
مخالف
التحميل
العواصف
المتطرفة
النقابات
الإستقلال
##اصب
##قاه
##قونة
##نجية
max
طقس
##ittle
form
سيكس
مخلص
وجدي
وجرت
وكري
اصابة
تحتها
جلالة
عالمة
00-00%
effect
العمدة
باتفاق
والسير
التلقيح
الجداول
جماهيري
محترفات
الانسداد
الجمالية
الفلاحية
مافيريكس
التوجيهية
000-0-000-00000
##bon
##اتس
##الوس
##دروس
##راقة
##عانة
##لادة
##مهات
##يفكا
إبت
بسن
بلح
حلو
card
بفاس
تبرع
ثريا
سجون
قميص
كأنه
##الحياة
أرضها
الأزد
البرن
الصحن
حركية
فضائي
لصاحب
لمصدر
وعضوا
ومارس
العقاد
القرعة
تأليفه
تزوجها
وخصائص
الثمينة
business
الأسطوري
الانتخابي
ويكيبيدية
##عز
##شتت
##لتية
##والق
##وانة
cop
بخل
##رابعة
##قلاني
##يطالي
بيزا
تآكل
سلسة
غلين
ماكم
نخاع
وردي
##وباترا
اشترت
العبر
تكييف
شاعرة
فرساي
متماس
يترتب
##مباريات
انسحبت
ومحطات
##مستشرقون
الحاسمة
البركاني
إلكترونات
الأوكسجين
##cam
##han
##ؤلات
##الوج
##حصنة
##صطلح
##ظهرة
اني
ايت
وأر
رقصة
سوار
صياد
فصار
مقسم
منبر
وسيد
##دميرال
تلخيص
حجارة
مباحث
ناقصة
وجهاز
وراءه
(00.00
0000''
إقليمي
الملتح
والمخت
وبمجرد
بالبلاد
البراكين
الآشوريين
الاستيطان
الإنتخابات
##هش
##ips
##غنام
##ونير
www
فود
##رجمين
##مشروع
بانك
سومر
##كونتات
السبل
الشيف
تناقص
حلفاء
حمودة
روميو
عنيزة
ماكين
مقترح
منزلا
ويرأس
يلتحق
استبدل
السيوف
المحتل
بإلغاء
باليون
بعبارة
صادرات
مستودع
المعلقة
الملاحظ
بالدخول
الظاهرية
القوميين
الوقائية
##إذ
##duc
##شاع
##فته
##وحي
##يفن
##يفي
##onia
##ische
##النقل
##خللها
mach
tran
أوبس
القز
انبث
بولز
ترغب
حسون
عابد
فرنك
متفر
مشغل
##لكترون
##ناقضات
early
أخذها
أوضحت
إحراز
بوتين
جرايز
كرتون
ماتوا
ماستر
نبضات
scient
الإثني
الدعاة
الضمير
اللباس
حضارات
متوقعة
مستعار
##كيماويات
الأعمار
البدائي
الزوجان
مقالاته
مواجهات
نيسابور
ومقالات
الإقتصاد
المخططات
هيدروجين
والتسويق
المتعاقبة
الموضوعية
الأربعينيات
##جلط
##شرع
ga
##omin
##رجوع
##سيرا
مكل
وسع
##azine
##شبكات
##نيسان
باسل
تفصي
تيلز
ثوان
دالي
فسوف
ناهز
وشعب
الدرج
القزم
القوت
رانيا
سائدة
لعالم
والقد
0000-0
أغنيات
اكتوبر
الدببة
عائدات
غوردون
لأمراض
لإكمال
بوروسيا
الاستنتاج
الأربعينات
الكهرومغناطيسي
##فإن
##لكا
##اييل
لنج
ووت
تسمم
تشوه
تفسر
لأخذ
لشعب
نفسك
يوصل
التاي
الحرق
تضمين
سلطته
عليكم
والاخ
واهتم
الصدفة
مطالبة
المغولي
برنامجه
هندوراس
والمجلس
والمسجد
سبعينيات
كروموسوم
للمعايير
##vis
##ازت
##التر
cle
أيت
##world
##رسائل
##وائيا
تران
تيكن
راحل
رشاش
طلاق
ومشت
point
ألوية
الميس
تدبير
لفكرة
والما
الأصيل
للكلمة
مختارة
وإرسال
المدمجة
باهتمام
بولندية
روبنسون
والرجال
المشاهدة
هايدلبرغ
##أمن
##اميا
##بوري
أدق
صاف
فتنة
هاند
##عاملون
earth
field
بريشة
طبعات
فيفري
مبعوث
وأظهر
واندر
depart
israel
التآكل
بتشغيل
بمجموع
حرارته
حياتنا
سوداني
لتصوير
والشعب
أراضيهم
الادارة
المستوي
المعاكس
المنارة
والديها
##0000-0000
البريدية
انتقالية
لاستكمال
##ен
##قوف
))
##زاحة
##ساوى
##فراج
##وياء
jac
إيب
يجر
فالف
قطعت
لكسب
##تيادية
##يعابية
appro
اقيمت
الديك
بحملة
عدوان
أندريا
إنشاؤه
التبرع
الفيلة
الهيمو
لتمويل
مدارات
ملحمية
وأسلوب
وأشارت
وحينما
##ications
الساحرة
المكثفة
للبحرية
والرسوم
ويزاردز
الشفافية
كلاسيكية
والأخيرة
الأميركيين
##ئتي
##فرج
##مسح
##معي
##isbn
##ارتن
##صيلة
##كتاش
##ياشي
أرز
عصا
نصت
وزو
##سابات
جماع
زاده
##اضطهاد
##حزيران
اقامة
الصبر
القلي
ساحات
قافلة
لكبار
أنطوان
استناد
الفروق
زجاجية
طريقهم
فيليبس
والقرن
الجهراء
انجلترا
والجبال
وظيفتها
syndrome
الفيروسي
بالحجارة
أرثوذكسية
الصيدلانية
##sol
##tor
##طاد
##رقات
anc
خيم
دعى
مرم
##aceae
down
بديع
برقم
بيئي
سلوى
شفرة
مرقس
اليود
قوارب
لأنواع
مدنيين
مرسيدس
هوفمان
الأسبان
المصرفي
##ميثولوجيا
المجانية
والملابس
##ديمقراطيون
والجماعات
الاستهلاكية
(0000–0000)،
##لأ
##mag
##قنا
##برته
##ززات
##نايا
بزر
سدة
ماغ
##دهوفن
##صاصات
band
جلدي
كاسي
لحقت
أثرها
الراي
تكامل
دراية
سقراط
شائعا
كحارس
ويحتل
يتدفق
يعتنق
الدعاء
السكون
تحويله
للأمام
هكتارا
وسيكون
الصافية
سردينيا
غابرييل
الأصليون
المختصين
ماريوبول
الانتقالي
ماكدونالد
##ولس
دك
##aker
##iger
##ired
##زاوي
##سبوع
سمى
كمو
وبس
##أغنية
ever
عبير
فالك
للمخ
اعترض
الصبغ
المتك
عواقب
للاشت
للعين
مفردة
وحافظ
ويتني
التروي
المئوي
بترتيب
موسمين
السالبة
الغضروف
المجاري
المخزون
الاعتزال
الشبابية
##sr
##ذو
##حضر
##درك
##وبس
دخ
##ergy
##رافا
##نجان
##هارت
:::
هوج
وأط
##black
##رازات
آخرى
تدرب
تغني
شبرا
صخري
فرعا
وقفت
ونفس
بتغير
جواهر
داعية
لدوري
مفخخة
وعازف
وكتبت
الحزمة
الخلاص
برمجية
تحقيقا
لشركات
لعلماء
مكتملة
وإعلان
وموضوع
الرماية
القروية
الخريجين
استراتيجي
واستخدامها
##tic
##ختم
##قبت
##وسن
أرخ
سيك
معج
جولد
دارك
سرار
شمسي
عراق
فلان
لأهم
لدار
ليند
ماهو
ملاح
يسود
أدرجت
أمطار
تعبئة
تعميم
جهوده
كاظمة
مالقة
وترجم
الاستر
الدوال
السجاد
العريق
المضيق
معتمدا
والطفل
المنتظر
للجماعة
يتكلمون
المعاناة
بالسودان
والمرافق
##cu
##ova
##ror
##ione
##ثلاث
##جيوش
أخف
إلز
تمن
jack
الخت
بطرد
تارة
كندة
وردة
يشجع
يصدق
الغول
تيسير
جريان
مركزه
والاغ
عاطفية
للدعوة
مقصورة
يستهلك
العائلي
المعوية
وسويسرا
السومرية
بالتجارة
الجمهوريات
جف
##rick
##التق
##ريخت
##زوقي
##طرية
dev
dra
hot
أطل
تتأ
مدم
ناح
وإذ
##iforn
##انتها
افضل
بيعة
تجذب
حورس
شراب
وأبن
أوغست
المفس
رقابة
اليوني
قلاوون
كولينز
الإجماع
البنغال
القاتلة
المراعي
النبالة
الوريدي
يستخدمه
الألباني
السلافية
المدرسين
الهمداني
كيلوجرام
للعاملين
المهاجمين
الالكتروني
##غض
##نسي
##ابيا
##راكش
أتاح
إبنه
شابه
فلين
لويد
مناز
وفصل
##أميرات
الدمج
القشت
دورته
number
احتجاز
الحيرة
المياة
بمشروع
تستهلك
مسببات
مطارات
وهندسة
أوراسيا
الأنفية
التوفيق
كبريتات
الجمركية
المنفصلة
اللمفاوية
##اتن
##قدي
##نسى
##واغ
##mark
بطون
صريح
عياد
لسوء
يعاد
ايجاد
بالمي
سيلفا
كتلته
نظيفة
وتؤدي
يصاحب
المنصف
الموعد
بإدخال
بقضايا
فرنسيس
لتشخيص
للبقاء
مانيلا
والوطن
يحكمها
الأطوار
الأقطاب
الأنجلو
المفردة
المنصوص
بوكيمون
لمسافات
military
البوابات
الكيانات
##cont
توق
##opter
##قالته
خفية
سباح
للأع
وبنو
##العلوم
الرشد
بشؤون
بهجوم
تجتمع
سافرت
فأكثر
للعصر
ودولة
يومها
##osaurus
الانتح
الاهلي
الحلوى
الصدري
المتجه
بإزالة
للدموع
متقاعد
وتأمين
وسبعين
التشيكي
الداعية
الروبوت
المائدة
المباحث
تقسيمات
والأخير
ومواردها
الأمريكان
##ئم
##يزة
##amin
##ifol
تحي
فرغ
##align
##تمثال
##طفولة
blue
إيفل
طموح
كامي
##فطريات
بافتا
بدوري
تتحقق
قطرات
لتلقي
ماعدا
مرزوق
مروحة
والكل
يسمون
البوذي
الجزيء
المخزن
لبرامج
منزلية
نشرتها
واشترك
website
الاسبوع
طرخشقون
0000-00.
الإدريسي
والصحافة
المستقبلي
النتروجين
والشخصيات
الإمكانيات
##hal
##بعت
##itis
##تموز
##رضاء
طار
##أبناء
##خباري
##ناهية
##هجمات
site
آباء
بحار
جناز
قبعة
وأرض
there
بهلوي
هندسي
وقدرة
اختيرت
الخارق
السحاب
بالشعر
بالقول
تتشابه
حالتها
شهدتها
وإصدار
وإعلام
واللاس
##american
أسبوعيا
تشريعية
للأراضي
موزمبيق
السلفادور
##key
##طرد
##ميش
##000،
fem
لوق
##aster
##وسطية
أدهم
بوير
ملجأ
##نشتاين
الفهد
بستان
تحطيم
تنقية
لأشعة
مقتله
ممتدة
والقص
ويفضل
الحصاد
الشكوك
اللوني
الوباء
بأدوار
بسلسلة
طولكرم
الأحذية
الإغاثة
مناورات
والخامس
اللقاءات
المشروعة
بالكتابة
الاتحادات
التحضيرية
واليهودية
الإبراهيمي
##عك
##mac
##هدي
##وحى
##ersh
##لسلي
رآه
##انبول
##وكوست
hard
سهام
شادي
##سباحون
أدائه
إعصار
الشرج
الكعب
تدشين
جيفري
حمامة
طاقته
طبيبا
كلارا
لعمله
مسجلا
وأداء
الاثار
المجزرة
المكانة
المنتصف
بوهيميا
republic
أندلوسيا
الإبداعي
البرتقال
الفعالية
المبشرين
والتعبير
الميلادية
المستشارين
##!"
##(0):
##atin
##odes
##اتشي
##باير
##صانع
ذاع
يتي
يعي
##\0000
اولا
تجسد
عزله
محبة
##الرئيس
أحدها
الغلي
اللوي
المنغ
النقض
بعدان
بلدات
سييرا
##وكرانيا
أخلاقي
الكبدي
متظاهر
مطلوبة
الأصيلة
الأوليم
الغيتار
للتغيير
واستعمل
والباقي
الأغنياء
اللوثرية
والمكسيك
المفاعلات
##فخ
##hen
##los
##sup
##ظلة
##اربه
##متحف
cit
تمي
دبی
لوا
مزج
وإج
وزع
##سباني
##صورات
##قومية
note
أقبل
سبتة
فالد
فهما
لتحل
مستع
هيون
يجلب
video
بالسي
حشرات
سفلية
كابيت
للسكك
مأمون
هاربر
والبو
إدموند
بأسعار
تشوهات
خصوصية
روبرتس
كأستاذ
والفلك
وتعديل
يتبعون
الخالية
متغيرات
التعددية
التنفسية
والتركية
الكرواتية
##py
##شغل
##ctor
##سقاء
##طاقم
##وزية
إمت
سعي
كحل
##وارنة
الخف
لشرح
يتصف
ألفاظ
إبراز
الترق
اليأس
تستغل
ذروته
زملاء
للعرض
مثبتة
مسلمي
منتجة
وأمين
وزميل
0000.0
احتواء
بومدين
تاشفين
ترشيحه
لإنجاز
مشهورا
هجومية
الإسقاط
الخاطئة
الخطابة
الرقيقة
الطلبات
المصطفى
ترفيهية
تسجيلها
المرموقة
المتداولة
والبيانات
##ulf
##خيصي
##صقات
أقص
**''
حكمة
saint
اللحن
المخب
المزي
جراحي
دعمها
فاينل
مؤلفه
مناعة
وحسين
ينافس
استحوذ
واختار
والارت
الأقوال
بالمسجد
والتقدم
المنشطات
والزيتون
الاستثناء
المتحدثين
والإنسانية
البارالمبية
##.),
##لاو
##أغان
##بيته
##محرك
##ياتي
بلس
نهب
##gress
بصري
تصلح
صعبا
طفيف
غادة
فالب
##أدريون
##سلالات
أوعية
التقت
الوتر
ثابتا
حصيلة
ظواهر
فشيئا
وإحدى
وطنيا
استحدث
اللتين
بالدار
تتداخل
شهرتها
مرجعية
مليمتر
وأفراد
ومستوى
ومعناه
المشيمة
بالضربة
المستهدف
المصريات
المحادثات
بروتوكولات
##vol
##اكة
##تيز
##درجة
##ريكة
##غواي
##منون
bib
ايز
ثوم
صفي
وخص
ياش
##تشريح
##لاحين
lead
prot
جلبت
حنين
شبيب
بالدي
بمناخ
كدولة
وزوجة
ولعبت
کوخرد
أحداثه
التماس
الشتوي
النوعي
بالذهب
لتوسيع
للرسوم
الإسهال
الجلالة
للسرطان
لمهاجمة
##برازيليون
الليبيين
المترتبة
اليزابيث
للمستهلك
أستراليات
والتقنيات
##رنا
##غانغ
##لبين
أرق
اسس
تما
جرن
قرآ
##اندام
##باشرة
##راكات
##سيدات
تؤدى
زيان
ضمير
ناقد
وصيد
وفرت
##راعتها
الشعي
صادرة
وتأثر
وهمية
ويحدد
تهديدا
كانزاس
كهربية
لأحكام
ماجلان
مخيمات
ووالده
الصفوية
الكاكاو
توزيعها
متواصلة
##с
##р
##}
##’
##н
##е
##×
##ڤ
##°
##{
##ü
##и
##\
##о
##پ
##а
##گ
##&
##—
##•
##“
##ک
##”
##+
##٪
##é
##؟
##0
##ٌ
##;
##q
##_
##‏
##ی
##!
##»
##«
##ٍ
##%
##z
##=
##؛
##x
##ْ
##–
##j
###
##w
##|
##/
##k
##v
##ِ
##y
##f
##b
##ـ
##ؤ
##g
##ُ
##َ
##u
##,
##p
##m
##آ
##h
##d
##ّ
##c
##-
##l
##"
##'
##ً
##s
##ظ
##t
##o
##r
##n
##)
##(
##i
##*
##a
##ء
##e
##ئ
##ذ
##غ
##ض
##:
##ث
##ز
##إ
##ى
##خ
##،
##ط
##ش
##.
##ص
##ج
##ح
##أ
##ق
##ه
##ك
##س
##0
##ف
##د
##ع
##ة
##ب
##ت
##ر
##ن
##و
##م
##ي
##ل
##ا
##▁
р
’
н
е
ü
и
о
а
ٌ
ٍ
ْ
ِ
ؤ
ُ
َ
ّ
ء
ئ
ى
ة
▁
$
<
>
?
@
[
]
^
`
~
ς
##⁄
##ר
т
##子
ī
ে
ী
##ж
##ी
ృ
ï
##ీ
ч
##天
##人
్
ৃ
##బ
##0000000
è
##@
##̣
נ
л
##శ
##ే
##ğ
##ৎ
##े
##స
##డ
##ş
ш
ీ
##ı
##ラ
##ת
##ఔ
##ב
##ম
ళ
##φ
।
##נ
##±
《
ğ
##ధ
ঁ
##ঝ
##в
ే
##$
े
##‐
##ç
##ౌ
##দ
ú
ί
##ঃ
##ע
ע
##ట
##।
##ô
##у
##ч
##ś
ά
00000000000
ణ
##ν
##ō
া
##­
##া
‘
ো
##λ
ð
ূ
##ష
N
##ф
##জ
##व
##ক
##й
##এ
ν
##ో
ò
##ఐ
ఁ
##ь
##ই
ρ
ר
##ř
##ঠ
##చ
д
й
ఠ
##ł
·
の
##ঔ
##ঊ
##́
ラ
ö
##â
##ц
##গ
##ρ
ã
ø
##υ
##ূ
##í
я
##ং
##ై
##ン
##त
い
ం
##ద
ä
к
়
##ణ
ā
##্
ঙ
##š
′
##ৃ
##ধ
##ë
##~
「
##খ
##ు
ై
##ə
##ש
ি
##‘
##ఉ
##ব
##ঁ
##ত
##00000000000
ա
##ృ
##🔗
ệ
ם
##ర
##আ
##μ
0000000000000
##ఇ
##অ
ৌ
##α
##ఈ
ో
х
##π
##ি
##ళ
##ప
##ঞ
##ם
##ఝ
##क
##л
⁄
##మ
##ě
##€
イ
ř
##्
ń
##ఞ
##ఫ
##ό
##ă
ూ
##ఢ
##N
##ò
##′
ৎ
##హ
##ছ
ă
##の
##θ
##ঘ
##ా
##ঈ
##ā
・
##ß
ì
ñ
ン
##প
##ఛ
ు
##ω
##ూ
ং
0000000000
##়
ω
##ভ
न
­
##î
##σ
‐
##ē
##భ
##£
ౌ
##ы
大
##ొ
##п
ь
##ς
##ì
##щ
##ά
##ণ
ə
ః
##ఋ
##γ
##ঐ
##ス
##ー
##ো
天
##য
##ū
ৈ
##г
##ট
í
##ড
##ö
##κ
子
##ఱ
##大
্
##ъ
##स
ç
##স
##ে
##ä
ש
ి
##త
ス
ת
##ষ
##ও
##à
##ý
##ఏ
##య
##ю
##τ
##ু
##д
##β
##ï
##ה
##వ
##<
ό
ù
##ী
„
##χ
##い
##ఓ
ণ
##б
##이
##থ
##м
्
##ৈ
##ó
ô
##х
ৰ
ū
##ఙ
##א
##ê
î
##я
â
##η
##ఖ
ê
##„
##ె
##ī
ć
##ঢ
##→
##ø
##ল
ë
人
##ã
##ন
##ί
व
ొ
ě
##৷
##ఎ
त
##థ
##ৰ
ō
##・
##ž
ε
##ం
ी
##æ
##†
ý
##ו
##ा
ि
##উ
000000000000
##т
##ń
##ఁ
##á
##न
ο
##ঙ
ι
##ל
##ο
『
##ё
※
ы
ా
ル
##イ
##ú
́
##হ
α
##ć
##ш
##è
##ి
ఱ
ó
ı
##్
##ù
##>
ß
##র
〜
##ε
##ఊ
##ð
##ι
र
##з
##र
ঞ
†
##ệ
##চ
##ঋ
##జ
##ఘ
##ñ
##ఆ
##ա
##గ
##అ
ু
##đ
##č
##מ
##δ
##−
##э
##म
##·
у
##ల
##క
##ि
##`
000000000
―
##і
ē
##ః
##?
##ル
##ఒ
##å
##ఠ
##י
##ৌ
ा
##న
##শ
ె
##ফ
̣
ъ
##к
〈
á
ఞ
ー
