[PAD]
[unused0]
[unused1]
[unused2]
[unused3]
[unused4]
[unused5]
[unused6]
[unused7]
[unused8]
[unused9]
[unused10]
[unused11]
[unused12]
[unused13]
[unused14]
[unused15]
[unused16]
[unused17]
[unused18]
[unused19]
[unused20]
[unused21]
[unused22]
[unused23]
[unused24]
[unused25]
[unused26]
[unused27]
[unused28]
[unused29]
[unused30]
[unused31]
[unused32]
[unused33]
[unused34]
[unused35]
[unused36]
[unused37]
[unused38]
[unused39]
[unused40]
[unused41]
[unused42]
[unused43]
[unused44]
[unused45]
[unused46]
[unused47]
[unused48]
[unused49]
[unused50]
[unused51]
[unused52]
[unused53]
[unused54]
[unused55]
[unused56]
[unused57]
[unused58]
[unused59]
[unused60]
[unused61]
[unused62]
[unused63]
[unused64]
[unused65]
[unused66]
[unused67]
[unused68]
[unused69]
[unused70]
[unused71]
[unused72]
[unused73]
[unused74]
[unused75]
[unused76]
[unused77]
[unused78]
[unused79]
[unused80]
[unused81]
[unused82]
[unused83]
[unused84]
[unused85]
[unused86]
[unused87]
[unused88]
[unused89]
[unused90]
[unused91]
[unused92]
[unused93]
[unused94]
[unused95]
[unused96]
[unused97]
[unused98]
[unused99]
[UNK]
[CLS]
[SEP]
[MASK]
##য়
##্র
##ার
ব
স
প
ক
##ের
##্য
এ
##ান
ম
হ
##্ত
অ
##িক
ত
##াল
ন
কর
##িত
বি
দ
##র্
আ
##েন
##টি
প্র
জ
##িন
##ায়
##্ব
র
##াম
##য়ে
শ
য
##্ট
##কে
গ
##লা
উ
##িল
*
ও
##াত
0
##্রে
চ
##''
##ন্
ভ
##াব
এক
##াস
পর
##্ষ
##িয়
##ুর
(
##লে
##বং
##ড়
এবং
ই
##েশ
##াক
##ণী
##তি
বিষ
##িস
##াজ
করে
##াদ
বিষয়
হয়
##্রেণী
থ
##শ্রেণী
বিষয়শ্রেণী
বা
সম
##্থ
##ির
ছ
##াই
##্প
##্চ
সাল
ফ
অন
##ছে
##তে
##্যা
নি
##ুল
##েল
##্ক
##00
##ীয়
খ
##িনি
##বে
00
##ক্ষ
##an
##ক্ত
##দ্
##াহ
এই
##in
##ধ্য
জন
''
##বি
##েকে
তিনি
করেন
t
##দের
##াপ
ল
##্ড
একটি
এর
থেকে
##ন্ত
##er
##্যান
##ষ্
ড
তার
##িম
##্গ
##না
করা
সং
##িকে
##ীর
##on
##াঁ
সালে
##্ম
ব্য
ছিল
উপ
##্স
##কার
##্দ
হয়ে
##ঙ্গ
##দ্ধ
##স্থ
পরি
##াগ
##নের
ধ
##োগ
##he
ট
##দেশ
##ৃত
বিশ
অব
দে
a
s
সা
##র্ব
##রে
##ষ্ট
##র্ত
##ওয়
##ন্দ
##্ন
##েম
##মান
নাম
##ষ্ঠ
##জন
##াশ
প্রতি
ক্র
o
মধ্য
##িয়ে
##ংলা
##নে
##তা
##িত্র
##েক
##চ্চ
##ুক্ত
c
কো
##en
##ar
##গ্র
##es
হিস
##্যাল
##ত্ত
p
জন্য
##or
##্ল
##al
##at
##ারত
##স্ট
মা
##িয়া
##রা
##ুন
##াড়
##িতে
##ুরু
##ানে
##থম
##াবে
সে
যে
রাজ
তাঁ
##ারে
the
##is
ঘ
##প্র
b
গ্র
##ীন
##াকে
অনু
##র্ম
##ংশ
##ারণ
##টার
##ছিল
##ংলাদেশ
-
মধ্যে
##িশ
##োর
বিশ্ব
##ভিন
m
##েবে
##িব
##িং
f
##স্ত
of
হিসেবে
##it
##গুল
##থে
##য়ার
ব্যব
##োল
##ic
ক্রিকে
##স্ক
##ারা
##ুম
চল
ভারত
স্ব
##েত
##ঞ্চ
প্রথম
##ন্ম
000
##্জ
পা
##ধান
হল
দু
##িজ
##ছেন
সালের
স্থ
##le
ইউ
##বার
##বা
মু
##রের
যায়
d
##and
##re
##াদের
দ্ব
পরিচ
##র্ণ
চলচ্চ
লা
##াষ
তাঁর
##মে
না
##যোগ
বাংলাদেশ
##ুদ্ধ
##রণ
##ানের
আর
##বর্ত
in
##্ঞ
এটি
অবস্থ
সাথে
##িক্ষ
##িপ
##লের
##েষ
##ীব
ছিলেন
##াত্র
সম্প
যা
##নি
##তার
w
"
##্যান্ড
প্রক
##টে
##র্থ
সু
মহ
##সে
আল
##ion
##ান্ত
##ed
চলচ্চিত্র
##জাত
সর
##দ্যাল
##ভাবে
##াণ
##মি
##াচ
##ন্ড
##য়ের
##পর
##িকা
##হার
##োট
##ro
মে
পূ
রা
##সম
##ত্র
পর্য
##োন
##টির
অধ
হার
##ীত
পার
##ক্র
পুর
জন্ম
##ূল
কা
##ন্ত্র
##্রি
ভাষ
কি
##খা
##াধ
0000
##ভি
##োপ
বছ
##ারী
##জ্ঞ
শহ
##িয়ার
হয়েছে
and
##ওয়া
##খন
##য়া
অংশ
##েলা
##েলার
##ঞ্জ
##ত্য
##রি
h
##্লা
l
##কাল
মান
রয়ে
##খানে
মার
নে
##্বর
শিক্ষ
##চ্
একজন
বেশ
থাকে
##সল
n
##as
##াড়া
কোন
সময়
প্রতিষ্ঠ
##হণ
জাত
##ing
ক্ষ
সাম
##us
##াতে
##পুর
আম
।
##জি
হন
রয়েছে
কার
##োক
##ol
##্যের
লে
কাজ
নিয়ে
উত্ত
##ছু
করতে
ব্যা
প্রধান
অভিন
##ানা
##তম
##ra
কম
##দি
##শন
আই
g
##িস্ট
##un
##্যু
##টা
##শ্চ
##ড়ে
##il
দক্ষ
##কের
অন্য
##িণ
##েন্ট
বে
স্ট
শুরু
দিয়ে
##্টি
সরকার
##el
##ভাগ
##িন্ত
##ছিলেন
সব
##্রী
##্যার
ক্রিকেট
##ur
কিছু
##ভিন্ন
মাধ্য
##িউ
বিভিন্ন
##িত্ব
##),
তাদের
আস
দেশ
ব্যক্ত
##ন্ন
##গুলো
##ষ্ট্র
##্লে
সহ
বছর
##ওয়ার
##াক্ষ
##খে
##িয়ন
পর্যন্ত
ভারতের
##াকা
##ন্ধ
##চে
##র্গ
##িস্ত
##েন্দ
আব
##ারের
##দ্যালয়
অবস্থিত
বলে
##ent
সদ
##্যাস
##এর
দক্ষিণ
##am
ব্যবহার
##বর্তী
নদ
##পূ
নামে
সর্ব
সঙ্গ
##ষণ
##খ্যা
##াব্দ
##্যাম
##িড
পদ
আগ
##ঙ্ক
##ূপ
##বাদ
##ত্ব
##ল্প
##তিক
জাতীয়
অনেক
অঞ্চ
##শ্চিম
দল
##ুক
পরিচাল
খেল
##দিন
##th
প্রকাশ
##োস
##দ্র
##োম
##ৃতি
করার
##সং
ইউন
সাহ
##om
##স্কার
মত
##িন্তু
মৃত
e
##ুব
লাভ
অর্থ
##নী
সাধ
##ক্ষে
কিন্তু
##েব
##স্য
##ch
মূল
প্রায়
বিশ্ববি
##োব
##খ্য
উৎ
##থা
##ুট
##তিহ
##im
আন্ত
#
##োর্
##িকার
##ুক্তি
##জ্ঞান
রে
আছে
##ানি
##োধ
##ার্থ
##ag
থাক
##াট
##োজ
##োয়
সাক্ষ
##োহ
জীব
কারণ
বল
মাধ্যমে
দুই
##ুপ
##ছাড়া
##ুগ
##ুরুষ
ক্রিকেটার
##েন্দ্র
##্ভ
যুদ্ধ
##ুষ
তৈ
উপজ
##র্জাত
এম
উই
সি
##কারী
ইন
বর্ত
##িতা
##দান
ভূ
##কা
##চ্ছে
স্ক
নির্ম
ব্র
ইং
করেছেন
যুক্ত
##চার
##ation
নিজ
##র্ক
##েস
স্থান
##jp
##িও
##id
নির্
##বাহ
বর্তমান
পুরস্কার
আন্তর্জাত
##0000
বৃ
##ল্যান্ড
##িয়ান
##jpg
##েই
পরিচিত
কল
##েম্বর
##ড়া
এছাড়া
বাংলাদেশের
জেলার
পারে
##্যে
ধর্ম
টি
##্যাক
উল
##নার
##ct
হতে
##িন্দ
##গ্রহণ
পুরুষ
সাক্ষর
##%,
শত
##লেজ
##um
##ig
পাল
সাক্ষরতার
অর্
পূর্ব
পশ্চিম
যোগ
বিপ
##ভূ
##েট
শেষ
উত্তর
বার
কলেজ
উপর
##িল্প
##et
ঐ
##ায়ী
উদ্
##iv
দলের
##ীপ
আন্তর্জাতিক
##সের
##াতা
সাধারণ
##ুয়ার
বিভাগ
##সি
##লি
তা
##াস্ত
জান
ঢ
v
বৈ
এলা
##st
##ad
বেশি
##সব
উচ্চ
##ণ্ড
##ভার
##ৃষ্
অন্ত
চার
##র্ষ
##তিহাস
##ia
হয়েছিল
##াকিস্ত
##্যাপ
##'',
তবে
##ালি
তারা
তিন
j
##েলে
##িনী
##বী
##ভাব
সদস্য
নারী
##িলা
অনুষ্ঠ
##াধীন
দ্বারা
##ers
##বিদ
সেন
অভি
to
##ানো
##কল
##েশন
প্রত
লি
কে
এখানে
##ut
পরবর্তী
নদী
মাস
নির্ব
মৃত্যু
##্যান্য
উদ
##ul
গণ
re
চিত্র
নিয়
আদ
##সা
k
##িতীয়
##ist
##াইন
অন্যান্য
কর্ম
অফ
'
বির
দেখা
##নিক
ডি
কাল
বিশেষ
হচ্ছে
গঠ
##লাই
##ce
##লার
##বাংলাদেশ
r
##র্শ
মানুষ
##্কিন
##াউ
অনুস
##রী
##ুত
##েমন
ব্যক্তি
অন্যতম
##িষ্ট
()
##রিক
##েস্ট
st
প্রা
মন
দ্বিতীয়
তাকে
##ারি
স্ত
যার
বহ
##াপ্ত
##্টার
আয়
ভারতীয়
নামক
মি
হত
##েরা
প্রশ
উল্লে
##ীক
বড়
##সলাম
রাষ্ট্র
দিকে
স্প
##াইল
##িয়াম
##em
##ম্ব
পরে
##ুজ
পান
##সর
মিল
##ন্দ্র
##িত্ত
মৌ
পাকিস্ত
তাল
শব
##ূহ
##ভারত
##ir
##ন্থ
কর্ত
##চনা
পু
আফ
বিজ
জু
:
স্বাধীন
##ীল
পৃ
ট্র
##ডি
##টিশ
ফলে
##্রিস্ট
ক্ষেত
##এস
মুক্তি
দেন
টেস্ট
কেন্দ্র
##র্বে
পাওয়া
হলে
##য়ী
গ্রাম
সফ
##িদ
পে
সার
দিন
নিউ
উল্লেখ
চাল
##মা
চে
–
সূ
ভাষা
সঙ্গে
নির্বাচ
আন
ইসলাম
##স্থা
অপ
স্থাপ
##ট্ট
ব্রি
##ড়ি
##্রম
বলা
##্মান
দশ
##ত্ত্ব
##গত
##000
ইউনিয়ন
পাশ
##ম্প
##নাম
সেই
##যুক্ত
গুরু
##ুয়ারি
দেখ
##ুস
##র্ঘ
দায়
ছোট
ঘো
‘
খ্রিস্ট
বিদ্যালয়
চর
##গ্রাম
##ন্দির
বাংলা
##স্ট্রে
##ক্রম
ফুট
##)।
কর্তৃ
##বেশ
প্রতিযোগ
##চিত
করেছিলেন
##তুন
বাহ
##স্ট্রেল
দেয়
শিল্প
তৈরি
##os
হবে
শহর
##াজার
যদি
বর্তমানে
##েন্স
লক্ষ
অভ
##জীব
##গুলি
##ot
শহরের
প্রচ
##েড
##ন্য
বিক
##গ্রহ
##ট্র
কাছে
ঘট
লেখ
ওয়
##ক্স
##িট
মাল
সংস্ক
গো
##ুই
##মার
বয়
যেমন
**
আক
ওয়ে
##ায়ের
##ালী
নতুন
##ess
ইতিহাস
উন্ন
##ৈতিক
করত
আহ
##াম্ম
0000.
মুসল
##িফ
(0000
উপজেলা
কারণে
আন্দ
শব্দ
##ষণা
##ভা
##নায়
বর্ণ
দায়িত্ব
##ile
##ter
হিন্দ
প্রজাত
##ালে
##য়ন
সির
পি
সাহিত
প্রাচ
##ুদ
##ীতে
হিসাবে
##%।
##িত্রে
##খ্যাত
সংখ্যা
##য়েক
##চেয়ে
অনুসারে
##ুয়
এছাড়াও
গান
গ্রহণ
##াফ
বিশ্ববিদ্যালয়
বিশ্ববিদ্যাল
##তির
খান
##প্ত
th
##দার
দূ
মন্দির
ক্ষেত্রে
মার্কিন
##র্ভ
##পূর্ণ
##কালীন
ধর
##োড
গবে
##ণের
সবচেয়ে
কয়েক
##ঠে
##স্ব
ইউর
ব্রিটিশ
কথা
##ীদের
for
লোক
পায়
শিক্ষা
ইংরে
অনুষ্ঠিত
অভিনয়
##ুলে
##নৈতিক
##দ্ব
de
জেলা
ম্যা
পৃথ
##র্জ
ঘটে
##og
##ন্স
পরিবর্ত
কলক
##োজন
##op
##কালে
একই
ব্যবহ
বাস
এদের
un
ভূম
অল
নির্মাণ
##রাজ
##র্শন
##বল
##টের
নয়
##েজ
##ac
শাস
জনসং
##ওয়ে
##ক্ট
ডিস
##রাষ্ট্র
জার
গুরুত্ব
তখন
বই
ক্লা
##আই
পৌ
অস্ট্রেল
##the
##খি
রান
##ন্দর
##ুধ
করেছে
on
ঝ
##্যাম্প
মোট
##ay
##দা
অ্যা
##িভ
##ন্যাস
##মিটার
ধারণ
ch
কর্তৃক
##ক্ষা
বর
উৎপ
##দ্য
তারি
##োয়াড়
পড়
##od
##াব্দে
ফ্র
সময়ে
##ity
##).
দ্য
al
##যোগ্য
রূপ
বিজয়ী
##পূর্ব
ব্যবহৃত
প্রদান
কন
প্রতিষ্ঠিত
খেলোয়াড়
মিশ
নাট
##ষ্ক
##মাত্র
বিমান
##শ্ব
##র্ড
##াক্ত
##যায়ী
প্রদ
শক্ত
##প্রিয়
##াদি
##ab
##ইং
কোনো
আন্দোল
মাঝ
প্রাচীন
##ap
অঞ্চল
##age
মস
##ian
প্রয়
এস
##ালা
##সমূহ
এমন
##বন
##চ্ছ
গা
##োদ
##ud
শতাব্দ
an
##নীতি
সম্ভ
মহিলা
যান
পূর্বে
পালন
সী
,
##িকান
##তু
কার্য
আমের
##ুদ্ধে
##কাপ
file
এরপর
প্রকাশিত
##নাথ
##জন্ম
##ci
##ুশ
##ইন
তাঁকে
গ্রন্থ
ছবি
##ুদ্র
আত
জনপ্রিয়
##্ধ
আফ্র
এশ
জন্মগ্রহণ
by
##ব্য
##ীগ
পরিবার
is
সংগ
ভাষায়
##র্য
##কি
##গর
##ri
বাব
##টিতে
প্রতিষ্ঠান
ব্যাপ
স্বাধীনতা
##লিক
অর্জন
##মন
##াঁচ
##ew
##রাস
খ্রি
ফিল
##থমিক
ঠ
##ৃষ্টি
##ায়ক
খুব
অথ
চট্ট
ঢাকা
বন্ধ
পুন
মূলত
সকল
ইন্ড
জয়
##est
যৌ
im
##াঙ্গ
নির
স্কুল
অবস্থান
যখন
##রণের
##ৌদ্ধ
##িকায়
##ন্ত্রী
##টিকে
##দে
মাত্র
বিপক্ষে
##াবাহ
##ang
প্রাথমিক
##াম্মদ
##াইট
আইন
##াদা
কব
দেব
বিশ্বকাপ
শাহ
##ংক
ভিত্ত
গোল
##জার
ভাগ
##ow
##ান্স
##্রাজ
##মু
##ামী
বৃহ
বাই
ইত্য
সম্পর্ক
as
##্লাহ
##ak
মসজি
আশ
##োর্ড
টেল
মুসলিম
বিজ্ঞান
##টিং
##ith
##রক্ষ
রহ
##ীরা
ভার
বৌদ্ধ
##ালের
##শ্য
pr
সাব
##সু
যেখানে
সঙ্গীত
আধ
ইউরোপ
সাধারণত
##ালো
দুটি
##টন
##ুণ
খেলায়
##িলো
##গণ
পাঠ
অংশগ্রহণ
##সার
দেশের
##িম্প
ইয়
মার্চ
##ly
##কেট
চলে
ইংল্যান্ড
##াকার
বিখ্যাত
দেয়া
##বিজ্ঞান
ছাত্র
ভাই
##সহ
##ub
##তী
তথ
অনুযায়ী
##বাংলাদেশের
কম্প
শ্রী
##পাত
y
সাং
রেল
কু
মনে
সাহিত্য
##rom
বো
গঠিত
দ্র
পদার্থ
ধার
জল
রাখ
নেত
জনসংখ্যা
পড়ে
মো
##ম্যান
##গঞ্জ
##ব্র
পদ্ধ
যুক্তরাষ্ট্র
স্ম
জুন
ওয়ার
নিক
অথবা
পাখি
##রত
##িসি
সিন
তালিকা
সম্প্র
##if
con
##বঙ্গ
##োপা
##ায়ে
প্রভাব
ডে
##ফল
মুহ
“
##াড
##াইড
com
বিন
##ায
##িনীর
চৌ
##পি
##াতার
সারা
আত্ম
##av
##qu
শ্রে
##ard
##সুম
পরিম
##লী
এসে
বিরুদ্ধে
ধরনের
অভিনেত
তাই
##গান
সমাজ
প্রস্ত
সৈ
দী
##সন
##াৎ
##পার
দ্বীপ
সরকারি
গুরুত্বপূর্ণ
##িশন
##িটি
ধরে
আগে
জীবন
গড়ে
##শেষ
রাম
তারিখে
##ানী
##িন্ন
##প্ট
কোম্প
##েতা
খেলা
##গুলোর
সেখানে
##ামা
দৈ
##বের
হলো
পৃথিব
নির্মিত
পর্ব
##োভ
তুল
##িতার
ভাষার
মুক্তিয
##েব্র
##খান
মাদ
##ৃহ
পরবর্তীতে
ক্ষম
নভ
##র্ধ
নব
এন
##স্প
##শিষ্ট
##ph
##িলোমিটার
ar
##দিনের
যদিও
আজ
গে
এখন
##িৎ
দেওয়া
##কো
##মের
##পতি
##কায়
মতো
উপজেলার
খ্রিষ্ট
##িংহ
এতে
ইত্যাদি
##igh
শে
যিনি
বিস্ত
##ূর্ণ
##িহ
সেরা
##'')
##পা
##োচ্চ
##ুরী
যুগ
##ংস
প্রচল
পত্র
##ov
বোল
##প্রিল
##ill
pro
এল
থাকেন
সম্পর্
পরিচালক
নেন
অধিক
অঞ্চলে
মৌসুম
পাঁচ
অঞ্চলের
##ূলক
করতেন
##াসের
##জা
##িগ
অন্তর্ভ
ফেব্র
সম্ম
##ib
##বর
রাজ্য
একে
অ্যাল
##বন্ধ
উপন্যাস
ইউনিয়
##াবাদ
হওয়ার
##িরে
প্রয
তথ্য
জুলাই
##দিকে
##ুনিক
শা
আরো
ব্ল
##কর
এপ্রিল
দিক
আবার
##umb
প্রদেশ
বিল
ডিসেম্বর
লেখক
অক্ট
##ৃতীয়
আক্রম
অন্তর্ভুক্ত
সাম্রাজ
##ine
পো
##আর
রাজা
পরিচালিত
চট্টগ্রাম
##ান্ড
অলিম্প
হিন্দু
##াশি
কাউ
আবি
##ঙালি
মুখ
##েন্টি
সংস
সর্বোচ্চ
নদীর
বছরের
তিনটি
পেয়ে
##ৃতিক
হাস
##াবি
##তের
##''.
আলো
পরিচালনা
বাদ
লীগ
.
##োবর
##ন্ত্রণ
পরী
##াধিক
##র্ন
অতি
##ory
অপর
জাপ
সুর
মোহ
মাছ
##গা
##শা
তর
##াগর
স্ন
##ৌশ
##এই
সেপ্ট
##িয়ায়
পাকিস্তান
জানুয়ারি
ind
ঘোষণা
##েক্স
ডিগ্র
se
##মাণ
কিলোমিটার
##াতি
##ell
বৃদ্ধ
জার্মান
চিক
যুদ্ধে
##ভূত
উভ
কমি
##ical
উপস্থ
##তন
অভিনেত্রী
be
##ডেল
কাপ
অভিনেতা
ব্যক্তিত্ব
রো
##র্তি
বাড়
গিয়ে
সিরিজ
সভ
##জীবিত
করলে
##ার্স
সাহায
##ge
##উট
##এম
##ish
##ভাষ
সম্পাদ
মানুষের
আরও
##ran
##িকভাবে
##ধ্যায়
##ান্তর
সন্ত
##েও
ক্রিকেটে
##ুপ্ত
with
ব্যবস্থা
বিশ্বের
লাল
##গুলির
মিটার
উল্লেখযোগ্য
##েনের
##তায়
রাজ্যের
বিভাগের
সৃষ্টি
কিং
##্দের
le
##ইংরে
##ৃত্ব
##েলায়
##কম
গুল
##ভারতীয়
উদ্দেশ
শ্রেষ্ঠ
##ৃষ্ণ
পরিব
তৃতীয়
##েন্ড
মাই
##ক্রান্ত
এরা
মসজিদ
চাই
##চিত্র
##শে
জো
রাজনৈতিক
বু
বাঁ
বহু
##াত্ত
##সায়
##art
মতে
শিশ
সম্ভব
##িমি
##রূপ
দীর্ঘ
##ুঁ
ত্র
কবি
at
##ন্ট
চ্যাম্প
সম্পর্কে
ro
আধুনিক
শুধ
আদম
বিভ
রাজধান
##ান্দ
স্থানীয়
##মিক
##সাম
##শীল
=
পুরুষদের
শিক্ষক
উৎস
##াহী
##ফা
নিম
ছাড়া
এলাকা
##োদ্ধ
নির্দেশ
##ary
##প্রাপ্ত
বিষয়ে
কম্পিউ
##ant
বীর
এলাকায়
so
##ুয়ে
##up
##এন
##িনা
বাক
##হত
##ক্ষম
অভিষ
ইংরেজ
নভেম্বর
দিল
##মহ
আসে
লাই
বলেন
কুম
ম্যান
##ুরি
গঠন
or
##পু
ফুটবল
পুত্র
ফল
অক্টোবর
image
from
রঙ
বিবে
ফেব্রুয়ারি
##ight
প্রত্য
রহমান
ed
##ষ্টা
##ies
নারীদের
প্রবেশ
##বনে
##ীরে
##াগুল
জাহ
নেই
প্রশাস
দলে
##োলা
##ivers
সেপ্টেম্বর
##ৃষ্ট
##ord
আগস্ট
সৌ
পরিবর্তন
ক্রী
চী
##িক্স
##কটি
বাল
##োয়া
##োনা
##োগ্র
গেম
##ধর্ম
##েক্ট
নেয়
স্থানে
##ায়ার
ইন্টার
হলেও
##স্টার
##্যুর
শ্রেণী
পঞ্চ
##াদেশ
অ্যান্ড
তত্ত্ব
##্যাগ
পক্ষে
আবদ
মাসে
এটা
##িয়াল
হাই
##সময়
রোগ
শিক্ষার্থ
##াজিত
ডান
প্রয়োজন
রায়
চৌধ
##স্ত্র
আকার
##বিধ
সদর
##ীদ
##বির
##সূ
##মিত
sh
ইর
বিপ্ল
উইকেট
##গ্ন
##্ণ
##াংশ
কাম
##oc
করেছিল
নির্বাচিত
নাগ
সংগঠ
কলকাতা
en
গড়
রাজধানী
বিশ্বাস
##েমি
মহাস
চিকিৎ
##pe
##ure
##ুমারি
##ৃতির
আর্
##দিষ্ট
কৃ
বস
##িপি
##্যাশন
##ment
##চক
সাই
নামের
আলী
চলচ্চিত্রে
প্রচলিত
লেখা
সংগ্রহ
##াপাশি
থেকেই
রাস্ত
##েক্ষ
ইউনিয়নের
টেলিভ
##ug
উৎপাদ
জেন
যাত্র
পাশাপাশি
কখন
বংশ
বয়সে
##রস
##িনিধ
##ংগ
সামরিক
ইউনি
গভ
গাছ
##বাস
মূ
কাছ
পত
শহরে
##se
রেক
##ক্ষণ
নী
বন্দ
##াটি
##টেড
নার
জাম
পশ্চিমবঙ্গ
##ইউ
ভাল
সিল
খেলার
বোঝ
##ich
পার্
চ্যাম্পিয়ন
##ড়িয়ে
কম্পিউটার
একদিনের
নেতৃত্ব
##ষ্টি
পারেন
সংরক্ষ
নিজের
গ্রে
গু
he
বের
বর্গ
##চের
বাং
রচনা
সরকারের
##ate
##বাংলাদেশী
আরব
মনোন
##পশ্চিম
সংঘ
ব্যাপক
পেশ
বিদ
##িবাস
##ain
##শিল্প
univers
##টিক
##িকাংশ
##ip
##াবার
ভবন
##ah
##রায়
##াব্য
##র্দ
##িতায়
ভাবে
##ৃত্ত
বিশিষ্ট
##াক্তন
যারা
রচিত
ক্যা
গল্প
মাঝে
প্রতিষ্ঠা
আক্রমণ
প্রতিনিধ
##াতের
##স্থান
যুক্তরাষ্ট্রের
##our
বন
চেয়ে
##লঙ্ক
পরিষ
অধিকাংশ
আসেন
##ber
##াজিক
সংস্থা
##সী
কৃষ
আট
ঈ
চরিত্র
প্রাণী
রাজনীতি
##্রাস
বৃহত্ত
##োর্ট
সিদ্ধ
আলা
##ড়ক
চরিত্রে
রেকর্ড
আপ
|
ভূমিকা
পুল
চলচ্চিত্রের
##াত্ম
মারা
##ণিজ
হলেন
প্রাক্তন
চালু
পথ
অণ
উঠে
উদ্ভি
##all
যাতে
##ভারতের
স্ত্রী
##োবেল
এক্স
পরিস
পরিবারের
গেছে
জায়
##বেদ
শিব
##োপাধ্যায়
##thumb
ধারণা
##জে
##িহ্ন
রাখা
##কুম
##ুয়া
##াড়ি
আবিষ্ক
##্রিয়া
কাহ
সেন্ট
কয়েকটি
পরিমাণ
একাড
চাইতে
(0000)
##চন্দ্র
দার
ফুল
তাঁদের
##ভার্স
বস্ত
##জ্জ
ব্যাট
##তান
ব্যবস্থ
বাজ
ক্ল
##ঙ্গল
##্ফ
##্যো
ধ্ব
পরিণ
##ানোর
অফিস
সাত
##র্গত
##িয়াস
new
##িয়েত
যেতে
মৃত্যুর
ফ্রান্স
##োয়ার
##্বিক
তৎ
শী
ইংরেজি
##পাল
যুদ্ধের
##ুখ
##পক্ষ
##মন্ত্রী
অসম
##ie
##ry
##তিহাসিক
শতাব্দীর
তুলে
wh
সমর্থ
ফিরে
##ok
university
ক্লাব
সীমান
##ik
অবস্থায়
পূর্ণ
মানব
তৈরী
অ্যান
কাঠ
আন্দোলন
##সিক
গবেষণা
বান
বাণিজ
##রাধ
##ast
ভারতে
চৌধুরী
##াং
##াযোগ
রেখে
বাহিনী
সেনাবাহ
হাতে
পদ্ধতি
ভে
##ction
অধ্য
##্যাশনাল
##্রেস
দেশে
বসব
অধ্যাপ
##!!
##ive
শর
##ামের
প্রাক
স্থাপন
কর্মক
নিম্ন
হাজার
অত
দূর
ex
##িকল্প
খ্রিস্টাব্দে
হাম
##িব্ব
press
ক্ষমতা
সম্মান
শ্র
;
##und
প্রাপ্ত
##ীনে
শি
##পথ
বৈশিষ্ট
##man
মুক্ত
উন্নয়ন
##গো
জানা
##্যায়
কেন
নির্দিষ্ট
##ার্ড
সাবেক
##ust
##মেদ
পরিবেশ
সুল
##িকের
##যুদ্ধ
##াপতি
মর
##ort
ষ
অভিষেক
##জিল
##োদ্ধা
(''
শির
তিব্ব
##্রাট
ঐতিহ
##olog
##ence
একমাত্র
##িনের
বর্ষ
##px
উভয়
নিকট
বাবা
##াদু
প্রভ
ইবনে
নৌ
##cl
ভিন্ন
ঘটনা
দখ
##মার্কিন
অর্থাৎ
টেলিভিশন
##াস্ট
বুদ্ধ
পদক
##াপন
মুহাম্মদ
it
##pt
##বান
##বেন
মের
##জ্ঞানিক
ড্র
##দী
তাপ
অভিয
গৃহ
পাহ
##ষ্ঠান
পরিণত
বৃদ্ধি
ভিত্তি
খাদ
bo
চতু
অন্তর্গত
##পো
আনু
সফল
বিভাগে
##াও
সপ্ত
##ork
চিহ্ন
দেহ
##ond
ছয়
##ind
অধিন
এয়ার
##াঞ্চ
##তর
##দ্দিন
##উই
##মেন্ট
স্বীক
বসবাস
ক্যাল
##জের
##োধী
##ম্ভ
দেবী
##ুম্ব
সত্য
যৌন
প্রতিযোগিতা
আবদুল
এড
অধীনে
##চর
##ধার
শান্ত
ঐতিহাসিক
সন্তান
আদমশ
##তাল
হোস
ফরাস
দর
##লায়
সুযোগ
##িজ্ঞ
পরাজিত
পৃথিবীর
সম্রাট
ধর্মীয়
রাষ্ট্রপতি
নীল
hist
ওপর
##উল
##্যাব
##iz
বঙ্গ
ফার
দুইটি
সমালো
সক্ষম
প্রতীক
##ubl
##ال
ছিলো
দিতে
গ্রী
শাসন
##ৌশল
##াদার
বাণিজ্য
##কদের
##াপুর
উইল
##েলের
নামকরণ
##বাদী
রাশ
ফর
গ্রামে
##ational
পাকিস্তানের
জ্ঞ
##োঁ
নক
##ৃশ্য
##ওয়ার্ড
মৌসুমে
পরিকল্প
##জিল্যান্ড
##এল
জমি
##কু
##ডিও
উদ্ভিদ
comp
উপক
শেখ
কোম্পানি
##িরা
আইস
গ্রুপ
পানি
ph
কণ
শিক্ষার্থী
##্রিক
সহায়
ম্যাক
শহীদ
দ্রুত
সামাজিক
সম্পূর্ণ
অঙ্গ
বিবাহ
##ইংরেজি
স্টেশন
##দ্দ
দৈর্ঘ
ওয়েস্ট
ra
যন্ত্র
আরে
##গে
##েবল
##rit
বলতে
নোবেল
##িতি
রোমান
একটা
##সমান
!!
##uc
##সম্প
##াদান
যোগাযোগ
ঔ
চাক
##্শ
দর্শন
##ass
##্লিউ
##লেক
##হা
##নং
দি
##ছি
ডাক
রাস
মিলিয়ন
##ous
##েনে
##ics
শ্রীলঙ্ক
সিদ্ধান্ত
##ern
##কেল
আহমেদ
শিশু
অগ্র
ইউনিভার্স
##ত্তি
বর্ণনা
গবেষণ
##''।
একক
এন্ড
তৎকালীন
অস্ট্রেলিয়া
নিজে
##",
##কর্ম
হাত
##গু
মডেল
##দেব
পুলিশ
ঐতিহ্য
সমুদ্র
##ল্যান্ডের
বায়
বেল
প্রজাতির
আদমশুমারি
তু
সম্প্রদ
রাজনীতিবিদ
প্রবাহ
দেখতে
##াণ্ড
দুর্গ
শার
ছেলে
বোর্ড
##ডার
সাদা
অধ্যাপক
শীর্ষ
##এফ
মোহাম্মদ
বিত
ঘর
কোর
কাজে
##াত্ত্বিক
##খ্যার
লিখে
##িস্টেম
দিব
##জর
শক্তি
উত্তরে
প্রতিযোগিতায়
##্যন্ত
প্রযোজ
i
##্যাট
##ান্ট
প্রেস
co
অত্য
পিতা
বাংলাদেশী
বাংলাদেশে
##বাম
##ায়িত
am
te
পরীক্ষ
হওয়া
উদ্ব
কেন্দ্রীয়
##ওয়্যার
রি
##ন্টি
অধিকার
বৃহত্তম
যেটি
তে
##তেন
##ভূমি
কেবল
(0000).
##ুরা
গ্রহ
বিচার
##ভর
##গার
এলাকার
প্রকল্প
চলা
দাঁ
বিভক্ত
সময়ের
মেয়ে
বাস্ত
স্নাত
##ld
##স্টি
##খ্যান
ঘোষ
##ানার
ব্যাংক
জগ
##যুগ
সিংহ
আমেরিকান
দক্ষিণে
##েপ
##মর
উৎসব
##ষ্ম
##ারেল
##বংশ
বিয়ে
মুক্তিযোদ্ধা
সাহায্য
চারটি
জাহাজ
##ুমাত্র
লক্ষ্য
##কৃত
##াবল
সহযোগ
সমস
শু
##াস্থ
লন্ড
##ুয়েন্টি
সুই
সিস্টেম
ঋ
##for
##ক্য
##্যোতি
পাথ
##ফি
সংস্করণ
##বারের
##ক্ল
##end
##ুটি
##সম্যান
##pr
##চু
##েম্ব
নিরাপ
খ্রিষ্টাব্দে
##te
সম্পন্ন
থাকা
##ations
নর
##াকুর
জীবনের
রক্ত
মাধ্যমিক
##ষ্য
##দ্রোহ
##েডিয়াম
হাল
শৈ
##ong
শতকের
বিপ্লবী
রোড
##চল
##তন্ত্র
##বিজ্ঞানী
0000,
us
##ত্তর
কৃষ্ণ
লিখ
##সাধ
হত্যা
হর
##tern
পরবর্তীকালে
##ric
জিন
দখল
ডিগ্রি
বোলিং
##্লি
চো
স্টেডিয়াম
##ial
জে
পশ্চিমে
)
(;
##ath
চেষ্টা
##শ্বর
মাহ
লম্ব
##ত্রে
হয়নি
প্রস্তাব
##টিউট
টুয়েন্টি
##ver
করছে
##ide
প্রদর্শন
রং
সংসদ
##ens
##ধ্যে
দশকে
নং
টাই
কিংবা
ধারাবাহ
##পত্র
ধরণের
শব্দটি
##হিত
তাম
বেগ
আন্দোলনের
##কান
পের
দর্শ
##হর
##োগ্রাম
সুবিধ
##বিক
গৌ
##rans
নেতা
চ্যান
##বীন্দ্র
আলাদা
##fl
##ঙ্গা
ইঞ্জ
##pl
দাব
##শিল্পী
ধরা
ময়
হতো
শেষে
মুদ্র
পাহাড়
প্রতিটি
নিয়ন্ত্রণ
কার্যক্রম
অনুম
করছেন
##বার্ট
কালো
প্রমাণ
বিশ্বকাপের
সাম্রাজ্যের
##ঙ্
##ack
##ফার
##র্ষণ
##্যান্ট
mar
প্রতির
##ae
##ite
##ায়ণ
সংবাদ
মহাক
বাইরে
##ভে
কথ
কংগ
বৈশিষ্ট্য
##00.
##্রদ
##oh
##পদ
##তো
##টো
অবশ্য
was
টুয়েন্টি00
পল
নাট্য
খেলে
শীত
অনুবাদ
##বাঙালি
cl
অলিম্পিক
প্রচার
##উন
ফরাসি
নিউজিল্যান্ড
##sh
##প্রথম
##াব্দের
ব্যাটসম্যান
##ult
জেলায়
ডিজ
মনোনীত
##হাট
পর্যায়ে
প্রশিক্ষ
বাম
মিড
তারপর
হোসেন
##িবেশ
ডিম
হক
আফগান
ধ্বংস
চন্দ্র
publ
বাঙালি
মেড
##উন্ড
বাড়ি
কুর
##াস্ত্র
সিনেম
জ্যোতি
অধিনায়ক
উদ্দেশ্যে
pl
প্রশাসনিক
ঘন
##টিন
পৌরস
##ধি
##ফিল
দৈর্ঘ্য
col
##ition
##ated
নানা
বিদ্রোহ
##ism
##হীন
##্জন
বাংলার
##মাস
অত্যন্ত
জৈ
একাধিক
দান
সড়ক
উদাহ
বিদ্যাল
##বস
history
ফেল
শাখা
নম
বিজ্ঞ
ইংল্যান্ডের
##বায়
##ru
বন্দর
ইন্ডিজ
নির্ভর
অনুষ্ঠান
##ক্রিয়
প্রতিনিধিত্ব
##ign
লিপ
অস্ট্রেলিয়ার
##per
##লেন
##াতায়
##াহিত
পক্ষ
জন্যে
সূত্র
চ্যাম্পিয়নশ
##ram
##মির
##্বল
##ত্তা
বাজার
##্রো
সংশ
##িনে
বেশির
শিল্পী
##হ্ম
##সঙ্গ
##ওয়ায়
টেস্টে
অর্থনৈতিক
গণিত
##বু
##ক্ষেপ
বিপর
##ne
গ্রীষ্ম
##কাশ
চতুর্থ
##নাট
##ৃদ্ধ
হিম
##নো
প্যার
কাহিনী
মাদ্রাস
সংযুক্ত
##ণ্য
##েনীয়
প্রাকৃতিক
##িলের
মর্য
খাদ্য
নিজস্ব
ভাস
##লেও
সিটি
ইউরোপীয়
শুধুমাত্র
##্ঠ
উৎপাদন
রাজবংশ
##েশনের
ইন্দ
বদ
##াবিদ
##ear
অর্ধ
##so
আয়তন
##চন
la
সরকারী
##হু
##খার
##ff
সংগঠন
দশকের
প্রথমে
উপাদান
&
আইসিসি
##্ৰ
##ঘাত
sp
ال
প্রধানমন্ত্রী
##গাঁ
সুপার
##ানির
নাটক
##ালয়
##"।
##তিক্রম
তুলনায়
বাগ
বাহিনীর
##য়দ
প্রভৃতি
জড়
z
##বরণ
কেউ
তাঁরা
##িসের
##ঘর
that
##ore
কোচ
চাঁ
##ob
##াইজ
গতি
পার্থ
রবীন্দ্র
##াদশ
পত্রিকা
চিন্ত
##োষ
পৃষ্ঠ
##িন্স
চক্র
##াসরি
ভ্রম
বিমানব
ইম
টু
ইঞ্জিন
##ere
##লাভ
মার্ক
##শাহী
##রূপে
##গুলোতে
আয়োজন
ফের
##করণ
##্যাত
তাহ
কলকাতার
##মুখ
ফিল্ম
##az
##ক্তি
##শ্র
এফ
##এইচ
প্রকার
##ড়ার
বুঝ
সফট
##ান্ত্রিক
##াউন
চীন
##ace
##ড়ায়
পরিকল্পনা
sy
##িত্তিক
কবিতা
##রো
প্রত্ন
প্রয়োগ
##র্তা
0000)
প্রোগ্রাম
##ায়া
টেক
##্রেড
##vi
##ire
গোপ
##্যান্স
প্রান্ত
##াগার
সফর
ab
ব্যান্ড
প্রত্যেক
ঠিক
আফ্রিকার
##গোল
অনুর
জ্ঞান
নিয়মিত
মিউ
সুলতান
সেল
সমগ্র
পরিচিতি
বিস্তৃত
কৃত
##ায়ান
ইনিং
পুরাণ
ভর্তি
করবে
ক্রীড়া
নিযুক্ত
কখনো
##বাদিক
##ue
##ধারণ
##ধানে
##ology
##বিজ্ঞ
##বিতে
জন্মগ্রহণকারী
man
##ন্ব
trans
##জল
—
পড়াশ
বন্ধু
জি
##সমূহের
রঙের
চূ
বিদ্য
প্লা
##''-
##ষ্ণ
নিষ
লম্বা
উদাহরণ
স্থাপত্য
##শত
##াধি
সচ
সমান
সাম্রাজ্য
##এক
##ach
ছাড়াও
সংস্কৃত
নেট
##বাংলা
বিশাল
অজ
ছবিটি
আফ্রিকা
##che
ইউনিভার্সিটি
##ষক
##ক্ক
আও
##োজিত
বাত
##দর্শন
বী
ফ্ল
প্রজাতি
##ther
##শ্রেণীর
পুনরায়
এসেছে
মুসলমান
ফুটব
চিহ্নিত
ম্যাগ
আবু
জর্জ
অর
##স্কৃতিক
হবার
ইতিহাসে
সম্পাদক
মাইল
পার্শ্ব
হয়েছিলেন
##াঙ্ক
##বৈ
সান
আব্দ
দৃশ্য
এশিয়া
ব্যক্তিগত
পৃথক
ঠাকুর
সরাসরি
*''
##ূর
ফাইন
আমি
জুড়ে
নিশ্চ
প্রেম
প্রকৃত
কমে
##াদী
##েয়
##জনের
##ost
##orld
##land
যাত্রা
অণু
প্রতিষ্ঠাতা
##দ্বীপ
মাম
ক্যার
##ft
##িফা
##raph
ক্ষুদ্র
জিম
মেট্র
##বীর
গ্রিক
##োর্ন
অর্থনীতি
##্ডার
##ন্দ্ব
গানের
পার্ক
##াপে
ad
##শ্রী
##ণে
##eric
ওয়ার্ড
সাংবাদিক
ছে
##টেন
ভৌ
##সিংহ
##আল
বিস্তার
নিজেদের
কান
##বাড়
আমার
ডিগ্রী
##োভিয়েত
##হন
খেত
##সভা
অংশে
কন্যা
প্রেসিড
সীমান্ত
##ম্ম
##্শন
##মূলক
##ডে
##ডেন
শুধু
নিবন্ধ
##..
##ধর
##স্
##ঢ়
প্রদেশের
##র্প
##চা
প্রণ
পাব
সংখ্য
কলেজে
##َّ
বিধান
উইক
সমন্ব
##পাকিস্ত
জেনারেল
##চি
me
ম্যাচ
##ড়াই
##ৈত
##িশোর
cent
সৈয়দ
সুন
যাওয়া
মাঠ
শতা
সমস্ত
স্বীকৃতি
##্যতা
##বর্ষ
##ভিত্তিক
ইনস্টি
কঠ
##িমা
অ্যাস
সহায়তা
থাকতে
##িসং
রক্ষ
উসমান
ওঠে
##পরি
##দক্ষ
##ুকুর
are
মিন
কোর্
জীবনে
##সেন
কাশ
ব্যাক
রসায়
বিশ্ববিদ্যালয়ে
##আন
##তাব
##নগর
##াগত
অক্ষ
সফটওয়্যার
পদে
কুমার
পিতার
##ice
প্রাণ
ac
##তিতে
##ীকার
##ফোর্ড
উদ্দেশ্য
জাদু
চীনের
উঠ
মিনি
চুক্তি
আদর্শ
ছবিতে
উপস্থিত
অপরাধ
অবদান
##াউন্ড
এখান
##ys
গভীর
দেখে
অস্ত্র
অম
##দ্ম
##ুকে
যুব
##াহ্ম
আর্থ
##ামে
##তত্ত্ব
সম্পর্কিত
সাংস্কৃতিক
এসব
##কালের
কর্প
শিক্ষার
##াচার
প্লে
মেয়
##co
0.
বয়স
সংস্কৃতি
##াপ্র
সহজ
সায়
##বিদ্যা
##0.
##সংখ্য
আসন
যাদের
##্শনিক
নগর
নম্বর
বিশ্বযুদ্ধ
int
সংস্থ
##টিল
res
জেম
নিহত
বিদেশ
##ep
##শাস
পরিষদ
চলচ্চিত্রটি
##স্বর
##্যাড
ধীরে
##বাহী
নীতি
##বেদন
সার্ভ
যুক্তরাজ
অবসর
দূরে
গ্যাস
একাডেম
কাউন্স
##sv
হে
ব্রাজ
প্রচুর
##েত্রে
নিয়ন্ত্র
শো
##|000
সাঁ
##ফে
স্নাতক
vol
সমস্যা
উইলিয়াম
সংরক্ষিত
পৌঁ
সিং
চ্যানেল
##সান
##ীয়া
india
উদ্যান
প্রযুক্তি
সোন
##ান্তরিত
অভ্যন্ত
নামেও
##কারি
##িকো
ফেলে
##নীয়
সম্ব
আক্রান্ত
##লেকট্র
##্না
শিক
তাপমাত্র
সংযোগ
##খের
bl
##ান্য
মাসের
প্রস্তুত
##উদ্দিন
স্মৃতি
##নীত
বৈজ্ঞানিক
##াজী
কাজের
অবল
##নেট
##িবার
আবিষ্কার
পার্টি
##ধা
##াশে
নির্বাচন
আঁ
অল্প
##াস্থ্য
##ওয়ার্ক
স্বর্ণ
##io
##ict
we
দার্শনিক
বিদ্যমান
##.,
কোষ
খেতাব
সোভিয়েত
##টস
##ta
যাবে
চিকিৎস
উদ্বোধ
##িপুর
ইতাল
##der
##্যারি
দাস
সৈন্য
ক্ষেত্র
##টর
উপরে
বিহার
ব্যাটিং
অ্যাড
##।"
তোল
খুবই
নিতে
অস্ত
##ময়
##্যাপী
##com
##svg
##ার্ট
চাষ
##ীরের
##গুলোকে
তথা
কোটি
ব্যাখ্যা
##বিহার
তো
##ষ্ঠী
##বার্গ
##য়েড
পাশে
##খালী
##right
নিয়োগ
des
গ্ল
মৌলিক
##.)
সেবা
কলেজের
সর্বাধিক
অনেকে
কর্তৃপক্ষ
##ষ্ট্রে
সভাপতি
কোড
আমির
##ুরুর
আমেরিকার
মিত্র
##দর্শ
ফিফা
আলোক
##াকের
সিলেট
সেনাবাহিনী
উত
00.
মেডিক
ভেত
##সাধারণ
##েরি
world
##কুমার
##ুল্লাহ
অ্যালবাম
সাউ
##েক্টর
অবস্থা
পরিচয়
ন্যাশনাল
ব্রহ্ম
##চরণ
##স্ট্র
কানা
##থি
##টাই
গেলে
গোত্র
বিক্র
পৌরসভা
সংক্রান্ত
##াভাব
থাকার
##বর্তমান
##বণ
আবাস
মূর্তি
আনুষ্ঠান
নৃত
দত্ত
অ্যাক
জড়িত
তৈর
##্যোগ
নিজেকে
মাদ্রাসা
তেল
আফগানিস্ত
##্টিন
##rid
বেত
শিকার
রাজশাহী
##মত
বাধ্য
ইলেকট্র
##son
নাই
প্রের
প্রধানত
যাওয়ার
সবুজ
##ron
##িলি
ওয়েল
বিষয়ক
##রব
##্রমে
##int
চাপ
বছরে
##েশ্বর
##ভিড
নাগরিক
পরীক্ষা
00,
ফলা
##দানের
##চী
এইচ
স্থাপিত
বিস
##াগরের
টার
পাঞ্জ
জর
কাঁ
শতাব্দীতে
##eng
খাবার
##ree
##াত্মক
পুরস্ক
সুন্দর
##লাপ
##দক্ষিণ
##াভ
##ুসারে
ইসলামী
##াশের
পড়েন
সাহায্যে
##্যুৎ
সেক
##ওয়ান
##ারেশন
রাখেন
সক্রিয়
পথে
রাখে
বিরোধী
আলোচনা
নির্বাচনে
স্টি
##ograph
মুক্তিযুদ্ধ
##খানা
স্কুলে
comm
বিষ্ণ
সাহিত্যিক
দিবস
কক্ষ
##ugh
চেয়ার
মন্দিরের
##ামো
সমর্থন
এটির
খ্রিস্টপূর্ব
##থার
সন
ব্যাপারে
##্ষিক
##):
মাত
টাকা
এশিয়ার
##amb
যথ
##য়িক
ওয়া
ব্রাহ্ম
ঊ
মর্যাদা
##ালার
##োনেশ
##ন্ধান
রেজ
##র্ধ্ব
ছড়িয়ে
/
##গায়
##াজন
##োরে
cont
পাতা
ঢাকার
পর্বত
নেতৃত্বে
দাবি
হাসপাত
তালিকায়
##'-
##ma
মহান
##বরাহ
his
হাউ
##টিত
ক্রম
তুর্ক
গ্রামের
গুণ
চুক্ত
আমাদের
pol
ছবির
নিচে
সম্ভবত
সঠ
ক্যাম্প
অভিনয়ের
কণ্ঠ
মালিক
মিশ্র
##মূহ
##ুতি
##দন্ত
কাব
ভাব
আরেকটি
ব্যাব
অতিক্রম
##angu
##ায়ন
##নিষ্ঠ
##na
খন
##িক্ট
##েতু
##োসাই
আর্ম
##ামি
##িয়র
বেসর
##বিশ্ব
##মোহ
মায়ের
ne
##জীবন
##ফ্র
##পুরের
বস্তু
জাতি
শতকে
লিখেছেন
##unt
fl
স্বামী
গ্রীষ্মকালীন
##ীর্ণ
##মহাদেশ
কমান
অন্যদিকে
##ণীয়
art
পর্যবে
পাই
হেল
নেয়া
কর্পোর
##-0000
##শিক্ষ
york
##গ্রন্থ
ধারাবাহিক
##ৎস
নেপ
যুগের
রু
##ণ্ডিত
ক্ষতি
পরের
শাসক
##দল
মুম্ব
শক্তিশ
প্রক্রিয়া
অক্স
বিমানবন্দর
##বিধান
##িসংঘ
মুর
আকারে
এটিকে
রক্ষা
বিবেচনা
নজর
পাস
##ভেন
শ্রম
par
##ভুক্ত
সূর্য
অভিযোগ
ধর্মের
##ীকে
##শায়
খুঁ
##নাট্য
##াব্লিউ
শব্দের
একাডেমি
ক্রীড়
প্রজাতন্ত্র
প্রক্র
যোগদান
all
ডানহ
মধ
ত্যাগ
পানির
##লো
কৃষি
##ড়ান্ত
প্রতিক
ভূমিকায়
পাত
##ওয়েল
##প্রাচ
মন্ত্রী
##কৃষ্ণ
##ood
##্যাজ
##ীতি
##্টা
এমনকি
গাছের
qu
ডলার
বাবার
বিজ্ঞানী
রিপ
বোম
##ইংরেজ
ট্রেন
আল্লাহ
শুরুতে
##মদ
##ata
##ন্থে
অগ্ন
জটিল
##্ল্ড
মিস
পশ্চিমবঙ্গের
##ঘল
##্কে
##িলে
এসময়
##ুরে
stud
বক্ত
নিরাপত্তা
অস্তিত্ব
not
ভিড
##ution
##পুঞ্জ
কল্প
স্থায়ী
সাফল
ক্লাবের
##তাত্ত্বিক
লাগ
অষ্ট
##প্রকাশ
সামনে
বিশ্লে
##র্জেন্টি
##ans
উক্ত
নকশা
উন্নত
এগুলো
##শেষে
সপ্তাহ
##পক্ষে
##বর্তন
##মানিক
##les
##েনিস
প্রতিরোধ
fil
জেমস
##ব্যাপী
ভিত
পুরো
মন্ত্র
শক্তিশালী
প্রথমবারের
লাইন
প্রশিক্ষণ
##প্রতি
প্রার্থ
ঔপ
যৌথ
বৃহৎ
বেশী
ফিলিপ
অধ্যয়ন
স্বাস্থ্য
ইক
রোম
##act
দূরত্ব
হওয়ায়
##বিত্র
ব্যবহারের
##শাহ
##হের
হো
##্লাই
কিমি
পার্থক্য
##জায়
##লাইন
ওয়াল
সেঞ্চ
##াইটেড
##াগুলো
মূল্য
ইঞ্জিনিয়ার
ল্যা
কিশোর
ভিডিও
##ফলে
##ল্ল
##িপিড
রুশ
##োদন
আসছে
##ms
ওপ
##অস্ট্রেল
##ন্যাশনাল
প্রবাহিত
ভালো
পরিসং
ব্যর্থ
ইনস্টিটিউট
নেটওয়ার্ক
##রম
##uth
বোন
গোয়
##জাতীয়
ন্যায়
##্বাস
চিকিৎসা
চি
বসু
##দু
##াকায়
উচ্চতা
##ai
তারিখ
বেন
নাস
##cy
##বনের
সংসদের
উৎপত্তি
ক্যাম
সৃষ্ট
##ুতে
##ঞ্জন
##িস্ক
সিরিজের
সংগীত
##য়েশ
গীত
##য়নের
উসমানীয়
রচ
পোল
মূলতঃ
নিশ্চিত
##are
##্যুত
##বহ
পশ
সফরে
পরিসংখ্যান
##ঠি
##াজা
##েমে
শূ
পাখ
জাপান
বোলার
জনসংখ্যার
সেনাবাহিনীর
dis
নির্ধারণ
ap
চীনা
চূড়ান্ত
আদি
সর্বপ্রথম
##মিন
0য়
##ঘাট
##গুলিতে
##মনসিংহ
দৌ
কমিউন
শুরুর
##চেস্টার
রেলওয়ে
##aw
##থের
##ামান
অনূ
ছাড়
##িউড
soci
ভাস্ক
##স্থল
পিছ
ধন
খাল
##="
শিল
##ামূলক
যুক্তরা
পাঁচটি
বন্য
যত
##্বাব
জাতিসংঘ
কাব্য
সংঘটিত
দিয়েছেন
##রন
x
##কীয়
##িফোর্ন
শতাংশ
ইয়র্ক
পণ্য
মঞ্চ
##de
per
##রিক্ত
ভিত্তিতে
এখনও
আগ্রহ
চির
ধারা
সুবিধা
ব্যবস্থাপ
##ফুল
ডায়
##ায়নিক
দৃষ্টি
##তল
##con
langu
সোসাই
অবলম্ব
কর্মরত
##াম্ব
তোম
খেলেন
রাস্তা
গান্ধ
##জান
পয়
রুপ
বেড়ে
##বো
##ect
শারীর
কী
##মানের
প্রত্যা
ম্যাগাজ
##du
ইউনাইটেড
##ina
##ডা
##able
পঞ্চম
##-'
##োশ
রাই
গভর্ন
0টি
##ale
##িপ্ত
tra
ইস্ট
##স্বরূপ
##ারন
##তাবাদ
অঙ্ক
গুপ্ত
মজ
##াক্স
ইন্স
বহন
##vel
ser
##esh
ইল
স্টেট
##ভাগে
##হেতু
উইকিপিড
##ৃণ
দ্বীপপুঞ্জ
রশ
আলি
##োসিয়ে
গ্রন্থে
##hen
তড়ি
নবাব
pp
হা
ভি
##ward
##যাত্র
হস্ত
সাদ
ওয়ার্ল্ড
##ানু
##ited
ছেড়ে
উপমহাদেশ
সায়েন্স
##িবাসী
উপল
##ষ্কার
প্রদত্ত
##ামার
করলেও
অতিরিক্ত
আফ্রিকান
তন্ম
স্ট্র
মাইক্র
و
ভয়
eng
sch
জ্যাক
শান্তি
অ্যাপ
কাউন্টি
ইন্ডিয়ান
বিধ
কখনও
ফুটবলার
যুক্তরাষ্ট্রে
সাগর
পরিবর্তে
শ্রীলঙ্কা
খর
book
অভিজ্ঞ
##নিবেশ
কর্ণ
প্যা
মিশর
tim
##বিষ্য
প্রকৃতি
সমৃদ্ধ
##ates
মুজ
ক্যাপ
##ual
##port
মেঘ
কমিউনিস্ট
##বছ
হাঁ
মন্ত্রণ
ব্যক্তির
##ঠা
##প্তর
বেশিরভাগ
গি
##সেরা
##)-
তুর
সেতু
##ত্ত্বেও
##ple
আলম
##লেট
ফির
সর্বশেষ
নগ
পূজা
হাসান
ইন্ডিয়া
##ohn
প্রতিযোগিতার
গণ্য
টিভি
আনন্দ
স্থাপনা
##flag
##দেরকে
ব্যবধানে
sc
mus
sci
em
pe
অস
রক
প্ল
ভ্রমণ
no
##াকাল
##্সেল
জনপ্রিয়তা
##ীম
##োদ্
টা
##ওল
##াক্রমে
লড়াই
##বাল
##যোগী
সম্প্রদায়ের
##ড়ের
থাই
হাইড
আন্তর্জাতিকে
##fer
জমিদার
রবার্ট
সম্বন্ধ
তন্মধ্যে
##অন
mat
মনো
##ondon
উন্ম
##বিন
বৃত্ত
পড়াশোনা
স্বাক্ষ
##জু
##ঙ্গের
প্রয়োজনীয়
মহিলাদের
ঐতিহ্যবাহী
বহি
নির্ধার
ব্যবসায়
##টু
ব্যবস
##সাগর
গার
দিল্ল
হুম
আঘাত
বেগম
ভবিষ্য
খুল
part
আদাল
উৎপন্ন
##গের
##াকি
আছেন
##িয়েতনাম
সংস্কার
রাসায়নিক
##থায়
##ফিক
##য়েল
সিড
উপাধি
কংগ্রেস
বোঝায়
চেয়ারম্যান
হাজ
##গন
##টিভ
##ফের
প্রিম
উদ্যোগ
##মো
##ঙ্গে
প্রাস
ma
বিজয়
##উর
##জিক
##্রীর
বাণিজ্যিক
##গাঁও
রাখার
সমাপ্ত
সরবরাহ
ম্যানেজ
##টক
##নোল
##ষিত
##ton
har
বিব
দলকে
যথে
intern
##নির
লীগের
##ইল
##েকোন
হিন্দি
##নিষ
##াবর
লু
ধাত
আমরা
পবিত্র
জুল
পাথর
বিন্দ
স্টার
রস
0ম
দিনে
রবীন্দ্রনাথ
##বয়
##মেন
বিলুপ্ত
প্রস
তড়িৎ
ধূ
স্ল
##বাজার
##িয়াতে
দেবতা
সেখান
সহকারী
কর্মকর্তা
খলি
আরবি
হায়
americ
##পের
##াণিত
##গুপ্ত
##কাম
##লাল
##সিল
দা
##ডিআই
হাট
সাম্প
##কেন্দ্র
م
##্লস
উঁ
##াহিদ
কুই
দলটি
উদ্ভাব
##ড্র
ভ্র
ক্রে
##ভূম
সিম
যেকোন
##াদে
##িমিটেড
##ভেল
ag
লিখিত
##old
জায়গা
এভাবে
দৈনিক
ইসলামের
##ces
পছ
পরিবারে
প্রকৌশল
তী
কমিটি
মাইকেল
আর্জেন্টি
তীরে
সঠিক
সাউথ
##led
##্টেন
##িবদ্ধ
এখানকার
হয়েছেন
##ck
##-00
##্যাশ
আয়ার
##াতন
লক্ষ্যে
##ve
##ভাষা
সাপ
##ওয়াল
##েম্বরে
স্বল্প
ক্যালিফোর্ন
##পুরে
##পুরুষ
খ্যাত
অন্ধ
লিমিটেড
জায়গায়
##দিক
0,
##form
বিতর্ক
জাপানের
জ্যোতির্
ফাঁ
মৌল
কিছুটা
বাস্তব
এগ
অ্যাম
ডেভিড
নিয়ম
##out
সনে
হত্য
##orn
##নিউ
খানের
রসায়ন
প্রেক্ষ
কলকাতায়
##irst
##ান্ডার
ফলাফল
প্রো
##রাম
হোট
বার্ষিক
প্রেসিডেন্ট
##নীতিতে
##োগ্রাফ
কার্ব
বিরোধ
##ung
প্রজ
পাক
সিক
পাড়
ইনিংসে
##reat
দুর
##াভাবিক
পদ্ধতিতে
ডিপ
অভিযান
বংশোদ্
কৌশল
বর্ধ
##্পায়ার
##ave
অসু
ডার
ফেড
ভূমি
মহাব
বলেছেন
সম্মুখ
শাম
সম্মেল
প্রদর্শ
##hi
বাকি
বিশ্বকাপে
উদ্ধ
ভিত্তিক
##তিন
##ঞ্চি
তাহলে
হারিয়ে
সার্ব
আমেরিকা
নির্মাণের
##োতে
জ্ব
লুই
ব্যবসা
##ভিল
##মাল
##সির
##ভব
==
অস্ব
##ঞ্চলিক
মেডিকেল
##ou
ge
মেল
হেন
ঘরোয়া
দেখানো
বিবেচিত
##lect
যুগে
ভিক্ট
rel
যথেষ্ট
##তান্ত্রিক
মৃত্যুবরণ
৷
##iss
af
পট
gen
##বাদের
সংজ্ঞ
পদার্থবিজ্ঞানী
##one
##াগতিক
##মূল
হের
##্টন
##খণ্ড
সাজ
তামিল
বেঙ্গল
রাজত্ব
রূপে
উপকূল
নৃত্য
ভর
কাছাকা
শ্রেণীর
প্রতিষ্ঠানের
##ari
##াইভ
পরিবহন
##ame
উঁচু
শতাব্দী
##ীকরণ
##000.
##ঙ্কর
##বিশেষ
##াচার্য
রেডিও
সংগ্রাম
##শার
পর্ত
থানার
টেকনোল
অধিকারী
##ann
বিদ্যুৎ
সমালোচক
##শি
##ins
##মাই
##ages
হলুদ
পার্ব
পার্টির
##েত্র
দেয়ার
কাছাকাছি
অলিম্পিকে
বৌদ্ধধর্ম
সাহিত্যের
পিত
john
গায়ক
পাঞ্জাব
কাউন্সিল
প্রতিষ্ঠার
বিনিম
পর্তুগ
চট্টোপাধ্যায়
পাট
##ন্দের
##oph
##েইন
##ষ্ঠীর
অস্থ
মসজিদের
সংরক্ষণ
নেওয়া
দ্যা
##াসে
##িক্ত
##সংখ্যা
প্রতিদ্ব
সম্প্রদায়
##বস্ত
ভুল
ক্রিকেটের
লো
##ব্ব
নামটি
##ঙ্গার
আঞ্চলিক
বাড়িতে
যথাক্রমে
##ুনা
প্রখ্যাত
মুখ্য
পাওয়ার
##িদের
সূর
উপত্য
অধীন
রাখতে
##ানুসারে
থাকলেও
##we
her
will
অংশের
##চ্ছিন্ন
##ings
##ব্লিউ
##েন্দ্রনাথ
##হুদি
এগুলি
কত
যশ
##সাথে
ইন্দোনেশ
ওই
##ফট
##াণী
সূচনা
mo
##লীয়
এরফলে
##োজেন
##পায়ী
##হিন্দ
শহরটি
##দাস
##."
##গণের
বরং
মুল
খণ্ড
রাজবংশের
##ridge
##hed
##ঢাকা
##ণিক
কাগ
সংস্থার
গেমসে
##xt
##সাল
আহমদ
##িথ
##ors
##যন্ত্র
ওডিআই
##লাস
চর্
শিখ
##ুসে
খে
##ুয়ের
##ালয়ের
খ্রিস্টাব্দ
##য়ান
বিশ্বযুদ্ধের
##ya
##ভাই
ধান
আওয়
po
ওল
আউট
বাঘ
যেহেতু
ট্রান্স
গ্রন্থের
বিশ্লেষণ
##স্তি
##েন্টের
দিনের
তাদেরকে
##uk
##মূ
##ance
##ার্জ
এশিয়ান
হিসাব
##ng
fo
##িদ্ধ
কঠিন
চ্যাম্পিয়নশীপ
##শী
##জির
##্ট্র
পেট
রকম
শতক
যেসব
প্রভাবিত
##চার্ড
##শস্ত্র
সম্প্রচার
দেওয়ার
পেয়েছে
বেদ
মাঠে
সংখ্যক
রাষ্ট্রের
##েনা
##োমে
##–0000
স্তন্য
মধ্যযুগ
কোম্পানির
হৃ
##িতির
london
আব্দুল
##ারক
চাঁদ
বক্স
ঈশ্বর
ক্যাথ
মেডেল
##ুনি
##স্যের
গুলি
প্রচে
অভিহিত
চিত্রনাট্য
##চারী
##্সের
জানান
চা
পতাকা
##াগো
ভো
##ুলের
##াকৃত
##মার্ক
দিকের
পরিমাপ
##যরত
med
রিস
থিয়ে
রাস্তাটি
##ঙ্খ
##প্রজাত
হোটেল
##mar
##বাব
inter
রানের
##ral
ভোট
সীম
উজ্জ
যাকে
which
পিটার
তাপমাত্রা
##ায়েত
##াইয়ের
প্রেরণ
দিয়েছিলেন
##ose
অশ
##stem
সেমি
শিরোপা
##ife
লন্ডন
মুহাম্ম
##")
আসা
প্রিমিয়ার
অস্ট্রেলীয়
##ধিক
del
শাখ
পাবলিক
cal
প্রজন
ইউরোপের
##কেই
##্রু
খা
##োনার
পণ্ডিত
বিদ্যালয়ের
ডা
কলা
সমূহ
ভূষিত
আকর্ষণ
ঢাকায়
পেশাদার
প্রায়ই
মধ্যকার
##চাল
##র্বল
##ন্ডিত
স্যার
বন্দ্য
##েদ
শুক
তরুণ
গভর্নর
##োনাল
আনা
গোল্ড
তোলেন
##যেমন
##াম্প
national
##ana
##ury
##পন্থ
আসলে
থানা
ক্যান
মহাদেশ
মানসিক
জিম্বাব
এজ
##সিদ্ধ
সম্বন্ধে
##ome
##ন্দে
জাল
মহাবি
অসংখ্য
##ীতা
অনুসরণ
সঞ্চ
ঘটনার
বাংলায়
##প্লে
war
একর
বেঁ
ব্রে
অনুষ্ঠানে
##ild
##গড়
##ica
অ্যাওয়ার্ড
##ford
##য়াল
##াদির
গৃহীত
সন্ন
##বছর
##রাট
##ুমি
পরীক্ষায়
ফ্রান্সের
##ail
##পূর্বে
##)''
##াসমূহ
বর্ণিত
ev
সম্ভাব
রম
##িংটন
mod
স্বাক্ষর
##ert
মাস্টার
ইতিহাসের
gu
##টিয়ে
রাষ্ট্রীয়
##বাগ
##চট্ট
প্রথ
##কন
##ash
can
আইনের
বংশোদ্ভূত
first
প্রচলন
##que
ভক্ত
##জনক
জৈন
বীজ
হাব
##ওয়াই
আদেশ
জিতে
একবার
##চট্টগ্রাম
##্কা
জনগো
বিদ্যালয়ে
আবদ্ধ
নিষিদ্ধ
do
##াধান
##িলার
##ট্রিক
##পাড়া
##শব
ফ্রি
প্রযোজক
##িন্ড
দশক
##ধীন
গর্ভ
খ্রিস্টাব্দের
##.''
এক্সপ
##াঞ্চলের
আকারের
ওয়েবস
রয়েছেন
উত্তরা
আনুমানিক
##কির
##্তা
পর্যটন
##বৈজ্ঞানিক
স্তন্যপায়ী
##dh
জম
অগ্রসর
মাধ্যম
##ুজ্জ
##যান
ওজন
পরাম
ইভ
পর্বতম
##োরি
##পে
ওভ
##শালী
কাট
পুণ
মিথ
ভিয়েতনাম
##iam
চাম
##্রতিক
ব্রাজিল
##হে
##োরা
car
খাঁ
দ্গ
লুক
টাইম
##);
সামান্য
প্রতিপক্ষ
##ley
##িশাল
ইসর
হান
কাজী
একত্র
বৌদ্ধবিহার
##মোট
##াজের
##্টের
##্নের
হোম
##াইনের
অনুপ্র
বিক্রি
নান
হাও
প্রস্থ
সিরিজে
##্রয়
জোর
আরেক
##গুলিকে
##বিশিষ্ট
##াপক
##ার্ধ
##িল্লা
ইন্টারন্যাশনাল
চ্যাম্পিয়নশিপ
##bo
##la
##ase
##ents
গ্যাল
##রিদ
কৌ
বুল
##টিস
থাকবে
পৃথিবী
##uch
স্কট
লিঙ্গ
##কী
##col
##কেত
##জিং
##মাধ্য
সমাধান
সামগ্র
নিদর্শন
ইঞ্জিনিয়ারিং
প্রতিদ্বন্দ্ব
##ীব্র
রেড
সাঁতার
##yn
##লস
##খিত
##য়ং
##াসা
আবুল
বিশ্বে
রিচার্ড
##ফেস
এত
ইতি
পুরনো
নদীটির
শুমারি
তিব্বতী
নাজ
আসার
তেমন
সেনা
হিল
মুঘল
##্লিষ্ট
মেক্স
মধ্যবর্তী
spe
আলে
মির
##সারিত
সংকল
system
ইন্টারনেট
##হি
##িংস
ধ্র
বিংশ
##াবিজ্ঞ
ইঞ্চি
##দর
জলা
হরি
##প্রধান
চার্চ
এগিয়ে
সংবিধান
সশস্ত্র
নির্ণ
পরামর্শ
মিলিত
##ুশে
জনগণ
its
ম্যাচে
যথা
গুলো
তীব্র
জাদুঘর
যোগ্যতা
ময়মনসিংহ
##বদ্ধ
বসে
##োবাইল
কলম্ব
খলিফা
নিচের
সম্পদ
গোয়েন্দ
##এসসি
সেম
##লেক্ট
##জো
##row
হ্যা
পর্যায়
আন্দোলনে
মুক্তিপ্রাপ্ত
##নীতির
inst
ইচ্ছ
ব্যবস্থার
##ural
##য়াং
##াঙ্গা
##াহিত্য
##pro
বিচ
খুঁজে
বেসরকারি
##োধন
##মোহন
##ier
নির্ধারিত
##মুদ
##িটাল
##ক্ষিপ্ত
শ্রমিক
##স্যু
পোশ
উঠেছে
##বিজ্ঞানের
##বিংশ
ছয়টি
অনূর্ধ্ব
আবিষ্কৃত
স্বাধীনতার
this
কেন্দ
উইন্ড
আনোয়ার
বার্সেল
##rib
অগ
rec
মিলে
##view
##ধারী
খাত
গুজ
মাথা
##কারীদের
nor
ছাপ
##্রিম
দাবী
ইউনিয়নে
##্রা
##eral
film
সৌদি
উপজেলায়
লেন
তীর্থ
international
গবেষক
##red
##bert
##চ্ছেন
গোলা
##প্রদেশ
খালি
##নামূলক
একাদশ
শের
##াজপুর
##ন্তব্য
পরিবর্তিত
##িরি
##ions
দাগ
নবী
##ক্ষিত
সাফল্য
সাম্প্রতিক
তাতে
পছন্দ
উপযোগী
সবাই
স্বীকৃত
অবলম্বনে
##োফ
+
##uss
##সারণ
##ভূক্ত
শক্তির
চক্রবর্তী
##োটা
fe
তোলা
ব্যয়
##এশ
ফু
চালিয়ে
প্রবন্ধ
মেম
হযরত
জাতির
জানতে
বিষ্ণু
##ঃস
##াবলী
##িক্যাল
অনুমতি
কংগ্রে
##োনি
ইত
কিউ
কমিশন
বৃষ্টি
লক্ষ্ম
সাধারন
##hem
যেন
ইহুদি
mon
গবেষণার
##ধে
##ইয়
##কলা
##িসে
bi
কাত
রুট
প্রিন্স
##ara
ষষ্ঠ
ভাগে
পর্বে
ইন্সটি
যাচ্ছে
প্রত্নতাত্ত্বিক
##র্নাম
লর্ড
অনেকগুলো
##বাহিনী
চলাচল
সেন্টার
নেপাল
প্রকৌশ
পর্যবেক্ষণ
##্টিক
ত্রি
কার্ড
transl
##ব্যব
কের
ক্রিস
জের
অজানা
##র্গ্যাল
হাইড্র
পাকিস্তানি
##bs
##গ্রহন
লাভের
সাহিত্যে
##ইর
##ঞ্চল
ear
আকাশ
জয়ী
নন্দ
সমাধ
বিশেষত
##ium
##হান
ভা
কায়
##me
অধি
##্যাঙ্ক
000–
ভগ
##োর্স
##টাল
(0
##িত্য
lib
মীর
হিজ
অপারে
থাকায়
তত
ইউএস
শাস্ত
##সিন
##োরের
স্বপ
শেষের
আর্থিক
##nal
##ক্রমে
##িয়াক
সভ্য
কার্যক
##দূ
নাইট
নিউক্ল
জানুয়ার
##ামত
vi
অ্য
##বিরোধী
ঘূর্ণ
ফার্স
সিঙ্গ
কর্মী
নজরুল
##ম্
##কলক
ইন্ডিজের
##ব্রি
##েন্টে
##সম্প্রদ
##োসিয়েশন
##মুনা
##লগ্ন
##্যাং
জার্ম
তৈরির
##ঝি
##জেন
বজায়
সংশ্লিষ্ট
##ঙে
##কুল
##clud
মক্ক
##যা
খ্রী
ম্যাগাজিন
##প্রে
##ভঙ্গ
অবি
ঔপন্যাস
##মল
##বিল
##স্ম
ওর
act
arch
public
অফিসার
##ev
##বারে
নদীতে
বন্যপ্র
ভিক্টোর
##রেট
কুল
ফিল্ড
বইয়ের
লাইব্র
##শায়ারের
স্কুলের
নির্বাচনী
##বোধ
##পরিব
ফিন
হিসেবেও
জার্মানির
সেকেন্ড
##ety
(,
আগের
পর্যায়ের
##lam
el
সক
ল্যাব
আম্পায়ার
##টেক
##েতন
নো
##ific
তীর
আচরণ
কিনা
বিক্রম
ব্রাহ্মণ
বিচ্ছিন্ন
##ke
##প্ল
##িওন
কমন
##নির্ম
শিরোন
শারীরিক
সংখ্যার
সদস্যদের
##ছা
##ines
sec
##বিজ্ঞানে
বর্ষসেরা
##গতি
##িনার
ভট্ট
মার্শ
অপেক্ষ
##জন্য
বদলে
স্পেনীয়
##ীর্ত
ঝুঁ
পুনর
প্রমুখ
বিপরীত
সমাজের
##াসন
যাব
পদ্ম
পরমাণ
বরাবর
##টিউ
পেয়েছেন
ঔপন্যাসিক
বিজ্ঞানের
তল
কেপ
খেলেছেন
##উপ
পৌঁছ
আবির্
##".
##ণি
one
##িয়েল
পেছ
শ্ব
উপরের
তিনিই
##স্টার্ন
বৃদ্ধির
অনুপ
ফাউন্ড
##আপ
##চনার
হ্রদ
বর্ণের
মহাসড়ক
স্বাভাবিক
##ix
##বেল
##াগ্র
pre
প্রশ্ন
##এটি
up
হেম
##হত্যা
গণের
##ery
##ল্দ
indian
পরিচালনার
ব্যবসায়ী
gl
ঔষ
##কিছু
পাপ
ডাকা
বিশেষজ্ঞ
জা
##ম্মদ
##াগরে
করায়
পরিষদের
আক্রমণের
সমন্বয়ে
##দশ
বাছ
আচার
বইটি
চার্লস
বাজারে
ফাইনালে
স্ত্রীর
সংক্ষিপ্ত
$
##িডি
##টারে
আজিজ
নেমে
পেতে
পৃথিবীতে
##চেল
কাস
দাম
##াগুলি
এখনো
হ্রাস
কূ
##্রেট
তরঙ্গ
##ংসা
##কাহ
##াপিত
ইমাম
রংপুর
প্রজনন
সমালোচনা
আমলে
ইলেক্ট
পত্রিকার
সম্পাদনা
##ute
পেন
দেহের
পালিয়ে
##াদুর
পিএইচ
ইউরোপে
##জিৎ
##রীণ
বেই
আকৃতির
স্বীকার
গর
ডল
বন্দ্যোপাধ্যায়
##be
##যে
##চ্ছেদ
##তাবাদী
##সাদ
মেশ
##ফিল্ড
চলতে
দায়িত্বে
মুখোপাধ্যায়
##ডের
##র্ট
##হির
প্রতিনিধি
বিশ্বব্যাপী
অন্তর
কমিটির
জানায়
রাজ্যে
পদ্ধতির
শাস্ত্র
সোসাইটি
##ss
আখ
##্থান
***
work
কার্যকর
off
ডাই
##বৃত্ত
জয়লাভ
সীমানা
নারায়ণ
মাটি
কার্ল
শাখার
সেঞ্চুরি
##বেগ
kh
ভল
জিয়া
অংশগ্রহণের
##sp
bar
অনুষ
ফ্রে
জ্বাল
সহযোগী
##খিল
সূরা
##াবদ্ধ
##িশনের
char
করবেন
চাকরি
হ্যার
সম্ভাবনা
সল
##িশ্ব
##িয়োগ
হালকা
ভাইরাস
সত্ত্বেও
##ick
##শ্রে
জাফ
দুজন
জাপানি
(),
ডক্ট
জ্যাম
##টল
##ank
প্ৰ
##ওয়ের
গুয়
টিকে
##att
শত্র
কয়েকজন
##ধ্ব
##ular
has
সোম
স্তর
মালয়েশ
##uro
উড়
এনে
খরচ
##lo
##বাই
..
##ুনের
শাসনাম
গার্ড
মোবাইল
সিনেমা
br
##র্জা
আহত
##পুত্র
রাজার
##েটের
##্ফোর
##্রাল
মহাকাশ
যুক্তি
আবদুল্লাহ
##...
##োদিত
চিন
কোনও
সন্ধ
হাঙ্গ
নির্বাহী
##ঘু
##iel
পঞ্চায়েত
##োহিত
আখ্য
পুনঃ
মাতা
##জিয়াম
শ্যাম
পরিস্থ
##line
##বর্ণ
কারনে
মাঝামা
##দণ্ড
##ীপুর
পৌর
কিছুদিন
##্বার
##ত্যাগ
##ার্থে
মঙ্গ
রানে
##ফেয়ার
অর্থে
min
মুম্বাই
কর্ন
তুরস্ক
ভেঙ্গে
স্থানের
##gan
##এনএ
##পঞ্জ
##ুরের
অবতী
মূর্ত
নেয়ার
প্রায়শ
দৃ
##াতেই
##ত্বের
মানে
##্যাক্স
মাটির
শিষ্য
উপস্থিতি
কর্পোরেশন
##cess
মেনে
সৈনিক
##বৃহ
লিপি
মুজিব
হার্ড
##’।
##বয়স্ক
টেক্স
##ক্ষেত্রে
অবতীর্ণ
ভেন
life
মুখে
##বর্তিত
তিব্বতের
শ্রীলঙ্কার
##সভ
কিন
কোল
ডাল
##বঙ্গের
আওয়ামী
গ্রহণের
##ীণ
##দাদ
##ছাত্র
##্যাক্ট
award
বিশেষভাবে
নামানুসারে
উর
মঠ
##্ত্শ
অবদানের
ওঠ
##velop
##ম্বুজ
ইয়ে
পন্ডিত
সেগুলো
থিয়েটার
##শাল
##lish
করতো
তুর্কি
দিল্লি
ব্যাপকভাবে
##বুল
চায়
পত্রিকায়
সংস্কৃতির
##-0
স্টু
##ise
##বিন্দ
মাহমুদ
আখ্যায়িত
##ইসলাম
মতবাদ
সপ্তম
পরবর্ত
দিয়েছে
ধর্মসম্প্রদ
##কত
##har
##ব্ল
##ুলা
পাখির
মধ্যেই
##োকা
##ৃষ্ঠ
বয়ে
ব্রো
ব্লক
আন্তঃ
##স্থানীয়
গেমস
বিধানসভা
ফি
সর্বমোট
সরল
আশ্রয়
শন
রাগ
উচ্চারণ
##amp
##দ্দীন
##ায়েল
স্যাম
পুরাতন
জার্মানি
("
##ater
##র্দু
camb
পাণ্ড
language
তত্ত্বাব
##ren
তম
##ames
##ibet
ter
চাহিদ
আয়োজিত
উন্মুক্ত
আনুষ্ঠানিক
##নাগ
##মন্ড
other
ডানার
বিকাশ
##lad
##বাহিত
ওয়েব
অবশেষে
##ts
##ৃক্ত
পাঠানো
উজ্জ্বল
পুরস্কারের
##inal
##কামী
মাউ
##ature
##াকারী
##জার্মান
##সাময়িক
অসুস্থ
##af
##িকারী
কাশ্ম
উন্নীত
##ভের
গল
ঘিরে
রহস্য
includ
কাঠামো
দেশটির
সংঘর্ষ
বৃহত্তর
##সাই
my
ভবনের
উন্নতি
fran
এশীয়
নেদার
##olution
সম্মিল
##ুয়াল
উপনিষ
উপমহাদেশের
##ম্ত্শ
##োবিন্দ
অনুরূপ
চিন্তা
মেট্রো
বিপরীতে
ব্ল্যাক
মহাসাগর
সার্ভিস
##পদক
##ress
##গতের
উদ্বোধনী
ভাস্কর্য
##পাকিস্তানের
##দৈ
##কাঠ
লিন
ফাইল
যৌথভাবে
##টপ
##দেশে
খার
নিল
##াকালীন
খুলনা
pa
tw
##িয়াজ
বাছাই
0000).
মায়ান
সেন্টি
##াচ্
নৈ
##ital
##র্ঘট
american
##তুল
ox
##একটি
##ুধর্ম
কবির
##জী
et
##ছড়ি
##সভার
##order
টেনিস
##েন্টাইন
বস্তুর
##াদ্দ
গায়
ছায়া
পোশাক
##sy
##জিত
##হাই
##িনো
সুম
##ative
##png
##edia
##ফর্ম
pal
কবর
##ষ্ঠিত
##গ্রস্ত
ব্যাস
develop
বন্যপ্রাণী
ফো
##্নার
পলি
##rop
##ণ্ডল
সড়
প্রিয়
পূর্বের
নিয়োজিত
আনুষ্ঠানিকভাবে
রাত
গঙ্গ
রক্ষণ
##শের
##ঘা
##লেই
##র্কের
##বাচক
##রেখা
##িরাম
হুস
গম্বুজ
স্তম্ভ
##নিম
আওতা
গানে
বৃক্ষ
but
দ্বীপের
বৌদ্ধধর্মের
##',
##ণা
মহা
করলেন
##িকাল
মাপ
##ুয়েল
##ournal
স্বতন্ত্র
সত
সৌর
prog
গাড়
বসতি
##ফরাস
গির
মেন
##বস্তু
##শাসিত
রপ্ত
##গঠ
##ডো
##াংশে
##িতেন
publish
মনোনয়ন
##itt
শৃ
##স্কো
##িমান
হাফ
রাণী
উপনিবেশ
বিষয়ের
প্রযোজনা
##দো
##সেফ
আয়ত
আর্ট
উদ্দিন
গান্ধী
উল্লেখ্য
ক্যালিফোর্নিয়া
##মালা
sup
##ished
also
##ড়িয়া
মানের
স্বয়ং
কেবলমাত্র
গোয়েন্দা
dav
চেন
রয়
খোলা
দৃষ্ট
ফাস্ট
রোগের
##ক্ষেত্র
খেলোয়াড়ী
ব্যবস্থাপনা
##rab
##মধ্য
হিউ
##বদন্ত
phil
একত্রে
##chn
এভ
##িয়ের
আর্ক
কল্যা
##স্র
##ন্দন
খ্য
##াগারে
have
##ography
মাঝামাঝি
##শৈ
##টিই
ঘাট
pres
গঠনের
বাগান
edition
ডানহাতি
##বাহিনীর
কার্যাল
ফিলিস্ত
##সদ
উইকে
আত্মপ্রকাশ
রবি
bang
মাতৃ
স্যা
রেজিম
u
their
প্যান
##ject
##বর্ধ
পয়েন্ট
রাশিয়ার
##জীবী
গিল
cult
কোয়
পড়ার
সময়কালে
জাতিসংঘের
##ফর
q
জৈব
মাজ
স্থল
পারেননি
সন্ন্যাস
হিট
নায়
কৃত্রিম
সমসাময়িক
চট্টগ্রামের
##।।
##কারে
form
জীবনী
বয়সী
(0000),
প্রদানের
##sc
তরল
অশ্ব
গানটি
বাচ্চ
ভৌগোল
সাতটি
সাহসিক
দেখিয়ে
##াইম
##ople
##rist
##ুলার
##উত্তর
পরিবেশন
বিলিয়ন
##েধ
##তারা
ওয়ান
মিনিট
সিরাজ
##্যান্ডের
প্রশংসা
মন্দিরে
কিংবদন্ত
প্রত্যক্ষ
ম্যানচেস্টার
##পথে
##ures
অনুমান
অনেকটা
অবশিষ্ট
গোত্রের
শর্ত
tibet
স্থির
কার্বন
একাডেমী
স্থানান্তরিত
কালে
উত্তরাধ
ক্যান্স
টুর্নাম
গিয়েছিল
মদ
শাক
সেট
করিম
বিস্ফোর
সাধারণভাবে
##েন্সি
নারীর
লেখার
মুদ্রা
ব্রোঞ্জ
সাক্ষাৎ
অক
দোক
আসতে
পারবে
##শ্রেষ্ঠ
##ons
খবর
বন্দী
পানিতে
অনুসন্ধান
অভ্যন্তরীণ
##সুর
হাদ
শূন্য
##ডাব্লিউ
দুর্বল
শিশুদের
ইন্সটিটিউট
##করা
##শান
##টনের
##ember
##ুখি
রাহ
খ্যাতি
হয়েছিলো
##ব্ধ
ট্রফি
##ৌধ
বহুল
মেলা
উপস্থাপন
##ala
##তুর
উন
reg
লেজ
##পেক্ষ
আলেক
বাসা
ভেঙে
##তলা
##ভাল
ঔষধ
কয়
পেরে
ওয়াশ
সম্পৃক্ত
##inn
books
শব্দটির
টেকনোলজি
cambridge
আধ্য
south
বিবেকান
উপন্যাসের
সিঙ্গাপুর
আফগানিস্তান
##gy
##কেও
##শ্রুত
ফরিদ
##টান
##ব্জ
##লাইট
ঘন্ট
মেজর
শরীর
গাড়ি
ত্রিপ
প্রাচীনতম
আয়ারল্যান্ড
##ura
ঘরে
বাইরের
##ধন
চম
তোলে
আব্বাস
ফ্রাঙ্ক
কুমিল্লা
প্রকাশের
বিচারপতি
##own
তেজ
হুগ
##ভাগের
আবেদন
মহাবিশ্ব
ডেভ
##সঙ্গে
রেখা
তাছাড়া
##air
##মিশ
##ূপে
টের
সের
ভ্যাল
জনগণের
##ll
may
তৃণ
##পন্থী
##ব্রিজ
উপকূ
society
##বাং
bu
##েশনে
সচিব
স্মরণ
##শ্রীলঙ্ক
লন্ডনের
পার্বত্য
##াজি
##সংস্ক
##ুয়ান
এরকম
কমলা
গোলে
##িস্টার
সিন্ধ
##ব্রিটিশ
##সুল
##জডেন
পৌছ
আগেই
##গতভাবে
মহকুম
ম্যাস
ইসলামি
স্তরের
উইন্ডোজ
ফেব্রুয়ার
হিন্দুধর্ম
##ডেম
##াসহ
ওষ
##তাকে
mad
শাল
অনুরোধ
সংক্রম
মুহাম্মাদ
স্টেডিয়ামে
##ডিস
##টারি
তির
বোঝানো
##হল
##par
##ইউর
শর্ম
##াণিতিক
পরস্প
পাথরের
বরিশাল
science
গণিতবিদ
পিএইচডি
##ফু
##পাই
##cent
গণেশ
রাউন্ড
গ্র্যান্ড
ম্যানেজার
##ষ্ণব
অষ্টম
বিয়ের
কৃতিত্ব
##চাঁ
ঘণ
বুক
পরপর
লীগে
পরিমাণে
মন্দিরটি
সীমাবদ্ধ
উন্নয়নের
দুঃ
##ল্দান
আবহা
গোষ্ঠী
মাত্রা
ক্যাপ্টেন
##au
gro
এটিই
##সামরিক
ফে
state
কোর্স
পালিত
ইন্দ্র
##ock
উপস
হ্র
##য়েফা
মুখোম
যায়নি
সন্ত্র
ভৌগোলিক
কর্মকাণ্ড
মন্ত্রণালয়
ف
##ars
##ন্ঠ
::
##ামিন
##ালীর
##ধর্মী
cell
ওভার
দপ্তর
পুকুর
বিরাট
বুঝতে
সমিতি
নিউজিল্যান্ডের
##ca
##কোষ
##লিন
হির
সংকেত
শরীরের
অপারেটিং
সম্ভাব্য
##মৃত
##্মা
##শনের
জঙ্গ
ব্যাং
##idae
মিউজিক
খ্রিস্টান
##োড়
রোজ
##িন্দা
এক্ষ
গ্রেট
নাগাদ
বিপুল
##ুজ্জামান
পুরুষের
##ওর
রুম
class
কিভাবে
বিনিময়ে
brit
পোর্ট
প্রথা
ভূমিক
অপরাজিত
পাকিস্তানে
##খর
أ
##জাহ
##্নে
ঊন
চোখ
লাখ
গাজী
স্বাদ
পারিবার
স্টুডিও
প্রকৃতির
সঙ্গীতের
##হাজ
##বহুল
##বাসী
চিল
পরেই
অসাধারণ
মানচিত্র
কংগ্রেসের
মুসলিমদের
##জিন
##পাদ
##ower
##ভূমির
উচিত
##ladesh
রূপান্তরিত
ডেন
##ক্ষত্র
আলেকজ
হামলা
মুখোমুখি
এঁ
##াহার
sur
##মুক্ত
স্তরে
সংসদীয়
নির্মাতা
##ার্ক
কেম
মোর
##শ্বিক
list
polit
অর্ডার
উদ্ধার
কর্মসূ
ডিজাইন
তিব্বত
ব্লকের
স্বর্গ
ডাব্লিউ
দর্শনের
শিল্পের
##ব্জাং
year
জগতে
ভালোব
স্পষ্ট
দর্শনীয়
##ha
##ham
পিক
এলাক
বিদেশী
অবস্থার
স্পোর্ট
##ুচ
##ঃপর
##তাদের
##পালের
অনুমোদন
মৌসুমের
এক্ষেত্রে
ل
##urn
এট
pra
মুন
ওষুধ
স্ট্রি
ক্ষমতার
সূর্যের
শিক্ষাবিদ
##ird
rev
যৌগ
পারত
রাতে
শ্রেণীতে
হাসপাতাল
কুরআ
কেটে
সুইড
##ক্ষেপে
প্রাসাদ
ক্যাথলিক
প্রদর্শিত
পরিবর্তনের
যুক্তরাজ্যের
##my
oxford
বিন্দু
ইংল্যান্ডে
প্রতিরক্ষা
##দহ
থাকলে
বসন্ত
##শাস্ত্র
অ্যাকা
ডানহাতে
অনুষ্ঠানের
##ze
##ris
ইহ
দো
##গণিত
##োলার
হৃদ
##ঞ্জেল
##মারের
##্যস্ত
##কোত্তর
মানিক
সুরকার
হাসপাতালে
ب
##cial
##ুদের
বিবরণ
##াবা
ছু
সৌন্দর
##ূন
##ake
##কোন
ফাই
সন্
##erman
##কার্য
সেটি
##ভূমিতে
ইন্দো
##bl
##to
##ন্দা
##চারের
গোলাম
ভিক্ষ
bas
cor
কাক
##টিয়া
নেদারল্যান্ড
##সেস
বেতার
সংগঠিত
কমান্ডার
##িস্থ
বোধ
সংয
সন্ধান
ইতালীয়
প্রচারিত
এক্সপ্রেস
##মুখী
গুগ
জনক
পতন
text
আস্ত
সৃষ্
##শ্বরের
নদীটি
বলিউড
লাতিন
মিশরীয়
কেন্দ্রে
##বত
##্মি
কনফ
গাই
খন্ড
সাহেব
instit
করেননি
যেগুলো
শাখায়
জড়িয়ে
স্বাগতিক
কেন্দ্রের
সেন্টিমিটার
পোষ
##বন্ধু
0000–0000
pers
ফ্লাই
বর্গক
উপলক্ষে
বিষয়টি
পারিবারিক
##জুন
tr
খনন
সোহ
##ন্দাজ
ভেতর
নাটকে
অবশ্যই
কির
লেক
##মাণবিক
দেয়াল
অপারেশন
রাশিয়া
দিনাজপুর
ক্রীড়াবিদ
##ink
##ten
##ফেল
##ন্তু
(00
গেল
নুর
##ating
দুইবার
শাসনামলে
##ষ্প
sw
tem
##েক্ষা
studies
উপদ্বীপ
সাময়িক
##মিড
##ুষ্ক
গুহ
##বাড়ি
সার্ক
হ্যারি
সংবাদপত্র
স্নাতকোত্তর
##of
##এক্স
##পাশে
ফয়
বাঁধ
ক্রোম
দক্ষতা
সংলগ্ন
রামকৃষ্ণ
নির্বাচনের
##ুন্ট
মজুম
##ays
##িমে
##ফতার
sub
অমর
দশম
আলোর
কালী
##প্রায়
অতঃপর
গীতিকার
নিয়ন্ত্রিত
##াথ
##প্প
kn
উড
##িজাত
ফসল
জাফর
ডোমে
##শায়ার
পোস্ট
একসময়
##শ্রুতিতে
william
গবেষণায়
সন্তানের
মোক
রিজ
ট্রে
একসাথে
অভিজ্ঞতা
কণ্ঠশিল্পী
out
অবর
পুঁ
colle
great
আরম্ভ
ক্ষয়
সহজেই
##ali
##enn
নল
##আমের
##ement
ছোটো
নর্থ
অভিনীত
বিপ্লব
তুলনামূলক
যুক্তরাজ্য
sm
##শক্তি
##াবশেষ
ফাংশ
জুনিয়র
গ্রন্থাগার
প্রোগ্রামিং
উদাহরণস্বরূপ
##’,
রৌ
ফেন
বাইজ
চিকিৎসক
প্রযুক্ত
##ভূতি
অবধি
বিনিয়োগ
থাইল্যান্ড
পরিচালনায়
##উড
##org
##রক্ষক
##িয়েন
উর্দু
ড্যান
বাতিল
অসমীয়া
চরিত্রের
মল
##অর্থ
চুল
লাহ
উষ্ণ
তারকা
দেবীর
মিনার
ফাইনাল
program
প্রসিদ্ধ
##era
##রিশ
##ৈত্র
hum
যাই
dist
এসিড
মল্ল
মায়
##িস্তান
techn
টার্ম
সরিয়ে
একত্রিত
টেস্টের
কর্মকর্ত
ওয়েবসাইট
##সীম
##uddh
পরম
ভঙ্গ
পাতার
অন্তর্
টাওয়ার
প্রাণীর
অলিম্পিকের
নন
##ধরনের
কমিউ
যশোর
david
ভেতরে
অর্ধেক
শীতকালীন
##ull
##সূচক
##বাড়ী
##াগুলির
বায়ু
মিয়া
জলবায়
শেয়ার
ইসলামিক
নির্ণয়
পেয়েছিলেন
##ঙা
চান
উদ্ভব
হ্যাম
স্নায়
সাহসিকতার
##াকু
হোক
##ওলানা
খেলতে
কারখানা
গ্রুপের
কৈ
বৈষ্ণব
আওতাধীন
গিয়েছে
পারদর্শ
সন্ত্রাস
প্রকল্পের
অপেক্ষাকৃত
প্রভাবশালী
##ool
টন
der
time
সমাজে
##duction
বর্ষপঞ্জ
##স্তা
কেল
যেত
দুর্
সর্প
কামাল
নক্ষত্র
##মুসল
##স্তক
বৈদ
##সংখ্যক
আরোহণ
স্পর্শ
ভট্টাচার্য
##ক্তা
##বৃহৎ
##িমের
সংক
##োজনের
##াবলম্ব
##্রান্ত
##পশ্চিমে
মন্তব্য
মার্টিন
রাজকীয়
##োমা
##িনাল
ইরান
পরাজ
islam
জোড়া
ধারার
resear
সামনের
##্বে
##ড়ির
##মনের
মাগ
ডিজিটাল
ব্যাবহার
সম্মুখীন
বিদ্যালয়টি
##চক্র
##ুষ্প
কাচ
হেনরি
মাটিতে
উদ্বোধন
বিবর্তন
সমস্যার
প্রতিস্থ
সম্মাননা
ফলশ্রুতিতে
##চির
##স্তান
আসাম
মহার
চালায়
নিয়েছেন
মুসলমানদের
##ان
##ely
##ime
##েবা
##মী
মাধ
কুরআন
ঘটেছে
united
##গাহ
##িল্ল
ঠোঁ
পাদ
ভুট
লিও
##ক্ষ্ম
##াদেশিক
##ুদ্রিক
বেঁচে
অধিবাস
ঘনিষ্ঠ
মার্শাল
প্রকাশনা
নিকটবর্তী
##হারে
bet
##িক্ষেপ
রেলপথ
মুক্তিযুদ্ধের
##য়নে
দেল
##্যালো
sign
##েন্সের
পৌঁছে
##lex
##বাজ
##কেরা
##ানন্দ
উত্তম
theory
ছবিটির
বিস্তারিত
প্রতিষ্ঠানটি
##জম
bra
ret
who
পিপ
##র্মান
##্রিয়
অভয়
উদ্দ
ফেলা
উপায়
জামাল
তন্ত্র
##জনিত
##্ত্স
কাই
খোঁ
বাঙ
##চনায়
ব্লা
অব্যা
উপজাত
সান্ত
পৃষ্ঠপো
মানুষকে
##li
##্কার
কূট
কৃষক
মিশন
##প্লেক্স
বিকল্প
##বর্তমানে
পরীক্ষার
কার্যালয়
cap
তবু
##্যেষ্ঠ
যাবার
অনুশীল
গোবিন্দ
গ্রামীণ
দাশ
দ্বি
উৎসবে
সীমিত
states
মিশরের
অঙ্গরাজ
সেনাপতি
ইলেক্ট্র
নিয়েছিলেন
##অস্ট্রেলিয়ার
our
##সূত্র
ওপেন
##াত্মিক
মহারা
নির্যাত
বৈচিত্র
সভ্যতার
বৌদ্ধবিহারের
##ংকং
মৃ
ধূম
অবতার
চর্চা
নিকটে
মঙ্গল
মাউন্ট
জানিয়ে
প্রজন্ম
পদার্থের
##als
##িসন
আউ
##iter
##ওয়েলথ
##মন্ত্র
আকর্ষ
গোপাল
গ্রাহ
ম্যাল
তত্ত্বের
##কাস
##রিন
##ুকু
কপ
##সনের
রিক
##োয়ান
কোম্পান
research
সম্পর্কের
প্রাথমিকভাবে
ডাব্লিউডাব্লিউ
##িজম
ইথ
টম
most
প্রব
লুইস
স্ক্র
journal
নেপালের
প্রতিবাদ
##ত্ন
high
##শিক্ষা
found
গ্রাফ
যোগ্য
ইরানের
বালিকা
শাসনের
##ott
##সাং
##ুইন
##ুলি
##কারীর
aust
পেলে
পুণরায়
গ্রেফতার
পাকিস্তানী
##mad
##গরি
##িজি
গন
##ালান
রেস
##িয়েট
লামা
সমতল
##যুদ্ধে
স্পেন
##াপেক্ষা
অনলাইন
অধ্যায়
প্রশাসন
সম্মিলিত
##বৃ
শরী
best
কঠোর
জমির
টেলি
তুলনা
##িমার
পড়া
কানাড
##ization
দুর্ঘট
বাদশাহ
যাত্রী
অভিযানের
এয়ারলাই
প্রতিদিন
##জাম
##্কেট
rom
টিন
##uring
cons
কথিত
ছায়
ফার্ম
অর্জনের
গাণিতিক
##--
বগু
মরু
beng
sing
ইয়ার
একুশে
চুক্তির
প্রান্তে
সর্বাপেক্ষা
##une
##আন্ত
##খন্ড
##ন্নাথ
জনের
টাউন
দর্শক
শুক্র
##ভারতবর্ষ
গ্রেপ্ত
পারমাণবিক
পার্শ্ববর্তী
খ্রিষ্টাব্দের
##ius
##let
##ির্
mag
ত্ব
অভাব
সুলত
##পরিচিত
লোকের
রায়ের
ছাত্রদের
ভূমিকম্প
খেতাবপ্রাপ্ত
##ky
##পরে
শ্ল
আজাদ
ঊনবিংশ
##0"
ভোগ
##কর্মী
rich
অপ্র
দম্প
পেছনে
সংকলন
সুপ্র
inform
হুমায়
সফরকারী
ইংরেজিতে
প্রশান্ত
প্রাদেশিক
ফাউন্ডেশন
##gh
##mon
খ্রিঃ
জয়ের
দায়ী
মাতার
স্পেনের
hy
##ারিত
sim
##্যারা
বাধা
ক্যাস
টাঙ্গ
মঙ্গোল
প্রতিফল
ফেডারেশন
##াত্য
##েঞ্জ
##ক্তির
বর্ম
border
উপযুক্ত
##eter
নোয়া
comput
সামুদ্রিক
##'।
##ুং
গ্রীক
প্রোট
##তাস
##পর্ব
লবণ
##স্থিত
মাংস
##iction
ব্যার
##অধ
##ble
##োকে
চরম
দীপ
শুন
দৌড়
##স্থায়
নাট্যকার
ইলেকট্রনিক
আফগানিস্তানের
##কিউ
...
লাগে
about
মাথায়
##oss
##সর্ব
##ুড়ি
mov
আসল
তান
মিডিয়া
##ভুত
ডিক
আগ্র
সবার
খাতুন
অস্ট্র
উপগ্রহ
##ঁচ
##ফিন
##ভোগ
উদয
ফজল
রেন
##র্শিদ
english
বোর্ডের
পৃষ্ঠপোষক
##,"
##িকেট
##ষ্টিত
বার্ন
জিম্বাবুয়ে
op
##গামী
##দেশের
বিনোদন
বিন্যাস
##গল্প
##চ্ছিল
##্যুতিক
পিছনে
বার্ল
হাবিব
ডব্লিউ
বাহাদুর
প্রকৌশলী
##ফত
##বিষ
##ভাষী
##াসনে
##িশ্চ
ষড়
##বিহীন
were
অভিম
অ্যার
ভিতরে
সুনাম
people
আওতায়
কোয়ার
এডওয়ার্ড
প্রদর্শনী
##পশ্চিমবঙ্গের
শিক্ষার্থীদের
##ভৌ
##ভেদ
str
##োত্তর
কেজি
চাহিদা
দাঁড়ায়
di
উম
রণ
##জনীন
ধাপ
##জ্জিত
ফুলের
মস্তি
ঈশ্বরের
অবস্থানে
যোগাযোগের
ع
##ভান
##র্স
##সুফ
ডেম
নবম
পালক
প্রশাসক
পরবর্তিতে
ii
##over
আগত
আশা
##ental
##দৈর্ঘ
##স্থলে
কমিক
##কাহিনী
ঘটায়
লেখেন
প্রসারিত
##ুখী
ir
##াবাস
ass
writ
একটু
বোয়
কার্ট
নামেই
মাজার
সমাধি
বাইজেন্টাইন
##ane
##uld
##বুক
লস
##="0"
under
সেনান
##ওয়েস্ট
histor
দ্রব্য
অঞ্চলটি
শিক্ষিত
ধর্মগ্রন্থ
ফট
##ুরীর
ফোন
উপদে
জনাব
কমেডি
ম্যাজ
##প্রাচীন
কর্মজীবন
##নামা
তের
গৌতম
পটার
##্যানিশ
আকৃতি
জীবিত
ডাক্ত
পাড়ে
সফলতা
উত্তীর্ণ
##any
prin
উপাস
বোমা
রীতি
##চিত্রে
অক্ষর
অক্সফোর্ড
##জাপ
##ouse
sol
সাইট
পাশ্চ
জন্মের
চলাকালীন
##ives
ইউরো
পরিষ্কার
আধ্যাত্মিক
##ket
##পান
সো
হু
##ript
জেল
##দ্বাং
তুমি
পতিত
##েন্ডার
##বিদ্যার
অনেকেই
সাগরের
রূপান্তর
প্রতিবেদন
##্ডিং
দুধ
ইঙ্গ
খিলা
পরিশ
বাঁশ
north
কাপুর
নিজেই
পুলিশের
##erv
##yle
শাহর
##াপ্তাহ
##াবাদের
##্ভার্ড
পায়ের
বাড়ির
অধ্যক্ষ
মজুমদার
মাইক্রোস
##বাধ
##ুদা
ডু
##istan
নৌকা
উৎসর্গ
আল্লাহর
গোল্ডেন
স্থাপনের
সহায়তায়
জাতীয়তাবাদী
অট
##্নাই
##round
orig
##িয়ানা
স্বপ্ন
##ret
##ফুট
##arch
ঘুরে
##িভুক্ত
সোনার
##।”
##min
উজ
inv
##কারের
##নিম্ন
##স্তফা
phys
চোখে
##মন্দির
তদন্ত
হামিদ
স্পোর্টস
##omb
##হাম
##রাচর
air
ডিভ
নগরী
সাধন
##ৃষ্ণের
অসমের
পড়তে
সাধারনত
নির্ভরশীল
##gen
dep
##নোবেল
ক্রিস্ট
পাহাড়ের
বাস্তবায়
##0,
##oll
##চাই
go
তহ
ent
mil
nov
pat
শুভ
স্থিত
##র্জাতিক
ডোমেইন
মসজিদটি
স্থানান্তর
development
##ator
##ists
##ালাভ
জোট
এসআর
পাইল
robert
সমীকরণ
পদক্ষেপ
পরিবেশে
প্রজাতিটি
##গল
##র্জন
##োক্ত
হেড
##স্থার
west
গোপন
##ন্ত্রে
##াদানের
পাঠান
লন্ডনে
সবসময়
##ঙ্ঘ
##ফেন
ইট
মণ
##ফাইন
##িন্ট
আশেপ
গড়েন
সন্দে
প্রণয়ন
পুরস্কারে
পদার্থবিজ্ঞানে
##িঝ
##ডোর
##-000
##বন্দ
##ভূষণ
##ীভূত
##্টিং
##ইউরোপ
##ব্যাক
আগ্ন
আটটি
উপহার
ভূগোল
century
ক্ষমতায়
আর্জেন্টিনা
প্রজাতন্ত্রের
##গ্ল
es
লর
আংশ
উৎক
অশোক
##শ্রুতি
অ্যাশ
সচেতন
কর্নেল
সদস্যরা
অ্যান্টি
ব্যক্তিদের
##ger
##ইয়া
টেম
ডোম
সাফ
সহজে
elect
আরবের
মাছের
পাউন্ড
জগন্নাথ
অভ্যন্তরে
বৈদ্যুতিক
স্বর্ণপদক
মহাবিদ্যালয়
##ীস
##রাফ
##্যিক
ঘটন
over
পারস্য
ব্যাক্ত
মেক্সিকো
প্রার্থনা
##তিনি
##ামীর
val
চেক
##ident
উয়েফা
গেমসের
অধীনস্থ
বিক্রয়
সৃষ্টির
বিরোধিতা
##yl
##বেক
গত
##iver
##বাংলার
কুকুর
তিনজন
ব্রিট
##াপ্তাহিক
প্রচেষ্টা
##nd
চক
##স্থানে
দুইজন
নাসির
উদ্ভাবন
উৎপাদিত
##গি
ي
##থাও
##াবী
##্সি
##াঞ্চল
used
দুটো
##যাত্রা
কারিগ
চোখের
থেকেও
হচ্ছেন
পূর্ণাঙ্গ
bangladesh
খ্রিষ্টপূর্ব
##নেস
##ার্চ
ইবন
টিম
ফোর
কলেজটি
ফার্সি
##াবন
##ুকা
##েইল
গের
সরু
হুই
ঘোষিত
##ological
উপস্থাপ
##শু
##ama
##দুর
##র্পণ
00–
ইসম
নূর
##urope
##ত্তার
##ষ্টার
ব্রড
রচয়
বন্ধন
সুপরিচিত
গ্রেপ্তার
##লিশ
av
met
ডেল
সুখ
খনিজ
গ্রাউন্ড
##জয়
##রান
##soci
##্লাস
ইনফ
ডাচ
##পোর্ট
ডিএনএ
ফিরিয়ে
প্রতিযোগী
কর্পোরেশনের
##ada
##াসি
##োটি
def
##্যাংক
land
buddh
গিটার
উদ্ভূত
দ্বীপে
ভালবাস
##ied
##ove
##দূত
মোঃ
জরিপ
পঞ্জ
0র্থ
##মুসলিম
##সঙ্গীত
কাঠের
ব্যান
পর্বের
বক্তৃত
প্রদেশে
ওয়াশিংটন
##ম্য
##ামাণ
অসাম
একদিন
কেননা
পাঠ্য
পারেনি
##ধ্যায়ের
মুর্শিদ
0000-0000
##াপি
##েনি
##amil
লিব
অ্যাথ
খৃষ্ট
যানবাহ
আগ্নেয়
মধ্যপ্রাচ
##াখ
##গ্রাহ
আঁকা
নিষেধ
উপাত্ত
নাটকের
মালিকান
তালিকাভুক্ত
ফিল্মফেয়ার
##টিভি
##ধারা
##হত্য
##র্গের
দৃঢ়
ইনিংস
প্রবল
সমষ্টি
হত্যার
##মেট
##হাতি
law
দের
হোল
##রণীয়
আদালত
কানাডা
সচরাচর
আদিবাসী
অতিবাহিত
বিক্রিয়া
শিক্ষাপ্র
প্রকৃতপক্ষে
##।.
##আম
##ভিষ
ইজ
##ফেসর
##াবেশ
আটল
করি
##ঙ্গাল
after
এজন্য
গ্লোব
দলীয়
অঙ্কিত
কমপক্ষে
মুক্তির
##ুড়
ca
##াতিক
gov
##মধ্যে
অ্যাট
আবাসিক
মাঝারি
দৃশ্যমান
##আন্তর্জাতিক
##োপাধ্যায়ের
চলচ্চিত্রটির
##ym
##থন
##মতে
এপ
##ীরাম
ধাতু
0ষ্ঠ
##স্পষ্ট
delhi
record
সংগঠনের
কার্যকরী
{
##চিক
উমর
##যুগের
গবেষ
জুটি
##োনিয়া
অন্তত
বক্তব্য
বিষয়বস্তু
##ৃক
##উইন
পদ্
##ন্ডার
বোঝা
##ুলিয়া
অত্যা
মাদ্রি
কমপ্লেক্স
ব্যবস্থায়
##গ্স
##তাম
##্নী
how
ঝাঁ
মাক
some
স্বর
জোসেফ
চালানো
মহকুমা
হাওড়া
ভিক্টোরিয়া
ফস
ফেস
জলের
ফ্লোর
ভাষাতে
স্থপতি
সেঞ্চুর
অস্বীকার
সর্ববৃহৎ
প্রতিক্রিয়া
সৎ
##ঙ্কা
##াজ্ঞ
god
মেস
##কান্ত
মঞ্জ
0000:
দ্বিপ
languages
##শিপ
##েচ্ছ
two
অব্দ
ইরাক
দিলে
স্বায়
বিপ্লবের
##ুখে
dr
##cept
##ield
##left
##বেলা
bro
গাঢ়
##বর্তনের
কেপলার
সুইজার
বলেছিলেন
information
##ene
##িলিং
##োসের
mem
বৈধ
শৈশব
করেনি
ঘনত্ব
ক্লাবে
উদ্যোগে
মেয়েদের
পর্যবেক্ষ
দৃষ্টিভঙ্গ
খেলোয়াড়ের
মন্ত্রণালয়ের
শীর্ষস্থানীয়
##নকে
##-00.
##াগ্স
কাগজ
মদিন
হাড়
ইয়াং
কীর্ত
রাজনীতিতে
হাইড্রোজেন
##ex
##ৃশ
##''),
##িজীব
নাচ
libr
ইউনিট
ইচ্ছা
ব্রিজ
শ্রেণ
লিপিবদ্ধ
সাধারণতঃ
##নিউজিল্যান্ড
##ষা
##টিসি
জিও
into
মোহন
হোয়
count
আবদুর
কমনওয়েলথ
##pa
##po
##ংকার
##পতির
gre
##cture
আমিন
##ctions
কাপড়
প্যাল
করছিলেন
মহারাষ্ট্র
সম্প্রসারণ
##আফ
##বাক
##ough
##চলচ্চ
##সমূহে
##াকালে
দ্গা
অবরোধ
মাথার
##িস্তানের
মাওলানা
রিসার্চ
কর্মচারী
শিক্ষকতা
##রিত
##াইশ
##omen
চাচ
richard
সদস্যের
ফ্রান্সিস
ব্যবসায়িক
খেলোয়াড়দের
##গির
##ভুজ
ঋণ
##ন্ধন
##ান্ডা
লাইস
নৈতিক
স্মারক
কোম্পানী
পূর্ববর্তী
বর্গকিলোমিটার
##এবং
##গীত
inc
##ensis
আকবর
চলছে
##dition
অনন্য
তিনিও
বেইজিং
সেখানেই
স্বেচ্ছ
সম্মেলনে
অ্যাসোসিয়েশন
##ti
##ty
##উস
##কেন
gr
ইস
##পর্য
##িশনে
ber
হাশ
##নির্মাণ
কোরিয়া
জ্যেষ্ঠ
অনেকগুলি
পুরষ্কার
##oy
bh
##atic
##য়েস
##গ্রাফ
কন্ঠ
হংকং
ট্রাই
নারীব
বিকির
অপেক্ষা
অভিষেকে
ম্যাক্স
##অঃ
##অপ
##ision
repr
ইহুদ
চীনে
##ক্ষমতা
ধর্মে
ফ্রেড
বাক্য
associ
ধারণার
দিয়েছিল
সহযোগিতা
ধ্বংসাবশেষ
মধ্যযুগীয়
##je
##med
##তেই
##ওড়া
পরগ
কিনে
ধূসর
relig
দেখান
দেখায়
হত্যাক
ভারতবর্ষ
খ্রিস্টীয়
##চীন
ke
##icle
টুক
##জন্মঃ
##পৃষ্ঠ
##রাণিক
আরোপ
বনাম
##িংয়ের
modern
ইতিহাসবিদ
##'';
##ald
##্যক
ঋষ
আটক
সাস
##ওয়েজ
##স্টিক
##ামারী
আগুন
শিবের
ওয়েলস
পশ্চিমা
000–000.
institute
প্রেক্ষিতে
##্লাম
gra
nat
জমা
সুদ
##াত্রী
কম্ব
##কারীরা
right
কোথাও
##এশিয়ার
আগ্রহী
কমান্ড
##kh
##mer
cr
ডঃ
##orge
##ন্নি
বার্তা
সহায়ক
সমন্বয়
সময়কাল
আমেরিকায়
##ইংল্যান্ডের
##ume
নথ
##ারণা
তাজ
বনা
0লা
##0000.
##করণের
ইন্ট
জেলে
সভাপ
human
ধ্রুপ
রয়েল
পদত্যাগ
পর্তুগিজ
বেসরকারী
##ুহ
##গীর
##ড়াল
##ফটেন
##র্বর
ইউনে
christ
অন্ধ্র
ব্রাজিলের
##"-
##ভৌম
##াতো
su
টেলিফ
বৃটিশ
##নিবেশিক
##olk
##দেহ
##াইস
##াচল
##কল্প
আজও
কোণ
##দিয়া
##ফরাসি
##ওয়ালা
##োনাল্ড
মাদার
শর্মা
খেলছেন
মিষ্টি
মেয়ের
প্রামাণ
উপদেষ্টা
প্রায়শই
দাঁড়িয়ে
##োলন
city
dire
ভ্যান
সেক্ট
design
মিলিয়ে
মুক্তিযোদ্ধ
##ii
ভী
জাগ
মোজ
##াচুসে
জিনিস
আত্মসম
ইতালির
উভয়ের
আটলান্ট
থাকাকালীন
##ঘি
##আমি
##িসা
ধীর
##স্টের
তবুও
##মৃত্যু
ইয়ান
ডিভাই
##সাহিত্য
আর্দ্র
র্যাঙ্ক
##য়েই
##র্তন
##সিসি
রাউ
##ীগঞ্জ
##্পনিক
গৌরব
ছদ্ম
বিজন
জনগোষ্ঠী
সংক্ষেপে
সৌন্দর্য
আবিষ্কারের
##পী
##খ্রি
red
গোস
টিক
মেহ
শপথ
##দেশিক
ব্যত
সভায়
এদেরকে
রয়্যাল
সর্বত্র
আমন্ত্রণ
##নগ
##ner
##জিও
##pect
##ারেট
গেট
থ্র
more
ঘন্টা
নায়ক
সুভাষ
##তন্ত্রের
ব্যাপার
প্রতিবছর
আলোকচিত্র
##tr
##লন
##খুল
##পাউ
##াশা
##anda
ক্য
##ব্বিশ
##ুদ্দিন
স্মিথ
গণমাধ্য
বর্ধমান
ইন্দোনেশিয়া
##ِّ
##তলী
##ange
##publ
##বিটি
ভিল
হকি
ইউসুফ
নিষ্ক
পিতাম
প্যাস
কবিতার
বগুড়া
অব্যাহত
নিক্ষেপ
বিহারের
মিডিয়াম
সেন্ট্রাল
বার্সেলোনা
##ণীর
mor
তাস
ফাত
##লিঙ্গ
arab
king
উত্থ
ডানা
আর্টস
জন্যই
তোলার
ধর্ষণ
পুনর্
##স্থায়ী
খাওয়া
ছায়াছ
##দ্বিতীয়
বিশুদ্ধ
অবস্থানের
অর্থনীতির
অংশগ্রহণকারী
##’’
##লাশ
হি
cur
numb
ভারী
শিলা
প্রভাবে
বেরিয়ে
ক্ষেত্রেই
##br
##হো
##্লাভ
আলফ
##চ্যুত
##রিদ্র
ওঠেন
কক্স
সীমা
চব্বিশ
##ira
##ont
জলদ
রচন
ইব্র
জার্ন
যেমনঃ
রান্না
আবির্ভাব
প্রবর্তন
তাত্ত্বিক
##aka
##ংকর
##ঘরে
##ুলিপি
disc
করেই
ডাইন
##ুনিয়া
তফ
লী
অবৈ
টান
সরে
##ায়কের
const
ঘোড়া
জাহান
পুরোপ
সিদ্দ
সমিতির
অভয়ারণ
ক্রিয়া
সিরিয়া
প্রতিবেশ
সম্পত্তি
সাপ্তাহিক
প্রত্যাখ্যান
পদার্থবিজ্ঞান
##তাই
##মুর
##ংসের
বিছ
##osoph
রচনার
শুষ্ক
পেয়েছিল
আফ্রিকায়
##ka
##ছোস
##প্য
জগৎ
নাক
অগ্নি
অনুষদ
চালিত
উৎসবের
ছাড়াই
অনুসারী
বুদ্ধের
স্ট্রিট
ব্যক্তিকে
মায়ানমার
##ering
##ities
port
serv
##হিন্দু
island
কল্যাণ
রেখেছে
কুরআনের
বৃষ্টিপাত
প্রাপ্তবয়স্ক
ডাব্লিউডাব্লিউই
sa
##্বান
pap
অরণ
ক্রস
টাইট
খেলাধ
বংশধর
অভ্যুত
সিন্ধু
পুরোপুরি
বিতর্কিত
publications
##ja
##idd
##শাখ
##ড়াতে
শীতল
##াধিকার
চ্যাপ
দোকান
ইত্যাদির
বিজ্ঞাপন
সংখ্যায়
সর্বনিম্ন
##mo
##”।
##eum
##por
##র্গঠ
jul
দাবা
##িয়নের
ক্রয়
##োগ্রাফি
উপত্যকা
ঘূর্ণিঝ
বৈদেশিক
অণুযায়ী
প্রতিষ্ঠানে
##arg
##মিল
##লুগ
##্টে
mal
জাদ
নোট
কাটা
জারি
সেটা
হাউস
##কলকাতার
রক্ষিত
ক্যামের
ব্যাচেল
বেসামরিক
##ঙ্গো
সনের
পান্ড
##ার্টমেন্ট
জনসাধারণ
লাইব্রের
প্রক্রিয়ায়
##টিও
##cycl
অবত
long
কারো
ক্লাস
ফাংশন
বান্দ
হার্ট
##বিশ্বাস
রসায়নবিদ
সিস্টেমের
অর্থনীতিবিদ
##ler
##লিং
ধ্য
বিগ
##rough
আবিস্ক
উইজডেন
শাস্তি
কাশ্মীর
উচ্চতায়
##বতী
কুব
টেব
##ন্দরী
thom
ইংলিশ
মাঠের
পৌরাণিক
রচয়িতা
##গ্ধ
##সেক
##োনো
##সমাজ
##ষ্টির
টমাস
বেলা
study
আয়াত
আপেক্ষ
ফ্লাইট
স্বরূপ
##কাজ
##দিত
##লোক
##সম্ম
##conom
##লিখিত
যেটা
গেয়ে
বিক্ষ
মাসিক
সঙ্গী
ব্রাউন
##ব্স
##র্জে
##শাসন
শৈল
paul
ভিতর
##ডব্লিউ
ক্রান্ত
ব্যবহারকারী
##কর্ড
ele
ধরন
আগমন
আঙ্গ
ঘটান
জোড়
বাঁচ
মেলব
##রাউন্ড
অববাহ
জালাল
দ্বার
social
উপসাগর
গ্রহের
জাপানে
প্রাপক
বঙ্গোপ
##আমেরিকান
##ির্দিষ্ট
চেন্নাই
জলবায়ু
নেওয়ার
উৎপাদনের
সার্বভৌম
##0%
##ভো
##ৎপ
##রঙ্গ
বহিঃ
মুম্বই
লোকেরা
কাউন্সিলের
বিবেকানন্দ
গণতান্ত্রিক
##আউট
##্পাল
''(
সংখ
##নির্ব
mich
মামলা
ম্যাচের
হাইওয়ে
উদ্ভিদের
সম্মানিত
##িউল
pop
she
ঢাল
রাব
ক্লে
00টি
জগতের
দ্বৈত
পাত্র
বিস্ম
দিল্লির
অধিকাংশই
খল
##কম্প
##হিন্দি
ওয়াট
খালিদ
অনুমোদিত
কোরিয়ার
মস্তিষ্ক
বিমানবন্দ
লিখেছিলেন
##add
##ৎসর
##াবের
hol
পীর
সিস
##কুড়া
educ
ধ্রুব
দ্বাদশ
##বাড়িয়া
general
ক্যারিব
সিনিয়র
প্রকারের
##বক
##গাছ
##ৎস্য
mah
কুশ
##icial
##চীনের
##টেস্ট
vers
বৈদিক
online
পরমাণু
british
রিপোর্ট
##সংক্রান্ত
ব্যাটিংয়ে
##শো
##তীর
তলা
চিনি
হারে
পতনের
বার্ক
সরঞ্জ
ইংরেজী
সম্মেলন
##ওস
##ভী
##সপ
##ৃপ
##োসর
নও
নজ
##িয়াং
কাঁচ
বালি
বিপদ
স্কে
অবকাঠ
মেদিন
মালয়েশিয়া
##েগ
##dom
##োহী
##্দো
ছি
রোগে
স্টক
কোচের
খারাপ
স্যাটে
ঔপনিবেশিক
ভাষাবিজ্ঞ
##য়ক
##সেল
##াত্মা
গন্ধ
german
জোয়ার
সমাবেশ
সম্পাদিত
পর্বতমালা
##ani
##ভবন
##ডেমি
##ভক্ত
##স্কি
bel
বোর
মতই
##র্দার
পল্ল
মোটর
এন্টার
তৃণমূল
পর্যটক
বিদ্যা
গোষ্ঠীর
বৈশ্বিক
##চলচ্চিত্র
ব্যতিক্রম
শিক্ষালাভ
ক্যারিয়ার
##মাদ
##াগা
পণ
সভা
স্ফ
##বোর্ড
কালি
##cyclop
অংশটি
কোর্ট
অভিজাত
মিনিটে
সন্দেহ
অর্থনীতিতে
##its
##খিক
##োমের
ফাল
##ভারতে
হাদিস
উইকেটে
প্যারিস
প্রশস্ত
##পাকিস্তান
##।''
##নদী
##ween
মেক
এলিজ
দাঁত
সিপি
##ম্যানের
##স্থানের
govern
school
অক্টোব
ইরাকের
মহাসড়
শ্রদ্ধ
প্রেক্ষাপ
লোকসংখ্যা
إ
##gin
##চিব
##ভাস
##সেট
##ুনী
য়
##ster
##ঙ্কার
##বিভাগ
থাকত
দ্গে
অতিথি
##মন্ত্রীর
আত্মীয়
ব্যাকরণ
আপেক্ষিক
published
স্ট্যান্ড
প্রত্যাহার
##ks
##দুল
##ling
##ঙ্কট
##ন্তী
আইএস
দণ্ড
মেলে
##াবৃত্ত
গঙ্গা
চিত্ত
মেশিন
উপকূলে
দরিদ্র
জাহাঙ্গ
যন্ত্রপাত
স্প্যানিশ
##পশ্চিমাঞ্চলের
##ps
##tra
##যশা
অদ
mac
অবৈধ
##্যবাদী
liter
বার্ম
##বাধিকার
কারণেই
ঠাকুরের
প্রজাপতি
জানুয়ারী
প্রত্নতত্ত্ব
##থাই
##মোন
##াবহ
ছোপ
বরফ
লোহ
000.
আইনে
মিলি
ল্যাপ
পড়েছে
যাতায়
অভিযানে
একেবারে
রোমান্টিক
##রহ
##াঘ
##pur
##াইক
##েসের
গমন
গরম
back
such
দরজা
পর্ন
ফ্লা
বলের
অনুশীলন
রেখেছেন
সংজ্ঞায়িত
এয়ারলাইন্স
কম্পিউটারের
অস্ট্রেলিয়ান
##ael
##মোর
##াগী
##োলো
এথ
##চাঁদ
est
mot
##আফগান
##ত্তির
অজ্ঞ
বিরল
##উল্লাহ
organ
গায়ে
মেটাল
সমকাম
##adem
##িপ্ট
মোড়
##াক্ষিক
##্জিলিং
দেখুন
সবগুলো
প্রফেসর
##াগল
cy
##aint
##গুরু
##াবলি
চেত
তাৎ
শরণ
##সভায়
##হ্যাম
উনিশ
##প্রবাহ
##ান্ডের
group
দরকার
ভবনটি
সহস্র
##যুদ্ধের
ছায়াপ
ব্যস্ত
যেকোনো
অধিবাসী
ইলেকট্রন
গাজ
নাব
ভোল
##পাউবো
একদল
intro
নমুনা
বেস্ট
স্কোর
সিনেমায়
ডিসেম্বরে
চিত্রশিল্পী
জিম্বাবুয়ের
##by
পী
পশু
##গঞ্জের
নাস্ত
##দৈর্ঘ্য
##ষ্ঠানিক
খ্রীষ্ট
সমাপ্তি
নোয়াখালী
##ান্তে
কাপে
তাড়
খেয়ে
ধারনা
উপলব্ধ
পারস্প
তুরস্কের
##অস্ট্রেলীয়
##cc
##ita
##lap
##ককে
##জ্র
##টেল
##রাং
##োলি
টপ
kar
দোষ
লেগ
পশ্চ
হাউজ
##দেশীয়
ইতালি
পুরাণে
মানবিক
উপনিষদ্
গ্রন্থটি
জন্মগ্রহন
##জাল
##িশা
##োজা
##্সে
--
কৌত
##ার্থী
টানা
সারি
সোনা
##্যাপ্ত
black
এগুলির
করিয়ে
রাজস্ব
পর্বতের
ত্রিপুরা
publishing
##রার
##লেস
##াড়ী
##োপলি
টোক
নাল
খায়
পথের
##ীয়মান
আইরিশ
সংলাপ
সারির
বানানো
বায়ুম
হুসাইন
রহমানের
কূটনৈতিক
সেনাবাহিনীতে
##উচ্চ
##্কেল
##্লিক
wal
সুত
হাক
##ments
anal
ইকবাল
ইয়াস
চালান
পাইলট
উন্নয়নে
তত্ত্বাবধানে
##res
##রাই
##হেল
অহ
##ইন্দ
##এফসি
##গতির
##াবতী
গাল
russ
they
view
কষ্ট
বছরই
সকাল
গ্রহন
ডিস্ট
##ভিষিক্ত
নিয়েছে
সম্প্রতি
প্রামাণ্য
##শৃ
##ago
লৌ
##ড়িষ
##াশ্ম
dem
জেত
##নায়ক
mart
phot
খুলে
ছত্র
দাখিল
মায়া
হিসেব
george
সংজ্ঞা
ল্যাটিন
##ba
##রক
##উইঃ
##কিক
##ides
##ille
##ৎকার
দাত
ফিজ
##র্ডার
##িশনার
কাঠাম
প্রবণ
রকমের
commun
গুয়াহ
আইনজীবী
##وا
##অল
##ংশন
##নিস
ce
আঠ
##বুন্ট
ডাউন
##ম্পন্ন
চলমান
পাশের
europe
এখানেই
প্রাধান
কোয়ান্ট
অফিসিয়াল
মহাসাগরের
##গম
##yal
##াগন
##ইউনি
খাব
নাথ
##ences
##াটিকে
ঝাড়
নিউজ
গেছেন
between
দ্বন্দ্ব
সামগ্রিক
সিংহাসনে
##ডেট
##স্টন
##িকোণ
##ৃহীত
style
times
আদায়
শত্রু
সমকামী
হিমবাহ
রাস্তার
সর্পিলা
উপকূলীয়
জনগোষ্ঠীর
সমাজতান্ত্রিক
##আব
##চেন
##ming
##ুজাল
##ূর্ত
আসর
কুন
ঘুম
তুষ
east
জর্ড
বাবু
ভবনে
গাঙ্গ
যুবরাজ
প্রত্যেকটি
অধিনায়কত্ব
##দৌ
had
pot
পেল
মোল
আনার
ডক্টর
রৌপ্য
econom
পানীয়
library
চৌধুরীর
##লাভিষিক্ত
টাঙ্গাইল
বিদ্রোহের
সংখ্যাগরি
##wh
mu
কৌশ
##াপনের
space
ইসরায়েল
ক্যাম্পাস
সর্বকালের
খ্রিষ্টাব্দ
##|''
##কিন
##শুর
##শৈলী
মাও
উমাই
গুগল
##হত্যার
চওড়া
জনবহুল
সূত্রে
হেক্টর
মানবাধিকার
স্থলাভিষিক্ত
##use
রথ
##োন্ন
##্বিত
jan
গুন
দাড়
লাইফ
ট্রেড
বাষ্প
##নেপালের
সাফল্যের
সোসাইটির
পররাষ্ট্র
##ize
##sch
##রির
##াতেও
mos
মধু
রেফ
রোধ
##ধ্বনি
##িবর্ত
stat
##স্পর্শ
অফিসে
ওয়াই
সাড়া
অভিবাস
আর্সেন
আলোচিত
সেসময়
পৌরসভার
সমান্তর
স্টেশনের
ধারাবাহিকভাবে
##ডম
লং
##book
##আরবি
##নামে
##ুমান
use
prov
করান
ঠোঁট
james
সেন্স
ভাস্কর
ওয়ার্ক
আত্মহত্যা
ব্যান্ডের
লাইব্রেরি
অধিনায়কের
স্কটল্যান্ড
মুক্তিযুদ্ধে
##িষ
##ross
sin
দমন
পিট
ভাত
সুফ
crit
বিগত
##শতাব্দ
##ায়মান
##েক্সের
ক্রমে
গোলাপ
ডেভেল
উচ্চতর
মেয়াদ
লেফটেন
সিনেমার
মাধ্যমেই
সর্পিলাকার
##কিল
##হাউ
##্নি
সৃ
হঠ
ঘাস
দিগ
##ধরণের
##ভাবেই
##মূর্তি
##্যালেঞ্জ
জাহাজের
নির্দেশনা
ষড়যন্ত্র
##কাত
##ুনে
##wood
##ত্তন
##দন্ড
##পুটি
you
কিল
যাদ
##সেন্ট
##িতযশা
ফেলো
##ডাঙ্গা
দেখার
নীচের
স্পেস
অক্সিজ
আচার্য
লিপিতে
তোমাদের
স্ট্যান
প্রথমদিকে
##প্রজাতন্ত্রী
উইকিপিডিয়ায়
##িশীল
##ument
বৎসর
তারার
লক্ষণ
শ্বেত
সময়ই
আমিরাত
পরস্পর
ডাক্তার
প্রথাগত
মুজিবুর
হোয়াইট
দীর্ঘদিন
প্রয়োজনে
স্যাটেলাইট
translation
ক্রিকেটারদের
du
sl
গজ
##ains
##পঞ্চ
ধনেশ
নিঃস
শরীফ
##েম্বার
ফরাসী
ভার্স
হাতের
পরিধান
হ্রদের
জ্ঞানের
সিদ্দিক
মহাকাব্য
প্রস্তুতি
##ডন
##র্দো
##ুনার
dar
ঘাঁ
বুন
ভূপ
সাক
উপাধ
নষ্ট
বাদে
বেছে
মনোর
রবিন
##াকৃতির
##্লিখিত
পাড়া
মেয়র
সুস্থ
center
museum
ব্যতীত
এলিজাবে
প্রোটিন
অভিষিক্ত
ক্ষতিগ্রস্ত
সংখ্যাগরিষ্ঠ
##ওন
end
জেস
sour
##াঞ্চলে
জন্যও
শীতকালে
প্রার্থী
philosoph
চ্যাম্পিয়
পূর্বপুরুষ
##ঘ্র
##ণীত
##্ভব
##গর্ভ
##িবাহ
let
খিল
##ামুটি
শঙ্কর
##াপেক্ষে
সংগ্রহের
ক্যান্সার
প্রথিতযশা
হ্যাট্রিক
নিয়ন্ত্রন
##কিং
##কোট
lo
জী
##টিরও
ডির
ভিট
##প্রসাদ
কিছুই
লেখাপ
রপ্তানি
শিরোনাম
অংশগ্রহন
উপাদানের
##ike
##lin
##পয়
##যার
##হোক
ob
বক
##ious
##বর্গ
ফুস
রেশ
##ওয়াজ
##ান্দি
house
ক্লিন
শতাধিক
প্রতিবেদ
##0)
##ati
##lim
##পাঠ
##বাদে
কপি
##epend
অতীত
##াগুলোর
ঘণ্টা
চলেছে
দাঁড়
আলেক্স
বয়সের
##্হ
##ced
##ula
##জাদ
##পুল
##যদি
##লোড
##্যব
##দাতা
থের
পরই
রুব
সতী
##স্তাদ
গর্ত
মন্দ
রশিদ
শ্রো
উপকরণ
ঘটিয়ে
বয়স্ক
অ্যাকশন
অস্থায়ী
বঙ্গবন্ধু
বুদ্ধিজীব
##pos
##দাহ
##্কি
##পালন
শৈশ
বাকী
পাবনা
bengal
লোকসভা
লাভকারী
বাংলাদেশি
ব্রিটিশবিরোধী
ty
##র্কে
ill
ধনী
নিখ
##েশ্বরী
পার্ট
শরীরে
##সংস্কৃত
##ায়ারের
রক্ষার
আর্জেন্টিনার
##পির
##াজীব
att
emp
দীন
##াকারে
##ার্ধে
vide
##বিন্দু
অতীতে
জাতের
সফরের
during
কল্পনা
সভ্যতা
অষ্টাদশ
পরিষেবা
হায়দ্র
হিমালয়
ইউনেস্কো
কর্তৃত্ব
অভয়ারণ্য
চুক্তিবদ্ধ
শাস্ত্রীয়
প্রক্রিয়ার
মুখ্যমন্ত্রী
##==
##aj
##gr
##els
##ংশে
##ঙের
##নীল
##সাস
##াক্ট
ann
থান
নরম
গতির
সরীস
উৎসাহ
ম্যাথ
শ্বাস
হাঙ্গের
আয়োজনের
সেনানিবাস
##শালা
ver
কুত
আদান
চিঠি
ধাতব
পদবী
পাবে
শুনে
অনন্ত
টেম্প
##ষ্টিয়া
project
পর্যালো
মাইক্রো
কাল্পনিক
মোটামুটি
আটলান্টিক
মাস্টার্স
চেয়েছিলেন
##অব
##urg
##তাপ
{|
টে
##্ডের
##্তান
ডিউ
থিও
বৈঠ
রোব
##ান্দা
অরুণ
years
পার্স
মিশ্রণ
ওয়েলসের
নিরপেক্ষ
যন্ত্রের
সেনগুপ্ত
দার্জিলিং
প্রতিযোগিত
##সুই
##স্ন
আঘ
##নন্দ
dif
বংশের
তিনবার
পিকচার
প্রশংস
ফায়ার
বিচারক
##িয়ানদের
through
নভেম্বরে
সূত্রপাত
মাইক্রোসফট
আলেকজান্ডার
##ese
##ড়ী
##ভীর
##গিরি
##াবধি
img
মেট
সিজ
##ঞ্চার
##াবেলা
##িফাইন
been
##েন্টাল
কয়লা
কাদের
তোমার
পেট্র
সতর্ক
খ্রিষ্টান
##কোর
বিট
রিড
দুঃখ
##জীবনের
##তামূলক
বন্যা
ক্রোমোজ
শ্রীরাম
সার্ভার
সেখানকার
প্রাধান্য
সমালোচকদের
##যথ
##রণে
pan
আসাদ
আর্মি
কনফেড
গেলেও
ঝুঁকি
##নারায়ণ
অনেকের
আকৃষ্ট
ইসমাইল
বৃত্তি
মাল্টি
ছোটগল্প
তালিকার
ব্রিটিশদের
##দম
শৌ
rad
রোহ
শরৎ
শেল
##দ্বৈত
ধরেন
ফুটে
মিশে
আংশিক
পূজার
##ারেশনের
বাদামী
সাজানো
মুহম্মদ
চ্যালেঞ্জ
কোয়ার্টার
##eg
##পুণ
##াঁস
ib
##itor
##sych
ডেথ
যাঁ
খালে
বাদ্য
ডেপুটি
উত্তরের
জলদস্যু
প্রকাশক
ভাইয়ের
সপ্তাহে
এশিয়ায়
প্রবর্তিত
মড
fre
নিত
many
টাইপ
early
বাঙ্গ
যমুনা
স্পিন
আয়তনের
কানাডার
ফরিদপুর
বিষ্ণুর
মোস্তফা
সম্পদের
মেট্রোপলি
অস্ট্রেলিয়ায়
##ax
##wn
##চর্
##জিম
je
##গ্রে
##দেবী
cre
তাক
এন্টি
লিভার
উবুন্ট
কমিউনি
শিল্পে
##ফোন
##বড়
##ণবিক
জোহ
পুত
##তাবেক
prof
অদ্য
অধিদ
মহাশ
হেরে
##াপাড়া
##ালিয়া
আত্মা
মালয়
শ্রেন
review
মার্চে
পাঠিয়ে
সত্যজিৎ
চট্টগ্রামে
টুর্নামেন্ট
##wik
তপ
পপ
fun
বেহ
##দিকের
##ষ্টায়
##াচুসেট
##েজুয়ে
##েনিয়া
অনুভব
000টি
##সম্পর্ক
গল্পের
বিগ্রহ
##ইউনিভার্স
প্রসঙ্গে
পারস্পরিক
ডিপার্টমেন্ট
##ين
##new
##রাব
##োসা
##োত্ত
##্লিশ
ঋতু
মাশ
লিড
##cient
##ব্যের
##ভাষ্য
কোপা
হয়৷
##কলকাতা
##ান্দ্র
সকলের
অপসারণ
অভিযোগে
সংখ্যাল
শিল্পকলা
বেলজিয়াম
##ino
##উইক
##পুট
##কাটা
##ছিলো
##হারা
maj
##িপত্য
asia
ঘোষণ
দেহে
ফ্লে
##ington
গুলোর
পর্যট
##খ্রিস্ট
একাডেমিক
মেডিক্যাল
##গোপ
##ness
##াদেব
##িবাদ
রিং
##ional
ফলের
ফেনী
যাবত
ব্রিগ
##টিক্যাল
##যোগাযোগ
অনুপাত
ফয়সাল
বাদামি
অ্যাডাম
জীবাশ্ম
স্বামীর
অভিযুক্ত
ব্যাংকের
সমুদ্রের
##ককী
##াণু
##chen
##িপার
জলাশ
রাজি
##গুলোয়
কার্ত
নামাজ
মধ্যম
শিলাল
##িয়াসের
বিজয়ের
ব্যাচেলর
প্রযুক্তির
##ইম
##ett
##মুহ
##েরও
##ভেদে
##িসার
aut
অসহ
##aking
##hemat
অস্ট
আপনি
জামে
দলিল
সভার
কাঞ্চ
নামেন
মৎস্য
সিডনি
অঙ্গনে
কর্ণাট
tibetan
জেরুজাল
মোতাবেক
সরঞ্জাম
##কেন্দ্রিক
বিদ্রোহী
মহাবিশ্বের
association
ওয়েস্টার্ন
##ode
sk
##লেটিক
##াইলের
ever
ইউক্র
টেক্সট
সড়কের
অ্যাশেজ
ক্লার্ক
অসামান্য
আবহাওয়া
হিন্দুদের
কোয়ান্টাম
##ade
##ডিট
##বিস
বব
উইন
বাধ
পেশা
##পরবর্তী
engine
বৃহস্প
মর্যাদ
শনাক্ত
দম্পতির
ا
##উদ্
##কাব
er
mas
ন্য
পরিল
##র্গ্যা
কাপের
series
এগুলোর
প্রচ্ছ
অপরদিকে
উপপ্রজাত
সীমান্তে
##শ্রীলঙ্কার
ধর্মাবলম্ব
##hel
##শিত
dh
##টুকু
sal
খোল
ঙ্গ
রিল
মাইন
রানী
হাইক
ডিপ্ল
ত্রয়
সিভিল
চমৎকার
নিরাপদ
পারবেন
প্রসার
মালদ্বীপ
##যৌ
##আরব
##ফান
##বিশ
##মিঃ
##টায়
##াহিম
পেস
ফিট
বেস
মোগ
উপরি
ওল্ড
শস্য
উড়িষ
জমিতে
ডেস্ক
##স্বাধীন
##াঞ্চলীয়
culture
প্রমাণিত
রাশিয়ান
##ভিচ
##িজা
##ুরো
রন
cat
div
অটো
ঘুর
ঝুল
বাউ
ভের
##ৃতিতে
অডিও
জমিদ
পরিন
মহাপ
মহাম
লেগে
ওয়েন
কালের
জন্মে
প্রণালী
সম্মানে
রাষ্ট্রপতির
গণপ্রজাতন্ত্রী
##পত
##রাও
##প্রণ
টেন
তেম
মেগ
সুগ
cric
গণনা
##গ্রাহক
জিজ্ঞ
##বিন্যাস
indust
ছাত্রী
মির্জা
সংক্রমণ
পরিবেশের
প্রবেশের
মিউজিয়াম
জ্যোতির্বিজ্ঞান
##go
##িজে
##ুবন
##্ডা
ভৈ
##ন্সি
##বরের
him
জোন
ডিফ
পোপ
##ঞ্জার
জনতা
জহির
পুরু
বাণী
মেরে
রিয়
##পমেন্ট
##প্রকার
বর্ধিত
বিজনেস
সরীসৃপ
##সল্যান্ড
নাম্বার
উল্লিখিত
কিংবদন্তি
র্যাঙ্কিং
পর্বতমালার
শিক্ষাপ্রতি
##গী
##লভ
##সৌ
##ঠের
##িকর
##ুকি
র্
আনে
কিঃ
খুন
##ather
blue
##তৃতীয়
china
অপরের
রাজ্জ
সাড়ে
direct
সনাক্ত
পূর্বেই
ব্যঞ্জন
সম্মানসূচক
##অভ
##ওদ
##her
যম
ভিন
মেই
ষাট
সৌদ
##ellig
##জীবনী
##ন্সের
##লুগ্স
##ৈতন্য
ট্রফ
দশটি
নেতৃ
পাকা
ব্লু
হরিণ
academ
জানানো
জ্যোতিষ
ফ্যাক্ট
বিমানের
মারিয়া
বন্ধুত্ব
ক্রান্তীয়
চ্যাম্পিয়ন্স
##পল
##rown
##ston
##য়েজ
##োড়শ
##চিকিৎ
arms
কলাম
ছাপা
##ীকরণের
দিতেন
দেবার
ফেলেন
বইয়ে
হুগলি
common
ইঙ্গিত
america
কমিশনের
বোলিংয়ে
মূল্যবান
সংস্করণে
পাশ্চাত্য
কাব্যগ্রন্থ
##rol
##কথা
মগ
চিং
বনে
##ধুনিক
পরিত
লায়
stand
ক্লোর
বিনাম
##eration
volume
##ribution
ডক্টরেট
official
আবির্ভূত
স্মরণীয়
পরিলক্ষিত
পরিস্থিতি
সংখ্যালঘু
সুনির্দিষ্ট
চিকিৎসাবিজ্ঞ
##ون
##দ্যা
##ুকের
##ুপার
##্লার
আইয়
ঘরের
build
বইটির
বিনোদ
মুস্ত
লিপ্ত
number
বুঝায়
austral
ক্যান্ট
চুক্তিতে
বাহিনীতে
মহাদেশের
লাইসেন্স
নিষেধাজ্ঞ
দেখিয়েছেন
##শীপ
##িগো
চত
ডন
##বাইজ
খাম
##জুড়ে
কন্স
##public
##াণ্ডের
শ্লোক
ভূখণ্ড
লিনাক্স
##রাশ
##শতক
##ible
##নাড়
##ীক্ষ
##োরাস
ডেই
সাহা
##উদ্দীন
##ধর্মের
কুয়ে
জিন্ন
দেশীয়
পেশায়
সংশোধন
পুনর্গঠ
শেষদিকে
পারদর্শী
##ful
দফ
##নারী
##ility
##াংশের
site
ডাটা
মিলন
সঞ্জ
স্রো
নয়টি
নিবাস
শিয়া
##artment
##সম্পন্ন
ঘটেছিল
সঞ্চাল
বেদান্ত
বাসস্থান
উইকিপিডিয়া
##''(
##ets
##মুল
##্কট
##্বা
ডগ
বোস
ভাঙ
##বান্ধ
##ারম্ভ
ওপরে
দাদা
ফর্ম
মতোই
মনের
স্টিভ
##বর্ধমান
আর্থার
কনিষ্ঠ
ড্রাইভ
বোঝাতে
লাগানো
michael
যানবাহন
সাক্ষাত
বাসিন্দা
শিরোনামে
অনুপস্থিত
government
অনুপ্রাণিত
যুক্তরাজ্যে
##কট
##ঝে
##arn
##লুক
##িরের
জলে
ওসমান
কালচে
##িয়ামের
খ্রীস্ট
বনাঞ্চল
##ভারতবর্ষে
অক্টোবরে
ওয়েবসাই
সেমিফাইন
অ্যাঞ্জেল
##%)
##ux
##way
##াইর
day
tur
অবন
ওড়
কণা
কমল
কেশ
##অ্যান
এগার
তেলে
রশ্মি
অবলম্বন
ব্রিটেন
মহাকর্ষ
ক্যামেরা
বাহিনীকে
##আত
##দন
##্ছ
##,''
##war
##সকল
রও
##শব্দ
##ীকৃত
old
নাত
বকর
বলি
##ugust
আলীর
ঐক্য
বিবি
জলপাই
তহবিল
ভূমির
মাসুদ
রন্ধন
খেলাটি
মহম্মদ
হামলার
##ময়মনসিংহ
হার্ভার্ড
##সকে
##িওপ
##ার্ভ
dec
map
##ledge
##কর্তা
##ার্থক
##ুয়েট
আবৃত
বলেই
##িমিটার
তুলতে
মতামত
অর্জুন
আহ্বান
চাঁদের
সত্ত্ব
কার্টুন
মুখার্জ
অদ্যাবধি
চিত্রকর্ম
কর্তৃপক্ষের
মালিকানাধীন
স্বয়ংক্রিয়
##hy
##কব
##:00
##সাব
##ুলী
আভ
ফৌ
##berg
##ense
##inem
শিম
##াটিতে
##িরহাট
হবেন
##পূর্বক
white
ওভারে
ব্যথা
ভাষ্য
মেরিল
রাঙ্গ
সংশোধ
##েম্বরের
প্রাতি
মসজিদে
নাস্তিক
বিনামূল
সাপেক্ষে
নিয়মিতভাবে
##ডল
##elf
##চৌধ
##োজক
ভব
##ians
##ইন্ড
##দানি
##িজের
অলি
লিং
##পুরাণ
##াইকার
##িটিকে
play
than
webs
অসীম
গৌড়
রত্ন
সেসব
##ঞ্চলের
##মায়ান
##স্তম্ভ
নীতির
যথাযথ
second
নিউইয়
##ল্যান্ডে
পঞ্জিকা
সক্ষমতা
বাঁকুড়া
নেতৃত্বাধীন
##ki
##রকম
##নশীল
##ম্বক
sun
উপা
এলে
গলা
একাধ
গাছে
জংশন
পোড়
বন্ড
##াঙ্কিত
প্যাট
রাতের
জাপানী
ডলারের
বৈচিত্র্য
##ox
##মস
##াতেন
##েটিক
##শান্ত
gold
তুষার
মুখের
আসামের
কারিগরি
মাত্রার
##ডস
##জিদ
##গঠিত
##ঘরের
##পথের
##ুতোষ
ওঠা
কিম
পেপ
রিভ
##lapse
ফেরত
হঠাৎ
##্যাম্ব
there
নিজাম
আদালতে
কম্বোড
ক্ষতিক
দেবতার
কমিশনার
গোলাকার
প্রত্যাব
ব্যক্তিব
প্রজন্মের
অঙ্গরাজ্যের
##রং
##duc
##hist
##ized
##পুরা
bur
গোর
জাস
দাউ
পির
ম্য
##িস্তা
হাদী
story
ধ্যান
পরিভাষ
পিছনের
সমূহের
উৎসাহিত
চিন্তাধ
স্টুয়ার
উপাধিধারী
##জাগ
ep
##অভিন
##ারসন
খোদ
নিঃ
##iforn
##দ্ভুত
এইসব
রানা
##estern
##টেকনিক
অনিয়
শাসিত
##ম্ত্শান
thomas
কন্ট্র
গভীরতা
তৈরিতে
ত্রিনি
কাটিয়ে
education
ক্ষেত্রের
ঘূর্ণিঝড়
উত্তরাধিকারী
##ইস
##ena
নৃ
##vent
##কৃতি
##গ্রী
##ান্ন
##িতাব
গাঁ
রিও
##দ্পাল
##ৃদ্ধি
আশ্রম
ক্রমশ
বাল্য
গাওয়া
গুরুতর
ধর্মান
পুরানো
উত্তরসূ
ধ্রুপদী
প্রেমের
বেশকিছু
ল্যান্ড
বিস্তৃতি
বসবাসকারী
ব্রহ্মপুত্র
##aut
##ein
##দিল
##হুম
##uary
##ূন্য
##ৈতৃক
লিগ
অনার
##ার্সের
অ্যাব
আহসান
কুস্ত
দেশটি
মহানগর
ফিলিপাইন
বিভাগীয়
মুসলিমরা
রক্ষণাবে
পূর্বদিকে
আয়ারল্যান্ডের
##))
##ij
##ows
##পিএ
##বুব
##লির
##শিব
##াউট
##িওর
##ুগু
ফন
pri
rem
ভৌত
লোগ
##বামের
ক্রো
ধরার
আয়ের
তলায়
পরগনা
বিরাজ
মেন্ড
শিশুর
পতাকার
ভয়াবহ
সমর্থক
স্বচ্ছ
company
আধিপত্য
জিন্নাহ
পরিপূর্ণ
ব্রিটেনের
##ইউনিভার্সিটি
দ্বীপপুঞ্জের
🔗
##ানস
##িউস
##্তো
##কক্ষ
##প্রদ
##ভায়
##িসিন
অবস
lead
বহুম
##ঞ্জস্য
##স্বাদু
earth
বাঁধা
empire
কাহিনি
ধারায়
নামীয়
বিদায়
মারাঠা
সালমান
বিনিময়
ওয়ার্ডের
##ipp
##ভিউ
খড়
ছাদ
সুফি
টাইমস
রিয়াল
স্কটিশ
মুদ্রিত
এসেছিলেন
নৌবাহিনী
সংস্পর্শ
ইনস্টিটিউ
ম্যাজিস্ট
##পক
##সাহ
##েমা
##ন্ডা
##োত্র
leg
সোড
##খুলনা
##িউটার
##িব্রু
অন্ন
কুয়
নব্য
##অর্থাৎ
##সিয়াস
##িয়ানো
নুরুল
পৈতৃক
রোডের
লোকজন
ষোড়শ
উপায়ে
বন্ধনে
বিচারে
বুলবুল
যাইহোক
##শতাব্দীর
কয়েকবার
গ্রহণযোগ্য
বার্সেলোনার
##ফো
##রু
##apan
##ব্রত
##িনির
ষ্ট
##াইভেট
খেতে
থমাস
করানো
পদ্মা
বারের
ক্রুসে
সংগৃহীত
দর্শকদের
নিম্নরূপ
প্রযোজ্য
মানুষদের
প্রাণীদের
প্রদর্শনের
##েঁ
##00শ
##েকশন
##োটাই
মাথ
##মুম্ব
##াকৃতি
তখনই
পাশা
##্যায়ন
ওয়াহ
বিতরণ
মারাঠ
হ্যাল
সুন্নি
নির্মাণে
কার্যকলাপ
জনসাধারণের
প্রেক্ষাপটে
ইন্দোনেশিয়ার
##াপূ
##riev
##মণ্ড
##সরাই
hel
স্র
##inese
##press
##কিশোর
##ুলেশন
বাউল
##রেকর্ড
##স্টাইন
ভাগের
দাতব্য
বস্ত্র
মুদ্রণ
আদালতের
ইতিবাচক
মাঝখানে
মেয়াদে
ফ্রান্সে
নৌবাহিনীর
নিম্নলিখিত
সেপ্টেম্বরে
•
dev
##ander
desc
ন্যা
afric
অক্ষা
আলবেন
সেবার
temple
ডিভাইস
ভূমধ্য
californ
রাস্তায়
সিরিয়ার
যন্ত্রপাতি
##za
##ami
##রিচ
dan
ভুম
মদন
মহল
মুক
লুট
00ম
##বুর্গ
কবিত
বর্ন
বারো
ভাইস
হাঁস
ভাড়া
রাসেল
রেটিং
ঊর্ধ্ব
##প্রদেশের
গণহত্যা
ভবিষ্যৎ
encyclop
অনুপ্রের
ব্যাকটের
সংস্কৃতিতে
##অনু
##অক্স
##iddle
##গ্রিক
open
pict
##সংরক্ষ
##ায়নের
##িক্সের
##পর্যন্ত
উদযাপন
গণিতের
বিবাহের
political
ت
##ban
##gra
##alth
##টিয়
##ন্নে
##িতিক
"''
টিউ
মিজ
মোম
সিঁ
##ায়িক
##ীক্ষা
hind
রঙ্গ
রাইট
রোকে
power
আখতার
আণবিক
আসনের
করছিল
ফারুক
মেহের
গেরিলা
বাড়তে
central
মাদ্রাজ
intellig
নির্দেশে
মুক্তিবাহ
সদস্যরূপে
##চাপ
##কোনা
##্জিন
iss
top
আড়
ঝিন
ডুব
##itary
##রাজ্য
##িমেশন
free
ডাবল
দামে
শেখর
exper
video
কনস্ট
ত্রিশ
পাড়ি
বহির্
বিচরণ
##ান্তরের
ফ্যাশন
আলোচনার
কাহিনীর
ক্যাডেট
জিয়াউর
সামগ্রী
সৈন্যদের
জাহাঙ্গীর
হিন্দুধর্মের
##cul
##men
##ল্ড
##work
##াজনক
##িসির
doc
রোল
##দ্বার
##মিশ্র
বারা
সাধক
##শক্তির
women
আজীবন
ট্রাফ
ঘটনায়
systems
সমন্বিত
স্নায়ু
হিসেবেই
উপন্যাসটি
##লাম
##িণী
##ices
##ones
##রনের
van
##rench
##ক্যাল
only
আবেগ
টি00
পূরণ
রাশি
লালন
জাকার
হলিউড
অনূদিত
website
প্যারাল
লাগিয়ে
আকর্ষণীয়
অ্যাকাডেমি
গিয়েছিলেন
টো
বট
##ারেজ
আরা
বেক
লিউ
ভোটে
##rieved
music
পরিনত
বাড়ী
সালাহ
একীভূত
পালনের
সম্রাজ
ওলন্দাজ
চলচিত্র
বক্তৃতা
ব্রিগেড
মেদিনীপুর
সংরক্ষণের
ম্যানেজমেন্ট
##ams
##ঞ্জি
##ওয়াত
##ধারার
##াইয়া
দেড়
ফকির
রফিক
##olkata
##ন্দিরা
লিখেন
লিপির
সেনের
উভয়েই
article
রসায়নে
সুপারিশ
mathemat
মারাত্মক
প্রস্তাবিত
বাধ্যতামূলক
##bn
##জগ
##akh
##ini
##গৃহ
##বিএস
##িকোর
##িফিক
তিল
বিএ
রজন
লাফ
well
বালক
##খানায়
##াগারের
আপনার
গির্জ
চন্দন
##ference
অসম্ভব
ইন্টেল
সমভূমি
##রাউন্ডার
পাহাড়ি
প্রবণতা
সেক্টরের
##ঘন
##iev
##শহর
আঙ
##ison
##উত্ত
##চালক
##থেকে
##োটিক
মিঃ
##ories
##ঙ্খলা
##াউন্ট
##োর্টে
অধিব
চণ্ড
গ্রীন
টাকার
ভ্রাত
##ওয়ানের
পুস্তক
হারায়
রাজ্জাক
সাদৃশ্য
সেনাদের
অবকাঠামো
ওডিআইয়ে
including
নামাঙ্কিত
ভেনেজুয়ে
লেফটেন্যান্ট
##osa
##টেম
মথ
রী
##ront
##র্ভর
mic
ইনি
উত্প
বিএন
মহায
অধুনা
উর্বর
ডিস্ক
পৌরসং
মক্কা
মল্লিক
##স্পেনীয়
কর্ণফুল
জার্নাল
বাজারের
স্থানটি
##oe
##আজ
##তঃ
##ony
##ভ্র
##ফলের
##মিলা
##ানুর
vir
পরা
যিশ
##ality
দারি
বড়ো
বসুর
##ক্ষরিক
##িপূর্ণ
অবসান
জীবের
তুলেন
##ইউরোপীয়
একাধারে
খাবারের
চারপাশে
মধ্যভাগে
মোকাবেলা
historical
##alt
##kar
##হাল
ny
##ুমার
##োলজি
eff
hen
oct
সিগ
##পাশের
##সিলেট
জেনে
ব্লে
লাইট
##পদার্থ
দেখেন
বেঁধে
##িয়ানের
অগাস্ট
কমিয়ে
প্রণীত
প্রসাদ
বার্লিন
বাড়িয়ে
ব্র্যান্ড
সংবিধানের
california
তুলনামূলকভাবে
##ider
##জয়ী
##প্রত
কাদ
কুক
##নির্ধ
##লারের
##াপত্র
##েশন্স
নগ্ন
পরগণ
বিয়
বৃহদ
##িরামিড
march
আগষ্ট
ব্রাউ
অধিবেশ
শিকাগো
এনওয়াই
ট্র্যাক
কারাগারে
খ্যাতনামা
ফেব্রুয়ারী
##off
##ora
##মাহ
##্জি
আচ
হগ
##chan
##ters
##ককীট
##পাইন
##রত্ন
mel
মতি
mill
##ানিয়া
three
উজবেক
গোস্ব
##সংস্থান
আন্ডার
তথ্যের
নিকোলা
প্রমান
সেনারা
অনুভূতি
একইভাবে
সংস্থাটি
retrieved
প্রতিবেশী
প্রধানমন্ত্রীর
##%;
##ুড
##'':
##bar
##পাথ
গী
##ন্তন
##ামাল
ফরম
##িয়াহ
expl
এবার
মেরি
দূর্গ
নিবেদ
রোনাল
হুমকি
##রাজশাহী
##ায়িত্ব
##িত্যক্ত
পণ্যের
পুনর্ব
শাহরুখ
বিতর্কের
ক্ষেত্রেও
বাদ্যযন্ত্র
##লত
##hes
##রুম
##ysis
##ুমিন
দেও
সিপ
করুন
চুরি
psych
উভয়ই
খামার
মার্কস
রচনায়
পুরাণের
ভালোবাসা
##ইক
##মানব
##স্কে
##ুত্র
##্টিস
##চিহ্ন
##বিত্ত
এটাই
জয়ন
রাইড
মার্গ
সার্জ
বিকিরণ
বিদেশে
এলিজাবেথ
কেমব্রিজ
বিবর্তনের
মহাবিদ্যাল
সম্পর্কযুক্ত
##কথ
##ney
##হিক
##ীগণ
##োদশ
চৈ
##ware
##নাকে
lat
sat
sym
ডেট
মিঠ
##স্টেট
000,
hand
নীচে
##ুটিয়ে
কনসার
লিখতে
##akistan
আইয়ুব
মনোযোগ
অ্যালান
এপ্রিলে
প্রাইভেট
পলিটেকনিক
সহযোগিতায়
##bi
##gar
##ues
##হুর
##িসহ
da
mc
হজ
##দানী
##র্ষে
ext
গেজ
শয়
##িকাতে
##োয়াল
কিয়
ঘটতে
##কনিষ্ঠ
##গ্রস্থ
##ফামারী
পোষাক
সরস্ব
পক্ষের
হাইস্ক
দেওয়ান
মহাত্মা
প্রারম্ভ
ব্রিটিশরা
জানুয়ারিতে
সঙ্গীতশিল্পী
##fe
##sa
fa
ইঁ
##coat
##vers
##রাজা
##েমের
এসি
ঢাক
##িতিতে
জাভা
ফোর্
গ্রিন
তেমনি
পরপরই
মেমোর
নাইট্র
পরাজয়
স্বভাব
charles
প্রাঙ্গ
সময়কার
সুন্দরী
অধিষ্ঠিত
চিড়িয়া
##wa
##ুজা
আয
##আমার
##্রাম
ইনক
ঝড়
post
when
আমান
এমএস
এটাকে
কোস্ট
কাউন্ট
বিবিসি
##াম্বিয়া
প্রাচীর
বিচিত্র
ইন্ডাস্ট
অ্যাপ্লিক
উপত্যকায়
technology
বিশ্বযুদ্ধে
##লক
##cer
##ছুর
##থিক
##ভির
##মিস
##ants
##মারা
cam
##খানার
##েন্টস
flag
love
পিঠে
বিনা
শোনা
##ground
##বিষয়ক
harry
আলজের
চার্জ
স্যান
অক্সাইড
গ্যাসের
ইব্রাহিম
শিক্ষাদান
department
দ্বিপাক্ষিক
বৈশিষ্ট্যের
##-0.
##ীকা
##েটর
চু
##iger
##ফ্রে
##ালির
গেই
ডাঃ
শাব
##দ্বয়
##র্গান
mult
পাবল
##িয়াকে
##্যাটার
নানান
বৈশাখ
সংসদে
edited
নিউট্র
##াচুসেট্স
ব্যবধান
আশেপাশের
হুমায়ুন
উইকিপিডিয়ার
##খী
ر
##পাস
##লীর
হই
##্টিভ
vari
আসনে
বিরত
##াসমূহের
একধরনের
গায়িকা
ডেনমার্ক
স্টুয়ার্ট
introduction
##ped
##ড়ন
##ফলা
##ship
dig
men
আধা
ইমর
পেত
##-000.
##ব্ত্স
উঠতে
রজার
##ম্ত্শো
##হ্যারি
চারজন
লালচে
শ্রীন
অজ্ঞাত
অর্থের
সমাজসে
ক্রমাগত
প্রশংসিত
পদার্থবিদ
অ্যান্ড্রু
##bol
##net
##ingu
##নারি
##স্তর
apr
net
ram
sil
বুধ
সোল
##সাম্য
##িসমূহ
আসরে
ডাকে
##দুয়ার
উপদেশ
উপভোগ
কান্ট
ফজলুল
##ফারেন্স
থাকতেন
চিত্রিত
পিরামিড
প্রচণ্ড
রেজিস্ট
সিলেটের
বিজ্ঞানে
আব্বাসীয়
যান্ত্রিক
##মায়ানমারের
ছাত্রছাত্র
উত্তরাধিকার
##met
##কুন
##গিত
##দেন
##ফাই
তোর
পরও
সীত
##ভিয়া
অমৃত
আঠার
আনতে
পারি
সঙ্ক
দ্রাঘ
ধ্বনি
ফোর্স
সালাম
জাতিগত
লাইনের
লেখালে
অনুবাদক
বামহাতি
সিংহাসন
দাশগুপ্ত
নির্যাতন
সুস্পষ্ট
##uf
##নীর
##বিসি
##াসেব
dra
ফিক
ষোল
##ুটিতে
chem
stru
কথাস
জনসন
মৌজা
সৃজন
কাছেই
কোষের
ডিম্ব
দরগাহ
scient
ইউটিসি
সময়েই
সুতরাং
দক্ষতার
independ
পত্রিকাটি
ব্রাজিলীয়
সর্বকনিষ্ঠ
##থী
×
##ria
##ুপি
##ased
##াগান
''"
loc
mer
আজম
##্রিবি
ফটিক
##াত্রিক
গুজরা
পেশাদ
মেঘনা
##ptember
অদ্বৈত
অভিধান
উপজাতি
কুস্তি
উচ্চতার
কৃষ্ণের
গার্ডেন
ট্রাস্ট
প্রস্তর
ফুটবলের
উল্লেখিত
ব্রায়ান
উপমহাদেশে
কক্সবাজার
টেলিভিশনে
আত্মসমর্পণ
##ইট
##সো
##ঁয়
##র্দশ
fin
ইমে
##ওয়েট
##ঞ্চলে
##ামাটি
ইস্প
বজ্র
মন্ট
##িম্পিক
light
বললেন
বিল্ডিং
স্বাদুপ
অক্সিজেন
লেখাপড়া
আর্মেনীয়
টার্মিনাল
পরিত্যক্ত
সন্ন্যাসী
ইউরোপিয়ান
নিয়ন্ত্রণে
intelligence
##োহন
গম
##বারি
far
কুস
রীত
##ক্তিক
##চেঞ্জ
##মহিলা
june
অণুর
##কুমারী
speci
বার্ব
লেখিকা
ইন্দিরা
উমাইয়া
রায়চৌধ
##ictionary
উপাচার্য
##pan
##ush
##বরা
##সিস
##প্রয
##ারোপ
vis
##owing
##adding
##ission
##ামাটির
again
উদ্যো
differ
বিপর্য
রেফারি
সেগুলি
##নিরপেক্ষ
পরমাণুর
অভিনেতার
প্রযোজিত
interview
বিশ্বাসের
##তিহাসিকভাবে
এসোসিয়েশন
##মৌ
##শর
বধ
রব
##ivil
##ারাও
##ীদার
##্লোর
wil
ফিউ
সাঈ
##বৃন্দ
##্বলিত
অপরি
ইতোম
কচ্ছ
বক্র
সৈকত
##ান্তরে
আমাকে
লেজের
##ক্রিকেট
উপসর্গ
গির্জা
পরিবহণ
##ব্যবস্থা
college
গান্ধীর
ত্রিপুর
সম্পাদন
আবাসস্থল
literature
মহাসাগরীয়
##লং
##ole
##ঘ্রই
জেট
হবি
##istry
##েরহাট
news
উদ্ভ
##ুরিয়া
নার্স
রুদ্র
গ্রীষ্
তেলুগু
বিভাজন
biography
##ats
##rad
##ডান
##ফেট
##ুঁত
মশ
লল
##টেইন
##নির্
##পাড়
##বপুর
##ুষ্য
ang
ins
sex
জাক
##াক্কা
conc
word
these
পায়ে
হাফিজ
0000),
প্রগতি
support
আক্রমণে
মহকুমার
republic
নারীবাদী
পাঞ্জাবের
সংস্কারের
revolution
নিষেধাজ্ঞা
বুদ্ধিজীবী
##রফ
##দাই
##েটে
##াগোর
##্নান
উনি
দূত
লাম
##একুশে
##প্রাস
##রোমান
gree
উঠেন
মোটা
হলের
পাতলা
ভৌতিক
শৈশবে
সহিংস
00–00.
শীর্ষে
পরিগণিত
মুস্তাফ
ভবিষ্যতে
হস্তক্ষেপ
রাজত্বকালে
অন্তর্ভূক্ত
প্রাতিষ্ঠানিক
##চৌ
##ষে
##ima
##ola
##পোর
##ould
##ইতাল
sam
নাও
লুস
কন্ট
ঝাঁপ
ধাপে
ধারে
বেতন
peter
স্বদেশ
ভিটামিন
সরকারকে
তামিলনাড়
অভিনেত্রীর
মুর্শিদাবাদ
##__
##asa
##ror
##কতা
##শির
##ীমা
az
##ober
##দানে
che
চিঠ
##icles
খাজা
নদের
বিভব
লাইভ
##ব্রহ্ম
roman
দ্বিগ
শহরটির
##ইন্দোনেশ
ancient
দূরত্বে
মহাসচিব
মাত্রায়
মৃত্যুদণ্ড
প্রতিস্থাপন
রবীন্দ্রনাথের
##ye
##কণ
##ীশ
##mal
##not
##অসম
গড
##খালি
##জ্জা
##ব্যা
##িনিউ
exam
আলীব
এসকল
নবীন
মুসা
যজ্ঞ
সারে
##কিন্তু
##ায়ণের
guide
দূতাব
ম্যার
সিটির
অশ্বার
অস্কার
বুলগের
ব্যাঙ্ক
কমিউনিটি
##শেস
##হাস
##ique
##গনের
##দিনে
bod
টোব
##inter
##দপ্তর
four
main
জিলা
পলাশ
বনের
শৈলী
গোলের
martin
উদ্দীপ
পার্কে
রাইফেল
দারিদ্র
উদ্যানের
ত্রয়োদশ
বিশ্বকোষ
কুষ্টিয়া
সার্বজনীন
##iod
##াংক
##িবি
##omin
##ইউসি
##ব্রে
##াদিত
ess
lar
ori
পোক
00শ
##ক্তার
##গঙ্গা
##ঙ্গিক
ইবনুল
খোদাই
##ায়েলের
ইত্যাদ
জিতেছে
টিনটিন
শিকারী
সজ্জিত
উবুন্টু
বিদ্যাস
মেট্রিক
##ification
চিকিৎসার
সঠিকভাবে
চ্যাম্পিয়নশীপে
##ule
ur
##fore
##কানা
##িশার
()।
lab
und
আগা
তাও
বনু
মেধ
##trans
july
পাঠক
সহিত
শৃঙ্গ
সেলিম
##নির্মিত
##ফাইনালে
আব্দুর
জনগণনা
##্রদায়িক
মিশিয়ে
প্রচারের
কিশোরগঞ্জ
মিলিমিটার
বিনামূল্যে
স্থাপত্যের
তাপমাত্রায়
বিশ্বরেকর্ড
ঐতিহাসিকভাবে
##:''
##cut
##ঘাটা
##মায়
##ম্মু
sum
##টারের
##্লেষণ
alex
green
ওয়াজ
টোকিও
বাতাস
বেকার
লোহিত
মনোভাব
সপ্তদশ
ত্রিভুজ
ফুটিয়ে
বন্দরের
সাঁতারু
প্যারিসে
প্লেয়ার
tradition
অ্যালবামের
বিজ্ঞানীরা
ক্রমবর্ধমান
##mi
##sw
##ূত
##েহ
##খাত
##সিড
##ুমা
ঈদ
##ches
##rael
##thod
##কৌশল
##সবুজ
##হনের
##ীত্ব
don
ওমর
কিব
চুন
নিশ
বুশ
##ঞ্চিত
##ঠাকুর
made
song
ইকোন
মুভি
হলোঃ
##ভিয়ার
##াল্লাহ
ওয়াস
কাজাখ
তৈরীর
নিউটন
বোনের
##সেকেন্ড
august
potter
গঙ্গার
নাইজের
পারতেন
বারবার
সংযোজন
সমাহিত
সারিতে
আক্ষরিক
সভাপতির
computer
দক্ষিণের
পুনরুদ্ধ
প্রধানের
সম্প্রচারিত
##ji
##eds
##van
##vir
##ফিস
##োদর
খো
হট
##গলিক
##ুরির
##োফার
##োসিস
ben
লৌহ
সংহ
##জীবনে
##ন্টির
##াচ্ছে
আর্য
পিতৃ
ঘোষনা
উত্থান
সুগন্ধ
একাদশের
বিক্ষোভ
মিনিটের
স্টেশনে
ক্যান্টন
ডিপ্লোমা
দেশগুলোর
সেলসিয়াস
(0000–0000
আঘাতপ্রাপ্ত
##ga
##ীজ
##াদন
##অ্যা
##কলার
##পদ্ম
খাট
জুব
##ভাগ্য
just
read
ইম্প
এটার
নম্ব
পিসি
ফক্স
লেডি
##এছাড়া
##ীবাজার
field
আকাশে
কুইন্
হৃদয়
##padding
উইকেটের
বাস্কেট
##cle
##গাম
##লেখ
কস
মম
##ency
##াময়
##িপির
0.0
bre
sea
##নাথের
##ফার্স
##াল্টি
##িমপুর
cour
oper
অত্র
মেগা
ক্লাই
ঘাঁটি
ছোট্ট
ভাঙ্গ
মনস্ত
যাচাই
##জারবাইজ
চামড়া
সঙ্গীতে
pakistan
পর্যটকদের
মানচিত্রে
সমান্তরাল
cellpadding
##ni
##car
##itz
##শাদ
log
সনদ
##ৎসরিক
ital
vict
আচ্ছ
ছড়া
##সূত্রে
pages
অভাবে
অরণ্য
এ্যাল
কুড়ি
চুম্ব
চৌদ্দ
দলটির
দুর্ভ
মৌর্য
রোগীর
চেয়েও
পঞ্চাশ
বোয়িং
শিয়াল
স্মরণে
অংশীদার
ম্যান্ড
সামঞ্জস্য
প্রেসিডেন্সি
মুক্তিযোদ্ধাদের
##শক
##রাত
##সীমা
equ
الل
জির
দিঘ
দোল
বাথ
##তুল্য
##স্কোর
সোয়
##ইন্টার
টেবিল
নাবিক
প্লাট
হোস্ট
উত্তেজ
প্রতাপ
লরেন্স
সালতান
##াহিত্যিক
অক্ষাংশ
আলীবর্দ
পর্বতার
শিক্ষাব
পর্যাপ্ত
সপ্তাহের
ইন্টারফেস
স্বাদুপানির
##ites
##নিয়
##বক্স
##ানিক
alb
সোশ
##চারাল
রাউল
শামস
solid
মিছিল
##রণোত্তর
বাসায়
0000-00
নেতাদের
রামায়ণ
স্মার্ট
হায়দার
অধিবাসীদের
প্রক্রিয়াক
প্রতিযোগিতাটি
##নর
##গুণ
##ডিন
মৈ
##rict
##বিধি
##মেয়
##োক্স
:''
les
খুজ
##acter
##অ্যাল
##মূর্ত
fact
কন্ন
বইতে
শঙ্ক
##ক্ষীরা
cinem
কামার
ফেরার
শাহের
report
প্রাইজ
হ্যায়
বঙ্গীয়
original
translated
কার্যক্রমের
##uck
##খাল
##নাস
##শিশ
##সংশ
##্টো
গহ
##রিটি
aud
জিল
সরণ
##ister
gard
গঠনে
গড়া
ডিসি
দখলে
দলাই
দাউদ
works
লিস্ট
middle
অনুদান
ক্রমান
পুনর্জ
ভৌগলিক
অপরাধের
অবিভক্ত
প্রমিলা
মাদ্রিদ
প্রতিরক্ষ
কল্পকাহিনী
হায়দ্রাবাদ
ك
##cal
##মাত
##ারস
##াতির
##িনয়
##প্রেস
মহেশ
আখ্যা
কারাদ
ব্যাঙ
ভগবান
##ন্দ্বীপ
##বিধানিক
##বেষ্টিত
লিওনার
হচ্ছিল
উপাখ্যান
মনোনিবেশ
ধারাভাষ্য
প্রয়োগের
সংস্পর্শে
পশ্চিমবঙ্গে
##ুভ
##ida
##পোল
##বসতি
##স্যা
ste
করল
##count
##ফলাফল
##াত্রি
##াবসান
line
বাঁক
মহাজ
##সাগরের
জেতেন
প্রাগ
শতকরা
ফ্রন্ট
শীঘ্রই
উপন্যাসে
নিয়েছিল
বৃহস্পতি
ইলেক্ট্রনিক
প্রেসিডেন্স
##ua
##াগণ
##িবা
##ড়িত
##র্নে
##সন্ত
##্দার
see
গোম
পন্
শোক
হেই
##াইটিস
গদ্য
চাচা
এদিকে
কুতুব
মুরাদ
##যাত্রার
অন্যের
দিল্লী
দূর্বল
বরাদ্দ
ভেক্টর
islamic
physics
বিস্ময়
শান্তির
সুপ্রিম
যাতায়াত
september
আত্মজীবনী
রেজিমেন্ট
সাম্যবাদী
ড্যানিয়েল
পর্যালোচনা
প্রতিশ্রুতি
##oo
##va
##শনে
##হরি
ba
##দুটি
##ুষিত
অথচ
চিপ
দাফ
নীর
রিম
উড্ড
জ্বর
লীলা
##াইজেশন
april
উপভাষ
জঙ্গল
দৈত্য
ফ্যাক
সকালে
##জিম্বাব
উঠেছিল
মাহবুব
লোকদের
chinese
আলফ্রেড
উত্তোলন
সফলভাবে
তাইওয়ান
পরাজয়ের
ব্যাংকিং
সুইডেনের
##day
##ভিক
##োভাক
বরণ
##জাহান
##নিষদ্
mark
name
star
ধরতে
বিধি
ভদ্র
মোগল
##াণ্ডার
##িডিয়া
paris
জরুরি
লাহোর
##বিদ্যুৎ
##ভেঞ্চার
খিলাফত
পৌছায়
মিথ্যা
গাজীপুর
চালানোর
সম্বোধন
ইস্টার্ন
পড়াশুনা
পরস্পরের
প্রজেক্ট
বাস্তবায়ন
মস্তিষ্কের
সম্পূর্ণরূপে
##ón
##আক
##din
##utt
##চ্য
##ড়ো
##াপর
অয
‘‘
##াকশন
##িফার
মোদ
রাধ
আনেন
পদের
র্যা
সংগে
##ration
অন্তঃ
ওয়াক
বারাণ
স্টোন
জামায়
লেখকের
হিব্রু
##প্রতিষ্ঠ
cricket
নিবন্ধন
লক্ষ্মী
অধ্যাপনা
অভ্যন্তর
কর্মকান্ড
টেলিভিশনের
চ্যাম্পিয়নস
ব্যাটসম্যানের
স্কটল্যান্ডের
##ইই
##mat
##ogn
##বিত
##মহল
##রুশ
ঘু
##back
##ঙ্গু
##ভিডি
##সেসর
##োক্ষ
ref
নড়
##জগতের
##াপন্ন
shar
এ্যা
শোভা
japan
আশরাফ
ছিদ্র
পত্নী
##বার্ষিক
গ্রুপে
পৃষ্ঠা
যোদ্ধা
সেক্টর
ওয়াটার
কাব্যের
দেয়ালে
স্যান্ড
অধিদপ্তর
বাজারজাত
মেলবোর্ন
ত্রিনিদাদ
স্বায়ত্ত
publishers
##”,
##গোর
if
sn
ta
yo
##ন্না
san
টুল
পর্
প্রম
প্রহ
বলেও
সাঁও
river
অবতরণ
উন্মো
কালাম
পড়লে
ব্রেক
হিস্ট
বাচ্চা
000–000
পেরিয়ে
বন্দরটি
ব্যবসার
বিস্ফোরণ
##সল্যান্ডের
উপস্থাপনা
##পূর্বাঞ্চলের
##নিউজিল্যান্ডের
##dr
##খত
##ডু
##bin
##han
##বাঁ
বউ
##বিড়
##ম্বর
acc
চোপ
ঝাল
পাম
লতি
##acing
##esent
##বিবাহ
mass
উদার
ঘেরা
পোষণ
মুলত
##্সবাদী
প্রোড
শুকনো
স্নান
হয়তো
তখনকার
বিকশিত
রক্তের
##মাধ্যমিক
পরিদর্শ
প্রতিভা
##বাংলাদেশে
পরিদর্শন
সম্রাটের
তাপমাত্রার
নিরাপত্তার
ম্যাগাজিনের
স্থায়ীভাবে
স্বেচ্ছাসেব
##লু
##ior
##ছোট
##ল্য
lt
রজ
##হাটি
nob
pur
গাউ
ফৌজ
হেজ
road
আরাম
কিংস
চম্প
##ান্বিত
royal
ঘটানো
পুস্ত
মিশরে
সোর্স
##বার্গের
পরিশোধ
western
পরিভাষা
প্রযোজন
##কম্পিউটার
analysis
ল্যাবরেট
এম্পায়ার
ব্যবহারিক
##fo
##ope
##্সা
##ival
##দলের
##াজ্জ
##িগান
det
ইপি
কেই
##াইল্ড
উম্ম
কথ্য
চলাচ
তারই
নেতি
পরমহ
ভোলা
water
তফসিল
##ication
##মাস্টার
আত্মার
চল্লিশ
বেলায়
মিশনের
country
ইলিয়াস
ক্ষতিকর
ভার্জিন
জুলিয়ান
মালিকানা
সংস্করণের
জার্মানিতে
জীববিজ্ঞান
ق
##00,
##জনি
##পাক
##াকর
##akes
##gypt
##omet
##জীবি
##ুর্ত
ভূত
##কার্ব
##চিন্ত
plan
কুইন
বানর
##onment
কথাটি
রেলের
শাক্ত
কোথায়
ভাষাটি
রিয়াজ
সাউন্ড
সামন্ত
##াবস্থায়
(0000):
অন্তর্ব
ওয়াটসন
নামকরণের
ফটোগ্রাফ
রক্ষণশীল
প্রশাসনের
ইউনাইটেডের
স্বাক্ষরিত
##bc
##।)
##ৃৎ
##rel
##পাট
ভন
##ধন্য
##ব্লো
##য়েট
sar
ঋষি
জিব
তৈল
পিস
##জিস্ট
##বন্দর
##ায়েদ
বলিভ
রোডে
##ঞ্জেলে
বিনতে
সাগরে
##সংরক্ষণ
এভাবেই
পদাতিক
পুরোনো
archite
version
খাদ্যের
স্টেশনটি
একটিমাত্র
পোল্যান্ড
প্রতিকৃতি
##ুথ
##sis
##ফোর
##স্গ
জব
বণ
##ষ্ণু
ast
non
অনি
এরই
ফতে
##ইয়ার
##পর্বে
appl
page
অপার
উরুগ
গুহা
ঘাড়
ছন্দ
বণিক
ভেবে
যুবক
সাইন
civil
দিলেন
প্লেট
সাথেও
স্প্র
অধিকতর
উদ্দীন
কিঃমিঃ
present
কেনিয়া
পিছিয়ে
ফ্লোরিড
ভ্রমণের
কলম্বিয়া
দৈর্ঘ্যের
মধ্যযুগের
রাষ্ট্রদূত
স্টেডিয়ামের
ম্যাজিস্ট্রেট
##ঙর
##ৈর
##দূর
##ries
##ঙ্গি
##িয়ট
##ৌকিক
ভুগ
##্বরের
bird
পরেও
বচ্চ
হতেন
কার্ন
উল্লাহ
বিদেশি
দুর্যোগ
প্রসঙ্গ
লুকিয়ে
সুবিধার
হ্যান্ড
আনোয়ারা
কাউন্টির
ব্যবহারে
আইল্যান্ড
প্রদানকারী
প্রয়োজনীয়তা
ن
##তেও
##াকী
ha
##anta
##ফ্রি
##যোগে
cir
var
ফোক
##টাঙ্গ
park
rock
মাদক
সন্দ
হাতি
অ্যাভ
গর্ভে
ভাগ্য
##গ্রাগ্স
অনার্স
এজেন্ট
গাড়ির
ভেতরের
স্থগিত
এমনভাবে
এলাকাটি
ছায়াপথ
অংশবিশেষ
dictionary
অস্বাভাবিক
সাম্রাজ্যে
gh
##bang
##ঞ্জা
##ভ্রম
##র্দি
##ুর্য
que
von
আইই
পেই
##:0000
##ellow
##ালয়ে
অর্প
এমআই
করেও
টেলর
মাইক
##্টিনোপ
where
অঙ্কন
আবশ্য
ইয়াহ
নওগাঁ
মৈত্র
service
আলবার্ট
স্কোয়া
ক্ষয়ক্ষ
দুর্গাপূ
প্রচারণা
লড়াইয়ে
নেটওয়ার্কের
##aya
##can
##och
##্বি
##abad
##lear
##িমির
ভিজ
##জাতির
##বিস্ত
##রেস্ট
(0).
এরিক
গোটা
পথিক
বাগদ
being
ক্যাচ
ক্যাব
খিলাফ
রিভার
সুন্ন
হাস্য
হ্যাক
##মালয়েশ
person
special
উপলব্ধি
উপাধিতে
উপত্যকার
নির্দেশক
different
ওয়াল্টার
টেকনোলজির
স্বত্ত্বেও
পদার্থবিজ্ঞানের
##da
##শহ
##pol
##ray
##rew
##বিই
##মিও
##মেল
##হুল
##াজক
##ানীর
##istic
##চুম্ব
##াক্রম
test
উদয়
বর্জ
মেরু
সমুদ
##বিশেষে
ডেনিস
পাশেই
মিউনি
কুরাইশ
পরোক্ষ
ভাষাকে
natural
ডাইনোসর
দামেস্ক
দুর্গের
পুত্রের
বুদ্ধিম
দেবতাদের
philosophy
সাংবিধানিক
দৃষ্টিভঙ্গি
##চো
##hip
##ভেজ
##াঁর
##....
##কেতু
##ন্ডল
ide
এলি
গিব
নরস
প্য
শেন
##পাদ্য
##ীতায়
order
ক্যাট
দেওয়
সার্চ
সেতুর
##ওয়ার্ট
গোড়ার
বয়সেই
বিকাশের
বিষাক্ত
যাবতীয়
সংমিশ্র
স্টিফেন
আন্দামান
রাজনীতির
শিলালিপি
সন্দ্বীপ
##পাকিস্তানি
দৃষ্টিকোণ
মৃত্যুদন্ড
গঙ্গোপাধ্যায়
প্রতিপক্ষফলাফল
##সাঃ
টর
##rich
##পরিষ
##িটির
কোহ
গুঁ
জিত
ভোজ
##uthor
##ংয়ের
##প্রাণ
##মানুষ
##সংগীত
##স্টোন
আপাত
কাবা
প্রি
ব্লো
ভরের
##indian
##istics
##ারেস্ট
ক্ষমা
ডিমের
তোমরা
ফিরোজ
মাপের
শার্ল
স্পেশ
##ব্স্তান
##সামাজিক
muslim
source
কীভাবে
সিটিতে
##চন্দ্রের
against
কুস্তিগ
নিশ্চয়
বিচারের
ব্র্যাড
মতবাদের
সরস্বতী
সৈন্যরা
অনিয়মিত
এওয়ার্ড
গোস্বামী
নেতিবাচক
পরিত্যাগ
প্রথমবার
আলাউদ্দিন
প্রতিফলিত
রাস্তাটির
হিমালয়ের
প্রচেষ্টায়
চিত্রনাট্যকার
س
##mas
##oman
##ূল্য
nar
গুর
##গুচ্ছ
##ন্ধিক
camp
দন্ড
বীমা
##ন্দকার
হেলিক
##ন্ত্রিত
ওস্তাদ
বর্গের
##িমাত্রিক
শ্রদ্ধা
military
politics
সদরদপ্তর
প্রতিস্থাপিত
##uz
##het
##ven
##বোন
##নেতা
##সম্ভ
##াস্ক
tri
অপহ
কেক
ডেক
ভাট
শরি
##স্তোন
last
mach
আটকে
আসীন
কোলা
থ্রি
মাইজ
শোষণ
সুড়
##হাজারী
##্থানের
কাউকে
french
মক্কার
অ্যাসিড
চাঁদপুর
থ্রিলার
বাৎসরিক
মহারাজা
স্বাভাব
বাস্কেটবল
background
##থাইল্যান্ডের
##uel
##কুর
##থিত
##রুপ
##েলি
jo
##illa
##mann
##াকান
##িদার
die
feb
বৈষ
##মিত্র
##াদেমি
বামন
সুইস
##জিবিটি
(00).
আমলের
গোপনে
জরুরী
নাসের
সিয়া
স্টাড
period
মাগুরা
কার্যকার
ছাড়িয়ে
সুলতানের
evolution
foundation
##ico
##pal
##কেশ
##বাণ
##বিট
##েসি
নু
##জ্ঞা
##বিএম
##য়াব
##াউনি
##্লাদ
bib
ইনজ
গুড
বাট
##গুড়ি
##রঞ্জন
##াবলিক
army
tele
দফতর
সবজি
##বিহারে
films
small
নবজাগ
বেশীর
যুগ্ম
##াতত্ত্ব
জীবদ্দ
নির্গত
সবকিছু
সহযোগে
উপকূলের
কাজকর্ম
চতুর্দশ
নাটকীয়
পূর্বতন
আজারবাইজ
একপ্রকার
প্রকল্পে
প্রতিফলন
জন্মস্থান
ম্যাট্রিক
রেখেছিলেন
পাণ্ডুলিপি
##ien
##্হা
0:
##blem
##বলিত
arg
raj
বুর
##দেহের
##প্রয়
##বুদ্ধ
##াদর্শ
বক্ষ
বিপণ
স্যু
##মুক্তি
famil
আড়াই
কাজটি
ছিন্ন
রেস্ত
##ক্তিত্ব
contin
গুলিতে
বন্দুক
মার্কে
সিংহের
কবিতায়
প্রেরিত
ফার্স্ট
মক্কায়
মেয়াদী
বিশ্বাসী
স্থিতিশীল
প্রতিবেদনে
engineering
##অর
##আঃ
##ফস
##মিং
##শোধ
##িবল
##ুকর
##্শা
ইফ
জং
##ছড়া
##প্তি
##োজাহ
আপন
জেড
হিপ
##উইকেট
##ড়ানো
##ুয়েড
both
ফুলে
বুকে
মণ্ড
যাদু
##োর্টের
based
magaz
point
জম্মু
নেহের
ফেলতে
ব্যাল
লামার
##বাবগঞ্জ
##্রিয়ার
কুমারী
##রাজনৈতিক
অনেকটাই
উদ্ভাবক
পার্বতী
পাঞ্জাবি
খ্যাতিমান
স্ট্যান্ডার্ড
##নব
##োত
##lor
##কোহ
##সেই
##িতল
এও
##ball
##ised
##orth
##ূনতম
hom
web
দুল
নকশ
নীত
মুশ
মোন
##রসায়
##িনিকে
glob
then
আয়ু
উল্ল
চত্ব
টীকা
ভৈরব
##নন্দিন
ঐশ্বর
পাননি
লেবান
সাথেই
হারান
cinema
মুষ্টি
জাদুঘরে
প্রচ্ছদ
ফ্রেঞ্চ
ছাত্রাবাস
collection
পরিকল্পনার
##োৎ
##পেন
##পেশ
##সাত
##কর্ত
##ক্রী
fem
হলঃ
##গ্লিং
##মালার
##সময়ে
##াসনের
head
iran
poet
গণ্ড
পৌছে
রুপে
##অর্ডার
##আধুনিক
##ইসলামী
cross
grand
আস্তে
ইয়াক
ইহুদী
বিনয়
mosque
চৈতন্য
রাজশাহ
অন্ধকার
অভিবাসী
হাজারের
religion
অধিবেশনে
গণমাধ্যম
পরিমাপের
এক্সচেঞ্জ
নিম্নোক্ত
খৃষ্টাব্দে
রায়চৌধুরী
টেলিযোগাযোগ
আফগানিস্তানে
ক্যান্টনমেন্ট
নেদারল্যান্ডস
##cem
##mod
##mus
##আইন
##ভ্য
##্ডো
ঋগ
##icus
##আফ্র
##কারক
eth
00ই
##ঙ্ক্ষ
##জাতিক
khan
আইনি
ভুবন
মসৃণ
সিডি
ওজনের
ঙ্গাগ
টুকরো
নন্দী
পুর্ব
পেলেও
ভুটান
সম্মত
##য়েডীয়
সুইডিশ
খাওয়ার
সমতুল্য
অধিগ্রহণ
অধিভুক্ত
ইন্টারনে
ঐতিহ্যের
জামালপুর
দেহাবসান
বিশ্বনাথ
মেক্সিকোর
হগওয়ার্ট
বিবেকানন্দের
##ৈক
##াদর
##াবু
##্দে
##ples
##ভদ্র
##্যুদ
sem
ইহা
জাজ
রেই
##iness
##গোত্র
##ঢাকার
##েন্দু
অভিশ
কারা
দেবে
বিবর
##াপুরের
চাষের
চৈত্র
ড্রাম
রাগবি
স্টাফ
প্রাইম
ভিক্ষু
মাদরাস
যেগুলি
সার্টি
##াপ্রাপ্ত
কাঠামোর
ভালোবাস
function
উদ্বুদ্ধ
জ্বালানি
দিল্লিতে
প্রায়শঃ
বাছাইপর্ব
বাণিজ্যের
##জিম্বাবুয়ের
পরীক্ষামূলক
ব্যাটিংয়ের
স্ট্যানফোর্ড
##ঘ্ন
##ফুর
fr
##ffic
##ived
##োল্ড
lim
আলু
খনি
লিথ
##দারের
##পাতের
##সম্মত
foot
rout
বাতি
রঞ্জ
রেজা
##সমূহকে
অক্ষম
রেস্ট
ইসলামে
জাতিগো
জাহাজে
দুর্গা
বিড়াল
মনুষ্য
সোনালী
ন্যূনতম
পছন্দের
পাখিদের
পুরোহিত
মার্কেট
নিবন্ধিত
পরিচালকের
বর্তমানের
সীমান্তের
##ওহর
##গেন
##পিং
##পুত
##াকো
##aves
##duct
##াত্ব
##ায়ত
add
mur
now
set
আইও
খুশ
জাব
লিভ
##andra
##টার্ন
##ধায়ক
##নাগাদ
##পুকুর
##লিয়া
আয়ন
আহমে
কেনে
ইথিওপ
গ্লাস
ডেভিস
দখলের
পুষ্প
বানিজ
মনসুর
শুদ্ধ
mechan
অভিভাব
আগস্টে
আলমগীর
নিখুঁত
বোম্বে
ভ্রাতা
সুলতানা
স্টিভেন
ব্যবহারকারীদের
##েউ
##মিউ
##হাদ
ah
na
##anth
মনি
##anish
##পূর্ন
##শ্বাস
##ষ্টিক
##িবাদী
##ুদণ্ড
এরূপ
তখনও
##সিয়াম
peace
নগরীর
রানার
রাহুল
##ulation
কাঞ্চন
ন্যস্ত
পাতায়
প্রেমে
টেলিফোন
ট্রেনিং
পার্কের
বাসিন্দ
মামলায়
দৈনন্দিন
সাময়িকী
সংগ্রামের
ক্রিস্টোফার
পর্নোগ্রাফি
সমুদ্রপৃষ্ঠ
##rey
##ডির
##েলস
##্ডি
##করণে
##য়েন
bal
লাউ
শেক
##stein
##টিনের
##তামিল
##পত্রে
##োনায়
ইয়া
ঘোড়
পনের
মণিপ
মহিষ
সুবি
##িশিষ্ট
আর্টি
এঁদের
কান্ত
দালান
নেত্র
ব্রুন
যৌনতা
সমস্য
চালাতে
দাঁতের
মধ্যেও
হাসিনা
kolkata
রাজাদের
রিজার্ভ
দেয়ালের
সংগ্রামী
উদ্যোক্তা
নীলফামারী
হস্তান্তর
সাংবাদিকতা
ডেভেলপমেন্ট
প্রত্যাবর্তন
##পট
##জুক
##তাশ
##পাশ
##্তি
##iled
##গোলা
##হাতে
##োধিক
##োনের
ant
wid
এ্য
ঘনী
জ্য
ডাম
পিন
মুফ
##উসমান
##বিদের
anim
jose
left
দন্ত
লিখন
সুসং
হলদে
child
এডুকে
খণ্ডে
বসানো
মরহুম
হরমোন
হার্জ
##নামধন্য
health
উপভাষা
স্ট্রে
##স্ক্রিয়
চলাকালে
দীর্ঘতম
দ্রাঘিম
ধারণাটি
সুরক্ষা
##স্বাধীনতা
ইয়র্কের
দূরবর্তী
##yr
##ৃথ
##ots
##0টি
##cher
##বিধা
##াসিত
##োগান
aff
nic
pen
ডাট
ধরণ
ভীম
##erson
##stand
##কল্যা
##দেবের
fore
দাফন
দৌলত
রশীদ
শ্যু
##োর্টিং
কাতার
কৃষিক
পাবার
আমদানি
ঘোড়ার
পাঠদান
পিয়ের
প্যাকে
নির্বাহ
বড়ুয়া
সোশ্যাল
অণুষ্ঠিত
কর্মীদের
পরিবেশিত
ফটিকছড়ি
বাঙ্গালী
জ্যামিতিক
বোলিংয়ের
সন্তানদের
উপস্থিতিতে
programming
##no
##iet
##pre
##তলে
##রাহ
##ুসূ
##চেতন
fri
জলজ
দাল
বেজ
##aceae
##ানীয়
data
your
অম্ল
উড়ে
জুনে
সিএন
##নাকারী
##ার্ধের
##িনায়ক
দেখাশ
ন্যান
বার্ড
ফুটবলে
বিতাড়
রাউজান
লেখায়
শ্রেণি
উৎকীর্ণ
প্রবর্ত
প্রয়াত
মরুভূমি
##ভিয়েতনাম
includes
খিলাফতের
নথিভুক্ত
অভিজ্ঞতার
টেক্সটাইল
ফিলিস্তিনি
নারায়ণগঞ্জ
নিউক্লিয়াস
ভিয়েতনামের
কর্মকর্তাদের
##কূ
##las
ওশ
##rish
##size
##জোড়
##বাণী
##র্ণা
##াহাম
beh
deb
eas
আতা
নভো
বদর
বুট
ভাঁ
##ফাস্ট
isbn
soft
বহুব
মিমি
##americ
##hammad
major
আশঙ্ক
গল্পে
পুতুল
বার্ত
বিধ্ব
though
এসেছিল
ততোধিক
ত্রুটি
দিগন্ত
পাচ্ছে
মহাদেব
##রবীন্দ্র
অ্যাক্ট
কিছুকাল
পাহাড়ে
বহুমুখী
মেডিসিন
ক্রিস্টি
বঙ্গাব্দ
মহাদেশীয়
সন্ত্রাসী
ভারতবর্ষের
মুক্তিবাহিনীর
##অথ
##ধের
ak
কলি
গাব
মুস
সুষ
##icago
##ফুটবল
wood
জব্ব
মেইল
লিওন
সমার
##প্তরের
##বান্ধা
##োরিয়া
quant
অংশকে
আজকের
রাজীব
সকলেই
ওয়ালি
গিয়াস
ঠান্ডা
পুষ্টি
উত্তপ্ত
বাহ্যিক
সৃষ্টিক
তীরবর্তী
কেন্দ্রটি
দুর্ভিক্ষ
সঙ্গীতজ্ঞ
ফিলিপাইনের
ক্ষতিগ্রস্থ
##েফ
##bra
##ids
##win
##বর্ম
টুই
##ইয়ের
##ওয়াট
##ওয়াব
rele
চলার
মর্ম
মুনা
লঙ্ঘ
##ফ্রন্ট
##যোদ্ধা
##াত্বিক
death
উইলসন
ট্যুর
তালুক
মার্স
সংগঠক
হেলেন
##ailable
##উপন্যাস
##েনিয়ার
মহাযান
ডোনাল্ড
প্রবাসী
##টেইনমেন্ট
উদীয়মান
রাজধানীর
সুরক্ষিত
লাইব্রেরী
অলিম্পিয়া
বিদ্যাসাগর
মেট্রোপলিটন
বিমানবন্দরের
বাণিজ্যিকভাবে
##do
##iy
##cus
##জ্জন
##মাইল
##যুগে
##র্তী
##ার্ম
##ুদেব
dyn
মেজ
0নং
##াইডের
##িক্সা
foll
কুরু
জয়ে
বিলা
হাজী
##স্বামী
##িয়েরা
নিত্য
ব্রুক
সংসার
সন্তু
স্টোর
হ্যাড
আগমনের
নম্বরে
সাইন্স
উৎপাদনে
পার্লাম
মূর্তির
অ্যাপ্লিকেশন
##cis
##ief
##াতু
##োরো
কদ
##পদ্ধ
##ৈখিক
##োগ্ল
##োলের
ফোট
রেম
হেস
##গ্রেড
##জ্যাক
##ব্রাজ
##রিয়া
chap
jack
আম্ব
আলাপ
উত্স
জানে
দরুন
বেলে
রহিম
রেশম
সাঈদ
pract
মামুন
লিবার
সেক্স
before
মডেলিং
সন্তোষ
reprint
অভিনয়ে
উন্নতির
দ্বিগুণ
বিবাহিত
সন্ধ্যা
স্বার্থ
ঝাঁপিয়ে
শিল্পকর্ম
##ইজ
##ঝো
##আয়
তি
##রাকে
##োগ্য
pun
এডি
লিম
##পাঞ্জ
বিমল
##উইজডেন
start
যোদ্ধ
গতিশীল
control
অঞ্চলকে
অন্যদের
ক্লাসিক
সার্কিট
হবিগঞ্জ
standard
অনুচ্ছেদ
আবিস্কার
গুয়াহাটি
পরিকল্পিত
প্রতিবন্ধ
প্রায়শঃই
মেমোরিয়াল
বৌদ্ধবিহারে
##ns
##cil
##থুন
##দুই
##ফ্ল
ওক
##এসএস
##ঙ্খল
##রিতে
##িয়ত
কীট
কুচ
রিফ
হোন
##inger
##াগড়া
কঙ্ক
বিলি
লাদা
সংকট
##স্টেশন
আসন্ন
কাটার
ছেলের
তালিব
পিঙ্ক
মির্জ
সারাব
পঞ্চদশ
প্রসেস
##টাঙ্গাইল
আহমেদের
শ্রেণির
##রাষ্ট্রের
গ্রাউন্ডে
প্রত্যেকে
সমালোচনার
মধ্যপ্রাচ্য
ধর্মনিরপেক্ষ
নিয়ন্ত্রণের
##হী
##urs
##সাধন
##সিটি
##াইলে
চোর
ডেস
##ুমারী
জনসম
টেইল
নাড়
##lected
পরগণা
বাঘের
ব্যাড
রেনেস
লোহার
##ruction
##কৃষ্ণের
##াবৃত্তি
compar
edward
চাকুরী
জার্সি
দিয়েই
january
করেছিলো
প্রচারণ
মসজিদটির
সোডিয়াম
কৃতিত্বের
প্রাসাদের
মধ্যবিত্ত
স্ট্যাম্প
##সর্বভারতীয়
ইউরোপীয়ান
চ্যাম্পিয়নশিপে
##োং
##োকল
##onia
##নতুন
##েবোন
ban
tal
আকা
লোম
##erial
##হার্য
##ীক্ষণ
real
আদলে
পোকা
অসম্প
এরপরে
ক্ষেপ
জায়গ
ট্যাব
মুন্স
র্যাম
সাভার
স্কাই
##ফ্রান্স
বুঝানো
##বিদ্যায়
টেক্সাস
নাগরিকদের
রাজতন্ত্র
রেজিমেন্টের
স্বাধীনভাবে
encyclopedia
সেঞ্চুরিকারী
হার্ডওয়্যার
##ho
##ُّ
##den
##ila
##ude
##রোগ
##াগৃহ
##াদেম
##াহীন
##্মিক
আবহ
coun
এমপি
টেনে
ডেকে
##্যাটিক
অপেরা
আলোকে
চাইলে
শহরকে
অভ্যাস
গানটির
গোয়াল
দর্শনে
নিয়েই
পটিয়া
পায়নি
বিক্রে
##national
প্রাচ্য
মিশ্রিত
শাসকদের
প্রকাশনী
available
চিন্তাবিদ
আত্মহত্যার
প্রতিপক্ষের
##নু
##cet
##ias
##ves
##টনে
##বিএ
##সিএ
##ামক
ze
##00.0
##ayan
##পালা
##াপনে
##োলিন
any
bus
hon
inf
কিড
ছিট
শুল
##india
wall
অতুল
প্রল
##িকারের
union
ক্রুজ
শুটিং
ঘটনাকে
ভিতরের
মহাপ্র
সেক্রে
digital
october
চারদিকে
industry
গৃহযুদ্ধ
পরিবহনের
পশ্চিমের
মাতৃভাষা
অভিযাত্রী
উপদ্বীপের
শিল্পীদের
অ্যাথলেটিক
ইন্ডাস্ট্র
স্বনামধন্য
অ্যাসোসিয়ে
সম্প্রসারিত
##আগ
##ষী
##’-
##olf
##থ্র
##mill
##rent
##প্যা
ash
syn
গ্য
বিউ
রোপ
সেচ
##ruary
##world
##গ্রুব
##রংপুর
##হারের
আহোম
বহির
হেভি
front
ইস্যু
উপনদী
চান্দ
চাপের
চিকিত
ডিজাই
অর্গান
অস্থির
ঘোষণার
দুর্লভ
নারীরা
ব্যুরো
সঞ্জয়
process
একসঙ্গে
ক্ষমতাস
চলাচলের
নিকোলাস
মুহূর্ত
document
অ্যান্টার
নাগরিকত্ব
##পাইনবাবগঞ্জ
অভ্যুত্থান
উন্নয়নশীল
ব্যবহারকারীর
##df
##ilt
##জাই
##সৌধ
##হোম
ওস
##atus
##ours
##এসপি
##নাটক
nav
run
way
ডাব
ডুম
শান
##ফিল্ম
##্যর্থ
hall
step
ইন্ত
গিনি
নেপথ
ফাঁস
##cember
##নির্ভর
##য়ারের
ট্রাক
বচ্চন
বিভাজ
ভক্তি
সাধিত
এইভাবে
চোপড়া
ভিক্টর
প্রচন্ড
বেষ্টিত
চরিত্রটি
ধর্মান্ত
ভারসাম্য
শিক্ষিতের
দুর্ঘটনায়
বর্ষপঞ্জীর
##(0
##ras
##গেট
:*
টক
##যাপন
age
bir
জুম
দৃশ
নিন
নেল
মিত
শিং
##পালিত
##্রেশন
batt
ট্রি
ঢুকে
তামা
সদ্য
appro
কিতাব
ছুটির
ধানের
বেলার
রিভিউ
শ্রীম
স্বরব
##ওয়ার্থ
palest
ধ্রুবক
বিপন্ন
সিপিআই
সুবাদে
স্কাউট
ছেলেদের
বানিয়ে
স্পেশাল
কর্ণফুলি
অধ্যয়নের
পুরুলিয়া
##চট্টগ্রামের
সায়েন্সেস
দায়িত্বপালন
##ny
##ker
##াতক
##ামাক
এফএ
জিহ
লতা
সুপ
আনাত
কিলো
বহাল
হজ্জ
##লাভজনক
##িয়েশন
চিলির
জানার
ডার্ক
তাম্র
ন্যাশ
মধ্যা
স্থলে
কন্নড়
বর্তনী
##তৃতীয়াংশ
মহাসাগরে
হালনাগাদ
অধিবাসীরা
হাটহাজারী
অস্তিত্বের
##(''
##cap
##লতা
##কালো
##চারে
##প্রস
##লিপি
##েশান
কাফ
নথি
সমর
##ville
##প্রেম
##ফুল্ল
##মান্ত
##মান্য
আরবী
আলাই
গামা
গুটি
নিচু
ভাজা
ভাটি
##জাপানি
##োজাহাজ
mount
ইরানি
করেন৷
দায়ে
রামের
সাধনা
উপাসনা
বিবৃতি
শীর্ষক
সম্মতি
সিলভার
academy
আশেপাশে
ইয়েমেন
গ্রাহাম
পড়েছিল
পরিপ্রে
মানদণ্ড
লক্ষ্মণ
electron
november
আমিরাতের
পারস্যের
প্রতিশোধ
মধ্যযুগে
উপপ্রজাতি
চিকিৎসায়
ফেব্রুয়ারিতে
সুইজারল্যান্ড
##ار
##ীহ
0–
কং
##less
##raft
##আন্দ
##খানি
##তিকে
lin
কোট
খাজ
মুভ
রেখ
শৈব
##aries
##থাম্ব
##বাহিক
##ালায়
prop
আমলা
চিলি
পিছু
মরিস
##নিকেশন
##প্রদান
উড়তে
ক্রিট
গণিতে
গ্রিফ
চালনা
ট্রান
ট্রাম
ফোর্ট
##দ্বয়ের
তাৎপর্য
বাতাসের
ল্যাঙ্ক
সমুদ্রে
হাওয়াই
european
অপরিবর্ত
যাওয়ায়
দুর্গাপুর
স্বরাষ্ট্র
##rie
##আইএ
##তাও
##িপদ
vo
##মারী
##াচ্ছ
fer
tom
tre
উচু
কতি
তিথ
ভেজ
##ওয়াক
##টিতেই
them
খাতে
নাকি
পালি
সূচক
##বরিশাল
##িমেটেড
উপজীব
কখনোই
গতিতে
বানান
ভলডেম
মঞ্চে
মোশার
হ্যান
##spacing
bridge
আদিবাস
ডিভিশন
পাঠাতে
সর্বদা
সীতাকু
এড়িয়ে
সদস্যপদ
হ্যারির
বর্ণমালা
সমালোচিত
সুন্দরবন
চ্যানেলটি
মহাসড়কের
কম্বোডিয়া
ধর্মতত্ত্ব
ইলেকট্রনিক্স
ধারাভাষ্যকার
শ্রেণীবিন্যাস
সুইজারল্যান্ডের
##gl
##ona
##ওকত
##জুল
##দিব
##লীগ
##ানেস
den
wik
গোঁ
ছুঁ
দিত
নিচ
##ভারতী
##হাঙ্গ
stre
wash
আল্প
গাইড
জহুর
মঠের
0000;
known
তেলের
ফেরদৌ
বর্জন
রঞ্জন
সুনীল
##িয়ার্স
illust
অদ্ভুত
গার্লস
চৌম্বক
দাঙ্গা
মডেলের
মহিলার
শামসুল
network
আন্দ্রে
এডুকেশন
ডাউনলোড
রোনালদো
লিঙ্গের
##আর্জেন্টি
এয়ারবাস
দুর্ঘটনা
ব্যাক্তি
শরণার্থী
##ভারতবর্ষের
##াতাত্ত্বিক
বিবেচনায়
cellspacing
জীববিজ্ঞানী
তেজস্ক্রিয়
ব্যবস্থাপনার
##ved
##কেম
##ভিগ
##াপা
##বাদি
##লন্ড
##ুজীব
##ুনাল
gar
tru
নোব
ভোঁ
##ually
কারন
বলার
ভর্ত
রকেট
সোজা
##াপূর্ণ
##ুশিল্প
manag
পর্দা
প্রাব
অগ্রণী
আলিপুর
কর্মের
পাঠায়
মৃতদেহ
সেইন্ট
##উসমানীয়
##পরিবারের
কাতালান
শুকিয়ে
সম্বলিত
000-000.
movement
উচ্চারিত
কন্ট্রোল
ব্যানারে
মহেন্দ্র
সিদ্দিকী
থিয়েটারে
##মার্ক্সবাদী
(0000-0000
ক্যারিবীয়
পোড়ামাটির
ক্যালসিয়াম
বিজ্ঞানীদের
##ইন্দোনেশিয়ার
শিক্ষার্থীরা
আন্তর্জাতিকভাবে
##পস
##নান
##িউম
##্ঠে
খস
##শক্ত
##ুড়ে
##ুসের
cop
ibn
wis
একট
##00.00
font
অর্ক
আশ্চ
খুঁজ
ডুবে
বাহন
মেইন
##ইউসিএন
prize
short
আবারও
কৌতুক
মাঝের
লেভেল
##ইতালীয়
##চ্ছেদের
effect
অভিন্ন
ফিল্মস
মামলুক
মারাঠি
সংসারে
সড়কটি
অরুণাচল
ট্রাম্প
দলগুলোর
ল্যাপটপ
সাক্ষ্য
সার্বিক
গণতন্ত্র
প্রবেশপথ
##.;
##gu
##ily
##ডিং
কট
খৃ
##মানে
##সত্য
##হেলা
alt
ltd
max
tit
রাও
##স্ক্র
##াজীবন
আবেদ
গোড়
বাদক
হানি
##ক্ষিতে
##প্রচার
##বরাহিম
##োমিটার
জীবাণ
নাটোর
পেঙ্গ
লোকাল
##োপনিষদ্
israel
আচরণের
complex
চিত্রকর
ট্যাক্স
ফেডারেল
লেখকদের
সার্টিফ
সিরিজটি
building
sciences
পর্তুগাল
শিক্ষকের
সমাধানের
represent
গ্রাফিক্স
প্রান্তের
শ্রমিকদের
বঙ্গোপসাগর
বিমানবন্দরে
আন্তর্জাতিকের
##اب
##।’
##ঘোষ
##সিং
##সিম
),
ot
##oria
##ৃথিব
ছেদ
পিল
বটে
বদল
##ঙ্কিম
##ফিলিপ
##মুদ্র
আইপি
পর্দ
কান্দ
ড্রাগ
যোগান
সংঘের
হাকিম
boston
গ্যারি
জটিলতা
প্রভূত
বাসভবন
মৌসুমী
স্থানা
##োগ্রামের
এ্যান্ড
দ্রুততম
বেড়ায়
সূক্ষ্ম
স্কুলটি
##vironment
মুখার্জী
australia
স্মৃতিসৌধ
ইসরায়েলের
জীবদ্দশায়
বিক্রিয়ার
ক্ষমতাচ্যুত
##ih
##cia
##খির
##দ্ৰ
##রুল
ডো
##চীনা
##স্রো
##্বেষ
অনব
আবে
পাচ
ফুক
ফেম
মোস
রিন
সনি
##iving
##কন্যা
##পাত্র
##িপিতে
আব্র
আয়ে
বেড়
ব্রজ
would
অমিতা
ইমরান
ইয়াজ
প্রিন
মিলার
রেখার
লিন্ড
অর্জিত
জয়পুর
ডিভিডি
ভূমিতে
মুন্সি
account
ধ্বংসের
রোকেয়া
আলোচনায়
ইতিমধ্যে
ওয়েবসাইটে
সুন্দরবনের
##খ্রিস্টপূর্ব
##িচ
##ত্শ
##নাই
##্পা
কচ
পঠ
##ason
##ques
##মর্য
##হায়
##াইদহ
##াতুল
hal
moh
opt
টুর
দোহ
পিউ
শাই
##্বয়ে
মূলক
শহরা
সংকর
##াপত্তন
##েন্সিল
##্রিবিউ
micro
ইনস্ট
মুগ্ধ
সাপের
##াল্লাহু
comple
family
অদৃশ্য
কতিপয়
নাটকটি
হেমন্ত
##ানুযায়ী
উপজীব্য
পোকামাক
পৌঁছায়
মুদ্রার
যৌক্তিক
magazine
সংঘর্ষের
স্বার্থে
হুমায়ূন
washington
অস্ট্রিয়া
আব্দুল্লাহ
সিদ্ধান্তে
প্রতিষ্ঠানটির
##:)
##ধূ
##acy
##ika
##চিল
##ডাক
##বেত
ডক
##krit
##একজন
##টপের
##যদিও
##ুকলা
bab
দফা
ভরত
##তুর্ক
##ার্জন
case
pass
what
ভয়ে
লাওস
শচীন
সিগন
##আল্লাহ
##লক্ষ্ম
আলহাজ
গুলির
তাজিক
রেঞ্জ
শিশুস
হয়না
partic
আওরঙ্গ
##ান্টিনোপ
জন্মায়
তিব্বতে
বাড়িটি
বার্বাড
cultural
জাদুঘরের
যোগদানের
স্বরবর্ণ
ডিস্ট্রিক
অ্যানিমেশন
##আফগানিস্তানের
স্থানীয়ভাবে
রাষ্ট্রপ্রধান
এন্টারটেইনমেন্ট
°
##ava
##iro
##wer
##ঁটে
##গাল
##শোর
##এমএস
##কাঠি
##খোলা
pos
গজল
দাদ
নাহ
পাঁ
পাগ
বুদ
##urity
##দ্জিন
##োসরাস
near
shah
জনকে
বদ্ধ
লিগা
শওকত
হননি
##জন্মের
##িক্সেল
every
prote
জামান
টর্নে
দ্বিজ
ফার্ন
বিধবা
সনাতন
সিকিউ
স্থূল
##ট্র্যাক
##নির্দেশ
আঘাতের
খেলতেন
তাসমান
প্রভাষ
বায়ুর
ব্যায়
কর্ণাটক
ছবিটিতে
ভূমিকার
মীরসরাই
স্পিনার
##বিদ্যালয়
একাডেমির
স্যামসাং
কোম্পানীর
তান্ত্রিক
ব্যাক্টের
সাতক্ষীরা
কম্পিউটারে
নির্ভরযোগ্য
##sm
##gon
##nam
##রেড
নূ
##চলিত
##ব্লা
##িলিন
##োলাই
fed
pet
সূচ
হেপ
##ক্ষ্ণ
##াবলীর
##িপত্র
live
আল্ল
ইয়ং
ঢিবি
বল্ল
বাহু
শাহ্
##uments
পাটনা
পার্ল
বোম্ব
ভোটের
হাদীস
##রাওয়ার
গণেশের
স্বত্ব
##american
##ুয়াখালী
গন্তব্য
জায়গার
প্রতিহত
গ্রীষ্মে
ছায়াছবি
প্রশ্নের
বহুজাতিক
relations
মূল্যায়ন
ধর্মাবলম্বী
সাম্প্রদায়িক
##aa
##ek
##mp
##হাব
##ক্যি
##টাউন
খুজে
জুরি
মেসি
সাধু
##ipedia
##মাত্রা
আইএসও
নিখিল
পল্লী
ফিচার
joseph
গুজরাট
জলাশয়
প্রীতি
বন্দরে
মেমোরি
##ications
##াকেন্দ্র
ছোটবেলা
ফিল্ডিং
সহকর্মী
জনশ্রুতি
মিলিটারি
christian
president
##মালয়েশিয়ার
প্রেক্ষাগৃহ
ফাউন্ডেশনের
প্রতিদ্বন্দ্বী
##কবি
##থ্য
##লিস
##হতি
##ever
##স্তে
##িল্ম
##োরাম
ইলা
জিড
ডিন
ফটো
ভিস
##ক্যের
##বিদ্ধ
##াবিড়
##ুয়েজ
each
জওহর
ডিউক
ভীষণ
00শে
##ীকান্ত
paper
অ্যাং
করেছি
কুসুম
খাড়া
খানকে
জলপ্র
নগরের
বীর্য
##কানিয়া
##প্রান্ত
আকবরের
কন্যার
পরিমান
ভূগর্ভ
মোল্লা
রাউলিং
রিপাবল
##ার্থীদের
popular
অনুরোধে
চেম্বার
সন্ধানে
যন্ত্রাংশ
শিক্ষকদের
প্রাবন্ধিক
ভূমধ্যসাগর
প্রক্রিয়াকরণ
##উদ
##ভু
##ems
##orm
##vey
##চতু
##বুত
bc
##cont
##কম্ব
##য়াম
##ানাথ
তুম
রঘু
##ified
##lands
##টার্স
##বিমান
##সেপ্ট
##াণ্ডা
##োক্রে
##োডক্স
tree
কাটে
তুলা
লোগো
egypt
frank
আইইইই
ওভালে
কথায়
করবার
ময়ূর
মস্কো
##াপ্তরিক
author
princi
produc
দলগুলো
পাখিটি
সাইকেল
##ন্দ্রনাথ
actress
chicago
অস্পষ্ট
অ্যান্ট
ইবরাহিম
দেশটিতে
বিশ্লেষ
মোহাম্ম
শেষভাগে
buddhist
কেনিয়ার
পরিস্থিতির
স্যামুয়েল
পরিস্থিতিতে
স্মৃতিস্তম্ভ
পরিপ্রেক্ষিতে
##bel
##jan
##str
##ইসর
##এসএ
##রাগ
##াশন
##িকস
তৌ
##ওসের
##ত্রী
##ূর্ন
অয়
চিত
ভান
##other
##নকারী
##নিহিত
##প্যার
##ফিয়া
##ালিটি
আসবে
উবাই
নাতি
মৌলভ
লাভে
সমঝো
##যেখানে
lingu
ইনপুট
চাকমা
ফ্রিক
মধুসূ
মোকাব
##িয়ারের
resour
অক্ষয়
টেকনিক
নেহেরু
পরিসরে
প্যারা
ফলাফলের
ফ্রিস্ট
বসবাসের
রানার্স
buddhism
পেশাদারী
নিউইয়র্ক
জাতীয়তাবাদ
প্রজাতিটিকে
থাইল্যান্ডের
ইউনিভার্সিটির
##আস
##app
##যৌন
##রাল
##ctor
##বাদক
##সাইড
##ানগর
ছোঁ
টনি
##বেলের
##ব্যাট
##মনীয়
##মার্চ
##াজনিত
অজয়
একমত
ক্রু
জগদী
ধর্ষ
নিলে
শাহী
শিখে
##ক্ষণের
dhaka
since
উপনীত
বন্দি
ভোটার
##নীতিবিদ
কোরীয়
কৌশলগত
ডারউইন
বন্যার
বাঙালী
শূককীট
কারাগার
প্রয়াস
বাস্তবে
ভিন্নতা
মতাদর্শ
মিশিগান
আলীবর্দী
চ্যানেলে
প্রকৌশলে
রেকর্ডিং
routledge
প্যাসিফিক
নিয়ন্ত্রক
রাষ্ট্রভাষা
##di
##uin
##কুই
##জেব
##োহর
রড
##ইয়ে
##গীতা
##চ্ছা
##ারার
##েন্ত
usa
চের
ডোর
পাও
পিঠ
ফেই
মাঘ
শিপ
##cript
##যানের
##র্দ্ধ
অজিত
দূষণ
পশুর
বিশৃ
##জ্যোতি
##মিটারে
smith
young
গুল্ম
দরবার
নকশার
পদকের
##ক্রীড়া
##াস্ত্রে
##েনিয়াম
africa
method
ওভারের
কাগজের
তেলেগু
বিএসসি
মহারাজ
traffic
ইকুয়েড
চ্যাটার
পেট্রোল
স্তোত্র
##হার্ভার্ড
february
software
ঐতিহ্যগত
ট্রাইব্য
রসায়নের
##কেন্দ্রীয়
এয়ারলাইন
তথ্যচিত্র
পড়াশোনার
রোম্যান্স
শ্রীলঙ্কায়
সক্রিয়ভাবে
সর্বশ্রেষ্ঠ
মহাবিদ্যালয়ে
##ুফ
##flu
##ged
##osh
##শিক
##শেদ
py
##িকেল
##িলেড
ঝোপ
ঢেউ
##ক্ষার
##াস্তব
##িটিতে
আলফা
ফোটে
মানস
সালফ
sever
নিষ্প
যাঁরা
ঘটনাটি
মিয়ান
##উদ্দিনের
##ডিসেম্বর
বৈবাহিক
মিটারের
##ক্ষেত্রের
উড়িষ্যা
এভারেস্ট
কর্মসূচি
দাপ্তরিক
হিউম্যান
বিভ্রান্ত
ল্যাঙ্কাশ
নাইট্রোজেন
মুহাম্মদের
শান্তিনিকে
মায়ানমারের
অন্ধ্রপ্রদেশ
দীর্ঘস্থায়ী
তত্ত্বাবধায়ক
##ات
##.),
##ero
##নিত
##বলা
উট
##rest
##well
##পূজা
##ভারি
##াজিল
occ
ইসহ
চেল
পৌষ
ফলক
##মান্ড
##ায়াল
##িমূলক
cast
sans
wind
দীঘি
দেশি
##ically
##সম্পাদ
ident
অর্থম
চূড়া
জান্ন
জোন্স
ডগলাস
ডেইলি
মিসেস
রাসূল
আনাতোল
ঠিকানা
পশ্চাৎ
বিধায়
মণিপুর
islands
জলাভূমি
তরঙ্গের
বৃষ্টির
সাঁওতাল
স্ক্রিন
দৃষ্টিতে
নীতিমালা
প্রফুল্ল
প্রবাহের
মূর্তিটি
শুক্রবার
কাউন্সিলর
ক্রোমোজোম
পত্রিকাটির
প্রযুক্তিগত
চলচ্চিত্রটিতে
##গৌ
##চয়
##মহা
##হেড
##ার্প
##িউডে
cup
dal
mit
একা
চমক
জমে
##নামুল
##ুগত্য
##ুয়াং
down
good
very
করিড
খোঁজ
ভগ্ন
##ential
asian
night
অবনতি
কাঁটা
কেভিন
জাম্প
ট্যাং
ডাকাত
দশমিক
শ্রাব
##েন্দ্রে
symbol
ফরেস্ট
সবাইকে
england
অনুষদের
তারিখের
দীক্ষিত
পর্বতশৃ
প্যানেল
প্রভাষক
ভালবাসা
লবণাক্ত
উপস্থাপক
বিতাড়িত
রেলওয়ের
হাইস্কুল
উইলিয়ামস
ফিলিস্তিন
সম্ভ্রান্ত
উত্তরপ্রদেশ
ব্যক্তিবর্গ
মালয়েশিয়ার
##সৈ
##%),
##eth
##ৎসি
ওম
নট
##text
##ংশের
##ঘাতী
##টাইম
##বিবি
##স্কা
##িশের
ali
fru
spr
শ্ম
##অ্যাক
##চালিত
##তিত্ব
##াগঞ্জ
****
link
অব্য
চাপে
রহমত
##ইংরেজী
খেলনা
চেতনা
ট্যাগ
ফেলার
বাজেট
হাজির
হিজরি
centre
ইলিনয়
চর্চার
ডাটাবে
ড্রাগন
নিম্নে
পরাস্ত
ফেয়ার
বঙ্কিম
বার্মা
সুইডেন
হিন্দী
kingdom
বৃত্তের
রেখেছিল
শিকারের
সম্মুখে
স্বাস্থ
ইলেক্ট্রন
জাতীয়তাব
পেরেছিলেন
মহাজাগতিক
এয়ারওয়েজ
প্রারম্ভিক
সুভাষচন্দ্র
ج
##"),
##bur
##put
##uda
##করন
##ফলক
##োজি
##োজী
##iven
##ules
##িক্য
##িপাল
box
suc
কলম
তিত
মাখ
##বাণিজ
##ামপুর
area
bank
myth
অম্ব
গোর্
সমাদ
##্যাস্ত
আকস্ম
গ্লুক
সিলভা
সোহেল
##সংস্কার
search
চেহারা
জব্বার
নবাবের
বক্সিং
সামর্থ
##েশচন্দ্র
profess
আবর্তিত
টার্মিন
নরওয়েজ
মার্চের
সংগীতের
সৃজনশীল
december
অনেকসময়
বিন্দুতে
ভাষাসমূহ
শাসনকালে
কম্পিউটিং
নির্বাসিত
প্লাটফর্ম
প্রজাতন্ত্রী
##আদ
##ছর
##dis
##ros
##tic
##এমএ
##লাক
##সলি
##হিম
##িদা
##'')।
##নপুর
##বারক
##মঞ্চ
##সিবি
##ৃত্য
##েকের
hav
নেক
পেঁ
সেব
##ceton
##গঠনিক
##গোল্ড
##সালের
chur
fund
ডোরে
বিসম
##বস্তুর
place
গ্রিস
প্রোপ
সেদিন
অনুভূত
আধিকার
পড়ানো
বিবর্ত
সঞ্চয়
সফলতার
আনুগত্য
খন্দকার
চিন্তার
জ্যাকসন
বাগানের
মানুষেরা
অর্থোডক্স
পর্য্যন্ত
প্রতিরোধের
environment
মধ্যপ্রাচ্যের
##bit
##tal
##ফরম
##িওল
ve
##aker
##urus
##এসআই
##ঙ্কে
##ঙ্গী
##নিতে
##বেরি
##াশীল
##িয়ো
##িষ্ঠ
squ
এমএ
সবই
##ম্যাস
##রেখার
like
stan
করাই
কোণে
গরুর
ধারন
পারা
লেফট
হকের
##কার্বন
##মিন্টন
##স্ক্যা
##স্তরের
##াত্ম্য
##েশিয়া
ঘটাতে
ছিলনা
ধাতুর
ব্রুস
ভবানী
লেনিন
সামার
##ক্রিয়া
##জেনারেল
আর্কিট
নরওয়ে
নিয়েও
বন্ধনী
সংকলিত
সংবেদন
সবথেকে
অন্যত্র
অলাভজনক
কুমিল্ল
চার্চের
দেশগুলো
সচেতনতা
সুড়ঙ্গ
রাজবাড়ী
শিক্ষায়
সাংগঠনিক
প্যারিসের
production
কর্মজীবনের
পুনরুদ্ধার
সাক্ষাৎকার
contribution
##.:
##সক
##ela
##ালগ
ic
ঋত
##inus
##দ্গা
##র্নি
eds
fab
nuc
নাদ
##দীর্ঘ
hard
করুণ
তত্ব
##িয়ারা
signs
আসছেন
কাটান
গভর্ণ
গার্ল
জরায়
দুটির
বান্ধ
মরক্ক
সত্যি
##mentary
আকাশের
চিত্রে
জর্ডান
নাম্নী
পড়ালে
প্রদীপ
ব্যাপী
ডেস্কটপ
তিব্বতি
material
security
অধিকারের
জ্বালানী
বিপর্যয়
অঙ্গরাজ্য
ক্ষুদ্রতম
ক্ষেত্রফল
প্রগতিশীল
প্লাস্টিক
ধারাবাহিকে
বিপদগ্রস্ত
রিপাবলিকান
ডিস্ট্রিক্ট
সিঙ্গাপুরের
নিউজিল্যান্ডীয়
##hu
##pp
##ür
##"''
##কূল
##ভূজ
##হেম
uk
গদ
##000,
##agar
##অথবা
পাউ
ফটক
ভেষ
লেভ
হাড
##অধুনা
##কারণে
##প্রাক
##শতকের
##াপরাধ
##িলারা
fall
একের
কাঁঠ
সালভ
হয়ত
##ীদেরকে
আবদুস
নির্ভ
পূর্ন
মেসোপ
ম্যাপ
সংঘাত
##ণাস্ত্র
##ফিল্ডার
access
উচ্চতম
কক্ষের
নামটির
লায়লা
সংবলিত
সময়সূ
সমাদৃত
সহকারে
nations
উপপাদ্য
বাক্যের
বিচ্ছেদ
বিশ্রাম
সুমাত্র
হ্যামিল
internet
গিরিবর্ত
বামপন্থী
সমাধিস্থ
সৈয়দপুর
অপরিহার্য
প্রকাশনার
কার্যনির্ব
ক্ষয়ক্ষতি
অ্যান্ডারসন
কনস্টান্টিনোপ
##cu
##cha
##mel
##ori
##চিং
##পিক
##ফির
##াশৈ
##burg
##cean
##টারী
##ামিক
##িমাল
00:
আমল
ঈসা
উইথ
থাম
ভিভ
ভেল
##thers
##জোড়া
##ন্যিং
এলাহ
জনপদ
তর্ক
মারি
লোকে
##intern
large
মূত্র
result
চারবার
পরিষদে
পুরসভা
ফাইবার
বান্দর
বিয়ার
ভার্সন
সমালোচ
হাঙ্গর
##বায়োটিক
species
উত্থাপন
উদ্যানে
একধরণের
কার্লোস
ট্রাফিক
বলিউডের
district
খেলাধুলা
বর্ষাকালে
রন্ধনশৈলী
গিরিবর্ত্ম
রক্ষণাবেক্ষণ
প্যারালিম্পিক
##ee
##্ঝ
##গিন
##ঞ্ছ
##ডিপ
##াউল
##াদল
দম
##জিলা
##ীতিক
##োগ্স
##্লিং
অরে
যোন
রোদ
##শীপের
##্যামি
অনিল
ধারক
নটিং
হাওর
##রসায়ন
greek
henry
উৎসের
কার্গ
জগদীশ
জলীয়
ফোর্ড
বছরকে
সমধিক
অনিশ্চ
কায়রো
বোয়াল
লিখতেন
picture
স্রষ্টা
complete
muhammad
অত্যাচার
ইসলামিয়া
পুনর্জন্ম
প্রকল্পটি
প্রশিক্ষক
বিষয়গুলো
ভবিষ্যতের
সিরাজগঞ্জ
অনুপ্রেরণা
ফেডারেশনের
##অস্ট্রেলিয়া
সালাহউদ্দিন
##নভ
##যু
##wis
##তবে
##থান
##সুন
##াটল
il
os
আশী
এরও
গিগ
গোদ
ফাহ
##vious
##প্টার
##সিঙ্গ
full
আহরণ
কথোপ
ছক্ক
ডকুম
তারও
শংকর
##aining
party
print
কনভেন
গ্রেন
ত্রাণ
দৈহিক
বিপণন
স্রোত
জীবিকা
তারপরে
নেপথ্য
পিতামহ
বাগদাদ
ইনিংসের
পেপ্যাল
রান্নার
স্পিকার
economic
কান্ট্রি
পর্তুগীজ
প্রবর্তক
প্রাসাদে
মাধ্যমের
রাজত্বের
##শ্রীলঙ্কান
structure
আইনস্টাইন
টেলিফিল্ম
ব্যানার্জ
সভাপতিত্ব
সম্পাদকের
তামিলনাড়ু
মনোবিজ্ঞান
রেজিমেন্টে
অস্ট্রিয়ার
চিড়িয়াখানা
##bre
##ইউন
##মুন
##মেঘ
##াহা
##িকি
ol
এ0
শক
##bell
##ক্লা
##মাতা
##াপার
obs
ডিব
ফুর
##arter
##aster
##কানুন
##ক্ষের
##মেয়ে
##াবাদে
anth
আধান
কিরণ
ক্ষত
বিশপ
লিখা
শর্ট
হাঁট
##itable
##আইসিসি
##কল্যাণ
##দ্রব্য
super
করাকে
চৈনিক
ড্রাই
তাতার
দুবাই
বুড়ি
মার্ব
হাতির
##্যান্ডি
global
কক্ষপথ
কার্যত
ক্রিয়
দত্তের
দীক্ষা
পদার্প
কিন্ডার
ক্লাবটি
ট্রফিতে
নরওয়ের
পাহাড়ী
রোমাঞ্চ
স্কয়ার
এলজিবিটি
কংগ্রেসে
জিমন্যাস
পার্শ্বে
রেকর্ডের
কর্মকাণ্ডে
প্রশিক্ষণের
##রশ
##udi
##গুন
##চিন
##াজে
খু
##enth
##ione
##বালা
##ব্যে
##যিনি
##হাইড
##হিরো
##াতেম
##িকিউ
##োমার
own
আঁশ
কফি
গৌর
চাও
চাট
রেট
সাভ
##কীর্ত
##তলায়
##ধর্মে
##ন্ডুর
##র্দান
গোলক
hindu
treat
ইয়েম
ইরানী
এ্যান
কিছুর
ক্রিম
ডাউনি
ভোল্ট
মনোরম
স্কেল
##চরিত্রে
##বিশ্বের
আক্তার
ঘন্টার
জঙ্গলে
তিস্তা
প্রজ্ঞ
সাংখ্য
foreign
তলোয়ার
দ্বীপটি
পর্দায়
ভবিষ্যত
মালভূমি
মেলবোর্
রাউন্ডে
অধ্যুষিত
ডিজাইনার
ভাইরাসের
সিস্টেমে
ওয়ার্নার
ভবিষ্যদ্ব
মারাঠাদের
scientific
চিত্রগ্রহণ
##আহ
##lag
##সুব
##িকন
আং
##গরের
##তলের
##সাদা
##ারণে
##োক্র
iii
six
টির
ফোঁ
ভূঁ
ভেদ
হীর
side
এডিন
কারু
ঘড়ি
চাপা
ছুটি
পুঁজ
বাহর
বৈঠক
মিডল
হাঙর
##াগ্রহণ
media
কাণ্ড
খিলান
ঘোষের
পরদিন
পাম্প
বিদ্ব
মৌখিক
সাহসী
সুলাই
হারুন
##italian
##র্গ্যান
nature
আশুতোষ
পাবলিশ
ব্লকটি
##ৈতিহাসিক
লোকসভার
##সম্পর্কিত
অধ্যায়ে
ইয়াসমিন
পেঙ্গুইন
বাগেরহাট
বিবর্তিত
রাজস্থান
সেকেন্ডে
জেরুজালেম
পোকামাকড়
organization
ক্ষেপণাস্ত্র
মহারাষ্ট্রের
প্রতিযোগীতায়
উইকিপিডিয়ানদের
##rd
##কোড
##োনে
ho
0ই
ঘোর
ডিল
শীল
##ender
##বার্ন
##ভিক্ট
##মুন্ড
##মেরিল
##সাবেক
poss
লতিফ
ইরাকি
ব্রাদ
মিচেল
ম্যাট
শাড়ি
##র্গ্যাস
##র্দান্ত
অণুজীব
উপকারী
কুরআনে
ডিক্যা
বছরেরও
রাখতেন
russian
অত্যধিক
নায়িকা
সমর্থনে
উদ্ভাবিত
বিনোদনের
লক্ষণীয়
সমস্যায়
অনুপ্রবেশ
কলেজিয়েট
ত্রিপুরার
প্রাপ্তির
সম্মেলনের
সিদ্ধার্থ
সুনামগঞ্জ
গ্রীষ্মকালে
ডিস্ট্রিবিউ
দ্বিতীয়বারের
##ৈব
ه
##mos
##ols
##জুর
##াশী
ঘা
##চ্ছু
##য়াক
##য়াস
exp
আমর
তরু
তিউ
ধাব
##চাইতে
##র্ভাব
একাদ
জনৈক
মনির
brown
দিনটি
দ্বিম
মণ্ডল
সিম্প
##শিল্পের
called
কৃষ্ণা
প্রভিন
প্রোটন
শয়তান
স্টোরি
দূতাবাস
র্ন্যিং
হাইড্রো
হিসাবেও
##স্বাস্থ্য
কেন্দ্রী
পুরস্কৃত
পূর্ণিমা
রাষ্ট্রে
অ্যাকাডেম
ইন্সটিটিউ
কুস্তিগীর
বিস্তীর্ণ
ক্রমান্বয়ে
নৃত্যশিল্পী
প্রবেশদ্বার
টুর্নামেন্টে
ভিক্টোরিয়ার
##চেস্টারশায়ারের
সাম্প্রতিককালে
##jo
##চূ
##ote
##zil
##ভুট
##ম্ছ
##হিল
##াতী
##েনহ
##্ডে
##ৎসু
#"
রূ
##char
##ergy
##face
##part
##reen
##গুয়
##মেলা
sri
নেম
পুজ
##ivity
##owers
##ফ্লাই
##মিরাল
অলংক
চারা
ডোরা
দোষী
ফেমে
মৌমা
রোহি
polic
কক্ষে
কামনা
গ্লেন
তারতম
তারাই
ফারসি
বাকের
লিঙ্ক
শহুরে
##মনিরহাট
অমিতাভ
অসহযোগ
এসেছেন
ক্ষতির
চক্রের
ডাম্বল
দেখাতে
নওয়াব
বইটিতে
বাইবেল
মিউনিস
সাইক্ল
সান্তা
স্টাইল
হুমকির
##standing
তত্ত্বে
পরিসেবা
প্রসেসর
শিল্পীর
##রাজনীতিতে
কানাডীয়
কারাদণ্ড
ফলস্বরূপ
বিশ্বস্ত
বেশীরভাগ
ভাষাভাষী
মুস্তাফা
রাজকুমার
##ographical
##রাষ্ট্রপতি
অ্যালেক্স
নির্দেশিত
মহাসড়কটি
সমর্থকদের
প্রস্তাবনা
(0000–0000)
প্রাচীনকালে
কথাসাহিত্যিক
পর্যবেক্ষণের
##mah
##গ্রা
##ভাজন
##স্কট
##ালেও
##িতের
##্লেষ
bat
nam
ঘেঁ
নকল
যাক
সুধ
##দেবতা
##সাহিত
know
rest
আদিম
কোলক
গর্ড
নিপী
বসেন
বাবর
ভেষজ
মাধব
রঙিন
রোবট
সতের
##forman
##িম্যান
অগস্ট
ইউরোর
এটিতে
নিষ্ঠ
নেপোল
পাঞ্চ
বোল্ড
মাইজভ
মিডলস
শিলিগ
সাইমন
অন্যটি
বৈষম্য
ভূখন্ড
মাঙ্গা
মামলার
পরিশ্রম
যাচ্ছেন
সমর্থিত
##শাস্ত্রের
মেসোপটেম
রিপাবলিক
হিন্দুরা
ক্রীড়াশৈ
টেলিগ্রাফ
দেশগুলোতে
প্রতিশব্দ
বেশিরভাগই
ভ্যালেন্স
##াব্যক্তিত্ব
মহাকর্ষীয়
মৌলভীবাজার
শ্রীলঙ্কান
পরিবর্তনশীল
পুনর্নির্মাণ
##মধ
##rat
##দীর
##রিখ
##লাহ
##লেম
##ired
##কড়া
##ক্যা
##দ্রা
##সৌদি
##িটের
##িহীন
abd
son
ছাত
পঁচ
হুক
##ittle
##াব্যব
##েয়ার
coll
gram
hill
অমিত
এঁরা
ত্বক
পারস
ভায়
ভাষণ
ভুলে
teach
ইঁদুর
কচ্ছপ
কাছের
পিপলস
মৃত্ত
যেটির
শুনতে
শুল্ক
সাকিব
সাঙ্গ
স্টিল
##মিডিয়া
##সদস্যের
পদোন্ন
পরিহিত
বরুয়া
বর্জ্য
বীরভূম
কর্তব্য
সবচাইতে
সীমানার
আব্রাহাম
গভীরভাবে
প্রবক্তা
প্রভাবের
সেন্টারে
তুলেছিলেন
স্বর্গীয়
অনুষ্ঠানটি
কার্যক্রমে
গবেষণাপত্র
মিডফিল্ডার
স্ট্রাইকার
প্রোগ্রামের
সার্টিফিকেট
##és
##খল
ش
##aim
##gal
##অতি
##এখন
##চীর
##ফাল
##ুইস
মক
##গাছা
##ঝাড়
##টেলে
##দূরে
##সারি
##াল্ড
dam
থিম
বাচ
লার
##গতিতে
##দিয়ে
##বিয়ে
##শূন্য
##সম্পদ
##্যাংস
উজির
কারও
কারি
ফলিত
মরিচ
মিলা
যাদব
শহিদ
সহ্য
##বেলায়
##াত্যের
*0000
এএফসি
যেখান
ষাটের
সিক্স
##াগুলিতে
তারপরও
পথিকৃৎ
ভাঙ্গা
##সম্পূর্ণ
francis
quantum
ডাকনামে
##পাকিস্তানী
লড়াইয়ের
সম্পত্তির
প্রত্নস্থল
প্রতিষ্ঠায়
##')
##জং
##পৌ
##emb
##key
##mic
wa
ইছ
##rick
##লেখক
##শেখর
##িভাষ
##েজের
##্বিশ
ham
sac
অপু
জিউ
বুখ
রঙে
শৌচ
0রা
##কবিতা
##ক্লিড
##নেস্ট
##বন্দী
##ায়নে
##ীকৃতি
prom
অসমে
অসুর
##ান্দার
cover
অব্দে
গুচ্ছ
প্রভু
প্রাই
মিষ্ট
রক্তে
অর্ন্ত
আয়োজক
আলিয়া
এসএসসি
বাজানো
archive
current
example
অগ্রগতি
ট্রেনটি
দক্ষিনে
বাড়ানো
যাদেরকে
সংগঠনটি
##প্রযুক্তি
কোচবিহার
গেয়েছেন
দ্রাবিড়
লেখালেখি
##পশ্চিমবঙ্গ
অশ্বারোহী
নির্বাচকম
পৌরসংস্থা
ব্যাবস্থা
যাত্রীদের
সাহায্যের
সিকিউরিটি
কানাডিয়ান
জলপাইগুড়ি
কার্যকারিতা
অ্যান্টার্কট
সম্পূর্ণভাবে
সীমান্তবর্তী
চাঁপাইনবাবগঞ্জ
##কৃ
خ
د
##থাম
ut
এব
সপ
##ases
##phal
##prin
##ডাউন
##ায়ু
জাভ
ধাম
নিস
ব্স
ভরা
যোর
লাশ
##itive
##এখানে
##পৃথিব
##মঙ্গল
##মেক্স
##াওয়া
##ৃত্তি
##্রমিক
আর্ন
এটিও
কলিন
নোয়
##এপ্রিল
##িপাড়া
bibli
থাকতো
নাচের
হার্ব
##history
##স্ট্যান
import
অলৌকিক
চায়না
জাদুকর
জীবন্ত
নির্মল
বঞ্চিত
বিহারে
ব্যঙ্গ
##collapse
অ্যালেন
ওয়াহিদ
গির্জার
ধার্মিক
মণিপুরী
স্টাডিজ
ক্রোয়েশ
দীর্ঘকাল
পদ্মশ্রী
শতাব্দির
সংগ্রাহক
কর্মজীবনে
গাইবান্ধা
তীর্থঙ্কর
দেশসমূহের
গৃহযুদ্ধের
মাদ্রাসায়
যুদ্ধাপরাধ
ব্যাডমিন্টন
চিকিৎসাবিজ্ঞানে
##wan
##্দী
##ateg
##iana
##olis
##vard
##আকাশ
##কোহল
##প্রো
sir
sov
আউল
কুঁ
তিম
লিস
##কলম্ব
##কলায়
##বাগান
##ব্র্গ
##মণ্ডল
##াপতির
care
larg
কমতে
কোলে
চাকা
দানব
বুলে
যাবৎ
যৌনা
অপরটি
অস্টি
কমাতে
খয়ের
চতুর্
নানার
নীহার
বাড়ে
বেষ্ট
ব্লকে
মুকুট
মুখোশ
##ব্রাহ্ম
invest
গায়ের
ঘনীভূত
ডাকনাম
দুজনের
সর্বাধ
সাইবের
সাক্ষী
সুবর্ণ
উপরন্তু
পেন্সিল
রেস্টুর
শেফিল্ড
পুড়িয়ে
স্পোর্টিং
চিত্রায়িত
সাতকানিয়া
অন্তর্বর্তী
কর্মকাণ্ডের
ভাষাবিজ্ঞানী
##?"
##cr
##োই
##ips
##াগম
*"
##edom
##নালী
##াপ্য
আইড
উইং
##ইহুদি
##ক্যাপ
##চেষ্ট
##পুণ্য
##ফেব্র
##ম্ছোগ
feat
same
কলিক
নাগর
পদকে
পর্ষ
পাইপ
বাহক
রুটি
রোগী
##ক্রমিক
##ীয়দের
করাতে
ক্রাই
খালেদ
প্রসব
বাক্স
ভোকাল
হারাম
##প্রকৃতি
অ্যাপল
গুলোতে
তুলেছে
থাকবেন
হনুমান
গ্রন্থি
প্রিয়া
মধুসূদন
যাত্রাপ
যাত্রার
শ্যুটিং
সাহেবের
সূত্রের
হোসেনের
বন্ধুদের
রাজপুত্র
princeton
অধ্যয়নরত
কিংবদন্তী
নক্ষত্রের
মিলিয়নের
সময়কালের
দ্বায়িত্ব
শ্রীরামপুর
সেক্ষেত্রে
##gg
##ān
##এব
##ota
##ugg
##খিন
##টেজ
##ডাই
##তাক
##পাহ
##াসী
##ague
##ella
##অন্য
##উন্ট
##যজ্ঞ
##োকের
wat
তরফ
শিন
##আনন্দ
##গানের
##ন্যের
code
অনুধ
কন্ড
কাজল
ছাগল
তারক
রিলে
সঙ্ঘ
সমতা
##সরকারী
##িন্যাস
##িস্কোপ
model
third
আবারো
কাদির
ক্ষার
দিলীপ
বিষুব
স্যাল
##দর্শনের
##িসত্ত্ব
টাইগার
ত্বকের
নেপালে
পরিবাহ
পাণ্ডব
ফ্রাংক
সাহারা
##াচার্যের
কৃষকদের
কোর্টের
গ্লোবাল
ডিফেন্স
দেশসমূহ
বস্তুকে
বিন্দুর
বৃক্ষের
মহাভারত
মোশাররফ
শ্রীপুর
collapse
previous
তুর্কমেন
দূরত্বের
পেনাল্টি
শ্রেণিতে
classical
অপটিক্যাল
উত্তরসূরি
বানিজ্যিক
##ভিয়েতনামের
নির্যাতনের
সরকারিভাবে
রাঙ্গুনিয়া
সাহিত্যকর্ম
##কৌশ
##টাস
au
ডট
##desh
##কর্ণ
##চায়
##ফিফা
##োরেট
##্টির
ডিই
ভোর
হুর
##জুলাই
##স্কোপ
dhar
উগান
চন্ড
নজরে
বিটা
বুয়
##ছাত্রী
##ফাইনাল
##বিহারী
##সময়ের
##িশালের
##েক্টরে
paint
ডেট্র
প্ররো
বর্ষা
মেরিন
সংবিধ
##বৈচিত্র
##শিক্ষার
##স্টারের
উমিয়া
এধরনের
ছত্রাক
ঠাণ্ডা
ডানায়
ডোমিনি
দম্পতি
সেজন্য
সেন্সর
000-000
illustr
কারিগরী
কার্তিক
গবেষকরা
গুপ্তচর
নিউট্রন
ফিনিক্স
ফ্যান্ট
বিক্রির
উপনিষদের
দুর্নীতি
বিস্তারের
ভাষাগুলির
মহাভারতের
সেমিফাইনাল
রেজিস্টার্ড
সাক্ষাৎকারে
চলচ্চিত্রকার
বাস্তবায়নের
##ঈন
##ঘট
’
##yer
##আলা
##বিজ
##শিস
##স্ল
##্জী
ওহ
কক
লগ
##read
##িস্ম
##ুব্ধ
dom
jew
নাশ
মেথ
##rence
##চর্চা
##ষ্কৃত
arts
অটোর
অণুপ
আশ্র
এন্ট
কাশী
লেখন
সংকো
##সুন্দর
##িয়ারে
champ
অস্থি
আহমাদ
উপযোগ
খোঁজে
খোরাস
তামাক
বোঝার
শরীয়
স্নেহ
হালিশ
আলাইহি
আলেপ্প
গল্পটি
জনগনের
নিন্দা
পরাভূত
ভ্যালি
মিরপুর
উৎক্ষেপ
কক্ষপথে
জন্মদিন
পরীক্ষণ
ফ্ল্যাশ
মান্নান
আইইউসিএন
উপসাগরের
জলপ্রপাত
পরিযায়ী
সংস্কারক
ইত্যাদিতে
নিজেদেরকে
নেতৃত্বের
বায়ুমণ্ড
ফ্রিস্টাইল
ত্রিমাত্রিক
ধর্মান্তরিত
ফ্রান্সিসকো
ক্যারিবিয়ান
ব্যবস্থাপনায়
##.”
##:-
##উৎ
##মণ
##জনে
##োডে
##লেখা
##ল্যা
##ালিন
##ীবিত
gal
hor
jer
কমই
করণ
দাও
দুন
পূন
মতন
##নাম্স
##নার্স
##স্থাপ
bomb
even
peng
কোমল
কোষে
ড্রে
দলগত
বারে
বুরু
লিটল
লিলি
হুদা
##ricult
##াঙ্গার
খালের
তাঁরই
লেজার
##জিক্যাল
##রাজ্যের
making
অ্যানো
খালেদা
পাঁচজন
হেয়ার
##ঙ্গালুরু
concept
concern
জিতেছেন
নামাজের
নারায়ন
পাদদেশে
ভক্তদের
গোলরক্ষক
জর্জিয়া
জ্যামিতি
সর্বজনীন
চ্যানেলের
বিষ্ণুপুর
সীতাকুণ্ড
সুবিধার্থে
##ঠো
##বই
##িখ
##ano
##jab
##ugu
##una
##আনু
##গাস
ইপ
##দারি
##প্রা
##োটোপ
lad
lou
চিৎ
ঢুক
রতন
লিল
শিষ
##craft
##ধ্যেই
##প্রিম
##বিরোধ
##সাধ্য
##াঁচের
body
home
আলিম
এভার
কলার
দ্রব
নয়া
##বাড়ির
##বৃত্তি
could
force
width
কার্প
খাওয়
গ্রেড
জাভেদ
নরসিং
নাজিম
নিরূপ
বেঞ্জ
মোক্ষ
সুদান
##প্রিন্স
অপরাধী
কন্সাল
কোর্সে
গ্রাহক
চিত্রা
টাইটান
নবগঠিত
পেয়ার
রীতিনী
germany
জাহাজটি
ধূমকেতু
নবদ্বীপ
ব্রহ্মা
অ্যাথলেট
আধিকারিক
প্রতিভার
মূল্যবোধ
ক্যালকাটা
পাঠ্যক্রম
প্রান্তিক
মানমন্দির
অ্যালবামটি
উৎপাদনকারী
খ্রিষ্টীয়
architecture
প্রাগৈতিহাসিক
##)(
##rh
##পন
##bor
##hol
##mun
##গুর
##ডিই
##নাল
##নিও
##ফুস
##মণি
##োডা
##aces
##anti
##head
##বিএন
##রীয়
##াবিল
##োটের
tor
আঁক
খাই
গরু
লোভ
##কাব্য
##ব্যাম
##লাইনে
##াকাটা
##াক্টর
appe
mean
অর্ড
জবাব
ঢেকে
পেশী
বিড়
মজিদ
লুসি
##rishna
##শালায়
while
অনুভূ
আঘাতে
কামান
কারাব
কালীম
খানিক
খৃস্ট
পরিধি
রাসুল
##derabad
##ন্দিতার
##িয়েন্ট
অনুমিত
এঞ্জেল
ঘরানার
নড়াইল
পেছনের
পেশাগত
বন্ধুর
ভাসমান
ম্যাকড
রবিবার
various
আল্লামা
দৌড়বীর
পূর্বসূ
ইংরেজদের
দৈর্ঘ্যে
ডিক্যাপ্র
সংক্রমণের
অপরিবর্তিত
কোম্পানিতে
দুর্গাপূজা
বিশ্বাসঘাত
বিশ্লেষণের
আক্রমণাত্মক
সিদ্ধান্তের
অ্যাওয়ার্ডস
ম্যাসাচুসেট্স
##:0
##nes
##োকো
##নগরে
##িলিও
tro
গাম
সুস
##cutta
##গুলোও
##জ্জনক
##ফ্রেড
##াত্বক
##ানায়
##াবাদী
##িষ্ণু
##েত্রী
আরবে
আশির
আসিফ
কলোন
গর্ব
চালক
মমতা
রানি
লাহি
##ন্নেসা
##প্রত্য
among
ocean
ইরাকে
এগারো
ওয়াং
জৈবিক
নাসার
বিবাদ
শিবির
সিজার
##বাদীদের
editor
invent
আরবদের
কবিদের
কীর্তি
ক্রমিক
দাবাড়
পটভূমি
বেহালা
স্ট্রী
describ
without
আশ্চর্য
উন্মোচন
কাপড়ের
ডায়াবে
ভিক্ষুর
মহিলারা
সমার্থক
সমৃদ্ধি
অধ্যাদেশ
ওয়ার্ডে
যোগসূত্র
সিনেমাটি
স্থাপনার
character
ক্রুসেডার
ঠাকুরগাঁও
প্রতিবাদে
প্রদর্শনীর
অবসরপ্রাপ্ত
খেলোয়াড়কে
শিক্ষার্থীর
ঐতিহ্যগতভাবে
ধ্বংসপ্রাপ্ত
পর্যায়ক্রমে
ব্যাকটেরিয়া
##ko
##আশ
##hib
##iot
##pet
##কোম
##হাত
##হৃত
##king
##অক্ট
##আর্য
##ম্বে
##সলিং
##সুরি
##ালেন
##ুতির
bul
কেব
জন্
##orial
##অ্যাড
##জেক্ট
##সেটের
##াইডার
##েন্সে
##্ক্রা
male
mind
অভিস
আলেম
রেইন
সূচন
##iology
##যুগীয়
chang
estab
কমিকস
খন্ডে
চত্বর
পেপার
রোমের
শামসু
সমবেত
হাশিম
হিজরী
##ড্রয়েড
garden
আইবিএম
চিংড়ি
প্রথার
মেধাবী
যথার্থ
সিএনজি
সেহেতু
হিমাচল
##ইংরেজিতে
অপারেটর
একাউন্ট
চারুকলা
জওহরলাল
দর্শকের
বিক্রিত
মূল্যের
সিরাজুল
ডিরেক্টর
পদসংখ্যা
alexander
অসম্পূর্ণ
ক্রীড়ায়
হাওয়ার্ড
অগ্নিযুগের
প্রযোজনায়
যুদ্ধকালীন
ল্যাবরেটরি
##ম্যানচেস্টার
ভাষাবিজ্ঞান
অভ্যুত্থানের
কেন্দ্রশাসিত
প্রতিযোগিতামূলক
##اد
##ছন
##nov
##uan
##ভিস
##সুদ
অড
রঘ
##ক্ষন
##ক্ষু
##টাকে
##িবের
##িয়ম
##োডের
##্রের
jac
jun
sus
টয়
ধুম
ফলন
রাফ
রুজ
শাপ
##আয়ার
##ঞ্জলি
##তিব্ব
##দার্ন
bern
আনিস
উরবে
কখনই
কপির
ছানা
জ্যো
ঝুঁক
পশুপ
মস্ক
সহজল
সুরে
হরিশ
##london
##বার্গে
##িকারাগ
radio
আমজাদ
জিতেন
তারেক
পোলিশ
বছরেই
মেলার
শাসনা
স্তুপ
##century
church
motion
আবর্তন
কাব্যে
জয়ন্ত
ঠোঁটের
নদিয়া
যতক্ষণ
সঞ্চিত
##ামন্ত্রী
writing
পরবর্তি
ফোর্সের
ব্যাবিল
ব্যারাক
শৃঙ্খলা
সেগুলোর
হামলায়
ঝাড়খণ্ড
প্রতিকূল
সৈনিকদের
অস্বীকৃতি
উপস্থাপিত
নির্ণয়ের
মহাকাশযান
আইসল্যান্ড
ক্যন্দিতার
পর্তুগালের
শহীদুল্লাহ
কন্সালশীপের
ধারাবাহিকের
স্বাভাবিকভাবে
##নম
##ভগ
##alem
##cast
##দেহে
##াদ্ব
##িবির
##ীনের
চিফ
ছাঁ
দশা
ফিত
মজল
লিজ
শোষ
##asure
##itage
##বিষ্ট
##ভান্স
##্যাটে
band
call
fort
past
উকিল
এইটি
কথাও
কাচা
জিপি
পরিক
ফলেই
বলকে
ব্লগ
লোহা
শঙ্খ
সাহস
##ড়ানোর
##ধ্যক্ষ
chron
latin
আয়রন
গলায়
জরিপে
তাহের
পিঠের
পেরুর
ফাল্গ
ব্রাস
##নির্বাচ
##পরিকল্প
##ুতন্ত্র
একাদশে
ঘূর্ণন
দুরত্ব
নববর্ষ
বাড়তি
মদিনার
মিউনিখ
মৌজায়
সাংহাই
স্বীয়
##দ্ব্যাংস
success
কনফেডার
ঝিনাইদহ
প্যাকেজ
প্যারাগ
প্রাক্ক
বেলারুশ
যাচ্ছিল
স্বদেশী
##ইন্ডিয়ান
sanskrit
অববাহিকা
কম্পাঙ্ক
hyderabad
জামায়াতে
জীবনানন্দ
ক্যামব্রিজ
হেলিকপ্টার
##ইও
##0.0
##ado
##ops
##pap
##খেল
##গেজ
##াধর
##োগে
##্বত
ts
টল
শট
##চালা
##লিতে
##াইনে
##ানাল
fut
কোত
খেজ
নিগ
##বৌদ্ধ
##ভাগবত
##েন্ডন
উচ্ছ
উভচর
কণার
জুতা
বরুণ
ভেসে
মালি
রেজি
সাইড
##িলাডেল
##ীপাড়া
##ুপাতিক
schol
কাগজে
কেন্ট
ডিজনি
নিজেও
পূজিত
মারাদ
সড়কে
সন্ধি
সালাদ
স্লিপ
##ability
##চ্ছিলেন
##োয়ার্ড
commer
office
secret
অগ্নিক
অধিকৃত
নেতাজি
রঘুনাথ
সিপিইউ
এগুলিকে
এগুলোকে
কনসার্ট
ক্যালকু
চাহিদার
প্রিন্ট
প্রেরণা
বামহাতে
ব্রান্ড
মধ্যস্থ
সিয়েরা
##নির্ধারিত
##পরবর্তীতে
আর্সেনাল
কোরিয়ান
নরেন্দ্র
পুনর্গঠন
মরণোত্তর
রহস্যময়
##প্রতিষ্ঠিত
প্রণয়নের
ভূগর্ভস্থ
স্বায়ত্ব
প্রচেষ্টার
ভারতীয়দের
দায়িত্বভার
##ৌত
##kin
##tem
##uri
রদ
##stor
##পাখি
##পাতা
##রানি
##সেবা
##াশয়
##াহীম
##ুণ্ঠ
fig
jud
ইন্
একশ
খুর
জনি
##ক্যার
##গ্রোস
##র্টের
##িয়নে
##্টনের
team
বদলি
বিএস
মর্ত
সুমন
হানা
##সংলগ্ন
##োয়ানা
##োস্লাভ
often
আগুনে
ইরানে
এরশাদ
কাস্ত
কোয়ে
চারিদ
দৌড়ে
নাৎসি
বণ্টন
যেসকল
##এশিয়ান
##প্রণালী
##ব্যবহার
##ান্ডারী
single
ইভেন্ট
গভর্ণর
তৈরীতে
নিকটতম
মার্টি
ম্যারা
সর্দার
সীমারে
##তত্ত্বের
pradesh
আগস্টের
রেলপথের
northern
পদোন্নতি
performan
আওরঙ্গজেব
আবিষ্কারক
কর্মসূচির
সংবেদনশীল
##mu
é
##til
##দির
##নাদ
##রিস
ja
ইশ
##cell
##itte
##করের
##লীলা
##সপ্ত
##াচরণ
##োজের
ach
jon
নের
ফখর
##ained
##class
##নগরের
##ম্যাক
##াইনিজ
##ুটিকে
##োত্তম
##োপ্লা
anti
খলিল
গলার
ঘটলে
নব্ব
মাকে
nobel
stone
কিন্ত
জামিল
টেলিক
নান্দ
নামায
নিতেন
নেতার
সাংসদ
সূরার
##ধর্মীয়
##ব্যাম্স
অভিমুখ
অর্জনে
কামরূপ
চার্লি
তিথিতে
দিচ্ছে
বর্ষের
বিছানা
##ographic
##বিশ্বকাপ
##সোভিয়েত
experim
আইনসভার
আভ্যন্ত
ছাত্ররা
দাড়ায়
ধনাত্মক
বার্কলে
মদিনায়
মূলনীতি
সেইসাথে
সেক্টরে
##মেরিলেবোন
southern
পাঞ্জাবী
বিরাজমান
মৃত্যুতে
সহায়তার
উপস্থিতির
নেত্রকোনা
প্রকৃতিতে
রামচন্দ্র
সেঞ্চুরির
উপকূলবর্তী
কলাম্বিয়া
কুড়িগ্রাম
কোম্পানিটি
নির্ধারণের
বিশেষায়িত
অন্যান্যদের
চন্দ্রগুপ্ত
মনস্তাত্ত্বিক
ইয়র্কশায়ারের
##ور
##রথ
##ech
##fly
##চুন
##পুন
##াচি
##াহত
##িপথ
xx
##ghan
##অন্ত
##আত্ম
##ঠনিক
##দ্দৌ
##ন্ডি
##াইয়
cos
চিহ
বোট
ভূট
##light
##গুলিও
##িকাকে
##িয়াত
##েইনার
bill
gall
jean
role
জিমি
দূর্
পুনে
ফ্রম
বুনো
বেগে
রওনা
##বন্ধনে
##বৃদ্ধি
##িটিয়ে
##েন্ডুল
built
কাস্ট
নামিব
পহেলা
ফসলের
ফাঁসি
বার্গ
সাহাব
##প্রস্তর
##িউদ্দিন
around
object
অনবদ্য
অপরাধে
আইনসভা
কাবাডি
কেরালা
পাল্টা
ফসফরাস
বাগানে
বিদ্যু
বোর্ডে
ভ্রাতৃ
মেলায়
যোরহাট
রাজপুত
সচেষ্ট
##iversity
##ান্ডারের
bengali
italian
অ্যামের
গোপনীয়
ঘন্টায়
জেনেটিক
নিবন্ধে
মধ্যভাগ
##ব্র্গ্যুদ
agricult
স্বপ্নের
হাইকোর্ট
অববাহিকার
আত্মসমর্প
দৃষ্টান্ত
বাচ্চাদের
বিধানসভার
চিন্তাধারা
জনপ্রিয়তার
মুম্বাইয়ের
স্বাস্থ্যের
##bh
##fa
##লব
##সই
##ূণ
##ark
##nat
##omy
##এএফ
##কোল
##ণ্ট
##তিত
##পেই
##বীণ
##িদম
//
ka
আড
উচ
##came
##iden
##ning
##ক্লে
##তথ্য
##ুঁটি
##োসিন
গিন
টাউ
ডেব
ধাঁ
নেশ
বৎস
ভাদ
সৈক
##ience
##অপরের
##জালাল
##ড়িতে
##দায়ক
##দেবীর
(000
bell
miss
requ
উলুম
একদম
গৃহে
দস্ত
ধরেই
মতের
সত্ত
সদৃশ
##lywood
##জ্জ্বল
##মানবিক
##ুদ্দীন
sound
using
আদেশে
ইয়োহ
গর্ডন
ড্রিম
দিব্য
বারাস
ভেনিস
মিশেল
রাক্ষ
লঙ্ঘন
ল্যান
##প্রিয়া
archae
অবসরের
নামকরা
নেতারা
বেগুনি
মধ্যমা
সত্যতা
স্পেনে
##00000000
letters
several
ইভেন্টে
দেখানোর
নির্মান
ব্যাটেল
ম্যালের
শৈশবকাল
সংকীর্ণ
হানাদার
football
গবেষকদের
পরিবারকে
পৃথিবীকে
ব্রাজিলে
অসুস্থতার
কনফারেন্স
গ্রামগুলো
রাজেন্দ্র
সমাজকর্মী
নিষ্ক্রিয়
mathematics
শান্তিপূর্ণ
সুরেন্দ্রনাথ
ব্যক্তিগতভাবে
##aph
##cel
##ikh
##toc
##ump
##আলো
##তাজ
##দাম
##হেন
##িংক
ec
##আরসি
##চরিত
##িকৃত
##্বের
ken
কলে
দৈব
ভরে
যতী
##কার্ড
##ভ্রমণ
##সাগরে
conf
আবরণ
আলির
ইটের
চিকন
বন্ট
মালা
মুছে
মেধা
রাজহ
শফিক
হৃদর
##গ্রহের
##র্ষণের
##শিক্ষক
conne
influ
those
আবাসন
ইংরাজ
কারাক
জিনোম
বক্তা
মজবুত
শাকিব
শিকড়
সিকান
##english
##রক্ষকের
##োডিয়ার
wisdom
আশঙ্কা
কুয়েত
ডাকটিক
প্রদাহ
প্রবাদ
ভবনটির
লাহোরে
শনিবার
শেরপুর
হোটেলে
##প্রতিনিধ
##বাড়ীয়া
##্যাটফর্ম
অভিভাবক
ইউক্লিড
একইসাথে
জমিদারি
পিয়ানো
বিমানটি
মালিকের
মেট্রোর
অ্যান্ডি
এরপূর্বে
এ্যালবাম
অ্যাডিলেড
পরিভাষায়
মাদ্রিদের
অ্যাঞ্জেলে
ক্যান্সারে
ক্রিকেটারের
সফটওয়্যারের
টুর্নামেন্টের
পৃষ্ঠপোষকতায়
##nu
##নক
ح
##apt
##dra
##oth
##এটা
##জাক
##টাউ
##টোর
##থিল
##পিড
##মাও
##াফি
##িশি
##from
##এনএস
##টিকা
##মেইল
##হাউস
##াইকা
##িকরণ
();
kal
saf
উঠা
ঝিল
দীঘ
রেহ
শোন
ষাঁ
সিউ
##ament
##ক্রিপ
##প্রবণ
##বিচার
##ল্পিক
##ান্তি
tour
ওঠার
কাউন
তৎপর
নিউর
ব্রী
লিংক
সমাপ
##ইতিহাস
##মাইকেল
##সমৃদ্ধ
##্রয়েড
heart
later
medic
অবহিত
ইচ্ছে
ইমারত
কঙ্গো
কাচের
গ্রান
দানের
দেশেই
পতঙ্গ
বার্থ
বিন্য
রিলিজ
হুগলী
little
region
কেলভিন
নিকোবর
ফেলুদা
রায়ান
সত্যের
সমবায়
##প্রান্তে
ইয়র্কে
ধারণাকে
নিবেদিত
বসবাসরত
ডকুমেন্ট
ব্যাটারি
ভাষাগুলি
কিছুদিনের
শরৎচন্দ্র
নির্মাণকাজ
বিস্ফোরণের
বিক্রিয়ায়
বিভিন্নভাবে
ব্যারিস্টার
যুদ্ধক্ষেত্রে
##ষি
##don
##iph
##খীল
##চলা
##ডাম
iv
বগ
যী
##kins
##ring
##তাঁর
##মনোন
##াবিধ
##াবির
##ামতি
করো
দমদ
বর্
ভেস
যমজ
লখন
লাক
##atory
##field
##icism
##ঈশ্বর
##খানের
##লায়ন
##েশনাল
##োজপুর
gang
inte
less
অবগত
কনডম
খাটো
নগরে
মেঝে
শরিফ
##ertain
##শিয়াল
##স্বরুপ
ইউটিউ
ইনফরম
ঈদগাহ
কণিকা
ক্রিক
ক্ষমত
দুগ্ধ
নির্গ
ভগিনী
ভাগবত
মিলান
মেকান
##দক্ষিণে
##পরিচালক
energy
memory
অর্কিড
গতিবেগ
চত্বরে
জনবসতি
জানালা
নিরক্ষ
বীরত্ব
লর্ডসে
##গ্রাউন্ড
##্লাদিমির
medical
আদায়ের
গল্পকার
সেকারণে
##তত্ত্ববিদ
কানাডায়
সম্পূর্ন
সাঁতারের
##সেপ্টেম্বর
ইন্ডিয়ার
সম্পাদনার
##মুম্বাইয়ের
কন্ঠশিল্পী
হত্যাকাণ্ড
পৃষ্ঠপোষকতা
বিমানবাহিনী
রাষ্ট্রবিজ্ঞান
##++
##.-
##0-
##তক
##বৎ
##%;"
##adu
##aud
##একই
##সংঘ
##সীর
##াপদ
##িকল
##ুলু
##োহণ
lu
ঝর
মী
##ফটের
##র্ষি
##্মির
beg
আভি
ডের
ধোঁ
##ining
##কিউএল
##বছরের
##শিয়া
ঘটবে
চেইন
পটাশ
রূপক
হওয়
##ব্যাংক
##াতাদের
##িয়াগো
##েস্টার
অপহরণ
আগামী
গোলটি
জিনের
দাসের
পেটের
ফাঁকা
ফাজিল
ফান্ড
বলতেন
বুকের
বৃন্দ
মদিনা
রূপের
শীতের
সহজাত
##journal
compan
compil
territ
দামোদর
দুজনেই
দূর্ঘট
নিবেদন
ব্যারন
অধিবেশন
অবমুক্ত
গ্রহাণু
চামড়ার
তীক্ষ্ণ
পক্ষপাত
বিদ্যার
ভূপৃষ্ঠ
মন্ত্রক
মিনারের
যেগুলোর
রক্তক্ষ
business
দেশগুলির
পিকচার্স
সিরিয়াল
religious
আবহাওয়ার
আলাদাভাবে
লিওনার্দো
সুয়েডীয়
এয়ারপোর্ট
পটুয়াখালী
বিপ্লবীদের
সোহরাওয়ার
নির্দেশনায়
স্বীকৃতিস্বরূপ
##ey
##ube
##চাক
##ঢ্য
##ষেধ
##হোল
##cted
##etic
##ined
##জাতি
##রেটর
##র্ধন
ইনভ
জাঁ
জুড
নায
রাঙ
লেহ
##ische
##ক্যাম
##ডেন্ট
##থিয়া
##রেক্ট
##লাতিন
##সূর্য
##িনিটি
##্যুতি
late
আইটি
গৌরী
জেগে
ডেভল
নর্ত
পাউল
পিপল
রাবণ
লাসা
##00.0).
##ওয়ালি
##সভাপতি
##িবাদের
##োর্টার
আনসার
খোদিত
জাম্ব
থাকে৷
ফোরাম
ফ্যান
বাঁশি
বৈঠকে
শায়ে
সামাদ
হয়েও
##সংযুক্ত
##সীমান্ত
##াউদ্দিন
andrew
ইস্পাত
একদিকে
গোলাপী
পরমহংস
পারভেজ
মেরামত
সবিশেষ
fiction
গ্রিসের
নবজাগরণ
বার্মার
রপ্তানী
রেস্তোর
oriental
গৃহপালিত
সমকামিতা
প্রকাশ্যে
management
psychology
উচ্চশিক্ষা
উত্তরাখণ্ড
তীর্থযাত্র
ভূমিকম্পের
আগ্নেয়গিরি
উসমানীয়দের
বৃষ্টিপাতের
##চেস্টারশায়ার
contributions
প্রামাণ্যচিত্র
##اه
##ইগ
##টম
##ape
##des
##mir
##sen
##val
##yan
##াসু
##িনস
##ুতো
##ুবা
##েকো
##েসা
ফা
লক
##life
##আইএস
##কালী
##নাশক
##ন্নত
##পাঁচ
##ম্যা
##িসিস
কুট
ঘুষ
পূজ
লাট
লেই
শোভ
##empor
ball
rise
উদ্য
কেশব
খুশি
ডানে
ত্বর
বলয়
রোজা
##ক্ষণিক
##গোষ্ঠী
##পদ্ধতি
##ভাঙ্গা
##সম্মান
##্যাপার
কোরআন
টেইলর
ন্যাট
বৈদ্য
শ্রীল
সারদা
সিন্ড
সীমার
images
policy
অতীতের
অমান্য
একজনের
এধরণের
গোলাপি
ভর্তির
হন্ডুর
freedom
অ্যান্থ
ব্যাটাল
রাজাকার
সংশোধনী
সুকুমার
সুরারোপ
স্লোভাক
হ্যারিস
এক্সিকিউ
চারপাশের
জিজ্ঞাসা
তালিকাটি
সালতানাত
অন্নপূর্ণ
গবেষণাগার
গুরুত্বের
মাদ্রাসার
মির্জাপুর
শাসনকর্তা
কমিউনিকেশন
বিশ্বজুড়ে
ভারপ্রাপ্ত
রাস্তাটিকে
রুপান্তরিত
সেমিফাইনালে
ব্যঞ্জনধ্বনি
কুইন্সল্যান্ড
পূর্বাঞ্চলীয়
##sk
##অফ
##ৃদ
##bal
##এফএ
(‘
rh
##aken
##fred
##ময়ী
##হলুদ
##িলাল
লোপ
##খালীর
##জাপান
##দুর্গ
##ন্টিন
##শৈলীর
##্যাপি
জেতে
জ্বল
নাসা
মোঘল
লাঠি
হুসে
##minist
##পক্ষের
##বাজারে
##াপ্তাই
becom
issue
আহবান
উক্তি
এতটাই
খসড়া
দেশকে
পন্থা
শেকসপ
সাত্ত
সালেই
সিল্ক
##প্রজাতি
##হাঙ্গের
##াপ্রধান
##েরিয়াল
change
golden
আবশ্যক
ক্যাথে
পিয়ার
বিলম্ব
যেভাবে
রাজারা
সেতুটি
##ominated
eastern
express
written
অ্যাক্স
আলোকপাত
উদ্ধৃতি
কাতারের
পিটার্স
বেড়াতে
ম্যালকম
লম্বাটে
শৈল্পিক
heritage
কর্মসূচী
থাকাকালে
পাওয়ায়
মুদ্রায়
সিরিয়ান
অবস্থানরত
আদমশুমারী
উড়িষ্যার
উত্তরসূরী
কারখানায়
দুর্ঘটনার
শিলিগুড়ি
দ্বিতীয়বার
ভবিষ্যদ্বাণী
স্টেডিয়ামটি
##0;
##ec
##ος
##ام
##iff
##uru
##ছার
##দীপ
##পড়
##ানল
##াফট
##ীবন
##্ঞী
##aeus
##with
##পল্ল
##বারা
##াসাঁ
##িকাঠ
##ুমতি
##োদয়
did
los
mir
typ
ven
কেট
কোক
খাস
তাব
হিশ
##এয়ার
##ুয়াই
look
আরাফ
গল্ফ
পনির
ফতেহ
রাধা
সল্ট
হিরো
##margin
##millan
##ওয়ানা
##দ্বিপদ
##াম্পটন
আইনগত
কারুক
কৃষিজ
দারুণ
পাইথন
ফ্রিড
বাদাম
বিরূপ
রৈখিক
লেবার
সুত্র
হেঁটে
##বাজারের
##বিস্তার
##িয়াজাত
attack
became
অন্তরজ
অফিসের
ঘণ্টার
নিবিড়
প্রবাল
বিয়োগ
##প্রকাশিত
however
গ্র্যাজ
মার্বেল
মিলনায়
##wikitable
elements
অবিশ্বাস
অস্ত্রের
ইনফরমেশন
ইহুদিদের
কালক্রমে
তালুকদার
নিরাপত্ত
পরিবেশনা
বিদ্রোহে
বিপজ্জনক
বিভাজনের
শিয়ালদহ
মন্দিরটির
মেগাওয়াট
##ক্যালিফোর্ন
ক্যাম্পাসে
ম্যাগাজিনে
দ্বীপপুঞ্জে
বুদ্ধিমত্তা
ভূতাত্ত্বিক
শান্তিনিকেত
উচ্চমাধ্যমিক
পেট্রোলিয়াম
##bu
##edy
##oir
##আইই
##গাও
##রেস
##োকন
##োগত
জঁ
শফ
##aria
##ilal
##omic
##আইভি
##গণ্য
##সেনা
##হরাব
##াসুর
##ৈষ্ঠ
উইজ
ডেড
দাহ
নিও
ববি
##ণ্ডলী
##াক্ষর
##িংহাম
##িমায়
mand
stra
আগরত
আবাদ
ইডেন
ওমান
গারো
চন্দ
চোরা
দেউল
নেশন
পুণঃ
মদ্য
রাইন
##ctures
##িয়রের
lewis
moore
অদূরে
ইউরেশ
একাংশ
গ্যাং
পৃথ্ব
প্লাস
বাসার
ভারতী
##ট্রিক্স
##াধিকারী
##েশ্বরের
daniel
recogn
russia
ইস্তান
বায়ার
মহল্লা
##ওয়ার্কে
উড্ডয়ন
জোড়ায়
তারতম্য
নানাবিধ
নৃত্যের
পাঠানোর
সমকালীন
সহজলভ্য
ইতোমধ্যে
উদ্বোধনে
কৃষ্ণনগর
ডেমোক্রে
পার্টিতে
বর্ণনায়
বিন্যস্ত
সময়সূচী
##ুয়াডাঙ্গা
কাউন্টিতে
রাজকুমারী
নিউক্লিয়ার
বিদ্যালয়টির
মেট্রোপলিটান
स
##jam
##আর্
##উইল
##জীর
##নেক
##শীত
##ানৈ
##িদে
##োমন
##imes
##কণ্ঠ
##চিতে
##রক্ত
##েসিস
##োজার
##োড়া
##োনিক
##্তিক
bol
fel
বিম
হসপ
##cular
##ক্লিফ
##নাগরী
##রাঙ্গ
lake
prim
আর্ব
ইটাল
উর্দ
জিয়
তিলক
বানু
মশলা
যত্ন
সংকে
ইউনিক
গোষ্ঠ
ধাবিত
পারিশ
পিস্ত
মৌলের
সংক্র
সফলতম
সুমের
##ination
##চিকিৎসা
##চ্ছেদ্য
##ঞ্চলীয়
##সাধারণত
##ায়েন্স
astron
আখ্যান
গ্রেগর
চাইনিজ
দোকানে
পাত্রে
বেগুনী
মুনাফা
সাবিনা
সোমবার
penguin
station
আলহাজ্ব
কবিতাটি
ক্লিনিক
দিল্লীর
প্রকাশন
প্রথমটি
বিদ্যুত
মাদরাসা
রোগীদের
শুরুতেই
ক্রিয়াক
গাঙ্গুলী
ডায়মন্ড
মূলধারার
মেরুদণ্ড
সংবিধানে
এশিয়াটিক
গ্রন্থটির
দীর্ঘমেয়
বিজ্ঞাপনে
সহস্রাধিক
টেকনিক্যাল
পানিপ্রবাহ
হাসপাতালের
কর্মচারীদের
ক্রীড়াশৈলী
distribution
independence
নেতৃস্থানীয়
প্রক্রিয়াকে
বিমানবন্দরটি
স্বল্পদৈর্ঘ্য
##হক
##’)
##/00
##?''
##irl
##mil
##pat
##rus
##spe
##vol
##:000
##arab
##west
##কলেজ
##জাদা
##ামেড
জুর
রেগ
##iting
##overy
##টিসের
##ত্রিশ
##্যবাদ
show
অতএব
এলেন
গঞ্জ
জমান
পেরু
প্রট
বাঘা
মন্ত
মস্ত
মামা
##ements
court
final
words
আঠারো
একাকী
তামার
দারুল
ফ্রেম
ব্রিস
লাইনে
সুরিন
হেপাট
##itation
##নভেম্বর
##ব্যান্ড
france
origin
আব্দুস
আরাকান
একারণে
গুয়াং
নকশায়
নাগপুর
মৈত্রী
সোনালি
হাল্কা
হিটলার
##োগ্রাফিক
thought
অনুধাবন
ইতালিতে
উপার্জন
ঋণাত্মক
ওয়ালেস
ত্রিকোণ
বোলারের
ভারোত্ত
ময়দানে
সেন্সাস
##ছাত্রীদের
উত্তেজনা
উদ্বাস্ত
জর্ডানের
পরিবেশগত
সেগুলোকে
গণমাধ্যমে
ছাত্রীদের
জার্মানীর
টেলিস্কোপ
পূর্বেকার
থিয়েটারের
বাংলাদেশকে
বাছাইপর্বে
দক্ষিণপূর্ব
বিদ্রোহীদের
ধারাবাহিকতায়
ব্যবহারকারীরা
মুক্তিযোদ্ধারা
##kn
##উম
##তৎ
##ads
##ipl
##sal
##কমল
##জেল
##টেই
##পিপ
##ভিদ
##য্য
থম
##ient
##shah
##জিতে
##বোধক
##ুঞ্জ
##েনার
##োট্র
cry
tel
ঈগল
কনক
কিস
কেস
ঘৃণ
মসল
##ঘনত্ব
##নালীর
##বোনের
##র্বাদ
cong
fred
resp
অট্ট
ইস্ত
গম্ভ
জরিম
ভাবা
মাইট
সীতা
##উয়েফা
##ফায়ার
##িয়েনা
birth
carol
অনুগত
আমাজন
কাঁচা
কারার
দিবসে
প্রান
বললেই
মতিউর
লাস্ট
লেকের
##িশিয়ান
rights
পুর্বে
বর্ডার
রাজনীত
শিকারে
সেলজুক
স্টোরে
স্ফটিক
nuclear
আগ্রহের
আয়োজনে
উপেক্ষা
গ্রাম্য
পাঠাগার
ফিলাডেল
রিসোর্ট
সাপোর্ট
সিক্রেট
##প্রাকৃতিক
আর্নেস্ট
কয়েকদিন
বর্গমাইল
সংগ্রামে
অংশগ্রহণে
ইতোমধ্যেই
একাধিকবার
পূর্ববঙ্গ
প্রকাশকাল
বর্ষপঞ্জী
ব্যয়বহুল
মানিকগঞ্জ
কনফেডারেশন
সম্পাদনায়
শিক্ষাগ্রহণ
সার্বভৌমত্ব
সৈন্যবাহিনী
##";
##%-
##,_
म
##bas
##bul
##top
##সেং
##াঁই
##্টু
ওত
জজ
##band
##eria
##play
##গ্রো
##াক্ল
##াজির
##্নিক
##্যুং
dat
ell
las
ঝাও
পুঠ
সওদ
##উর্দু
##ভিডিও
##াবলির
##ামারা
অকাল
আরিফ
কপার
তরুন
পাগল
বিজে
রোশন
##িমিত্র
quest
simon
tower
অক্ষত
অগভীর
আসবাব
ইসহাক
গাজীর
গ্যাব
জেনের
দুর্ব
ব্লাড
যিশুর
সেভেন
##াগুলোতে
berlin
proper
আদিত্য
ইসরাইল
এদেশের
কমার্স
গৃহস্থ
জুটিতে
তুর্কী
দিবসের
ম্যারি
সিঁড়ি
স্কলার
হুসেইন
##বার্ষিকী
million
sources
spanish
অলঙ্কার
গতিবিধি
চমকপ্রদ
প্রদক্ষ
ফেস্টিভ
বাংলাকে
যন্ত্রে
শ্রেনীর
সত্ত্বা
হারমায়
children
অস্ত্রোপ
ওয়াইল্ড
ক্রীড়ার
রাজশাহীর
সংশ্লেষণ
সৌরজগতের
chemistry
অটোরিক্সা
আশঙ্কাজনক
ক্যান্টার
##ফিল্মফেয়ার
প্রতীয়মান
ডিক্যাপ্রিও
নেটওয়ার্কে
##ম্যাসাচুসেট্স
mathematical
কনফেডারেশন্স
হত্যাকাণ্ডের
মুখোপাধ্যায়ের
##-(
##এড
##থু
>
##.).
##oms
##ser
##ued
##vis
##গরে
##দাঁ
##রকে
ডর
হৈ
##hard
##পদের
##াতীত
##াপোল
##ুগড়
##োপাল
big
imp
sah
এতো
কুঠ
গোব
শিফ
##ators
##water
##ঁয়াজ
##ক্রিস
##গার্ড
##লাভের
অটোম
খাঁর
গীতা
টিকা
বোর্
রওশন
ললিত
স্তন
হৃৎপ
##action
##জিয়ান
##িংটনের
গেলেন
জানেন
পঁচিশ
প্যাক
ফ্যাস
বাহার
ভাগীর
##অভিনেতা
##খতিয়ার
##তন্ত্রী
##বিভাগের
##ভুটানের
##শিক্ষিত
##িয়াদের
battle
provin
অলংকার
উদাহরন
খুঁজতে
জানতেন
নারীকে
বহুবার
ভেঙ্কট
ময়দান
শিশুরা
discuss
অণুসারে
ক্রেডিট
তুলেছেন
প্রাকৃত
মালামাল
সিডনিতে
হ্যাম্প
##বিশ্বকাপে
অনেকাংশে
ব্যাবহৃত
সাব্যস্ত
উত্তরাংশে
কাশ্মীরের
বৃত্তাকার
ব্যাঙ্গাল
ল্যাপটপের
শ্রীনিবাস
অবিচ্ছেদ্য
ডেনমার্কের
শেষপর্যন্ত
সেক্রেটারি
##স্ট্যানফোর্ড
জ্যোতির্বিদ
প্রোগ্রামার
প্ল্যাটফর্ম
গুরুত্বপূর্ন
প্রক্রিয়াজাত
ইউনিভার্সিটিতে
চট্টোপাধ্যায়ের
দায়িত্বপ্রাপ্ত
##=0
##মৈ
##ité
##ওলা
##কথন
##খাদ
##গেল
##চকে
##মনি
##্লো
বৌ
##bers
##ends
##ista
##ivid
##গাজী
##ঙ্কি
##ঙ্কু
##মুখে
##াণের
##ুরাই
fac
মর্
লুপ
হুব
##গোপাল
##চ্ছুক
##জিগ্স
ইদ্র
উগ্র
জোলি
ব্রত
শল্য
সরণি
সিরি
হতেই
##শাসনের
##স্ত্রী
along
singh
অ্যাজ
ইনফ্ল
কাতাল
টুরিং
ডেক্স
দ্রবী
প্রমথ
বারাক
বিরতি
##পরিবারে
##েক্টরের
(0000,
columb
কুর্দি
জিয়ান
জীবনকে
নমনীয়
প্রকরণ
বঙ্গের
বাতাসে
ভুমিকা
মহাকাব
##মাত্রায়
another
largest
অবলুপ্ত
আকস্মিক
উৎকৃষ্ট
ওয়ানডে
ক্যাম্ব
ছদ্মনাম
দাবাড়ু
পরিমানে
প্রচারক
মঞ্চস্থ
সুবিশাল
হালিশহর
consider
অ্যাডামস
উচ্চাঙ্গ
ক্রিয়ার
গুয়াতেম
বিলুপ্তি
মিউনিসিপ
সরবরাহের
community
জোরপূর্বক
প্রবেশিকা
রাশিয়ায়
সুপারহিরো
##ফেব্রুয়ারি
তাইওয়ানের
ব্যবস্থাপক
ব্যাটম্যান
সংগ্রহকারী
সেনানিবাসে
স্বেচ্ছায়
independent
অনুষ্ঠিতব্য
গিয়াসউদ্দিন
পার্শ্বচরিত্রে
##.।
##del
##ges
##non
##sci
##পদী
##ফটা
##ফুজ
##মুজ
##াইদ
##itch
##odia
##অধিব
##বেদী
##বেশি
##ভবনে
##ভিতে
##লিটি
##ল্হা
##ায়ি
##াসিক
##োনিও
##োফোন
##্মার
som
আগর
ওএস
কচি
গজন
##কালিন
##ভোকেট
##ালগ্ন
##াস্টি
arth
carl
ওভাল
কেমন
জানি
পিঠা
ফেরি
ভারি
মৃদু
শুভে
হতাশ
##কোয়ার
##পত্রের
##াতাড়ি
##ুমেন্ট
##োয়ারা
audio
birds
parts
today
অব্যব
অভিমত
আসরের
ইপিআর
ওপরের
জাকির
জিনগত
ট্রিল
তন্তু
দাশের
দুপুর
নেবার
বিবিধ
ভেড়া
মার্ভ
মেরিট
হালিম
##াগুলিকে
##ানুরাগী
##্চুয়াল
কৌশলের
গাঠনিক
ধাক্কা
পৌঁছেন
বানায়
বেঙ্কট
স্টেটস
হাউজের
হারানো
##কেন্দ্রে
council
অরবিন্দ
উদযাপিত
কুমারের
নিউটনের
সুদীর্ঘ
director
lawrence
উরুগুয়ে
বুদ্ধদেব
ব্রাউজার
শাহজাহান
সন্নিবেশ
সাউদার্ন
স্ট্রাইক
হিলিয়াম
কন্টেইনার
গ্যালাক্স
ডিসেম্বরের
প্রত্যেকেই
প্রত্যেকের
##hr
##উক
##bat
##sin
##য়ি
##শিন
##াগু
##াচর
##ানক
##াহি
##িউর
ওব
বত
##bird
##ctic
##ogle
##আমরা
##স্কর
##িজার
##োৎসব
##্রোম
kap
ped
এপি
এমি
কিক
ঠেক
মটর
লেস
সরফ
##দণ্ডী
##বিজয়
##য়ারে
##শঙ্কর
##াড়ির
##ীয়ার
fest
turn
আলতা
গুড়
দূরী
বিশদ
মাঝি
মানি
লারা
সাইদ
হোসে
##enberg
##াকীর্ত
colon
conqu
incre
theor
অপরকে
এককের
কিনতে
কেদার
ড্যার
তথাপি
তাহির
ভয়েস
লেন্স
সাল্ল
সৌদের
স্লাভ
##plement
##গার্টেন
##র্দার্ন
papers
survey
একযোগে
জলধারা
ট্রেনে
ডায়ের
দুর্গে
নিঃসরণ
পেনসিল
ফেসবুক
বস্তুত
বিরক্ত
যৌনতার
##যাত্রায়
indones
অমুসলিম
ওয়্যার
গ্রামটি
চূড়ায়
ধানমন্ড
পঞ্চগড়
প্যাট্র
বাড়াতে
ব্যাখ্য
মিত্রের
সংঘর্ষে
অঞ্চলটির
অবিবাহিত
ইঞ্জিনের
এশিয়াতে
ফ্লোরিডা
মরুভূমির
সংখ্যাকে
##bangladesh
অস্ট্রীয়
ব্যান্ডটি
সহযোগিতার
চিত্তরঞ্জন
পর্বতারোহী
পৌরসংস্থার
অ্যানিমেটেড
বেলজিয়ামের
হিন্দুধর্মে
উত্তরাঞ্চলের
নেদারল্যান্ডসের
à
##agh
##arm
##খোর
##ডলফ
##তলি
##বদ্
##ভয়
##লিপ
##লুং
##ুইট
si
##ador
##itan
##আইপি
##গণেশ
##রেরা
##সিএস
##স্বপ
##িনেট
lay
ঝোঁ
টেস
রিউ
রুক
ল্য
##cause
##inary
##thing
##ওয়াশ
##টেক্স
##ডার্ন
##র্তুগ
##স্রোং
cant
corn
path
কাকা
চড়ে
মজার
##পবিত্র
##প্রতিক
##াবাড়ি
##িজেন্স
অলঙ্ক
আকরাম
খোলার
ঝড়ের
তামিম
বিকৃত
বোমার
রয়াল
সত্তা
##অক্টোবর
##এছাড়াও
afghan
brazil
canada
nation
অপূর্ব
অস্থিত
আড়ালে
ওড়িশা
খান্না
জীবাণু
তিউনিস
থানায়
বাইরেও
বিবরণী
রিয়েল
##অধিবর্ষে
##দানীন্তন
##্যান্টিক
আত্মগোপ
কর্মীরা
নির্মীত
প্যালেস
প্ল্যান
মেয়েকে
রোনাল্ড
সহিংসতা
##ইংল্যান্ড
committe
দ্রবীভূত
পটভূমিতে
মর্যাদার
রীতিনীতি
শিল্পীরা
সন্তুষ্ট
সমীকরণের
সাইপ্রাস
স্তম্ভের
সন্ধ্যায়
বেঙ্গালুরু
পার্লামেন্ট
ডিস্ট্রিবিউশন
##py
##শপ
##fic
##ংসী
##এরও
##কাই
##গরী
##দুম
##োকু
##ways
##উড়া
##ত্রা
##লংকা
##লেশন
##শহীদ
##হট্ট
##হানি
##িগার
##িনাথ
##িন্থ
00)
ককে
ফান
বসন
##antic
##আইরিশ
##গ্রীব
##চার্চ
##বহমান
##ভিত্ত
##হামের
##্থানে
drug
flor
lion
অনাথ
এককে
এলিস
এস্ত
কমার
করে৷
খেয়
জলপথ
টালি
নর্দ
পর্ণ
যুগল
সুষম
basic
অপরিস
কলোরা
কাবুল
কালীর
ঘেঁষে
চলছিল
ফ্যাল
বলকান
বাঁকা
ভুক্ত
মান্দ
মেমরি
যৌগিক
শার্ট
সহপাঠ
##যোগ্যতা
##াগুলোকে
female
আপত্তি
এমসিসি
দেবদাস
নির্মম
প্রতিস
প্রবীণ
শাসকের
শ্রুতি
##স্টাইনের
stephen
আল্লাহ্
ওড়িয়া
ট্রাঙ্ক
ধর্ষণের
শিবগঞ্জ
সম্ভবতঃ
contains
critical
division
ব্রিটেনে
হাতিয়ার
ছায়াপথের
বছরগুলোতে
উত্তরপূর্ব
প্রথমার্ধে
##international
ট্রাইব্যুনাল
প্রস্তুতকারক
স্বায়ত্তশাসিত
##si
##ংখ
##fil
##iat
##rum
##কুশ
##চুর
##য়ব
##্নক
__
ধল
##ared
##iang
##igen
##phil
##ঘন্ট
##নাইট
##বিআই
##ল্দে
##সিডি
##াম্য
##াসফল
##িতেই
##ুগ্ধ
ara
haw
low
say
ইমন
গুই
ঢোল
দৌঁ
বসত
বাণ
সিব
সোফ
##aland
##black
##keley
##আগস্ট
##ত্বিক
##াকথিত
caus
doub
wild
এঁকে
কড়া
তদার
দিবা
বধ্য
বেসব
##টিয়ার
##ফার্সি
##ভিনেতা
##সমাজের
##ৎপত্তি
থার্ম
নাথান
পাথরে
ফিফার
বয়ঃস
বিঘ্ন
বেসিক
ব্যাগ
মন্টি
শব্দে
শাহাদ
শিরোপ
সুষ্ঠ
##oration
##ription
##লক্ষ্মী
##োনিয়ার
mother
অণুপ্র
উত্তরণ
উত্তোল
ক্রমেই
ট্রফির
দরবারে
দিয়েও
বসিয়ে
সাইবার
হাঁসের
##emporary
##কর্মীদের
##ৈজ্ঞানিক
অ্যাংলো
ইকোনমিক
ইন্টারন
ছদ্মবেশ
ঝুলিয়ে
নিকারাগ
পূর্বাভ
বাঁকানো
রেকর্ডস
সর্বদাই
administ
আয়তাকার
ক্যাথরিন
দ্রব্যের
প্রজননের
বোলারদের
সীমানায়
ইতালিয়ান
এনড্রয়েড
নটিংহ্যাম
বিচারকদের
বিজয়ীদের
##কম্বোডিয়ার
লক্ষ্মীপুর
কেন্দ্রস্থল
গ্রন্থাগারে
##uv
##xx
##ар
##्र
##গহ
##bon
##cat
##ift
##isa
##iva
##kan
##she
##অপর
##একা
##গঠন
##টিম
##বিগ
রত
##)'',
##nail
##ঃসাহ
##চণ্ড
##বন্ত
##শাখা
##ূপের
##োরার
sen
তেন
মমত
##const
##islam
##জাহাজ
##াইটের
##াকর্ম
capt
food
grow
town
আর্চ
এসএস
কবলে
কুলি
জননী
জনিত
পন্থ
ভিড়
মারে
স্বত
হাসি
##idence
##গ্রামে
##চুম্বী
##পেক্টর
##িন্দ্র
##োজেনের
refer
আতাউর
আফতাব
এনজিও
এলবাম
গিরিশ
ঘোষাল
তীরের
দিলেও
পত্তন
পাখনা
পাচার
ভাইসর
রীতির
সাতজন
##সামগ্রী
##িতত্ত্ব
essays
future
অনুসার
এরিয়া
গুগলের
পরগনার
পুরুষে
বিহারী
হার্ডি
african
অপরিসীম
গাছপালা
ট্রেনের
প্লাবিত
ফ্রেন্ড
মহাদেশে
স্প্রিং
calcutta
দেখাশোনা
পড়ালেখা
প্রত্যয়
বৃদ্ধিতে
ভালোভাবে
হাজারেরও
reference
ইয়াহিয়া
ক্ষমতাসীন
গোপালগঞ্জ
বংশোদ্ভুত
ব্যবসাসফল
ভালোবাসার
মানিকজোড়
ধর্মপ্রচার
বোয়ালখালী
যাতায়াতের
লালমনিরহাট
সংবাদপত্রে
হাঙ্গেরীয়
##প্রাপ্তবয়স্ক
ম্যাক্সওয়েল
নিউজিল্যান্ডে
প্রতিরোধযুদ্ধ
প্রেসিডেন্সির
ছাত্রছাত্রীদের
##zo
##zy
##én
##ов
##েভ
##!''
##dar
##pid
##গবে
##গিল
##বাত
##রীর
##লান
##ামস
##ুলো
##োগো
##erty
##umar
##umer
##ক্রে
##ডিসি
##পতিত
##ারেড
##্লিন
bon
এনজ
কুপ
পলা
ফাস
বমি
##ively
##গ্রসর
##রাতের
##র্বেদ
##সিন্ধ
##াপিছু
##াস্তা
##িজমের
##োয়েন
dark
dest
vols
ঋতুপ
গুজব
গ্লা
জড়ো
নামও
মধুর
মোশন
##vision
##রাত্রি
democ
অনানু
ইউনুস
কালার
ক্ষুদ
চালের
দত্তক
বাঁধে
বিবৃত
বিলাস
##ব্রাজিল
00-00.
dynast
অলিভার
অশোকের
আলোকিত
উৎকর্ষ
এনামুল
কেল্লা
কোর্টে
জলাধার
দেবীকে
ভয়ংকর
মিয়ার
##ervation
অভ্যস্ত
এজেন্সি
কর্মচার
খানিকটা
নালন্দা
বালিয়া
মহাকাশে
রক্তচাপ
রানওয়ে
রূপরেখা
সারাদেশ
হলদিয়া
হোস্টেল
আর্কিটেক
একাডেমীর
জাকার্তা
প্রসারের
মৃত্তিকা
সংখ্যাটি
palestine
পাহাড়তলী
পরিবেষ্টিত
ফ্রাঙ্কলিন
সেনাপ্রধান
বাসিন্দাদের
ইয়র্কশায়ার
পদার্থবিদ্যা
ভেনেজুয়েলার
##নিউজিল্যান্ডীয়
নিয়ন্ত্রণাধীন
##ía
?
##ele
##তিম
##ফ্ট
od
ইখ
ফক
##ided
##rian
##আনের
##চনের
##পায়
##প্লা
##লাইফ
##াপের
##্লীল
''“
অমল
পিএ
যায
##arian
##eland
##imate
##ক্যান
##তানের
##সুপার
##সেনের
five
আড়া
ইভান
কাইল
কানে
গোপী
পাতি
বসার
বিলে
মনোব
যতীন
রাঢ়
##বাদীরা
##সরকারি
##িত্বের
অর্পণ
ইয়েল
কার্স
কিস্ত
কুটির
ক্ষুধ
চার্ল
পক্ষী
পুঁথি
ফাদার
বলেছে
বাটার
বেদের
মাঝেম
##মুম্বাই
##স্ট্রোক
former
কমিক্স
কর্ণেল
কৌতুকা
পর্বতে
প্লাজা
বাহিরে
ভাষাপর
লক্ষিত
##কুমিল্লা
harvard
অনুপস্থ
আইসোটোপ
প্রতীকী
প্রাণের
ভালভাবে
শাসনভার
স্ক্যান
হাস্যরস
articles
perspect
অনুবাদের
উপাত্তের
এলাহাবাদ
চেয়েছিল
ছদ্মনামে
জোড়াসাঁ
পৃথকভাবে
বাইবেলের
বিধ্বস্ত
following
macmillan
কারুকার্য
বান্দরবান
ভারতবর্ষে
রক্ষার্থে
শ্রীকৃষ্ণ
সিরিয়ায়
সূর্যাস্ত
কলম্বিয়ার
গোড়াপত্তন
documentary
performance
ইন্টারনেটের
গ্রন্থাকারে
সমাজবিজ্ঞান
সম্প্রদায়ে
প্রেক্ষাগৃহে
কেন্দ্রবিন্দু
অ্যাসোসিয়েশনের
##ku
##اس
##oud
##pic
##কূট
##যখন
##াগে
##িতো
##্শে
0;
ওন
শম
##eros
##ilio
##ured
##আড়ি
##ইস্ট
##ডায়
##ন্দী
##পূরণ
##মারে
##মোহর
##িজিন
##ীনার
##্ধ্য
lam
এমা
গোক
চড়
লবন
##asian
##অ্যাম
##কল্পে
##পদস্থ
##বার্ড
##হার্ট
##ানদের
##িম্পং
##োটাইপ
card
trib
কেলে
জিনি
বারী
মহাল
রাইস
স্বৈ
##000000
##চক্রের
##দিল্লি
##ুযায়ী
broad
georg
table
একটির
এটিএম
এদেশে
কোয়া
ডলফিন
পাশার
ফেলোশ
বাহাই
রাত্র
লক্ষে
লাগান
শৈলীর
সোনাই
##গ্রামের
##পরিবাহী
##াগ্রস্ত
market
অন্তিম
খলিফার
ধাঁচের
পারেনা
প্রথমত
বনভূমি
বিশেষণ
হাওয়া
##দিনাজপুর
##য়িকভাবে
##শাস্ত্রে
অনেকাংশ
অ্যাকিল
কুখ্যাত
ক্যাথিড
গণিতজ্ঞ
জরিমানা
তেন্ডুল
দপ্তরের
লম্বায়
লাহিড়ী
ক্যাম্পে
গণহত্যার
চারিদিকে
পদ্ধতিটি
বাগদাদের
বৃহদাকার
শিক্ষিকা
committee
উত্তরসুরি
ক্ষুদ্রতর
চ্যান্সেল
previously
কর্মকর্তার
পর্বতশৃঙ্গ
বোধিসত্ত্ব
সংগ্রহশালা
এ্যাওয়ার্ড
কর্মসংস্থান
আলেক্সান্ডার
খ্রীস্টাব্দে
ট্রান্সপোর্ট
সম্প্রসারণের
##su
##সঃ
##''"
##azi
##cor
##map
##rog
##কলন
##তখন
##দ্জ
##পিত
##বচন
##রিও
##াহর
##োবি
##olia
##ught
##র্যা
##োধ্য
dor
ern
sky
তফস
মণি
যেই
রোস
লোড
##rance
##খাস্ত
##গিরির
##দিল্ল
##রয়েল
##ালম্ব
##োবস্ত
##ৎসমান
rail
আত্ন
আবাহ
আর্জ
কেউই
গালি
ফন্ট
ফরেন
বুঝে
যাপন
রোমে
##চিত্রা
##ডিয়ান
##িমেন্ট
##েনহাইট
learn
rules
spain
texts
woman
উইকিম
উপকার
চর্বি
জঙ্গি
ট্রাভ
তারের
দাক্ষ
ন্যাপ
মাছরা
যেয়ে
সূচিত
হারের
হেজাজ
awards
forest
ইনস্টল
এজেন্স
ওয়াইড
পলিমার
পারসিক
ফেরদৌস
সতীর্থ
##নির্ধারণ
##সংস্কৃতি
অগ্রদূত
অনলাইনে
অভিমুখে
উপজাতির
চিকিত্স
চোরাচাল
তথাকথিত
পদার্পণ
ব্রডকাস
ভাণ্ডার
সংযোগের
সংযোজিত
সংস্করন
সাল্লাম
গ্রামবাস
চিত্রকলা
জুলাইয়ে
ড্রাইভার
পুনরুজ্জ
ফ্যাক্টর
বাড়ানোর
মন্ত্রীর
শাস্ত্রে
mechanics
অ্যালবামে
আংশিকভাবে
কেন্দ্রিক
ক্যাপিটাল
ক্রিস্টাল
প্রিন্সটন
ব্যাসার্ধ
##ওয়েস্টার্ন
ইলেকট্রনের
পরোক্ষভাবে
প্রাচীনকাল
বন্যপ্রাণীর
সম্প্রচারের
0000–0000''.
সর্বাধিনায়ক
এয়ারলাইন্সের
ব্যক্তিবর্গের
##mor
##গুজ
##ধাম
##বহর
##মিথ
##রয়
##হৃদ
##ৃতে
এহ
কও
লব
শয
##hman
##ন্তর
##ষ্ঠা
##সালে
##াইলি
##িশেষ
rob
ten
কসম
খের
নিব
ফুড
মনী
মোব
রাক
লেব
##ieval
##white
##দলীয়
##দৃষ্ট
##ন্তোষ
##য়নগর
##হাজার
##াম্বর
barb
hans
moon
ther
আগেও
ইষ্ট
একথা
করলো
টাটা
পালা
##পরিবার
উৎখাত
ক্রোধ
গভীরে
গাম্ব
দীনেশ
প্রতী
প্রীত
বয়েজ
সেইসব
##িস্থাপক
poetry
উৎপাদক
এমটিভি
জনগণকে
বলিউডে
রিয়াদ
সরকারে
হায়াত
leaders
machine
stories
অসুবিধা
অ্যাঙ্গ
কিবোর্ড
টর্নেডো
পারফর্ম
বারাণসী
মন্ত্রন
##ব্যবস্থার
##ুমিনিয়াম
medicine
আশীর্বাদ
মধ্যেকার
লিথুয়ান
শাস্ত্রী
শাহজালাল
কিলোগ্রাম
কুমিল্লার
প্যাট্রিক
ভূমিকম্পে
ভ্লাদিমির
সিকান্দার
আর্সেনালের
তীর্থস্থান
নরওয়েজীয়
পারদর্শিতা
পার্থক্যের
ভিয়েতনামে
শিক্ষাজীবন
শিক্ষাব্যব
ওয়েবসাইটের
ম্যানেজারের
রাজতন্ত্রের
সৃষ্টিকর্তা
সেনাবাহিনীকে
মাল্টিমিডিয়া
##টী
##avi
##tar
##wal
##আরে
##কাট
##ণার
##পেট
##সোন
##ুসো
##েসে
ফজ
##aman
##oche
##pers
##rial
##আর্ম
##জানা
##নয়ন
##ন্দি
##পুরী
##াহান
##োগের
bot
mex
জগত
মিগ
হাভ
##ঙ্গিস
##জিয়া
##ডেনের
##দাসের
##ন্টিং
##বাক্য
##শীর্ষ
##ুগতিক
decl
dise
make
much
অভিব
এস্ট
চতুর
জারী
নয়ন
ফিনি
বললে
##ওয়ারা
##চতুর্থ
##বীক্ষণ
##লাওসের
##াগ্রাম
0000–
given
imper
notes
still
অপমান
কাজেই
কাসেম
গিল্ড
তারিক
তালিম
তিতির
দেবের
নাজির
প্রলে
ফ্যাম
ভলিউম
মাকড়
যেতেন
লয়েড
লুকাস
সম্পু
সর্বো
সীতার
##অক্সাইড
arabic
আউটপুট
আরোগ্য
গবেষনা
গ্রহণে
বর্ননা
মঞ্জুর
সান্নি
##মণ্ডলীয়
capital
অনগ্রসর
একেশ্বর
ওয়াকার
কলিকাতা
জনঘনত্ব
দৌলতপুর
বিরুদ্ধ
বৈমানিক
ভূঁইয়া
রামমোহন
সারাবছর
কবরস্থান
ক্রাইস্ট
হিটলারের
কবরস্থানে
তদানীন্তন
নেতৃবৃন্দ
সংযোগকারী
সংস্থাটির
প্রবর্তনের
সমাজতন্ত্র
সীমাবদ্ধতা
কর্মকর্তারা
জেরুজালেমের
রেস্টুরেন্ট
##)"
##ea
##লফ
##cur
##leg
##rag
##কিস
##রেল
##সিভ
##হাও
##aust
##jpeg
##side
##ইউএস
##গুনা
##মেটো
##াঞ্জ
##াল্ট
##িতেও
##ীনগর
##্যাভ
thy
আইএ
আভা
ইমি
টাক
টোট
দিভ
ধুব
নগদ
ভীত
মগধ
শুম
সেভ
হাং
##ength
##স্যার
##্যাটি
pier
rand
আহার
এইডস
একুশ
এঙ্গ
খাঁজ
খানা
ত্রৈ
দমদম
বাজে
##ণ্ডলীর
##মনোনীত
##েতাঙ্গ
catal
অগ্রহ
করাচি
কোণের
গোয়া
ঘুরতে
টানেল
তাকেই
তারাও
নৌকার
পুড়ে
ফোকাস
বর্ষে
ব্লুজ
মূলধন
সুদূর
##পিক্সেল
arthur
banars
উদ্যাপ
একান্ত
এড়াতে
কাঁঠাল
জাগতিক
দাবিতে
নওয়াজ
নিয়মে
পদমর্য
পাখিরা
বিএনপি
মান্না
ম্যাথু
সুউচ্চ
##্যাটিকান
motilal
অধিকারে
অবজেক্ট
গর্ভবতী
গানগুলো
জাস্টিস
পীরগঞ্জ
প্যান্ট
বীজগণিত
ব্রুনাই
মুহুর্ত
রাওয়াল
রায়পুর
রায়হান
স্ল্যাম
অ্যাপোলো
ওয়ারউইক
চ্যাপ্টা
প্রবহমান
ফ্রেডরিক
বোলৎসমান
মাথাপিছু
সমাজসেবক
ক্যামেরার
বর্ষপঞ্জি
লিমিটেডের
শাস্ত্রের
commercial
particular
ক্যাম্পবেল
তাড়াতাড়ি
পান্ডুলিপি
মালদ্বীপের
ডেমোক্রেটিক
পরিকল্পনায়
মুহাম্মাদের
রাজপরিবারের
কেন্দ্রস্থলে
পরবর্তীকালের
ইলেকট্রিক্যাল
কুইন্সল্যান্ডের
##ст
##ইড
##ken
##টিএ
##থাং
##বলে
##সেপ
##াচী
##াসং
গগ
##ched
##rama
##xual
##আইসি
##কারা
##পিসি
##হযরত
##ানুপ
##িশান
##ুশীল
bos
joh
nag
গৌণ
জুট
টলে
হুত
##উইনের
##কিপার
##ন্ডের
##বেদার
##স্কের
##াড়ার
##াবাইট
##ামেলা
##ুগঞ্জ
find
laun
অনশন
আটজন
আমীর
আর্গ
এলএল
কথার
গতান
তাঁত
মীমা
রাজু
রুপি
সানি
##though
##এশিয়া
##তুর্কি
##াড়ায়
color
medal
saint
অবকাশ
আসানস
কোডের
জেনার
ট্রিপ
তারাম
ব্যপক
মুত্ত
লাদাখ
শিশির
সংশয়
হাফেজ
হিজরত
হুসেন
##ব্ল্যাক
##্রিয়েল
অনুকরণ
আগুনের
কলম্বো
কেটেছে
জানাতে
ত্রয়ী
নাজমুল
বিভূতি
মিশেছে
মেশানো
শত্রুর
স্টেইন
because
অসন্তোষ
গোলদাতা
চ্যাপেল
ট্যাঙ্ক
ডেমোক্র
ড্যান্স
ভ্রাম্য
যন্ত্রণ
সমীক্ষা
সান্যাল
স্ট্রিং
হ্যাট্র
universe
গ্যালারি
প্রণালীর
ফ্রিকোয়
ভিনসেন্ট
লিভারপুল
সুলাইমান
resources
ইতিপূর্বে
ইনফ্লুয়ে
প্রকৌশলের
বিলুপ্তির
সংস্করণটি
সার্ভিসের
অস্থিতিশীল
বিবর্তনীয়
সংযোগস্থলে
সমান্তরালে
অবস্থানকালে
ব্যঞ্জনবর্ণ
আর্জেন্টিনীয়
##yd
##।'
##।(
##lie
##set
##sim
##vin
##জমা
##তরে
##থির
##ফুন
##শুধ
##সাউ
##ামহ
##াহ্
##ৈষী
id
##hens
##mark
##most
##pret
##অন্ধ
##ইনের
##এমএল
##জর্জ
##টাইড
##ট্টা
##নাথন
##য়তা
##ারিন
##িকেন
##িণ্ড
##িপতি
=00
bor
rub
গগন
ছাব
লুৎ
শেফ
সচল
##under
##কেলের
##গাড়ি
##পিন্ড
##প্লিক
##বান্দ
##িস্কো
##ৃত্যু
club
turk
আত্র
এফসি
জনগন
নর্ম
নূতন
মেসে
যাজক
শর্ক
##িবারের
##ৃদ্ধির
00%;"
scott
ঋগ্বে
কানাই
জিন্দ
ধার্য
নির্দ
পিত্ত
বনগাঁ
বিলের
ভ্রমন
সরদার
##াতন্ত্র
##িয়েছেন
harris
অনুরাগ
গণপরিষ
চতুষ্প
জিডিপি
টি00আই
তোমাকে
ধূমপান
মুশফিক
লেকচার
শাবানা
সায়ান
##মুহাম্মদ
feature
problem
অবকাঠাম
চাষাবাদ
চিত্রের
পৃষ্ঠের
র্গ্যাল
সংগ্রহে
সৌভাগ্য
##ক্যাপ্টেন
banarsid
এপ্রিলের
এসোসিয়ে
জীবনযাপন
বার্ষিকী
সুস্বাদু
##ল্যান্ডীয়
আমন্ত্রিত
আলজেরিয়া
বুদ্ধিমান
বেঞ্জামিন
শিল্পকলার
সেন্টারের
স্ক্রিপ্ট
আজারবাইজান
গবেষণাগারে
নাইজেরিয়া
ব্যাক্তিগত
অন্তর্নিহিত
ইম্পেরিয়াল
চিত্রগ্রাহক
রোম্যান্টিক
ক্যারিয়ারের
বঙ্গোপসাগরের
ব্যক্তিত্বের
কার্যনির্বাহী
সামঞ্জস্যপূর্ণ
##ан
##কস
##ছো
##োণ
##aca
##hum
##একে
##নেপ
##বলি
##বোল
tv
বশ
সস
##ally
##anga
##অগ্ন
##কেজি
##ফেরা
##মিনি
##িরাজ
##োগিক
cro
due
fal
করব
কাং
জনস
মেষ
রিগ
রুল
শাশ
সৌধ
হলি
##based
##কেতুর
##জ্জার
##ফ্রিন
##বিপ্ল
##ভ্যাল
##মাসের
##রেটেড
##াত্রে
fire
sang
seen
অংশই
অভিজ
আজিম
আশরা
কূটন
ধন্য
ধোনি
পঙ্ক
পাইন
মহলে
যক্ষ
সিনা
স্তব
##মার্কস
##াদিয়া
brill
match
ইয়াম
এসিসি
গ্রেগ
চুলের
ড্যাম
দেখলে
ফাতেম
বেইলি
বেল্ট
ভূটান
মমতাজ
মেঘের
রাখাল
সেলাই
##ওলন্দাজ
##ফিলিস্ত
affair
father
অনুকূল
আক্রমন
উদ্ধৃত
এরিস্ট
কেয়ার
ডোরেমন
দলবদ্ধ
ধরেছেন
নগরীতে
সমীক্ষ
সাবমের
হরিপুর
##প্রাথমিক
উপবৃত্ত
এককভাবে
কারুকাজ
জ্যৈষ্ঠ
নিয়মের
প্যাটেল
প্রসন্ন
ফাংশনের
মার্ক্স
মোহামেড
যাত্রীব
শক্তিকে
ট্যাবলেট
রাজবাড়ি
স্কোয়ার
ইয়েমেনের
ক্যাথেড্র
প্রশিক্ষন
প্রিন্সেস
বিক্ষিপ্ত
বিস্ময়কর
মার্কেটিং
জানিয়েছেন
বঙ্গাব্দের
সম্পাদকীয়
স্মার্টফোন
linguistics
পুনরাবৃত্তি
সাংবাদিকতার
অনুপস্থিতিতে
বিদ্যালয়টিতে
প্রতিষ্ঠাকালীন
প্রত্নতত্ত্ববিদ
##ez
##sr
##ios
##itu
##তাহ
##নয়
##ফিজ
##লিত
##সহঃ
##ৰ্গ
li
তদ
পং
ফত
স্
##ঙ্গন
##দিনী
##ন্ধি
##প্পা
##র্পো
##ষ্কে
##ৃণাল
##্পার
##্বাল
mun
rin
গনু
চাগ
ধৃত
নোক
পিঁ
মিট
মিম
মৃৎ
শুট
##apore
##ended
##flict
##usion
##ঘন্টা
##জন্যে
##বর্তি
##যোদ্ধ
##রক্ষা
##িতাকে
##্বরূপ
00(0
kore
গেইম
থেমে
দেশী
পথটি
পরেন
পোষা
মিলস
রোয়
সকলে
হোমস
##দানন্দ
least
ইউজার
উড়াল
গুরুর
গ্রাজ
দরবেশ
পারলে
পেন্ট
বরফের
বাঙলা
ভ্যাক
মহল্ল
রাশিদ
শেখার
স্লোভ
##ক্রিপশন
##বৈশ্বিক
##ান্দ্রো
##াবলম্বী
অন্বেষ
অশ্লীল
ঋত্বিক
একটিতে
কতগুলো
জয়নুল
ঝুলন্ত
ভিয়েন
রামপুর
লেনদেন
সংহিতা
সময়কে
হাইপার
হোসাইন
##izations
##পর্যায়ে
critics
include
ইংরেজরা
কৃষিকাজ
ক্রিশ্চ
গাওয়ার
তীব্রতা
প্রতিমা
মেঘালয়
শিষ্যের
investig
আড়াআড়ি
চলচিত্রে
পিরোজপুর
প্রোটোকল
বিশেষত্ব
ব্রেন্ডন
##সাংস্কৃতিক
আন্দোলনকে
আমেরিকাতে
টার্মিনাস
পটাশিয়াম
প্রদক্ষিণ
ফারেনহাইট
বহুসংখ্যক
মেলবোর্নে
রোমাঞ্চকর
সুপ্রাচীন
হেভিওয়েট
অ্যাকাউন্ট
ফিনল্যান্ড
অনুসন্ধানের
কর্মকান্ডের
সাময়িকভাবে
র্যাঙ্কিংয়ে
শিক্ষানুরাগী
প্রতিক্রিয়ার
##ول
##বধ
##ূদ
##tur
##সেম
##ানন
##েজন
##roph
##uthe
##ফাইল
##াক্ক
##িগ্ন
##ুণ্ড
##ুনির
bah
mis
tex
whe
ওরে
খাপ
চাত
বডি
0ঠা
##athan
##ights
##opher
##শ্যাম
##িয়াদ
gran
rece
term
উল্ট
জয়া
মজুদ
রম্য
রিচি
সুতা
হইতে
হুইল
##পর্তুগ
##িয়ারি
##িস্টিক
blood
creat
extra
himal
until
ইরফান
কান্ড
গুস্ত
ডোমিন
তরলের
দরজার
দিকেই
পেশার
মস্তক
মাইনর
মোহনা
রোহিত
সঙ্গম
সালেহ
হ্রদে
##isation
##ইউরোপের
##িস্ট্রি
master
অকাদেম
অট্টাল
আরেকজন
জন্যেও
জ্যাকব
পরিক্ষ
পর্দার
বাড়ছে
রহনপুর
রাখায়
লাইনটি
সালফার
##আফ্রিকার
##াবিশিষ্ট
product
আবৃত্তি
কথোপকথন
কনভেনশন
জাস্টিন
দেওয়াল
নানারকম
বর্ণনার
ভিয়েনা
signific
ইন্টার্ন
গর্ভধারণ
বহনযোগ্য
মুহূর্তে
উত্তরবঙ্গ
উদ্ভাবনের
ডাম্বলডোর
ডিফেন্ডার
নির্ধারণে
প্রতিরোধে
প্লেব্যাক
মেক্সিকান
0000-00-00
অ্যাডভান্স
কালীমন্দির
চ্যান্সেলর
জাতিগোষ্ঠী
নির্বিশেষে
মুন্সিগঞ্জ
রূপান্তরের
সৌন্দর্যের
অ্যাডভেঞ্চার
গ্র্যাজুয়েট
ইঞ্জিনিয়ার্স
সত্যেন্দ্রনাথ
##ée
##asi
##erg
##mis
##চাষ
##ছির
##েমস
ga
কফ
##alle
##inet
##odes
##yond
##তুমি
##পোশে
##র্বস
##লক্ষ
##াঁকা
##োষ্ঠ
##োস্ট
##্বেদ
bay
bow
kur
oly
pad
الس
করন
খসর
গয়
চরণ
তহব
লাস
হপক
##স্প্র
##্নাংশ
spir
ইত্ত
দ্রৌ
পদবি
পরিধ
পিয়
বরাহ
ভাগই
মনোম
মুকু
যেতো
রুবি
শায়
সারস
##চরিত্র
##সমুদ্র
##ুধিষ্ঠ
novel
আমদান
ওয়াচ
করপোর
কুপার
চয়েস
দুষ্ট
বিলীন
বৈশ্ব
ভাবনা
রাণীর
##upright
##ষ্ঠানের
##োরিয়াম
compos
অভিশাপ
আইওয়া
আশ্রমে
করিয়া
কুইন্স
পন্টিং
পিস্তল
প্রস্র
বসন্তে
রফিকুল
রাত্রি
সন্দীপ
সমঝোতা
সমাধির
সিলিকন
##সংক্ষেপে
অবরোধের
আইনজীবি
গ্রেনেড
চিরায়ত
ছিটিয়ে
ফিল্ডার
বাল্টিক
বাসুদেব
বিভাগটি
মেয়েরা
মৌর্য্য
লাহোরের
হাবিবুর
হারানোর
##মহাদেশীয়
আত্মঘাতী
ইচ্ছাকৃত
উপজাতীয়
ঐক্যবদ্ধ
প্রথমদিক
ফয়সালের
ব্যায়াম
ম্যানহাট
শিষ্যদের
শুভেচ্ছা
শ্রীলংকা
সংস্থায়
##প্রিমিয়ার
গতানুগতিক
ছোটবেলায়
ব্যক্তিরা
সুবিধাজনক
commentary
আক্রমণকারী
ভার্চুয়াল
ক্যান্সারের
তত্ত্বাবধান
পোল্যান্ডের
ইনস্টিটিউটের
পূর্ণদৈর্ঘ্য
মিউনিসিপ্যাল
কিন্ডারগার্টেন
##yt
##يد
##ঁত
##উজ
##পশ
##ুৎ
##adi
##ato
##gor
##ili
##িডে
##ীনি
##ুগত
('
(?
oh
অঃ
##iant
##ream
##বলের
##ষাঢ়
##্তের
bbc
ren
অতী
কটন
কোম
চিশ
নুন
নেভ
বৈর
লাত
শেঠ
সোস
##ently
##সদস্য
##সারের
##সিকিউ
##াগ্রত
##ীয়রা
stri
একেক
বর্শ
ভিলা
মন্ড
মসলা
শেরে
সৈয়
হেরি
##ঙ্করের
##াশক্তি
00–00
louis
olymp
sport
অবজার
কিয়দ
গণনার
গতিপথ
ঘড়ির
টিকেট
ডলারে
দয়াল
পুলিস
বলরাম
মিশনে
লিগের
##ইসলামের
##স্তানের
আয়তনে
ইন্তেক
খাগড়া
জোয়ান
টিস্যু
টোবাগো
দায়ের
দ্বারক
পলায়ন
পায়রা
পারফরম
প্রতিল
ভাইদের
ভারতকে
ভাষাগত
মহাপরি
মহাবীর
মিথস্ক
রেসলিং
সর্ব্ব
##মরণোত্তর
##যন্ত্রের
অসামরিক
কপিরাইট
প্রেমিক
ফ্রেডের
ব্রেস্ট
মাননীয়
মিস্টার
শিশুতোষ
সুদর্শন
সুবেদার
হ্যাকার
##স্ট্যান্ড
medieval
কর্পোরেট
তাঁদেরকে
পন্ডিতের
প্রতিরূপ
মালভূমির
মূল্যায়
সংমিশ্রণ
সামর্থ্য
important
কর্ণাটকের
জালালাবাদ
ব্যাপারটি
ব্রাদার্স
শিবমন্দির
হার্বার্ট
সত্যিকারের
সম্রাজ্যের
সিঙ্গাপুরে
publication
ফিলিস্তিনের
বিশেষজ্ঞদের
ময়মনসিংহের
ভিক্টোরিয়ান
অর্থনৈতিকভাবে
##ঁক
##anj
##sec
##ডিএ
##নাজ
##রোম
##ুইড
gy
##aily
##thon
##umes
##কারণ
##জর্ড
##ট্রি
##ুক্য
00%
cle
الم
আতি
জাং
মেদ
লুড
##ঘাটের
##শেভিক
##াকর্ষ
winn
আর্ল
কপিল
কবুত
করছি
টুপি
সিআর
হর্ষ
##ensive
##চৈতন্য
##মায়ের
##ষ্ঠানে
##াচিত্র
##াবাড়ী
fried
thumb
আজহার
আস্থা
এ্যাড
গ্রাস
ঘাটতি
ছক্কা
জন্মঃ
টিকিট
নিলেও
পরম্প
পাতাল
পেতেন
বার্জ
মাস্ক
লিটার
লোককে
সান্ট
সুরমা
##গোবিন্দ
##মহাভারত
##মাত্রার
##ায়েন্ট
##োনিয়াম
forces
script
sexual
আওয়াজ
উঁচুতে
একটানা
এভিনিউ
এস্টেট
কমানোর
করানোর
কারিগর
কালচার
কেনেডি
দক্ষিন
পৌঁছান
ব্যাধি
মাহফুজ
মোতায়
সওদাগর
সেনাদল
##ঐতিহাসিক
##বিন্দুতে
##মিডিয়াম
economy
নির্ভুল
পুঠিয়া
ফাল্গুন
ম্যাচটি
র্যাম্ব
সংরক্ষন
সঞ্চালন
##ওয়ার্ল্ড
berkeley
আকর্ষণের
দেশসমূহে
ইলেকট্রিক
ইসরায়েলি
দূর্দান্ত
পূর্বাভাস
মিয়ানমার
সম্মানজনক
জীববৈচিত্র
ডায়াবেটিস
ফ্যান্টাসি
ব্যারাকপুর
মার্কসবাদী
শীর্ষস্থান
ইউরোপীয়দের
ভেনেজুয়েলা
bibliography
প্রতিনিধিদের
##ify
##oli
##rem
##uge
##করে
##ঙার
##নিজ
##ালু
##োধা
##ৰ্ব
ওঁ
ভু
##ceed
##imal
##খড়ি
##খাটো
##পানি
##বাবা
##মন্ট
##াপাথ
##াবেন
##াসিন
##ুদার
##ুরার
##্মীক
amb
dut
الش
আহম
এএম
ছাল
জীন
তুগ
##0000)
##লেনিন
##ামতের
##িসিআই
fish
rose
self
type
আইভি
ইমেজ
ঈমান
এনার
কবীর
কাদা
গরীব
চারু
জেসন
জ্যা
বহুদ
লঞ্চ
লাইক
সফ্ট
স্টল
স্লে
##people
##সন্তান
plant
এ্যাস
ক্রেগ
গ্যাম
ছাড়ে
জনতার
জবাবে
টমেটো
ড্রেস
ধাপের
নেলসন
পরশুর
পোতাশ
ভলিবল
মুকুল
মুফতি
ল্যাং
সম্যক
সাহিব
##মিনিস্ট
agency
terror
উড়ন্ত
উৎসাহী
ক্ষত্র
জোরালো
দ্বিতল
নবায়ন
পানামা
ফুসফুস
বিপক্ষ
মুয়াব
লাভজনক
সন্ধ্য
##িসম্পন্ন
meaning
quarter
related
দেখেছেন
দ্বারাই
বিমূর্ত
ব্র্যাক
মিত্রতা
মিশনারি
ল্যাঙ্গ
শৌচাগার
সংক্ষেপ
সাত্তার
সুগন্ধি
##জানুয়ারি
practice
আর্টিস্ট
উদ্বিগ্ন
কালীগঞ্জ
ছাত্রলীগ
জলবায়ুর
ডাকটিকিট
পিতামাতা
প্রয়োগে
বহির্ভূত
মারাদোনা
মুখপাত্র
যন্ত্রটি
উরুগুয়ের
প্রত্যাশা
বন্দোবস্ত
লিঙ্গানুপ
সেকেন্ডের
হাঙ্গেরির
conference
electronic
অন্নপূর্ণা
বাল্যবিবাহ
গ্রামাঞ্চলে
পর্বতশ্রেণী
হ্যাট্রিকের
স্থিতিস্থাপক
##lar
##may
##sol
##কমন
##ধনু
##নোট
##----
##ades
##inct
##এদের
##দায়
##াফফর
##োরেস
##্কোন
##্দাম
##্স্ট
fif
vin
ঝরে
পশম
ফাগ
মরি
##anger
##notoc
##কুচিত
##ত্যাশ
##ভেন্ট
##সজ্জা
##হার্ড
##াঙ্গন
alph
must
অডিট
অবাধ
আরাধ
ইউএন
ওরফে
টিউব
নেছা
সদরে
##প্লবিক
##াচ্ছেন
datab
level
title
trade
অথর্ব
খবরের
খাতের
গোড়া
ঝুঁকে
পুরান
বালিশ
ভার্ন
ময়না
মালেক
রমজান
শিল্ড
সিক্ক
স্কার
স্টেপ
হান্ট
##গোল্ডেন
##ত্যাশিত
##বিচ্ছেদ
##ুশিল্পী
albert
orient
আজিজুল
ইছামতি
চিঠিতে
নেত্রী
বিকাশে
মৌলানা
শ্রেনী
সন্দেশ
সালভাদ
অকাদেমি
আকাদেমি
চান্দ্র
জীবনকাল
তুরস্কে
পাঠকদের
বিশেষতঃ
যাদবপুর
রচনাবলী
রাজ্যকে
রেনেসাঁ
স্বকীয়
স্লোগান
হপকিন্স
হলিউডের
##অভিনেত্রী
columbia
electric
physical
উপদ্বীপে
কক্ষপথের
কালিম্পং
গুজরাটের
চক্রবর্ত
চন্দনাইশ
জমিদারের
নিউক্লিও
নিষ্কাশন
পরিমাণের
প্রভৃতির
বিস্ফোরক
ভলডেমর্ট
রোকেয়ার
শিবলিঙ্গ
সীমারেখা
হিমবাহের
অগ্রহায়ণ
পুরাকীর্ত
বিক্রয়ের
রিচার্ডসন
australian
অত্যাধুনিক
প্রাসঙ্গিক
সালতানাতের
অপ্রত্যাশিত
উইকিমিডিয়া
কেন্দ্রীভূত
অন্তর্ভুক্তি
বিমানবাহিনীর
অপ্রাপ্তবয়স্ক
রক্ষণাবেক্ষণের
স্বায়ত্বশাসিত
##/0
##ка
##bab
##die
##hab
##jac
##oma
##গিজ
##ঝিল
##ডিজ
##ভরি
##ভেট
##রসে
##হিন
##োমো
##োহা
##্ভে
##্ৎস
ru
চশ
##chin
##কোয়
##গীতি
##টিএস
##ডাঙা
##পাথর
##পাদন
##হাউজ
##াগড়
##ুমের
bru
cer
foc
luc
pac
অবা
ছাই
জেফ
জোস
নৃশ
শাফ
##ক্রিট
##পার্থ
##সৃষ্ট
##ূর্তি
cart
godd
viol
আইএম
আঙুল
উইকি
চামচ
পিছন
যীশু
রূপা
শিখর
হাইন
0,000
beaut
moham
movie
আইফোন
আরএনএ
এনায়
এসবের
কণ্ঠে
গর্তে
জার্স
দুধের
নৌযান
ফিকশন
ফেরেশ
ববিতা
লিডার
শামুক
সালোক
স্বৈর
##অসমীয়া
##ব্যক্তি
palace
yellow
অভাবের
আন্দাল
ইভান্স
ওষুধের
কিউবার
গ্রেইম
জন্মান
ট্যাংক
নিঃসৃত
নেপালি
পাথুরে
পালকের
প্রণয়
রেড্ডি
সন্নিক
স্বাগত
অনুগামী
আমৃত্যু
ইউক্রেন
উত্তেজন
উপসাগরে
এইচআইভি
ধ্রুপদি
প্রসারণ
ব্রাদার
মতবিরোধ
রয়েছে৷
সদস্যকে
সৃষ্টিশ
conflict
গ্র্যামি
জায়গাটি
ফ্যাকাশে
বিক্রেতা
বৈপ্লবিক
ব্যস্ততম
ব্রহ্মের
শহরাঞ্চল
সাসানীয়
স্ত্রীকে
developed
অপারেশনের
উচ্চপদস্থ
জলবিদ্যুৎ
নিউক্লীয়
নির্মানের
পরিভাষাটি
প্রাঙ্গনে
ফার্নান্দ
বর্গমিটার
মিষ্টান্ন
শায়েস্তা
সার্জেন্ট
##প্রতিষ্ঠাতা
আদিবাসীদের
ঘনিষ্ঠভাবে
ছায়াছবিটি
ব্যানার্জী
ভাষাতত্ত্ব
শূন্যস্থান
সৃষ্টিকারী
প্রদর্শনীতে
##لا
##cht
##iti
##rec
##ফাত
##বহু
##সলে
##সুক
##হেই
##ুমে
বজ
ম্
##blue
##epam
##ored
##ores
##এসএম
##ওভার
##ঘাটে
##চর্য
egg
jam
কেও
তাগ
পুং
শকু
সোপ
হিত
হুজ
##pects
##গ্রুপ
##জেন্ট
##টিক্স
##পন্থি
##প্তরে
##ভাষার
##াকালো
00.0
does
edit
game
gate
hold
phon
ইটার
ঈদুল
কলের
দিঘী
ভিটা
যোগে
লিগে
হাসন
##অভ্যুত
##কান্দি
##যুক্তি
##িয়ানে
##িসিয়া
angel
total
অগণিত
অধিনে
কুমির
কৌশিক
খাম্স
খেজুর
চালুর
দুবার
মথুরা
মৃণাল
রাজেশ
রাধাক
শেখেন
শ্রীব
##ividual
##lection
##চেটিয়া
##ফুদ্দিন
##েনবার্গ
ground
return
আগরতলা
আর্মির
আলোচ্য
ক্লাইভ
ছড়ায়
পাঠকের
র্যাংক
শিকারি
শিবপুর
হায়ার
##ইসরায়েল
গর্ভগৃহ
নারীবাদ
বর্গফুট
সুফিয়া
আকাঙ্ক্ষ
কাঠমান্ড
নির্ধারন
পদ্ধতিকে
পরামর্শে
পার্বতীর
রাজনীতিক
##ফিলিপাইনের
প্রজাপতির
বিদ্যুতের
মুসলমানরা
ম্যান্ডেলা
হেপাটাইটিস
অবস্থানকারী
থাইল্যান্ডে
বঙ্গোপসাগরে
সর্বভারতীয়
অর্গানাইজেশন
আন্তঃসীমান্ত
মহাবিদ্যালয়ের
##_°
##يم
##।,
##aaa
##lan
##obi
##ois
##uts
##আবু
##উইচ
##করী
##জগৎ
##রোজ
##রোর
##সোল
##হাফ
##ুটো
##্পি
ly
অং
বখ
##bour
##ogra
##অনেক
##এসটি
##চারণ
##বেগম
##মানি
##মুঘল
##ম্খা
##াতাই
##ীদাস
##ুল্য
bad
fly
lee
qur
ris
চাদ
চুক
পীত
রিচ
সাও
হিং
##পার্ট
##সংযোগ
##াপ্তি
##ারেটর
lord
math
sand
অপেশ
আবিদ
কোকা
চাষী
টিলা
পদটি
বিঘা
সর্ম
##german
##বিশেষত
##াপুকুর
##াম্মেল
##ালাভের
##িবৃত্ত
##্টারের
##্রেটের
intel
অর্জু
আনিমে
আসতেন
ইউরেন
কাঁধে
গুহার
জিততে
নকশাল
পড়বে
প্রুশ
বিবির
বেসবল
মনোহর
মহাজন
মাদাগ
সিনহা
##ম্যাক্স
##েয়াপ্ত
##োক্সাইড
##্শিয়াল
southe
উচ্ছেদ
উপলক্ষ
কীর্তন
টিভিতে
ড্রামা
তানজান
নিপতিত
পাপড়ি
বক্সার
মনমোহন
শীতকাল
সংকোচন
##প্রণোদিত
##ব্রাহ্মণ
chandra
chapter
ছাত্রের
জটিলতার
ফেলোশিপ
বাঙালির
বানানোর
ভাষাবিদ
যুধিষ্ঠ
রক্ষায়
সংকুচিত
সাজিয়ে
সুপ্রীম
স্থাপনে
academic
কূটনীতিক
গাঙ্গেয়
তন্ত্রের
নিবন্ধটি
পরমহংসের
প্রতিভাব
বাস্তবতা
স্মৃতিতে
technical
পয়েন্টের
প্রবৃদ্ধি
বন্যপ্রাণ
বর্ণমালার
মাঝেমধ্যে
মোহাম্মাদ
অববাহিকায়
ইন্টারনেটে
পুরস্কারটি
বায়ুমণ্ডল
বিনিয়োগের
যাত্রীবাহী
christopher
contemporary
ব্যাক্টেরিয়া
ভূমধ্যসাগরীয়
##mn
##tt
##aff
##mes
##nar
##কোস
##গাই
##ডাল
##ডিক
##দেও
##রণী
##রাঃ
##েনস
##ৰ্ম
0)
بن
‘’
##iley
##otus
##কোলা
##খাইন
##জেলা
##দানা
##নর্থ
##ন্তা
##শিশু
##োধিত
##্কের
roy
sav
আমন
উইঃ
গুট
ছাগ
ঝোল
দির
দেউ
শনি
##uries
##চালনা
##বয়সী
##ব্লাড
##ভারের
##য়ারী
##াত্রা
##েক্সপ
##্যাংশ
happ
hero
কুলা
খানম
গরিব
গীতি
ছুটে
জমাট
জেরি
ডেটা
পতাক
বাদল
##চৌম্বক
##পুস্তক
##ব্ক্রা
##স্থলের
##িবাসের
##োয়ারী
board
graph
ছয়জন
টেরিট
নিরসন
নীলচে
পেত্র
বর্ণন
বীজের
মৌলভী
রাশির
##vention
##িয়েন্স
achiev
আঙ্গুল
উর্ধ্ব
একেকটি
এনজাইম
কঙ্কাল
কোনরূপ
জেনেভা
ডাকাতি
তেজপুর
ধারালো
পরিকাঠ
পরিচ্ছ
মোবারক
রাখাইন
শাহবাগ
শ্মশান
সিলেটে
সুষ্ঠু
কলেজটির
কার্টার
গাড়িতে
পুকুরের
মহামারী
মুজাহিদ
ম্যাসিড
ল্যাম্ব
সবসময়ই
সমাধানে
সিমেন্ট
##প্রতিনিধি
অব্যাহতি
কারখানার
খেলাগুলো
জাহানারা
দায়বদ্ধ
পাসপোর্ট
প্রতীকের
বায়ার্ন
বার্লিনে
শান্তিতে
শাসনকারী
সুসজ্জিত
countries
ডুবোজাহাজ
দেশব্যাপী
নিশ্চয়তা
ভ্যাটিকান
রজনীকান্ত
শ্রীকান্ত
##ষ্ঠানিকভাবে
গবেষণামূলক
নির্দেশিকা
ফিলিস্তিনে
ব্যবস্থাকে
মঙ্গোলিয়া
(0000-0000)
অর্থমন্ত্রী
অলিম্পিয়াড
পূর্ণবয়স্ক
বঙ্কিমচন্দ্র
স্বেচ্ছাসেবক
##যুক্তরাষ্ট্রের
সোহরাওয়ার্দী
অন্ধ্রপ্রদেশের
কনস্টান্টিনোপল
##ঞা
##ভল
##োও
क
##gif
##iri
##pen
##কোণ
##ড্ড
##মেজ
##াভি
##িগা
##েলো
tu
##atra
##eden
##hand
##john
##আওয়
##ন্যা
##র্না
##শিলা
##াবরী
##্ফুট
00-
এলো
চেখ
জোগ
তাং
ধূল
বনি
ভিউ
রাল
সাগ
##''(''
##ribut
##উইন্ড
##দ্রুপ
##মূল্য
##াকারা
##ান্তা
##াবশ্য
##োয়াই
##োশিমা
fram
yale
কন্দ
কেনা
জলিল
দেহত
নিগম
বলছে
বামে
মিয়
মেটে
যিশু
সাফা
সেবন
##আমাদের
##বার্তো
##বিভূষণ
##মাধ্যম
##ৃষ্টির
##োজনীয়
above
event
games
logic
উপাসন
কলোনি
কামিল
কাশেম
কেনার
খননের
গবাদি
গ্লাই
ঙ্গোর
জোটের
টুকরা
টেরাক
ডিব্র
দূরের
নৃশংস
পারফর
প্ৰতি
ফিনিশ
বাশার
ব্লাক
মৃত্য
যায়৷
শতরান
##ওয়েলের
##ফ্যান্ট
##েলম্যান
##্রিয়ান
google
street
অঙ্কের
আদর্শে
ইউয়ান
ক্রেতা
চেতনার
চৌরঙ্গ
টেম্পল
দৃশ্যে
নদীয়া
পালাতে
প্রতিন
বাবাকে
বারোটি
বুদ্ধি
সার্থক
##িভিত্তিক
অক্ষরের
এইচএসসি
কাঁকড়া
কিয়দংশ
চারিত্র
জানানোর
জিজ্ঞেস
দুর্গার
পার্থিব
বিষয়কে
ভয়ঙ্কর
ভান্ডার
হোটেলের
features
অন্যথায়
আচ্ছাদিত
ইকুয়েডর
চেষ্টায়
প্রসিকিউ
বরেন্দ্র
ভূখণ্ডের
লিবারেশন
স্বভাবের
উদ্ভিদকুল
একচেটিয়া
ওয়ান্ডার
কাহিনীকার
গ্রহণকারী
দারিদ্র্য
বার্নার্ড
অন্যান্যরা
কাটিয়েছেন
পারিশ্রমিক
বিনোদনমূলক
মানবতাবাদী
ধারাবাহিকতা
ব্রডকাস্টিং
ভার্জিনিয়া
শ্রেণীবিভাগ
সমাজবিজ্ঞানী
পুরাতাত্ত্বিক
বন্ধুত্বপূর্ণ
##án
##ছক
##lic
##mag
##uls
##ডিম
##ডেস
##বডি
##ালন
##িটে
আছ
##aced
##anka
##cies
##fort
##ilar
##oney
##qual
##উদাহ
##াটির
##াবৃত
cit
jay
pdf
tay
ঝাং
দহন
পাজ
সেত
সেফ
হেফ
##ইয়াং
##গ্রোভ
##দর্শক
##বাসীর
##মাতার
##সমস্ত
##সারির
##াক্ষী
##িত্রী
##িবন্ধ
##ীয়ান
##েস্কে
##োবায়
cele
chen
girl
lind
vill
আঞ্জ
উঠার
কালা
কোমর
কোরে
গিরি
জুলু
তেহর
নজির
পাখা
শিকল
সলিম
##lished
##গঙ্গার
##বেঙ্গল
##র্ত্সে
##স্কটিশ
##হিতৈষী
chand
lives
never
spect
tiger
আইওসি
আইপিএ
আগ্রা
চুল্ল
জ্যান
তুমুল
দেননি
নাদির
পোস্ত
মিসিস
লায়ন
সুরের
স্তূপ
##amental
##প্রেমিক
##ব্ত্সান
camera
অটোমান
অস্টিন
উপাস্য
চুম্বক
জয়দেব
প্রাণি
লোয়ার
release
showing
অন্যায়
আদর্শের
কম্পানি
জোহানেস
পরিক্রম
পেরেছেন
মালয়াল
সবগুলোই
স্থানকে
##wikipedia
champion
pictures
produced
অব্যবহিত
গ্যাসীয়
ডেভেলপার
বংশদ্ভুত
মহাস্থান
মেয়াদের
রাজপ্রাস
রৌপ্যপদক
শিল্পপতি
সালোকসংশ
হ্যারিসন
অকল্যান্ড
অ্যান্থনি
ইউক্রেনের
কারারুদ্ধ
প্রিন্টার
প্রোডাকশন
ফরোয়ার্ড
মধ্যদিয়ে
মোহামেডান
population
আপেক্ষিকতা
বুলগেরিয়া
ঈশ্বরচন্দ্র
ক্যাম্পাসের
দাঁড়িয়েছে
প্রতিযোগীতা
প্রথমদিককার
খ্রীষ্টপূর্ব
দেবেন্দ্রনাথ
হায়দ্রাবাদের
জ্যোতির্বিদ্যা
##!"
##sl
##tw
##আউ
в
##cop
##ils
##oda
##ply
##তেজ
##নাং
##মাধ
##শিল
jr
ww
ওজ
ধম
##even
##iles
##ipur
##this
##time
##দত্ত
##নগরী
##য়াজ
##য়েদ
##াইজড
##্লেস
##্শ্ব
mid
এবি
ঘটক
টেপ
##নৃত্য
##বোর্ন
##ব্সোদ
##িংয়ে
##িন্দর
horn
sett
আশ্ব
আসির
ইঞ্চ
চিতা
তলের
বাইন
বিষম
সরোজ
##gether
##অস্ট্র
##ঙ্গানা
##ামেন্ট
##িডেন্ট
poems
আফজাল
ইন্টি
করেনা
কৌণিক
ক্রুশ
গ্রিল
ফারাও
ফাহাদ
ফ্যাট
ভাবাদ
মন্ডল
ময়লা
রক্ষন
শৈবাল
সবকটি
সেনেগ
##কার্যের
##গ্রন্থে
##দ্বীপের
##সংখ্যার
accord
argent
punjab
অনুগাম
অন্যরা
অসহায়
আয়েশা
এসিডের
ওসমানী
গুহায়
চাকুরি
জায়েদ
ফাতেমা
বাঁশের
ভুট্টা
যাযাবর
রংয়ের
রাজাকে
লেবানন
সেটিকে
##মিডিয়েট
limited
একনায়ক
কাজগুলো
দাক্ষিণ
নরসিংদী
প্রদানে
বহনকারী
বাজেটের
বাড়ায়
ভাষাভাষ
স্টোরেজ
creation
অভিযোজিত
অভিষেকের
কাহিনীতে
গোলার্ধে
জুলিয়াস
ডাইরেক্ট
নামকরনের
প্রমাণের
ভাবাদর্শ
হিস্ট্রি
interpret
অ্যালকোহল
জমিদারদের
জয়পুরহাট
রাজধানীতে
সমকামিতার
photograph
অবিচ্ছিন্ন
ইন্সপেক্টর
গণতন্ত্রের
চিরস্থায়ী
দীর্ঘদিনের
দ্বিতীয়টি
ধারণক্ষমতা
বাজেয়াপ্ত
illustrated
চিন্তাধারার
পরিবারভুক্ত
বাস্তবায়িত
ইন্টেলিজেন্স
গ্রহণযোগ্যতা
ফিনল্যান্ডের
স্থানান্তরের
নেদারল্যান্ডের
##োথ
##")।
##reg
##vii
##টকে
##টপত
##প্ৰ
##মাক
##ারদ
##াসম
##িজী
##োগণ
##্যি
##000)
##ante
##cing
##gree
##iple
##অক্ষ
##চীতে
##টেশন
##তালি
##লীতে
##ান্ধ
##োনাস
ein
fle
ger
আচে
গণি
চলন
পেজ
ভূজ
যজু
লড়
শুঁ
সমু
সোব
হুন
##blems
##graph
##langu
##কিয়া
##কুণ্ড
##বিদেশ
##সিরাজ
##ায়তন
##ীতদাস
snow
unit
অণুস
উৎসে
বহুপ
মানা
সেলে
হজরত
হয়ঃ
##-00000
##ending
##europe
##transl
##বর্গের
##সাইক্ল
##স্থাপন
##ারীপুর
##াস্কার
##্যামার
annal
names
উভয়ে
এয়াক
ঔষধের
কবরের
গড়ার
গিনেস
ঘটেনি
চকলেট
চিনির
দাবার
নাযিল
বেলুচ
ব্রাড
ব্লুম
সস্তা
সুখের
##একদিনের
##জাতিসংঘ
##বদ্গীতা
##বাড়িতে
corpor
flower
groups
photos
strong
valley
walter
অভিব্য
ইফেক্ট
একবিংশ
ক্লাসে
চায়ের
ছোটদের
জুয়ান
টাইটেল
ডায়োড
দিবসটি
নায়েক
ভ্রমণে
মেদিনী
মৌসুমি
যায়না
শ্বশুর
সূরাটি
সৈয়দা
হাঁকান
##encyclop
dynasty
numbers
উত্পাদন
এসকিউএল
কমিটিতে
খালিদের
গ্রান্ড
ত্যাগের
নিয়মান
পাপুয়া
বাসভবনে
মোহনায়
যৌনসঙ্গ
সদস্যগণ
সেমিনার
##therlands
japanese
together
অঙ্গীকার
অধিকন্তু
অসুস্থতা
ইন্তেকাল
কাঁচামাল
জনসমক্ষে
বিকিরণের
বিলবোর্ড
মোতায়েন
শিক্ষাগত
সর্বোপরি
transform
ইন্দ্রিয়
একাডেমিতে
কার্যাবলী
গোলার্ধের
ছেলেমেয়ে
জন্মদিনের
তথ্যসূত্র
বিশ্লেষণে
শিরোনামের
television
ক্যালকুলাস
দ্রাঘিমাংশ
ব্যতিক্রমী
ইন্দোনেশীয়
চুয়াডাঙ্গা
ধর্মবিশ্বাস
ব্যাটালিয়ন
শীর্ষস্থানে
গ্রন্থাগারের
প্রবেশাধিকার
ব্রিগেডিয়ার
আগ্নেয়াস্ত্র
##_-
##ml
##উফ
##নস
##ৈল
##cts
##oni
##var
##ডোম
##দাল
##নাফ
##মনে
##মাগ
##লিব
##েরী
##োলে
##্যস
##ollo
##rait
##wing
##আইটি
##এন্ড
##জনকে
##রাতে
##ুকার
##োজান
das
jos
kam
জাই
পঠন
পিচ
মোড
সুচ
হুল
##inian
##বসন্ত
##ব্যাং
##ভিনয়
##মাসিক
##াইজার
##েইনের
##েন্টা
heav
holy
matt
nich
poly
sens
ঈর্ষ
কাজও
কাড়
জিরো
তায়
মতিন
মনোজ
রমেশ
শিখা
সুইচ
হিংস
##ischen
##ওয়ানি
##স্টেরল
##িকাদের
ahmed
chief
roger
texas
অনুপম
আশায়
উইমেন
এইচডি
এডিসন
এরপরই
কনফুস
তৈরিক
বিউটি
বিকাস
বেড়া
ভাবেই
মারিও
স্বতঃ
##innaeus
##গাছিয়া
##পূর্বের
##বৃন্দের
000000
inside
observ
ইচ্ছুক
খেয়াল
ঘটানোর
জাগ্রত
দলসমূহ
দুঃসাহ
পত্রিক
পরিণয়
পেরেরা
ফেলেছে
বিমানে
রেপোশে
শিকদার
সার্ভে
##অন্যান্য
##াসম্পন্ন
britain
constru
perform
অভিবাসন
আসানসোল
ইয়াকুব
এনায়েত
ওয়ারেন
ক্রিপ্ট
গ্লুকোজ
তথ্যমতে
তদন্তের
পেটেন্ট
প্রশ্নে
ব্যাঙ্গ
ব্যাপ্ত
মহিলাকে
although
personal
অপেশাদার
আত্মরক্ষ
ইতিবৃত্ত
নিমজ্জিত
প্রকাশ্য
প্রকোষ্ঠ
বাকলিয়া
মূর্তিতে
রোহিঙ্গা
indonesia
অফিসারদের
ডেট্রয়েট
পিতামাতার
মর্যাদায়
মস্তিষ্কে
মার্গারেট
সৃষ্টিশীল
##টেস্ট্যান্ট
জোড়াসাঁকো
প্রতিনিয়ত
মধ্যপ্রদেশ
লাইসেন্সের
হাইকোর্টের
অ্যামেরিকান
আর্কিটেকচার
ইউনিভার্সাল
ফেস্টিভ্যাল
বিবাহবন্ধনে
জাহাঙ্গীরনগর
প্রক্রিয়াটি
ব্যবসায়ীদের
মুষ্টিযোদ্ধা
রাজনৈতিকভাবে
হত্যাকান্ডের
প্রস্তুতিমূলক
ধর্মসম্প্রদায়
অ্যান্টার্কটিকা
##''0
##cip
##mit
##এমন
##কাউ
##বেই
##মতী
##সনে
##ালক
##িমো
##োঁজ
##্দি
ঘি
তৃ
##aksh
##avan
##edic
##ette
##আমির
##এসআর
##গ্রু
##চ্চি
##টাইট
##মঙ্গ
##ীরাও
tai
win
ঘ্র
পতে
লিঃ
##rical
##umbai
##খ্রিম
##গুলোই
##ঙ্কের
##ভঙ্গি
##ুষ্পক
##োয়াট
....
ethn
repl
অজৈব
অতিক
আহ্ব
ইণ্ড
এতিম
এমিল
কেরি
ঘৃণা
টিপু
নাসর
পাইক
মরিশ
মোর্
রিকি
রুটে
শাইখ
হানে
হিউজ
##জ্জীবন
##র্তনের
gener
আলতাফ
কানের
কীটপত
কেড়ে
জামাই
পরলোক
পর্ষদ
পৌত্র
ফ্রিজ
বাবুর
ব্রীজ
যৌগের
সাহার
সুরেশ
স্পির
##খ্রিষ্ট
##জনকভাবে
##মাওবাদী
##িস্তানে
##ুল্লাহ্
arabia
bombay
margin
metrop
ইন্ডিপ
উদ্বেগ
উৎপত্ত
কিশোরী
দিককার
ধর্মকে
নোবিতা
ফ্রিডম
বুঝাতে
ব্লগার
ভাসানী
মাংসের
শিশুকে
সাইরাস
স্বৈরা
হ্যালো
##ভিত্তিতে
উপরিভাগ
এন্ড্রু
এরমধ্যে
কল্যাণে
খেলাতেই
চিরসবুজ
ট্রেন্ট
দৃশ্যের
পরিচালন
পাণ্ডুল
পৃষ্ঠার
প্যাকেট
বর্ণালী
বান্ধবী
বোম্বাই
মাইলফলক
রাজহাঁস
শক্তিতে
এয়ারক্র
গম্বুজের
চন্দ্রের
মুশফিকুর
সিয়াচেন
computing
implement
singapore
অ্যাভিনিউ
উপসাগরীয়
চরিত্রটির
মিলনায়তন
individual
ইলেক্ট্রিক
কূটনীতিবিদ
জলদস্যুদের
বিভূতিভূষণ
মুম্বাইয়ে
netherlands
নৃতাত্ত্বিক
পাশ্চাত্যের
construction
খ্রীষ্টাব্দে
ইনফ্লুয়েঞ্জা
##حم
и
##%)।
##.00
##apa
##iae
##rup
##sup
##tha
##tis
##umn
##ংরা
##দুন
##পিন
##োসে
##্থা
##azar
##ires
##mond
##rine
##stan
##অপার
##ডীয়
##ড্রন
##বাহন
##ব্কা
##ব্লু
##লাকে
##িটাগ
##িসৌধ
##ুত্ত
##োপের
##্দিন
##্যিং
আরু
উইস
কুদ
ছোস
তলে
তাত
তেত
রফি
##/0000
##agong
##great
##চ্যান
##জিদের
##ব্রেক
##রানের
##শিষ্ঠ
##স্কুল
##হেল্ম
half
karl
leon
priv
true
কসোভ
কিউব
কৌরব
জলচর
তিমি
নীরব
পরিপ
বকুল
বহুত
বেধে
মন্থ
যোজন
রসুল
রসূল
স্পট
স্লো
হিটে
##asters
exist
niger
tamil
আকরিক
ওড়ার
কাম্প
খরচের
ছাদের
দিনাজ
নাগাল
নিকোল
নৌবহর
পারতো
বায়ে
বারুই
বেগুন
ভাটার
মিটিং
র্যাড
লুক্স
লৌকিক
সদরের
সেটের
##কারখানা
##দুল্লাহ
##সেক্টরে
##াবিদ্যা
league
planet
vision
অমূল্য
আপনাকে
আরবিতে
আসক্তি
ক্লাউড
থেরাপি
পরিণতি
ফলাফলে
বিজয়ে
মাঝেমা
মূল্যে
মৈত্রে
ল্যারি
সঙ্গেও
সর্ম্প
সেবায়
##ittagong
##েন্ডেন্ট
##্যান্ডার
justice
অকাদেমী
ঘটনাস্থ
ঘুরিয়ে
ডায়ানা
ড্যারেন
তুলেছিল
ভাগীরথী
ভিত্তির
শতাংশের
স্ট্রিপ
স্বর্গে
স্যাক্স
##শ্রীলঙ্কা
chemical
ইব্রাহীম
উৎক্ষেপণ
চক্রান্ত
দেওয়ালে
সভ্যতায়
সময়সীমা
সুমাত্রা
centuries
discovery
অবস্থাতেই
দূরবীক্ষণ
প্রাইমারি
ফিজিক্যাল
আর্মেনিয়া
গ্রীষ্মকাল
পূর্বাঞ্চল
সেকেন্ডারি
established
institution
আইনস্টাইনের
কার্যকলাপের
চলচ্চিত্রেও
জীবনযাত্রার
প্রাণরসায়ন
ক্রিস্টিয়ান
##ни
##বদ
##ben
##bus
##dam
##gov
##hal
##oto
##sey
##থিন
##দোন
##বদল
##ভোল
##রনে
##লয়
##সমু
0-
দই
##iers
##info
##itta
##আইডি
##আর্থ
##ঙ্গম
##ফক্স
##মুলক
##ালাম
##াহেব
##ুন্দ
##েবার
fam
ron
চলক
নটর
মৎস
যাহ
##burgh
##কৃতির
##গঞ্জে
##টার্ম
##পার্ব
##ফাগ্স
##ফিকার
##ব্রাগ
##ভারেজ
##াজেয়
alan
indo
lang
mary
mess
ইনকা
গোবর
চেনা
দুরে
পিএল
পেছন
বারি
মনসা
মেথড
রমনা
শকুন
শাবন
স্কি
##akespe
##বিগ্রহ
##াবাজার
##ুন্টুর
marsh
ক্যাশ
গীটার
চ্যার
পাস্ত
ফরমেট
ফিলোস
ফোঁটা
বেঞ্চ
ভৌমিক
মাঝেই
মিথেন
রক্ষক
রাজের
শিখতে
শ্রবণ
সেতার
স্কাউ
স্পিল
##খ্রিম্স
##প্ল্যান
##বিভিন্ন
##ব্র্ত্স
##িউল্লাহ
calcul
square
virgin
wilson
within
আলোড়ন
এন্ট্র
কতটুকু
গুলোকে
তত্বাব
তরিকার
তারকার
নেপালী
পড়ায়
পরিপাক
বানাতে
ব্যয়ে
বৎসরের
শক্তিম
শরীয়ত
শুক্লা
grammar
ঐশ্বরিক
কল্যাণী
জ্যোতির
নার্সিং
পাকস্থল
বন্ধনের
বাড়ীতে
বিধায়ক
লিবারেল
সাফিক্স
স্মৃতির
archives
services
উপরিভাগে
প্রাপ্তি
বহিষ্কার
বিষয়াদি
মহকুমায়
যুদ্ধবির
রিপোর্টে
সপরিবারে
হরিয়ানা
##university
##মার্কসবাদী
কৃষ্ণাঙ্গ
গিটারিস্ট
জ্যামিতির
প্রত্যন্ত
প্রাচীরের
বায়ুমন্ড
মন্ত্রকের
যানবাহনের
যুগোস্লাভ
শাসনামলের
দক্ষিণাংশে
পারদর্শীতা
প্রতিনিধিদ
প্রতিভাবান
বহিঃপ্রকাশ
মহাপরিচালক
রাঙ্গামাটি
ল্যাবরেটরী
afghanistan
ঐতিহাসিকদের
ঘূর্ণায়মান
যুক্তফ্রন্ট
সম্মানার্থে
ইন্টারমিডিয়েট
সংখ্যাগরিষ্ঠতা
##ঁস
##ৎজ
##0ম
##iko
##lib
##oen
##pel
##পীঠ
##সাক
##সাপ
##োভা
pu
নখ
সই
##ogen
##writ
##ঃস্ফ
##ধানো
##ন্ধে
##যারা
##র্ণী
##হংকং
##িউশন
##িফের
##ুক্ক
##্বয়
era
কতক
ডাস
রিব
##অ্যাস
##বর্ধন
##বেদের
##শ্বরী
##সীমার
##াধারী
##িকারক
আজমল
দিঘি
নিছক
নেবে
পলিম
ভাঙা
রুনা
রেবে
শপিং
সুইং
হীরা
##acters
##azepam
##বিদদের
##ব্ত্সন
##মুদ্রা
##িল্লাহ
album
minar
sites
swami
আষাঢ়
কাজির
কৃত্ত
গিবসন
জ্ঞাত
তাকেও
নন্দন
বোমাব
মান্য
মালদা
সকলকে
সক্রে
সমাগম
সাদিক
সিকিম
স্কেচ
স্পিড
হাইপো
##রনমেন্ট
##লিঙ্গের
integr
member
others
উষ্ণতা
চাকরির
জিউসের
ট্রায়
পুয়ের
পেরেছে
বন্ধের
সাহাবী
সোয়ান
স্কেলে
##আনুমানিক
##প্রাক্তন
##িক্ষিপ্ত
##িক্ষেত্র
অঞ্চলেই
অসমাপ্ত
আমিরাতে
উদ্যাপন
ওয়ার্ন
কাপ্তাই
ঘনত্বের
ডুবিয়ে
পোশাকের
প্যাভিল
প্রকাশে
ফরম্যাট
বাইনারি
বাহরাইন
বিশেষ্য
ভাইসরয়
ভূটানের
মুখপত্র
শঙ্করের
সম্ভবপর
সাসেক্স
হেরিটেজ
##্পায়ারের
database
selected
অভিবাসিত
অ্যালগোর
আত্মগোপন
দাড়িয়ে
নির্বাচক
পরিভ্রমণ
মঙ্গলবার
মাউন্টেন
শ্রীশ্রী
হাতেখড়ি
হ্যারিকে
##কলাম্বিয়া
কেমিক্যাল
ক্রীড়ানৈ
ক্ষতিপূরণ
তেন্ডুলকর
মানবজাতির
রামায়ণের
ক্লায়েন্ট
গুয়াহাটির
ভলডেমর্টের
comparative
পুনঃনির্মাণ
প্রতিযোগীকে
বাছাইপর্বের
বৃহস্পতিবার
শারীরিকভাবে
জীববিজ্ঞানের
বার্সেলোনায়
মধ্যপ্রাচ্যে
সাল্লাল্লাহু
সেপ্টেম্বরের
ধর্মাবলম্বীদের
বাইজেন্টাইনদের
ল্যাঙ্কাশায়ার
##;"
##cn
##lu
##rs
##ير
##रा
##cos
##fin
##oid
##opt
##sem
##ulf
##চেত
##তোম
##দীন
##মতো
##্বো
)।
*.
sr
um
##edit
##hind
##olas
##pass
##ried
##will
##কেলে
##ড়িং
##মিতা
##মোচন
##রচনা
##িজেড
##ুটির
##ুতের
##ূরের
cra
fur
tab
tan
এতই
গলফ
জিগ
তপন
ননী
##opter
##ufact
##িওনাল
stad
আনাম
গন্ত
চর্ম
জন্ত
জুডো
তেরো
পলিন
পাখন
মোদী
##common
##চর্চার
##টিনটিন
##তালিকা
##প্রমাণ
##ষ্টব্য
##্টারিও
allen
chann
coast
dalai
focus
linux
twent
ঋতুতে
এ্যাক
করতেও
চম্পা
চাকতি
জোহান
তালিক
পেনিস
পেলেন
ফিশার
বকরের
মৃতের
যোগফল
রণবীর
শর্তে
শুন্য
শৌখিন
সঙ্কট
সাইয়
হাংরি
##ফিল্ডের
##বেরিয়া
##মিক্যাল
##াপ্রসাদ
flight
অব্দের
অ্যানি
আত্রাই
এসময়ে
কল্পিত
পলাশীর
বিলাসব
ভয়ানক
শেক্সপ
সাইপ্র
সুব্রত
measure
mission
অ্যারিজ
উপাসনার
করতোয়া
কলোরাডো
কোলকাতা
বরখাস্ত
মদনমোহন
মেম্বার
রচনাকাল
রবার্টস
রোমান্স
সুখ্যাত
##akespeare
##সাহিত্যের
congress
editions
mountain
উপগ্রহের
ক্লোরাইড
জন্মভূমি
টেরাকোটা
ট্যাক্সি
নর্দার্ন
বীরত্বের
ম্যারাথন
শব্দটিকে
সঞ্চালিত
সৃষ্টিতে
southeast
উড়োজাহাজ
চিন্তাভাব
ট্রাফোর্ড
নভেম্বরের
রেস্তোরাঁ
শতাব্দিতে
##ন্টিনেন্টাল
অক্সিজেনের
অবশিষ্টাংশ
চ্যাটার্জী
পারফরমেন্স
পুনর্গঠনের
প্রাক্কালে
মৃত্যুকালে
রাজস্থানের
প্রস্তুতকৃত
সংবাদপত্রের
নেটওয়ার্কিং
প্রজাতন্ত্রে
ভট্টাচার্যের
শামসুজ্জামান
আলেকজান্ডারের
##mm
##ঋণ
##ণু
!
##fel
##san
##sun
##wit
##ওএস
##চনে
##টোন
##থলি
##ধুর
##পীর
##বগু
##বীজ
cu
।।
হপ
##igan
##আরএস
##টিটি
##বাবু
##বীয়
##রানী
##শনাল
##সমুহ
##িকেই
##িনসন
##ীরাজ
##্তার
---
han
hay
imm
neg
জিপ
মিখ
হিক
##adian
##print
##কুড়ি
##ণ্ড্র
##বন্দি
##মুণ্ড
##াত্নক
##াবতীর
##িংটনে
##িকর্ষ
##িয়ুস
##িস্টি
##ুল্লা
##্নেগী
anat
chin
date
আইনী
আপার
কেন্
ঘটার
জারণ
বেআই
ভস্ম
ভিসা
ভেজা
ভেড়
মরাল
সত্র
হেলথ
##vanced
##াবিদের
ইমেইল
কমানো
কোবরা
পোলার
বর্মা
মডিউল
মতভেদ
ল্যাম
ষাঁড়
সুরাব
##itution
##ওয়ারের
##ানুভূতি
##িম্পিকে
annals
become
donald
sacred
satell
spring
অক্ষের
অতিপ্র
আরোপিত
এস্তোন
ওয়াইন
কতগুলি
কার্গো
কুবলাই
কোয়াল
জেলাটি
নমুনার
নামতেন
পার্সি
বিজেপি
মোঙ্গল
শরীফের
সাবধান
##অধিনায়ক
##অলিম্পিক
profile
আশরাফুল
এলাকাকে
ওয়াজেদ
কোস্টার
গোদাবরী
গৌড়ীয়
নির্বাক
রেডিওতে
সংশোধিত
সপুষ্পক
##কুষ্টিয়া
##তাসম্পন্ন
##শিল্পীদের
interest
অনিশ্চিত
অনুভূতির
খেলোয়ার
দ্বীপটির
পৌরসভায়
প্রধানতম
ফরম্যাটে
বাস্তবিক
ব্রিসবেন
মিডিয়ার
ম্যাককুল
শয়তানের
knowledge
কুসংস্কার
পণ্ডিতদের
প্রচারণার
যথাযথভাবে
রাজশাহীতে
পাসওয়ার্ড
মহাকাব্যের
সম্পর্কীয়
এক্সিকিউটিভ
ক্যালেন্ডার
প্রযুক্তিতে
বাস্তবায়নে
অ্যাথলেটিক্স
আত্মসমর্পণের
প্রত্যক্ষভাবে
##yp
##ঈল
##কৌ
##ৌল
##_-_
##ahl
##log
##oon
##sam
##কয়
##ভাত
##সাঁ
##হুড
##হুস
##িপী
##োপড
##্লু
##ৰ্য
ku
##bill
##tail
##ving
##কর্ন
##কষ্ট
##খায়
##খেলা
##গরিদ
##ণায়
##বাকী
##ভোজী
##মোচী
##ম্দো
##ম্ভু
##সরাত
##হস্ত
##াকাও
##াসকে
##েট্র
##্বির
::*
avi
hab
joy
nac
কটি
গাও
ফাউ
ফিড
বচন
বদি
বীচ
ভজন
ভৈর
মঈন
রসদ
##cerpt
##izing
##উদ্দৌ
##চিয়া
##টিকেই
##প্রভা
##ফুসের
##ভবনের
##ভূমিক
##ান্টি
##িত্তে
mong
rang
অরিজ
আরাব
ইনোভ
কভার
গোসল
জানত
পম্প
বোকা
ভাগল
ভাগা
সিইও
00তম
##বামূলক
##সুবিধা
##েলিয়া
faith
indic
labor
month
কানুন
কালীব
কোচিং
কৌশলে
ক্যাফ
গাইতে
টিয়া
তালাক
নাহার
নিহিত
নূরুল
নেভিল
পাবেন
পীরের
প্রণব
বয়কট
বাফটা
বিচ্ছ
বৈধতা
মারমা
শিমুল
সামাজ
হার্ন
হালদা
##hensive
##আওয়ামী
##ইলেকট্র
##ক্রিস্ট
##স্ন্যিং
##িশিয়াল
alfred
celebr
compre
screen
কোস্টা
খয়েরি
গিরিপথ
টেবিলে
তফসিলি
দ্বিপদ
নিলামে
ফাঁসির
ব্যাথা
সাদাটে
##পরিবর্তন
persian
আনন্দের
আন্তরিক
উদ্দেশে
জয়ন্তী
জিজ্ঞাস
ডিরেক্ট
দিচ্ছেন
নামিয়ে
পাণ্ডিত
বহিরাগত
বাল্মীক
ভাষাটির
শিবসাগর
সুগ্রীব
সেলুলার
স্মৃতিক
হান্টার
হোটেলটি
##প্রাচুর্য
##াক্ষেত্রে
minister
progress
উচ্চভূমি
কঠোরভাবে
ট্রিনিটি
দুর্বলতা
নিবেদিতা
বরিশালের
বার্কলের
মাধ্যমেও
যুগান্তর
অত্যাবশ্য
জিনিসপত্র
ভুবনেশ্বর
ভোটাধিকার
মানবদেহের
যাবজ্জীবন
লোকসঙ্গীত
##সিঙ্গাপুরের
commission
অনুসারীদের
অ্যালবার্ট
গভর্নমেন্ট
ট্রেডমার্ক
পর্যবেক্ষক
পারফরম্যান
মানসিকভাবে
মুম্বইয়ের
সমানুপাতিক
বিষয়বস্তুর
সাহায্যকারী
মাইজভান্ডারী
জাতীয়তাবাদের
বিষ্ণুপ্রিয়া
##.0
##ер
##ঘণ
##চং
##াঠ
с
##arh
##dro
##edu
##pot
##দিঘ
##পিট
##াডা
##াবো
ইড
##cour
##empt
##গড়ে
##মিশন
##সদৃশ
##সারে
##াইলস
##িসকে
##ুন্ন
bud
nep
tar
উদর
কড়
ঝাপ
তরী
দাই
ধনু
ধলা
ফরি
বরা
ভেট
মাং
মিং
সয়
##ঞ্জের
##দর্শী
##স্কির
##াতারা
(00)
clos
cost
days
deep
said
আরোও
ঈদের
একদা
ঔষধি
কোকো
খলিফ
চলবে
দিবে
নক্স
নাইন
ভেদে
মশার
যোনি
রঘুজ
রটেন
রসিক
শীতে
সরাই
সুসম
##usalem
##কেশ্বর
##সংগ্রহ
##সাধারন
guard
অঞ্জন
আরোহন
আলমের
কর্ডো
কাছিম
দাম্প
পড়ছে
বল্লভ
ম্যাড
রাবার
রিকার
রেফার
সাবান
##অ্যাকশন
##পত্রিকা
##মন্তব্য
##াক্ষত্র
actors
atomic
philip
prince
strugg
আওয়ার
ডাইনোস
দায়িত
নির্জন
বাটলার
বিপদের
ভেড়ার
মাজহার
রামপাল
শাসকরা
শ্রোণী
সঞ্জীব
##language
##মোহাম্মদ
##্যাস্টার
continu
similar
আর্বানা
ওয়াসিম
কার্ডের
কাশীপুর
ক্যান্ড
গ্রেগরি
চুনাপাথ
নিরাপদে
নিষ্ঠুর
পাঁচবার
বলশেভিক
বাঁচাতে
মাধবপুর
মানোন্ন
ম্যাথিউ
রয়েছেঃ
রহমানকে
রাজ্যটি
সংস্থান
সত্যজিত
সেখানেও
##মধ্যযুগের
##িশ্চন্দ্র
##্বত্ত্বেও
festival
problems
অর্থায়ন
উত্তেজিত
ডারউইনের
পেশাদারি
বারান্দা
বৌদ্ধদের
ব্রহ্মার
শত্রুদের
সমাধিসৌধ
সাবমেরিন
হ্যারল্ড
ফিলিপাইনে
বিলাসবহুল
সার্বিয়া
স্ক্যান্ড
অগ্রাধিকার
অত্যাচারের
ঝুঁকিপূর্ণ
পুরাতত্ত্ব
প্রভিন্সের
বীরশ্রেষ্ঠ
ভাস্কর্যটি
সাঙ্গাকারা
স্বাক্ষরতা
উজবেকিস্তান
কিলোমিটারের
ক্যাথিড্রাল
ম্যালেরিয়া
ক্রিশ্চিয়ান
হাইড্রোকার্বন
##ün
##নল
##ফী
##”-
##গাত
##ঠোক
##নুর
##বদর
##হিট
##হিস
##াটন
##িশে
##ুলক
cd
hu
mi
উস
বড
ৎস
##gram
##কতার
##ঙ্কো
##দারী
##দ্রো
##ন্সর
##মানা
##সিতে
##াকরণ
##াদ্ধ
##ারির
##ালীন
##িনকে
##িলিক
##েনোস
##েলাস
##োস্ল
##্বরে
abu
cho
kon
mig
por
চীফ
জোল
##ayana
##eling
##iques
##itual
##অপরাধ
##ইন্দো
##ওয়েভ
##ডেভিড
##র্সের
##লন্ডন
##লেটের
##াইসিস
##্রোকে
dial
jour
kong
mole
tomb
wolf
আদিল
আরাক
কতটা
ক্ষণ
গন্য
গ্লু
জরীপ
ডিমে
দড়ি
নীলা
ভাঁজ
রমণী
সহচর
সাইফ
সুরা
হুগো
##illium
##imedia
##চাঁদের
##চ্ছত্র
##রবার্ট
##সমষ্টি
##াদিত্য
00-00
ideas
impro
italy
links
কুণ্ড
গাড়ী
গ্রেস
চকচকে
জলন্ধ
টার্ন
ডিজেল
তাড়া
নবাগত
পাল্প
প্যাপ
ফয়েজ
মুনির
মূখ্য
মৌজার
রিকশা
শোভাব
সিনেট
##storfer
##জাপানের
##তিক্রমে
##িয়ানরা
##িসমূহের
detail
silver
soviet
অসন্তু
আমিনুল
একজনকে
এপ্লিক
গণ্ডার
চোয়াল
জোনাথন
দন্ত্য
দলনেতা
নৌকায়
প্রকোপ
প্রবীর
রশ্মির
শতবর্ষ
শিবিরে
হস্তগত
হাড়ের
##উইলিয়াম
bernard
origins
অনুসরণে
আগ্রাসন
আরোহণের
একনিষ্ঠ
কাপুরের
কুকুরের
ঘটনাবলী
চাগাতাই
ডানদিকে
পুরোটাই
প্যারাস
বিএনপির
লোকজনের
ল্যান্স
সার্কেল
স্থানিক
হাসানের
accessed
identity
literary
position
অপারেশনে
আবিস্কৃত
আলবেনীয়
টেম্পলার
ধর্মগুরু
বর্গকিমি
ব্রাহ্মী
মন্ত্রিস
লক্ষাধিক
শুক্রাণু
সংক্রামক
স্বতঃস্ফ
কোরিয়ায়
টেক্সাসের
নিবন্ধনের
ব্যাখ্যার
সম্রাজ্ঞী
হেডকোয়ার
containing
আবিস্কারের
চক্রবর্তীর
পুরাকীর্তি
প্রথমদিকের
প্রশিক্ষিত
মাইক্রোপ্র
লক্ষ্যণীয়
স্পষ্টভাবে
অক্সফোর্ডের
খ্রিস্টধর্ম
ন্যানোমিটার
প্রতিরক্ষার
বৈশ্বিকভাবে
আগ্নেয়গিরির
তরঙ্গদৈর্ঘ্য
দীর্ঘমেয়াদী
লক্ষ্যমাত্রা
প্রতিষ্ঠানটিতে
##0+
##যি
##---
##aki
##asc
##bet
##bro
##far
##jid
##nan
##লাব
##শোভ
##ুদ্
ng
nu
খি
##apur
##rane
##stra
##umin
##জেমস
##টাতে
##ট্রা
##ভূজা
##রীতি
##শস্য
##শাসক
##সুফি
##হরিৎ
##হাটা
##াকেই
##াটিক
##িনগর
##্যাহ
adv
arm
asi
rat
sak
won
চোল
ছড়
তিস
তোক
দুম
বেড
মশা
##eller
##stone
##ওয়াদ
##করূপে
##টাউনে
##য়ায়
##শালার
##সংবাদ
##সমালো
##্টায়
help
lama
note
tool
আপিল
আশার
এমডি
চাদর
জোরে
তিলা
তোয়
পটাস
বসাক
বিপি
ব্কা
রাজী
##উদাহরণ
##ধারায়
##নিয়োগ
##শিকাগো
##াবিশেষ
allah
alloc
daily
manus
pione
separ
taken
অভিনব
ওয়েই
গ্রন্
চেহার
ছন্দে
তিরুম
নিলাম
প্রকট
বাদশা
ভীষ্ম
রিয়ে
লুণ্ঠ
শাপলা
সলোমন
সারের
##ওয়াটার
##পাড়ায়
##াচুসেটস
##িয়ান্স
toward
verlag
অঙ্কুর
আন্দ্র
আয়াতে
একাত্ত
এথেন্স
এফবিআই
কমবেশি
ক্রেওল
খুলনার
চার্চে
ছেলেকে
থ্রিডি
ধর্মমত
পুরষ্ক
পোলীয়
ফিলিপস
বাচ্চু
মন্দার
রূপালী
হুয়ান
##hstorfer
##ুষ্পুত্র
##্রিয়ায়
অনুবাদে
ইখওয়ান
খলনায়ক
চলাফেরা
নৈতিকতা
লাফিয়ে
শ্রীনগর
সুপারনো
##য়ংক্রিয়
##স্প্যানিশ
আলোকবর্ষ
দামেস্কে
ধানমন্ডি
ধূমকেতুর
নাগরিকের
নান্দনিক
নীহারিকা
পদ্মভূষণ
পরিব্রাজ
ব্যাংকটি
ব্যাপ্তি
সন্তানকে
##ল্লাল্লাহু
reprinted
তৃতীয়াংশ
দামেস্কের
ব্যবহার্য
মহিউদ্দিন
শাহরিয়ার
সর্বোত্তম
characters
chittagong
উসমানীয়রা
সংগ্রহালয়
সালাউদ্দিন
significant
জাতিগোষ্ঠীর
প্রতিমন্ত্রী
মুক্তিবাহিনী
##ইন্টারন্যাশনাল
ক্রাইস্টচার্চ
মালয়েশিয়ায়
##nt
##на
##يه
##inc
##pop
##roy
##অভি
##খুন
##পিও
##লিও
##াকল
##ৃঢ়
##েদা
ছৈ
##anus
##eron
##gold
##sequ
##অফিস
##আলোক
##কক্স
##টেইল
##পরিম
##পূরক
##য়েব
##াতিত
##ার্ত
##ালিব
##িন্য
##েরার
##্যুগ
pil
ওরা
করম
বলল
লাব
লিট
সুজ
হরে
##first
##uddin
##uster
##ক্ষীর
##ক্ষেত
##নেটিক
##ন্ধ্য
##বানের
##ব্যুং
##সামের
##স্যুর
bure
jeff
need
pand
অনির
আপেল
খড়গ
জীবজ
জেটি
ডেলা
পশতু
পারভ
প্রফ
ফাঁদ
বিএম
বেচে
ভাতা
মিউজ
মীরা
মৃৎপ
রোপণ
লেসব
সত্ব
সুখী
স্টে
হুইট
##inning
##ন্নেছা
##পাথরের
##াসিয়া
##্যসাচী
আল্পস
উল্টো
এ্যাপ
ঘুড়ি
চক্ষু
থার্ড
দিয়া
পথপ্র
ভালুক
মর্মে
রসালো
রাদার
শহরতল
শোষিত
সেবাস
সৈকতে
##ception
##ক্ষমতার
##ভিক্টোর
##িয়েটিভ
harper
ছুটিতে
জিনতাও
নর্তকী
ফোর্বস
বেয়ার
মডার্ন
মরিয়ম
রীতিতে
লিভারপ
শর্করা
সংবর্ধ
স্কোয়
হচ্ছেঃ
biology
goddess
leading
scholar
section
অভিকর্ষ
আমস্টার
ইনকর্পো
একগুচ্ছ
এঞ্জেলে
জ্যোতিঃ
দিয়েগো
নিপীড়ন
বিছানার
বিদ্বেষ
বেড়েছে
ভাগাভাগ
মৃত্যুঃ
সংঘাতের
সিম্পসন
সুদানের
হোল্ডিং
##thumbnail
##িয়েন্টাল
handbook
manufact
ইতিহাসবে
উত্তরাংশ
একচ্ছত্র
একেবারেই
তুষারপাত
দাম্পত্য
ধারণকারী
পরামর্শক
প্রধানতঃ
প্রাইমেট
ফুসফুসের
বাঁশখালী
বিদ্যাপী
বিধ্বংসী
মৃৎপাত্র
সমর্থনের
wikipedia
অঞ্চলসমূহ
উদ্বাস্তু
খেলাধুলার
জ্বালিয়ে
ডিব্রুগড়
নিউক্লিয়
পারমানবিক
প্রাচুর্য
বঙ্গাব্দে
বার্লিনের
হাইকোর্টে
অনির্দিষ্ট
কিলোমিটারে
কোম্পানিকে
দ্বারকানাথ
পাবলিশার্স
বিজ্ঞাপনের
ম্যানগ্রোভ
শিক্ষাক্রম
সম্বন্ধীয়
বায়ুপ্রবাহ
বার্বাডোসের
তাস্বত্ত্বেও
বিষয়ভিত্তিক
উত্তরাঞ্চলীয়
নিউক্লিয়াসের
ভাষাতাত্ত্বিক
অ্যালুমিনিয়াম
নিয়ন্ত্রণকারী
##dy
##mc
##zi
##ষদ
##00)
##eda
##his
##pus
##rac
##গমন
##গলা
##পিস
##পুং
##মিট
##মুক
##মূখ
##াগি
##াদো
##ীতো
##োধক
তন
লন
##ambh
##chel
##racy
##rift
##thew
##upta
##অষ্ট
##কিমি
##চ্ছি
##জিবি
##ভট্ট
##ভাটা
##াবেল
##ামৃত
gun
ice
mob
sho
الن
আঁচ
কিত
ছান
ডলি
রাণ
হরত
##চার্স
##চ্ছবি
##টারির
##টিকাল
##ডিয়া
##নেদার
##ন্দার
##ন্ধরা
##বাঙ্গ
##বুকের
##বের্গ
##রশ্মি
##সিয়া
##স্টনে
##াত্যে
##ুশীলন
cath
pack
rome
sons
আমিষ
উপরও
একশত
কাশি
কুশল
কৃতি
ঘুষি
ড্রপ
তালে
দেশই
নিরো
নেভি
বাকল
বাটা
বিকে
বুড়
যকৃত
রাইজ
রুমি
শিরা
সমুহ
সাংস
সানা
সিনে
সুরু
হলেই
##বন্ধুর
##বিবিএস
##মিশরের
##মুন্সি
##োয়াইট
truth
আজকাল
কাজেও
গেজেট
নিন্ম
পয়সা
পাগলা
ফোনের
বিপিন
বোল্ট
মনিটর
মারার
রুবেল
রোভার
লেটার
লেবেল
শহরেই
শার্ক
শুঙ্গ
সিআইএ
##দানকারী
mexico
অযোগ্য
আবাহনী
জোরদার
ড্যানি
বিপাশা
মওলানা
যশোরের
শ্লোকে
সবশেষে
হারারে
হুয়াং
britann
members
revised
অনুপাতে
ইউনিক্স
উগান্ডা
ওয়াল্ট
ক্যারোল
ক্রোমোস
চত্বরের
চিরন্তন
দেশাত্ম
ধারণকৃত
নিকটস্থ
নৈপুণ্য
পেঁয়াজ
প্লাজমা
ফাঁসিতে
বর্ণহীন
বিতর্কে
বিভাজিত
লিবিয়া
শাস্তির
সূর্যকে
imperial
included
উত্থানের
ক্রীতদাস
গোত্রীয়
ছেলেবেলা
দেহাবশেষ
পঞ্চাশের
বলিভিয়া
সত্যিকার
সমানভাবে
সম্রাজ্য
আলবেনিয়া
ইউনেস্কোর
এডভেঞ্চার
গ্রাহকদের
চারিত্রিক
তুর্কিদের
প্রোটিনের
শ্বেতাঙ্গ
শ্রোতাদের
সার্ভিসেস
হেমচন্দ্র
0000-0000.
অভ্যন্তরীন
আলজেরিয়ার
ডাইনোসরদের
প্রচারণায়
প্রায়োগিক
সর্ব্বোচ্চ
হারমায়োনি
fundamental
উত্তরবঙ্গের
প্রিন্সিপাল
প্রাণকেন্দ্র
প্রাকৃতিকভাবে
রাষ্ট্রসমূহের
##ক্যালিফোর্নিয়া
প্রতিদ্বন্দ্ব্ব
যুক্তরাষ্ট্রীয়
##::
##ঝা
##বট
##aza
##ova
##জেড
##নেও
##বহন
##হুগ
##েজে
##েতে
##্কো
ni
জস
ঝা
মখ
##brit
##fish
##star
##utes
##ইন্ট
##সিপি
##াজান
##াবিষ
##ূদ্র
ale
aur
ঘাত
জোশ
টিপ
ভিক
সহঃ
সাথ
##opsis
##অ্যাপ
##কিন্স
##ক্সের
##ডেভিল
##দৃশ্য
##নেত্র
##ন্দ্ৰ
##পল্লী
##রাজের
##র্জনা
##স্পেস
##িস্থল
##েন্ডা
##েন্দা
bond
আইসি
এটাও
ঔরসে
ঝোঁক
তলার
দানা
দামী
নেহর
ফিকে
বহরম
মেহে
যাঁর
সন্ম
সমীর
সেটে
##center
##contin
##ওয়ারী
##চিকিৎস
##চেয়ার
##পরিবহন
##ফিকেশন
##মালায়
##িয়র্স
eight
আরবরা
ইয়োর
এমনটি
কনসাল
কোনটি
খানজী
গীর্জ
গুণগত
গুহ্য
জগদ্ধ
দ্বিধ
দ্রাব
নীলকু
পাবলো
পিক্স
পুণ্য
প্ৰথম
বাহুর
বিকেল
মন্দা
রাডার
রান্ন
শঙ্কু
শুক্ল
সারাহ
সুগার
সুতান
সোলার
হোমিও
##পুরুষের
##বাস্টার
beyond
patent
অক্ষরে
ইত্তেফ
ওম্যান
কলিঙ্গ
কিরগিজ
কোয়েল
খোঁজার
জেলাকে
ঝুঁকির
নায়েব
পুনরুত
বহুদিন
বাতিঘর
বাস্তু
বিশারদ
বুধবার
বোস্টন
মানুষই
রাহমান
শ্যামল
সন্মান
সর্বজন
সাধনার
সুইমিং
##প্লেয়ার
created
excerpt
অবতরণের
অ্যানিম
আকৃতিতে
আচ্ছাদন
আলেপ্পো
ঈশ্বরকে
গুটিয়ে
চেষ্টার
ডিসপ্লে
তেজগাঁও
দাঙ্গার
দোকানের
পতেঙ্গা
পোস্টার
প্রসারে
ফেলেছিল
মানবতাব
মেয়াদি
রক্তপাত
##দৈর্ঘ্যের
designed
evidence
অ্যাপলিক
অ্যামিনো
আর্দ্রতা
উত্থাপিত
কর্ণফুলী
কলেজটিতে
জন্মদিনে
জিওগ্রাফ
তীরন্দাজ
পরিদর্শক
পাউন্ডের
পার্টনার
প্রবন্ধে
বারাণসীর
বিস্তারে
মানবদেহে
মালায়াল
শাসনাধীন
হাঙ্গেরি
##পাকিস্তানে
computers
temazepam
transport
অর্জনকারী
পরিবর্তনে
ফ্রেডেরিক
বাঙালিদের
সম্পর্ককে
সুলায়মান
হিন্দুস্ত
supporting
অগ্নিকাণ্ড
ইন্ডিয়ানা
খাগড়াছড়ি
ট্রানজিস্ট
বৌদ্ধধর্মে
ভাষাসমূহের
সদস্যভূক্ত
হ্যামিল্টন
ছাত্রছাত্রী
মিডলসেক্সের
সহস্রাব্দের
হগওয়ার্টসে
সামগ্রিকভাবে
উত্তরপ্রদেশের
জ্যোতিরিন্দ্র
লিঙ্গানুপাতের
শিশুসাহিত্যিক
চিকিৎসাবিজ্ঞান
##fr
##তই
р
##bia
##chi
##dia
##ims
##raj
##rys
##sky
##ইডি
##ওসি
##কাক
##খনি
##টাও
##ত্থ
##পদে
##বোর
##ূচক
##্য়
pi
খৈ
ছক
হফ
##atin
##eman
##ilis
##ound
##জগতে
##তড়ি
##স্কু
##ানকে
etc
ire
sud
ইকো
কনড
খোর
নুব
ফুজ
বনজ
মমি
মরা
রউফ
রোট
শশা
##elect
##house
##ottom
##ysics
##গ্যাল
##ড্রেন
##দায়ী
##দৈনিক
##দ্দার
##ধানিক
##ব্রুক
##লেগ্স
##ষ্কের
##াপুরে
##িয়াপ
##িরোধী
##ুদন্ড
##ৃষ্ণা
face
hart
lost
virt
অতিন
অপ্স
ইবাদ
উঠছে
ওনার
করাত
খরচে
ঘাটে
ট্যা
তোরণ
বালু
ভাদু
রিভল
লগ্ন
হরফে
##ইসলামি
##কর্তার
##চ্ছেদে
##পরিচয়
##প্রতীক
##মাইক্র
##য়েডের
##্মানিক
actor
theat
অবশেষ
আদনান
আসছিল
উপবাস
কাজকে
কৃষির
খুনের
গ্যার
চাচাত
জুনের
তালেব
দ্রবণ
ফ্রাই
বিবেক
বুদাপ
মাঠটি
মেহতা
শূণ্য
সময়ও
স্টোক
হামজা
হ্যাপ
##কাতালান
##তৎকালীন
##পয়েন্ট
##পৃথিবীর
##বাণিজ্য
##মানুষের
##শচন্দ্র
##সংক্ষেপ
##স্বীকার
##াচ্ছন্দ
##িয়ার্ড
summer
অনুদিত
অরেঞ্জ
ক্যাফে
ক্রনিক
জামাতা
জুড়েই
টাকায়
দ্বিমত
ধর্মঘট
নিরূপণ
প্লাটি
বাইপাস
বৈশালী
ব্যাহত
মৌমাছি
রঞ্জিত
স্ট্যা
##ometimes
##pression
##োপিডিয়া
ইনোভেশন
উল্লম্ব
ওয়ালিদ
ক্যানিং
গায়ানা
ডার্বিশ
তৃণভূমি
নিরীক্ষ
ব্যাঙের
ভাষাতেই
শহরটিকে
সংকেতের
হিউয়েন
approach
জুবায়ের
নিয়োগের
পুরুষেরা
প্রসেসিং
বধ্যভূমি
মঞ্চনাটক
রাজারহাট
স্ট্রিটে
স্থানাংক
##যুক্তরাজ্য
according
গ্রীষ্মের
দ্রষ্টব্য
নেপোলিয়ন
বংশবৃদ্ধি
যোদ্ধাদের
স্টার্লিং
হত্যাকারী
generation
আত্মনিয়োগ
বাটারফ্লাই
ম্যানুয়েল
আম্পায়ারের
নির্মাণাধীন
সেন্টিগ্রেড
সন্ন্যাসীদের
comprehensive
নিয়োগপ্রাপ্ত
ভিত্তিপ্রস্তর
শান্তিনিকেতনে
##tv
##ঔষ
##নও
##alu
##law
##mid
##nor
##ody
##ril
##sil
##upa
##ডিচ
##তাত
##নাক
##পূর
##ভুর
##ম্গ
##যুব
##রেন
##হিজ
ey
##ceae
##pond
##আব্দ
##কোনো
##গোয়
##বাতি
##ভাগা
##ভারে
##মাথা
##শত্র
##ানেট
##াপাত
##িগড়
##ীতির
##ীবাদ
##োকার
ful
hop
led
উলফ
কদর
কিপ
গণধ
নোড
মজা
যাও
শোগ
##point
##state
##কভারি
##গড়ের
##টেনশন
##তিয়ে
##তেলুগ
##দেনের
##নিক্স
##নোয়া
##পোস্ট
##ফ্যুগ
##ম্যাগ
##র্কিত
##স্টেড
##াবর্ধ
clar
আগার
আধুন
কামা
তবলা
নবীর
পঠিত
বুঝা
ভোরে
রেগে
লালা
শিলং
হারা
##iament
##নিউক্ল
##বগুড়া
##ষ্ঠীতে
##াড়িতে
##ানুবাদ
##িয়ালি
autom
dynam
songs
value
ইউজিন
কালিক
গড়ের
চিনতে
তরুণী
থিওরি
দুজনে
প্লাম
প্লেস
ভেনাস
ময়দা
মালদহ
মুলার
##একাডেমি
##গ্রীষ্ম
##শায়ারে
##শ্যাম্প
##্পিয়ান
combin
memoir
regard
travel
visual
অবিস্ম
অরণ্যে
কুয়াল
গুলশান
চলেছেন
ছড়ানো
ডিসকাল
তপস্যা
তীর্যক
প্রলেপ
বহুবচন
বাঁধার
মধ্যেঃ
মাশরুম
মিখাইল
মিটারে
রবিনসন
রাত্রে
শার্লক
শৈশবের
শ্রাবণ
সঞ্চার
সিনেটর
সিপাহী
##ceedings
affairs
ireland
matthew
আশপাশের
উপগোত্র
এলাকাতে
কন্যাকে
কেন্টের
ক্রুসেড
গবেষকগণ
চার্টার
জমিদারী
নদীটিতে
পতাকায়
প্রচারে
বাজিয়ে
ভ্রান্ত
মঙ্গলের
মানদন্ড
মানবতার
ম্যাডিস
সিরামিক
##কমনওয়েলথ
##পর্যায়ের
multiple
আগ্রাবাদ
উদ্দীপনা
খননকার্য
গায়ত্রী
মারাঠারা
যোগ্যতার
রাজ্যপাল
রুপান্তর
রোমানদের
শব্দবন্ধ
সংগঠনটির
সমাপ্তির
সারাদেশে
স্বর্গের
অগ্রবর্তী
অনুসারীরা
অনেকাংশেই
অপর্যাপ্ত
ইথিওপিয়া
ওয়ার্ডটি
ট্রিলিয়ন
নির্ধারণী
পটাসিয়াম
লেখালেখির
সারাবিশ্ব
সিংহাসনের
আকাশচুম্বী
নৌবাহিনীতে
প্রবেশকারী
ভাস্কর্যের
মেয়াদকালে
রাদারফোর্ড
শোভাযাত্রা
সন্নিবেশিত
হত্যাকান্ড
description
ক্যাথেড্রাল
মিত্রশক্তির
মোহাম্মদপুর
biographical
খ্রিস্টানদের
ভাষাবিজ্ঞানের
শিক্ষামন্ত্রী
স্বায়ত্তশাসন
##fi
##gs
##আট
##cho
##oct
##uba
##চাম
##জুম
##থাল
##প্স
##লিভ
##শয়
##শাই
##াডি
##00ম
ay
ré
যু
যো
##alis
##fect
##idem
##owed
##rang
##self
##ylon
##কাটি
##ট্টি
##বহৃত
##মহার
##াজিন
##ামুখ
##ৃন্দ
##োফিল
##োস্প
key
lic
nig
row
এগো
কদম
খরা
গুদ
জহর
জিং
টীক
টুন
নজদ
নোর
পূণ
সীল
হোপ
##eline
##erick
##netic
##oting
##ঙ্গান
##ন্তুর
##বিশার
##ব্রাস
##ভ্যান
##মিয়া
##মৈথুন
##যেমনঃ
##রক্ষী
##লেভেল
##াবতার
##ারিণী
##িশীতো
dead
fair
held
host
kind
penn
sche
wars
আগাম
আনুষ
আরোহ
করাও
খোসা
ঘুঘু
চোয়
থাকি
নর্স
##কামিতা
##তিয়াজ
##স্মৃতি
##হাইড্র
##াসাহেব
##্যাকার
photo
queen
voice
অজস্র
আতঙ্ক
কাঁথা
কাসিম
কিউবা
গ্ত্স
দফায়
দেবেন
ধর্ময
পঙ্কজ
পাঠের
পালনে
প্রজা
বিহীন
ভ্যার
মেইজি
মোহিত
র্যাপ
সালমা
সিসিল
সেকশন
স্পাই
##ক্তাদের
##গোষ্ঠীর
##ভানিয়া
##মুহাম্ম
butter
events
letter
আমেরিক
ইমামের
কাঠঠোক
গড়পড়
চতুর্ভ
ছাড়তে
ড্রয়ে
দখলদার
নিখোঁজ
বলিষ্ঠ
সরফরাজ
সেলিনা
হারাতে
##কাল্পনিক
##দ্বন্দ্ব
##িল্যান্ড
lecture
prophet
subject
volumes
অনুসন্ধ
অন্যন্য
অভিযোজন
ইউনিটের
ইয়োহান
উইন্টার
ঋতুপর্ণ
ঐতিহ্যে
গানগুলি
ছাত্রাব
তৈরিকৃত
দেবতারা
নির্গমন
পঞ্চকোট
ভগ্নাংশ
মার্ভেল
রাশিদুন
স্পন্সর
স্ম্যাক
ইংরেজীতে
জলাশয়ের
জাতীয়তা
জার্মানী
জেভিয়ার
ঝাড়খন্ড
ডিভাইসের
ডিভিশনের
তত্ত্বকে
নাতিশীতো
পাথরঘাটা
বর্গাকার
বিভক্তির
বিশ্লেষক
মনোরঞ্জন
মাদার্শা
মালয়ালম
শহরগুলোর
সুচিত্রা
materials
অপেক্ষায়
উড্ডয়নের
কুরাইশদের
বিশ্বজনীন
মতানুসারে
রেফারেন্স
সম্পাদনের
সহানুভূতি
হাইস্কুলে
manuscript
ইউক্রেনীয়
উপন্যাসটির
পক্ষান্তরে
প্রজাতিটির
বিদ্যালয়ঃ
বিপর্যয়ের
শারীরবৃত্ত
application
সোশ্যালিস্ট
হরিশ্চন্দ্র
translations
ব্যাটম্যানের
চেয়ারম্যানের
ব্যাকটেরিয়ার
administration
প্রতিষ্ঠানগুলো
##()
##dl
##vo
##xy
##يل
##গভ
##োচ
##fem
##jun
##see
##tit
##আলি
##জেস
##টাক
##রিড
##রোল
##সাফ
##হুই
##িতম
##ৰ্থ
থে
লজ
##''".
##_00.
##olym
##oper
##seud
##থ্রি
##দ্দা
##পুরম
##মহাক
##িলাভ
##ুজের
##োচ্ছ
##োটাস
##্ভার
gab
hig
hot
ple
sid
টুট
পজি
ফিশ
ভির
মিক
মুত
হিগ
##align
##cover
##poche
##south
##কুরআন
##গুস্ত
##চার্য
##ঞ্জির
##দীনের
##নন্দন
##ন্তান
##বাসের
##ব্রুগ
##রহস্য
##লাসের
##সৈয়দ
##স্থ্য
##াঙ্গী
##াশ্রম
bran
sold
upon
الله
ইয়ো
ঋতুর
ওদের
কোটা
টোয়
ড্যা
দিয়
নিউগ
পাটি
পোলো
ফাটল
ফুয়
ব্যু
মতোন
মাগল
মূসা
রজনী
রুয়
ল্হা
সসীম
সহাব
##border
##ctural
##itions
##ওয়ারে
##তেলুগু
##পরিবেশ
##ভাইরাস
##িস্তার
##্যানের
brand
local
urban
এমবিএ
কেনেথ
খাজনা
খেলবে
ঘাসের
টার্ক
ত্রিব
পারার
পেঁচা
বার্ট
মডেলে
মার্জ
মাস্ত
মেলান
রাধার
লার্ভ
শাসনে
সাইটে
সোমাল
##colours
##general
##অ্যান্ড
##গাণিতিক
##গ্রহণের
##প্রবন্ধ
##সম্মুখে
##হ্যাম্প
##িয়ালের
##ীয়ভাবে
অণুরোধ
কথাটির
করিন্থ
কাটাতে
কার্জন
খণ্ডের
জলঢাকা
জাফরান
ডেয়ার
পরজীবী
পাল্টে
প্রসেন
বরগুনা
বহুবিধ
মিলনের
রাক্ষস
শায়িত
শিখদের
শেষকৃত
শেষভাগ
সার্জন
সিগনাল
হালদার
##প্রশান্ত
##মন্ডলীয়
##োস্লোভাক
context
অনেকবার
ইয়াজিদ
একজোড়া
কালচক্র
কীটনাশক
জয়েন্ট
পরিপূরক
ফিঙ্গার
ফ্লেমিং
বুঝিয়ে
মান্দার
স্থানেই
স্বপ্নে
হাদিসের
aircraft
campbell
colonial
compiler
rinpoche
williams
অগ্ন্যুৎ
অভিযোগের
অর্জুনের
ইমতিয়াজ
নতুনভাবে
পুস্তিকা
বলবিদ্যা
মহানগরীর
মহাভারতে
রক্ষনাবে
রাফায়েল
লেফট্যান
সব্যসাচী
সুরক্ষার
স্বত্ত্ব
##মধ্যযুগীয়
অঞ্চলগুলি
অনুশীলনের
অপ্রকাশিত
অ্যাক্সেস
উচ্চমানের
এন্টারপ্র
ক্যামেরুন
ত্রিভুজের
ন্যাচারাল
প্যাটেন্ট
ব্যর্থতার
মজুমদারের
মরুভূমিতে
মিডলসেক্স
ল্যাবরেটর
স্ট্যানলি
গণমাধ্যমের
গ্যালাক্সি
জার্মানীয়
##নেদারল্যান্ড
educational
উত্তরাঞ্চলে
ছায়াছবিটির
নরেন্দ্রনাথ
নাইজেরিয়ার
নাটকীয়ভাবে
ব্যাটেলিয়ন
শিক্ষাবর্ষে
##অস্ট্রেলিয়ান
প্রতিষ্ঠানকে
সম্মিলিতভাবে
ক্ষমতাসম্পন্ন
পুনর্নির্ধারণ
ভ্রাতুষ্পুত্র
ব্যাটসম্যানদের
##awa
##cod
##eri
##hra
##iki
##lal
##oka
##ঁচা
##ইসি
##এসি
##কুট
##নাভ
##মাউ
##াধা
##িলী
##েটি
##োতো
vs
মং
##ania
##mach
##onic
##ট্রো
##পারে
##পুরি
##ফায়
##মহান
##মূখী
##রসের
##ীগড়
##োলিক
cab
ira
mol
pas
zoo
অসল
কিথ
চেং
ছিন
ডেজ
দলই
পদচ
সমত
##duced
##eenth
##iform
##ither
##কিছুর
##ত্শুল
##পঞ্জি
##বুলের
##রেঞ্জ
##াম্বা
crop
here
prot
take
uses
আইনত
উর্ব
এগ্র
এণ্ড
কসবা
গেইল
ঘানা
ফসিল
ফিকহ
বিষণ
রথের
লাগল
সিসি
##histor
##ometry
##ইরানের
##ইলেক্ট
##ন্দেসল
##শিল্পে
##ার্জিত
##্ট্রোন
fight
lanka
আরমান
আসনটি
উইম্ব
এবিসি
ওসাকা
কলকাত
গ্রিম
চড়ুই
চাকরী
জয়েস
ঝিনুক
দস্যু
নিন্দ
পরিখা
পাতিল
পোড়া
প্যাথ
ফাঁকে
বলছেন
বুকার
বেঙ্গ
ব্রেট
সাদেক
স্লাই
##kolkata
##liament
##পাল্লার
##সম্পাদক
##িয়ানার
##িয়ারিং
compet
living
murray
native
plants
অঙ্গের
ইউএসবি
ইরাবতী
গোর্খা
ডেঙ্গু
নিজেরা
নুসরাত
ভিঞ্চি
যাদুঘর
সমকক্ষ
সহপাঠী
##প্রদানের
asiatic
usually
অনুকরণে
অবরুদ্ধ
অভ্যর্থ
আউলিয়া
উভয়েরই
কালিদাস
খোরাসান
গ্রামার
গ্রামীন
চতুষ্পদ
চিহ্নের
ছবিটিকে
জৈনধর্ম
ডেন্টাল
নারিকেল
ফার্মাস
বন্যায়
মীমাংসা
যুক্তির
লুক্সেম
শহীদদের
শাহাদাত
সংখ্যাত
সার্কাস
##প্ল্যানেড
00000000
addition
harrison
কার্বনের
গোপালপুর
জিন্নাহর
তাছাড়াও
নিবন্ধের
পয়েন্টে
প্রেরণের
ফরাসিদের
মুভমেন্ট
যুক্তরাস
সচিবালয়
documents
আফ্রিকাতে
উচ্চারণের
ছায়াছবির
দ্রুতগতির
নিম্নবর্ণ
প্রকারভেদ
প্রতিরোধী
বামফ্রন্ট
বৃহস্পতির
সমালোচকরা
সমীক্ষায়
স্টুডিওতে
experience
leadership
protection
অস্ত্রাগার
অ্যাডমিরাল
উপাদানগুলো
ট্রান্সফার
মেক্সিকোতে
যুদ্ধজাহাজ
রাষ্ট্রকূট
স্বতঃসিদ্ধ
অ্যাঞ্জেলেস
কমার্শিয়াল
প্রতিদ্বন্দ
সন্ত্রাসবাদ
অনানুষ্ঠানিক
প্রস্তুতকারী
ম্যাকডোনাল্ড
সম্প্রদায়কে
##আয়ারল্যান্ডের
অন্তর্ভুক্তির
ছাত্রাবস্থায়
ফ্রিকোয়েন্সি
স্নায়ুতন্ত্র
##cs
##نا
##মৃ
##but
##dem
##jar
##nia
##ঘাঁ
##চান
##ণিত
##পাখ
##মীর
##রেই
##্থে
অঁ
ঈষ
ঝি
তব
পয
##)'')
##esis
##iano
##roll
##year
##কমলা
##কাতর
##ছন্দ
##পত্ন
##ফসীর
##মতের
##রাফি
##লুইস
##সুলভ
##হিতা
##াজাত
##াদজা
##াফিল
##ালাল
##িমিড
##েইরা
nan
tax
আচর
খয়
বোহ
হরফ
হাচ
হেব
##abeth
##alism
##astic
##ratic
##ক্যাস
##ঘণ্টা
##পানের
##বিলাস
##সাহায
##িনারি
##িয়েভ
##োমকেশ
##োসাইট
##্লায়
bhar
imag
pure
অঞ্জ
আইফা
আব্ব
খসরু
ছুফি
ঠাঁই
দর্প
ফেরী
মাপা
হকিং
##witson
##ইরাকের
##ওয়ানে
##কর্মের
##কার্যে
##চিন্তা
##পর্বের
##বার্তা
##াত্ত্ব
##াবেয়া
##িডেন্স
##িনির্ব
claim
clear
enter
kumar
minor
অতিনব
ইমদাদ
উমরের
খাত্ত
গাছটি
ঘ্রাণ
জাহিদ
তুলসী
দালাল
নয়াদ
নিলেন
নেক্স
পোকার
ফরহাদ
বিপাক
ভাষাও
মুন্ড
যাহোক
শিথিল
হিশাম
##ologist
##অপারেশন
##দিল্লির
##্যান্সি
apollo
behind
buddha
leiden
অসুবিধ
আকর্ষন
আর্মেন
ক্যারি
নভোযান
পিতাকে
প্রলয়
বাড়ার
বাড়ীর
বুখারী
ভোক্তা
রক্ষাক
সংগঠনে
সমাজকে
সহনশীল
সাইটের
সাধনের
##রাশিয়ার
##াক্রান্ত
command
methods
stadium
আত্মাকে
ইন্সট্র
এগুলিতে
ক্যাটাল
ক্রুশ্চ
দুর্গটি
নোকিয়া
পিটারসন
পিয়েরে
ফিজিক্স
ব্রিটান
সম্মিলন
সৈন্যের
স্ট্যাল
স্পন্দন
##সংস্থানের
memorial
solution
stanford
আভিধানিক
উদ্যানটি
উদ্যোগের
উন্মোচিত
কলম্বোয়
জয়াবর্ধ
দেবনাগরী
পরিচয়ের
বিবৃতিতে
বৃন্দাবন
ভিজুয়াল
মৈত্রেয়
শহরগুলির
সংস্কৃতে
##toccolours
আওতাভুক্ত
আমন্ত্রণে
আসবাবপত্র
উত্তরদিকে
ফটোগ্রাফি
বিনিময়ের
বীরেন্দ্র
বেদান্তের
শিক্ষকতার
শেকসপিয়র
considered
অধিদপ্তরের
অভিনেতাদের
জিমন্যাস্ট
পুনরাবৃত্ত
শিশুশিল্পী
অবিস্মরণীয়
ইন্ডাস্ট্রি
নাতিশীতোষ্ণ
সান্তিয়াগো
ইন্সটিটিউটের
মাইক্রোসফটের
দ্বিতীয়ার্ধে
ব্যাটসম্যানকে
রবীন্দ্রসংগীত
আন্তঃমহাদেশীয়
স্বাভাবিকভাবেই
ইন্ডাস্ট্রিয়াল
##tu
##ça
##ét
##ār
##00"
##abe
##esc
##ogy
##sha
##syl
##uli
##xim
##জিট
##নিথ
##পদ্
##ব্দ
##মেই
##িখে
##ুশি
##্ৰী
##্ৰে
"'
##anic
##cles
##neth
##thes
##ynam
##আর্ক
##এমসি
##ঞ্চন
##ন্যে
##বেলে
##ামেন
##ালোক
##াহের
##াহ্য
##ুলির
##্রিন
din
eye
get
jah
kat
lal
mcc
pub
put
rot
why
কৈশ
কোং
শচী
##ankar
##aring
##color
##endra
##itude
##ornis
##thera
##গ্যুর
##দাদের
##নাঙ্ক
##প্রথা
##বারির
##মাদের
##র্ঘটন
##র্ধিত
##সেন্স
##স্গাম
##ুরঘাট
##ুলেটর
diss
kath
pour
weap
অচির
আবেশ
ইথার
ইয়ু
উপকণ
এদিন
কর্ড
জিউস
নানক
পত্ন
ফায়
ফ্রী
ভাঙন
মাখন
যোগী
রেনে
সৌরভ
হেরা
##arabic
##ension
##কর্নেল
##পরায়ণ
##বিষ্ণু
##রক্ষিত
##্শ্বিক
activ
terms
অয়েল
আর্মড
ওবামা
ক্ষীর
খালেক
খুঁটি
গেমটি
চঞ্চল
চার্ট
ছুড়ে
তেমনই
দাবির
দীক্ষ
পরিসর
প্যাড
বর্শা
বলেনঃ
বাঙাল
বালুচ
মহসিন
রাখলে
রুডলফ
সতেরো
সত্যা
সাম্য
সারণী
##চাঁদপুর
##প্রসন্ন
##ভাণ্ডার
##রামায়ণ
##শিল্পীর
##সুন্দরী
##ুয়েন্স
simple
অর্পিত
ইপিজেড
উপনিষদ
ঋগ্বেদ
গম্ভীর
গ্রহটি
চর্যাপ
জন্যেই
জহুরুল
জুয়েল
ডেনীয়
তাপীয়
দুঃখের
প্রমূখ
মোজিলা
লিউকেম
লিগায়
শামসুর
শাশ্বত
শেখানো
সারণীর
সীমায়
হায়াৎ
##্নাইয়ের
effects
অংশগ্রহ
অন্তরীপ
অভিধর্ম
আজিমপুর
কলম্বাস
জিব্রাল
ধর্মপুর
ধারণায়
পরশুরাম
পারিপার
বারবারা
ভুটানের
মস্কোতে
মিলানের
শহরটিতে
স্ট্রোক
##টুয়েন্টি
করিমগঞ্জ
কালচারাল
পৌরসভাটি
ভূগোলবিদ
মাঝেমাঝে
রাজকন্যা
রিচার্ডস
রেকর্ডটি
শিষ্যত্ব
সিস্টেমস
##হাঙ্গেরীয়
ক্ষত্রিয়
দায়িত্বও
পন্ডিতদের
প্রদেশটির
ফ্লাওয়ার
বাকেরগঞ্জ
উত্তরাঞ্চল
উপস্থাপনার
প্রকৃতিবিদ
প্রোগ্রামে
শিক্ষামূলক
0000-00-00.
অর্ধপরিবাহী
উচ্চশিক্ষার
কার্টুনিস্ট
পশ্চিমাঞ্চল
বুদ্ধিবৃত্ত
শিক্ষালাভের
মিথস্ক্রিয়া
মুর্শিদাবাদের
জ্যোতিষশাস্ত্র
কেন্দ্রবিন্দুতে
পুরস্কারপ্রাপ্ত
##र्
##ডক
##রঙ
##ূষ
ص
##emp
##how
##ión
##phy
##sar
##sub
##sur
##একক
##এপি
##টুর
##ডেক
##দোর
##ফাক
##বুন
##মতি
##াঁধ
##িষা
##োদা
ow
তট
##comp
##erve
##hood
##like
##rose
##ট্রে
##ত্শা
##ধনের
##পড়া
##বিনি
##বিশপ
##াতনী
##ারিও
##িজ্জ
##িটাস
##েপ্ট
bil
mam
এইড
মনু
মুম
মোত
রাঘ
লোর
শুর
শোধ
##eding
##gebra
##কেটের
##দ্দীপ
##বার্ব
##ভালোব
##সুনাম
##ারায়
##েস্টি
cris
fine
insc
maur
myst
উঠান
উপাদ
একাই
এম্প
করের
ঘটছে
ছত্ত
জামা
দিনই
প্রে
বেবি
ভিজে
রিকো
##ousand
##rative
##প্রবেশ
##প্রস্ত
##যাপনের
##স্টারে
##ান্তের
##িয়াকত
close
glory
innov
অহিংস
আইজাক
আসামে
কম্পন
তৈমুর
পৌছান
ফেদের
বড়াল
বৃক্ক
মিঠুন
মিস্ত
রুটের
শিবকে
শিশুপ
সত্তর
সেটির
স্নেই
##issance
##science
launch
python
taylor
আইএনএস
আইপিএল
আজিজুর
আজিজের
উঠিয়ে
এমআইটি
করিডোর
কাতারে
ছোঁয়া
তানভীর
দাবীতে
দেখতেন
দেখলেন
নিবদ্ধ
নিশাচর
পুরোটা
প্রবাস
প্রিজম
বাউন্ড
বেগমের
মাল্টা
মেঘনাদ
যজ্ঞের
রেবেকা
শৈশবেই
সঙ্গেই
সহধর্ম
সাংগ্র
সুসংহত
হারবার
হালাকু
##ইন্ডিয়া
##কানাডীয়
##গোত্রীয়
##মেরুদণ্ড
000–00.
austria
masters
records
অন্তর্দ
আবর্জনা
উপনিষদে
গোপীনাথ
জলাশয়ে
নির্মূল
ফর্মুলা
বহিঃস্থ
বিচ্ছুর
রেললাইন
শ্রীলংক
হসপিটাল
হেরাক্ল
released
একজনরূপে
ক্লেয়ার
গিলবার্ট
চিকিত্সা
নিঃশ্বাস
পরিস্কার
ফাতেমীয়
ভালোবাসে
মিসিসিপি
লিবিয়ার
সত্ত্বার
সন্নিকটে
সফটওয়ার
সর্বত্রই
##েন্দ্রমোহন
himalayan
অর্থায়নে
ওয়েলিংটন
খেলেছিলেন
জাকারিয়া
তাৎক্ষণিক
নির্বাসনে
নির্যাতিত
ন্যাশানাল
প্রজাতিকে
ফরওয়ার্ড
বিন্যাসের
ব্যাক্তির
britannica
অতিপ্রাকৃত
চন্দ্রশেখর
ছোটগল্পকার
তাপবিদ্যুৎ
নর্দাম্পটন
পর্যবেক্ষন
প্রেক্ষাপট
ফ্যাকাল্টি
ব্রোঞ্জপদক
মাদ্রাসাটি
স্বাতন্ত্র
agriculture
অডিটোরিয়াম
অ্যালগোরিদম
ইনস্টিটিউশন
চেকোস্লোভাক
তাসমানিয়ার
ম্যাট্রিক্স
বিশ্ববিখ্যাত
ব্র্যাডম্যান
ভূমধ্যসাগরের
মর্যাদাপূর্ণ
মিত্রবাহিনীর
এক্সপ্রেসওয়ে
অস্ট্রেলিয়াতে
ব্যাটসম্যানরূপে
##_(
##zh
##ор
##bad
##hya
##ito
##oun
##rim
##rin
##নোর
##বধূ
##বেট
##রিল
##লেভ
##াসদ
##োগা
##্ছে
##্তী
##্সন
nh
ধা
##atum
##eras
##high
##kash
##pres
##soft
##ক্ষী
##চাঁচ
##ট্রন
##ত্সা
##ফরিদ
##ফ্লে
##বানে
##মাংশ
##রবিন
##লারি
##শিরা
##সারন
##াতলী
##িথের
##োবিন
cru
flu
hus
ian
nas
neo
ইনড
উইম
এঁর
ঐকম
টোল
তদু
তাফ
তোপ
দুব
নরক
বলত
মহৎ
রীফ
রুই
সোর
স্গ
##buddh
##etics
##ichte
##moore
##ultan
##অসমের
##এশীয়
##জার্স
##টেলিভ
##ড়নের
##পুর্ণ
##ফুর্ট
##ভিক্ষ
##শীলতা
##াইলার
##াগোতে
##াদেবী
##ানিতে
##োনীয়
##্যুশন
brie
burn
came
dans
nasa
অতীব
অমাব
আদ্য
আভাস
ইউকে
খরগো
গুণী
চলতি
ছোলা
ধনুক
পুথি
ফিজি
বোতল
মমিন
মূলে
রাকে
সুলভ
স্টপ
হাজি
##00.00)
##cially
##প্রকৃত
##বংশীয়
##বিশারদ
##সংস্থা
##সত্ত্ব
##স্বপ্ন
##াঙ্গনে
##োচ্চার
##োব্যাক
glass
stars
আফ্রি
উত্তল
একবছর
এনরিক
গার্ম
ছৈয়দ
জেতার
জ্যাজ
তিতাস
দাদার
দুটোই
দোয়া
নিরীহ
বন্টন
বেয়ে
মনসার
মানতে
রেঙ্গ
শাহীন
শ্বসন
সরানো
হান্স
হুতাক
##ট্রান্স
##দ্জোগ্স
alphab
steven
আয়ত্ত
ইচ্ছার
একাত্ম
কারণেও
ট্র্যা
ততক্ষণ
দণ্ডিত
দলটিকে
পড়তেন
বংশীয়
বেতারে
ভাইবোন
মতিলাল
মনোনিত
মার্কা
মার্কো
মিসাইল
লালনের
সত্যিই
স্টাডি
স্বাদু
##পদ্মশ্রী
federal
অন্বেষণ
অবতারের
আর্কাইভ
আলাস্কা
উড়িয়ে
উসমানের
এড়ানোর
এনার্জি
কায়সার
কারাবরণ
চিরহরিৎ
দিমিত্র
নিম্নের
নিয়ামত
নির্বাণ
পাত্রের
বিসর্জন
ভাওয়াল
মুস্তফা
মেন্ডেট
ম্যাজিক
শিক্ষান
সাইয়েদ
স্টার্ক
##াক্ষত্রিক
advanced
possible
victoria
অগ্রগতির
অগ্রগামী
অপসারণের
কারাদন্ড
গন্তব্যে
গাঙ্গুলি
চিকিৎসাশ
জাদুঘরটি
পাবলিশিং
পৃষ্ঠায়
ফাইনালের
ভাগাভাগি
মুখার্জি
শেয়ারিং
হুসাইনের
condition
economics
francisco
professor
দ্বিতীয়ত
পরিকাঠামো
প্রাচ্যের
বলিভিয়ার
ব্যবধানের
ব্যাকরণের
রাজত্বকাল
স্ট্রিটের
উপপ্রজাতির
ডেভলপমেন্ট
ত্বরান্বিত
নোয়াখালীর
নোয়াপাড়া
পর্বতারোহণ
পার্বতীপুর
প্রয়োজনের
যুদ্ধবিমান
তাজিকিস্তান
ধর্মপ্রচারক
পাকিস্তানকে
প্রার্থীদের
বেঙ্কটেশ্বর
শরণার্থীদের
স্বাভাবিকের
championship
conservation
ইনকর্পোরেটেড
দক্ষিণাঞ্চলে
পর্যবেক্ষকের
প্রাণকেন্দ্রে
সালাহউদ্দিনের
নির্বাচকমণ্ডলী
##gn
##ré
##ör
##ঁর
##ইশ
##্ঘ
%
”
##aks
##জাব
##টোব
##নিশ
##বুদ
##মাম
##মুস
##রাড
##রুখ
##লকে
##সেজ
##্দা
va
zh
মই
##alam
##icul
##imer
##load
##ঁড়ে
##ইঞ্জ
##টাইপ
##ত্বক
##দিনা
##ারকে
##িদেব
##োকেন
##োচিত
##োজ্জ
##্যুন
lie
nik
ott
sab
spl
vid
yog
কূপ
গণে
গোহ
তিপ
ধুল
নূহ
পিথ
ফিস
ভাজ
মুগ
লিক
সিত
##asing
##ordan
##orton
##phere
##গুয়া
##গ্রেট
##চূড়া
##ঞ্জিত
##তড়িৎ
##নাময়
##প্যাড
##বেলার
##ষ্টের
##স্থির
##িকেতন
athe
come
phen
rule
surv
user
আধার
আহলে
ইলিশ
ওহাই
কর্ট
কাঠি
কেইন
চেতন
জনমত
তরাই
ফজলে
মহিম
মেলন
রসুন
লেভি
সেরে
হর্স
##ession
##তাজনিত
##ন্দ্রা
##প্রতির
##মারাঠি
##াশঙ্কর
##িনিষেধ
##োপার্ক
categ
cyber
defin
exhib
index
nying
parad
robin
আন্না
কর্তা
কর্মে
কুচকা
ক্রোন
নাটাল
পরিসম
পুষ্ট
প্রোব
প্রোভ
বর্বর
বেগের
ব্রেস
ব্লাই
ভাদ্র
ভাবতে
যৌবনে
রঞ্জক
রবিউল
রাখছে
রাশেদ
রূপটি
শিলার
শিশ্ন
সরিষা
হাশেম
##শৃঙ্খলা
##্যুয়াল
assemb
bureau
career
police
victor
winter
অকার্য
অপর্ণা
আজাদের
আরাফাত
কম্পটন
কান্দি
কুইডিচ
গুঁড়ো
ছাপানো
জর্দান
টম্যাট
দপ্তরে
নিবারণ
নৃসিংহ
পরিহার
পারায়
পুরোধা
পূরণের
পৃষ্ঠে
প্রতিপ
বয়েসে
বর্ষার
বৈশাখী
মধুপুর
যেটিতে
লালবাগ
লিওনেল
শহরতলি
সত্বেও
সিঙ্গল
সুদৃঢ়
সুয়েজ
##independ
##বেড়িয়া
##মন্দিরের
##স্বাগতিক
##াত্ম্যম্
philipp
romance
working
অংশগুলো
অর্থহীন
আর্নল্ড
কাটানোর
গুন্টুর
গ্রন্থম
গ্রাফিক
চাকরিতে
চালুক্য
চেঙ্গিস
প্রটোকল
ফরাসিরা
বর্তনীর
ভূখণ্ডে
মানবীয়
ম্যানচে
লেগেছিল
স্ক্রিপ
##পত্রিকায়
##সুনামগঞ্জ
thousand
ইসলামপুর
উবুন্টুর
কিছুক্ষণ
গড়পড়তা
ডিজাইনের
দিল্লীতে
নবাবগঞ্জ
প্রমুখের
বখতিয়ার
বন্দরটির
বসুন্ধরা
বাধ্যবাধ
বায়েজিদ
বিসিসিআই
ভাষ্যমতে
সিগন্যাল
সুখ্যাতি
##্প্রদায়িক
অঞ্চলটিকে
ইউনিয়নটি
উপনিবেশের
এক্সপ্লোর
দেখেছিলেন
প্যালেস্ট
প্ল্যান্ট
ব্যাংকনোট
যুধিষ্ঠির
শব্দগুচ্ছ
সম্ভাবনার
সাময়িকীর
স্থানাঙ্ক
হস্তশিল্প
আবির্ভাবের
কম্প্যাক্ট
কর্মকান্ডে
পশ্চিমাংশে
বিশেষজ্ঞরা
বিশ্বভারতী
সরবরাহকারী
সাধারনভাবে
fruhstorfer
outstanding
কল্পবিজ্ঞান
ক্রোমোজোমের
ঘূর্ণিঝড়ের
তামিলনাড়ুর
মনোবিজ্ঞানী
সফ্টওয়্যার
আইসল্যান্ডের
সমালোচনামূলক
সৈন্যবাহিনীর
স্ক্যান্ডিনে
ইলেক্ট্রনিক্স
তথ্যপ্রযুক্তি
নির্বাচকমণ্ডলীর
##sn
##ín
##জৈ
##যত
##ৌর
##bot
##did
##rot
##ংগল
##খুর
##বরে
##বোম
##াজল
##িভে
##িরী
##adel
##ards
##bury
##comm
##olic
##জিশন
##টাইন
##ন্ঠে
##ন্সে
##পিএস
##পিতা
##রাণী
##লাতে
##ল্পে
##েমার
##োন্ট
##োপাস
##্ডিন
##্লের
arn
blo
dur
gay
ges
pag
ray
আখা
কেত
তেঁ
##akers
##brown
##iance
##inton
##intro
##গরিদম
##ন্ড্র
##প্রসূ
##ফিনের
##ভার্ট
##ম্পসন
##লান্ড
##লিন্স
##সিডনি
##াদলের
##ারেরা
##িপথের
##িৎজার
cann
copy
espe
gand
jane
khal
rena
অবাক
অরবি
কপাল
কশের
কেলি
গিবস
ট্রু
নমুন
পকেট
পরাগ
বালী
বিঠো
বেটা
মাউস
যথাঃ
সজীব
সাথী
হাবল
##ailand
##elling
##emblem
##itness
##modern
##ternal
##ওয়ারি
##দ্বারা
##বাদামি
##মানন্দ
##সুইজার
##ান্ত্র
##িবার্য
##ীত্বের
##েম্বলি
##্যাটের
bruce
crime
honor
jacob
অসঙ্গ
আয়না
ওয়াদ
কমরেড
কোকিল
গাদ্দ
গীতিক
গ্রীস
তাপের
তিমুর
দুর্দ
দোস্ত
ফজলুর
বর্ধন
বিশাখ
মরসুম
মাদাম
মুণ্ড
রোমিও
লিয়া
সংষ্ক
সুপ্ত
সুবাদ
সেলিব
স্টের
স্যাস
হার্ম
##উচ্চারণ
##বার্বাড
##ম্বকীয়
##স্থাপনা
animal
অচিরেই
অন্যসব
অমৃতসর
ইদ্রিস
এনভায়
ঐকমত্য
কায়েম
কায়েস
কৃতজ্ঞ
ক্যাবল
খায়ের
জেলাতে
দেয়নি
নিচ্ছে
ন্যানো
পাড়ার
প্লেটো
ফাইলের
বড়দের
ব্যারি
মরক্কো
লাগলেন
শাখাটি
##কর্মচারী
##পাঞ্জাবি
##ারাষ্ট্র
holland
kenneth
zealand
অপসারিত
অপ্রধান
আবহাওয়
উদ্যোগী
কোর্সের
গ্ত্সাং
ছবিগুলো
জুলিয়া
টোবাগোর
নথিপত্র
নিজেরাই
বার্বার
ব্যাসের
মহানগরী
সমভূমির
সমষ্টির
সিগারেট
স্পেন্স
##প্রতিষ্ঠা
discover
অবস্থাকে
ঋগ্বেদের
কীটপতঙ্গ
ক্যান্ডি
জয়লাভের
পৌঁছানোর
বন্দীদের
বিজয়নগর
বিধিবদ্ধ
ব্যর্থতা
ভালবাসার
ভাষ্যকার
ভেঙ্কটেশ
মোকাবিলা
সংবর্ধনা
সিরিয়াস
স্বশাসিত
satellite
selection
অট্টালিকা
আগ্রাসনের
আধুনিকায়
ক্যাবিনেট
গৃহযুদ্ধে
নৃবিজ্ঞান
পরিব্রাজক
পুনর্গঠিত
পূর্বসূরী
বিদ্যাপীঠ
বিরোধিতার
রিপোর্টার
রোমানিয়া
সনাক্তকরণ
সাক্ষাতের
অভ্যন্তরের
আবহাওয়ায়
আলোকচিত্রী
এন্ট্রান্স
দণ্ডায়মান
বন্ধুত্বের
বিশ্বখ্যাত
ব্যাচেলর্স
রাষ্ট্রায়
স্বাচ্ছন্দ
অভ্যুত্থানে
ওয়ার্কার্স
পর্বতমালায়
বিশ্বতত্ত্ব
শিক্ষাদানের
ষড়যন্ত্রের
সাম্রাজ্যকে
স্থানীয়দের
অস্ত্রশস্ত্র
ল্যাঙ্গুয়েজ
সন্ত্রাসবাদী
স্বতঃস্ফূর্ত
##"(
##ds
##fc
##এজ
−
##cla
##iba
##iny
##xic
##কখন
##কমে
##চেক
##ছবি
##থেল
##নিপ
##নিল
##বরন
##ম্ফ
##সোম
##াঁও
##িডা
##িহা
##েজা
##োটো
##োৎস
##্যপ
##্রন
##”''
##
nr
ওদ
##anal
##coll
##ffer
##fran
##helm
##iful
##itar
##reme
##uram
##উক্ত
##উসের
##বেসে
##রাইল
##শীলা
##হানা
##াদিন
##ামিষ
##িপরি
##্রোন
##্লান
cel
dun
gil
tul
wor
অপস
আদৌ
কংস
কাও
ক্ব
গণভ
জনন
থির
ফুঁ
সোভ
হেক
##_0000
##illed
##জারের
##ম্বের
##লাকার
##াপ্পা
##ালপুর
##ুনীয়
##ুশ্রী
##োদনের
bras
diag
dipl
doug
hair
kenn
nest
next
want
অসুখ
আর্ত
উৎপল
এমনই
ছাদে
টায়
ঢালু
তখনো
দেখি
নজিব
পাণি
বসতে
বিডি
মেটা
রিপন
সিমন
হাছন
##cephal
##etical
##olitan
##ড্রাগন
##দর্শনে
##মোবাইল
##াস্টার
##িপৃষ্ঠ
##িভাষিক
##িশ্চিত
forms
hindi
relat
saudi
upper
ইসিবি
একমাস
এডগার
এমবিই
এহসান
কৈশোর
জাতিস
টাস্ক
টোয়ে
দুর্য
নাম্ব
নিকেল
পল্লব
পশতুন
পালিশ
প্রোগ
বহুলা
বিকাল
বিজিত
বিদ্ধ
ভাইকে
ভাষাই
মাক্স
মাসাক
রামান
সাদার
##inburgh
##western
##চ্যাম্প
##বিদ্যাল
##যন্ত্রে
##সবচেয়ে
higher
movies
reader
statue
অনুসরন
অন্ত্য
অভিজিৎ
অলংকৃত
আবেদীন
এলিয়ট
ক্যারল
ক্রেইগ
খন্ডের
ডিসমিস
দুর্গম
নিবাসী
পর্বটি
পারলেও
প্রহরী
প্রানী
ফাতিমা
ফ্লাইং
মধ্যের
মোহিনী
লাইকেন
লুটপাট
শাহজাদ
শেখরের
সঙ্গীর
সফলকাম
হরিণের
##european
surface
turkish
আয়াতের
গোড়ায়
জেন্ডার
তরুণদের
পদচ্যুত
পরিশেষে
প্রভূতঃ
প্রোডাক
বন্ধুরা
বিশ্বকে
ভিডিওতে
লিয়াকত
লেন্সের
সালফাইড
সোচ্চার
স্ট্রাক
স্পিরিট
##তাবিশিষ্ট
##নেত্রকোনা
##ম্ত্শানের
##স্বীকার্য
##ানুক্রমিক
jonathan
ministry
অন্ধকারে
অশ্বারোহ
আইএসবিএন
ইউরেশীয়
উদযাপনের
উপজেলাটি
এক্সপ্রে
এভিয়েশন
ওশেনিয়া
কাউন্টার
কোয়ার্ক
ক্যামেরন
প্রচলনের
বহিষ্কৃত
ভিলহেল্ম
মাজহারুল
মার্কিনী
ম্যাথিউস
র্যাম্বো
শিক্ষাকে
সমাজবাদী
সমাবেশের
##ক্রান্তীয়
buildings
অক্টোবরের
অ্যারিস্ট
চোরাচালান
পালনকর্তা
পোতাশ্রয়
প্রক্রিয়
প্রাঙ্গণে
প্রিন্টিং
বিধিনিষেধ
মাদারীপুর
মুক্তিলাভ
রেলস্টেশন
সংমিশ্রণে
স্ত্রীদের
industrial
জন্মসূত্রে
পিকচার্সের
স্পিলবার্গ
archaeology
অনস্বীকার্য
উপবৃত্তাকার
কমপ্লেক্সের
ক্রিকেটার্স
ক্রিয়াকলাপ
ব্যবহারকারি
মাদাগাস্কার
যন্ত্রপাতির
সংগীতশিল্পী
relationship
অ্যাঞ্জেলিনা
গ্যাব্রিয়েল
ভাষাপরিবারের
ম্যাসাচুসেটস
লেফট্যানেন্ট
স্বেচ্ছাসেবী
communication
হাইড্রোক্সাইড
উল্লেখযোগ্যভাবে
প্রোটেস্ট্যান্ট
##cp
##yo
м
##hat
##iii
##কাঁ
##টেও
##তোর
##ফয়
##সরল
##্টর
:-
ul
ইদ
ঊষ
##asia
##hest
##issa
##ynch
##গড়া
##জীয়
##তত্ব
##ধারে
##ধূসর
##লব্ধ
##সড়ক
##সর্গ
##সারা
##াগের
##াট্য
##ারণী
##িজুর
bag
kaz
mes
pir
আসত
ইভা
ওকে
জবস
বুস
মকর
মরশ
রকি
হর্
##ailed
##ctive
##eryth
##অর্জন
##চুনের
##ঞ্জয়
##তীর্থ
##দুটির
##পাখির
##বহির্
##বাদকে
##ভ্রংশ
##য়ারা
##সমগ্র
##সার্ব
##াগাছা
##িভাষী
base
gene
stor
অবনী
আংটি
একতা
ঐদিন
কঙ্গ
কদাচ
কয়ে
কাজি
খর্ব
গয়া
চাবি
চারণ
ন্যু
প্রধ
ফাইভ
বরাক
বালা
বেবী
বোধগ
বোরো
ভীতি
মধুম
মিশা
শাহি
সারণ
সুয়
##editor
##আব্বাস
##ক্ষনিক
##পরিবাহ
##যাত্রী
##লাইনের
##সুলতান
00000
assam
cloud
hawai
invol
range
অবয়ব
আলোয়
আসক্ত
ইগুয়
উইসকন
একরকম
করতেই
কাষ্ঠ
কিন্ন
জ্বলে
টার্গ
দ্পাল
ফিঞ্চ
বর্মণ
বার্ধ
বিত্ত
বেলুন
ভাষণে
রাজিব
রায়ে
লুপ্ত
শমসের
সিন্দ
সেমিট
স্ত্র
হিটের
##chester
##ologies
##olympic
##respond
##ইংরেজিঃ
##শ্রীরাম
##স্প্রুল
##ুবীক্ষণ
##েশিয়ার
00,000
double
fellow
format
issues
reason
should
অনুসৃত
অমরনাথ
অয়লার
অসমর্থ
আশ্বিন
আহমদের
ইপিআরে
একাদশী
ওমানের
গর্ভাব
চিৎকার
ছুঁড়ে
জানালে
জিয়ার
থিওডোর
দুইটির
দুরন্ত
প্রাদু
ফেলোগণ
বদ্বীপ
বিরতির
রেফারী
সাফারি
হাদিসে
##কেমব্রিজ
##ব্রায়ান
disease
flowers
symbols
writers
অস্ট্রো
ইংরেজির
ইন্ডিজে
ইসলামীর
কমান্ডো
ক্রুদ্ধ
ক্ষমতাশ
গড়িয়া
গুস্তাভ
নায়কের
নিকোলাই
পন্থায়
বসন্তের
বিতরণের
বিপ্লবে
বিভক্তি
ব্যাংকে
মাছরাঙা
মুকুন্দ
মেন্ডিস
মৌসুমেই
রোমানরা
র্যান্ড
লোকেদের
শক্তিপী
সড়কপথে
সর্বনাম
সৈন্যদল
হারিকেন
##ইন্টারনেট
##নির্বাচিত
##বিচ্ছিন্ন
##সুয়েডীয়
writings
অস্থিরতা
উঠেছিলেন
কাঠামোতে
গোলাকৃতি
জীবনধারণ
জুলফিকার
নানাভাবে
পরিষেবার
প্রভিন্স
বহুদলীয়
বিশ্বজিৎ
ব্রাউনের
মুহুর্তে
শক্তিস্ত
সংশোধনের
সংস্থাকে
##প্রতিষ্ঠান
generally
আনুষঙ্গিক
ইউনাইটেডে
ক্ষতিকারক
গুলিবিদ্ধ
গ্রিফিন্ড
জনসম্মুখে
জাতীয়করণ
টাওয়ারের
দক্ষিণাংশ
নিক্ষিপ্ত
নিদর্শনের
নীতিবাক্য
পরিচ্ছন্ন
পরিবেশনের
পুনর্বাসন
প্রতিজ্ঞা
প্রফেশনাল
বক্তৃতায়
রামপ্রসাদ
র্দ্জোগ্স
traditions
কাজাখস্তান
পদকপ্রাপ্ত
ব্যবসায়ের
সম্পৃক্ততা
##মিনিস্ট্রেশন
ব্র্যান্ডের
হিন্দুস্তান
কর্মক্ষেত্রে
জাতীয়তাবাদি
জানিয়েছিলেন
তাৎপর্যপূর্ণ
পর্বতশ্রেণীর
সদস্যবিশিষ্ট
আয়ারল্যান্ডে
বুদ্ধিবৃত্তিক
##ঁই
##ওই
##ধু
ذ
##!--
##aga
##cic
##eva
##tax
##এডি
##খরা
##ঝিন
##তরু
##ধরন
##পেল
##বুম
##মাজ
##রিম
##লাউ
##শাম
##শুভ
##হলে
##িরো
##ুপে
##্গা
aw
মট
##alia
##avid
##coln
##elle
##onto
##otic
##vert
##ঝিতে
##দ্রে
##নীতে
##পাশা
##বছরে
##বিবে
##মানী
##মেগা
##য়ুম
##াকির
##িনিং
##িবিল
##ুম্ন
##্বুল
##্রির
lev
pul
via
অটল
অসং
উইদ
উমা
এআই
জেক
টুথ
ডজন
বরে
লাও
হিথ
##attle
##inder
##uttar
##অপারে
##ওয়াস
##জিকাল
##ঠুঁটি
##লিনের
##স্যাম
##াঙ্কন
##িনেশন
beat
mugh
skin
sort
অবিন
কারী
গফুর
ডাইভ
নাকচ
বাইশ
বোনা
ভবান
মক্ত
মদীন
র্দো
সুলে
সেবক
হোমো
##_0000.
##active
##ক্রিকে
##বিজয়ী
##িসংযোগ
##্রাপ্য
annot
means
optim
reach
wrest
আখড়া
আয়োড
আলীকে
উইজলি
কমায়
কানেক
কুন্ড
গেমের
জুটির
টেকসই
ট্রেক
ত্বরণ
নবজাত
পালের
পোর্ত
বেথুন
ব্লেড
মালহো
মুনীর
মোটরস
যাবেন
র্যাল
শুধুই
সুইফট
স্কাল
স্পার
##william
##ইউনিয়ন
##চিকিৎসক
##তন্ত্রে
##পৃষ্ঠের
##প্রযোজক
##মৃত্যুর
##ান্দ্রা
##্যর্থতা
##্হস্থ্য
artist
famous
speech
অক্ষুণ
আমদানী
গাছপাল
গৌড়ের
চারপাশ
ছাড়ার
ঝিল্লি
তাজমহল
নিম্না
নেতাজী
পদাবলী
পাড়ের
পারভীন
বাচসাস
বাজাতে
বাদুড়
বায়েজ
বিনষ্ট
মিছিলে
মুন্সী
মূককীট
রাবণের
শকুন্ত
শোয়ার
সংকটের
সিন্ধি
হেনরিক
##তালিকায়
convers
johnson
quality
remains
অধিবর্ষ
অনুন্নত
অশ্বিনী
এডমিরাল
কায়রোর
ক্লাসের
ক্ল্যাস
গান্ধার
জঙ্গলের
জেনিফার
তৎকালিন
নরম্যান
নামগুলো
নিয়ামক
প্রস্থে
ফোর্সেস
বহরমপুর
বাড়িঘর
মরক্কোর
মাওবাদী
যুগান্ত
যুদ্ধরত
শাসনকাল
শাহজাদা
সাধনায়
সুইডেনে
স্বাদের
হৃদয়ের
##টার্মিনাল
##মেরুদণ্ডী
marshall
nicholas
resource
students
অনিবার্য
ইতিহাসকে
ডেবিয়ান
পরস্পরকে
প্রচেষ্ট
প্রচ্ছদে
বিক্রিয়
ব্যান্ডে
সংক্রমিত
সার্জারি
হাজারিকা
হিন্দিতে
##রাজনীতিবিদ
influence
quarterly
ক্যারোলাই
ক্রিসেন্ট
প্রযোজনার
প্রস্তাবে
ফ্র্যাঙ্ক
বছরগুলিতে
বলবিজ্ঞান
বিশৃঙ্খলা
মোজাম্মেল
রাজবাড়ির
রিয়েলিটি
রেজিস্টার
সূচনালগ্ন
statistics
অ্যাঞ্জেলো
আলবেনিয়ার
এস্তোনিয়া
গোবিন্দপুর
পরিচালকদের
প্রস্তাবের
বাসিন্দারা
শিক্ষাবর্ষ
অঙ্গসংস্থান
এসপ্ল্যানেড
দ্বিজেন্দ্র
নিউইয়র্কের
পাঠ্যপুস্তক
আলিপুরদুয়ার
হগওয়ার্টসের
হাস্যরসাত্মক
environmental
আর্জেন্টিনায়
উজবেকিস্তানের
ডেমোক্র্যাটিক
দর্শনার্থীদের
প্রত্যাবর্তনের
শিক্ষাপ্রাঙ্গন
##ко
##ود
##ইভ
##এপ
##ডর
##cin
##god
##iya
##kal
##oor
##osp
##sat
##কোচ
##ঘুর
##ডেড
##থিং
##দলে
##বাঘ
##বেথ
##য়ো
##রীন
##লাফ
##লিট
##শেখ
##সড়
##হয়
##্স্
')
ইব
##ache
##fare
##iber
##russ
##টিপি
##দ্ধে
##ব্দে
##রূপী
##াঁচি
##াবনা
##াবাঘ
##াবেজ
##োস্ফ
##্মের
ign
ord
tun
vik
অধঃ
উপশ
চিম
জলি
দাপ
নৌক
পীঠ
ফিফ
ফোল
বতস
ব্ৰ
##erved
##অতিথি
##গারের
##চ্ছিক
##বৃক্ষ
##রত্নে
##শাদের
##সংকলন
##সোনার
##হাবের
cogn
অণুম
আদ্র
ইমান
এলএন
ওবের
কাঁধ
কুড়
খচিত
গ্যা
ঘটিত
ঘুরি
চেপে
তাপস
দমনে
দামি
নদীপ
পদ্য
পরাশ
পরেশ
বরকত
বালো
ভরাট
মহীশ
মুইজ
রাখত
লুনা
শামী
সমাস
হেয়
##শান্তি
##স্ট্রা
##াবিহীন
anton
chall
chile
demon
domin
fruit
naval
santa
trust
আইভরি
আফ্রো
আরোহী
ইমোজি
এমনকী
করিতে
কারেন
কালাপ
কৌতূহ
ক্লোজ
ক্ষরণ
ঘাটের
ঝুঁটি
টরন্ট
তলদেশ
দ্কোন
নগাঁও
নিরাম
নোটের
পনেরো
পার্শ
প্রোজ
বাহিত
বিলোপ
বুর্জ
বোস্ত
ভরপুর
মসলিন
মাঞ্চ
মারতে
রমণীর
লেনের
সংহতি
সালেও
সুবোধ
হানিফ
##izabeth
##বাহাদুর
00(0):
action
friend
johann
reform
উপেক্ষ
এখানেও
কম্পোজ
কামরুল
কিয়াম
জলোচ্ছ
জামশেদ
ডেল্টা
নির্বি
প্রমিত
প্ৰকাশ
বাঁচতে
বার্নস
মন্ট্র
মিলেছে
যতটুকু
রক্তকণ
রিক্সা
লোহানী
সমর্পণ
সিঁদুর
সিসিলি
##lections
##ানিক্যাল
attempt
jackson
journey
আইজ্যাক
এঞ্জেলস
কাঠবিড়
গর্ভপাত
গ্রহনের
চৌরঙ্গী
জিনিসের
টেস্টেই
তড়িচ্চ
দ্রৌপদী
নিষ্কাশ
বাসন্তী
লাগানোর
সৌমিত্র
##কক্সবাজার
##সংস্কৃতির
conquest
constant
distingu
কাঠামোগত
দেবদেবীর
প্রশাসনে
ভাইবোনের
মর্গ্যান
মাদ্রিদে
যাত্রায়
রথযাত্রা
সাধারণের
স্পাইডার
functions
paperback
অ্যালার্জ
এনক্রিপশন
কাউন্সিলে
পাণ্ডিত্য
বৃত্তান্ত
মধ্যভাগের
মহাবিশ্বে
লেখাপড়ার
সাম্মানিক
হোটেলটিতে
*0000–0000
especially
experiment
liberation
principles
ম্যাককুলাম
##যুক্তরাজ্যের
corporation
proceedings
কৃষ্ণচন্দ্র
মেকানিক্যাল
[...]
