[PAD]
[unused0]
[unused1]
[unused2]
[unused3]
[unused4]
[unused5]
[unused6]
[unused7]
[unused8]
[unused9]
[unused10]
[unused11]
[unused12]
[unused13]
[unused14]
[unused15]
[unused16]
[unused17]
[unused18]
[unused19]
[unused20]
[unused21]
[unused22]
[unused23]
[unused24]
[unused25]
[unused26]
[unused27]
[unused28]
[unused29]
[unused30]
[unused31]
[unused32]
[unused33]
[unused34]
[unused35]
[unused36]
[unused37]
[unused38]
[unused39]
[unused40]
[unused41]
[unused42]
[unused43]
[unused44]
[unused45]
[unused46]
[unused47]
[unused48]
[unused49]
[unused50]
[unused51]
[unused52]
[unused53]
[unused54]
[unused55]
[unused56]
[unused57]
[unused58]
[unused59]
[unused60]
[unused61]
[unused62]
[unused63]
[unused64]
[unused65]
[unused66]
[unused67]
[unused68]
[unused69]
[unused70]
[unused71]
[unused72]
[unused73]
[unused74]
[unused75]
[unused76]
[unused77]
[unused78]
[unused79]
[unused80]
[unused81]
[unused82]
[unused83]
[unused84]
[unused85]
[unused86]
[unused87]
[unused88]
[unused89]
[unused90]
[unused91]
[unused92]
[unused93]
[unused94]
[unused95]
[unused96]
[unused97]
[unused98]
[unused99]
[UNK]
[CLS]
[SEP]
[MASK]
##en
##in
##ta
##is
##an
##00
k
s
j
##al
##on
##el
m
v
##it
p
##ti
##sa
##et
00
##es
##er
l
##ol
t
##ka
h
##si
##il
ja
##uu
##as
##at
##uo
##ar
##än
0000
##us
##un
##ik
##la
##''
##tä
##ut
n
##os
r
##im
##aa
##uk
##een
on
##ul
##or
##ist
*
a
##ja
y
o
ol
(
ta
jo
##le
##ir
##inen
##ur
##ty
##ko
##em
##iv
##ia
##ek
##den
##to
ka
##sä
##ää
al
hän
e
##uv
##ista
b
##ak
##ok
##yt
##yö
''
##aan
##lä
##te
##all
##na
##ala
##0000
##oit
##issa
##tu
##uon
to
##op
##hd
##isen
##ys
##tiin
oli
##iin
c
##mä
d
##ita
##ot
##assa
##um
##ih
##am
##om
##äl
##uok
##sen
##uonna
##ki
0
##ev
f
se
##uom
##ksi
##tel
##pa
##ri
en
si
##eh
va
##vat
##uol
myö
vuo
##jo
##kin
##id
g
luok
el
##up
vuonna
##ään
##yn
la
##ana
##essa
##uuta
##ans
##asta
##ät
##är
##sin
luokka
##ke
##ien
##pp
ma
ko
val
##utta
##esta
000
mu
##usta
##ell
##ma
##iden
##ella
##äyt
##uh
sa
##li
##unn
##ra
##ann
##iset
##uun
##äh
myös
vi
et
##uus
0000.
per
##he
pää
##ettiin
suom
ti
es
##ed
##ossa
##va
-
##itä
##istä
w
##yk
##alla
##man
##taan
##ch
##taa
er
##enn
00.
##isi
kes
(0000
ra
joka
##jan
##ue
li
##ten
ar
yh
as
##ro
##uks
kir
##ina
##lo
##ud
##illa
–
##kaan
pa
##äs
##ises
##ing
pel
##eksi
toim
##vi
##äk
##jen
an
##eet
##uut
##uksen
po
he
##min
##val
##ille
##ian
##tan
##inn
##ivat
kans
##yh
##jä
##ter
##–0000
##ika
yhd
##tö
ku
##issä
##re
sen
##se
tul
so
##ili
##mp
##ui
sek
##kil
##uur
käyt
##ellä
ovat
kuu
maa
ei
##sim
##joit
kun
sekä
par
vo
##täv
(0000)
##kk
##ust
läh
##tti
mar
mutta
0.
##ön
##men
##io
ed
##iksi
##rit
##tam
var
no
##oll
##essä
##ettu
jäl
##yy
##jat
##ill
##erk
##okuv
nim
##isesti
##ks
##elle
##simmä
os
##isten
ensimmä
##sia
pal
##ikk
##uot
##luv
saa
ha
##ua
il
joh
##ha
##isk
##od
0000–0000
##tyi
##alainen
##use
##ip
te
0000-
##and
ne
kaup
##ussa
että
hel
jul
##isia
puol
##teen
ker
tai
##tin
##ic
##osta
##mat
tar
##elä
##ton
##illä
tä
##tyn
seur
##tää
##yl
kol
##ig
kor
sam
ro
##mi
"
##keen
kanssa
##iten
##män
##),
##ihin
ki
##gin
##yv
##etta
in
##eli
##me
hänen
##ansa
voit
##pi
suur
syn
vasta
##ukk
##uud
lo
##tor
##kas
jälkeen
##vo
##oli
tek
mi
jon
0000,
##rin
lop
##uussa
kul
##ikka
vuoden
##ike
is
na
##kais
#
##iseen
##isti
elokuv
pit
hen
##ila
##alle
rak
##taja
kesk
suo
osa
##van
kaupun
pi
##ck
##hj
kar
##emmin
##'',
yhdys
##valta
##ee
##kon
kuv
teh
##ulla
suomen
van
##isä
##kuuta
##kä
##tion
##ran
##its
##ärj
##pail
##ll
##ven
mon
pr
##og
aik
##ost
ot
##uuden
##ula
the
##olla
use
##ssä
san
met
##ärjes
##teli
kil
le
##ber
yli
väl
työ
##vät
##ale
##yr
##so
sija
##pan
op
##alais
##sar
tunn
##alaiset
##ve
0000)
kuiten
##vel
har
##uden
##asti
##tr
maail
oll
jonka
kuol
i
##ola
##lan
mukaan
##mik
siir
re
ni
##mist
##etty
yl
jossa
vir
kos
##aks
##ho
##isin
sy
##ittä
ch
##oa
mat
kas
hall
##estä
##ivät
##usi
##maan
##asi
##vuonna
kon
kut
##''.
##sina
##000
kä
##jän
##ard
muo
##eri
toimi
sai
##ali
##ast
tur
liit
##jana
##kan
poh
näyt
(''
##).
of
##una
de
##son
##iko
##ine
kuul
lisä
##bum
alue
”
##itse
##itta
sis
##tila
##ym
##unnan
##äär
##allis
##ikki
kuin
hyv
##enä
muun
##tio
##erin
##ueen
##th
##ad
##00.
##ask
am
lev
noin
##oks
##äiv
##ne
##mista
jä
yhte
##yky
kuitenkin
##kilö
sar
jot
##oliit
maal
ver
##unta
olivat
kaksi
##ite
##isto
##vuo
##iseksi
##alta
eli
muut
##ity
kat
##puol
helsin
ul
ur
##tia
koko
##aksi
rakenn
nel
tut
vuod
##0.
kapp
keh
##nit
nä
##ino
##tal
##po
yksi
##tyy
##nen
jää
##ope
##inta
##ent
##ilija
##ikko
##ori
##tui
##ssa
##valtala
men
myöh
muassa
##kir
##ulu
##yd
ih
henkilö
suun
lisäksi
##vall
##kaa
##stä
##yks
syntyn
##iso
##kko
##unut
tiet
##suom
##uro
##mo
##istel
##'')
##var
##ers
##uor
alk
##maa
##elta
##hta
##tien
##isiin
##,0
ollut
yle
##etään
##sk
##ona
##iste
##ari
nyky
vain
pohjo
sä
hänet
vuosina
aikana
##oitti
##ord
##ce
##ukkue
##loin
ilm
voitti
##per
**
##iä
##itti
##ymp
##han
##atta
##ikan
tuli
##uta
##ion
##ge
##kim
olev
perust
kolm
##uksi
##usti
##riä
##eks
jat
järjes
julkais
##ime
hi
pro
seuraa
##ni
##til
kom
##imerk
sel
mm
jal
pien
me
##ess
##da
jotka
##ikä
maan
##kka
##emp
tapa
myöhemmin
valmist
teki
##tom
##estar
merk
##llä
##ov
tied
##err
##pal
##mään
##eseen
muod
or
hä
##tar
and
##osa
##eltä
un
luk
##olog
ri
br
##isiä
elä
puh
venä
kok
syntyneet
pelaa
ohj
##pall
ole
esiin
##ällä
ke
##pä
laa
voi
##ub
yliop
vastaan
min
tam
maailman
kunn
##ug
##ang
esimerk
##mikuuta
##ihe
##ento
##äkuuta
##jaa
ruot
##ht
yhty
ihm
##elm
rans
##tt
album
kaud
##ema
ensimmäisen
##luvun
##okuuta
##oksen
##pel
##etti
sijoit
kiin
##ag
vä
##jär
piir
ennen
*''
##ide
uud
##itys
##uksia
##ollis
##lle
(0000–0000
z
musi
run
##oja
suomalainen
saks
kr
kirjoit
korke
pohjois
##koi
##non
kuten
sitä
oike
##uluk
##kilpail
jos
hal
ensimmäinen
##ylä
##kar
##ff
##ilta
##jassa
##oon
##iva
päiv
##tanut
esimerkiksi
lin
##etaan
##uuri
##tta
##lin
##itsi
hein
##uroop
##pe
##ab
##elleen
mer
##luvulla
tämän
tuo
##istö
##ittiin
##omet
##und
##ässä
##asto
mil
00-
aika
##että
##pg
##utti
##av
kirja
ottel
##ons
##dan
kuva
yrit
##the
ään
jol
lä
vaik
##usk
##uusi
luo
##jpg
lö
##uutta
:
##ojen
##tua
##koit
##onn
##uksessa
##ira
tel
##ukset
##itsee
sisäl
mo
kaupungin
##di
##sta
##oma
##st
nor
##yksen
jäsen
##vin
##osto
##anta
##vä
##de
por
##alan
##imm
##iti
##est
##yhd
saar
ai
##era
##ima
neuv
##ottel
käs
##hden
her
hyö
viime
pelasi
##elin
it
aut
sil
etelä
suunnit
##hti
syys
län
##isesta
##vaa
##uja
niin
eri
##nn
väh
kaikki
vanh
olymp
ho
esit
##toa
ter
yhdysvaltala
julka
itä
jalka
tal
##ij
##gen
##alue
##ikin
##din
##leet
laj
taistel
##kat
##iaan
##allist
suomessa
lopp
##minen
touk
om
##isessa
##tävä
valta
##ästä
##ank
##kaup
##ukseen
##isa
##utui
huh
##ver
jolloin
##emi
ymp
maalisk
##paa
euroop
th
##tän
##oissa
##uva
eng
kansa
##mon
luon
##ker
##alaisen
ulko
pid
##ulun
päät
kal
mahd
suk
tuot
##ren
jouk
##idaan
oh
us
##ea
##opim
loka
##ulta
##yty
##uper
##imp
sillä
##kö
##jon
##lann
bo
##tinen
av
##ras
##mer
##iston
vuodesta
##ba
jouluk
*0000
osallist
##pin
at
##yttä
##bo
kahd
liik
##esk
hist
huhti
nuor
tarkoit
vih
for
em
##ymmen
lu
pol
kappale
kauden
edusta
##olle
las
##pää
##uoksi
sijaitsee
tuk
koska
##voit
##esti
##järjes
##uvat
##umb
tämä
##mar
##eensä
##-0
##ete
##ern
##eman
siirtyi
kilpail
hyvin
##sio
alus
kolme
##toi
##tiö
##mät
sit
kaudella
pys
##ga
##toon
ir
näytteli
pala
laiv
##uissa
vaih
##eva
##co
voim
toimin
arv
##for
##isessä
saav
ve
sh
##elokuv
##pr
##yys
jalkapall
voidaan
määr
paik
##onen
##ör
jota
tor
##itsem
##ura
##osen
kiel
sal
##jät
##eita
jär
##tynyt
vuotta
vaa
henkilöt
##ken
##itali
##lla
##väl
##akka
##ukka
0000–0000.
talo
lento
##par
##isena
ves
##esty
##joukkue
##joh
vielä
tr
##änä
##ukana
##onin
##att
gr
##eiden
##suomalaiset
tan
tuh
kirj
tyy
merkit
##atter
0,0
car
##uttaa
0:
huom
leh
##her
##hl
tuom
##oim
lap
##empi
##uri
ryh
##joon
mieh
perin
ajan
##iss
siitä
##ms
vall
siv
##yyn
toinen
tutkim
##of
##ssi
rom
saat
käyttö
kilomet
##kiel
helsingin
new
usein
olla
##kki
##land
##por
##ie
##yp
ympär
##yksi
erity
##do
##emaan
kan
julkaistiin
##toim
##uksesta
kuts
##oin
perus
kautta
alkoi
##istu
##tiiv
eivät
saan
##oista
##tamaan
pain
ain
aihe
sm
##one
##kia
ge
##innan
tun
##alin
kehit
seuraav
ii
ba
&
##ph
##ca
muu
kann
aloitti
##itus
vah
elokuva
##jien
maailm
##met
mur
kappal
kuuluv
##ull
##misen
##kun
heid
##oksi
##änn
koul
##isestä
fil
##osi
##ett
käsit
##ani
opisk
##elävät
kana
##evisi
näk
vaikka
mestar
##ela
##minist
joukkue
##esiden
##yhty
mukana
kuuluu
##ritti
##tävät
##br
lask
toisen
##pu
##las
epä
yhteen
##ottor
##ara
maaliskuuta
kuning
##qu
##dio
##evat
kre
##odan
yleis
yhdist
##tuu
raken
##alaisten
ken
##tään
kyl
##voim
##jel
##äis
fr
joukk
seura
##ittu
kirkko
##mei
##ham
##toja
##ikke
main
##össä
alueella
bar
sch
perusta
##hi
onn
##inä
##isella
##ohj
muuta
kita
##,00
yhdysvall
##eja
##isissa
tod
tammikuuta
täh
##emm
pet
vuoksi
poliit
ala
palvel
opp
kys
uusi
##gan
##tav
keskus
##by
##kaupun
kesäkuuta
toukokuuta
##hol
uuden
##kot
0000),
huhtikuuta
vuosi
yleensä
kuolleet
##uudessa
kansan
##ostoliit
##hen
co
syyskuuta
pitk
##-00
##ksen
man
##kuussa
##ujen
##ts
##umm
sol
itse
##utus
asi
##tum
##isar
##urin
lokakuuta
##atti
kär
##ero
heinäkuuta
##gi
kev
japan
kaupunki
miel
helmikuuta
##osti
##kkä
##berg
nope
##tek
tapah
ad
ak
koh
presiden
joulukuuta
koti
ilma
()
josta
da
##teet
suurin
kiv
##sarja
##tyä
##album
itali
##änsä
prof
##uin
##esin
##allinen
##nin
##palkin
##kor
##aksa
marras
%
kylä
televisi
##kirjoit
jatk
useita
ap
sijaits
##tur
kansain
##aston
marraskuuta
##ry
##yhdys
yhdessä
##ital
häv
##ong
0000-0000
##uka
vet
##ös
##kul
##teita
##viä
yhtye
elokuuta
(00.
##joen
sota
tär
työsk
##äks
##no
##ksin
##lö
sarja
x
##atin
olympia
##uksena
##tun
fran
länsi
##johtaja
##fr
ber
lis
lyh
##tie
olisi
##hin
##talo
##valtain
##oni
joista
niiden
sing
alle
##thumb
##ipp
tuotan
##wa
##esi
pu
tasa
##ive
alussa
pe
##jalla
##isp
mel
käytetään
neuvostoliit
##tön
##heil
miljoon
##kasta
john
juh
tärke
##mestar
vil
##attu
pian
##usten
ruots
lait
##oi
huol
##tojen
yhden
sin
(0
kertaa
##kiek
sopim
##ss
##elma
metrin
mahdoll
##öl
##der
lopulta
kultt
tehd
olevan
##puolella
vel
til
pur
##isista
##anin
nimellä
pak
kansainväl
itsen
kerran
##imi
##yi
eikä
##tänyt
löy
##har
##-0000
ab
##ire
##nut
##aaja
nousi
jät
suh
##ger
##pit
rat
sävel
bas
tiedosto
maailmans
u
##uss
##essaan
mol
neljä
alkuper
##isellä
##len
mor
kymmen
##ihen
syö
##attiin
vuoteen
espan
##uivat
(0000–0000),
##leen
yhdysvaltain
kons
syntyi
vapa
yhtyeen
##tiaan
##kunnan
##emen
ann
##–00
##oilija
muita
valko
joissa
kaa
kasv
alka
##".
00:
##don
rauta
##gr
venäjän
(0000–0000)
tunnet
metsä
muist
##ustus
##hall
heidän
käsi
##osof
##bur
##ilijat
##koon
elokuvat
saksan
ca
##px
asti
parha
##kiin
paljon
helsinki
samalla
aina
##okka
metriä
erila
laula
armei
jääkiek
##utum
##amp
amer
oy
profess
##bert
be
##je
##mper
mark
sat
##iselle
mikä
käyttä
musta
sp
yks
##car
##ena
nimi
rann
##ester
ste
##valtalaiset
johta
##äinen
##oilla
##be
sodan
##jia
##isuus
##lannin
##uuteen
saanut
##kassa
##ci
##aatio
##annut
##ida
aa
johd
lähtien
ä
##imo
kään
ehd
room
vaan
näyttelijä
##pol
kolmann
lähes
##yhtiö
joiden
com
laulu
##emmän
##järven
##les
##fi
##''-
siihen
##uis
lää
##imen
mies
##tori
##läinen
kerto
yo
euroopan
selv
matk
vär
joita
##järjestel
vast
##sas
st
jäi
##mm
kaik
##oitta
kap
keski
##akin
sijoittui
kosk
##ästi
##yyd
ruotsin
##johta
##arin
##ehti
ranskan
##jasta
##yhdysvaltalaiset
pan
##uma
osallistui
palasi
sta
ilmes
##onsa
##via
pyr
alueen
##vir
##ialais
##ihd
##mikuussa
valittiin
tamper
##ellinen
seitsem
##alli
##telee
##kaisin
sää
uh
##täjä
##allisen
mää
##osin
##ork
##eni
hope
pitkä
##-000
täl
keske
up
neljän
säil
##uista
määrä
##ins
puna
##mis
##mia
tehtäv
##amer
toimii
##jal
työsken
##eg
do
elokuvan
kirkon
##ynn
##ulle
stu
jolla
vuodelta
vapaa
##ivan
sisä
pat
##ystä
ammat
##uuksi
##uku
##istit
##isenä
siirr
häntä
käyttää
##kilpailuissa
##mistä
##estaan
erityisesti
##liig
välillä
suos
poika
##istossa
##kauden
säh
histor
##kunn
##san
##inin
##teiden
liitty
##kseen
##zz
##enne
pari
ensi
##eng
opiskeli
takaisin
##0.0000
0–
saksa
lak
##äty
##tola
kuoli
##ise
pyh
avulla
##ikon
##sarjassa
pist
##lut
kier
000.
##kee
##jaksi
julkaisi
##go
0:00
valmista
ser
##miseen
##ivisi
##fa
kunin
##ensä
##okuussa
perustettiin
di
##cha
ent
##suomen
histori
##tiet
##ikkaa
jopa
edelleen
järjest
aikaan
##ens
saakka
##bor
##eria
##rak
##mällä
##jalle
tulee
ohjaa
##utuu
valmistui
##emmat
bra
##ott
##yör
sc
##ppi
##",
kilometriä
##nim
uudelleen
siellä
kohd
##koul
##une
tunnetaan
rauh
##tiön
##siin
inter
lain
##yllä
julk
sitten
suuri
sk
##gel
##oike
##astaan
##inti
##ith
aloit
##olin
##ros
##uoks
##lantila
##ministeri
han
##gn
mal
##into
hyökkä
kahden
enn
muiden
kur
je
##piir
su
kuitenkaan
saman
##ekka
##”.
puheen
pääsi
##rik
##ase
##miä
sul
geor
kaupung
oma
##ellisen
esiinty
##amm
(0000),
##olan
##denn
##kohta
##kea
##mässä
valtion
##ku
yhteensä
##istaan
arvi
##kään
jum
lon
perusti
huon
vahv
eur
onnist
ruo
vas
linn
will
##art
yhdysvalloissa
tekem
ven
asu
kierr
taas
##yä
jääkiekko
##ju
tila
##oh
##wn
##bi
##vil
##uni
##äkuussa
##jok
##miin
##evan
cup
hallit
##ore
##massa
ylä
lähet
##uvan
(0000).
uskon
kokona
##lu
##eta
##ustr
##uksella
##str
ras
peli
##istan
paa
##päiv
its
sähkö
##saar
työn
rock
albumi
saavutti
##jet
##mes
##aton
##yssä
##jö
ransk
##con
##bn
##ettua
kuului
tarv
taid
##ineen
(00
kirjailija
##ose
joukkueen
##kunta
##ttia
vak
##tem
##ood
##itaan
nelj
muodos
paras
ep
ajat
prons
omista
len
alun
joukko
00,0
aiemmin
##kär
##sarjan
sur
musiikk
km
erot
mik
kot
kansallis
##allaan
kunnan
samana
moottor
tote
sotil
väes
johon
eaa
miljoonaa
britti
##pen
uu
##ly
##uko
##ytti
teatter
aino
##ps
sarjan
vaati
##öö
nykyään
yliopiston
hah
kilpa
haa
eriko
##isoissa
##inne
avi
suorit
##aika
ava
chr
0000:
alkaen
harjoit
joutui
ilman
viisi
##ish
py
nimit
maala
##teja
filosof
entinen
rah
##alis
käyttöön
vara
myy
str
##ley
##von
näin
otti
##iha
##alaisia
##mää
takia
##ittain
merkittäv
urheil
##mun
pinta
##itin
##kaud
##ota
tapp
hava
tap
##eksan
##illaan
##ler
muse
fa
##kos
##uetta
##tei
##uttu
##ustaja
##nan
mc
niitä
näh
##ama
##sti
##euv
##ele
##opp
##koko
##luok
saap
##oihin
##ollisuus
##itann
##ivi
elin
hyväks
##oksella
kunta
##kien
con
##uc
##uul
##ump
##ate
mos
toiseksi
vuos
pitä
soit
turun
##vell
siin
##estari
taite
##aati
mak
##elmä
dem
##ettav
arkk
yksin
gu
##liit
##vallan
##iam
##sy
##järvi
ys
##sion
##utaan
ph
joten
##kerta
##okra
##gar
##tansa
##ile
nykyisin
dr
kell
katso
muutti
toiminut
##0-
##tit
##tiete
##imman
etel
##ister
##ettel
menesty
alan
##rid
##jouk
##aut
##fe
siinä
##jek
myötä
##uksissa
yllä
määrit
put
##|000
televisio
q
viera
##unsa
##uudesta
##itte
##emassa
yhteyd
##hms
piste
mit
mas
##istyö
menn
##tikk
##nyt
##elman
yhtä
/
jaks
opet
tunnettu
##ialaisissa
yhteis
kulttuur
##mien
##isuuden
pitää
muodost
##ysi
rik
julkaistu
##ilpail
oman
isbn
prosen
pois
kuningas
pohj
##ft
jälleen
tš
##otti
ruu
##kuv
kesä
liig
luonnon
kunnes
##kel
kuo
aluksi
varten
vaikut
kasvat
##palkinnon
von
perinte
##vuotiaan
##kke
##tajat
##kana
minkä
ty
dav
##ight
rakennus
albumin
muoto
suunnittel
##vuoden
keskusta
med
kitara
palkin
##mpö
enemmän
##voin
##tajana
##iri
mitta
kyse
viiden
##immat
pall
wil
##ght
tausta
##jaan
##mies
vuor
##usla
##tas
toimit
##vet
##olf
char
##alit
##sivat
##yhte
austr
kusta
hol
##ikassa
maailmansodan
num
uransa
tehty
##unk
enää
##llikk
bla
saira
##utun
##mieh
paul
ry
##tama
missä
we
tuol
##kesk
##istaa
##itt
##ron
##ilainen
wal
johti
kuusi
##etk
##meen
##haan
##aja
##usa
##ste
0000–0000,
tutki
tätä
0,
sor
##isuudessa
kuk
##ensa
yhteydessä
suor
ik
rool
##vien
kertoo
hak
presidentti
##eä
##ward
##-,
##lor
vaike
liitto
##ex
käsikirjoit
##altaan
##hy
##ottelussa
##istin
pes
puu
##tall
monet
nimeltä
##uksista
edusti
##ier
ben
kaar
piti
##ylän
pud
##ois
ev
##alia
##upuol
##pil
##eena
##ittäin
##jänä
fin
;
kaikk
##yhdist
kah
jään
helsing
##kus
ah
##int
lähellä
##evät
##ologi
bel
##öt
##ssin
##kirja
hui
##otus
##kom
romaan
kirjoitti
##”,
levy
hänellä
gra
##käri
tapaht
ohja
kohta
##rom
##allisesti
wor
##ryh
(0.
raa
huomatta
tarjo
cm
poli
##yhtye
##uilla
##ark
##ennus
##imon
cl
##vuotiaana
kolmas
##tävän
varsina
00,
##etin
##iver
yksity
konser
##kapp
eh
vastaa
kehittä
anti
##etun
lään
puolue
##kut
englannin
##ep
cor
af
toiminta
##sh
sotilas
synty
##ick
amp
tuotanto
##alaista
ham
##erg
alko
runko
##ya
opetta
york
##valmen
##uttiin
##aria
##kiä
##valla
vide
lyhy
seurak
liikk
keisar
col
eten
pysty
##vasti
##én
sotila
##öm
##uen
sop
varsin
pääkaupun
nhl
##inais
##mit
res
asem
##cord
lähti
perh
työskenteli
##osan
##eista
bro
yhteistyö
##liin
##tic
väk
siirrettiin
##inan
esiintyy
##istön
##isille
##essi
keskit
##attom
##ito
##ld
##uksiin
##uihin
lähte
tarkoittaa
tavoit
tra
##dor
seuran
hallinn
seuraavana
##koa
##akseen
radio
##ini
##äällä
laivaston
##ban
##vit
##tamalla
laaj
ottelua
tekn
=
naim
##utettiin
avar
perä
##tra
##ussi
##koulu
##kymmen
##rask
##ehd
##teessa
##ung
gen
perhe
syks
##teella
hir
asukka
hy
##läiset
##ittää
pelaaja
mall
##teeksi
##johtajana
vier
##che
##ath
##tional
.
ag
##ppan
ky
0–0
kuvaa
##ment
sään
##ant
metal
000-
##imet
alkuperä
##tava
kanta
##ica
##umen
go
ottelussa
teoks
liittyi
löyd
markkin
##ib
##itan
##essään
*00.
elokuvassa
vaikutta
sisältää
##hun
varha
aikais
kuninka
kum
##äärä
yliopisto
##ottu
##mann
lah
muka
jatkoi
0-
yhteisk
##paikka
poik
cr
esiintyi
lopulla
##tär
mod
ajo
##hde
rä
##oston
##ald
hank
##iväl
kirjallis
hänelle
##alo
olleet
riipp
##tian
sosia
valti
voivat
##uttua
##zin
##istus
kappaleen
juuri
##pill
##tely
##kkää
##ash
##jää
komen
iso
kenra
##ander
##olo
talv
##joukk
kesken
aset
tall
pä
taka
##ttä
##ds
rakennettiin
##ykset
##ji
##ikot
ex
viid
puut
##lev
air
käytössä
marrask
##iltä
##oksia
##gon
##we
##sonin
##ingin
##teri
##yyt
lasten
päätti
divisi
##keä
yritys
käytetty
fo
sisäll
valmen
korkea
war
jalkapalloilija
##asema
##joiden
menet
##uli
##ummut
prosenttia
ympäristö
syv
tehtiin
pop
##sil
##vuotia
bur
##äkö
##istettiin
##ampi
tuolloin
pla
##taminen
##ynyt
aikaa
aiheutta
##albumi
hieman
vaale
##tis
pääasi
metr
käytti
kuuluvat
tietok
kappaletta
##innä
##sian
##heim
##yden
artikk
perustettu
tuho
tavall
wa
##enin
record
neli
##ves
##palvel
tri
##za
jout
##öll
##ner
tammikuussa
##impia
päätö
des
##ivo
##kojen
ac
##uransa
tapahtu
neuvostoliiton
terve
rang
kesällä
pikk
mestaruuden
##imatta
laulaja
##onaan
##ec
super
maailmanmestar
voitto
ettei
holl
seitsemän
vol
matka
harr
##pro
oleva
hänestä
kö
##.)
##uan
##ws
##ölj
##opper
##iks
##paik
syy
##teeseen
hopeaa
valtio
##''),
##elit
##anne
luku
lähinnä
järven
##mu
kanad
##emmist
arkkit
yhtiö
kilometrin
##ilijä
##tajaksi
##uoto
##uksensa
tans
##imaan
stan
##äsk
00–00
suuren
##joukkueessa
pl
ensin
osan
##hon
suomalais
##sien
##bin
nämä
pidetään
edell
pom
##pur
##isistä
##jun
##iel
jan
huolimatta
##kal
##mästä
nat
##itannian
täys
professori
elämän
##ollinen
##vak
yhdysval
##chael
kitar
syd
##umo
luov
##burg
tästä
kolmen
pelin
##vuot
arvo
mann
##östä
käy
yliopistossa
##yyden
##elli
##irja
##dion
##ksiä
##itystä
pen
ga
kultaa
##sal
rich
##ija
kerr
single
rakennettu
kausi
studio
tyypill
##uman
uk
##haa
##attor
kymmenen
##koma
id
ros
kävi
väit
##tyne
##uuksia
##ispa
##äytteli
osaval
poliitt
##ze
nous
##ettom
##venä
ensimmäiset
runsa
##dy
kri
##allista
##ppo
edustaa
##väen
##tämään
sve
##ora
hev
##joki
##illeen
mosko
tutkimus
##'').
del
00,00
##rian
##amaan
##uutala
##teki
ilmestyi
##yksiä
##–000
od
doll
##läh
tällä
siten
##maal
vaal
mahdollis
##ikunta
##ome
##ux
##ame
##anen
0000).
alkaa
englantila
##ehto
##eltu
kiinn
##ival
##jetta
##ice
##cup
koulu
koulut
saivat
##enttä
##kisoissa
asukasta
tyt
puolestaan
robert
david
##ellaan
turna
##iken
lehti
professor
koost
suomi
##ric
pil
##alueen
tampereen
antoi
##mb
##olymp
kaudeksi
kahdeksan
##koulun
pieni
(000
##ellisesti
yhten
carl
##rich
mitä
versio
kulta
##umin
venäj
lämpö
##ppa
laps
mun
verk
ensimmäistä
sanom
##uod
##asem
mennessä
pituus
##ustel
ainoa
##ttu
ilmoitti
ulkoma
italian
##joja
(,
muodosta
saksalainen
##poh
##osten
world
armeijan
##are
##uteen
##uran
rummut
##elokuva
##älle
##uno
##uel
rajoit
isänsä
##vän
loh
hauta
##vallis
##pl
ystäv
##juh
you
##omi
##sivät
lehd
bi
sijaan
neliö
harv
##laa
suojel
##uusta
kokoon
##old
jätti
##osassa
bal
pronssia
kaikkien
##musi
##vasta
bl
käytettiin
päättyi
##mäki
kali
tah
läpi
tv
naisten
poikke
##wer
erittäin
##kur
gar
pääs
hallituksen
##neksi
##hel
##hä
kaupungissa
##kkö
joko
##temmin
00.0.0000
##oth
##kausi
sir
nimitettiin
tas
##dr
##win
sijaitseva
ohjel
iii
puolustus
##umaan
olemassa
##ppu
##eihin
tehnyt
##elokuvat
##kila
kohti
aktiiv
kuuluva
maahan
kasvaa
laji
lopussa
ensimmäisenä
##lad
##..
im
vuosien
##puh
##ilu
eg
##tavat
kall
##rann
##yrit
##ruot
##joita
veden
##untaan
laul
käytänn
##äyttö
##sili
seurauksena
##cen
perusteella
tö
joskus
keväällä
my
fre
##järv
0,00
puolueen
##pak
##työ
kommun
saad
ren
hyvä
ratkais
##yll
kem
parhaan
##tunut
hallitsi
alusta
##lam
ansi
help
saada
sosi
##saks
käytet
myyn
##miseksi
isk
##ckin
##dyn
isä
##kit
##ily
##uki
##oita
lähe
##ytyi
william
##lask
raja
angel
lat
##eren
##kol
ainoastaan
pir
##luokan
##vara
pri
siirty
š
venälä
james
##inaal
joulukuussa
joilla
aj
mad
juon
##ctor
puoliväl
##fin
##yyl
##aal
kone
järjestel
##ipi
##ford
##eltaan
##elmia
hil
prin
ainakin
viet
##jul
##tonin
poliitikko
michael
##yväsk
##tol
sosiaal
##orn
perustuu
tullut
sano
##tetaan
##ttö
tem
##emman
hallitus
##etut
##kari
karj
nais
nopeasti
saavutta
##ologian
##önä
auto
##iteen
suosit
win
varr
##immä
kirk
##kad
sopimuksen
hävisi
##uti
##uth
samaan
sittemmin
väestö
##uudet
historian
##ii
##yyttä
ravin
##veli
nimen
tiete
##päin
pot
näiden
wh
##estin
plan
##mentti
kokonaan
##mur
täyt
toisin
##löin
luonn
basso
tällöin
yhä
##uuten
##oton
##aran
nuorten
meren
##tuus
syksyllä
saaren
aluksen
##laulu
jalkapallo
viimeinen
polt
päivänä
itsenä
lam
suunn
##unnassa
##terin
##odassa
tehdä
##idi
##mär
black
star
suomeen
##ektr
aja
##ings
##telem
##eissa
viip
esitti
piisp
miesten
##eltiin
lokakuussa
kirjan
kartan
##igh
##ska
pelannut
johann
##stit
yhdeks
toukokuussa
roman
nyt
gre
sala
suomalaisen
##ipall
niistä
##kiv
parla
juutala
##pah
maaliskuussa
art
tilan
rek
inn
##jista
##mas
##peli
arvos
ong
marraskuussa
##ellään
##ami
usko
##com
ammatti
melko
tyk
helsingissä
palk
saksassa
##uneen
jaka
##idin
##stö
kokonais
##ivers
täysin
fred
ranta
##iota
deby
myr
pääasiassa
##meren
##sto
##ulan
der
##ond
turk
pas
nimensä
##luvulta
##teena
elokuussa
thom
##su
vastusta
lakka
##ittaa
ydin
taloud
##koja
##olta
##wood
##mentin
lopet
rad
kreikk
##malla
maalia
##rien
##taneet
johtaja
##iini
##oitu
voimakka
##alist
##orin
hed
ran
##uunnit
toh
kim
olympialaisissa
##tamista
##oitus
##onia
musiikki
***
##net
tampere
jotta
##uneet
##ppä
lisää
vaihe
kansaned
bud
kamp
jyväsk
tässä
##yo
pap
##cks
tava
kutsutaan
##ellen
##bergin
##chen
##tut
##isteli
talous
##isissä
##ankumo
##yhtyeen
seurasi
##uotan
ek
kuningask
##ittäjä
espanjan
##chin
helmikuussa
jonkin
risti
##änyt
osaa
##yörä
kaiv
don
##ling
##immista
luot
##isyys
välit
pre
päivän
vanha
##teitä
##imä
##kaus
##ellyt
erilaisia
brit
koir
oulun
sella
organ
far
aur
##empien
##järjestö
##kons
toista
naa
##huon
kats
lonto
##ere
##ikunnan
##paan
##00)
##ous
##telu
osoit
kuljet
kieltä
##nä
sav
kad
##ret
voittanut
##ata
kokem
##itar
##ardin
bor
##siv
##pelit
jälj
##ap
qu
olleen
##kuva
can
pun
##iassa
kuor
tytär
otettiin
luom
##lainen
lista
##ilaiset
##ars
uusia
yksilö
##kautta
##imin
alex
amerikk
edusk
##pain
syyskuussa
brittiläinen
ölj
##okset
kasvo
koskaan
##ukan
kilpaili
nik
sarjassa
ottelun
##iro
ase
##tug
##ont
ved
kolmanneksi
##irin
mäk
##ilin
martin
peter
##opimuksen
##issaan
päivä
ohella
kesäkuussa
uutta
puolusta
paran
dig
##gor
##rans
##illan
##kuu
hö
##onnan
fc
##tamassa
##tain
##ottiin
##eth
myön
alankoma
mus
lenn
##ikkaan
syyt
heinäkuussa
aine
puheenjohtaja
kielen
japanin
alla
tu
britannian
los
hämeen
muusi
##kilomet
muuto
##gra
##bb
monia
hot
ruotsalainen
lind
mahdollista
tukhol
matti
##sp
##án
##toista
rus
pos
siirto
laskettiin
heti
##iaika
luokit
##ellin
suoraan
ennäty
oikeus
kaks
##ius
##que
vetä
kehitys
aikaisemmin
##skin
vaihto
#"
yhdysvallat
##tekijä
minuut
huhtikuussa
##sassa
##mäen
alueelle
riste
rautatie
tähän
ist
kulk
lau
##manin
(0000,
##ukkaan
##tamatta
##edia
##tamisen
paikka
##eld
juoks
##otta
##esiin
##tekij
auton
##toihin
oopper
loppuun
hallinto
bill
jose
##joissa
##asin
##cy
asui
##telev
##.''
##koh
isra
maalin
##teissa
##mital
##syn
kapteen
red
yhtiön
##des
avaruus
ym
form
##allisia
asema
tuu
huu
##tim
laajen
hahmo
##ekin
##kku
##ble
##itos
##innin
valokuv
##ennettiin
##ioita
##käyn
ranskalainen
richard
kulttuuri
antaa
som
##lass
lintu
##ikolla
##utunut
##gu
##frikan
##yksessä
kauppa
##hah
pidettiin
##oille
jääkäri
##rat
##ioon
pohja
ilmoit
##istuksen
##immillaan
##tv
korva
silloin
##ure
erill
##tonsa
esittä
du
##isuutta
hoit
ind
love
neliökilomet
vaihd
##etä
pans
##itto
egyp
##opa
menes
lyö
merkittävä
nuo
##ellut
##urheil
tarko
tavataan
##ican
##osissa
##okas
toimitus
##ugh
ihmisen
kristi
energ
sup
uskonn
kaikkiaan
##dennäkö
etenkin
jar
##suo
##istää
meni
virka
##ky
##isari
george
cupin
##00.0000
sata
palj
syr
##can
johan
0.00
ryhmä
##moottor
##inten
jun
##ettyä
kulkee
##utu
niem
iv
säänn
##tš
all
metall
##misestä
##tias
järjestettiin
kilpailun
##ene
taaja
pika
##arvo
kup
kylän
jatko
jer
##ski
kiinan
##uvun
##äri
säveltä
##port
##akko
pah
000,
##eensa
##dem
##ator
kerä
##katol
tarkoitus
##kappale
##bar
saattaa
arvon
rod
aal
##ney
luettel
##kää
lentokon
##ony
##ykseen
hann
##sille
ensimmäisessä
toisessa
##alliset
laivasto
maria
##erinä
erosi
##eissä
kuoleman
kunnassa
##kielinen
lajin
sod
##hu
tunnetu
hit
##ison
kro
ammattila
##ottelua
portug
osuus
paikallis
ukra
##äkseen
neuvosto
##vaih
tavoin
##empaa
##sch
##oria
##isilla
juni
vallankumo
##tamiseen
nykyisen
gro
##right
lan
molemmat
##llikkö
##jev
##iska
vähen
##niassa
aar
##cin
##emin
euroopassa
musiikin
##katem
##vassa
yhtenä
bu
##joukkueen
työväen
##cke
teos
##euroop
##teh
##ever
##tul
##ild
##pet
berliin
hyökkää
haud
sijalle
hom
karl
bir
onnistui
##0,
tapahtum
katol
mill
ide
franc
teoksen
##ass
tom
##kans
##neuv
##put
##tynä
kiinnit
##yyli
##istettu
jääkiekkoilija
##estään
ruotsissa
##tilla
suunnitteli
brasili
##vaan
##emies
##jojen
olympiavoit
slo
##vattiin
##äärin
##tos
kg
grand
kalifor
pitkään
hur
johto
vaka
kieli
##hist
##yhtiön
##jansa
##juoks
##bs
##joona
kruun
heng
##aren
etsi
##ikkoa
##olainen
ominais
##bra
ylioppil
##empia
neljäs
maatalo
yritti
ger
##mansa
mag
##tied
##bl
##tue
##oiden
vanho
vaikutus
##ey
##my
##istään
+
johdolla
##asan
##tasolla
##af
ensimmäisellä
syntynyt
000–000
presidentin
##kön
##vuotiaiden
##hope
materia
##teista
euro
väestön
yö
jäsenet
##isivat
##luku
dis
näkö
yhdeksän
##elan
##sv
pysä
tempp
mac
puuta
##tieteen
kasva
##ettuna
selvi
varust
##fl
toiv
##allin
ansiosta
##ellus
eniten
todennäkö
sho
siis
##neet
dan
järvi
##ruots
sair
liitettiin
##cel
heim
##urn
suoritti
##uinen
##erkki
##alueella
vang
näistä
##ism
##ilan
avioliit
##over
##uutnan
omist
saapui
'
ram
##imaa
toiminn
##uutensa
päässä
pyrki
talon
##ct
vin
aat
kosket
uus
georg
matkusta
##yysi
käänn
##hyö
arab
järv
##uke
maassa
koripall
magn
runsaasti
##astus
tapaa
##ah
##if
##kuun
erään
##orian
aug
antti
##ón
hu
##kap
elektr
vuoro
##lannissa
asio
mielen
##zer
##tiksi
elämä
puolella
##ollisen
todell
saari
##omaan
formula
alkoivat
säveltäjä
liian
oikeuden
##utettu
soitti
##wan
voima
yliopist
cha
päivää
ympäri
##uurin
##vaik
kaat
keskim
##iton
##kr
##vaale
finland
palveli
anna
suunta
omaa
##kes
lukuun
##intaan
taide
verr
##hän
##teesta
asuin
vastaav
nimeltään
psy
##tod
sum
tyttö
ollessa
frank
##ng
##yne
sama
vaim
olympiamital
##udet
asian
##0:
charles
ark
hor
blu
koostuu
##palkinto
henkilökohta
##ettava
records
myönn
pudotus
##chi
##poika
uut
taistelu
##luk
ero
sisälliss
armeija
##kaudella
##sson
lähtö
tähd
##ättiin
##etyn
music
tarkas
varsinkin
vihre
koiv
##yli
käynn
jumal
pohjan
varrella
johtaa
pääosin
toimivat
##tyneet
päätteeksi
##seer
##mättö
##ilijan
dia
##sis
##karin
##ston
##nia
lääke
##jäsen
##.,
jatkos
##aama
päävalmen
kl
toisa
##voimien
herät
##taljoon
liikenn
manner
##ympär
andre
parhaiten
##attuna
järjestä
sok
##yöh
kel
keskustel
ihmistä
##hte
##isteri
tör
elää
##pelaaja
sena
##fil
oscar
rata
tro
(0000-0000
osti
kapin
keisari
kierroksella
##ole
##ikasta
##ström
sub
joukkueessa
yor
espanj
##alian
päästä
##ismin
##masta
##tuivat
kis
##soy
##way
##eskus
seud
musiik
##kylä
tapahtui
hetk
##elmien
##del
louna
demokra
##tajan
maanvil
lajia
kaas
ottamatta
verran
##vik
000-000
##–00.
aurin
sijaitsevat
0-0
##alleen
##kilpailussa
kop
,
##oltaan
##eetti
rinn
##cher
vallan
jazz
hiih
cas
kannat
##intään
##utusta
reh
oper
täy
itsensä
##hal
##pat
##istien
##/0000
halusi
kiinte
opiskel
cam
tekee
##nor
den
max
karsin
koulun
trans
yleisesti
jean
ajoi
##ow
aikojen
##lahden
järjestö
##tonen
##ologia
pros
##elmat
##ismi
##joista
kertoi
vaar
sijaitsi
taistelussa
huomattavasti
mika
##idem
##ster
cla
##äli
lum
##oitiin
##osla
##ottaa
mestaruus
##/00
massa
mitään
venäjällä
##teatter
neliökilometriä
##järjestelmä
esittää
sukup
alettiin
##ult
##ehta
palaa
ulkopuol
atlan
avoim
##ejä
vanhemmat
erä
##helm
ehkä
vähän
yksinkerta
vanhan
isän
univers
##vian
evan
rin
kreikan
##lie
anton
lapsen
koto
rauhan
##henkilö
haasta
##iki
##ün
##illään
##tuen
toisaalta
ilmesty
pekka
##ottom
##tuvat
##ikkoja
kesäolymp
kelta
##ippak
fysi
##isuuteen
ykk
pie
##)''
tieto
historia
##fo
krit
maailmancup
hoita
kuolemaan
##itara
tien
laske
singl
divisioon
##bel
maks
australi
päätoim
vuosittain
nur
tutkin
##tyään
ilmi
##kerr
##ltä
##impi
union
pistettä
ymmär
kolmannen
##pun
ottaa
tasavallan
tanssi
suosi
##tille
##öitä
##misesta
sijaitsev
joukot
##okk
kyk
tosin
##ram
sisar
alas
##mestari
pelipaik
tot
##ac
mukaisesti
##ilaisen
##aansa
norjan
fe
vankil
##tavan
pieta
##täneet
yksityis
saatiin
lih
##tro
ranskassa
##vuotias
kaakko
##ington
inti
käytännössä
##omin
##+00
##gentiin
##onan
##immät
sw
##fek
euroopp
##ityksen
piispa
rooman
å
sha
##aaksi
metrillä
kuun
kustann
siksi
palat
niissä
##aj
gi
ollen
tie
##ovin
##ipuol
##iaat
sisällä
##tys
##ööri
##anda
palvelukseen
dok
##liigassa
##änen
##inut
##aseen
##isiksi
##utuvat
reak
tark
mä
ihmisten
##llik
teollisuus
liber
suosittu
kiinnost
pelipaikaltaan
suhte
veljen
##hat
##="
läänin
vuosikymmen
##eder
tyr
kuvan
sak
kuninkaan
valtakunnan
##yksestä
##arit
gam
miehen
ork
kari
toimitta
##0)
##sel
##kset
jyr
imp
##ute
##kein
##'':
vuok
suoja
##saan
aiheuttaa
toimintaa
fri
ns
numer
pääkaupunki
##isla
meksi
nauh
##sää
eta
gal
tarpe
sto
##ilo
nic
##jille
pääty
live
##istina
luu
kaksin
muista
##lehden
##eksen
näkem
##ei
koill
runo
##vd
##istum
tärkeä
##kkos
lasta
äiti
##alus
hyl
sim
##sissa
wsoy
kansainvälinen
lyhyt
##gas
##kinä
##kejä
##!!
##liigan
peräisin
##ollisuuden
rive
naimisissa
##tala
sys
thomas
##ind
##elmassa
gusta
turvallis
maksa
##ety
eräs
##erit
projek
äär
##jeli
mita
##ben
sanoit
nykyinen
##ilev
)
##ool
##ilä
##atto
(”
##insa
linja
kasvoi
lopull
organis
##alassa
##ihla
tähti
##äntö
nimeä
anim
##ati
##tyneen
epäonn
ket
radi
##ano
##ingon
tuon
tyttä
samassa
##tuaan
city
kappaleet
myytiin
ateen
erikois
keskeiset
##ited
riit
tavalla
##ajan
heikki
samoin
##vih
##cia
##cl
##istui
cal
kokoonpan
##ekni
filosofian
kauh
aleks
väkil
##xin
synn
##aation
ajalla
naimisiin
##ysta
##keelle
flor
leve
##oph
kuiv
sävell
##ettuja
##gg
##itz
##rus
##tanen
pelk
##ement
useimm
esiintynyt
oppila
yrityksen
puheenjohtajana
##uaal
##ez
##cus
##yttää
ruoka
kysym
##tisen
##jar
suuria
##col
##tasa
##italia
kansalais
kärsi
##star
asun
asuu
nähd
eteen
##national
##ennäty
##upuolella
##län
##eilla
laus
lisään
terr
##idon
##):
englantilainen
vaikutti
kunnia
yhdysvaltojen
näkyv
kristill
toisella
##die
##oo
pyö
valitsi
artikkelit
dar
king
cd
tapaan
##telussa
valm
##torin
out
##lon
espo
jack
##ets
##see
##tilan
bol
mestari
alkua
yr
##ttiin
tuleva
##este
tšek
##ituksen
##ogra
tälla
bon
##ksessä
##omaa
lähetti
kalli
viran
##junta
viittaa
seuraavan
tyyl
("
##otto
##ukselle
##lää
onkin
##ettävä
levyn
##tions
##ple
neljänneksi
ympärö
pelaajat
##isiv
hajo
italialainen
##oper
##issi
*0000:
##ettuaan
sentti
rev
harvina
testa
##ilun
##allisten
##astaa
englan
skot
verta
heidät
valmistunut
lahden
toimittaja
##eminen
gran
##impiä
hill
##utensa
##äisyys
kohtaan
##uksien
kemi
maata
##sut
ilme
latin
orkester
##divisi
##yön
##+00=
pienen
by
tekni
##tävissä
mich
osana
johannes
kaiken
hävittä
kaikke
##uttuaan
kuopi
kannatta
##okseen
muodostaa
toi
##ris
brittilä
maalaisk
toiminnan
tiedon
kuolem
##miel
##pallon
paikalle
##yan
politi
tuki
##amerikan
lehden
##nuor
##lta
##ihi
bak
son
rakas
asukas
sn
##ylle
##isyyd
saadaan
bern
##alaisessa
euroa
ohjaama
##eht
##useo
arkkitehti
##ush
##iltansa
osittain
##ies
rinta
##ake
##jään
colle
stor
##tena
jääkär
pudotuspel
les
##prons
##ikoko
##työn
cen
pohjalta
velj
saarella
##ped
dip
jän
heitä
eläk
##uessa
##seul
suu
viita
##eton
##ition
##tuun
dani
suol
muutaman
##lehd
##lehti
itselleen
pek
vie
##ream
##ville
sinne
##vää
gp
##jaks
##inter
piirin
esitettiin
##uvia
näitä
laaks
##uvaa
nok
tavallisesti
juur
##cer
##uhtin
ykkös
komppan
maailmansodassa
symb
finaal
johtajana
mahdollisesti
tum
ang
##voima
##istys
aivan
provin
joseph
osaksi
##."
kiinni
esitetty
kylässä
pyör
##annim
##seulonnan
##pitä
amm
##mor
painos
ryhmän
rekister
##ympäristö
##teisiin
kek
##jalka
##itinsä
##dam
##tiv
mut
kotima
##kilpailut
täyd
lapp
luop
fos
suurimman
##itoksen
tuntem
argentiin
##ynä
##vär
##utua
lapsi
##katu
##ulin
kriit
tilalle
välttä
0.0.0000
pra
työskenn
venäläinen
##pään
hiil
liike
pitkin
sun
kuulu
##intar
##ukseksi
##laula
bul
olet
##pist
saattoi
nord
##emaal
##fer
bre
kanadan
perheen
glo
tuotti
##uutnantti
laskee
huipp
ulos
hon
dev
osoitta
##llikkönä
##ich
##perin
##pon
##illisen
loppuot
##jäl
mikäli
##yksellä
##ustin
pitkän
entisen
lopetti
sisään
##iltään
tunnus
antiikin
henrik
perustusla
##ean
ps
toiseen
vesi
taustalaulu
julkaist
##intaa
0000-0000.
menetti
##killä
normaal
##ning
##kov
##oman
nos
##wor
apula
raamat
mistä
##yer
lit
asia
##ater
##tilo
laati
kid
##nessä
saatu
liiton
pääministeri
jussi
##kossa
tunnettiin
##sit
runkosarja
##-0.
läp
mot
##bon
chic
sisällissodan
urallaan
kilpailussa
kuukauden
##lund
viron
vihittiin
##ür
pieniä
##andin
välissä
##kasv
louis
##eeseen
nimetty
sig
tietoa
tarkoituksena
##hopeaa
francis
kenraali
##hoit
aiku
ahl
##talon
jumalan
##äkkä
##keskus
##rad
##bu
rita
##alaiseen
##ikkeen
ajoit
##hdas
milj
ihmis
pelissä
lukuisia
laulun
##")
##ttien
##ago
muusikko
##kis
maasto
evers
##utuivat
tup
compan
vapaaehto
##piste
arkki
paino
viesti
##vas
piispaksi
yksittä
haj
ly
kaupunkiin
##innut
sivi
teksti
liikenne
##onta
##idemokra
henkeä
saatav
ill
hahm
##tiossa
##ekseen
juha
saint
kunnallis
##ipal
##iok
##opäiv
##uttamaan
taidemaal
pysyv
##ette
##tus
lud
##ointi
##oitsi
##ello
##anssi
blo
vaikuttaa
##mö
with
##uer
##sing
kam
tok
tenn
tuottaja
##seura
##dt
sana
useissa
anta
##yhdistys
viljel
ten
spe
joukku
tilann
mikk
puolesta
##res
lang
roy
##ding
dollaria
modern
ottelu
000:
##aleja
##ästään
##ivoim
timo
##tyivät
vuodessa
ranga
##nes
##pelaa
palkinto
##kier
seikka
elokuvissa
##opol
ranska
##lassi
roomalais
##itu
kiso
west
kau
##unt
raska
kahteen
sand
ulkopuolella
##iemen
mikko
##perä
##unen
dra
##iinin
lähi
lapin
piiri
auk
bab
##esiinty
löydetty
##raa
musiikkia
##king
muina
putosi
loukkaan
##mättä
##tero
##teinen
##:0000
pyhä
koke
##sky
vien
kenraal
heik
seuraavat
##ellusven
kuvern
tunnetuksi
##itanniassa
fal
muistuttaa
eläin
rap
jukka
##isinä
pidetty
##puna
pyhän
##ilipp
näytelmä
virta
##00,
vanhin
##juoksi
muutettiin
##ikseen
onnettom
##hoita
##sc
0''
national
het
lähetys
varaus
verkko
##politi
junior
pääminist
##iltaan
##kiso
''(
##linnan
##päivä
##ilijät
##mod
##ikir
##täviä
taiv
night
jotkut
##ivide
##aken
##omo
##maalla
tehokka
paper
##immaksi
pohjoisma
kaupp
kuljetta
##mark
##itiete
yleinen
##kilpailun
##akir
äitinsä
matema
##laan
##mal
##kaar
##ittaja
intiaan
nimettiin
##kirj
##attori
##elius
##untaa
joukossa
tuul
sieltä
##jum
edeltä
##kunnassa
pidät
##kina
!!
##vis
anal
##tamisesta
ali
tulisi
ilmestynyt
sille
##jin
kuuden
viikon
##juhl
urhe
vanke
##ettavaksi
pohjoisessa
keksi
edel
poikansa
kumm
talvi
##evä
siiv
instit
olympi
tour
hyvän
##oksessa
liittyy
viipurin
ret
videop
välinen
##eitä
wash
##ehen
##dia
yleisö
yrittää
##itoista
korkein
ihmiset
kaun
##valtuus
##isem
odot
##ineet
kahdesti
##zen
##ikenne
fl
##immin
##elliset
##itetty
##koulussa
##fred
dipl
sov
##order
##öiden
välim
karjalan
##puolueen
##-00000
samannim
viides
##onnut
##taite
moskovan
##akenn
##urg
##aasi
mont
mets
joki
sovel
studioalbumi
vähä
hiippak
smith
pul
##istoa
puolan
kang
arvostel
##oitui
0–0.
kehitti
matkalla
tapahtuu
syöttö
##ria
##kinen
##ova
telak
viimeisen
##armei
tutk
pariisin
valuma
##örssin
##tein
versi
vik
##fon
gab
##utkin
kosketins
kansanedustaja
erityisen
esiko
##udella
##ikat
##jina
##usin
##ottelu
kirjoittanut
terveys
##anna
kitaristi
app
##elmän
##gaan
##tymä
##äll
##paino
intian
tunnetuin
ob
##ytys
##alista
miten
senttimet
from
sot
##–0
##opetta
hankk
kuuluivat
##jiä
##turna
eu
##till
kertom
muodosti
muissa
verrattuna
professorit
##taen
ruotsi
##katemian
tuottaa
##tamat
avattiin
australian
hans
##iemi
kyseessä
##itš
kn
##enee
avaus
vuosis
kuus
##isina
##ppää
##udessa
mys
##oksesta
gall
##tyypp
##00-
ikä
kisoissa
pinn
##iz
paitsi
toimintansa
muodostuu
kenn
sall
##luvulle
muistutta
ö
green
##ustivat
sö
##tiä
piirik
##eessa
hell
##avi
nikola
##isso
##usto
sillo
aurinko
##vist
##eb
##cea
luv
liigan
koulutus
##mitta
##raken
seinä
kotoisin
##jäyt
##viin
kuinka
##sarjaan
vietti
##saaren
jälkim
jyväskylän
##ikuv
##tyvät
happ
klass
##pes
reser
—
maj
tyh
##istot
##ekan
##ilee
linna
naapur
##well
##annin
pietar
##ywood
rump
##britti
##julkais
##bot
kerro
saksalais
sydän
nov
##sun
joihin
finn
puutar
meri
##kappal
##dard
suurta
##taljoona
gol
sukupol
paremmin
##koti
sad
vastasi
paikalla
##ittel
paiko
jonne
##+0
##alissa
##yksikkö
pö
pyrit
dom
selvästi
##levy
bea
adam
##tet
##verk
numero
ihmisiä
aiheutti
##ivaa
##määr
allekirjoit
##evi
alkuperäinen
kape
afrikan
##odin
kirjasto
##atojen
aleksand
pienempi
##ransk
höyr
##toivat
mic
##cc
alkan
museo
työntekij
##etoim
##ary
##ulo
lut
mes
##utuksen
arkkipi
suku
runoilija
##bat
##jala
##käs
kuuluis
vähintään
##fen
##ustan
aikoihin
perustaja
##joneuv
##eteen
parhaimmillaan
##itiiv
##käyttö
##valko
erää
edward
lee
##ohjel
##belin
##öksi
##yöhyk
alt
##oittimet
muuttui
##puisto
jatkaa
hevos
väkiv
rannalla
pok
aleksan
##opin
perustivat
muodostavat
jäsenenä
opetus
##umero
uran
ilta
veli
siemen
##kaisi
##innon
virtaa
##iaa
##lit
ortod
ris
##almen
##atar
henry
sound
palkinnon
fi
##borg
##alu
##ikkaus
löytyy
##idan
laaja
##__
##zan
##iina
##tävää
##yneen
rot
löytää
##vaksi
##ttyä
island
##järjestelmän
käyd
muutamia
fer
sid
##jas
saaneet
##luvuilla
rikko
gö
syl
laukais
maiden
##gh
##bas
osin
helposti
muihin
päälle
##rock
aatel
joens
##emmistö
japanissa
musiikkivide
män
##ai
##olu
olevat
keskellä
vaimonsa
##pla
fla
##yivät
edustus
liikke
seri
palkittiin
tehoilla
##osken
##ato
nimet
##rakenn
puolet
##gren
##utkim
seurakunta
##osuh
hum
lemp
norj
##saksalaiset
##cr
##eltään
##taneen
award
ehdot
maissa
pin
##muoto
itär
##liiton
##alien
##ign
##lista
##seja
##gol
angeles
##uvasti
##eille
koneen
##illi
##ksia
kello
##itetaan
##fan
ron
blues
hyödyn
kuulunut
##mak
##yhteis
##bal
joukkoon
päin
sukupuol
##iren
##row
kyt
show
##umista
##aminen
##fia
sveitsi
veljensä
kiek
äl
kansainvälisen
##mäksi
##mestaruus
club
noud
väkiluku
halu
##yttiin
##ilman
jatka
##kola
##war
malli
suurempi
israel
##tunn
jälkimmä
ton
##attisen
##sak
##mpi
##oksena
##helsin
##taljoonan
otto
juoksi
christ
porvo
##oona
##ved
##vana
vaiheessa
kiell
##iryh
liiga
nar
##oikeuden
##oke
suv
auringon
##kultaa
virallisesti
takana
##istunut
##ket
alkohol
lämm
##taso
lontoon
##ihte
suhteen
maajoukkueessa
##ors
joutuu
sukellusven
kanadalainen
##cker
tavar
##urhe
leon
sula
rem
wien
prot
##stan
##telija
studi
##puolue
saavat
hämä
##mestaruuden
myi
daniel
##ters
##önen
##ollisia
##ation
kansakoulu
##med
menestyks
ru
##mos
lipp
aiv
pelat
jug
yhdiste
sanoi
##eron
##itoim
##uskon
hetkellä
##ohjaaja
tol
tarkoitettu
00.00.0000
##illinen
tekemään
##ineiden
##imiä
##tiikan
##yös
porin
##pohjan
##aseman
joukkojen
##uunta
##vissa
vähemmän
aloitettiin
##tina
ut
mukaansa
kappaleita
korkeus
##vig
##käyt
##oski
##vuosi
luul
reun
gir
##urs
tarin
ilmeisesti
##kainen
säte
yleisurheil
##iksen
toisista
##ikana
mielestä
##usen
za
##siir
kutsuttiin
viest
kirjassa
##lim
monissa
##fors
##hard
##holm
kilpailu
lontoossa
maasta
penn
##elämän
##astian
##pronssia
julkaissut
arke
laat
puolivälissä
##dal
norma
paks
keskuudessa
hyökkäys
##aste
pelattiin
##fel
funk
hautaus
rep
poliisi
tohtori
##konen
##vuor
°
##versio
berg
etelässä
kapteeni
##kilä
kunni
teem
tim
ban
todennäköisesti
lähtee
##ade
liiken
rekisterö
##eksä
##yrkke
siip
##tantin
##uuhun
naar
##field
##siiv
##tai
##veden
polttoa
##ilpailussa
venäjä
kahdesta
##istetaan
säilynyt
johdosta
papp
papit
##assaan
pojan
aseman
##eto
##cal
ohjaaja
##svg
tarvitta
##iman
##brittiläiset
international
edes
suomalaiset
voiton
##emisen
tanskan
pesä
##kentä
useiden
nouss
luosta
##dows
kukk
##pallo
victor
kohdalla
##joella
vill
##gressi
(0:
rav
##tiota
tehta
lup
näyttelijät
ant
taistelun
##ikkansa
##low
ulot
kahdek
yk
##attinen
##år
tehop
monien
saavuttanut
0)
valtakunn
##umi
##yse
##ostui
vakuut
ohjelmist
ympäria
##viis
jako
viranoma
juo
##ubli
muuten
tietokone
albert
väestönlask
##adan
##tunti
välier
itseään
romaani
joen
gl
##idassa
alkunsa
suomenkiel
lentoasema
maase
kakkos
hyd
jur
##ollisesti
##hn
minuuttia
tyttären
##utuneet
##ministeriön
radan
silta
miljoonan
puoli
gri
##hahmo
##urna
kra
yhteiskunn
##määrä
##ckey
##ical
silti
tehtävä
patri
soolo
nig
myyd
jor
jacks
##saari
ahven
televisiosar
maakunta
##ellista
linnan
##ikas
×
##umisen
luokan
debytoi
merkitys
kuningaskunnan
luettelo
##divisioon
toisistaan
vesistö
##sol
tait
keino
sovit
ammattilais
die
vaalipi
tuloksella
##näyt
##suojel
menestys
##astossa
##vaihe
leveä
toimintaan
internet
soci
unkar
tw
##aman
jees
##pelin
kuudenn
kuukautta
##paikan
tulivat
pariisissa
tilo
tekivät
voisi
kustan
toimia
##eistä
##hr
##lento
valmi
##sten
##auto
ze
kappaleesta
##mus
if
tansk
pohjoiseen
bob
huomiota
##luo
muuttaa
##essin
oppil
arvost
##tapah
jalkapallon
parissa
kala
##hamin
samaa
##isosassa
##untia
bos
lahjoit
eduskunta
tavoitteena
lännessä
liv
mir
muistom
##ultt
sosial
napol
(0000-0000)
lim
vaikutteita
tex
pääss
mün
##ents
ryk
your
nuori
##ytty
omat
kesti
köyh
tonn
syntyy
solm
huv
##uston
sopimus
myönnettiin
järjesty
##udesta
top
##lerin
yorkin
kaupunginosa
kirjallisuuden
##odi
lar
*0.
legen
##igan
haavoit
##bul
##ergi
nimeksi
vesille
joud
##udin
##ert
satelli
##teä
##ystation
reg
alueilla
paho
##amman
kaarle
##äyttelijät
##ersin
tietä
##ces
##eett
united
ylim
valmistaa
kokoelma
##telun
martti
viidenneksi
##mäs
erkki
christi
rakennukset
useat
##uuksien
joukkuetta
ihminen
##ilaisten
##ostaan
toimiva
yhdistä
tärkein
##ilyn
yrjö
kannalta
kla
otava
##uunn
paikan
##eetta
##kaupunki
saajat
##uch
##itty
sekoit
voimakkaasti
kalen
barcel
##arv
teloit
panssar
vasemmist
sääd
sanottu
korja
amerikan
north
##entän
kahdeks
useimmiten
vaat
##ude
##itsin
sarjakuv
##mall
##off
##istoon
käytiin
##tinsä
arvio
viik
tulev
viikkoa
olevansa
vaasan
##gro
##elia
osallistunut
lien
och
rajan
##erien
spar
sodassa
##iran
##merk
##pros
liettu
fam
##valle
sven
haltuun
##lah
##missä
##laaju
##osia
hert
kuvattu
sivu
##omen
tyyn
länsima
##osoit
##uck
bass
suunniteltu
##ese
saatta
yhdysvaltoihin
##dit
##lähet
jäänyt
##päällikkö
##hak
hehta
pih
hid
pic
taso
joitakin
ylioppilaaksi
##uminen
(0:00)
maja
vahing
dokumen
##täneen
aks
##ision
edustaja
##ammin
jolle
linnoit
luki
monta
##joukkueeseen
kuopion
##attorina
one
##iselta
jyväskylä
nainen
ikään
lauri
##kuna
olle
##menet
heistä
##orkester
sev
##elmiä
edellä
idässä
##innyt
muodossa
##isillä
kolmesta
poliitikot
##ye
##oten
##ettynä
neuvostoliitto
##bla
##kohd
##ohja
ohjaus
00+00=
##ilma
##osh
keskia
##immistä
##atit
takaa
valkoinen
##bro
life
ryt
itävallan
cap
hms
american
##amisen
##kaansa
film
##rot
luc
omia
0000–00
taiteilija
##äen
kle
##tat
##bc
edustanut
maailmassa
##let
park
säännöll
epäs
tihe
##mad
##...
bj
##vide
epäil
cra
fanta
vakiin
seka
kauk
##iga
lukien
juhl
##upseer
tahansa
##keli
nil
##jalan
neuvottel
##amo
##bol
vuodet
kaupungista
##vaikut
##ittäviä
papiksi
dub
##mel
kalta
korkeimm
kenttä
ohjasi
##puolelle
dj
##jiin
vettä
##ioiden
##musta
valit
joukkueeseen
##rikassa
italiassa
##äkuun
ylös
ehti
kaikissa
##cing
uudet
hyöd
alkuperäis
taidemaalari
land
##ollista
uhka
käyttävät
soittaa
##keino
##laisia
##yksikö
##zo
##romaan
operaatio
dvd
kip
0.0
big
heillä
klo
festi
savon
##py
belg
school
päättää
##fran
##istinen
rakentaa
kentä
##unna
##dp
murh
bat
kirjallisuus
##äyttelijä
##aaf
koira
##suk
leag
opin
edessä
viestin
seuraava
miestä
band
##yle
high
jälk
##bil
henkilöä
tilattiin
vis
##annen
maatalous
suomalaisten
##erre
##akennus
osavaltion
##burgin
0000-00
##liiga
laur
toisinaan
##bre
vlad
roll
turva
suojaa
##teis
arkkiteht
metsäs
##iryk
opettaja
##tuja
##ranskalaiset
gor
sito
ryhtyi
##aluetta
vat
##pien
lajit
suuntaan
poistettiin
ulkon
oul
virhe
##utoim
asev
suomea
##unin
lähd
suomeksi
löyt
kasvan
##mattom
##wal
ollessaan
kansanedusta
vaihtelee
she
haastat
fredrik
anders
uuteen
suojelusk
##vio
##zar
peh
harry
toimitusjohtaja
##venäjän
##amerikassa
##tioiden
##uudella
lääkär
mana
periaat
kand
##chester
suhta
real
vei
##pas
##ottelun
##innissa
##imies
##ree
0+0
##tröm
##käsi
##joille
##kone
dor
usk
##herra
##kuljetta
##omista
elektron
levyty
##alaa
tehdään
##cor
##komite
jokainen
tulk
##tes
senttimetriä
##ikaa
määrää
##isuudesta
niihin
pako
##emalla
##missa
##oikeus
väestöstä
nyk
sijalla
ig
##elty
ford
muunn
##ture
##seur
paavi
toisiin
##okin
ohjaamat
##keja
##ikkia
ok
lupa
laita
tarina
##tejä
mesta
ing
eläkkeelle
valtiopäiv
##ivahti
blue
##yksissä
00-00
##änneksi
##kansa
läpim
ny
roomalaiskatol
jakaa
vasemm
animaatio
teräs
kahdessa
muodostui
uim
##uste
santa
ison
laki
metro
##yksistä
lew
##täjät
torj
##-00000-0
miehistö
##hm
but
suuret
group
rahoit
ortodoks
cat
washington
##ispaksi
yorkissa
suosio
vaihtel
##albumin
##ityksiä
und
##ryhmä
insin
löysi
##kuntaan
sanomal
##yin
hankki
tietojen
##ivin
law
##attuaan
vuosia
eteni
kaakkois
miehet
naisen
aluetta
hyväksi
nis
matkan
##tere
*00
järjestää
##udan
##box
##amma
##impiin
##qvist
jaksossa
##vansa
yhdistel
tapahtuma
##pom
panssa
##tive
##isoike
##ääri
turku
##vaaleissa
##sasta
koho
myrk
ped
miin
varm
asukkaita
##yyteen
##lait
eteenpäin
englannissa
kihla
erik
##0"
myöskään
päätyttyä
kuoltua
yhteiskunta
ilmais
depar
liikkeen
death
##udi
##olia
psyk
viis
##ustaan
äidin
##tri
time
##alinen
sisär
tuomio
##vattu
puhd
serb
##tuminen
##rata
pietarin
##ellim
useimmat
mars
##tiivinen
##ava
##pid
elokuvasta
god
##kylän
gustaf
haar
##ilijoita
power
##kate
##istisen
torn
##tavasti
##ivuot
##ikkojen
jatkui
##liä
##tiot
dam
ilmen
jaakko
ruumiin
rakennuksen
##bus
nost
kirjailijat
väestönlaskenn
jones
kevy
eks
##töä
aalto
metalli
##tona
##annan
belgi
näkyy
##ou
punainen
kallio
äänin
tyypillisesti
shak
vapaan
##ía
##aine
hin
väär
##utuminen
energia
hita
spa
##inö
pelaajan
paken
tarkka
näyttä
team
digita
##linn
kolumb
aih
enter
##nneksi
puoliso
väliaika
cle
sus
tak
stadion
ville
##elokuvan
kaupunkia
##tuot
jumala
kuninkaallisen
itsenäist
kaupan
vanhemp
joul
##unnat
##end
##:0000-
laivan
tähdistö
juhla
hallin
##ettaessa
nähtiin
eti
##amalla
##itettiin
alkuun
##ikor
##okuun
beat
fried
maailmanlaaju
(),
käsk
käytöstä
##tron
##yliop
##lahd
##uori
border
tiedek
kangas
kuud
##ium
##kadun
poliis
##allon
version
lämpötila
kää
##kaas
##stu
pääsee
mainitaan
etelään
tiedustel
##keh
piil
kerrotaan
alexander
turvallisuus
diploma
osassa
000,0
keskustan
lisen
omina
é
valo
##etyt
lord
##äänsä
ferr
##pelissä
##rakennus
piirikunta
##kilön
oikea
maailmaa
fol
hallussa
rats
miljard
paljast
pyy
esim
hengen
kustannus
##teilla
elokuvaa
keskenään
##talin
##imat
##jähd
lakkautettiin
##thur
kuntaan
asettu
##alueeseen
rannikko
tha
##nimisen
##yna
rh
prix
media
mainittu
##asit
##liitto
##nian
järjesti
##tueen
post
näyttel
##väk
##pos
(0000–
##gissa
alukset
##suur
##onian
enimmä
strat
määrättiin
back
good
posti
här
##mari
##ytä
hv
yhdistys
##edusta
nimitys
##live
muualla
hien
avusta
päällä
##uto
puolelle
##uokka
##run
tuotann
vaakun
##pt
cons
##omainen
korvaa
sanan
lopput
eric
##ser
##isempi
kutsuttu
##poliit
veren
israelin
0+0=
##mme
##.”
satama
mike
ukrainan
jes
##täen
##ustiete
peräkkä
##ain
##ampia
toivo
lapset
tietää
päätty
wilhelm
##cd
tietokon
##amista
sund
kuudes
taidem
cur
0–00
jääkäripa
tarj
##imeksi
vieraili
kristin
##katoliset
terä
000)
##haaksi
perustuvat
sopimuksella
laad
tutkimuksen
##ffin
keskimäärin
ääni
estää
etn
kansi
kovin
pysyi
##uts
jaettu
draama
##itellen
ohjelman
hallits
steve
##taistel
##oseura
kuningatar
##eriksi
kaz
##ipe
##kinn
##vaun
##festi
##uotanto
tilanne
au
##matta
lappeen
vetäyty
pikku
asukasluku
mtv
lehdet
maanviljel
tehdas
uudeksi
##emään
##esa
##ceae
##oinen
##impien
halua
##omb
sillan
selkä
##itsemur
käsittää
##otte
vaimo
jakoi
##oksissa
kolmi
molemm
##lovak
ss
alueelta
##brid
lem
luke
tulla
yleisra
##zi
##kum
##form
suurimmat
##cra
##uha
pelasta
riveissä
tuomittiin
virallinen
##projek
joidenkin
##tävästi
merkittäviä
mustan
albumia
##kaupungin
##kän
valmistettiin
##anaan
##leh
ston
##ittämään
hyp
sein
##alaan
tunnetuimpia
##iams
wood
alkuv
sijoitus
suhteellisen
asukkaat
viin
##els
monim
kahta
university
kasvatti
lor
##mikuun
##helsingin
toisia
kokoom
kuluttua
moottori
piirissä
##muut
kartanon
sär
loi
##pyörä
hard
##tinä
turnauksen
##ilia
##kl
vaun
varustettu
ric
valen
().
##vuus
##kalla
kehittyi
taustalla
##pus
perso
##histori
näyttää
##gue
##uuks
##pohja
ongel
##tamiseksi
lämp
kahdella
jääkiekkoilijat
alku
rob
##ehall
00.00
teatterin
##ges
##rop
##ryhmän
parhaaksi
##leyn
tilasto
inf
ruus
−
vaaleissa
elämää
sovell
##järjestön
johtoon
jäljellä
uudestaan
monipuol
##vill
tutus
välittö
teoksia
vaatim
##sey
##erry
##kilpailu
espanjalainen
fyys
käsittel
##him
song
mikro
haw
osalta
roma
jugosla
##osaa
ilmavoimien
osasto
##now
sl
vihkim
korvasi
##frikk
##ujaan
rooli
sulj
elintar
##hyökkää
##attia
##ialaisiin
##neen
voittaja
uusin
puolustaja
##ruotsalaiset
roh
sem
coun
monen
konstantin
bay
berliinin
##vista
##dra
lauka
##prin
##kaksi
##dien
aam
##="0"
esikois
teatteri
valittu
##sam
tapauksessa
##tissä
elis
järjestetty
00000
pitkäaika
vaakuna
saksalaisten
##erik
file
sanot
kuolle
voinut
riippuen
##yhdistyksen
##left
eroa
riippum
jr
fan
karsi
ajoneuv
positiiv
##yypp
(0000–0000).
cana
komentaja
##eeni
pentti
##vast
##liikkeen
##00:
##imusi
##uksilla
työskennellyt
##uz
etapin
##alliseen
levinne
##imir
pon
##cht
pime
tehot
##tyyl
ulott
jälke
tukholman
light
##ellisia
##ns
teor
##istori
##ätty
mukan
veist
yhteisö
##hiih
##anni
valmistettu
##set
seks
nyrkke
joutuivat
royal
mul
onnistunut
set
pistep
sijoitettiin
cell
port
##landin
##etusta
liikennö
##umer
leo
##uvaihe
teoksessa
alu
hamm
tiedot
##ytyy
ever
##kanad
##pinn
##oksista
albumilla
rautati
uudist
##attien
purka
mannerheim
##wen
kyky
tukiko
##ättä
pelkästään
riv
##mänä
asenn
maur
puun
##impana
koste
joukkuek
parlamentti
##ilpailun
uudessa
##pot
##ted
##mainen
kart
##ument
arkeolog
##get
yliopistosta
##ardo
osavaltiossa
##itio
teko
##ustuksen
##italialaiset
törmä
##usal
sisälsi
##elokuvassa
chris
(0)
human
simon
järjestetään
olympiavoittaja
##järvellä
yhdeksä
alpp
jännit
##ksiin
##tamaa
sla
##gers
##inaali
valmistus
##ivia
jen
ukrain
##ques
taiteen
pallo
huomaa
teho
##elmiin
##vinen
hyökkäyksen
terror
##teihin
alala
automa
sääntö
kierros
tampereella
##matka
sanotaan
##italo
hylä
##piirin
esine
##pinnan
##laulaja
##afrikan
##kuntien
valloit
##yttyä
ohjelma
lyhyen
kestää
mis
aasi
ateenan
##rey
annettiin
kroa
##usko
##isivät
##hot
##linna
prefek
palveluksessa
heille
net
anth
toimeen
varhais
kulttuurin
luonto
filosofi
##kauppa
##ohjelma
asiantunti
##amin
##istiin
##esimerk
olisivat
yhteistyötä
##jöitä
kerää
yhdeksi
##ín
britanniassa
##myös
talvis
##ilijoiden
kanadassa
##kala
standard
che
##aatiksi
tappaa
kolmeen
luol
det
jac
##yritys
ec
##tari
vala
syrjäyt
maanviljeli
edistä
sveitsin
minn
##aki
##fal
bell
##puheen
mukanaan
muodostettiin
sib
##onnettom
kuvattiin
##vallassa
##empää
kuolemaansa
kehitty
hollywood
taak
sukula
##ede
##yvät
ander
##anti
##blo
##eten
##empana
rikos
##joukkojen
##ältä
##uneita
tehtävänä
rapor
##toriksi
##elim
##stein
jenn
seurakunnan
nykyaika
päähenkilö
rovan
sten
##estiin
puisto
villa
pronssi
valtaan
liittyvät
moni
##amat
##ilip
olli
kauko
williams
##emix
##ysan
jäsentä
puto
käsin
kestäv
saavut
myynti
väliin
toisiinsa
opettajana
joe
hiihto
myt
taisteluihin
##alasta
brown
##fur
##unda
##telli
##joihin
seuraavalla
##korkea
divisioonan
potila
kuollut
##oina
##illut
prop
sunn
jaettiin
gil
##esian
##tyinen
halunn
määrän
toiselle
##mond
##poli
liuk
##irj
käd
pank
millimet
##pyh
niinpä
##ear
rit
värit
kiertue
sydä
kirkk
suvun
kirjoittaa
long
##sääd
sprin
##hön
rum
kohtaa
##ado
##joukot
ern
kotiin
##tolaiset
pistemies
vii
##laista
scott
hannu
pelaajana
varaustila
##muod
tietty
oulu
##syl
##siä
luultavasti
##tumisen
##-00-0000
satunna
##kaista
avustivat
raj
erin
##itor
kalle
ikk
##gio
##pekka
energi
lähetettiin
hoid
puuttuu
##ulaa
##tilainen
välille
##bour
täytyy
##vapa
heikk
ehdolla
##okitara
shan
valmistetaan
0–0,
levyt
proto
ongelmia
veh
##ittivät
taisteli
länteen
tunnettuja
italia
mihin
ast
hart
##pia
##taj
##isyyden
joskin
##atus
##senin
suost
##kertainen
pohjoispuolella
hop
white
##ulaar
parann
ehdokka
leip
##japan
päässyt
taip
##meij
muuttuu
##mästi
rub
##new
##urus
keih
##tutkim
mahdollisimman
nähtäv
tuntia
ohjannut
boy
wall
tarino
unkarin
##ball
turkkila
maakunnan
##dh
##oseen
adolf
palkka
eivätkä
aleksanteri
ruok
##koira
itään
keräsi
##kem
day
##koslovak
piispat
usa
##oinaan
system
##istivat
toteutta
asut
harmon
kruunun
##tak
turkin
##italin
poikkeuks
ryö
piirr
tehden
matala
not
päätös
##koir
##aliin
hyön
vauri
##utumista
##nie
sukua
alfred
ristiri
##kija
00)
pystyi
lainkaan
##dis
puolen
##väes
##karsin
auttaa
##olaiset
itsenäis
##ksensä
erottaa
##ob
kaikista
’
##ettuun
nobelin
vähitellen
pisteen
##okselle
albumilta
##ittle
leij
ivan
enimmäkseen
girl
heimoon
##jäh
*"
##room
poist
vaihtoehto
cre
sti
##denin
##vens
##day
##sir
##tuut
##ikenteen
##seen
naiset
ystävä
kai
kaikkia
nauhoit
vietna
tarinan
orgaan
päähän
##pse
##kierr
sool
##anneet
pelaavaa
jane
rud
kerta
virallis
##oss
##jöiden
muutama
##au
jaetaan
keisarin
väri
##alueet
television
##raali
##iper
islam
samm
tayl
##attomia
japanilainen
##muusi
urheilu
##hdin
##idae
##ction
tähden
##gre
bad
seuraavaksi
tieteen
tieteell
##valtalainen
tit
##niminen
##iem
mand
sosialist
##kann
evankel
määrin
wolf
juhani
lounais
##pio
##neyn
elävät
##paikkaa
yhdistää
##ér
varasi
turussa
näyttely
saksalaiset
press
##lahti
köli
gabri
löydettiin
##kre
##ody
##fic
##allisena
tulokas
##kirkko
kuvanve
##säv
puolis
debyytti
järjestelmä
edellisen
##pre
tony
paavo
##zy
herätti
bän
mang
kävel
filipp
nähden
talli
##lliköksi
omistaa
asioita
boston
harrasta
##ellon
siel
liev
jäivät
##laat
rumpali
viimeiseksi
master
taakse
jord
toistaiseksi
osia
##yttinsä
jäseniä
elim
tarkoitetaan
ens
jaa
##tumassa
##kansan
kaja
##astui
pik
##gs
kristit
##ostaa
##teenä
##tissa
##uvien
##poja
##villa
tukea
ympärille
##ikenn
lienee
##jit
##aro
##uhan
may
sukun
lääkäri
##iseltä
unionin
##isyyttä
suomenn
##kup
sekunn
##istamaan
##mesta
##etyssä
##utin
mid
vuodeksi
julkaisema
sisäratojen
olevien
mr
bri
alkuperäisen
##sur
##mätön
torped
##cs
metsän
**''
vali
##olliset
helsinkiin
##innot
miss
00%
prinssi
##not
mari
##laisen
elämään
symbol
noussut
##ray
kapellim
##evy
##utt
syöks
video
englann
aikoinaan
hävittäjä
noudat
käynnist
eteläpuolella
##elämä
##utumisen
yläpuolella
##ny
##aajat
##undin
kaikkea
jatkuvasti
kuudenneksi
kamer
matal
##jeja
##|''
phil
tekijä
maat
peit
##ual
sijasta
alueeseen
mary
rakenne
christian
##!''
kyp
loput
##/0
pelata
##mela
kuluessa
##plan
##ppuun
##uille
päällikkö
kiinassa
pääkons
##ilit
basisti
##chn
säv
pyörä
##teeltaan
väkivalta
##hyökkä
nan
##band
yleist
##juoksija
ahvenan
hiekka
seppo
paljasta
##itiin
robin
gon
raha
##koulut
vai
olosuh
ruko
##ologiaa
aikanaan
jaco
##kamp
lähde
viihd
##ury
##yneet
käyttivät
hamp
##pul
leikka
tarjoaa
suunnitellut
lupaa
##valmist
vierail
väs
##ohjelman
eero
jatkosodan
##pinta
voitiin
##uuna
maansa
mess
pystyy
##huol
indon
varasto
##tekni
herr
autta
hirvi
nosti
alkupuolella
##vić
tehtaan
maalintekijä
##inon
saapu
##hev
##alon
##vaara
august
sihte
saatavilla
kulki
paikkaa
##opeus
juom
##cho
jeff
uusien
jakso
##ansin
##ittajana
##gl
##asen
##ivel
linnun
heikko
räjähd
yksikkö
##hip
ear
##iinia
##ussin
maailmancupin
##nyky
##katemi
kauppak
näkökul
seikkail
vuoristo
strateg
##urit
##cle
##amerikk
##unnasta
kemian
##toiminta
ilmasto
ulottuu
kirjat
prefekt
uhan
mallin
scien
##urheilija
bet
tunnin
##saa
##oliiton
kyr
simp
##idän
sell
valmentaja
pakko
näky
##yttämään
##kyr
purj
##oksiin
##mator
##voja
soul
paine
syyll
##läis
niillä
chil
reitti
virgin
##ppy
hovi
tuhoutui
##valmentaja
##insin
pahoin
jim
meta
##esimerkiksi
keskik
##ollisuutta
alaisuudessa
##ukut
björ
hun
rau
line
mahdollisuus
##ider
olevia
##tason
##emmaksi
##järjesty
dollarin
##kam
pataljoonan
##miehen
tulevat
elokuvaohjaaja
golden
##atur
##ammat
sinf
käyttöä
##itannia
##puoli
terveyden
##ikar
##ach
##ukas
kanava
nev
eino
##kaut
päätyi
voiman
entistä
lähesty
##hyv
kohdist
nikolai
valtuus
##alaisesta
menestyksek
tuhan
stanley
väinö
##honen
##cken
työll
##kenttä
dream
##ico
##phen
rahaa
##lop
avoin
oppim
markku
matkaa
erotettiin
##pian
arthur
##psi
##ekiv
##omat
##ikaup
elämästä
valtam
##inger
osake
suhde
##öörin
##kanadalaiset
reag
alueet
##isteja
elisab
street
##aster
pääsarja
##untien
##laiv
##huone
prim
johtuen
young
##täminen
toisiaan
varaa
palo
kouluk
jackson
johnson
toisena
ylit
##istanin
viimeksi
tonnia
##”)
camp
pertti
##sosi
##tilassa
ruhtin
vallankumouksen
josé
myk
kamppail
##kuntaa
##mahd
syystä
valioli
##tuneet
tuhosi
pitänyt
välisen
fir
tyypp
hiippakunnan
game
##lantilainen
##char
##liike
kasvi
artikkel
musika
punk
##tioita
ohi
##ansson
ox
merc
##urissa
muutos
##aar
##kosken
sanoo
maantie
##opi
##under
itsemur
upseer
##ministeriö
vihkiminen
seuraavassa
muur
##teistä
##tuk
##šin
heinä
##bir
arvok
sisäisen
naaras
##päällikkönä
lääketieteen
mielip
kump
australiassa
alha
##alismin
tulkin
##ilm
pyöre
##nuorten
roolin
##suomessa
that
##käynti
infor
lahti
suora
suunnittelema
##johd
##mand
##haw
##saksan
##sm
cit
merkittävästi
kata
##ennyt
##ssiin
##kall
##mmin
toisten
hav
##ihinn
lähettä
##euvos
##eep
##osasto
##board
keskiaika
doug
ilmak
viimeiset
##duc
him
grön
sotaan
##kuol
äänen
ulkomailla
rena
##yöhykke
ninten
##ummer
elinkeino
playstation
louh
heimo
olavi
voimaan
kh
##miehet
ministeri
tavallis
bysan
pallon
pakeni
##issään
sotar
##ru
##nny
ura
##istuivat
kät
lipun
##erkillä
##elän
##koihin
##luokka
##taessa
##tuom
##ory
queen
##muka
champi
##hallituksen
(;
este
öljy
##oitsija
##lein
todella
##vaar
seudun
meneh
lisäänty
surmansa
##estan
äänesty
pyysi
##silla
##tajien
alankomaiden
dog
tasolla
##päivän
##ekra
##herr
komedia
aloittaa
##chel
hockey
napole
madrid
finaalissa
sty
janne
##png
##000.
##esia
##ikkana
ampuma
##ukseltaan
##veja
##äten
##ettujen
##vonta
house
##omon
##rannan
tapasi
##dä
wat
##olaisen
##eer
##kkit
##yssa
##istuim
##uttivat
##lat
end
##kik
lippu
vaatii
muotoon
levinneisyys
##rah
koskev
##öistä
rosen
osat
vladimir
maajoukkue
mega
##empaan
albumit
pääkonsekra
##byn
tav
lesk
hau
jari
lou
prote
päätettiin
järjestön
##ostus
mainit
##cla
##tamana
luokiteltu
##umia
##tista
esiteltiin
0,0-
##kkinen
saarelle
entertain
##puu
##ännyt
huip
charl
##mana
##vuoren
murha
puhta
haluaa
pelaamaan
maakunnassa
kit
kuvaus
peri
alueita
ax
kierroksen
virallisen
##ivar
##iven
pääll
raamatun
##udun
yhteys
##sessa
##vie
##feren
vanhempansa
##ode
tunnusta
##evän
soitta
##dow
bull
##tietä
lähettää
##ukon
oir
hong
##toc
##edustajat
##intia
dal
viktor
##vuotisen
##omer
##toinen
##paikkoja
kore
piano
##sast
valke
saapuu
tutkija
kirkossa
##sw
##john
##delph
0000–0000)
##tyypin
kustaa
espoon
##emieh
valon
loppuka
##ppe
pitkiä
##kirjailija
sarjatasolla
##liikke
rautatieasema
##ppaa
windows
professorina
##rov
##okki
ludvig
vaikea
road
az
hedelmä
joukkoja
cy
kuolleen
##äärme
olen
##rosof
##televisi
lopullisesti
##espan
##metsä
##mukana
lajeja
muutoksia
##nik
##elis
##kara
##valtion
kaikille
kevään
ylläpitä
##igin
viiv
hov
##okan
##talla
ball
sien
molek
sisällisso
''"
##oittivat
##häk
##berto
lake
##alisti
yhdistyksen
##tieteell
nuorena
maihinn
vanhempien
##aksen
##aten
##joitus
taiteilijan
##akan
mem
fen
##mio
##unutta
kirjaim
##britannian
pyrkii
käsittelee
parlamentin
käsittelev
mah
##uutti
loppuk
pääsarjassa
tilaa
nah
työtä
risto
kutsui
puolivälier
##head
russ
julkaisem
##tumista
kimppuun
##sor
pres
wol
voittoa
täyden
yksikö
energian
loppupuolella
##uoja
sijaitsevan
tulos
olem
aasian
määräsi
jud
paluu
vaihtoi
menestyne
bio
##vuori
##kirjan
paris
gord
luona
##-0-
esitys
georgi
kehittämä
##bet
##virta
mestaruutta
##äsi
##heimo
##istusta
##lähetys
otettu
##tteja
julkaisuja
gold
ruske
tavan
organisaatio
kulutta
##ijo
##utumaan
seurassa
##ömin
##vaihd
koulussa
seb
voimakas
brittiläisen
yhteistyössä
##bri
##cent
##filosof
toist
olevaa
##elv
##ulainen
leveys
sukuun
##muse
aste
pyyn
remix
##alaisista
hyönte
merkittävin
##ihar
avioitui
peliä
samank
yrittä
##astoin
slovak
lähelle
pudotuspeleissä
maihinnous
kriti
muille
sloven
viitta
länt
##istosta
##tettiin
eversti
henkilön
tšekkoslovak
##oppi
##ismia
##ranta
##mistään
pietari
markkinoille
##uodesta
##tamasta
yhteinen
##tz
##opter
viidestä
brasilian
lars
sijainti
karsiutui
##urch
##esel
ryhmään
##sul
00,00.
portugalin
##seeri
##lee
##etussa
heiken
hollan
##johtajan
##imieh
##ology
##lei
rakentaminen
##ialaiset
fox
##ispan
joissakin
##enius
varsinainen
raaka
ääntä
tapahtumat
##armeijan
##misessä
##pohj
arg
down
syynä
jälkelä
##öör
gh
##far
perinn
kohtasi
fysiikan
tapahtumia
bund
kappaleista
##iladelph
käytön
monin
loppuottelussa
best
kauan
##oker
nouse
##ekn
##tassa
##.:
##uuria
silmä
##isoi
kiih
##eral
##gressiiv
jääkiekon
korkeimmalla
##uuto
##teluun
hehtaaria
meg
kasvu
kirjoitettu
amma
##neuvostoliit
##tinsa
kokemäen
##jut
##ologiassa
euroviis
##other
feder
belgian
spr
labor
##alueita
huolto
myyty
rain
tennis
##engl
melkein
##taiteilija
runkosarjassa
laiva
etäis
vastuu
##ytynyt
täysi
varapuheen
##hein
##elmaa
tammi
perään
kyn
sijoittuu
kouv
parin
##sat
mig
kivi
##läisten
##šev
company
##ån
##feld
keuh
##oluu
valvo
julisti
##jottelussa
##keet
##okon
muilla
ilmavoim
neljännen
vaalipiir
retk
pör
nähdään
##ics
armeij
jättää
kasvanut
käyttäyty
##peri
dark
norjassa
saattavat
yhdistettiin
columb
kuvata
väitös
(0000–)
vaalean
käyttäen
##jalta
viestissä
norjalainen
rajat
##miehenä
ana
##ttinen
karkot
saksalaisen
paina
##tamo
konsertti
##tävien
samankalta
iran
##alat
##yhmä
mala
varti
tehtävässä
##lag
journ
liiketoim
marc
##ustusta
hyökkäsi
sukupolven
##telua
##uce
coll
stra
##taman
kard
##atteri
tuloksena
roger
valtaa
muistel
bus
kantaa
miekka
##kt
##tik
pho
##imaj
;0000
armen
egyptin
##rek
##täväksi
nimitystä
helsingfors
sosialidemokra
##tumaan
under
microsof
sanomalehti
##ylly
iden
##emon
##otin
##perhe
päätöksen
kahdeksann
fut
kosketti
##tuma
##kkien
huo
itävalta
perinteisesti
got
persi
##koista
kansanta
osoittaa
##älän
##kielen
vuori
harmaa
sanat
talviolymp
##mil
##vid
##back
pitivät
##chus
##tanssi
##ugo
##fos
rein
nähdä
liittyviä
##ssit
lad
kuvit
lukum
alkujaan
##lyh
##attoman
tiedetään
##luettel
##pito
##yteen
apua
kokoelm
##ikoilla
olikin
laulajat
##mol
rikka
##ustieteen
##metr
pääma
##super
instr
hyväksyi
juan
jäseneksi
täydenn
##muo
##ingen
kääpi
##ilijana
sävelsi
fern
englanti
friedrich
ulkopuolelle
%.
##jalaiset
ari
osman
solmi
##ré
##maat
##time
etu
kov
aita
syty
luter
pysäh
veteen
##eskuksen
kertoja
tohtoriksi
työskentelee
##uita
sarjaa
##alueilla
laitoksen
##amiseen
omaks
konkur
kuvanveistä
kin
kolmessa
veikkaus
erit
osaan
airlin
##lehdessä
##vihre
##ming
let
##varti
serge
singlenä
##ikul
##iron
voittoon
vs
taita
are
nba
kain
divisioona
johtuu
välittömästi
tuomiok
dokumentti
##imellä
todista
joensuun
poliittinen
##kuvan
##tamia
##torina
seitsemäs
##ekset
läpimur
wr
##kkia
pis
asiasta
cin
kaiva
##unan
tyl
haltuunsa
##eur
nega
teks
##pri
##yrä
##lantilaiset
##menta
novell
##öks
##avat
##tyvä
##ysten
koillis
espanjassa
räjäh
kaupunge
##bit
##kusta
##osaston
sarjakuva
##enta
##ilua
##atr
emil
vamp
för
##tavia
walter
nimitti
tarpeeksi
ama
julkaista
##ikoul
koripalloilija
##kont
julkaisu
samanaika
##kaappa
tietoja
poliisin
##listan
meh
totesi
##try
tapio
miljardia
merkitystä
kappaleessa
##vali
ansa
dave
##hyp
##maansa
##how
##enut
selvisi
talvella
##uf
kisojen
konserva
tutkijat
rio
nuoris
sdp
nimesi
jokaisen
ms
atom
erityis
ruotsalaisen
##tämällä
esik
kunto
surma
##fk
##uussar
autonom
fis
margar
vahvisti
kohden
voimala
##äneet
johtama
##hyökkääjä
portugal
cel
lauluk
##zon
##aani
selke
merkitty
##jos
fyysi
vanhempi
miehistön
alta
##johtajat
palveluksesta
annettu
over
työstä
bow
suositu
##ár
##kultt
isla
taisteluun
##émon
katal
muisti
##minä
perheeseen
ima
##ivoima
maalaiskunta
asukkaista
keskeinen
hat
nes
##jossa
roolissa
##teer
##attle
kanada
taajama
##valtaa
töitä
hc
vastaava
##venäläiset
harjoitus
##hor
ilv
milan
runkosarjan
houkut
voimak
saksaan
pään
oppos
pudot
ympäröiv
maailmanennäty
##chan
##lanti
merkin
##kymmenen
##bab
poly
halunnut
hahmon
löytyi
##työt
##telemään
vieressä
##karjalan
rajoittuu
henk
pyl
rannikolla
suurimmaksi
maailmanso
hilja
pienet
nousivat
##misensä
lamp
brian
##versi
nousee
tallin
toimiv
puke
sanasta
apost
europe
##itsen
reng
levisi
väärin
##ollisten
liigassa
##ikans
##sihte
singlen
lapsia
jäsenten
porta
##yksensä
sijainn
##eval
##immän
kehittää
amerikkalaisen
kaksois
cir
puhu
kevät
ilmator
pione
##ologinen
vit
melod
##akirja
##teessä
kevyt
akatemian
tull
##agen
##couv
kieltäytyi
##hir
##tral
edustalla
imm
##annon
museon
suhteessa
suomalaisia
##tävänsä
##apor
##emmät
suojeluskunta
##atom
lening
##tine
kiven
##ule
rö
##ders
##riit
veto
maailmanmestari
fle
tiiv
##järveen
##vard
omien
supers
##asia
shar
aineen
##bach
katsotaan
hamil
tasan
taloudell
##ukin
##oki
##pti
##-00.
##lian
mé
##kuor
pyyd
south
lopun
taist
elämänsä
heart
kotise
pariisi
recordsin
psyko
aav
aleksandr
##ivaun
(0,0
##euroopan
yhdellä
turnauksessa
##anaja
seksuaal
sijoitettu
asum
lewis
##yla
dyna
ajettiin
##palloilija
mart
##istojen
mikael
mestarien
##ministerinä
käyttämään
kuuluvan
##kkeen
jatkuu
##ume
kärki
##kielisen
rakensi
##onto
##pias
##ainen
hallinnon
##öön
##anneen
venet
nopeus
##isarjan
ajaksi
vieras
maalaus
##kins
lyömäs
veikko
##pad
sali
philadelph
ensimmäisiä
##upää
maailma
##opimus
kanavan
perustuva
lempin
pierre
saattu
ensimmäiseen
päävalmentajana
##iker
##ix
##avy
ts
flo
##perintö
neljänn
hinta
aktiivisesti
##ross
##piiri
jokin
##ort
##koski
ruumi
muinais
japanila
neljästä
omistaja
muodostivat
##joukkuetta
##edi
alb
kuvat
kartta
vihreä
taidete
opetti
alkanut
##bad
mänty
##utuneiden
maajoukkueen
välimeren
kirjoittama
carol
henri
syistä
nuoriso
suomesta
##terve
0-0.
euron
##äänesty
kpl
##itten
color
##etuista
##fess
perustui
taylor
voittaa
tumm
##teensa
##yydestä
ruotsiin
##ides
olemassaol
##lön
stephen
##isyydessä
keskittyi
fab
##ithin
##vikke
vaasa
esillä
##du
harri
##lukujen
asiakka
pyritään
klassi
esitteli
##osk
allen
menee
kärj
historiaa
suuresti
##kaupan
pitävät
väriltään
joker
radalla
päättyy
todettiin
##eillä
##”),
chicag
tarp
komite
ympärillä
palattuaan
##uria
##key
##tanin
##maalle
petri
kuvasi
bag
sotaa
suorittaa
##emat
pelit
heij
##ppääjä
##red
kampan
##enp
laid
aikansa
sah
##tieteiden
rajaa
vastarin
aallon
##rauta
part
rotu
viih
##olassa
arvel
ystävänsä
##fordin
kated
tarkoitta
näihin
säveltäjät
tuomar
lyn
myll
seitsemänneksi
läs
##toman
etelär
syk
osapuol
miljoona
dun
##uinti
geen
ajalta
kansallisen
##pir
##issan
##illen
##kerin
##uneiden
##lia
cent
sotilaat
##tenä
elec
aikoina
singapor
00:00
dyn
esa
egypti
##tiikka
000-0
vanhoja
##maailman
basi
tre
##empiin
##emy
dur
salo
asettui
kirkka
##fri
maked
yleisin
##seuran
kaatui
##pistettä
digitaal
lainsääd
##uld
::
vahva
##rä
##vesi
0000-0000,
tomm
ominaisuuksia
##ikom
laina
london
sara
kunnian
televisiossa
##kautensa
erilaiset
##0000.
##vaaran
imperi
espanja
manchester
##yistä
budap
runoja
lentoasem
##gal
##usas
hää
##ogram
lasi
##ineena
lähten
näytellyt
jatkosopimuksen
maine
nuoren
##listalla
ohjelmo
arkkipiispa
kyllä
##dl
##eus
plat
##tyyppi
lennon
är
luoteis
##ialainen
suomalaista
fall
raiv
##tolainen
ooppera
valmisti
irak
piirteitä
göte
kalevan
purettiin
##istelija
theod
planee
renault
##cu
##yttö
##alismi
uppo
ihmisoike
omalla
lil
##main
sami
maailmancupissa
##zab
##ymisen
syntymä
lom
##okana
##yksiin
##reak
münchen
##cast
##silta
akate
##kapteen
levyllä
##fol
pitäisi
kunniaksi
tunte
hallitsem
parhaasta
##"-
lohik
levytti
myönsi
hyökkääjä
laitos
pisteitä
##vistä
##iruhtin
asemaa
vaikuttanut
##ehdokk
maisem
##avar
tuomas
ash
town
merkki
##usia
täht
great
seutu
minuutin
##tell
ass
space
..
varsinaisen
talvisodan
mahdollistaa
ensimmäiseksi
vapautta
##cat
##ykk
taistelula
mix
katar
meksikon
senaatin
vihki
harvoin
##teillä
##pk
##kkiä
tehopist
ympäriajo
spor
##yes
__
malle
sekuntia
##isko
tukholmassa
uhkaa
asutus
rajalla
julista
##tämä
little
matkusti
ympäristön
##etu
##maala
##jk
center
##gia
juho
##käynnin
irlannin
montre
valmis
jeesuksen
wilson
has
bundes
troopp
jorma
nolla
piiriin
##uvaiheessa
##oseur
taiva
samuel
luottam
##vuotis
puhelin
perinteisen
löyty
siviil
##lov
##ando
chicago
vahvasti
luoda
antanut
liikunta
kehitetty
todellisuudessa
##jako
##risti
##ottelunsa
aikuisten
##euvoston
east
nick
mario
****
##ossaan
##koonpan
wester
palestiin
##lé
##ulus
vancouv
ju
kirjeen
##eve
''00
##dig
häiri
omaan
jotain
##notoc
kuivat
oikean
##elu
##emia
cupissa
kaikilla
##ates
##roit
cro
##etan
##oisk
##ijan
##iraali
##tuneen
##ovan
kesän
johnny
temppeli
clar
uudella
riveihin
opera
##ogi
##ampaa
##ikolle
##instit
olympialaisten
sosiaalidemokra
##wig
päätoimittaja
ray
ajatus
voimassa
##hoitaja
kron
koriste
##päässä
##huoneen
säilyt
vastaavasti
##rup
levittä
tuotannon
0000–0000-
sisältävät
aid
vaad
mainos
##dorf
##mille
tasavalta
tärkeimmät
emp
##mannin
aristot
##mänsä
nukk
voka
monimut
epäonnist
mestaruussar
hand
##oc
broad
asunn
teori
##nat
log
##matti
kosken
##ada
##arab
##htuu
marian
häir
leir
##emaati
presidentiksi
##pani
##ättö
laivue
venäläiset
asso
bassokitara
##oro
##tuv
##iros
cham
sinfonia
osaston
##ukko
##istoja
##otekni
##puolelta
##uutin
vaikutuksesta
##yltä
yllättä
##vain
tälle
##pop
perheensä
##uudeltaan
kirjaa
menestyi
##geor
reit
itsenäinen
menestystä
##arian
##radin
naara
kuvitte
valmiiksi
##ehtaan
##here
loppu
##amen
##osista
onnistuu
##ppoa
##teko
##mälle
##-00:
acad
bang
kilp
##isilta
lähistö
##hallinnon
venäläisten
##anny
lie
liettuan
##eleen
tuottanut
asukkaan
##emista
##eter
##holl
##tapa
##tivät
karh
hip
##ksellä
kansakoulun
fas
open
##kitara
golf
lahd
loppuv
minnes
ottivat
komppaniaan
toiminnassa
##impänä
laski
ongelm
##iteet
vako
##ukkas
mach
champions
##naa
##anal
palm
kalifornia
temp
menne
##äkkö
eug
ajaa
hyväksy
esiintyvät
tuntematon
##ely
##vol
##esten
##ettavissa
##eme
##lis
seuraaja
itsenäisyys
käyty
neut
##hoja
köö
tahd
historiallinen
vilhelm
itäpuolella
käsikirjoittaja
valitaan
##erva
##ttaan
##bia
##jäk
##myys
tin
##ihdon
##tähti
miha
##oping
kartano
##laulun
##bell
fra
parasta
##olas
##ppien
sport
välistä
tulen
samoihin
saadakseen
##jer
omisti
##uudestaan
puolilla
kiinteistö
##asun
##life
bis
katolinen
##entä
evak
suon
##rol
##spa
gio
georgian
##ivuo
##elo
##ence
##osentti
valmistama
siirtola
marie
##koita
roomassa
##täviin
##kaat
##telyn
luopui
musiikkivideo
ic
##seel
##johto
pakot
kreikkalais
##loh
##ataan
pasi
kööpen
tapahtunut
keskikenttä
##nerin
kuolema
tykistö
kansallispuisto
##isteriksi
talouden
##ettyään
evankeli
kirjoitus
poliittisen
lawren
fort
##kissa
antonio
##voiman
rip
hitler
aikuis
##presiden
konekiv
##illisesti
##kasvat
##itään
huume
aikakaus
pohjoisen
##kata
##museo
##elt
##poik
lukio
moskovassa
##okl
##oran
kehittynyt
nam
##uksin
iron
##luter
##joilla
##ssissä
river
laajenn
keskustassa
jerusal
vihollisen
##ivuor
nimityksen
##keita
kylmä
##artisti
##geri
##keus
##iainen
wo
##rium
##black
pojat
pistepörssin
inte
make
malm
##luon
gun
paav
hajot
league
vantaan
äärimmä
rön
arms
näkee
carlos
##sop
##aset
##umiin
astui
pappi
##teatteri
##sterdam
päällikkönä
##heen
bil
vaihdettiin
##fc
##iter
##tune
marja
pitkät
runsas
gabriel
##opet
##trop
fame
##suunnit
yleisön
##austr
##organ
sveits
tumman
matemaati
##vision
dead
ilkka
miksa
porvar
rakennuksia
##opher
finlandia
##rk
##saira
valv
eurooppaan
kw
vaihteessa
##kanen
ylläpit
havaittu
koripallo
yhteyttä
##insä
arn
arch
buff
herm
historiallis
##kivät
##dar
##yhteys
ratsuv
##ollaan
lahja
kahdeksas
dik
##tif
##aker
kuh
##jetti
pääte
johtajan
välttämättä
kio
kreiv
lopuksi
##etto
motor
##harjoit
teosta
paikkakunn
##rash
##euroopassa
##vita
katsoi
##iluutnantti
##funk
hanna
##alk
pell
##elleet
koord
##ettäessä
##numero
näytel
esiintymis
erikoistunut
##oset
##kisojen
metsästä
##aana
##tuva
lyse
##jot
##allas
##olais
tyylin
wik
elina
kerton
tietyn
luostar
kappaleella
tarvitaan
##git
##vuod
nelin
joukon
sotien
kaupunginosassa
eläim
##juus
univer
##osuus
voita
muslim
läänissä
##johtajaksi
liikemies
pääosissa
##tieteellinen
anne
sijoittuen
##ote
dag
nuk
irakin
##pö
ž
##idž
berliinissä
suoj
ohjelmassa
##isan
##keihin
yhtään
##cial
##esar
muodostama
hämeenlinnan
intiassa
cer
##nolla
kukaan
kuningaskunta
salais
rand
kirjaston
##isian
mekaan
last
astero
listalla
jälki
eläinten
opiskelija
filippiin
##dom
fly
##öksiä
series
##ardi
ilmiö
tunnetun
##eriä
konservatiiv
##allisuuden
##tillä
##paikkana
uskonnon
koostui
huomioon
##isija
##oliitto
##hallinto
haudattiin
esko
arvokka
parempi
pelastus
##tivat
voittamassa
asen
republi
tulevan
##uuksiin
säilyi
ravintol
suurimm
lasketaan
##pala
jousi
##isarja
myrkyll
##idia
kova
leviä
keisarikunnan
##ttila
läsnä
jup
oire
suih
heavy
paidassa
##kaudellaan
##hil
aga
näki
##ikainen
##tok
##iskon
itämeren
##osiin
##istelu
satoja
käsite
00.–00.
alueiden
##hdit
##tement
voida
arviolta
muitakin
siirtyivät
indi
tuomari
erilaisten
hävittäjät
pehme
##out
##-000-0
corn
erässä
##komitean
johanna
valtatie
asetettiin
##ukat
nro
adven
pc
##ffer
tuhat
luonnonsuojel
##noin
frans
##ollo
##eda
##suh
moon
huono
##edin
anthony
ilmatorjunta
##malle
päätel
vanhemm
kreikassa
haita
varus
novgor
must
lohko
muttei
cast
##afrikassa
matkustaja
yhteiskunnan
##aris
##ihan
kuvaili
ein
##ökset
afgan
taika
aud
brid
haara
herra
##anim
sadan
selville
tappa
##reita
kont
saatuaan
##you
##lämpö
etsimään
valkoiset
harvinainen
##imajuri
osallistua
##pyr
erikoist
virtanen
kehitettiin
rakennelmat
kiinnostunut
fire
päätt
lehdistö
kirkollis
sijan
jouduttiin
mg
brand
hyöty
##ruo
##som
aer
##ionin
##ettyjä
ainut
sas
##kokoonpan
"''
inc
##borgin
koom
##estadi
##ologit
##eläinen
##emiseen
##nimellä
##malli
elli
home
##linin
##utune
riih
##oopper
aloittivat
viimeisenä
##ás
elävä
##attisesti
lisättiin
entertainment
valita
selviyty
##ingas
välein
tekijän
##cta
varat
andrew
oltuaan
katsojaa
##byyttinsä
tanskalainen
##istuin
kreivi
radika
teorian
##oik
##akul
vält
tappi
maksim
toimittajana
samanaikaisesti
kultam
englanniksi
läheisyydessä
platin
paikkansa
##even
graaf
teokset
##erra
##ikkiä
vaur
pensa
vakio
korvattiin
kalifornian
##hoito
helena
ilmaan
taivaan
##olaisten
ranskaan
##joukon
kuvia
mongol
ilmakeh
länsipuolella
nähty
##misessa
##td
##uone
avaa
jalkapallomaa
häk
##katemiassa
henkilöitä
söder
##tieteilijä
onko
käännös
varaamat
elinvoima
##ajo
whit
##ementti
patrick
##televisio
elokuvia
kannatti
venäjälle
##kie
##verin
corpor
##äjä
persoon
kuvataan
##vah
##ctic
##elmää
##ettia
##sarjaa
uskotaan
bank
näissä
alkavat
walk
vastaanot
##häv
vene
##esse
käv
well
levym
##isterin
kielten
pelastaa
##kolan
##lahdella
alppihi
vuosisadan
ip
jordan
##cio
##mund
##paras
like
##joukko
juoksussa
##ios
hero
##ihto
agen
##esissa
kotimaa
aloitta
ehdotti
skotlannin
tyttärensä
cover
##urallaan
tehneet
mö
kielellä
länsirann
maailmanperintö
fu
##adalla
##kokous
##oittaja
raid
##utuneen
huolehti
kukin
##ef
##bec
taaj
##kokoelma
##keskuksen
tapauksissa
##ness
##inaan
##kieli
naisia
laskettu
fenn
##tymään
##yhtymä
kolman
olemaan
karsinta
##tuo
##erni
pommit
muistomerkki
##allisuus
##historian
##ohjelmassa
evankelis
olympiakultaa
lehto
##ihistori
johtava
elokuvien
kahdeksanneksi
asunto
##koulutusta
##als
temppel
markkina
##ennon
kaikkein
perustaa
##avan
##uvar
##orion
kutsua
talossa
tulipal
vied
##ikalla
asiaa
stein
##punainen
##anssin
japani
punaisen
lux
##tilat
##ttina
##merellä
howard
kaivos
halkaisi
kappaleiden
kooltaan
liikenteen
way
monte
osavaltio
korkeimman
bbc
##oittaa
##onut
stal
##yyksiä
saamaan
##ophy
##itehdas
##ollapse
##alueiden
ennätys
kristitty
davis
rauhans
historiassa
komentajana
wi
koe
##ikoista
ue
blan
##materia
hoitaa
pääosa
##raan
##estis
0000''
porvoo
pyrkivät
vaikuttavat
ostaa
lontoo
##moottori
turnaus
##rod
##tius
play
##etulla
##valtuut
##teelle
esimerkki
was
##escon
etun
kirjoja
##myr
force
nokka
sher
perässä
church
vastaavat
sv
##väki
##imäen
##imäki
##ovitš
##štš
ud
nuol
kansallinen
##opettaja
departement
##häiri
##rainen
##juni
hap
hajosi
ranger
tekevät
elinympäristö
käsikirjoitus
nest
style
uskot
neljään
ottanut
##juoksussa
##kulta
##ittely
edvard
joukkueensa
olympialaisiin
nin
nuorempi
##kilpailuihin
sijoittunut
lag
0000–
isom
koulutta
vetäytyi
chan
amsterdam
öljyn
patsas
##ikokoinen
kokoomuksen
##kät
##ektor
hevosen
ilmestyy
miehensä
välisenä
##uuskilpailut
##hos
suurten
esitetään
##mir
##jänsä
kohde
toteut
##line
esille
kaliforniassa
juus
ernst
sopiv
##love
:''
##ettilä
vastusti
tiil
##päivänä
ensiesiinty
suj
##press
fors
vesa
##innassa
##uskor
tähteä
##radio
stock
asteen
lännen
nintendo
kaune
##äyttöön
##itserien
johtajaksi
##öörit
amat
pelto
##uinnissa
poiketen
##'';
*0
hull
sininen
kaus
studioalbum
salon
##elainen
erikseen
kilpailua
##teille
##uskeskus
##valmista
kuolee
singlel
uun
techn
atlantin
jalkaväk
viul
ferdin
kerami
vuoren
parhaana
tilanteen
##roman
minister
hahmot
vapaasti
jokaisella
hyväksyttiin
oppi
tyynen
##ppani
##iskolla
siirtää
ensisija
eduskunnan
toiset
##qua
kasvavat
##läisen
tehtävän
sveitsissä
##ioike
katk
##talous
##.),
mikkelin
videopelit
##alen
elitserien
komppanian
um
##ales
ylsi
##yhtiöt
keskustasta
osoittautui
äk
##erian
##utkinnon
rangaistus
##ivir
##ikennettä
kaudelle
puk
kisa
kyyn
tason
##koulusta
koskettimet
##sha
##ammy
alkul
sijainnut
maihin
uudenmaan
lund
toimisto
##tämistä
michel
oikealla
0000/00
**0000
steven
svenska
kuiva
##kaudessa
saapuivat
##oda
cab
##tella
parlament
ravintola
esi
##ssissa
termi
päällys
##)"
##milla
##suomi
##ettavan
##kiläinen
hämähäk
jääkärien
%)
oks
##empiä
franç
##musiikin
latinan
ulkomaan
suunniteltiin
englantiin
yhtyeeseen
tyypillinen
##immy
markus
rut
sec
##paikat
pisteet
puhutaan
valokuva
##tw
abd
tehtäviä
tuhansia
joukkueet
lyömäsoittimet
##mion
kyv
franz
##vala
serie
lääkke
tarjosi
##juoksijat
sibelius
syyskuun
valkoisen
##korva
bruce
kuvanveistäjä
brasilialainen
##udulla
kasvill
säännöllisesti
##ée
synte
##ääräinen
lokakuun
sunnunta
##itsev
tavara
##imoottor
kansall
##sid
asiakir
herttua
pinnan
osoitti
marx
ongelma
rantavi
enemmistö
##hyd
##oka
amin
khl
torni
korjat
nuoret
häneltä
iha
rel
##uuksista
yleisen
koki
##allan
kato
eurooppa
pohjoisosassa
##jiksi
##rillä
suola
evakuo
##markkin
mihail
##aatiossa
keskittynyt
##käynn
rail
akti
laajal
##-00-
ian
##timen
tärkeitä
syvä
##kanavalla
##opo
##tha
ents
kerrosta
menehtyi
##lav
##utuva
dial
##äsikirjoit
keskustaaja
##aihe
##idien
##päätö
venez
uusinta
sulttaan
##puolustaja
##stra
sky
hätä
kilogram
varmista
kestävyys
tutkinnon
##jali
hem
sko
vanhaa
##isuudessaan
huomattava
rakennutti
##edy
ihmisk
elämäkerr
##bis
##eau
bran
valtasi
##onissa
bulgar
kirjailijan
cos
##light
kill
##ehdokka
##tiivi
##uisen
##iii
##emmista
##veen
kukat
tehopiste
##vart
##ineitä
persian
##uksistaan
tekniikan
kymmeniä
edustajat
##ilmi
gram
##julkaisu
tuomiokir
itävaltalainen
##hahm
##idioksi
herttu
##oikeudet
opiskelemaan
vuosikymmenen
##bill
kent
keksin
clo
##igassa
##kirkon
laulaa
keihään
australialainen
joku
##atonta
tauno
luokse
tart
tunnust
##imeä
games
kokemäenjoen
pohjoismaiden
old
perun
karsinn
tuotantoon
hallinnollinen
##gy
arm
##aikana
stone
lähteä
annetaan
gummer
##geen
##paat
auki
nostaa
johtanut
kyseisen
yllättäen
omistukseen
hul
poltto
pyrkim
pelatta
vaakunan
hallituksessa
##valan
jacob
##pohjo
viher
lopetettiin
koulutuksen
ympäristössä
pelast
##tuki
##wski
museum
##uhd
##palvelu
perustamassa
##jehd
##alvel
wild
##telijat
ilmari
lisäsi
ammattikorkea
##ttel
into
ylenn
heimon
käsityö
kyken
julius
hamilton
##idaatiksi
molempien
ski
apulais
viimeisessä
gala
hyvät
##ograf
kontr
ilmoitettiin
ensimmäisestä
pad
boys
##draama
##kyl
##ysym
cho
puhe
akust
mans
sill
sergei
käytännön
materiaalia
##cas
##rie
diesel
työttö
ritarik
huonosti
moottorin
kirje
nimiä
menestynyt
##britanniassa
dol
heinäkuun
siirtomaa
nas
corporation
osum
fossi
kesäk
hammas
kohteeksi
kolmannella
##tarin
tuotteita
valmennus
yhtyeestä
lääni
esiintyvä
prinsessa
##irit
till
##komedia
##aam
##burgh
##chenin
image
kevin
##ynen
##maiden
asetti
maanjär
klub
olevaan
##kappaleen
##mys
##idit
##tures
tamm
##bertin
##phy
tet
ankk
##lain
##worth
##istelun
microsoft
sankar
sisältä
sarjasta
##yth
pelaajaksi
##ernin
järjestelmän
kandidaatiksi
##/000
##menn
benn
rose
##ältään
parhaat
haudattu
informaa
kaudesta
laajalti
##ats
##nel
##ground
isossa
rakkaus
sydämen
##yhdysvaltain
beach
lauta
poista
airlines
##strömin
suurimmista
toiminnasta
##ops
billy
peräti
romani
##issyn
lata
brittien
yleisradion
tiedetä
##ensis
pienempiä
valtasivat
000-00-0000
##athan
0.00,
##evin
##imar
liver
##olution
muuttu
pyytää
asevoim
angelesissa
##kilpailujen
##teem
##tuotan
neste
pakka
##ikoiden
##ilaisia
teatterissa
ib
bot
yleistä
perustetun
sik
laura
suojasi
##oliikenne
##esh
##ido
pyrstö
##sota
##kiertue
##edes
jne
urho
detroit
##alaisille
lun
auttoi
sairaala
##öyr
alki
vuokra
##tiikkaa
viikossa
hinn
##andina
kehityksen
##älä
--
##ustaa
marko
yliopistoon
##ipäiv
brad
parisk
ös
##valtio
legend
0.00,00
nimillä
kilpailuun
##ways
päävalmentaja
trump
saaret
andy
##ilaista
##juoksun
ulottuv
had
päte
00000000
levinnyt
löytynyt
käyttänyt
suunnitelman
##side
afri
natsi
vampyy
riippuu
lapsille
suosiota
##äksi
##istoim
pääsivät
maanviljelijä
kud
##uutena
palata
bm
his
tule
sähkön
alexand
##ør
mäkih
signa
sairaus
kaupungit
otteeseen
englanninkiel
bird
hävit
kolle
poikki
##irjailija
muistetaan
mahdollisuuden
##ciation
juoksu
luostari
esittänyt
##ube
avasi
esikunta
##kson
heit
british
##telliitti
suuriruhtin
tyyli
douglas
##arkkit
painaa
oikein
fuusi
arvonimen
##mate
texas
joissain
fur
##ellisten
term
##mag
vartio
piirikunnan
##teatterissa
kuuluisa
##ated
##iluk
##ipää
##ehden
pankin
elokuvate
##rican
entsyy
##tamisessa
##wart
tavat
nousu
puolu
awards
kylään
lähtevät
toimitti
väitteli
valmentajana
ya
azer
francisco
kaupunkien
##ulos
##kaani
##uudeksi
arvioidaan
##ful
autot
tutustui
00+00=00.
suurimpia
##lash
##-00-0
korp
amerikkalainen
mia
leena
löytö
oulussa
##irykmentti
##ов
##samm
lip
##isoit
chap
muham
paavin
pokémon
##uisia
jakson
buddh
kings
työpa
kasvin
uskonto
yhtyeessä
##qui
##ydin
##jokeen
##ls
purjehti
keltainen
keskittyy
perustuslain
##flik
säk
dance
maalais
omistama
jauh
väitti
valinta
afrikassa
leg
sadem
##roy
##amaa
##ilog
##itut
##magn
##halli
##talli
##tilas
uima
kylää
##liigaan
jokaisessa
rall
pirkan
##valtuuston
off
##kymmentä
##sse
espoo
jaksoa
merivoim
rauman
##usse
##merkki
pääkont
pääsihte
näyttelee
dna
##sylvan
koulua
niille
moottorip
christopher
##jakso
##our
sorm
tavattu
pikkup
päivässä
saliband
##valmentajat
maisteriksi
##ineita
##askunnan
aikaansa
##vänsä
läpä
päiväk
##sik
asiassa
astetta
tärkeää
yhdestä
isäntä
##gö
##atteja
vaalit
linnoitus
soittanut
kuninkaaksi
##voimaa
##elmasta
etelän
pidätettiin
matt
edist
##itoja
vään
hoito
right
barb
##koissa
nokia
katto
albumil
johtivat
vaikutusta
syt
ober
keikka
patter
itärann
kallion
edustajana
muodostunut
omasta
perinteinen
##saur
##gerin
folk
sope
kukka
tus
rikk
puolust
rautatien
apuv
äänit
asumaan
sanomat
ajankohta
synnyt
voittaen
##kyt
##omies
##kosen
kein
johansson
kansainvälistä
##tarkoit
vastaavan
##ervo
beng
ans
##ikohta
tunke
epävir
seuraavasti
etsin
##syntyinen
vastakka
##sopimuksen
toteuttaa
johdossa
hallintaan
edu
##rasta
##tujen
lent
katsom
##wi
##foni
##mukais
elokuvak
tuotantoa
##katemia
huomasi
säveltänyt
##mid
##vers
##erkin
ylem
seudulla
tos
##kaatin
0000;
tuote
##festiva
kertovat
sotilasta
hallitsija
pöl
taistelut
teollisuuden
##tane
##kasvit
kolmesti
lintujen
vastaanoton
mais
lause
##ittainen
nimestä
nuorin
halki
pekingin
metsästys
ranskalaisen
##emme
gib
##iasta
kertonut
ryhmit
tauluk
arvioitu
nm
gla
thor
##uetaan
##ymistä
##kattiin
listan
julkaisun
voittivat
##pojen
kerros
##hallitus
mittaisen
rauni
##nyk
keskiajalla
dio
jam
##ather
##fre
##marin
hifk
##asiain
enintään
##tilaa
solid
##uuttaan
##telemaan
poikien
anderson
yhdistelmä
kolmik
##core
##jistä
kasa
##ikoina
levytyss
veljekset
koos
wag
##ession
##musiikki
laivast
##utuv
##ilais
##oseks
lisätä
billboard
##dik
herk
##vainen
##pohjanmaan
saha
tarkk
##elmissa
aseita
romaanin
kirkonkylä
##afr
luoma
eroon
racing
valmensi
##ruu
##uru
jotkin
##amassa
luonne
maali
vatsa
miehiä
##gha
##rool
##uokan
##syntymä
valtiopäivä
##ioissa
##uraansa
murhaa
kaupunk
##rh
##uda
##tikko
##yissä
ontari
pystyt
puolelta
hallussaan
##cop
##moja
voitu
##esiassa
saavuttaa
00.0.0000.
##rain
sotatoim
##itieteilijä
##wh
##etz
lepp
(00,0
##lliseen
##ryn
##énin
##oneja
##rakka
##tajia
suunnattu
gt
##maata
hugh
##yhteisön
elokuvaan
työskentel
##fysi
magnus
tuhota
##teollisuus
pakenemaan
##kuo
myyt
täten
jatkoa
edition
keskitty
viidennen
##rip
##itaa
löytä
##osas
fun
##trans
huone
elokuvajuhl
##rikko
college
##ield
vaikkakin
ylimäärä
keskeytti
##lar
ltd
pub
que
tyrmä
##sarjasta
greg
hang
##hämeen
##kkonen
helik
yritysten
tutkimusta
vaihtelevat
##iohj
##isma
##kona
##meri
ylän
kuvassa
puhuu
kesäkuun
##xi
kongr
samat
alusten
kaudellaan
nich
##kartan
water
warner
tyynenmeren
00.0.
erimi
##viera
##kasvien
valtakunta
irti
loppui
paikoin
virossa
##loja
##keiden
isänn
maalip
##univers
tällaisia
championship
##ск
##hed
##roll
cli
horn
this
##ajossa
##ikoita
##chusett
000,00
lämpim
työkal
puutarha
##basso
tukee
cambrid
vaativat
á
##xic
everstil
mielenosoit
bond
ruud
syöt
rintam
##juom
kyseen
vastoin
alueesta
ikkun
##ytyksen
##maton
##valti
##yminen
holm
##teivät
kuunn
jossain
jugoslavian
##gari
squ
porvoon
##yhmän
pitämään
##isal
##aasian
asiakas
##lähettilä
taloustiete
hauk
hyvää
rykmentin
##ettin
##koilla
alban
pitäjän
sebastian
ylennettiin
##pankin
konflik
niemima
peräkkäin
argentiinan
##ffen
##sista
ryan
xbox
aseen
jason
##ilpailu
viestintä
##kokouksessa
##uohj
##ellistä
koiran
sarjaan
vähemmistö
##tre
##ikku
kuoll
makso
##oriossa
suunnilleen
##adin
grafi
myrsk
afrikk
liverpo
##oiton
##ensimmä
liittyvä
web
##äteen
##miesten
keitti
##oren
otta
vasen
##olaisia
arto
ampui
kalastus
nykyistä
tapahtumien
##–0.
##umat
hud
luovutta
neuvoston
hyökkäsivät
sakso
selviytyi
##laji
mylly
lauluja
liikeva
vapauden
ferdinand
##odia
science
lentokone
tanskassa
##cky
##ranga
silmät
kultainen
##icin
##will
##uksiaan
kotkan
manter
erilaista
yhteyteen
##gam
##estissä
koulutukseltaan
poissa
heinrich
poikaa
maakunn
ug
##eetin
##immillään
nation
frankfur
##ysa
##juna
mieltä
##vuoro
geomet
mantere
saattoivat
##ther
##antti
##kalle
hoiti
varso
helppo
##syö
##ties
##uval
##uskesk
sisältö
kiekko
festiva
miehittä
##divisioonan
##laus
kriitt
##stad
##yhtyeet
käynyt
kuukausi
valtamer
todiste
entisestä
##kore
0/0000
seuratasolla
##avin
#''
kuopio
riittävän
##nis
##teestä
pennsylvan
säätiö
association
kilpailuissa
kite
##puolen
produc
##wall
##ware
fon
more
kansallissosi
##puole
helpom
jalost
##gram
##jamin
##lleen
europ
##äntä
##niemi
##kappaleet
insinööri
päätoimittajana
juv
##kaava
##night
brasil
lauloi
pitkäl
yksilön
negatiiv
pianisti
giov
andré
lapsena
myöhäis
##?''
##wic
##pari
tarvitse
tehopistettä
##toit
bog
kalast
propag
##cro
##lopp
##video
hänn
näyttämö
sea
liek
##bralta
temppelin
##chr
ye
kiss
elossa
palvelu
päättivät
teoksesta
rakennusta
ylivoima
##aven
##book
##önsä
minä
ruotsinkiel
##myy
##ikit
##etuksi
piirikunnassa
##led
kurt
devil
elizab
sanoen
##alueelle
##oilta
havainn
jacques
##istuksessa
perustama
suunnittelu
##sääntö
määritelty
##sissä
##koiden
finaaliin
kimmo
0,000
0+0=0.
neits
kääpiö
sanoista
##kkiin
astr
kuorma
luostarin
orkesterin
##evia
stefan
hylättiin
toimittajat
##ynsä
haki
##stro
##ynnä
alger
eräät
oppia
gordon
rinnalla
##ugua
din
pidä
again
lensi
tavanoma
itsestään
##elmät
##oliin
ylil
satelliitti
##esit
nen
pesi
etiop
viimeistä
opiskellut
##ariin
##samon
ranskalais
##kisoihin
virkaan
##vaaleilla
##osat
estä
fina
##aktiiv
##innista
##istalla
syntet
##ivana
koski
##tionaal
kielet
salminen
lp
##itit
##ttinä
hier
pull
viol
vanhat
##amisesta
koulutusta
tekste
yksilöä
##murh
rup
##ellis
##ilis
##vään
alke
##aasiassa
edistää
tekijät
yhdisti
instrumen
##juur
latvi
joutunut
kreikkalainen
##arkkin
##ittejä
tiedotus
##df
##cul
##erä
##ikov
##vila
pientä
task
##llinen
saisi
yleisiä
kielessä
komentajaksi
##tiainen
kansallispu
story
paluun
element
hitlerin
fik
##world
haja
hugo
opinto
reitin
protestan
##kosta
##hallin
##väestö
parti
joutsen
##lock
fyysikko
##ylla
##kunin
##ultaan
kaava
##örssissä
hitaasti
kamar
kymmenes
##oko
##leir
##ikaksi
liittola
##yhteisö
itärin
vasten
##evaa
##työtä
kuka
##okkaan
##annissa
##eration
merkitsee
kiekon
sveitsiläinen
##uriin
kasvien
now
##alehd
##ianus
0+00=
hurri
##euvosto
korean
toisesta
laivastoon
tarvittaessa
upot
autoa
kalasta
opintoja
sym
tekemä
##syntymävuosi
välityksellä
##uure
##tunen
halti
parantaa
osallistu
##down
##urak
jakaan
maksaa
työnsä
osui
##uneesta
vaihtui
vyö
kokeil
##myöh
guy
gunn
ellei
gummerus
kristuksen
##nt
wis
##hojen
##ehallinto
##eki
##esko
rafa
raun
ross
##mie
##talle
##laiset
baseb
ennak
kuori
yllät
kivika
tällainen
avain
karjan
ristin
##järjestelmää
...
##kista
##voista
##ekkä
##ettö
hyviä
##yksikön
ruumis
monesti
massachusett
##istuimen
voitettuaan
##vier
tehdyn
energiaa
pitkälti
tammikuun
##ein
##västä
uefa
##kaistu
lentä
pankki
komento
##allisessa
kajaanin
joulu
aktiivinen
##truk
rid
miksi
potkut
neur
aktiv
yritykset
##uton
dir
sain
armeijaan
lähistöllä
##top
ion
uta
##imassa
##attomat
korjaa
edustajain
##itch
##meja
##uonn
*000
osas
laine
asennettiin
joille
alkaessa
##vojen
0.00.
vuosilta
taidemuse
##cre
##taal
##tamon
kissa
kaappa
mestis
división
eurovision
edull
nopea
sofia
pohjoiso
nostettiin
##tallin
ehtin
saamela
tps
##isaar
##pisteen
linjan
kiertää
barcelonan
epäonnistui
obs
marcus
gibralta
kirkkoon
kroatian
tyypillisiä
oil
##ettäv
osaltaan
oikeutta
puus
rick
henkilöstö
##eläin
kärp
##salkka
forss
vilja
classi
##veri
lady
kyseinen
mestarit
esiintyä
##ennen
marvel
tutkia
ruokaa
korhonen
blood
##felt
maaper
##eing
justin
kolmella
metsästy
muuttivat
toukokuun
yön
##isien
##perian
##tamien
moskova
erillinen
##telyssä
reaktio
mielestään
##ustri
elokuun
##empään
laite
vahvista
##llikön
loppua
##elliseen
juurikaan
##anut
##ppel
kiina
havain
kuntien
liittoutuneiden
nit
##imuoto
pietarissa
kalev
rangers
##lähetystö
##ajat
ankar
keula
katolisen
gn
emmy
muot
seis
evoluu
kommunisti
millimetrin
##gang
##ilyä
##mälä
##yhdiste
harris
kommen
##vaiheessa
ymmärtää
##paul
haavoittui
##pans
##house
##tiede
vann
laskea
meriros
##aver
##raja
alkuer
##esim
jok
(0):
##kokouksen
aarne
globe
iranin
sairaan
sävellys
yleisurheilun
kärsin
peking
yhdeksäs
irr
##oistaan
nu
##ukal
costa
arkkiteh
##ikaupun
saarten
aaltonen
puolisonsa
vapautettiin
kehä
jimmy
playo
jäsenistä
##").
##kinsa
head
##empänä
##plä
dc
##oivat
##opisto
000–0
gustav
lauanta
lasse
##organis
##ranskan
##televat
sisältyy
tuotantokauden
mk
aku
xiv
axel
adrian
hotell
valmistel
##iosa
ruh
ska
##savon
idän
##otonta
karhu
##ohjelmaa
ystävyys
ilmestyne
arvioitiin
liittyivät
uno
##etelä
##ikissa
asiat
##yrityksen
##lish
##harmon
alapuolella
kommunistisen
ahd
who
##alifor
first
haapa
kauppal
hollantila
##juhla
##niemen
##single
tappion
lj
tumma
##istukseen
sanomien
yleisölle
##intiin
maaliin
ple
haas
jama
mora
henki
valitsem
vasemmalla
##jor
##uttaja
poten
magneetti
ia
kaarlo
komple
lukuis
kotimaassaan
tommy
##ispiste
##toiminnan
ennätyksen
##kansanedustajat
##ehr
##isku
##kent
##rick
pysy
johtav
mahdollisti
televisiosarjat
teoria
valiko
lii
##jälle
lyhen
nosta
##ellisiä
hetken
rudolf
##ingtonin
##eläk
##tica
ital
##mallin
musiikkit
velv
##lands
vähentää
##täh
avo
##tomia
tosi
tulle
##hiihtäjä
roolistaan
##öksen
trin
''(0.
##jalleen
helmikuun
luonnossa
##miksi
##ioista
##umissa
paikallisen
apostol
vietiin
##yytensä
pääministerin
##uga
suhteet
iskelmä
välimer
jakob
##ipiispaksi
##iot
kih
palkki
##muusikko
##liisa
eroaa
##iläinen
urheiluse
##innasta
pystynyt
##oken
uutis
disney
huoneen
uudesta
oikeudet
##jällä
niemimaan
0000–0000:
##idun
gas
##oppila
io
##ykkä
huippu
sakari
pakotti
depart
philip
0.00.0000
hiihtotavan
vallankaappa
##aikaa
##saksa
##akon
lep
insp
naut
riian
siviili
##eo
##sko
##utto
oltava
playoff
hankin
marssi
omaksi
välisellä
##olev
mär
##valtaan
(0000–0000,
eteläosassa
lappeenrannan
##arch
hopea
minera
kunnost
olento
##britannia
voitaisiin
sud
seut
suosion
##eran
tikk
luvan
ympyr
toisensa
loukkaantum
##eliä
mäkelä
ajoittain
euroviisu
näyttelijän
##edon
##wnin
dos
##opuol
kvan
##isyydestä
seinäjoen
miet
mosa
kazaks
ulkonä
##operaatio
tarkasti
fair
haus
##varain
hitti
##uksestaan
##more
wid
turb
##isyyteen
##reen
josef
tšekin
dre
mccar
parad
biolog
rengas
erinoma
kalenter
punaiset
##onneet
##unto
##arina
verot
rakentamisen
##fle
##ihm
rumpal
merkitsi
varsinais
venäläisiä
##oto
##ikaal
##palkit
##peräinen
kunnioit
pariisiin
##arissa
arkkite
##kuk
##jenn
##raha
aven
free
kemp
##joukku
##ksestä
jalan
freder
näytelmän
juutalaisten
##sep
##spe
kattaa
konetta
siirtyy
ottelunsa
välierissä
vallankumous
eva
latvian
##uuskilpailuissa
##ovir
##evien
kong
kykenee
käyttämä
keihäänhe
muuttunut
aloittanut
käytettävä
alaisuuteen
yhdistyneen
suomenkielinen
##cz
byr
ihan
uraansa
jäljelle
yrittivät
##ilian
hieta
##demokra
kapellimestari
##uslait
syytä
kuljetus
##kilpailuista
##ulat
tiede
suomentanut
##cka
##erkit
##kelpo
harha
kuoro
pitkälle
brys
etteivät
##yhdistyneen
tutkimuksessa
##umalla
kateg
sivut
myöten
paljastaa
##ymmentä
general
tulleen
julkisesti
tapahtuman
##hassa
juna
konservat
tähdistökentä
##ople
ump
know
maailmaan
keisarillisen
##retk
##tyttö
aksel
luxem
pihla
tuotiin
##dynastian
tuottajana
princ
sopimusta
muistuttavat
##nov
vää
##dissa
##kuten
##opisk
scar
lajien
ainetta
hoitoon
käsitteli
teoksensa
##svens
veron
##ukselta
##pion
##cover
blom
mona
pear
yhdistetty
get
child
sanaa
laajan
##veä
##ihappo
##iuksen
##ittajat
päälliköksi
##hanin
##paine
asemaan
asianaja
##virran
projekti
##bak
##tihe
soft
ottelut
kanssaan
opetusta
##sn
dic
komp
soitto
joutuvat
tehtävät
maaliskuun
##maalin
pienin
jatkoivat
käyttämällä
##ytettiin
rauhoit
jakautuu
##iku
emma
mäki
laill
##jektiiv
soundtra
vaikutusvalta
##gall
bush
nokian
##eettinen
joitain
todellinen
luovutettiin
dragon
karjal
mukainen
##suomalainen
##ivä
cann
##tietok
äänistä
##nas
##väs
luh
##ervat
##orial
raskas
normaali
vul
naispää
ilmaston
selittää
ylläpitää
##arien
suuressa
esittävät
##kah
##ukku
ral
##sivuo
tapaus
##vaike
##armeija
tulleet
##pujottelussa
##ukasti
psyki
osallistuivat
tilat
vakavasti
paikallinen
##tekn
illino
olenna
tuomitsi
hiilidioksi
##hoven
##oitto
esti
minnesota
näkökulmasta
##asukka
##itsevat
##profess
##ša
täs
emer
ykkö
raimo
esikuv
tilapä
tavallista
viimeisellä
##istor
##puolinen
lauluntekijä
rakennuksessa
##town
pia
##ssien
##suvun
ajautui
kasvattaj
##illes
kapino
##svenskan
jääneet
viljely
esittämä
elizabeth
valkoisten
korrup
kolmannessa
##astia
##gessa
logo
##elämää
state
norman
russell
society
elektroni
pääosassa
##annous
kirkkoa
kerrallaan
lawrence
historioitsija
##uottaja
varusk
##alaisena
libr
pred
siltä
naista
ottaen
torjunta
avioliitto
##tyneitä
##upäässä
toronto
ring
viit
##reiden
myrkk
alkuloh
denn
hiek
##tekijät
laivueen
maalivahti
##enko
##kkik
##levyn
##esitys
publi
##attaren
##tuvan
simo
naan
asunut
kaksinkerta
fel
jatkamaan
sijoittuvat
##pek
##jaka
##baidž
***''
lähtem
yorkiin
pelataan
politiikan
##blad
spek
natur
sotam
ylitti
pelasivat
sep
yhdistyivät
vapaaehtoisena
##klub
räjäyt
pelaajien
##kei
##ilaa
lyy
palatsi
##gna
zen
##aanin
kiit
kalevi
tähtien
vedessä
silloisen
##sei
##anto
##phan
päh
##ridin
##uksille
liberaal
##:00
isku
mata
inves
##oiskuva
reness
ottamaan
##säänn
history
hongkon
##"''
##eiksi
kapinan
##asiteetti
yhteisön
##kii
##ennan
ylen
sairaalassa
##kaikki
##ikoulun
haitta
nieminen
romaaniin
##cap
tallen
##istuminen
kankaan
rakasta
kulkevat
merkkejä
tärkeimpiä
dino
maun
asett
sairas
useaan
hotelli
kuvernööri
##uvo
##ellan
##gista
abra
pori
##minuut
lakia
philipp
ensimmäisten
hävi
pomm
ful
halut
pyram
puiston
perustajajäsen
tupa
##rio
##osien
##kirjat
##american
unescon
vaihtaa
##ots
urugua
monista
##etsin
servi
luetaan
000-0000
kasvattajase
matemaatikko
matematiikan
seg
rahan
##elmista
arvioi
gregor
##ohjaajat
kylästä
tunnista
vietnamin
##oitin
norr
katosi
planeet
bysantin
korkeakoulun
##tto
##ikur
##ious
##ityö
##ittava
surmat
##palkinnolla
##urat
liby
##ruskea
syrjä
##taiteen
herman
natrium
##ogeen
##öissä
##joukkoja
mielenkiin
##osake
##tuessa
neljässä
marraskuun
kirkkoherra
hut
spin
reagoi
syyrian
##inaalissa
kiertueen
suljettiin
##amon
haav
mital
koneet
kääntyi
adop
hind
vaja
##emmasta
käskyn
syytti
muotoil
##musiikkia
selit
arabian
tarinoita
##oster
maaliva
venezuel
roomalaiset
##iinit
##öörinä
earth
liisa
viidenn
sukupuut
muodostaen
alankomaalainen
##sav
##puhd
book
##pankki
leppä
times
tuuli
##opiston
huomattavan
##but
ww
##arvon
lainalla
##iho
bam
kinn
semi
##vaihto
thomp
alalla
tammik
varpus
mahdollinen
allekirjoitti
ted
maapallon
##eos
##ojan
oyj
0,0–0
usean
tehdyt
tuohon
(0000-0000),
##mella
##yylin
goog
avaja
charlie
indiana
benjamin
lähtivät
romanian
näyttelem
##ject
##atran
ammatill
##öllä
häneen
##talouden
ylittää
täydennys
diplomaatti
huul
toki
##käinen
analys
##yon
##sija
##piispaksi
kotikaupun
##äv
##joa
##rix
##dium
##evers
puola
ner
##muutta
##alaisiin
oppilas
osallistuu
kate
poikk
uskom
##uudelle
america
henkilöiden
##kintä
vilj
rakennusten
taj
##ettaisiin
##ettäväksi
nimenomaan
sz
prom
autom
ravinn
selkär
laajeni
##toimintaa
homoseks
tarkoitti
##tieteellisen
nk
##ekal
##usan
kopio
huonon
peruste
edustavat
##kuljettajat
##uunnittelija
dion
tunt
##musiikk
kylmän
kristiin
katsottiin
ranskalaiset
suomalaisessa
##andan
##yyppi
shin
wienin
##imeltään
giovanni
keskimat
omistettu
elämäkerrasto
höyh
lasku
asuvat
##sarjoissa
levottom
##bio
##köp
rol
##ikoulu
suomalaisista
##sie
##uos
##koulua
raati
##emmissa
kunnat
omassa
äärimmäisen
pär
##arinen
uskoi
britit
vor
##lintu
##kentän
##sinaan
cityn
##upseeri
julkisen
##emmälle
##kirjasto
ohjelmaa
##ryk
alttar
halv
##itanni
##aleista
oppilait
##fv
##alalla
##tiosta
luote
##ruotsin
##turun
urut
säästö
alkuvuo
brasiliassa
puolalainen
timan
##yneiden
reservi
rautatieasem
##ós
##maks
##ennot
00–000
monilla
toimineen
##pper
##kohde
ainoan
##siini
##onneen
ryhmät
kriitikot
muotoinen
tehtäviin
##emaa
##tutkija
uudelle
jalkapalloseura
mait
havaitsi
prosentin
risteilijä
##mic
##juon
data
##maaliva
##yhtyeessä
vaihtoeh
rehtori
kerrottiin
sut
paini
##oitunut
vuosit
sanojen
##burn
gos
##ravin
##uorit
bros
piispan
##sve
##tävänä
jyrki
##oittajat
bernard
albuminsa
vaihtelev
valkoista
leningradin
##cam
##illo
tyv
ukk
trak
##oissaan
##jästä
##version
talonpoika
##ра
##zza
##tosen
gian
vauh
jersey
##torjunta
matkapuh
useisiin
kapteenina
##nar
##öntä
##linja
mennä
palautettiin
yleisurheilija
isab
tuhoa
työssä
festival
mustavalko
ominaisuudet
##emä
##liik
alen
smithin
##amieh
todettu
saajaksi
##000)
##ihall
##kkoja
##tolan
ihme
##vonen
##yksin
##yhteyd
##puolustus
pääst
tyypillistä
##atut
##yhteisk
matthe
asettaa
sotilaita
tehtävissä
uudis
liittyä
rangaist
##paja
jarr
satt
suosittuja
##ulaja
##siirto
pelejä
suojat
##pinnasta
##alaiselle
asukkaiden
##tyk
##tekev
##portti
kielsi
kaupungeissa
##imia
##viet
elok
party
osakke
kenraalimajuri
##orit
vän
##torit
toip
##saarten
tapana
vihollis
%,
##imys
##uusas
moore
tosia
##attorin
##ijärjes
morgan
##alaltaan
hiukkas
käsitti
kehitystä
##big
##går
##tier
##tomat
##aikaan
kroati
##komp
lyij
##isaira
kuvio
niemi
räikk
donald
kullan
raskaan
teosten
kautensa
potter
kandida
paljastuu
kylät
##osainen
mikään
sataman
preussin
muusta
turkki
vr
##töjä
##htina
##sarjat
miltei
näytti
osuuden
professorin
##pyör
via
##aliit
##elien
maxim
olesk
kiil
maanpa
eräässä
osmanien
kielletty
##cm
##alein
keuhko
molemmissa
vankilaan
osakilpail
elinvoimaiseksi
##poon
demon
##aleihin
##attorit
##ominais
##albumilla
taistelua
##energ
kärk
ansio
semina
pituinen
##ltaan
vero
autojen
pääkaupungin
##dyt
konet
varmist
titulaar
##uttava
siipien
tienoilla
loukkaantui
##oso
##pha
hjk
gary
teemu
##otteluun
edellis
##opoli
##valiok
##itteitä
##ulut
bin
itärintamalla
departementissa
##ukkaa
susi
##uomari
korot
harrast
lopettaa
viimeisin
##ère
##vanh
steel
berlin
tuuman
merenpinnan
|
##cupin
nova
pahan
hiukan
##ialaisten
##hteä
kylp
koottu
##vene
##ysty
ait
lordi
lentää
moraal
siirsi
interna
##hia
painol
demokraattisen
elo
##teina
##öihin
kera
apoll
linux
kiertor
##cian
##iminen
##palloa
##viljel
kauhu
##isarjassa
pyrittiin
##-00,
ifk
edmon
luovutti
armeijassa
seuraavien
##kitar
munua
kotisiv
kohteena
teologian
provinssin
##ane
##seg
##anth
pav
hipp
idea
mete
rune
mitch
pöytä
sotavan
musiikista
julistettiin
kirjallisuutta
taloudellisesti
alkuk
rikkoi
olevasta
virolainen
##het
##cock
##kuusta
mallia
itsenäisyyden
sr
toden
miller
vakitu
useista
sosiaali
##tera
köl
antero
lentotuki
sellaisen
##jilla
##holmin
lehtien
##iinsa
##piire
epäto
##ementin
torpedo
kesäisin
toimiston
##utettavaksi
##hui
##omieh
##arista
lampi
##tonissa
##uduttua
kysymys
punakaar
säilytti
äänittäjä
guine
##ikanaan
##air
##ror
abo
haut
peng
lukion
painot
muutoin
lahdessa
mesti
##uurissa
##ossar
leim
kapina
ravinto
republikaan
design
##kyky
##isalmen
muodon
kokoonpano
suunnitelma
komennettiin
##joka
##udeksi
arvosteli
perustamisen
##englantilaiset
reino
##oku
##mmen
ylin
tutkii
##ml
##bos
##uge
##gard
##kasve
lamm
country
##kuljettaja
typ
##david
##täessä
vapaus
laajasti
##tehtävissä
*0000–0000
loma
malta
vaino
oliver
##dens
##herine
luonta
äänestä
perustel
gene
kiista
##paikkansa
jonathan
ristiriita
##ettaan
listo
##tynyttä
tokion
talvehti
ale
##pojan
asutta
mustat
tuntur
tekstin
##ikojen
marin
##nimistä
sekunnin
siirtynyt
sprintissä
##aw
##vot
##ovon
##monin
häviä
majuri
rafael
hautaja
keskinä
tulokset
##bes
##himo
gund
##kuljet
##emmalla
boeing
johdon
alkupuol
julkaisee
##atra
myydään
toteutettu
##edo
##önn
##ruun
sanka
##aleissa
##laisten
varhain
vanhojen
ensimmäisistä
##bä
##ipu
##kua
foot
kuulan
töihin
päättänyt
vankilassa
venäläisen
##ses
zü
poistettu
##got
heinäk
fantasi
asemansa
kirjasta
kiinnostui
##fir
##-00)
0–0-
##läisiä
ritar
ludwig
valtiovarain
fag
##ikaan
mini
eddie
norja
kitarat
luutnantti
##ydän
aman
##tykkinen
seitsen
000-00000-0
ilmail
avoimissa
##onnettomuudessa
##atem
##grand
pale
hiili
nelson
sopivat
viranomaiset
##work
vaina
eräiden
elisabet
##pyyn
##tamper
jäähd
0/0
testi
baseball
vallasta
muodoltaan
vaikutuksen
##vey
hes
planeetta
tapahtumista
##los
##oitua
maksoi
liitetty
tiloissa
##:0
##pojat
juniori
menetelmä
pohjoisesta
##mala
##−0000
luis
##others
ruskea
koivisto
julkaisua
sarjataso
##esen
etusi
##ikoilta
viimeis
##alliseksi
##sasi
paavali
satakunnan
##evoim
borg
##olosuh
snell
tapani
koristel
rannikon
##oz
##ätys
lot
uni
gard
kaupunkeja
nils
##ivalta
##utuvan
olosuhteissa
##vea
##rates
epäl
kuub
##elmaan
käden
##padding
bolšev
sf
##overin
##mr
##kyrka
##maahan
##juutala
##umisesta
00+00=00
ele
conn
hypp
clark
pesii
selviää
kilpailut
luonnonsuojelu
##tieto
helen
sonic
vaikeaa
tuottama
suomenruots
##tah
##”).
##eller
farmi
piirros
kokouksessa
##kai
##uble
##jussi
##äärän
oskar
korkeamm
lopputul
cellpadding
puhel
lyhenn
kaikkiin
yhteistä
molemmilla
jälkimmäinen
##kosk
##olissa
kemin
välin
haastattelussa
##pilla
kertyi
tehokkain
kiinalainen
panssarivaun
##asu
##upäiv
0.0.
leika
islamin
oikealta
##és
kv
##size
ketj
##afrikk
##mäinen
##ulassa
erist
paalu
taloudellinen
##isl
##kian
##iment
winn
etelärann
hollannin
##ōn
##otur
##ekani
alek
arvellaan
para
rosa
babyl
jakel
lehtinen
riippumatta
##xon
glas
vasa
yhdistettä
kristinuskon
##ilen
paria
paula
teini
erosivat
luonteeltaan
##km
#0
##alina
##kisat
face
##hankke
käyttäjä
puolassa
kirjoittaja
tiettävästi
ulkoministeri
syöttöpistettä
##htaa
vati
erkan
liban
##alankoma
##pelaajat
kukisti
samanlainen
##kaiv
##kast
##misk
##muuto
clin
nurmi
siiven
siivet
tutkimusten
cyr
nikk
muotoa
muuttanut
vancouver
##blan
##ukais
##ferens
mekan
seppä
##michael
deep
what
##ykseksi
maisteri
napoleon
mieli
selvit
kumpikin
qui
ilves
##romaani
kalenteri
rovaniemen
##ksien
esse
##hyppääjä
koskinen
##komppan
krimin
näl
font
##yliopiston
##täne
gang
#*
tänä
##oisten
valoa
keskil
korkean
##hem
ord
alav
##kuuhun
lincol
loista
pudotuspelien
##xt
mh
##kaati
##atissa
jouko
caesar
pienois
tau
european
pelaajia
##nimen
salmi
suurempia
##ollisuudessa
tuotannosta
tasavallassa
yhdeksänneksi
mind
##maassa
julkisiv
##päälliköksi
kilometrillä
##mans
arc
frances
##turnauksen
tapaaminen
valtioiden
dec
##menesty
tappoi
viimein
##elokuvien
emo
kyy
##stedt
harj
leop
lääk
summ
##alaisk
kolmos
etupäässä
merkittävää
petty
verkkosiv
zo
aro
##lähtö
##ettavasti
oopperala
johtokunnan
##say
juk
juhana
alankomaissa
##ikultt
tauon
helpot
##ihiippak
teknill
kymmenenn
pataljoona
ster
korin
##oksensa
viikin
##yöhykkeen
lehtonen
panssari
valtaosa
moottorit
eläimiä
françois
kauppala
##juo
##tone
##dorin
kulma
##forma
##millä
##utetaan
planeetan
vankeuteen
levymerkillä
philadelphia
ost
est
arts
nash
##jännit
##attista
##euroopp
muutkin
päivittä
##irjailijat
elokuvista
keskustelua
paikalliset
##upi
chi
jay
salli
kolmea
kauppaa
viitataan
##lään
kypr
paransi
##enpite
havaittiin
sotilaiden
##aav
vam
avio
jarmo
pariin
##palkitut
suureen
viimeistään
samannimisen
##guine
bakte
münchenin
palaamaan
ärs
##yland
vahin
jonkun
ilmoitta
laskuoja
selvittää
##rez
uhr
tang
##ottuna
serbi
##ykselle
talven
kunnossa
osakeyhtiö
##bag
luod
mielessä
##roomalaisen
intialainen
alkuvuodesta
rekisteröity
##kih
##ason
##ough
led
wir
##radan
cour
(0000-
piirust
antoivat
ydinvoim
ulkomaille
##,''
##espe
hym
##berin
baby
muokka
##politiikan
työntekijää
frit
neil
##kkalan
sotaret
tasapain
pikajuoksija
##maksi
huomion
pääkonttori
vallankumouks
##sl
##boy
##itas
gua
##paita
irta
##kunnat
##kustan
tuomi
palv
##tilasta
maanti
asemassa
##icus
##wald
ruoho
salaa
heikom
korvat
##attomana
telakalla
toimintaansa
hag
omak
##rea
##zig
sle
auti
##ulaatio
muutamaa
pohjautuu
tulo
nivel
venäjää
esineitä
ilmoittaa
##astoa
(00)
toukok
##itieteen
kauteen
seuraavaa
maantiepyörä
sukellusvene
hyper
kohtal
hahmoja
otetaan
ehdokkaana
##unkar
mereen
lakkautta
leiv
kotona
tiedea
ehtinyt
fed
muuhun
sanotun
käytäntö
pääministerinä
katu
kisat
nykyiseen
toni
avust
pelatussa
pelaajauransa
##org
##ähet
##kuvia
##keistä
reaal
markkaa
lukumäärä
hämeenlinn
matkustajaa
aleksanterin
##järjestyksessä
merkittävimpiä
jy
sco
##erner
komis
anteeksi
pelaajaa
##alevy
sankari
useilla
toimeenpan
tuulen
zürich
voittan
##paimen
krana
levit
käräjä
hyvinvo
vangiksi
##dent
##viime
viir
##ografi
jääti
saksasta
sellaisia
arkkipiisp
loppukauden
varsinaisesti
televisiosarja
##mac
arki
##neuvos
##terveys
kasvit
vakuutus
##yleis
viem
jäädä
keskis
oxford
tukholma
kaikkialla
pät
##iväli
tommi
##järvelle
azerbaidž
valloitti
##dok
##ysti
##oniin
##hävittä
##uneessa
kokous
morris
käännetty
nimekseen
##gean
##tensa
alice
istan
presidentinva
##dro
calgar
taiteili
versiossa
arkkihiippak
##idea
##taid
##faatti
historiasta
häl
suhd
##tiolla
##tämiseen
##imusiikin
vastarinta
esimerkkinä
##oppia
##uvassa
##ostossa
lailla
saattue
vastann
halusivat
avioliiton
##bud
##fra
##iley
##taaja
##lehdet
##tiloja
kontra
menivät
major
riippuva
institute
##eke
##suuri
niko
inten
sairast
itävallassa
tennispelaaja
##eliin
##itiet
kosm
mäen
bruno
tytön
##istumisen
##0),
toimivan
##sd
##feat
##iensa
##jumala
##emmistön
hylkäsi
##animaatio
seurustel
##kamer
carter
voitta
wright
palkintoja
##muun
skp
##attua
##lääkär
kutsuu
manuel
##elix
##ystävä
##alismia
epävar
mäkihy
##emo
##porta
##riassa
##ettavat
##teisesti
tulokka
prosessi
valvonta
edeltäjänsä
elv
eräänä
läntisen
yhteyden
uudistettu
nautti
winter
vierailev
##lata
##ppua
löi
åbo
##umassa
syntyä
alkoholin
##ihyd
harma
piden
kävivät
markkinoilla
##-0,
luet
päih
##suunta
firen
ultra
##albumit
##ulf
pé
##esto
##yntä
pam
##komen
robot
vastine
ruhtinas
aiheuttavat
kras
neuvostotasa
tuotantokausi
##imme
oik
holo
##ustettu
##ustolla
metron
aasiassa
asutusta
##ispäiv
##seikka
herää
mella
myöhemm
andersson
hyödyntää
perustamisesta
todist
aikainen
##oney
##ykkö
loit
##llisen
huomio
kunkin
lautta
otteli
##juz
##nassa
##isointi
käsitys
##riin
##umaa
##orkea
four
erilaisissa
vahvistettiin
##uten
zar
lähtöisin
##järvestä
poliittista
##pea
käydä
miinan
neitsyt
onnettomuus
##amis
##thin
##atoim
##roksi
hepre
lammen
tarpeen
sisällissodassa
##itun
##ische
##ityssä
mäkinen
lähtenyt
tytäryhtiö
seksi
viiteen
##allisesta
lopettanut
##haar
bod
stutt
järvinen
pinnalla
huhtikuun
tunnistaa
purjehd
saaneen
australia
paikallisten
beck
itsekin
menettää
##dic
##unnalle
linnut
lisätty
##tans
##alait
##innän
##siassa
arkisto
##divisioona
##ilpailuissa
käynnistyi
intern
göteborg
##hs
##kilan
uusim
##eliuksen
kyennyt
##alaisissa
##maalivahti
pikkuplan
ske
##istia
täynnä
italiaan
pakistan
johtamaan
##turnauksessa
##ihah
side
##verkko
osasta
taistelemaan
laajennettiin
call
arsen
##piiriin
havaij
laulua
painop
missään
säätiön
muuttamaan
##auton
##ittien
##hur
##agua
##isel
##umis
##wich
rodun
stand
viikolla
pysyvästi
tilannetta
vt
##tele
box
ship
kalan
nuoria
ritari
maalasi
theodor
tornion
mainetta
useamman
aggressiiv
hallitusta
##hö
kiloa
spring
teri
kausina
pelattu
saarilla
järjestys
##eti
##mina
sed
maka
ulla
tuore
raitio
punaisten
yrittävät
liittovaltion
##xy
##sila
ammon
palautta
versiota
laborator
##happ
##derin
##entti
investo
##yjä
##body
##enix
##ustann
karja
sanoa
##paikalla
##tuotanto
vaalien
llo
##mania
peliin
muualle
silloinen
##vitš
##kelta
##kkona
upps
kanna
##kapteeni
nykyisessä
##fried
##ojaan
##udelle
sierra
kauppias
kekkonen
joulukuun
ilmavoimat
taisteluissa
##oshi
##west
ihast
mahta
sahan
ulkor
##ikuvern
saarta
schuma
rintama
maaottelua
karjalainen
##uodon
kodin
ääniä
##steinin
kuulla
entiset
perintö
onnistuivat
keskimääräinen
tele
##umiseen
söders
vakina
säilyttä
edustajia
ice
lupasi
с
##hallit
latti
##isemmin
hämäläinen
itsemurhan
##itie
bour
samasta
siirtyä
memorial
britannia
jalkaväki
baij
jarkko
lainsäädäntö
luomaan
sé
klaus
partio
##das
#00
##halti
##ikkona
##hka
ryhd
pitts
identit
sukupuuttoon
did
##entin
##ikerr
kood
scot
kiersi
vapaana
##uba
anat
tran
##tilaan
juuret
selviytynyt
maalipörssin
##dog
gad
##oksinen
koiras
viikko
etäisyyd
##elokuvissa
##orkesterin
##jalkapallon
polttoaine
tapahtuneen
##bow
##etš
say
nepal
ruoan
viulu
bulgari
leonard
myöntää
konferen
##eläim
##oituu
##kaanin
saudi
##uneista
minkään
##isuutensa
asioista
muutokset
voimakkaan
hd
##tiona
jättä
commun
karhun
kahdeksi
##playstation
näyttelijänä
##tot
##viv
brun
prost
kuolemansa
zag
##etessä
##iinien
##isoitu
varoit
valkoisia
vahingossa
laitahyökkääjä
##born
##less
##isaari
pisto
vamma
cooper
popula
korkeintaan
testamentin
stalinin
##kh
##kattu
##osaan
tera
tukemaan
toimimaan
pörssi
##laaks
jous
bonus
##tyminen
libera
moniin
##ery
##kla
##suku
ainoana
käyttöönsä
pitkäaikainen
##asä
##orf
miek
##imalla
##eläimiä
##uraa
pauli
##umentti
raketti
ateenassa
tuottavat
##fta
##mut
ota
##iläis
##oriassa
alppihiih
klassisen
kilpailija
mw
bah
##kasvi
keks
##atterin
france
##bile
eag
wit
demo
lämmin
arvonimi
novgorodin
ariz
made
lapuan
näillä
##emminkin
kärkeen
elokuvalle
##draamaelokuvat
ör
##000-
pommi
wayne
##oga
när
gott
##htinen
##tiheys
##usteli
lehteä
kirkkor
normaalisti
##craft
##ingham
kolmantena
##gat
##assi
##what
alf
##jäksi
gren
##elleja
luenn
rooliin
linnoituksen
##alev
##oittoa
pisin
laulut
kilogrammaa
rug
##eläinten
##myyn
dire
elek
kartalla
paikkaan
tutkittu
elintarvik
rakentamista
tutkimusmatka
eeva
fameen
serbian
hämähäkkim
0-000
vaaran
##hallitsi
ylioppilas
valtaistuim
##tyv
nfl
hunt
työt
##alusta
radion
##koulutus
vyöhykke
##samo
etuk
##uotteita
andreas
elimistö
hengitys
hyväksytty
suurlähettilä
##üll
##illin
petr
##teellä
##ór
##kyn
napa
frien
poistaa
oopperan
peleissä
##ismista
##periaat
##piirissä
väliset
jännitys
kerralla
##issyntyinen
piet
pääsy
viljan
henkiin
hermann
##japanilaiset
##arvi
sui
ehkäis
liikaa
mallit
myynyt
tyyliä
pelasti
puolusti
vanhassa
##fian
##ivet
##tgen
##ääni
tee
leikkaus
shakespe
viipurissa
##teisen
kuuli
syvyys
johtajat
sarjoissa
valmistuttuaan
##elissä
rungon
abraham
birming
##mahdollis
##opettajana
syntyneen
##aku
##yvä
ecua
vesip
neuvot
suostui
varusta
barcelon
nykyiset
yksityiskohta
järjestyksessä
##tavar
kristian
luottamus
tarvitsee
konkurssiin
##ige
##ires
##ónin
maalla
sytty
##usiikin
##burgissa
savonlinnan
##evää
##kaudesta
central
tasolle
senaattori
##wat
##ikal
wim
##ryhmään
legenda
shangha
vakiinn
kohtasivat
##valin
logi
drama
##istelijat
##tsa
aho
##edian
##tiedon
konsul
päivittäin
vastustajan
teloitettiin
austin
akateem
vincent
industri
liikkeelle
##erot
##roid
##ologisen
asioiden
yksimiel
##akk
apu
dean
huum
##arilla
tunne
torjui
luotiin
aiheesta
paikallisia
kenraalikuvern
##kkala
sarah
##ytyivät
##isuuksia
olevista
kiellettiin
##fly
##hansa
ajassa
##hollywood
telakalle
##ostel
##hockey
##tavansa
000–00
teoksi
brother
kulkeva
sanonut
companyn
tilalleen
lontooseen
napoleonin
omistuksessa
korv
lönn
tren
##spacing
kaakkoon
paikasta
alankomaat
kahtia
odottaa
##teatterin
suureksi
pääsääntö
samanniminen
##odon
viii
##heimin
erotti
stewart
thunder
##otteluissa
##"),
conne
semif
knight
laakso
syövät
ymmärr
komppania
vaikuttivat
##eno
##ikun
##kanta
##alilla
tuhann
museossa
teknillisen
wes
##ehitys
##uksina
##allisuutta
helikopter
##idat
##sala
mits
veter
inspir
luokkaa
sairauden
tutkimuksia
hämär
##ööriksi
keller
tanska
hankkia
merenpinnasta
##-0:
##lossa
jani
aikoo
metropol
rahoitus
ratkaisu
cellspacing
ortodoksinen
##allen
##ristin
##wellin
capital
##oput
turvaa
maraton
tulosta
pohjoisrann
##ffi
##uvi
##ftin
##osasta
luvat
puhua
neuvon
virtua
ravintoa
kannattaa
beh
##asten
hiip
##koneen
beton
kauka
kelly
moham
murto
vuokr
median
laitteen
pitkäksi
saarinen
kuljettaa
vaihdossa
valmistaja
merkittävän
alkuvaiheessa
##dian
##mena
##wick
##lesin
hark
jerry
rauha
##tämisen
indian
merkitään
jatkettiin
##lap
äs
##lejä
cul
domin
karva
jeesus
kannan
poikkeaa
##matkalla
aiheuttama
##bian
parta
koulula
kertomus
varsinaista
romutettavaksi
roos
##ivuori
volks
teoksessaan
##zel
##titoim
##emmassa
opettajan
progressiiv
##eina
##rikki
leikk
##ottivat
metsää
surmaa
kuvitteellinen
##на
jalat
##kirjoitus
victoria
eteläisen
millimetriä
kaksivuotisen
##sche
bened
uo
sati
##miselle
nousta
polkup
tultua
kansanäänesty
##tistä
jona
kytk
vaiv
keskitys
armeijasta
##laki
##uskyky
agent
kieliä
lämmön
##yhteistyö
laulajan
käytettävissä
apte
boris
salan
##olliseen
itäisen
räjähdys
##irykmentin
alkuperäistä
##hom
##bury
##ikäs
##kampan
##lehteä
##uuriin
misso
sisko
vanhaan
antamaan
historioitsi
##open
aki
hunter
sisältävä
alkuperäisestä
##pm
aktiivi
muistiin
belgiassa
toistensa
paikallista
##wo
mt
##hdan
##ibian
filip
tutust
johtavan
syntetisa
##jaus
tata
##tionin
syyttä
##opiskeli
hämeenlinna
korkeudessa
valmistamat
##pih
käk
##tävään
tavallinen
chel
alueille
angelesin
maailmansotaan
##kohtia
##ikäinen
määriä
glor
käyn
##iryhmä
##poliitt
innoit
loukka
ranskaa
kirjojen
sellainen
##jean
##kaikke
monar
katedra
olevassa
##kirjailijat
##gos
##kova
raym
##alaisuus
000–000.
##äky
##ötä
ath
tekemistä
julkaistun
##vr
##katso
ohjat
##tavaksi
##uokassa
englantia
##joina
##veltä
reijo
##intiaan
opettaa
0000/0000
erilainen
##mouth
samoja
laulajana
syntyivät
##paini
##uomio
aura
stat
vety
tiivi
##ettavia
karisto
oireita
synnytti
suuremman
ester
polit
sahar
täällä
mitalia
kongressi
##hou
##runo
##ember
##lääke
##telin
epäsel
kierto
kaartin
suuresta
yhteistyön
äid
jung
yout
kevää
##äärmeen
battle
jäävät
kentän
##ollisena
pelistä
hyväkseen
##verta
auttamaan
##orum
sie
##juoksu
myyntiin
urheiluk
loppuvuodesta
suz
##inetta
kaunis
etunimi
thompson
aus
ihon
perjan
virkamies
##rikin
##untain
milla
tuttu
domini
antavat
edellinen
valituksi
ahvenanmaan
mytologiassa
qua
tuus
karto
rukous
silver
pahasti
tarkastel
korkeuteen
rakennustyöt
hig
##palat
##ismiin
##äytössä
bändin
milloin
##tau
##arus
pyynn
hävinnyt
palasivat
kuulantyön
##etteja
##aatiota
maaleja
manager
opinnot
patriar
##insinööri
myönnetty
whe
##ilijaa
loren
tuoda
grammy
suhteita
telakalta
artikkeleita
##ordin
##etulle
##ilding
elias
femin
toivat
ajanlask
##etus
##olen
##sanom
##vamma
wars
cross
ylemp
##tyneiden
terveydenhuol
yksinkertainen
hyr
two
puer
##imensä
korkeaksi
##uneena
selvä
##albuminsa
projektin
##aatiot
##jöistä
iässä
rouva
maalit
arvosan
##ollisessa
koilliseen
pete
luoteeseen
##cius
##uosi
hyt
read
##tävistä
philli
toteaa
##tinental
baltian
käytännöll
kosto
##uessaan
pantti
asuivat
omakoti
useasti
ohjelmointi
jumalanpalvel
##väline
heitti
philos
poliittisia
##istom
##tioon
orch
kapea
luvun
sojuz
##eho
##uum
lé
##fiel
saturn
##ellisena
##tuottaja
paikalta
lahjoitti
ré
##kise
##äänn
##ikista
##utkimus
tieltä
kohtalo
yhtyeet
##pataljoona
muutoksen
##sr
##palk
##ittua
avan
isaa
##aluksen
##pohjois
garden
samannimiseen
##.).
##bek
kynn
lukem
myynn
viere
hylkää
uudista
##iang
krom
wing
##ullinen
rockin
työhön
yhteisen
edustusjoukkue
##jön
nisk
##istista
helmik
asemalla
julkinen
rauhassa
avioliittoon
##vu
tub
uimari
estämään
##kaal
##usar
niel
puur
tavoite
##aga
##skyn
##ointia
bobby
askel
myydä
00–00.
avoimen
miespää
##albumilta
kuuluvia
ihmisille
keskiajan
maksamaan
presidenttinä
##ifer
##ilassa
##mäellä
kutsut
käsitellään
liikevaihto
menestynein
julkisuuteen
##onom
hyökkäystä
##luterilaisen
##kensä
##porin
turha
##tilaston
joukosta
soundtrack
##timo
try
pila
varj
##uunnassa
madridin
suosituin
helsingistä
doping
miehit
##uuksissa
katkais
taisteluk
##portin
upposi
voimin
palauttaa
lounaaseen
##tapahtumassa
##amiel
##ikunnassa
wienissä
syytettiin
korkeudella
mannerheimin
suoritettiin
tunnetuimmista
##ird
afr
oja
hear
joel
keskin
kaukana
elämässä
vuorovaik
soker
täsmä
og
##utena
sääty
##niin
##oppa
##ttoa
##atlan
##maria
##harjun
voimaa
pääsevät
bulgarian
jättämään
tuotannossa
##mika
##prom
scha
##impaan
homer
##elokuvia
kirjain
sisälle
tuominen
työnanta
aluksella
kokoelman
englantilaisen
##.):
##isu
##sill
##yvyn
##onder
##tytär
julkista
##eds
##iler
##ylask
susan
nimenä
hyödynn
kolmivuot
kunnanvaltuus
##ines
cow
##sopim
##tumia
##merkin
varsi
halonen
väittää
esittelee
mainitsee
##elen
##leri
##ring
pea
##isuon
##ruske
lann
jäänn
mukais
people
kolmilo
##puuta
kara
rynn
sinä
levyä
kitaraa
elinkein
fernando
välieriin
##järjestöjen
meksikossa
viranomaisten
##vy
krist
ilmenee
liittynyt
tutkimaan
##orni
sepp
stars
ajasta
stalin
hehtaarin
come
muni
##hdiksi
sivua
tuoks
ilveksen
esiintyivät
sijaitsevaan
##amerikkalainen
alar
fren
moos
taik
keskusk
##upseerina
tarkoituksen
##iski
##eenin
##könen
##emistä
egyptissä
tilanteessa
tulevaisuuden
gur
sex
##mojen
onni
lehtiä
##australi
##alaiseksi
kuolemaa
##fs
##donna
##genin
news
##etyistä
turvall
elintarvikke
periaatteessa
##fire
##kill
##uija
wen
##dagas
##iensä
##iluun
##viran
musl
mutan
spons
sulka
##ologiaan
etäisyys
kausilla
markkino
platonin
suostunut
vangittiin
täydellinen
##yton
##ähkö
tell
never
##iliiton
petros
paikassa
vesivoim
##utumisesta
elokuvaohjaajat
eurooppalaisten
##okal
##zion
how
##inneet
##vallat
etsiä
selitys
##elliseksi
budapest
hyväntekev
##ukauden
##omistaja
amiraali
kasvatus
##ivue
##emmäksi
harmaan
kohteen
läheltä
selvittä
kirjapaino
useimmissa
##puut
aul
than
sopii
dallas
sanoja
##orkesteri
tarjolla
##eu
##ttuna
tekst
##tasolle
##historia
##kirjassa
poikkeav
rakkauden
sairaalaan
tietokoneen
hake
tarkemmin
##emer
##länsi
##anderin
turvin
primera
jalkaväen
vaikuttaneet
vaalipiiristä
elokuvajuhlilla
##rejä
apr
tes
mask
balkan
saaden
##uudessaan
määrittää
##kuri
##tiina
##jeista
pysyy
##paikalle
symboli
orkesteri
pääsääntöisesti
##tric
ääri
##johdon
engin
rakka
nisäkkä
johtaman
pääjohtaja
tehtävästä
korkeakoulu
sanoitukset
puolustajien
##heit
yam
sääs
adams
rohke
elänyt
luovut
pakoon
onnistu
##dc
ylh
kehon
röntgen
johdatti
tutkijoiden
kierrokselle
##alkut
hous
rober
saaria
voittajat
osakilpailu
valokuvaaja
##ias
##peter
alak
julia
tupla
##vaiheen
rooleja
valkeak
liittyen
kirjassaan
unkarilainen
##nic
##ilas
suut
year
##voitus
aisti
##utumiseen
jacksonin
kasvattaa
kehittämään
tutkimuksissa
bib
##ittia
##uaalis
seiso
selän
00.00.
##palvelut
##akatemian
pääministeriksi
##.00
##hop
ml
##olly
pip
##iaksi
tann
kotel
##unnalla
kirjoitta
##pton
##uoma
donn
renka
stere
filosofit
katariina
säveltämä
päättyivät
sihteerinä
entisestään
##ilö
emi
##kanut
pyöreä
kisoista
sisällissotaan
kön
##korean
absol
arvot
kumppan
pienten
iski
kerätä
puoleen
pääosan
hautausmaa
pääkaupungissa
rea
##ikapp
akad
cher
##rummut
##studio
##tutkin
kasveja
kööpenham
osumallaan
vaikutuksia
onnettomuuden
ay
##okir
math
##ettavaa
skandina
muistuttava
##ivaihe
noita
näppä
kongon
baletti
roomaan
kentälle
versioita
piirikuntaan
hos
gand
gonz
upseeri
numerolla
##gne
##tran
erän
lisa
meij
savo
chann
tuona
##illiset
asemar
aikakauden
ensisijaisesti
##rel
seko
patsa
varak
vainio
##ikuntaan
ongelmat
seuraavia
##tenin
##ay
##dj
##dez
ohl
paha
##elinin
anime
katsoa
paranta
kärjessä
ylöspäin
luokitellaan
##kanka
bord
##tiltaan
voimat
matthew
prosent
saimaan
talviso
automaattisesti
atp
hend
kakso
minim
##brasili
rovaniem
tietoliikenne
##rag
##töitä
##matkan
tultaessa
syöksylask
č
##wil
##etsi
div
##ikiel
##kokem
##paper
jääkiekk
##satelliitti
##elpo
fac
ida
lui
orj
toy
##heimon
nobel
pedro
yhtyy
aamulla
##ulot
wahl
##parhaan
palkkasi
haastattel
kaksitoista
##bund
wel
hits
##sarjakuv
aseista
##seelannin
kehittyy
palloseur
toimineet
vihkipiispaksi
tauti
kaudet
päämäär
paljasti
esimerkkejä
##dun
wwe
slam
fosfor
japaniin
kokoonpanoon
##det
##unaan
##ihinsa
##töiden
eteläk
vastuussa
yrityksiä
##reja
tsa
##omaal
##tavaa
ehto
eron
liha
##isensa
laser
ennalta
turkuun
islannin
eurooppaa
tietotekni
##ikons
##keily
rahti
kuudesta
yhtenäis
apuvalmen
jyväskylässä
##almi
##ishi
maija
ryöstö
termiä
kunniam
koskevat
jääkauden
tekniikka
julkaistaan
valioliigassa
##onyy
##rika
##uote
mhz
six
bask
larry
apollo
##collapse
suurelta
äänioike
kommunistien
##sijoit
eriks
uudistus
kuolemasta
eduskuntaan
opiskelijoiden
##anka
hukk
mani
##koneet
puhui
viile
##isuunta
uusiin
uskottiin
##isän
##voimat
warri
##okseksi
portti
asevelv
fossiil
brasilia
pitkällä
ammuttiin
kritiikkiä
##talossa
dialog
merenkul
neljällä
kuopiossa
tuntumassa
##ić
##viir
minna
bosnia
eläimet
mielipite
##norjalaiset
##ient
jak
vid
##vuoteen
myrsky
ajamaan
viidessä
##;"
##urb
##usol
##0000)
##iaate
lempää
vuorokauden
##wayn
##strak
visi
##ikirja
##miehiä
tyytyvä
omaelämä
suominen
amerikassa
vastustaja
perustamista
kuninkaallinen
sulk
##donald
inker
vuotu
##lääkäri
##ottelut
luonut
saksaa
viettää
kadonnut
molekyyl
saalista
parhaista
##illy
##mitri
ahti
barry
lämmit
singleä
##ittämällä
vaikeuksia
##sän
bed
evans
linjaa
##opas
##eksia
##james
##osast
munk
##ikoissa
palaut
ylläty
palatsin
irlantila
##äkor
##ureita
millä
##kustann
##uneeseen
luonnonvara
sisällissota
wy
duo
leaf
mull
sony
##enneet
hyppä
tulip
öster
##valtojen
saatetaan
tšekkoslovakian
##gaz
##koke
##pote
##ving
##etystä
lukee
puole
florida
tehtävää
afganistan
##espanjalaiset
uskonnollinen
##tilta
alin
somer
##imerkki
salmen
shakin
##julkaistu
etapilla
hengissä
mittaisella
##quet
newcast
palvelut
ohjaajana
paljastui
päätökseen
voittamaan
suomenkieliset
##esc
##ymo
row
ystä
todisteita
internetissä
bit
joet
jääneen
hyvinkin
sign
##kausia
syksyn
mississi
##kilpailuun
##utkimuksen
nopeammin
##lauluntekijä
valmistuksessa
##vaatim
harja
mahtuu
herbert
##istelussa
satamaan
kuuluneet
##lion
##äneen
roolia
palkittu
casa
irto
asetta
säteil
aiempaa
muutettu
##ympäristön
itsenäiseksi
roomalaisten
##ehyd
##istöä
##ottua
##viksi
arveltu
lähteen
nimissä
##tuh
##ellow
välira
johonkin
kentällä
lakimies
tulivuor
opettajat
kansantasa
markkinointi
##festivaaleilla
##vuosina
pohjolan
oletetaan
##dos
mom
spi
##estra
anto
hanke
monro
rasva
kirjoittamaan
##beck
##ekiel
marco
ohjus
virassa
ranskalaisten
##etit
bmw
edit
##mereen
kanka
tilaus
siperian
yhdysvalloista
niska
kokosi
sekaan
##eettisen
haitall
machine
mantereen
##rakennuksen
##cion
##ppia
##vike
##ölle
##jumalan
##lahteen
maista
osissa
trophy
kasvava
kansojen
oikealle
kihlakunta
##amies
eins
kamb
danny
##käyntiä
jotakin
simpson
panttivan
katedraali
määritellään
xi
##uvasta
kumman
valkea
sääntöjen
vahingoit
menestyksen
saksalaisia
bom
##trong
nime
kykeni
finaali
##arkkiteht
kuljetti
##ро
days
magic
titan
yöllä
##väestön
johtui
paimen
viisiv
lajista
seurata
margaret
albumista
luopumaan
monimuoto
suurempaa
valmistukseen
##lio
kt
##kertom
rooma
sorta
ajattel
kiistan
station
kymmenenneksi
##quen
jokinen
hovioikeuden
vanhempiensa
##tino
jin
mam
nak
beet
##seuraa
lukea
penguin
ruotsalais
washingtonin
##psy
##ianin
kauni
##jaltaan
##rekister
joensuu
historiansa
ix
##maja
cad
##oklyn
##rajan
##saaret
##ukohta
phoenix
vahvist
##yhtiöiden
katsottu
##presidentti
##tana
lig
kuoron
kaksikko
maanjärist
##äki
##itzin
full
vihd
wind
kulke
##omaisia
arnold
kolmin
kielissä
kirkosta
collegessa
roomalainen
##angel
##viiva
aamu
sade
##iskirj
salva
krista
##ilpailuun
koordina
kuudennen
tekemällä
valitsija
urheilijat
##för
##äätä
##ektiiv
pääkaupunkise
##ced
##tter
##äärm
bron
virk
teema
ajanut
##ihenkilö
veistos
##ohjelmist
verkosto
##amerikkaan
kuvaukset
lähtemään
hie
plut
##erkkejä
pikalu
täyttä
##alkuteos
keskelle
pronssim
kehittyne
kuuluneen
##kaupungissa
aristoteleen
##och
##come
##stön
##attis
balla
peruut
dokument
lik
hapet
kasve
chilen
laborat
##palkintoa
tehtävään
päärakennus
##imit
graham
kuvail
monten
sielun
omistus
kuulustel
rakenteeltaan
fig
hay
##kivar
omiin
##oseuran
kappeli
tyyliin
esityksen
maaseudun
kehittänyt
##ral
##sov
hoff
alber
viereen
##ittiä
##nosta
##saarilla
kohteita
##blom
diff
##vihreä
omana
tunisian
kulttuuria
opintojaan
##cep
##rem
##ång
##otaan
##robert
irrot
välittä
juoksija
liukenee
##järjestelmässä
##tea
##edom
##mess
berk
kuko
koris
paksu
##ylinter
prosess
artikkeli
säilyttää
allsvenskan
##kri
##skaja
jääd
yönä
##atinut
kypär
wales
##ivaltaa
ihmiss
manhat
murray
##dé
##ship
allan
uskoo
tulehd
mittainen
alon
jessi
##kaudelle
seuraajaksi
käyttötarkoit
##karjal
rinne
tulit
prince
viiväs
sodasta
tietois
roolista
##akennuksen
maatalouden
##järjestelmään
yhdysvaltoja
kuvataiteilija
##yte
##iano
##entsyy
woman
järvet
resear
century
kadetti
liikkuu
pakenee
kouvolan
modernin
##nimi
pum
take
tornin
fantasy
tuotetaan
000-000-000
##dvd
##angan
autoja
kestänyt
laskevat
yksityinen
##ivas
##astoon
##ighter
##untiin
ankka
misse
riittävästi
##odes
##ular
anark
mauri
mykkä
sivist
##käyttöön
mercedes
poikaset
##idut
ink
##jokea
riem
ruoh
##kadulla
lääkea
project
monivuot
albumille
kriitikko
maalausta
sellaista
belgialainen
kansakuntien
##paus
dres
torin
gunnar
##ministerin
lämpötilan
kiinnitetty
##call
##uron
##ipito
honka
telin
mustia
##gien
##rojek
##tossa
jerse
years
##ilmassa
happam
pelkkä
raitti
##kenraali
aiheita
liittää
##esityksen
laivastolle
##ffe
##komm
##play
inhim
jonas
tuomion
edeltäjä
kannatus
mahdollisuutta
##0''
##maista
##useppe
irtis
osast
##aliitto
##tomasti
kemisti
(000–000
canadien
turkissa
kultaisen
##fall
##opää
inde
sari
##cherin
##ilmaan
apple
chelse
luther
tasang
termin
keskeisiä
merivoimien
hautausmaalle
##dle
##tšek
##väri
##eland
##stään
##ystäv
##nainen
majoit
##estoista
valitsee
verratta
rakennutta
söderström
kihlakunnan
aivo
##aliksi
pitkää
##utuneita
suojelu
naapurik
sekunnissa
kirkonkylän
##hous
yhtälö
menettänyt
sarjakuvan
näytelmässä
tärkeimmistä
##aus
##ykki
puntaa
pelastamaan
eer
diet
hyödyll
kukista
surmasi
valmenn
edetessä
provinssi
komentajan
poliittisesti
mahdollisuuksia
##nd
joy
##polis
##aliaan
iltana
huipulla
sijainne
##emb
##keski
liuo
kirkas
express
kreetan
laajoja
slovenian
##okem
##agogi
etuo
##metall
##oksilla
silmän
##yhteydet
##näyttelijä
muutenkin
pohjoinen
##uslaitoksen
juutalaiset
##uter
##kovan
ennätyks
johtavat
kekkosen
dod
kennedy
dosentti
##gp
##good
##lenn
##tela
##ustu
teet
##kerran
kymen
##etyissä
##italian
pommik
kenties
varattu
##osakeyhtiö
edellyttää
rakentamaan
##ära
##kenn
##lähd
claud
kasar
movie
##immäksi
sinfon
keskustelu
##visi
##ysas
uraa
want
##ittuna
##master
##usiness
##käsittely
kuvattuna
lähteiden
ritarikunnan
##tonia
eyes
have
osto
##ystävänsä
peruskor
##alex
##atun
länn
##mättöm
pyörit
santia
vaimon
##näytteli
raymond
ruotsia
lapsensa
##kvar
tyypin
kehittyä
rikollis
rykmentti
sosialistisen
##oittain
ystävät
venäläis
selkeästi
##ilius
##uilta
yosh
istui
kiertu
##estarina
hallitukseen
kaupunginosan
kirjoitettiin
##ashi
##kkaa
ohe
##nossa
##ukkia
terv
polve
google
töissä
sue
##sodan
lein
##lantiin
tuhosivat
##sävel
##tumat
##tehtaan
joillakin
yleisimmin
##gow
hpk
##iller
nasa
älyk
##maisen
areen
kuntaa
ohessa
##mestarit
aineita
houston
näkemys
tarjota
aineiden
alkuerissä
##andy
##kalta
##koksi
##ssonin
ahker
äänenä
##piirtäjä
tunnissa
##toimittaja
kaksinpelissä
##ointiin
mustaa
lippula
otteluita
maahanmuut
kreikkalaisen
##cour
##ivih
paj
vesistön
tieteellisen
##dž
##moon
##isohj
maus
##ellessaan
hallitsee
vierailee
historiaan
##gun
##bank
abu
##kkaan
##vistin
taloon
sukunimi
pääsarjan
ruotsista
sijaitsevassa
##000,
see
00''
##painen
girls
##utkinto
menettä
taloudellisen
##max
##vyö
##pila
##toni
luota
sanoma
titaan
eroavat
brothers
syyllist
##zu
##ка
##rell
##kasvu
alli
linda
abstrak
kiinteä
harvinais
liittyvän
vapauttaa
kappaleissa
jyrk
paeta
hoidossa
läpimurto
##--
oc
##everk
##gelin
luus
olof
sabb
##eville
vakaa
norsun
selvää
wimble
korjaus
##käynnissä
muhammad
kauppakorkea
##eeta
sjö
##taika
##uolle
boul
josh
männ
##ilauta
hidas
##kohtana
pormestari
##isil
##take
anc
##messa
##wagen
##äänin
##ellisuus
##ylo
##hold
tero
##etkellä
kristillisen
##winin
traa
##koinen
herak
##0.0000)
ilmassa
taitolu
kuvaavat
michigan
juutalais
erilaisiin
##jug
##uono
kuuma
##oniassa
lintuja
##alistisen
##ussuunnit
kolumbian
konferens
maanviljelys
##zia
##iväs
jeh
lion
##vuutta
vuorist
erimielis
sanoittaja
##suomalaisten
nyrkkeilijä
tieteellinen
tšekkiläinen
yhdistyneiden
##karb
0-00
##ikalle
##intian
##ostoim
lyhenne
taidetta
##akso
##olli
gan
syvän
0-0000
laitte
massiiv
yhdistyi
holotyypin
##she
##ivien
mielenos
potentia
kuljettaja
tuotteiden
kannattajat
##ox
##ни
##ilaji
bonn
books
ikaal
reago
komenn
##ilaiseen
alettua
löysivät
mog
ikäl
ulti
##ioihin
riita
platon
football
kokoinen
vastakkain
organisaation
##gir
delta
ohjelm
haluttiin
neljännes
##ikossa
germaan
omaisuuden
viittaavat
##::
##yypin
korost
havainto
liikkuvat
##iteollisuus
##ivall
bruin
hapen
hakemaan
ainutlaat
hyvinkään
satunnaisesti
##ols
0.,
bach
laaju
pataljoon
##akatemiassa
intiaanien
lentoaseman
##duk
burg
nato
tois
päätyy
##mestarin
tunneta
vanhimmat
vesistössä
toimittanut
asiantuntija
##ühr
##ally
##anga
##folk
##rikkom
aikata
näkyvät
pisteellä
hyväksynyt
pohjanmaan
toteutettiin
pistepörssissä
##kp
##holi
##ssel
##junior
jäähy
ratsas
loppuotteluun
##umn
ov
abc
away
##aineen
dist
##ihapon
##ilussa
##reista
##utumis
##voilla
sattu
##teorian
katsoo
tilasi
0000−0000
kilpailee
keskustaan
##tilä
##tteri
##jevitš
viedä
keinoin
vieraissa
##annus
väki
lloyd
##ettyjen
gundam
sivuilla
tasapaino
lentokenttä
perinteistä
alkuperäisessä
tulevaisuudessa
==
##ideja
alvar
final
kasta
aurinkoa
brittein
kotonaan
nimipäiv
gibraltar
##ippa
##mikko
##yksenä
tehtyä
##kuningas
koneita
research
##valtuutetut
henkilölle
hävittäjäl
tutkimukset
##ytyä
sab
##vissä
marok
sekoittaa
kaupallinen
miljoonalla
kristillinen
##gab
##tico
copa
##viesti
##fieldin
##nobelin
parker
sisällö
kääntäjä
kuuluisin
##teollisuuden
tehokkaasti
##epä
hk
##stor
kauha
##avaruus
##äyttely
rytmik
digital
metsien
urheilun
yhdistyne
rautatieli
ensimmäiselle
##lähde
##windows
##vuodesta
yksilöt
suurinta
koostuvat
vanhemman
##intu
##plat
bun
loog
##idässä
##imista
tahto
##mission
##alueesta
asta
iaaf
##elissa
mauno
konson
laajaa
monster
laatokan
skotlantilainen
##kesi
##jensä
jaak
kieh
##teossa
##uurien
vauhd
laajensi
alkuperää
juutalaisia
##laul
naur
vaki
##laitte
athen
mount
rakentamiseen
##upol
naisille
tuloksen
filosofia
##puoliskolla
##säh
##tanan
tona
##saurus
stran
harald
armeijaa
sairasta
armstrong
käsittelevät
##hit
##yen
##tänä
##ulehd
muutt
osien
pysyvä
werner
##liikenne
teoksista
laukaistiin
##rum
##suun
cec
jag
taloa
##taisiin
hankke
##ilaisessa
liikennöi
urheilija
pittsburgh
tyyliltään
ce
##ungin
barr
cros
karb
lock
keith
pankk
tältä
vilho
totuuden
mahdotonta
yläpuolelle
japanilaiset
kaksinkertainen
##ches
koea
##vuuden
##kuninka
##kappaleita
tehtävistä
##rö
hr
##okirj
even
saarn
vedet
##formers
synnyin
rakensivat
yhtenäinen
000-00-0000-0
##ivär
altta
place
##televät
piirit
sarjat
ajatuksen
itäosassa
##ovi
##okor
case
craw
isännö
kookka
pelaajista
valitsivat
irlantilainen
historiallisen
##hert
##kuvat
##tähden
jupit
kortti
leijon
##telijana
madagas
rinnalle
arkkipiispat
ibn
lea
##yyksiin
##ohjelmat
ovatkin
poistui
pinnalle
##uutnantiksi
kilpaillut
hallitsivat
##hof
##tuna
hod
##keitä
kirjo
laatu
##isaaren
kärsim
##mättömiä
keskiarvo
##kell
##thal
##isalo
##miina
juli
sapp
sydne
antrop
ympäröi
keinoteko
suunnitella
mestaruudesta
##jr
##finn
fro
##kkeja
kiir
kalsi
myöhem
autolla
kauppan
ainoaksi
##urnauksessa
##peä
##ioni
##jack
##lind
##romi
järk
khan
numm
kävely
pyhiin
aluksia
##yritykset
laskuvar
liittyvää
muotokuva
tunnetuimmat
##bän
wer
##olleen
##onsert
lissa
kellot
kansannous
taajamassa
opiskelijat
kirjoitetaan
##temp
##vänä
gaz
##taide
##tuman
##täjän
tarve
erolla
vienan
säännös
alkoholi
tiedossa
varmasti
afro
coup
doom
simm
##joelle
murta
wrest
väheni
grammaa
lajissa
##divisioonassa
##kop
##cond
##hyppy
##etissa
##impään
##istola
##ulotte
class
ports
värin
##saksassa
##vuotinen
kruunua
peliaika
lopullinen
kööpenhamin
keskustaajama
pohjoismaissa
##elkä
##scha
##uvaan
##oimaan
about
näkyi
äidinkielen
koros
musti
muotoja
kielestä
montreal
tuottamat
pääsarjaan
##ial
##ivil
aun
##oiksi
carr
kaip
##tolema
suorana
prikaatin
korvaamaan
tir
##rough
piha
##maisia
##ettäviä
##kouluun
edustaen
sairaalan
itävaltala
##ähd
here
koht
hyökä
jolta
##tekijän
claude
perimä
pikkuv
esittivät
##brand
höyry
there
aseiden
##litrainen
campbell
taajaman
siirretty
##kood
intia
##upalvel
telinevoim
##siksi
väli
##videop
dennis
german
lemmik
georges
##hoitajana
pujottelussa
##pöl
##öllö
kett
agric
oslon
sweet
diakon
ontario
törmäsi
korkeampi
kaupunkila
runoilijat
hiippakuntaan
julkisuudessa
##uhe
##kuul
##tähd
kno
arag
kais
##consin
kasti
nisäk
seneg
meidän
muussa
puolin
vähäis
matkail
maurice
wolfgang
harvinaisia
fic
evil
vana
##ihuone
luvut
##standard
hankkeen
käynnisti
länsiosassa
kreikkalaiset
##jans
##tuntem
näenn
batman
hallinta
luotettav
ds
##00000
##kangas
##poikien
##päivään
päämaja
valtuut
##chl
age
jäte
hakem
kiito
resep
varjo
petter
puiden
huippun
eläintar
##adi
aka
tyn
uur
just
jänn
kuule
viisa
aleksi
murhan
bryssel
kehittämiseen
##gt
##cean
stå
##attiset
alainen
hyppäsi
maakaas
ratsast
##estadiola
heikosti
rannalle
pekingissä
##hann
ask
##istuu
camer
eloon
akseli
malmin
##ekniikan
rakenteen
kitaristit
armeijakunnan
##othy
##vies
##vina
##uvoit
etan
suod
jäljit
##äärit
lauh
puusta
aiheena
säännöt
##ologiasta
observat
loppupuol
##truc
test
munii
kylien
rantaviivan
##nous
tag
##unnus
hjal
turt
isänma
raporto
tanssin
alaspäin
useampia
vanhasta
nür
##golden
dmitri
kiinaan
##uduttuaan
kuolivat
jerusalem
tiedekunta
kuljetettiin
merkittävimmät
(-
fk
##ohope
##utsch
##urojen
kolmion
legioon
pienellä
indonesian
toistamiseen
##uola
pyt
##ivaan
bart
##venäjä
##tumiseen
tallenn
##heng
rei
##grafi
##kuntia
bella
järveen
sydneyn
vallata
kuvaamaan
polttoaineen
provinssissa
ub
##väylä
dahl
##pituus
merellä
visuaal
maailmansota
##oir
helmi
hitch
kärsivät
konekiväär
hond
##akkais
muisto
palvell
perinne
puolueiden
ennätyksensä
suunnittelija
valmentajaksi
på
##pitkä
aito
tomi
felix
puita
##iteilija
internetin
päiväntasa
##ieh
sens
##uriksi
carlo
##iryhmän
kukkul
äänitys
britanni
lapsuuden
##blue
cic
ilo
tiik
tuen
alter
diego
päivi
toimip
paragua
metsissä
pietariin
##debyyttinsä
amb
##koodi
##000000
kiusa
##aksella
##allisiin
komensi
nojalla
rajavarti
jerusalemin
ald
pyhäkkö
viipuri
havaitta
lisätään
pelaavan
kristillis
##muu
##nro
##pik
huuto
##koneita
##panssar
pitäen
platinaa
valokuvat
##kirjoittaja
%:
munaa
schul
##aineena
bridge
kirjaan
rolling
varasta
##alistinen
ominaisuus
perheineen
lainsäädänn
##city
äit
##päästä
kaula
##kumppan
##uotannon
laaksossa
##ministeriksi
##atu
##donin
##äisen
avat
björk
academy
funktion
kirjaili
epis
koet
ohut
pani
saal
##aajana
##tävästä
##virasto
proses
putoaa
romantt
saarelta
rockyhtye
palkattiin
urheilutoim
##kivi
nai
ward
##ittämä
clevel
höyhen
kohtuu
itseensä
marshall
palannut
vuosituh
virallista
alkuperäisk
##pc
##ikos
##kauh
kaan
huoma
kisoihin
korostaa
molemmin
potilaan
itsessään
lohikäärme
saavuttaen
##kävi
ara
alab
salt
##tavall
kuuti
lucas
##digimon
tyyppi
hjalmar
hopealle
lääkärit
tuloksia
aiheuttivat
##té
##egr
##puk
##quer
##ppanin
chang
riski
vegas
##mentaar
##puiston
auring
käänsi
samuli
thrash
beatles
ystävys
haka
savi
seiväs
##attomien
tekemän
columbia
laukaisu
yhdistynyt
##hang
##nier
##säte
##harry
osmo
vita
##itusta
polyn
speed
asiaan
kultti
tyttöjen
puistossa
sydänkohta
##',
##sty
edin
##alaist
andrei
syyksi
tukikoh
muusikot
väitetty
itsehallinto
julkaistussa
japanilaisten
snt
##öille
alfa
hiir
##lajeja
##salmen
pereh
tiedä
brutto
kohoaa
telakka
##tumisesta
tutkijana
##ensimmäinen
hankittiin
albumilistan
##iinsä
##sikka
kahvil
airways
astrona
vankeus
tehtyään
jalkapallomaal
##pok
##imer
##astin
##telyä
link
grant
mennyt
tiheys
perustuvan
##?)
##lih
##bourg
##ilien
hatt
pistek
veneen
alumiin
suljettu
harjoittaa
italialaisen
menestyksekkää
##road
lav
##lässä
##imuseo
björn
##yhtymän
kemika
sateen
vienti
##kaupassa
##sivuston
korosti
lincoln
radiossa
##hoa
##nam
##arla
cop
omin
##museon
##oriaan
##täjänä
bussi
summer
ehdokas
pohjalla
ristiret
irlannissa
##järjestelmät
##zzy
moti
pand
rené
taan
##tuneita
loivat
tyttär
heikkinen
neuvonanta
toimenpite
esiintyminen
##alaissyntyinen
pus
tori
armas
still
walta
##ittinen
kasvun
senaatti
laajennus
imperiumin
saatettiin
luettelossa
niv
##kaisen
##kokona
##teiksi
##yhdessä
tähdet
##viestissä
harrison
##politiikka
musiikill
muutamassa
äänitettiin
alppihiihtäjä
ef
##ilut
fär
draa
jaar
##bourne
tukem
##autojen
taudin
nuorille
opiskella
yksinomaan
##ikkä
00°
##tamis
lans
##öltään
hopean
pyrkin
tarinaa
business
mielikuv
tuhoamaan
kansainväliseen
##yhtä
##päätä
tikka
kuolin
toukka
vartalo
giuseppe
charlotte
pohjoisosissa
##gie
##vek
##ipel
##kuus
lost
pato
##elektr
##herran
##lundin
##tavaan
##kauppaa
sammal
cityssä
special
pienessä
tyrmäyksellä
##reun
cia
duc
soi
tiuk
sataa
##eläimet
tykkiä
viihde
franklin
robinson
##vuotisella
göteborgin
xx
##eviä
contr
runon
##yydessä
hallita
pääosaa
0.00,00.
brooklyn
oikeuksia
varpuslintu
##haus
##krit
##astosta
näyttö
tittel
vaalea
korvata
kvantti
rovasti
peltonen
luettelon
lukuisissa
##kierroksella
neuvostoliittoa
##isit
##osko
paci
jesse
satam
summa
##ersissa
hankal
puolia
lyhyitä
mainita
tilalla
kysymyksiä
vuorokautta
##elop
##etju
ate
trib
##cation
tutka
##osuuden
##tyneenä
sähköä
keksijä
##tekniikan
yrittäjä
##suurlähetystö
##rev
##eenä
##veto
sih
##manen
kyps
kesto
##vitamiin
journal
kunniat
ptolema
etelästä
esihistori
kehitykseen
ympäristöön
kotimaahansa
kansainvälisiä
##kolla
##etskin
##olista
linnak
levyttänyt
suunnittelun
##fun
##diin
pig
##alaji
roth
sout
aseet
kumpi
kaloja
silmin
kokkolan
kärppien
##nag
beli
chicagon
tunnusti
tarpeisiin
jalkapalloa
stri
##opolin
##tehdas
suuta
eräitä
kasvot
kotimaan
tapauksen
vahvistaa
neljännellä
sotahistori
##saus
arvoa
baker
galak
hevonen
##muotoinen
vihollisia
sj
##dale
##omas
lok
petro
resta
turner
porissa
sopraan
debyyttinsä
maailmankaikke
##cab
##ipo
0/
lex
sug
advan
##ennätys
##kasveja
##utuessa
stuart
videon
tehtyjä
##allisista
liikettä
lentoyhtiö
mahdollisia
maajoukkuetta
neliökilometrin
##sata
##fanta
##gorit
##vuoti
assa
##utapah
hakka
karke
##emiehet
maalaa
virran
##paikasta
korttel
maltill
rykment
koneiden
kummalla
poliisit
valentin
julkaisivat
##alankomaalaiset
##isuk
##äiri
##peliä
intro
kupar
ruutu
singlet
murhasta
##ijät
##miss
##hoidon
parkin
##kaudeksi
chamber
rinnakka
sivistys
jätettiin
*”
ismo
mell
slaav
kainuun
menevät
perinnöll
slovakian
voimakasta
julkistettiin
ō
aff
nep
##klass
levi
ligue
muilta
uutena
äänest
säteily
ulottui
vanhoill
##ialaisista
draamaelokuva
##mejä
##uvaik
pier
rivi
tuod
##työstä
resur
jousta
##helsinki
suojeli
kestäneen
lentopall
perustanut
esikoisalbumi
sotilaallinen
##god
##hoid
non
vaurioit
keisariksi
##äiti
oran
marcel
aiemman
kritiso
##huoneessa
tarvitsi
##rast
##sius
liu
##merin
##toria
dick
##/0000)
aseist
kuussa
niemen
puinen
tuella
##kiertueen
ajanjaks
oikeuteen
tuottamaan
##etten
bald
pakan
pelle
##yttyään
väster
##amiraali
##nykyinen
vihreän
##tehtäviin
sprintti
politiikkaan
##ikkö
##karh
##kkejä
murr
muss
##ikolta
apuna
miles
kauppia
##ettäisiin
kirjoituksia
ortodoksisen
##cum
##ovo
##hyvä
##voiton
other
kosmod
taideh
##kieliset
keskeis
lisenssi
tuhannen
kansainvälisten
##lp
##omy
##tsi
pk
##tour
buen
keit
##entoja
reuna
##ikomppan
ollutta
virasto
kolmatta
kasvaessa
##isse
##seud
kod
alma
skdl
##murhaa
ohitti
##isylinter
kaltainen
##laj
##tag
wan
door
humor
niilo
tunti
erillistä
tarinassa
asevoimien
tehtävänsä
yleisradio
##odž
##zzo
##tapp
hus
hyy
lahj
työs
puner
##uliiton
valossa
tarvittiin
##mot
##ords
ylö
aaron
vilkka
rauniot
##ykseltään
esittävä
akustinen
tallinnan
ympäriajossa
##kula
##uvut
##kilämpö
##mitalin
belgra
##tiloissa
pioneer
lentokentä
##bay
##hai
##ists
tapi
##televä
##villen
kertoa
mitale
##llisesti
kouluun
piirustus
kiertueella
kappaleeseen
singlelistan
opero
vetää
##aiemmin
##etuissa
epäilty
pihlaja
##yhdysvaltalainen
##agog
##alas
##voitto
huomi
toimen
##amiseksi
0,0–0,0
vihdoin
##vuotiaita
lyhyeksi
saattanut
sanomalehd
##kinin
spen
raita
kontak
##hallinta
tarkkaa
vankile
populaar
vanhoista
##pienoiskuva
teknologia
##vii
má
##hankin
ostos
##tunutta
##äyttelyssä
##nea
##yriä
bry
##iraken
tartt
##uottajat
ryhmien
luonteen
punaista
rehtorina
##ysse
heh
##yhmään
chrys
warren
##isteista
voisivat
lentokoneen
suorittanut
##”-
##ennut
##ettien
taito
##istisia
murska
roland
##artistit
##uslaitos
barbara
jäsenen
asioihin
sotilaan
0.0.0000.
muistutti
##arn
hup
chat
jääh
##isempia
kevyen
hyökätä
maalattu
vasemman
erityinen
niemimaalla
##imu
##ehkö
##asian
##kkila
sukk
##keilla
studios
istanbul
minuutissa
maahanmuutta
##oy
##olit
saw
after
saatua
vapauss
kapinaan
kärsinyt
pyhiinva
päällikk
henkilöll
kohtaavat
##cos
##lisä
##ähti
##eltua
##iskun
##rikos
##ampaan
##yksien
syttyi
jatkoon
##otteluita
ulkonäkö
makedonian
##bran
##onit
oksi
asuva
säili
##saaressa
##valtioiden
opiskelua
saun
intel
jouni
leino
marsin
suuntaa
harrasti
korkealla
hyökkäyksiä
kertomuksia
lopettamaan
##salon
##ikoski
##päähän
tehoa
castle
sports
territ
tuotta
voimansa
lähteissä
soittamaan
##olek
akk
mira
ernest
##ostuksen
0000–00.
muinaisen
collection
tähtitiete
kuukaudessa
##urgi
ada
##oulun
##yessä
bara
eman
indo
unoh
##lasten
##emmiksi
avattu
kasvua
käyvät
sisäinen
vieläkin
määritellä
yksittäisiä
oopperalaulaja
anssi
eroja
thess
##ilahden
window
nimittää
tuomitut
kierrosta
televisiokana
##ffy
cé
##face
##työhön
tykki
tohtorin
##perheeseen
pituushyp
ratkaista
teen
##mäessä
leirin
pelkää
##yksikössä
miehitys
muutosta
kalenterin
divisioonaan
debyyttialbumi
kō
##gran
##yste
whl
##istolla
##sveitsi
arvion
valtava
vanhent
huonekal
keskimmä
käyttäjän
sotilasar
valloittivat
##gios
##umus
##kkais
##yksille
00–00-
harras
vihann
walker
takavar
lehdessä
metropoli
0000–0000),
uskonnollis
iz
##real
osi
##uutus
##kankaan
diplomi
löytävät
työstään
toimittaa
##vam
##isää
##skiin
##onista
isois
sekin
ström
##tymisen
julian
##sihteeri
pahoinpit
filosofiaa
hallitseva
kansalliste
materiaalin
##nu
##bey
abb
raw
##harju
vaah
##ipalvel
liuotti
huipulle
ranskasta
sijainneen
valtaistuimelle
##itil
##this
%),
hyppää
valais
kirkkoherr
itsenäisesti
yliopistoissa
kreikkalaisessa
##eaux
##giksi
drag
flow
goot
ojan
##alisen
##etyksi
grani
kysel
orien
lajeista
vastannut
edellisenä
##bom
##jinä
iku
##imbab
##power
sean
maple
point
beethoven
hallintoa
valtioneuvoston
##ting
hek
##keillä
ampuu
kotka
lähin
##alukset
jääpall
jokaista
pystyvät
rintaman
sallittu
##eksitoista
tehtäväksi
eräänlainen
##rob
##pierre
edgar
hyötyä
rannat
##usiikkia
kirkkon
tarpeet
tytärtä
miinanra
elisabeth
käsityksen
rannikolle
voittamalla
в
##nope
karibian
##studi
burn
pusk
##eleitä
##pelien
melan
##attisia
ahonen
network
komitean
mb
##imenä
alum
vari
koskee
elektro
##myöhemmin
kilpailuk
opetuksen
keskilämpö
tampereelle
urheiluseura
##adon
##ensi
##iskul
plus
taju
hampa
parik
tunsi
värvä
##ivaltio
esiinny
tekstit
kristinus
satamassa
##politiikkaa
kuolleiden
##ingo
##syys
##uris
vic
orle
##noissa
oklah
takar
##adoilla
##iseurak
##viljeli
räikkönen
afganistanin
##dec
##pic
jet
kuum
pelien
oppikir
tutkinut
jälkeensä
matkustaa
maailmalla
##'00
ddr
##iinan
##kiven
kovaa
kulku
terry
galile
liittä
##kielisiä
sivusto
miksaaja
##upseeriksi
barcelona
##flo
##roos
##aktiv
mord
trag
powell
##kohteita
##tiivisen
luokkaan
luonnehd
suomelle
propagand
mestaruutensa
##päh
##brit
##gnit
##tics
maz
##juuri
ryös
void
##verinsa
huonom
bluesin
puolessa
kehittäminen
dela
hydra
härkä
äänek
nuorta
ronald
tuotto
münchenissä
suoritetaan
työntekijöiden
##utki
##kolme
itis
viro
##konser
etsii
rodri
teoll
##voittaja
##tyyppinen
absoluut
hurrican
puolueet
##ehdokkuuden
materiaali
##uso
##kuja
##itseva
ralph
kuuteen
mattila
kokonaisen
singaporen
kemiallinen
pudotuspeleihin
##gno
##ogan
reyn
##grenin
muoti
tukikohta
vaalipiiri
vieraillut
##ught
stur
##telyyn
##hiihdon
##telliit
hudson
norsunl
tuotteen
asuinalue
leningrad
yhteyksiä
monimutkais
##jov
sauv
hopeam
masters
leskinen
kazakstan
kuuluisan
moskovaan
elokuvateatter
##eves
##ulen
##tikkö
joan
hahmoa
glasgow
maalein
museovir
ajatuksia
venetsian
keskimatkojen
##kumm
##imisen
##martin
amino
thumb
antwer
uotila
##kauppias
##tiedettä
parlamenttiin
##0).
dü
mp
##imiin
pilven
täytyi
##uttaessa
juontaja
koostuva
samoissa
ohjelmisto
vankilasta
suunnitelmat
taloustieteen
##jäs
##sif
##essan
##kotti
della
##tampereen
palveluihin
valmistuivat
maailmansotaa
##==
##ukir
brom
konf
aarre
iskun
kiihd
moder
syöpä
family
pelaava
kritisoi
muutamat
sosiaalisen
##fu
##udat
vael
kovan
kirist
##palkittu
bensiin
järvien
noudatta
kotipaikka
kosketinsoitin
##ál
##rep
tiib
##dition
##kuuden
##ohjaus
##uttuja
kädet
anatom
riippuv
##tial
glen
napp
snow
kohosi
##vyöhykke
ajoivat
malleja
vapaaksi
##professori
maavoimien
suomentaja
ensimmäisissä
##kuin
##yson
dyl
##vapaa
##ääriä
gear
uuno
##ivaara
##sammal
##ikeskus
mosamb
secret
sijais
##yhtiölle
classic
eteläisessä
tulipalossa
keskeyttämään
agn
jyl
faara
##merelle
##toimisto
loputtua
talvisin
kristiina
##ipan
our
sivussa
sisarensa
rajoitettu
vastahyökkä
kaupunkeihin
lämpötilassa
riianlahdella
##kok
##astu
##etsä
##ttiä
fog
morr
##oineen
juoksun
maarian
pohjana
puhelim
tunteita
indonesiassa
##evil
fbi
##laakson
valiok
artisti
ulkoasiain
viimeisinä
enimmillään
maaseudulla
perinteisiä
vuorovaikut
maajoukkueeseen
##caa
##puj
##egyp
edge
dikta
##hallinn
markan
##ksessään
##ohjelmia
leikkaa
vihreät
sanoitta
siirtymä
väliseen
havaitsem
väitöskirja
arkkitehtuurin
##louis
##ikansa
joose
osiin
spirit
välttää
sisällön
odo
##ikkien
##ration
kaapp
solun
##assakin
##tamaton
stadium
yritettiin
aloitteesta
paikkakunta
seitsemästä
000-00000-0-0.
##ák
##tex
##sseja
seven
##uttanut
taiwan
kestävä
tokiossa
suunnitell
taistelivat
elektronisen
ble
täplä
##unkarin
aineet
##valkoinen
muuttuvat
ulkopuolelta
sukellusveneen
##wanin
oven
##autoja
##ostaja
engel
nahka
tower
leaguen
##yliopisto
sairastui
tällaista
kotimaansa
tapahtumiin
##sus
##kron
##olaan
econ
##urista
altto
castr
exper
käärme
oireet
paperit
teoriaa
alaisena
##vallankumo
hyönteisiä
##jord
mats
##liitty
päältä
mittaan
##evar
delf
ikon
keur
mobi
terva
troph
korist
kosmos
romahd
tiedekunnan
##iher
##imis
cook
##christ
##ratkais
potilas
artikkelin
taidemuseo
karkotettiin
puolivälierissä
nyl
##kamar
schwar
eläimen
muuraha
puhuvat
suurista
vapautti
pääasiallinen
ääninäyttelijä
##lot
dé
##henk
##meksi
##pisto
ferg
heil
lama
mamm
##asteen
##istöön
##oksidi
jääsk
nasan
rikas
muuttua
laajalle
kongressin
schumacher
vaurioitui
##guez
##ipeg
##tover
haih
griff
käsky
juvent
matkailu
saavutus
musiikkiin
näyttelevät
ht
lid
kant
##george
ainoat
kaupunkim
kansalaisuuden
''0
##erille
marjat
yhtymä
##tapahtum
kreikka
rakkautta
ohjaamassa
williamsin
keskiosassa
maanviljely
divisiónissa
ulkonäöltään
valmistuksen
##uhde
##ortin
kaad
pose
glenn
pelim
laivat
varren
monessa
riittää
tanssim
##tietokone
erityistä
tuomiokirkko
##zzi
##eles
##ityn
##litra
##oinut
elsa
kakk
anima
birds
tšetš
kuuban
uhkasi
kinnunen
korkeita
ohjaajan
sitoutum
kehittäjä
listaykkö
yhteyksissä
##umento
roope
##tisesti
pistein
salakul
##ohjelmaan
eriksson
illinois
ongelmien
portugali
vastaamaan
ruotsinkielinen
##')
böö
##iehen
cruz
onnen
##olaista
laakson
yliluonn
seurasivat
##reg
##rion
feat
typp
naami
niger
tarja
eristä
näytön
electric
hahmojen
lääkärin
vuositta
vastaanotto
##rí
##sara
##torak
##vaari
##yysin
ponn
thorn
velje
mccart
states
toimien
##yksikköön
tanssija
noudattaa
##mc
##sla
##cons
##rake
pod
##kolle
atta
fish
hyök
##ajalla
##skissa
##ytyvät
train
thaima
valtiot
seututie
yksikään
merijalka
aiheuttanut
taidemuseon
uudistuksia
puheenjohtajan
valtiopäivillä
portugalilainen
bä
##ätti
##uosas
igna
kaasu
karka
##bournen
roberto
colorado
avaruuteen
rakennetaan
taiteilijat
sou
##äärää
vamm
##mätöntä
kirurg
taidek
aivojen
alkaneen
##paikkainen
harrastaa
##isol
0/00
hovin
storm
factor
osista
00.-00.
saapuvat
##päät
##siota
nina
miguel
##kielistä
forssan
kenneth
paluuta
ikäisenä
kaikesta
manninen
##ekki
##pata
##ysin
wta
##hauta
##yösti
hawk
##istusa
##kkojen
comic
kalkkik
täyttää
mainitta
vallassa
##oikeudessa
##ihuon
##tilää
##umble
medi
##koodin
isaac
netti
poker
##komitea
000000
lohjan
##valmistaja
pyynnöstä
unkarissa
insinöörit
tehopistein
vuosisatojen
##utz
##atri
##ulia
##ities
##uvuor
kadun
matri
litraa
vantaa
voimia
laittaa
kapteeniksi
kilpailusta
eurooppalainen
##ajon
##kaun
jäm
tän
##orina
##itteen
ehdokk
hirviö
soitin
välisiä
testament
ammatiltaan
##bj
##amme
kaj
##areen
##metal
##sojen
ling
piis
##terdam
##vastoin
tupako
##tallissa
velvoit
väitetään
##thy
##bäck
##gian
##neja
##olon
##ilejä
##itied
fritz
##-00000-
kahdelle
proteiin
maailmasta
venäläistä
olemassaolon
##esis
hakea
jaros
##carolin
##unnissa
kertova
ranking
useammin
luonnehti
##gart
##täyd
für
atlé
##ikorkea
toteutti
valuutta
##ehdokkaana
arvostettu
avaruudessa
##.-
##ène
##color
##instr
##urina
ellen
manag
canada
kasvillisuus
##ivian
omen
tipp
##harmaa
##kiekko
##ytetty
person
syöttöp
##menetelmä
berliini
mitchell
paikkoja
halkaisija
päätöksellä
radioaktiiv
avustuksella
seurajoukkue
##yta
##amia
##shin
uraan
seutuk
pääosia
päiväkir
marsalkka
ollenkaan
pirkanmaalla
##mpel
hub
lel
mör
##kalan
##tikka
##uojel
kaver
paasi
##iläiset
päänsä
sattui
vähenn
##tiikassa
georgia
katastro
roolinsa
suojella
asteroidi
##ceph
tuor
##linjan
##taatio
eugen
jesui
##iliitto
kaarina
kaiverr
rannoilla
oikeustieteen
##tedt
founda
shadow
taivas
vangit
bakteer
esiintym
sijoittaa
poliittiset
jake
theat
idästä
puhdas
##gaalassa
funktio
vastust
viihtyy
kuudessa
mountain
##urheilijat
##oliikenteen
juutalainen
puheenjohta
##bah
##ikoja
henn
tunisi
vuorin
tehokas
heikkilä
varressa
joukkonsa
suomennos
suojaamaan
mahdolliset
##emann
##äältä
##kaavan
prime
##ukkanen
##kisoista
sosiaalit
enemmistön
##rif
##:00.
##game
##veist
##artikk
someron
##kokoelman
##rok
##allio
tund
break
vaara
##seitsem
##tymistä
alberto
koomikko
vihamiel
##sihteerinä
päättävät
ihmiskunnan
##ande
buc
##ussaan
##immassa
schild
kertaan
0+00=00.
jennifer
virginia
lukemalla
mestiksen
##sub
lyk
##innit
##levym
colin
lenin
ninja
##askunta
##elmällä
##tävällä
runsaat
uskovat
##itanniaan
eroamaan
jatkuivat
kolmannelle
historiallisia
##mont
##chten
##etter
gill
plas
sabr
kulken
yksikön
äänesti
neljästi
säilyneet
paikkakunnalla
##./
kab
##istol
edenn
tytöt
##okselta
hidasta
asennettu
käynnissä
wisconsin
taidemaalarit
##fli
##pyhä
##siip
soc
##ingle
##oituja
kurssi
origin
tavata
toukat
##isteille
arvokis
kylpylä
silmien
asemasta
kummankin
hallitsijan
päästäkseen
sijaitsivat
##oul
exp
##andro
##opera
mick
upse
##maalta
##onaatti
##unnaksi
muualta
lukuisat
saapunut
silmällä
antwerpen
luokiteltiin
000-0-00000-0
##ikö
##reb
##ikoh
aqu
##ustice
##tilojen
tilast
viettä
painija
##uotteiden
rajautuu
valmistumisen
##ihappoa
##japanin
macint
päivät
susanna
yleises
kuullaan
määrätty
frederick
luovuttiin
joukkueiden
yan
buck
garc
##kortti
merkk
messi
kiovan
edmonton
sihteeri
nimitetään
##kujen
##viron
##water
enon
kung
haave
kuull
##ytetään
teolog
vedestä
muistoksi
samanlaisia
voimalaitos
##etj
##loa
ori
cape
flam
komed
march
##aniassa
##ipoliit
unkari
agentti
levyttä
nopeuden
ruokaval
otteluissa
##osse
fok
tiesi
pojasta
##mestaruutta
argentiina
suunnitelmien
##aaks
##hyke
iti
##kenra
walla
##perheen
##william
virkaa
publish
tiivist
useampi
väritys
##attomaksi
##järjestys
kansantalo
rinnakkais
##tyt
-)
##yama
##ivojen
##oituna
##urasta
budjet
niitty
gilbert
salaman
samanla
tapahtua
tappioita
universal
taloudellista
##äsikirjoittajat
nad
oak
setä
##päällikön
malesian
saatossa
pituudeltaan
##''"
##igo
##sek
##uve
##uice
##ilöyl
katri
wagner
perättä
collapse
edustava
normaalia
järjestely
##valmentajana
eteläafrikk
maastohiihtäjä
olympiapronssia
##cur
##best
ehr
jas
##pieni
satu
##utsche
manip
##tävässä
painonn
suurella
nykyisten
ruotsiksi
alkuaikoina
politiikkaa
vancouverin
##но
##nah
##mpää
##sijaa
pitkäk
rockia
tiloja
##valvonta
##prosentti
soveltuu
bes
esp
ime
hass
imag
diagn
serkk
älykk
##ication
##kuvitte
piilot
vesili
epätasa
##alifornia
mestarin
esikaupun
venäjältä
itsenäisen
rakennetta
##)'',
##hans
##simp
##toisen
##alkuper
##iskonsa
hedelm
selkeä
jonesin
kirjallinen
voittajaksi
##high
iho
##uaali
orja
##yttävä
harold
selviä
sparta
monille
ryhmässä
vaarassa
kokemusta
seikkailu
vastaanotti
farmijoukkue
demokraattinen
##bob
##itul
##ives
##ikkiin
kalat
kilpi
toron
##muusikot
##projekti
##juoksulla
asemalle
kaunokirj
##seelannissa
muodostettu
##ilän
puj
##margin
papin
rossi
vaihte
ylemmän
ympyrän
käydyssä
etukäteen
ihmisistä
esitellään
kasvatetaan
##akkaan
##elämään
##isempaa
kiistel
##ellisesta
ilmaista
jatkanut
palvelee
rajoittaa
seuraavaan
##final
site
annan
hotel
viinin
havaita
kambodž
palvelus
seuranne
arkkitehdit
##väh
##mega
##tema
##oleja
##ukahd
octa
symp
kehot
suihk
jokien
##metrinen
jatkuva
varmisti
syrjäytti
liittotasa
barcelonassa
kansalaisten
##oija
##pati
hait
pont
##taverk
##entinen
valvon
aloitus
elohope
pelaavat
tunnetut
tekemässä
toimitettiin
##cis
löyh
##telivat
blackhaw
hedelmiä
pienissä
veljesten
##anan
##para
reich
villi
heaven
hyökät
tappio
katsoja
##ottomaksi
children
puoliksi
lähetetään
seuraavina
##dō
##pakka
kvar
muna
unit
##itason
##teissä
##ppääjät
kukkii
eräissä
taajuus
kommunist
kardinaali
##-0)
##sbr
##kohdan
##emmilla
liikek
rachel
pelatun
tarinat
näytelmiä
äänitetty
vedenpinnan
##ukun
##break
##happo
##kaali
##üller
0'',
silv
bents
dynamo
anttila
käsitellä
sähkömagn
kiinnostusta
##ла
##hufv
##jose
dup
ges
##pikku
juri
##kilönä
##neiden
##pelejä
''000
piipp
##elevisi
action
alanko
##ikansuom
walesin
software
elintarvike
##rd
##gil
##ipun
jym
shō
##demar
##lapin
##ikkoon
##laivue
##kauteen
mittaa
##ekniikka
nicolas
uranuur
ongelman
snellman
eteläinen
europarla
matkaansa
nähtävissä
lääketieteell
osallistumaan
##!"
##ер
##cts
pm
##uusa
hok
jed
##kukka
##upiste
hammar
innost
puutte
tahdon
totuus
assisten
siemeniä
##uudistuksen
yksittäinen
ääninäytteli
täydellisesti
korkeakoulussa
##hie
##ehdot
dramat
lainas
kulutus
lisensi
menettivät
mielellään
valmentajan
avioliitosta
vu
fiat
ennakko
saharan
halutaan
katalyyt
##opimuksella
pikemminkin
perustuslaki
alkuperäiseen
##kn
##cula
##niem
iss
##ijoki
##niska
card
only
reed
purpp
integr
##viimeinen
syöttäjä
tutkitta
##ijärjestel
connectic
ilmakehän
kotimaassa
määrittelee
päinvastoin
##oid
##cess
finnish
tuottivat
vaurioita
##.0
##jim
##lich
amy
##yerin
amaz
samp
pastori
nicholas
alttarita
luovuttaa
kehittivät
syntynyttä
ou
asa
daim
sieg
##hausen
##kallio
tiger
vanta
##tykistö
elinta
kääntää
augustin
palvelun
santiago
lentopallo
paljastettiin
##lyö
##voi
##vaat
##uluja
##ikkala
##uutilla
haminan
ystäviä
##ilijöiden
(0000–00
kielelle
tuomittu
pakenivat
sanoittanut
##oppin
##posti
aren
keng
witt
##työssä
##olahden
##telusta
lainaa
lääniin
predator
rantanen
tunnustus
tasaisesti
parlamentissa
##flag
##phil
##rind
mcl
pelop
sulke
kamera
##tieteessä
salainen
adventure
pientaaja
asutuskesk
seitsemänn
alkuvuosina
##witz
fuk
jyp
##hevos
##marie
zach
##karinen
##ografia
perhos
tuonut
keittiö
varassa
huulihar
käyttäneet
##lyn
##nad
juu
##antin
kyll
##tikainen
lehdissä
lindholm
länsimaissa
rakennuksista
##huu
##inf
##lub
##ále
##päivää
lille
illalla
jatkossa
työttömyys
##gossa
##karva
marg
##estejä
##kehitys
##oillaan
leijona
naantalin
vatikaanin
sosiaalinen
karjalankann
väliaikaisesti
##akal
viljo
##uttavat
höyryk
motors
##isterinä
##pisteitä
kriisin
suuremmat
musiikissa
huoneenlämpö
##koin
##ppen
akr
##vaalit
##ääpeli
kyliä
palja
##imiehen
##mistaan
tappel
majakka
etiopian
jugoslavi
##koo
##chet
##führ
##ijän
##onas
##oliti
##seelan
bolog
guard
illan
pappis
##imiehenä
vaikkapa
miljardin
vasemmalta
vihollinen
##puro
uss
enna
tein
##doping
navar
nopein
disneyn
inkerin
pidempi
johtamat
kentässä
muuttuivat
pariskunta
##lus
##dead
##horn
##anger
iber
ruut
sche
andrea
##elämässä
haittaa
osallistuvat
kansainyhteisön
##ès
##issää
##kinson
##teinin
alkut
lohkon
valmet
ladatta
patsaan
##nimisessä
hellunta
ominaista
monipuolinen
divisioonassa
veri
##mitali
ääniro
varakka
jupiterin
varhainen
puoliväliin
arkeologinen
kaupungeista
##roa
##hava
##charles
##richard
nähnyt
osakan
amerikkalais
##amb
##töt
##uff
uz
##ogen
##pula
dek
##uonon
aall
siun
sever
dublin
pensas
suljet
kriitikoilta
##xx
##areja
lius
##atessa
##ograph
##peliin
edust
luotu
rikki
algeri
törmää
##asjärven
salonen
ystäväll
jäänteitä
budapestin
normaalimat
pääsihteeri
saavuttivat
vankeusranga
kuningattaren
##viirin
ornit
##afrikka
asetettu
hävittyään
voimakkaita
professoriksi
tiedeakatemian
##zio
##ätö
ci
ghan
##ttunen
chand
soike
##tomaksi
nousun
riitta
##mestarina
kunnasta
tulkitsi
näyttävät
vastaavia
eteläosissa
vaikutukset
##oris
päl
ryd
##villä
phan
vajaa
väriä
makedoni
psykolog
elämäänsä
lähempänä
itsenäistyi
tilaisuuden
##isra
0''.
0-0,
brat
nurm
ossi
pitu
palon
##qvistin
analog
develop
kieltää
kevääseen
liitetään
viimeistel
yhdistetyn
ey
ampu
artem
paloi
pieksä
##koneiden
##säännöll
lääkintä
maininta
superpes
rotterdam
pakistanin
yksitoista
ilmestyivät
##uosa
emä
rag
brän
fitz
tela
##määrän
field
metod
tyyty
##viestin
##pelaajana
myöhemmät
tilanteissa
vaatimattom
bé
##umme
-00
arena
manga
levikki
akatemia
demokraatt
koillisessa
pp
ui
www
hack
##batman
##konetta
ollaan
##okkaasti
rakente
suuruus
jokaiselle
keskushyökkääjä
##ink
##loori
tina
##tomana
##ytystä
vesih
##ammaksi
koulur
kukinto
maisema
verilöyl
numerossa
valmistanut
##vs
##hus
##msän
##olti
##olina
##where
assy
##antaja
00/00
##istorian
persoonan
havaintoja
lava
kiire
##istiksi
##onnassa
hondur
puerto
aleksei
numeron
tieteis
tavallisen
ympäriajon
##kapasiteetti
seurakunnat
rautatieaseman
##eriin
##jevin
autio
##elmässä
ecuador
kokemus
alalajia
neliömet
yhdyskunta
##hout
##tang
dum
hern
qing
##ehtien
fordin
kirkot
monacon
todistaa
##akennukset
italialais
##kuvitteelliset
##inov
##orio
##prop
##radi
sri
##ehtia
glad
muon
riis
ikonen
##tutkimus
kokenut
pommitus
laajentaa
luonnollisesti
##ekon
##rinen
##ruuna
dian
##painos
craig
tasoa
##iseelan
##ometriä
romahti
läheinen
lännestä
oikeasti
saaristo
valtavan
synnyttää
uskonnollisia
asento
kuoppa
##ytyminen
naaraat
tilassa
torinon
sylinter
sääntöjä
kiinnosta
manhattan
myöhempien
000-000-000-0
organisaatiossa
##ppin
##marja
##patsas
marse
nosto
rauma
##ikoille
hellen
masenn
roberts
aviomieh
onnistune
kapinalliset
painoluokassa
eurooppalaiset
nyr
veti
arvid
kosta
lihaa
fergus
grande
metsät
##emiseksi
pohjola
seppälä
viitata
kunniatoh
stadionin
tehtävistään
käytettäväksi
##his
eb
##irik
##duuri
##gomer
##saint
koon
lomb
ampua
käski
promo
tuomo
##essissa
ruukin
vailla
suosikki
hoitamaan
maajoukku
käsikirjoitti
lisensiaatiksi
ji
ló
kub
ohu
kamm
jalok
jaksot
kortin
päähen
voitot
branden
jehovan
varteen
voittonsa
tilanteesta
siirtymistään
bundesliigassa
##uurit
##berger
##tavana
##älleen
pearl
##kylässä
terävä
peräsim
versiot
herättää
jäähyminuut
tieteellistä
##rac
sac
##ganin
##tansk
##asemaa
tulva
wille
parati
toyota
##ilpailusta
pystyivät
päästyään
ukrainassa
olympiahopeaa
taistelulaiva
##sum
##fast
##uvuo
##ölön
##jissa
##kovin
halla
myöhä
tulon
marion
imatran
ulvinen
kanadaan
urheilua
ilmestyneen
konferenssin
rangaistuspot
##tad
##tsä
##kama
##naja
##teks
##tutki
ming
uhri
##alleja
##nopeus
rahat
##uodossa
luotto
dinosaur
pienestä
pituutta
suhdetta
alukselle
johanneksen
varakapteen
##järjestelmien
kaupallisesti
##gens
##kile
##viol
wii
##uvista
epäva
##ittivat
collins
kahtena
metallin
ultimate
turnaukseen
##brasilialaiset
##arius
##yylik
rusk
uimar
äänet
tuleen
vastin
elinkaut
perinteen
välisessä
mielisaira
välirauhan
mop
##ikinä
some
##idalla
pohti
##ekister
huvila
kapital
nimeään
nousemaan
vakiintui
vastasivat
ensimmäisinä
##pyl
##tty
##tait
meyer
''0000
nigeri
poltti
vahvan
juontaa
tunnist
tuomaan
pictures
##huoneeseen
puolustaa
risteilijät
##australialaiset
loppuvaiheessa
##ко
##alak
##matk
##seksi
##omaiset
senator
näkemyksen
australiaan
tehtäväkseen
##mul
##inae
##tony
gul
muuk
tbil
##hlberg
##utkija
##kanavan
pirkko
organiso
sisältöä
pisteiden
seuraavissa
kristittyjen
työväenpuolueen
##nos
##erson
##vaunu
liki
##jainen
maito
hoitoa
kuller
manito
kehotti
peittää
oppilaat
monenlaisia
japanilaisen
kultamitalin
selvittämään
senttimetrin
##riv
muk
##ckers
koot
robb
pysyt
buenos
fiction
jäätikö
käytetä
yhteist
##tämiseksi
erillään
uudistettiin
valmistuttua
##psyk
##than
gig
##äyttä
paroni
töiden
karjala
oranssi
suunnan
vapaauinti
##'.
##loppu
pohd
##akenne
##lingin
puute
talot
tukahd
##englannin
ratkaisev
reserviin
sosialistinen
onnettomuudessa
##kra
##tani
##orien
olga
owen
##isario
concer
##tunnetaan
0000–00,
hiihtäjä
kerännyt
tehtaalla
##puolalaiset
elämästään
##ennätyksensä
toistuvasti
##vuosikymmenen
poliittisten
##cip
##opuh
häm
jut
songs
service
perhettä
cleveland
seikkailut
sosialisti
opiskelijaa
pystytettiin
##arg
##olph
kumo
noll
##keissä
syödä
uskoa
##aliiton
kaukas
##astetaan
ennusta
muutoks
passiiv
skandin
jäätyään
suosioon
huomattavia
tietokirjailija
##éri
##eley
##icen
##ilat
##jässä
bona
leen
rolf
##teoria
kesänä
loviis
ryhmää
sopiva
tuhoaa
##riitikko
antautui
kirkkojen
historioitsijat
##az
##cycl
##wind
zel
luth
scor
##atonin
##hoksen
aikoi
guatem
hajana
vuosiksi
arvioiden
keskuksen
taistella
##komediaelokuvat
##kerä
jev
##ampuja
##televa
china
junan
kerho
0.00,0
##nuorissa
oppimis
segunda
keskiarv
syntymän
winnipeg
painopiste
merkityksen
tutkimukseen
halkaisijaltaan
mass
##umasta
eläinti
päärool
avoimesti
profeetta
merkittävät
puolustuksen
##huh
##lauta
##ylässä
litte
##borough
peltoa
koostum
##venäjällä
jättänyt
säteilyn
tilavuus
##mita
ahta
crow
laud
##deissa
##ipyörä
forma
munia
pesän
lennät
perusk
suoran
##paikaksi
petteri
tulossa
##imerkillä
##järjestöt
pienikoko
saattueen
yhdistetään
nelinpelissä
##lum
##vic
##post
##ärin
##jukka
##pistä
##ustar
ljub
scho
erott
kokoomus
tekstiil
valmiina
kenraalit
ohjelmaan
videopeli
puolueettom
##itävaltalaiset
##ås
##aug
##dae
##cell
oka
##murha
ikinä
multi
väärä
##berliin
queens
päivään
voineet
uusittiin
chicagossa
menetelmiä
satelliitin
##bron
##teos
##eetan
##ikone
##sähkö
pääes
futsal
hiiden
reittiä
osakseen
paikallaan
tavallisia
##hey
##ahti
##teor
gog
##vanha
fili
##ilight
##maissa
##ninten
sessi
valin
falcon
näkymä
##käsittel
vietnam
##laitoksen
algerian
käytetyt
salibandy
elämäkerta
nykyäänkin
##deja
##inoja
##putki
##yntää
##östen
extr
##hammer
##kansant
##omaista
castel
kotisa
heittää
laskeva
leopold
metriin
alueista
electron
löytyvät
paljolti
ihmiselle
panssarin
background
##unkarilaiset
lapsuutensa
saksalaista
##ded
##had
bk
##icks
##ivaksi
(000)
##ytyneet
edmund
##taneensa
edistys
vaiheen
väitöskir
viljellään
lähetyssaar
dy
##cole
##onius
duke
feel
grim
wins
sipil
liitti
##argentiin
puolueeseen
helsinkiläinen
ammattiyhdistys
##örn
fm
##uunsa
fight
maita
versa
tyydyt
kutsutun
keskittyä
peruskoulu
##okos
##omia
##pell
das
lug
##korke
##tauti
ryhtyä
kosmodromi
kummallakin
prefektuurin
skotlannissa
##bras
##flor
##lampi
##ollin
##polan
##utoja
bren
fron
schw
0.–0.
##imainen
holmes
pelanne
pianolle
lisäämällä
suomenkielisen
##stadt
aakk
grace
pääse
kappel
pitkäs
tuntee
rantaan
##uksessaan
oikeassa
paremman
virkistys
punaisella
kansallista
määritelmän
0-000-00000-0
##fore
gia
##unnon
global
liivin
milano
tarton
##itteissa
##ological
##umerolla
pacific
seuraan
syntees
petsamon
tykistön
koripallon
tekemiseen
ympäröivät
demokraatti
vaatimukset
järjestetyssä
yhteiskunnassa
##bac
##bird
##kaja
##velv
##ören
##imien
##tiini
##hahmot
##itapah
##päivät
edestä
gibson
##ikappale
0-00000
kuntaliit
käynnistä
kirjoittivat
cry
##music
##onnes
jalo
piik
vent
##teisiä
defen
elvis
pesimä
tapoja
##ikkoihin
koskeva
espanjaan
voimanläh
kuuluvaksi
itsenäisenä
prototyyppi
siirryttiin
##erie
##kilo
##suor
risk
##urnaus
huoll
##oituksen
digimon
lineaar
vaasassa
productions
portugalissa
pääkaupunkiin
##ctus
##jäänn
salz
##imella
méxic
sauna
##lannista
brownin
levytys
##olliseksi
kunnolla
määrästä
niukasti
taloutta
kardinaal
sanottiin
ikaalisten
käytössään
syöttöpörssin
puolivälieriin
##has
paš
##ispro
##leena
ylik
##mailla
käydään
mieleen
maaherra
paikallisesti
##?"
##öltä
##maita
##virhe
aller
pyrin
valle
varma
sattum
läntinen
raskaana
elokuviin
birmingham
tukholmaan
##järjestelmiä
kolmivuotisen
##uy
##nio
##isch
sap
##ineuv
##kiinan
kidna
kallist
pelaten
kymmenestä
valtakuntaa
yliopistojen
##carl
##elie
##emma
##hand
##athin
##tehta
alge
edun
##isaika
öljyä
##äytelmä
toiselta
suurimmillaan
##peg
##tré
##perh
francisc
nykyajan
kouluissa
##vius
##yvän
##ikuva
pius
##yhdistel
linnassa
maapinta
saaresta
##suomalaisen
retkikunta
todennäköisyys
##pez
##fort
##iverk
##synty
kyyd
##alaitos
anasta
##rautatie
asutuksen
esittämään
kannattaja
##uil
##uoli
##jodor
papu
##oksyyl
micha
moske
##eversti
##prinssi
##uurista
##ettavana
pintaan
samalle
##alaisuuden
supersuur
osoittavat
##wel
##wing
##xter
nürn
##troopp
nälän
serem
tiellä
jättivät
vähäinen
kustantaja
ryhdyttiin
tilanteeseen
##ätön
##alaus
0'00
käyr
pann
merik
##ination
bushin
kognit
pysäkö
##ennätyksen
kyseenala
sellaisenaan
##qa
##ssia
##when
##imenn
##liber
##ynnän
ohit
##istiset
kruuna
myöhään
punarus
laidalla
tuotteet
veteraan
perustamis
seuraajakseen
ü
##dir
##jac
##eline
##jilta
##atista
bändi
mitkä
uhrit
##kolainen
mediassa
yksilöitä
elementtejä
keskustelun
##vero
##fonso
##innön
##tumis
kryp
##eistaan
##unnista
lentäjä
pitäneet
suurissa
koiviston
käsittely
palvellut
arkkitehtuuri
bruttokansant
isoja
oikeud
isäänsä
studiossa
ihmisoikeus
kauppakeskus
vapaauinnissa
jus
##portug
##säätiö
kaija
kurki
##tähtien
##ustensa
tilaan
pudotti
dominikaan
ylennettynä
vuosisadalla
##app
##ior
##mpiä
##oksin
##tation
##iteetti
volume
##prosessi
turtles
jääkäriv
teoreett
laitteita
alkuperäiset
pikkuplaneet
vierailevana
##cyn
##dip
##aakk
##ukki
%).
##fford
##ileva
stre
##joilta
jules
##ytyksiä
##opimusta
lapissa
0000-00.
molekyyli
yleisurheilu
argentiinassa
samankaltainen
##ax
##öit
##ries
##tuisi
##ustoa
chin
olin
##evansa
##kommun
sentin
##tekijänä
arvosta
substan
##karvainen
suomalaisesta
##jur
##sup
röyh
##tausta
##uutissa
##ikäisenä
##ridivisi
autossa
kaappaa
muslime
pianons
ohjelmia
myöhemmissä
rautateiden
lentokoneiden
kansanpuolueen
jel
puv
sonn
##tieltä
##zation
athle
leima
sedan
##ottoman
##uluissa
ryhmiä
matkaan
systeem
lisensia
verisuon
##liikenteen
macintosh
objektiiv
seitsemännen
rela
sver
##asissa
##viikon
parth
kenned
##neuvosto
interac
keramiikka
soolokitara
esiintymässä
##bull
##ruus
##autoa
kair
##woodin
koivu
mantš
##polttoa
nicola
väline
##järveltä
(0000):
mediaan
miehille
parhaita
christmas
luonnonvar
epäsäännöll
##ís
##chez
bug
##buryn
lada
trek
##aineita
verkon
##laulajat
lakkasi
##toimiston
birdlife
komponen
prikaati
tutkinto
naissivuo
maalauksen
nopeudella
vastakkais
azerbaidžan
##udu
”''
##emällä
##itteet
##mallia
ghost
ilmaa
siika
järviä
koodin
ohjata
##luokassa
ohjelmat
sotilask
hallinnoi
pelanneen
murhattiin
##ík
##pac
##isat
ote
xii
##oonsa
lyön
mcco
mong
commod
myllyk
quebec
vuoros
##espanjan
##keskusta
tekemiä
työläis
broadway
maantiete
käkisalmen
valioliigan
eduskunnassa
ee
kj
##öljy
agr
##töjen
##ystal
##alalle
makuu
kaasuk
ferrari
tolkien
sankarit
tuotettiin
hallinnassa
maanjäristys
##maajoukkueessa
##hell
##idas
##omys
pup
##ivoja
##sound
chuck
##poliisi
antenn
prostit
tyylila
vaikkei
##allisella
kiinnostus
vaikuttaja
teatteriohj
perustaminen
##auk
poim
kauas
väria
##tuneena
darwin
useille
kaakossa
varsovan
edustivat
##intialaiset
teknologian
sijaitsevasta
##aur
##yri
zu
##idad
sos
geoff
##kasvina
##murhaaja
buffalo
tiettyjä
##estaruuden
komission
normaalin
uhanalainen
nähtävyyksiä
##kysym
##uotoja
noust
thing
tover
##ikauden
istuma
postin
senttiä
kotitalo
pesäpall
paikoissa
pienimuoto
journalisti
##mitä
rull
enkel
lihas
hughes
parkan
##peleissä
##saarella
##rakentaja
koulujen
käytetyn
montgomer
kasvitiete
taaksepäin
##rikkomuksesta
##ían
##ankul
##kasti
##queen
##tuvia
anni
kylm
objek
vakit
muurin
tikkur
channel
maalinsa
omakustan
ins
moz
##orius
##virka
olka
##uokkaa
derek
magaz
syitä
väist
newton
etsivät
kuvaava
pelkist
pyritty
##pohjainen
kestävän
koottiin
edustajaa
ennätystä
kokouksen
lounaassa
vastustaa
##aho
##wyn
##just
pow
##green
arma
##imäärä
sudan
kellan
marmor
##landissa
linjala
##allisissa
syntyvät
opposition
liiketoiminta
pikajuoksijat
##ock
##dark
##ylin
ural
##kirjoja
jumalat
maapall
armenian
##ikenteessä
lukuisten
pienemmät
##pres
##läistä
##ppinen
vahti
comput
lapsin
palloa
calgary
fighter
lukemin
omistajan
tarjoavat
##käy
kk
##ilah
chie
##ottelija
naaraan
sulttaani
todellisen
luovuttamaan
maalaiskunnan
##haara
tuloks
##ohjelmien
espoossa
varhaisin
ilmaiseksi
filippiinien
puolivälistä
metallimusiikin
##leg
(0,00
huuta
alonso
aikaväl
##ilijoista
maantiea
intiaanit
keskiaikainen
aw
##isee
##ornin
##tetty
knut
manu
saur
##emmalle
heitto
pehmeä
viking
mitalin
puolaan
henrikin
nuoremman
orgaaninen
tekniikkaa
kulttuuriin
##ils
##000:
##mack
##iskel
hold
eisen
idean
tähtä
freeman
timesin
##uksissaan
instituu
jääpallo
ristiretk
valtionpää
erilaisista
##kyv
##alehti
lisän
##omaisen
useamm
analyyt
korkeat
leipzig
johdettu
kerrottu
metsässä
miehistä
rakennetun
##estro
##formaa
pahen
param
square
suoraa
##kitaristi
##uttamalla
synnyttä
yhteydet
##urnaukseen
vaatteita
rakennetut
orkesterille
kotiottelunsa
kreikkalaisten
##edan
##gård
##iviä
##lang
##long
##omus
ibm
sän
##eilta
alat
heli
oreg
webs
##koiran
harju
clarke
sydney
ristiin
eteläkore
##jes
##lig
##wolf
##xbox
alm
dee
pyk
syste
nimipäivä
yhdisteitä
positiivisen
##hea
##aldo
##puun
##sukk
tid
##kaupp
otsi
##kasvio
##othing
##tainen
luigi
silva
##ikäyttö
kannen
koskien
mclaren
tanssia
vähittä
niemimaa
kokonaisp
kulttuure
pelaavaan
tappamaan
vaaditaan
##iiv
##lämm
##frank
##tönsä
voiv
##elberg
pseud
##istössä
belgia
lataus
paljoa
rosberg
tehtyjen
tapaamaan
mahdollisuudet
##jus
##some
##umpi
swa
##lajia
##isoitiin
##ettavansa
koskevan
löytänyt
keisarill
suosittua
liittyvistä
taiteilijoiden
##bea
##taaj
##bourn
##ugeot
maas
masa
pump
race
maalle
mittaus
yltänyt
äänitti
tekstejä
roc
##onien
##purin
##hoissa
(00,00
kyösti
psyykk
topeli
##kaavassa
nimikko
ratsasta
tarkkaan
teoksiaan
poikkeavat
hallitsemaan
##ód
##tym
##conn
##innat
##lessa
##shire
viha
avuksi
kalium
roosev
zimbab
mallina
##neuvoston
ratkaisi
yhtyettä
##ministerit
laajamitta
teknisesti
julistautui
##rää
##andr
##vuok
sof
##johan
##oneen
##selin
##yhteen
bryan
cyrus
rataa
samura
valley
eräänla
##venäläinen
vastaavaa
työntekijä
##ffa
##hing
##uhar
##vyys
##telak
##usion
amir
puhj
##uurann
ampum
ennust
##aatiosta
lapsesta
päässeet
liikennettä
perustamiseen
##ugr
dut
##mossa
##panen
luur
##konsern
##rannassa
realist
käyttäjät
musikaali
vanhempia
ruotsalaiset
aurinkokunnan
##šan
##show
##kilän
##taansa
##albumia
garcía
kuumen
ottawa
##anssonin
##elokuvaa
##joukkoon
##attomasti
naisilla
pohjoista
maalinteossa
talvisodassa
työskennellä
ng
##nais
##okun
##pela
sca
##andre
##sberg
##alojen
julie
bergen
ilmeni
patric
##saarille
aavikko
lähteet
vankila
julkisti
kuuluvaa
laivojen
lehtorina
miessivuo
useimpien
kokoonpanossa
##nez
##yot
##klor
##part
##chtin
amor
##rooman
audio
serkku
suorak
##opistossa
lentävät
poliisia
siemenet
puolustajana
suunnittelusta
uf
##avia
##pasi
pac
oslo
malin
perry
kivihi
##tapahtuma
maalilla
salaisuus
elokuvansa
julkisuuden
tehotilaston
##punk
gly
nem
##arisen
juhli
legio
väylä
mateli
oltiin
pidäty
##ymisestä
maanpakoon
vasemmalle
harjoitteli
##simo
spir
##merkit
tiina
ydinas
##ikastaan
oslossa
väkivallan
##iir
##kev
##jazz
##rotu
##unti
##kuvaa
##istaja
nukle
nykym
viiva
gallen
##imusiikkia
##romaaneihin
harmonikka
suomenlahden
##uit
##jous
chl
##allit
##isuku
##prote
piilo
##etuilla
turunen
tulkinta
vangitsi
käsitteen
mihinkään
tuhottiin
lukeutuvat
valtameren
##iteollisuuden
yhdistämällä
0;
##eric
##pher
##ostin
kaul
kylj
##kohteet
rannan
##taistelu
itäinen
puuttuvat
suorituskyky
järjestettävä
koripalloilijat
##pie
##öld
bü
##igen
##yötä
##tiset
##isteen
##ityksi
randy
##energia
kuulee
rossin
syntyyn
pienehkö
verkossa
tutkitaan
peloponnes
poistetaan
työntekijöitä
kansainväliset
swan
tiheä
hirven
pähkin
##alueista
normand
western
jääpallon
##asy
##vor
rex
##piirr
need
##ttiset
##utuvaa
##finland
##ussakin
fjodor
neljää
wonder
herttuan
kutsuivat
seuraaviin
kokoelmalevy
käsikirjoittama
##);
##clo
##päs
fia
core
eett
##lääkke
krite
kaasun
polven
##nimiseen
paperin
vakavia
augustus
carolina
peliaikaa
##koulutuksen
angelesiin
oikeustiete
##mea
##herm
##teho
##dalen
##kodin
igor
kane
klaan
##eläiset
##varasto
seurat
taikka
challen
heikken
kiinnos
nousuun
tappiot
terrori
tuhatta
merimies
rynnäkkö
##mukaisesti
toimeentul
lakkautettu
gy
##asol
dawn
belle
rulla
width
osakka
schmid
freedom
systems
viidellä
tuulivoim
virkamiehet
mestaruuteen
massachusetts
työskentelemään
##frid
nys
##mario
##niaan
##oscar
##unner
moto
trev
##keista
siuna
##ikkeita
##kuvassa
##luonnon
##aatioita
##asemalla
taitava
juristit
novgorod
kontrollo
maanmitta
aitajuoksussa
0+
##aksel
##lukua
cold
disk
jamie
rocks
##verkosto
sopivan
hallissa
helsinkilä
keskilämpötila
##syk
##ych
##sted
##uoka
##heart
chem
chen
sull
##laitos
works
##tilanne
africa
düssel
fisher
stipen
nopeutta
huomattav
mitattuna
seurannut
taistelee
osallistuneet
##bli
##rut
##mare
##leire
gray
kour
ohio
##iganin
aines
linen
tiber
joonas
salama
##paikalta
systema
maananta
tultuaan
vapautui
viulisti
erillisiä
##hto
##inga
##talv
##tium
bee
bard
jala
##ineenä
##ittäen
##tiedot
ahmed
leiri
##immasta
maaherr
listalle
päätellä
tiukasti
yritystä
valtatien
käytettyjä
osoitteessa
korkeimmalle
moottoripyör
aikakauslehti
elon
taud
aroma
terra
##ittäjät
meteor
tukevat
##isprofess
caroline
vaikeuksiin
0"
##tenn
fli
plo
##pääll
##visti
##yökkä
bent
##johann
##maiset
##änneet
kaisa
nelos
pelic
otavan
pyhien
##iläisten
juristi
kääntyy
sotamar
terveyd
etenivät
avaruusas
montenegr
ottelusta
jälkeenkin
operaation
schoolissa
00.00.0000.
käsittelevä
lentopallon
digitaalinen
pesäpalloilija
0×
##ción
##töön
mov
##jutan
##sonic
##öillä
fifa
muum
opas
##anssia
##olinsa
##tyessä
##täjien
money
skits
watson
##alaisilla
##kokoukseen
laaksonen
kommunistit
karsinnoista
rakentamisesta
##fut
##iah
##tilaiv
kelpaa
kärpät
tiensä
##alueelta
##metsästä
ruhtina
rumpuja
##isteilijä
asetetaan
ratsuväen
yhtyeissä
lentokoneet
sarjatasolle
ahvenanmaalla
##bun
##akki
##etri
##fina
##itsa
##puli
oud
##jätti
##tasta
##yvyys
gras
loun
##kohdat
isoto
##yyksien
lauren
muulla
return
##utuneena
uutiset
vastuun
laitinen
##cli
##liv
:*
##talot
##kanava
##vaihte
sotka
##aluksia
forest
tehokk
##ytykseen
jessica
fysikaal
kaltaisia
suhtautui
suomennettu
##aqu
##valon
fland
leski
stras
tapan
##yksiköt
preussi
tekninen
ajattelun
puoluetta
lappeenranta
##pua
##chia
##ppiä
##aloit
ankan
myymä
kansas
##ollisiin
saavutettu
##lem
##zie
##keaa
##entit
##hopea
kymi
##kinsin
myken
vetur
aamuna
tuotem
diamond
merelle
radalle
haluavat
päättyne
rataverk
ravinnon
salaisen
vesipall
uskonpuhd
kiinnittää
englannista
rytmikitara
meksikolainen
##tita
##ynte
sno
indie
##uotteet
elivät
0000''.
ammunta
indepen
dynastian
cambridgen
##evir
##yydet
stig
##ilahti
##äytöks
coven
erich
sampo
vakav
aiempi
piirsi
##tiedosto
forever
käsivar
vieraan
nimittäin
automaatti
päättyessä
vanhoillisl
moottoripyörä
##ehin
##taus
##umon
##graaf
born
kääntö
lyseon
entisiä
epäiltiin
kannattajien
sijoituksensa
##0;
##
##salo
##shir
(0,
##ukone
shir
avata
kisan
online
social
varhaisk
pysäyttää
hajoamisen
israelissa
juontajana
taistelusta
valtakuntaan
arkkitehtitoim
##gur
kuit
sera
viil
##emättö
arkan
innov
uhrin
##ohjelmo
komedi
kuolla
mäntsä
informa
##ettävissä
lyhyesti
trumpetti
ilmoittivat
kuolemantuom
menestyksekkä
##osf
##kesä
##great
##ingan
paat
prov
vart
##käytön
karin
arvoja
vakava
##vallisuus
jaroslav
##kaupunkiin
kovinkaan
saksofoni
selkärang
vähentynyt
erilaisilla
##etön
jäk
##islav
asko
hydr
heidi
future
jämsän
maalis
eläintiete
laivastossa
saaristossa
kriitikoiden
##sad
##elly
##mata
##suhde
aike
olut
sora
##patter
##telivät
empire
alemman
constan
komitea
arvioita
henkensä
##liigajoukkue
vastustivat
äänestyksessä
sd
##chic
mum
##kuusi
ther
##olento
##ipaleen
katoaa
kollek
käsiin
sirkka
kuvataite
palveluita
opiskelijoita
##ikkää
##ilait
crit
ples
work
##attina
##ikosta
##sioita
atene
vaaka
elävän
flames
groupin
venetsi
heinonen
arvostetu
floridassa
##wis
##bahn
##osom
##upin
cand
nuot
vale
##isteet
entis
order
mitsub
oskari
vanhana
##moottorin
hallinton
osapuolet
siirretään
harvinaista
suorittamaan
##tark
cbs
##eleita
##ulaisen
kerään
jansson
äänestys
selvinnyt
##aun
##bita
##leja
##kulma
##geista
##ovskin
avant
caesa
kyntti
pintaa
pommin
ulkona
##itykseen
irtisan
oloissa
sisältyi
kerrostalo
kilpailuja
kaupungille
matkapuhelin
##0,0
##här
sts
##ighty
enri
kota
liti
##uvansa
flash
juoni
kantoi
##karsinta
mikkola
aaltosen
klassikko
syöksylaskussa
äidinkielenään
##pis
fif
##llään
hers
klor
##neista
joulua
tuottav
ympärys
oxfordin
puhdista
uppsalan
johnsonin
##uskeskuksen
stadionilla
hollantilainen
##sym
##cape
##juha
##lyse
##otan
pais
##little
citro
rokot
amanda
000000:
ottavat
käsiinsä
taajamat
valtiota
yhteensop
savolainen
kilpailtiin
työntekijät
hallintaansa
##pra
##emar
##ping
etur
tynn
neuro
hajoaa
myster
vektor
##oppilait
##ppiyhdist
tiloihin
moottoria
riihimäen
volkswagen
##hyn
##pum
##uoria
boot
gior
hina
##sovell
bukar
##aineiden
moderni
vainion
menettel
tapausta
oikeuksien
nuoruudessaan
##taka
##uväl
##dovan
##opotam
siipi
butler
franco
motiiv
fennica
kantatie
lievästi
sukupolvi
tapasivat
##cit
##ked
##kek
##ilehd
essa
##areita
##ukarin
välia
##kaisiin
harjun
teoksissa
velvollis
kokoelmiin
puolivälin
##divisioonaan
laajennettu
tarkoitukseen
##fare
##laps
##allia
##berry
##ussit
soti
##kseksi
hiukka
hypote
limited
häkkinen
laivalla
yhtyeelle
euroopasta
pronssille
hyökkäykseen
jatkosodassa
tietoisuuteen
pääkaupungista
##uuni
##hanke
falk
##dorfin
atlas
##sininen
##ursseja
joulun
##muodossa
etsintä
myynnin
kokoontui
kuvauksen
pystytetty
pyydettiin
organisaatioon
elinkeinoelämän
##ор
##uulo
nom
poi
eerik
essen
etuja
parod
##ukainen
county
kyynär
hiukset
selässä
##ollisesta
valtiolle
vangitsem
kielitiete
määritelmä
prefektuuri
##**
##esien
##itaso
epär
##toksen
malmö
##lehteen
laajat
murphy
reinin
satiir
tähtää
vuosisa
julkisia
tärkeänä
oppositio
pääjoukon
vaikeasti
julkisuutta
korkeakoulut
shi
##parat
##pinan
##omaani
##piiriä
klein
##ikkalan
##olaivue
##valokuv
paikat
piirre
teräks
eläneet
kautena
tarkast
läheistä
##transformers
joukkueella
nauhoitettiin
##fé
##cad
fé
##eski
wed
##attar
##tagon
##white
##ryhmien
etenee
käskee
nopean
sammakko
tulipalo
##ihde
fat
##istua
##teiset
juice
matte
model
verho
##konsert
kolmio
luvuin
trilog
android
kellota
leninin
marokon
renkaat
tyyppiä
manageri
tullessa
tavoitteen
linnuntietä
##oti
##sot
##yrin
##ilaan
##lisen
erkani
mallor
spektr
kalusto
lehtori
siirron
ystävän
##tutkimuksen
portsmouth
jälkimmäisen
liikennepaikka
##gold
##ämpö
opti
##feltin
kiipe
medal
torpp
00-00.
haasto
muodot
rauhaa
runsaan
##pataljoon
tavarali
unitedin
rangersin
ilmoittanut
siirtymistä
##gli
##00''
ira
##ilyse
##oriaa
##terri
isov
pink
koken
trade
##käytössä
antavan
bernhard
laitteet
keisarinna
##näky
##death
##taasi
##uster
barn
ping
ragn
skin
trio
lópez
pella
puhut
sleep
unohd
tuberk
myymälä
puuttui
##istumista
ajatusta
puolilta
runeberg
salvador
francesco
oikeastaan
järjestyksen
##isy
##artin
##neita
##ppuja
##ilevat
panth
armahd
hyvänä
anaheim
katkesi
epätavall
opintonsa
solistina
romutettiin
##tilaisuudessa
##bee
##šov
##kede
##ommi
##junat
##rojen
##tifio
lumi
pyyh
##grammy
##tamiin
louise
enempää
kohteet
teologi
subtroopp
rintamalla
##hod
##/00.
##ress
rab
hattu
itsek
aiheet
jeremy
tilais
kuntiin
##kappaletta
erikoista
##sveitsiläiset
positiivinen
##lom
##dolf
##ijää
##tönä
kym
rig
##tumaa
kalm
kuur
kuwa
muta
##kieltä
##ruotsi
aster
jalos
kirsi
hannes
ronnie
##palvelun
00/0000
pieneen
vetäytyivät
etäisyydellä
karsinnoissa
hämeenlinnassa
##pikk
##arvoa
##menin
##onser
##asento
##raatti
##ustied
offic
tykin
huolta
##tikäinen
asuvien
##projektin
kiekonhe
nousevat
valinnan
kummassakin
palkintokor
loppukaudeksi
##ehe
##ilää
##sken
##writ
klin
stop
##elmana
liikkua
huumeiden
tiedemies
jokaisesta
merkittiin
lopettavansa
##cir
##sdp
##dorff
##iliit
##korea
##oavat
esip
page
##burger
##miestä
##aaminen
##vuosien
aiheen
katalys
rajalle
säilyne
greatest
puhemieh
kuuluvien
pidetyssä
valloitta
kerroksessa
##mön
lub
##hoitoa
##ikunin
##peilla
minun
##vantaan
centre
juonsi
kingin
suostut
##ologisesti
kyproksen
asettuivat
vetäytymään
apulaisprofess
##valo
niž
##luvut
##köping
tyler
##puolust
guitar
himala
katker
prahan
kannank
tutkiel
vastaus
laskenut
linjalla
##kulttuurin
##poliitikko
suosiossa
##estr
##peen
##ghtin
##ustul
saast
europa
kataja
koirat
veturi
##urheilun
jyrkästi
reitillä
väkivall
mäkihyppääjä
avauskokoonpan
##view
##ythm
iän
##atoja
##ckell
##ience
##illon
clan
pyhim
philippe
filharmon
kuultuaan
wimbledon
kuollessaan
##(''
##iris
##oksid
##uulle
isos
puhal
kokkol
##voittoon
ajetaan
##ittäminen
artistien
frankfurt
kasvoivat
kirjoissa
läpimitta
ministerit
##politiikassa
ääninäyttelijät
##ле
''”
##-000:
wikip
toivoi
tulita
korosta
norjaan
henkivar
rangerit
kuluttaja
kaupattiin
sisältävän
luonnollinen
##umann
came
kups
punak
##osaurus
kuvien
näkyvä
##kseenkin
##kuntansa
##utunutta
suuriin
koskevia
läheisen
sillanpää
tiedustelu
todellista
peruskoulun
harjoitetaan
##arag
##cuit
##idel
cru
sax
##belgi
shaw
trium
##elaisen
raunio
benedic
oleskel
hetkeksi
harvardin
suomalaiseen
kansallismiel
##colm
##hart
##tolo
##onnen
##trukt
##tämän
##äksen
juud
##kkönen
##tarina
##vapaus
pompe
vaura
spencer
traktor
viedään
alukseen
janeiron
martinin
maalauksia
omakotitalo
pudotuspeli
vaalipiiriä
kansallisoopper
##dino
cord
sanna
##uliitto
kerttu
ketter
kukkia
kylläs
maksan
tajuaa
varaan
ilmiöitä
tiettyyn
rannikkoa
neljännessä
lähestymista
kommunistinen
##gla
##iger
##trum
abr
lill
pablo
rover
salpa
virsi
alkute
dreams
tietyt
sebasti
jossakin
liikkeitä
aiheuttaman
suomessakin
turvallisuuden
##aru
##evo
##ossi
##vela
nir
dans
nett
neul
riku
sogn
##jalost
kassa
kuulua
santos
##vapauden
alfonso
nähtynä
ykkösen
##komppania
kaupunkik
hurrikaani
jokseenkin
##ibe
##zord
##uroja
svin
##amasta
##pressi
markk
montré
##uuksilla
murmans
lapsista
##iministeri
palkintoa
saattuetta
tarkoituksenaan
##lika
shah
kokoa
kanslia
asemalta
paavalin
rakastaa
##eskuksessa
pyhäjärven
yhteenlask
kiinalaiset
muodostamaan
kannankehitys
gag
##ymmär
isok
koel
kran
mail
##forsin
##hahmon
pyrkiv
lainasi
väärenn
ansaitsi
palautti
nintendon
jakautuvat
menetelmän
päiväkirja
junioreiden
käyttökelpo
suunnittelem
pienikokoinen
##kuka
raite
tšern
joutua
aiemmat
levyltä
kussakin
kyseistä
suurikoko
työllistä
vietetään
sortavalan
kansanperin
##erros
herkk
parit
profi
pussi
ratti
sivun
öisin
##ehdokas
rasmus
vaunun
##menestys
epäluot
lakkaut
atlético
hyväksyä
kosketus
kuntauud
ongelmiin
herättänyt
mytologian
syntyneitä
yksilöiden
##rof
##mith
##oter
ajok
ohje
##ilijän
000),
hieno
kling
maila
mozar
wings
##alueena
enkeli
##valmiste
gonzále
millään
albanian
fantasia
ilmestyä
perjanta
rahoitta
korjattiin
viralliset
(00.00.0000
##emis
##mpan
##putk
##roin
fot
teon
viuh
##ottava
palmer
oikeusk
videopele
odottamaan
kokonaisuus
seuraajansa
vastarintaa
##international
lentotukialus
poliittisista
##pyö
##benz
##lost
##onic
walt
##koille
##potila
##tiellä
medic
##lanniksi
sovitus
##prosessin
käskystä
tarvetta
yrittänyt
sopimuksensa
olympiakisoissa
##wl
##own
##sein
##elask
nöyr
todd
ocean
##ymiseen
hierar
johdat
neptun
painoi
vajaan
##italisti
##tarvikke
elinikä
mustien
armeijar
hajottua
herttuak
vaadittiin
järjestämään
##hull
##ogor
##tula
wär
##parin
baud
cool
habs
reik
wang
hyppy
##sivusto
pikkus
vakoil
palkkas
vuoksen
##ulttuurin
synteett
luoteessa
markkinat
suhteesta
paikalleen
kolumbiassa
vapaussodan
vastineeksi
kapasiteetti
espanjalaiset
##tern
##utaa
nih
bapt
zero
##aseura
maría
premi
öljyv
##ettävän
##oskella
laadun
nathan
nordic
vettel
##asemalle
alaskan
heijast
##tämisestä
lahtinen
lindberg
lukeutuu
risteily
oppilaita
soittivat
tekijöitä
vallitsev
keskipiste
##ūn
##rosko
fund
laih
sopi
teat
##cockin
##toimen
potkur
akvaari
deutsch
maineen
valitta
##urnauksen
jakautui
kaudelta
merkintä
muissakin
varmistaa
##tanskalaiset
loppuottelu
##hum
##hyl
cc
##ikaiv
##estyle
rosto
massan
##kaudelta
##attomasta
facebook
piiritys
vaihtoehd
##instituutin
tapahtumassa
jälkimmäisessä
##card
##häme
##sivu
maku
##koirat
runot
##lehtien
ensiksi
friends
kuukaus
##paikkojen
budjetti
mahdollisen
:0.
##ihahmo
##ything
ritva
taloja
##uksiinsa
##uksineen
erimiel
warrior
päätöstä
joukkueita
valmistava
yksityiset
pahoinpitel
washingtonissa
map
sna
##ution
heal
##sterin
##iläisen
##isuorit
hector
miekan
youtub
laskenn
olleita
peugeot
sisaren
jäätikkö
koordino
sivujoki
löytämään
suunnasta
minuutilla
aristoteles
tehopisteitä
vuosikymmeninä
oz
sán
##angas
leuk
##matkin
emäks
##ottomia
##kunnasta
robotti
tehneen
virasta
saarista
grafiikka
oppilasta
surmattiin
kaksikymmentä
äh
##kärä
shl
##asenn
chev
jäyk
lead
noja
000).
infra
hormon
puolta
tonnin
palkkaa
pysyvät
samanta
uskotta
##versiossa
alueilta
aineistoa
beatlesin
tasavaltala
tavallisimmin
##hoff
##iamin
##enkään
lukon
sukuk
järveä
kirsti
rakent
##merkkejä
##opetusta
arviota
helppoa
kivinen
miellyt
##katemiaan
leppänen
puutavar
välittää
jaksoissa
mainittiin
otteluvoit
ottelussaan
parantamaan
sopimukseen
##kain
##oire
gyl
nop
##ehdas
##jyväsk
##painon
husse
lager
rapid
klarin
materi
##kartanon
kalsium
pääelin
pysähtyi
kommentoi
lightning
tällaisen
muistopäiv
##coun
##deen
##icia
##kirik
eläviä
##pression
oleviin
arvioida
eritoten
katkaisi
velipuol
viljelys
kulkemaan
puhjettua
väkivaltaa
##organisaatio
määrittelem
##crit
##mons
##human
##maija
##tappa
raud
vera
##kaudet
##satama
uzbek
##säätiön
harvey
banglad
lavasta
rajojen
tukivat
orchestra
kuningasta
management
tähtitieteilijä
##ilup
##urien
kaap
siep
stef
toul
##native
adler
##annassa
natura
orland
morning
luokassa
##elokuvasta
eteläpuol
miettinen
##iak
##isle
##song
##keinä
abor
hirv
##kuutio
koval
haudan
konepa
lammin
upotti
##rastrukt
kulunut
raittius
varustel
läheisesti
maastohiih
viimeiseen
henkilöistä
psykologian
vuorineuvos
syöttöpisteen
suunnittelussa
televisiosarjan
##deus
##dään
##pysä
##sven
stam
##viljon
kanto
valeh
tuntuu
##iryhmään
maataan
sukunsa
urheilula
kehittyneet
politiikassa
liittymistään
uudenkaupungin
##sb
##ан
##nev
##uiksi
##works
##sotila
##tilais
naton
suden
##ikirkko
00.00,
varmaa
purettu
turisti
ukraina
sellaiset
läpimurtonsa
elektroniikka
työväenpuolue
##ketj
''-
##inneen
##maasta
heisk
joksi
totta
##komissa
##irykment
##näyttely
patruun
toimine
##rykmentti
alempana
neuvottelut
järjestelmää
##ono
##olet
##alifa
00.0
samo
unto
##kimies
##väylän
huuma
kisassa
käsialaa
olevalla
ratsuväki
0-0000-0000
jälkeläisiä
kirjeenvaih
000-000-00-0000
##ydä
##dahl
mön
qué
falun
kulla
sieni
sujui
##opalvel
##uskunta
firenz
ouluun
sivuro
turvat
##nintendo
asuntoa
lauseen
vesitor
kallioma
lyseosta
uskoivat
avaruuden
sosiaalip
stockholm
tarvinnut
säädettiin
##adebyyttinsä
artikkelissa
kööpenhaminassa
##ofi
##bitt
##pina
##škin
rih
vhs
##immer
##onnat
shel
topp
minut
palok
velho
##kasvatus
jätetty
##hyppääjät
hedelmäll
stuttgart
hyökkäykset
vanhimmista
keisarikunta
loukkaantumisen
##uj
##lapp
##touk
##korpi
##parta
##tapaa
pääd
##tiassa
lihan
##issäädyn
monumen
##festivaali
hankkimaan
katsottuna
solmittiin
luterilainen
##kuninkaallisen
kööpenhaminan
##tary
##torni
##ussia
bres
heino
optim
pelia
teuvo
three
##irakenn
##vaalien
antiok
bremen
kaapel
levyjä
siperi
kuumenn
lentoon
vähiten
voittoja
novelleja
kalastusta
pelaamassa
saattueita
kilpailijat
pituushypyssä
##oksa
##opiir
sega
##töissä
##valiko
stora
venus
##gissaan
##kansain
barbar
lämpöä
osalla
##attomuus
yksiköt
##omaisesti
heinolan
lajeilla
laskenta
mainitun
rakastuu
##vuotisjuhla
näytettiin
tarjottiin
varhaisimmat
kiinnitettiin
##tm
##arc
##alun
##aanit
##iveden
##ologin
haukk
syyri
nicole
railway
ajatella
naispuol
puhemies
##aaa
taa
esper
lisät
riitti
sotšin
veivät
vilkas
ohjeita
##satelliit
vihreiden
nimityksiä
##ues
##orus
ell
##septi
##ullah
luut
##neensä
sodat
##tyyppiä
calder
naamio
kohtaus
pitkien
floridan
hevosten
palaavat
serkkunsa
revolution
romaanista
hevosvoimaa
##zl
##aldin
##child
##etusti
##tiaana
kuula
väräh
huipen
paineen
##0000–0000
sisilian
toimivia
tulkinnan
aiheuttaen
seuraamaan
konsertissa
##iveä
##lyön
##ogie
sans
##rajoit
##ymouth
##ysteem
jenny
murre
women
##funktio
##oksidia
kykene
määrät
theory
vajaat
cameron
kaarlen
monella
muunnos
##mattomana
##pitoisuus
crawford
johdanna
helpommin
kannattajia
tuomariäänin
englantilaiset
##jari
##mine
##dream
##isuun
freg
##kartta
alempi
häiriö
myrkky
nimeen
tuollo
liikkuv
##ongelmien
kirkkaan
salaliit
kertoivat
voittaessa
autonominen
siirtyminen
##from
##ilio
##isha
cod
##yillä
niit
rytm
##utiful
benin
remon
##hydroksi
##ostadion
##yksikköä
periyty
athletic
varrelle
ulkomailta
##yliopistossa
vuosituhannen
amerikkalaiset
##chie
##edit
##komo
##lord
##sons
##ivier
utah
huilu
mirja
vihaa
##hoitoon
##opeuden
emanuel
oikeist
##piireissä
0000-00,
lyhyempi
esikuvana
puolitoista
##asso
sci
##jälke
##pöytä
##trand
cala
väyr
zepp
##puutar
karen
kokee
müller
##ististen
##täneiden
aikuiset
bostonin
cannesin
kannessa
tukikohd
lähettilä
hautausmaan
amerikkalaisten
##mé
##hja
##katti
kiviä
##varusta
kalust
kuulum
protes
volgan
##hallissa
egyptiin
leonardo
harvoista
newcastle
##kappaleesta
##kiertueella
##iliä
##evaan
ässä
##aniemen
pysynyt
miehitti
puolille
ajoitettu
ryhtyivät
liittyvien
pelaajalle
saataisiin
voittaneet
##pohjanmaalla
konstantinopol
##yor
vl
##ures
low
0-0-
sant
##töihin
huija
miami
lakeja
loppuu
pysähd
töölön
numerot
supersan
##kilpailuja
kansikuva
rooleissa
populaatio
kuljettajan
valmistuneen
väliaikainen
##cil
##kro
##tyr
ufc
##prise
##ández
ajon
clyd
heiko
korku
##uttajat
second
##nykyisin
olekaan
##tutkinnon
siskonsa
teokseen
katherine
maahockey
strategia
armeijansa
asianajaja
pirkanmaan
rakenteita
kapellimesta
aktiiviuransa
asemarakennus
ylivoimaisesti
##anton
cole
eura
##kreikk
##ylaiva
globa
kentu
rumpu
anneli
hoidon
raiska
rautam
atlanta
jättäen
rakentam
yhteisiä
psykoanal
puhtaasti
oikeudessa
kiinteistön
maalaisliiton
norsunluurann
##fab
doc
käp
nag
##autot
##perus
##siirr
00).
aimo
nico
ripp
##marvel
##onnasta
gerald
huumor
serbia
edwards
myydyin
skitsof
yleisöä
äärettö
valmenta
pohjoisin
##viirinumero
tapahtumaa
esiintymään
kandidaatti
vaatimuksia
##loka
##utar
##velj
##emble
repo
rien
##ikkeet
etsim
##maalaus
contin
libyan
omissa
(0000-)
oikeaan
poistuu
hongkong
kasvojen
liikkeet
tehdyssä
vähäistä
harrastus
pennsylvania
komediaelokuva
##dad
##sho
##evon
##imyr
##liga
deb
##jillä
köln
xiii
##uummin
##ällään
diana
pavel
rugby
##korkeus
##pronssi
kutsun
0+0=00.
natsien
ohittaa
einstein
engineer
toronton
perustana
##kerroksinen
metroasema
##karsinnoissa
internation
##jp
täp
##journ
rist
##-00-0.
##isikin
nancy
sankt
##käsivät
aatelis
hankkin
levittää
societyn
ahkerasti
lukuisista
underground
varapresidentti
##fam
##gif
##glo
##jaon
fins
##jöille
##osalla
hirsi
saaja
päijän
##emisesta
talosta
##-00000-0.
seudulle
päällikön
federaation
suunnittelee
merkityksessä
##hien
##isio
ach
eis
pöyd
##heikki
##kristi
##omassa
##omppan
##työnsä
##uineen
##ukaisu
hetki
romah
schön
##turnaus
avusti
leslie
control
##seitsemän
laajalla
tuomarin
evoluutio
technology
vastakohta
monivuotinen
cu
##isota
##tyyli
##öljyä
pret
##kierto
keijo
kivet
sissi
##alusten
##esterin
##astadion
##oppaassa
etniset
kahvila
suorakul
maailmann
julkaisija
development
päättymisen
jalkapallossa
##hong
ata
åker
##inoita
##oliini
##trömin
blake
näille
somali
vanaja
catherine
huomattiin
keskuksena
keskiosissa
##euk
##ril
##ipit
##ules
lyd
##achim
##kille
##ornis
##vikin
##ryhmää
##päivien
hammer
kärjen
margin
muutto
tigers
lohkossa
metallia
toivonen
lyhytaika
välisestä
olemassaolo
##käsikirjoittaja
##kimo
##pale
##andra
##pakko
##uulta
bear
##jattar
##ontaan
:0000
small
aadolf
innsbr
varast
romania
teemoja
atlantic
punaisia
helpottaa
ihmisillä
piirretty
työnantaja
aineenvaihd
säilytetään
(0000-0000).
##elö
##hag
gm
##ibal
##opus
thi
##häntä
##tical
##väksi
shawn
snake
diabet
hender
järkyt
nopeaa
raahen
kanerva
kädessä
tekstiä
vedoten
korvattu
konsertin
kristityt
kymmeneen
kärkiväli
ongelmana
järjestöjen
kazakstanin
valmistajien
suosituimmista
pääsarjatasolla
##hc
##ар
##goot
nek
thr
##ummen
audi
novo
silm
##katsom
##kurssi
##ullaan
minne
sasta
##ellessa
##ytykset
painon
purkaa
suostuu
aunuksen
pysyivät
raportin
kommuniko
kummatkin
kasvimuseo
yleisimpiä
aloittamaan
vakiintunut
urheilijoita
vuosikymmeniä
yleisurheiluf
##pane
##kaver
##seinä
laun
tajut
##emmille
##enttina
econom
parant
pronss
sotasa
tupakka
vankien
pyrkinyt
klassinen
##valiokunnan
säveltäjän
skotlantila
talvisotaan
valmistusta
kuvernöörinä
##yu
##ça
##ši
##ски
##cket
##ahven
##cessa
##jumal
rodrí
##ingenin
ampuja
baltim
norden
tähtiä
laajuus
##ituksessa
olleiden
reaktion
lindström
luxemburg
saariston
käyttöönot
instituutin
puolustamaan
suosituimpia
##nur
##orm
##nauh
ace
gin
hiv
yll
##istila
lukuta
rogers
voitoin
karlsson
palloker
suuntiin
yleiseen
##maajoukkue
liverpool
valokuvia
omaisuutta
kuljettajien
yksittäisten
kapinallisten
kirjoittamisen
##otul
##toiv
##ylää
elän
##adalle
##ventti
tuula
emilia
pitois
skanda
##ppaninsa
kohtaam
tavaran
##irakennus
psykiatr
apulaisena
käyttäjien
pääasiallisesti
##dies
##ukra
##uuli
rim
##olini
gros
intr
moll
##kaisia
eduard
portin
uhrien
##alueille
##ologiset
kielistä
koneessa
molempia
tällaiset
mestariksi
continental
kahdeksasta
nykyaikainen
suomalaisille
##rond
lec
##blood
trom
writ
##haasta
putin
##uksiksi
kärsii
lukija
nousia
##euvoksen
##ilijöitä
anatoli
kajaani
rannikk
##alaisella
##mättömyys
asioissa
##luetteloon
##uksellinen
entisessä
voimalait
ykköseksi
##fla
##fte
##uber
kha
##imään
duck
##ittuun
palla
teitä
##elmissä
elemen
##osastoon
##puolusta
##tietokon
aleksis
haluttu
pioneeri
puuvilla
yhdystie
terroristi
vastapäätä
0000–0000''
##vp
##beat
##iltu
alkus
palmu
väinä
##heimoon
monroe
piikki
tyhjen
freelan
jumalaa
nisäkäs
##afrikkaan
mitataan
pienistä
teknisen
nimitetty
pidemmälle
amsterdamin
hyökkääjänä
ominaisuuksien
##geni
##hara
damon
finna
##kastaja
kastel
kuolon
alkuaine
kunnosta
laulujen
pituuden
hallinnut
kiinnitti
muinainen
tarkastus
muutamissa
näkemyksiä
kansalaisia
##como
##etel
##intä
##kita
##ović
räs
##mpänä
##salmi
##önään
text
##keisar
##olähet
pysyä
saksi
tarmo
##iduista
avalan
kiisti
omilla
deutsche
järvessä
komppani
laajempi
miehillä
vaatinut
publishing
seuraavalle
toimiessaan
tyytyväinen
mielenterveys
suunnittelivat
##won
ont
leik
look
week
##värinen
00,000
public
dresden
logisti
baijerin
kullervo
kulmassa
periaate
mooseksen
lopullisen
politiikka
tarvittavat
##)”
##fus
##stin
##uren
eff
##laiva
ruis
saab
##orgaan
halli
merip
nälkä
tanss
suulla
koiraat
liigaan
##imoottori
caesarin
kohdassa
konfeder
toimintoja
kauppaneuvos
##hei
daw
##inski
hoide
hiihti
vaakas
jättilä
timantti
katsomaan
kuninkaat
päätyivät
##mens
##sana
##ytön
kuz
##käänn
##pieta
echl
squa
##etyllä
##kaarle
jenni
around
kilpak
nousua
##ettavien
kalervo
kitaran
##uttaminen
otteluun
pakolais
päättynyt
seurataan
kymmenessä
pelattuaan
päättyneen
keihäänheittäjä
hå
##nata
##tore
zam
##eriko
##ertom
hood
murs
sinn
##teitse
miell
foster
mitali
sanoin
sisili
ylänkö
alalaji
saarille
listoilla
lisääntyi
varsinaisia
valkeakosken
havaittavissa
suurlähettiläs
##ived
##0000-
##molli
##silmä
avia
avun
esta
myan
##ksistä
##parten
absor
porto
##imiseen
päiviä
region
tuskin
jalmari
nälänhä
syntyper
korkealle
kreikkaan
mieluummin
erinomainen
otteluvoitoin
osakilpailussa
rf
##siot
##ösen
##kkunen
hills
tehos
##kokoelm
virtsa
keinoja
tiettyä
raskasta
suuruinen
protestantt
rakennukseen
todellisuuden
##who
lü
wc
##elun
##sejä
mek
##istok
##heitin
##inskin
##uhteet
0+0=0
abdul
aulis
juttu
kovak
##oimalla
happea
koiraan
##uudenmaan
erotettu
michelle
hävisivät
berliiniin
edistämään
ilmahyökkä
##ević
##ltään
haul
komm
spit
##toniin
##tories
luopua
##isuunnit
kardina
morrison
sijoitti
kranaatin
kuukausia
talvehtii
miljoonaan
toimipiste
kristittyjä
roomalaisen
samanlaista
liittoutuneet
##iew
##wsoy
hug
##uojat
##tavara
annie
betty
voice
celtic
kolmet
milanon
entisten
lennolla
lueteltu
svinhufv
##attomuuden
dokumento
musiikkik
paikoilla
rauhantur
foundation
nykyisestä
sisäasiain
harjoituksissa
##vus
##last
##nick
##-000-
##itzer
##kkuja
musk
säke
tuke
##enskin
##juhlat
##ksissa
fager
astron
kapeara
vastata
##prinsessa
aktivoit
haavisto
lentotuk
kuvauksia
seuduilla
jugoslavia
nykyaikaisen
##ли
##osy
##hdus
##soja
##vässä
mene
when
##juhlan
äyriä
##missaan
kirves
monica
sivuun
virtaus
omaisuus
tapparan
##toimintaan
käsitettä
muslimien
tekijänoike
määriteltiin
valtakunnassa
##oš
##dea
##jhl
##iras
##teon
##yhtö
bomb
sate
kalaa
kvart
##arabian
pitäjä
riittä
ehdotus
tulevaa
aviomies
siviilit
lähteistä
maalaukset
romaanissa
kirjoitusta
seurakuntaan
esiintymisalue
valmistamiseen
eem
koo
##vihan
mine
unic
##evänsä
aeros
matil
oikeaa
##linnassa
lopulle
entiseen
hardcore
solmivat
vanhalla
prosentilla
viralliseksi
##roc
##.000
##agon
##uhen
##ukov
##backa
##itsan
##asemat
##ihäiri
capit
kukan
valot
jatkuv
fischer
sivulla
aikaisin
ilmaisee
kotiinsa
##–00.0.0000
erillisen
tekeminen
ystäviensä
hyvinvointi
vuosittainen
laivastontelak
kaksivuotisella
##elj
##rub
##itri
##mail
##olaa
##arvos
luft
pane
zomb
##reille
##äntöön
split
varar
##tavissa
hangon
hinnan
joulup
maakun
##yhteyden
kamerun
pysyvän
solujen
##ellisessä
leijonan
tietosan
keskustaa
puitteissa
televisiot
perinteiset
kiinnostuksen
##mum
##half
##uora
vuon
##henrik
##italon
##pintaa
lotta
salin
##tietoja
laissa
weilin
ruskean
tavaram
tulkinn
uusista
##moottorit
mainitsi
melbourn
pohjalle
##uskäyttöön
vesistöön
sarjakuvissa
##aat
ff
nbc
##legen
##maali
##mando
emäs
##itojen
##allissa
haaksi
isoisä
pylväs
##ologisia
geometr
sabbath
väkiluv
##atterissa
lääkkeen
yleiseksi
talousvaike
uskonnollisen
bc
##harj
##muur
##ynin
##iheen
##polin
nero
shen
##jeissa
passa
##elaiset
##hahmoja
domino
mobile
luontoa
talojen
prahassa
toimesta
universa
palveluja
kannatusta
madridissa
nykyisellä
prosenttiin
itsenäisyyttä
##00),
##yhin
ete
##aalto
##teria
quin
ruth
ulom
##opolis
casti
cyber
jorge
nimis
syksy
##emmällä
edelsi
inflaa
muunta
varoja
vuorot
##mustavalko
itäisessä
luonnosta
viisivuot
edustajien
lentopalloilija
##wik
*#
##lajit
##media
##pyhän
peil
turn
##energi
##ettina
##jääkär
cohen
##entteja
##ihmisen
maltan
taitte
joukkuet
nigerian
kompleksi
perusteet
valtuusto
kokoelmissa
kysymyksiin
muodostuvat
sisäänkäynti
yliopistolla
väritykseltään
##titan
##hdella
##ytensä
apura
grana
jokil
pyöri
##isyydet
antama
lakien
tykkit
unioni
##attisten
##peräisiä
korjata
spartan
##kulttuuri
hotellin
cambridge
miljoonia
sanallista
teoksissaan
voittaneessa
hyökkäyksessä
##ario
##eham
##hoon
##kaari
budd
mara
##bridge
olkih
herras
planet
##ellisiin
##mattoman
##kansainväl
##universumin
huippunopeus
arkkipiispaksi
##nyi
##ekir
##purj
hih
##aloja
##iskan
##lyhyt
maca
##emässä
alien
papua
tampa
uinti
##isimmin
##lyhenne
allian
ketään
[...]
