[PAD]
[unused0]
[unused1]
[unused2]
[unused3]
[unused4]
[unused5]
[unused6]
[unused7]
[unused8]
[unused9]
[unused10]
[unused11]
[unused12]
[unused13]
[unused14]
[unused15]
[unused16]
[unused17]
[unused18]
[unused19]
[unused20]
[unused21]
[unused22]
[unused23]
[unused24]
[unused25]
[unused26]
[unused27]
[unused28]
[unused29]
[unused30]
[unused31]
[unused32]
[unused33]
[unused34]
[unused35]
[unused36]
[unused37]
[unused38]
[unused39]
[unused40]
[unused41]
[unused42]
[unused43]
[unused44]
[unused45]
[unused46]
[unused47]
[unused48]
[unused49]
[unused50]
[unused51]
[unused52]
[unused53]
[unused54]
[unused55]
[unused56]
[unused57]
[unused58]
[unused59]
[unused60]
[unused61]
[unused62]
[unused63]
[unused64]
[unused65]
[unused66]
[unused67]
[unused68]
[unused69]
[unused70]
[unused71]
[unused72]
[unused73]
[unused74]
[unused75]
[unused76]
[unused77]
[unused78]
[unused79]
[unused80]
[unused81]
[unused82]
[unused83]
[unused84]
[unused85]
[unused86]
[unused87]
[unused88]
[unused89]
[unused90]
[unused91]
[unused92]
[unused93]
[unused94]
[unused95]
[unused96]
[unused97]
[unused98]
[unused99]
[UNK]
[CLS]
[SEP]
[MASK]
##an
d
##er
s
##en
m
##ar
p
##in
k
##la
b
t
##00
##ang
##at
##un
di
##as
##ak
##ad
##ah
##al
se
##em
##am
##is
##es
##on
y
00
##or
men
##ik
##ya
##uk
##ada
##''
dan
##it
yang
##il
##us
##ga
ke
in
*
##ia
j
##lah
##ur
ber
r
h
##ari
##ut
(
c
##el
0000
##um
##eng
##ol
##ing
n
l
ter
##kan
##ap
per
##ir
##id
f
g
##ara
##et
##ba
##akan
##im
dari
##lam
##nya
a
pada
##ek
''
##eb
##om
##ul
##up
##ta
mem
ini
da
un
##ian
##engan
ada
w
##and
##ung
dengan
##ud
##tuk
##asi
##eg
##ti
la
##ama
##ro
meng
mer
adalah
##ed
##ter
pen
dalam
untuk
o
ba
0
##si
##gai
tah
##eh
##ata
seba
##bu
tahun
##0000
##he
##ant
##per
##emb
##os
##ic
sebagai
##ok
##wa
##tr
##adi
##oleh
##ja
##ela
##ep
or
##ih
oleh
##uh
##ikan
##ent
sa
##asa
ju
##.,
##anya
ka
##od
##ec
##elah
##gi
"
##ub
v
##ong
sp
##atan
juga
as
##itu
##ua
##op
an
##atu
menj
##ies
##amp
##angan
##ori
##ula
##ra
##apat
al
##upakan
(0000
merupakan
##ot
ia
pem
ar
ind
bah
##isi
##ana
ser
the
##ebut
##ai
pro
kar
##end
##idak
kat
##ip
peng
##ch
##gian
##ika
##ali
##ist
menjadi
##ati
##atau
ma
##ber
##ukan
pert
#
of
0000.
tidak
atau
meny
##emp
fil
##ri
##ota
##angg
##sebut
##000
0000,
sek
##egori
##ab
ak
kategori
##amb
i
-
set
(0000)
itu
st
##int
##og
##ahan
##lu
sem
##angk
kem
##eka
##any
##lat
000
##buah
##anj
sebuah
##uan
bagian
spes
##th
pr
ker
bar
##ena
##ag
spesies
kep
##ew
dit
##ones
##ilik
##esar
##bang
##ov
##oh
seb
##aw
mereka
##las
dapat
is
##onesia
##gun
ch
tersebut
indonesia
dik
pend
##cara
##),
##le
mas
telah
##onal
##sa
##ind
##ons
satu
##orang
bi
##iliki
##yu
neg
##ma
des
lain
##itas
berk
##ill
dip
kom
##iri
##perti
am
dis
mela
##inya
##ard
and
mus
##).
at
##apa
##aran
##ev
sep
memiliki
seperti
orang
##ila
ket
##ember
leb
##aan
##iv
##ib
##if
##uj
##yah
mar
##ig
##ers
tim
ant
##ck
##aya
karena
ag
bo
##anc
##ida
mend
beb
mel
##gunakan
kec
setelah
ut
lebih
bahwa
##alan
kota
akan
su
pertama
gen
film
sej
kayu
##hir
##alia
e
##ingga
##empat
##ingk
besar
##ug
par
seorang
##man
##lak
##ob
##entuk
##ungan
##ita
ins
##aman
##re
##api
:
ja
##asil
##imp
##erapa
saat
beberapa
##do
##gr
secara
memb
##oid
##'',
kelas
##est
tr
##gu
kes
ked
##ont
##anyak
z
pas
nama
##amil
nam
##udian
##arkan
bis
##ell
bers
desa
dia
re
##ow
kemudian
##ses
##unan
##ea
##aja
##eks
##uran
##-00
##.000
sel
aster
um
##rop
##idup
asteroid
##eri
##ina
menc
dir
sh
##lama
##asan
##enal
ad
tet
**
famil
##und
terd
kum
##idae
##wan
har
terl
tan
##-0000
##elum
ab
##na
ti
##ual
sen
amer
th
##mas
##buat
berb
anim
so
##ilm
##erah
##ac
bahasa
ap
para
##ala
terb
ordo
##ulai
antara
genus
##st
##akar
##angkan
namun
##akt
##oda
bert
##gal
banyak
familia
##ge
##etak
negara
##-0
##orm
salah
man
##era
peny
##anjang
kumbang
king
aw
tangg
##asional
##unia
##usia
##olong
it
mat
sang
de
##ue
ya
##dom
dib
put
sed
##ima
samp
air
##ulan
pol
##erint
dua
bat
##son
lu
##''.
pemb
–
br
atas
mak
to
tanggal
terg
kr
mengh
amerika
##ond
dunia
hidup
##to
##tera
##unya
kab
##lin
##usah
##yar
##ans
##ulis
keb
kingdom
&
##anda
##arga
filum
##ilayah
inter
##ha
animalia
baru
arth
hal
##ord
##arang
kel
mes
##omp
ting
##enc
##ain
dim
##bit
##ecta
##ecies
wilayah
umum
##ropoda
##itar
##".
arthropoda
fr
insecta
kepada
##asanya
pes
masa
baill
##the
##olo
##latan
##bab
kek
##ingan
##tor
ga
##inan
tergolong
##tai
##ivers
me
##ikat
##gan
pers
sebelum
##ikut
##uku
##ay
did
pemerint
##han
ing
angg
col
yaitu
##olah
##lan
##uruh
##unc
kali
biasanya
##ingkat
##ode
ger
hanya
cer
##entara
##se
sur
univers
##ial
anak
akhir
##asih
##tur
berd
##umlah
sampai
##ini
sept
##utan
digunakan
selatan
##ki
##iap
daerah
##art
##adap
band
hari
hingga
##li
barat
##hi
pal
tel
##ebab
ketika
##uda
##arah
sela
##sp
timur
##engah
##unj
##ern
##akarta
##iran
september
seh
kh
lalat
selama
##udah
gr
sum
bel
terj
sangat
0000)
rum
##uc
##ust
##lik
##wah
##tif
diper
tempat
##ui
kemb
terletak
lagu
tetapi
pres
##oc
##aten
##uka
##ebabkan
serta
panjang
memper
el
##by
komp
##asal
##ort
menga
bersama
##go
kons
##bum
##ani
##ustr
##ni
uk
kedua
##awan
negeri
cat
##bat
anggota
intern
menggunakan
pula
jep
lainnya
bang
jawa
pern
##va
sejak
kor
##uduk
berh
pela
##ity
##udi
sama
##ju
##yc
(0000).
##entang
##udara
##ologi
##amatan
res
en
0000:
##usi
sekolah
serikat
##angga
ses
##ult
##ation
##duk
##ht
berasal
##upaten
min
berp
lar
terk
kembali
##akat
tak
kap
ilm
ii
ro
sekitar
dem
##ilih
(''
##ne
disebut
##itik
menyebabkan
##annya
eks
##vin
##all
##me
kabupaten
terh
bulan
dikenal
##ungk
##aktu
awal
membuat
pa
te
##lui
ac
jepang
##iden
utara
kecamatan
##jp
pet
##ting
pan
dr
##masuk
##pa
##ft
mana
memp
##ich
##usan
kal
sm
member
##iter
##gris
mulai
album
tinggi
##anan
utama
berba
##jpg
kon
melalui
##ilan
kelu
masih
##red
raja
##ensi
sehingga
on
bisa
le
##eja
inggris
for
##yat
ros
##ilis
##ine
berkas
met
##itan
suatu
sementara
##uari
##teri
##ubah
##edia
din
##ion
er
##aris
##emen
##istem
kur
send
##jar
##eop
##ide
ok
berada
##ou
pos
##'')
dil
kir
waktu
diak
##idikan
##ihat
terdapat
##ump
sun
musik
##apan
perang
rumah
bagi
##uang
##ahari
##upun
tur
##ie
##.)
##ys
berbagai
##uni
ha
mil
##onom
ed
melak
##ife
pag
##ura
sistem
x
##inta
##angs
##yarakat
##unt
nasional
##eker
angk
nic
terhadap
##.0
##uhan
selain
0.000
laut
##ahkan
masyarakat
plan
ib
termasuk
##uru
##usahaan
##ebang
##ly
tentang
sudah
##alis
##land
##qu
##ank
##umb
##ekn
##enis
bela
##okoh
mod
pendidikan
bawah
diter
bu
che
##ci
bern
str
##uli
sendiri
batang
##uv
0,
tiga
##res
##vinsi
##ancis
##eta
sin
##ola
dep
jer
##uasa
##eda
kerus
##umi
pus
mendapat
pernah
##atakan
matahari
penduduk
life
##alog
ann
larva
##ibat
##engk
##ca
semua
jalan
##ading
##emukan
##lahir
##form
li
##eoptera
coleoptera
mah
provinsi
##ho
pengh
dilak
##ff
dek
new
no
universitas
jakarta
tengah
##ry
kecil
baik
##awat
kerusakan
tand
sal
##buh
##urut
mis
pel
ku
war
keh
planet
terjadi
##ens
##angi
##lo
##ast
##ekerja
co
sy
nov
##eran
ek
rep
##ish
na
##tiv
tekn
perm
be
##ith
trans
us
##ersi
##engg
bour
melakukan
##kov
terp
paling
sk
##irikan
diakses
jumlah
##ublik
##iz
##impin
seluruh
perk
##ij
##akhir
##inggal
perusahaan
##aka
##ebor
()
##gram
kl
##asar
pulau
rom
bud
tanduk
abad
harus
bola
##te
##ukup
##rell
dew
##list
##ikasi
00,
udara
im
species
tert
kirk
pemerintah
##ajaan
nicol
##angka
berj
reading
setiap
check
ditebang
##-000
karya
##arge
ceramb
##asarkan
cerambyc
pener
cerambycidae
mengebor
##ulu
belanda
##alogue
annual
##iah
##duksi
dih
##rard
perd
muda
##angsung
##idang
catalogue
cukup
##ger
##ton
##species
nicolson
ouv
jar
checklist
##goin
bailly
bourgoin
itis
##argeon
baillargeon
roskov
bisby
##linawan
orrell
ouvrard
paglinawan
##main
musim
##war
##ukum
##ami
.
tanah
presiden
mag
pad
##mi
##angkat
##",
##ompok
##ce
kerajaan
##upa
maka
##min
si
##isasi
##ambil
##fr
sup
##apai
##ve
akhirnya
##anjut
pusat
##entr
jan
sebagian
diri
memba
jam
neb
gel
luar
##da
umumnya
##ess
menurut
sungai
lagi
ge
jerman
##aj
dilakukan
dig
pop
##asiun
##antan
##esi
mener
diber
meninggal
manusia
proses
islam
##unjuk
program
terdiri
tu
perancis
##yo
bentuk
ben
##ore
##yak
gun
nebula
art
##anggap
##asikan
##opa
organ
bernama
mengg
##ork
##itab
terba
bur
pemerintahan
ir
kepala
##gab
##uta
(0
##asis
##etah
sebesar
(00
##istr
joh
dekat
##fi
dar
##bitkan
gereja
kata
##ubungan
##rad
pesawat
##eral
##cat
internasional
##isme
##jo
sub
##bo
##araan
ters
u
pun
##tion
##di
lam
##.".
stasiun
menteri
##:00
berhasil
komun
juni
diptera
##bangun
##fa
pemain
dij
##co
lok
##sh
perj
em
dat
sekarang
##ril
mo
lalu
bumi
hukum
##usus
nom
bidang
car
##yang
##thumb
sering
sebelumnya
##epat
he
##evisi
##ipun
rak
##ebr
ilmu
mon
##film
krist
ko
sam
jenis
sw
makan
##imb
##gen
med
berubah
pat
##por
##urkan
berdasarkan
##za
pasukan
##elas
ph
0000-0000
hasil
##apkan
##ampil
km
q
##su
##pr
##usaha
dirilis
sing
sepak
##ongk
bermain
##ban
keluarga
by
memberikan
##onomi
kol
##ate
0.
alam
berl
mengen
##atur
##amm
sak
bin
politik
ji
masuk
tem
##ira
berikut
##ka
##tra
ra
partai
batu
##ili
##uri
sejarah
##men
jika
##ungkin
sch
khusus
##one
kelompok
tuj
##tober
##kipun
menja
##fer
ex
acara
##oph
,
televisi
juli
##ulang
##ji
##ustus
##ahasa
india
eropa
orbit
diterbitkan
##ku
lahir
##ational
agama
##pem
##elit
##ade
meskipun
mal
##oto
##ny
##gabung
kak
ah
com
##mar
april
lama
##ight
##inal
##atkan
##antu
'
##ugas
austr
##les
kapal
con
pe
##px
kamp
##old
##yan
luas
##nis
penc
/
mei
##unyai
##ite
##intang
##aruh
buku
(0000-0000
terbaik
korea
tetap
##ary
desember
##embangan
##atian
vi
mempunyai
dasar
##aranya
penggun
oper
agustus
##alur
maret
ep
##olog
ayah
oktober
##bn
##buhan
pang
diba
##so
kam
##–0000
sosi
##ment
sedangkan
suku
##her
##pen
##uncul
menyer
berbeda
##san
kun
##catat
##fat
##argaan
##atif
##ef
ta
bad
##udul
lem
##ukaan
john
et
ri
januari
klub
##ey
asal
mala
her
sis
terkenal
wan
prof
##ron
pec
versi
##ver
dic
terakhir
##tiga
##uti
##utrad
tanpa
##ph
##isan
##ex
militer
##tic
bekerja
##ory
didirikan
##imal
terbentuk
kas
seni
##ice
##ayaan
##pan
kim
go
sedang
##ick
##jak
##urn
suara
sat
studi
suk
tubuh
empat
##jah
tingkat
##uatu
maupun
##eli
trad
november
##rig
raya
penghargaan
kaw
muncul
dibuat
##inasi
kont
bukan
##ukung
##uskan
prim
##tit
san
##ost
ilmiah
##iman
republik
##embang
00.000
award
sc
##aksi
##formasi
jalur
memen
sumber
mendapatkan
##ikuti
##bor
sesuatu
bab
##utradara
##de
##ilai
sebelah
mur
up
##."
ur
##uler
ekonomi
sekali
pri
##ftar
ketua
ara
00.
mut
##ass
ruang
langsung
ot
##tokoh
febr
kan
##amanya
bangsa
##adem
##anyi
kari
##eksi
hit
##wi
sar
mengenai
ang
cara
reg
mencapai
magn
unit
resmi
##aku
##edi
jiwa
tercatat
##esa
##adang
gu
##akai
isbn
##orn
gunung
kereta
rakyat
ev
putra
kurang
saja
penting
tv
##jaran
cont
api
##asilkan
agar
tradisi
##arik
##encana
##lami
peri
hubungan
##ks
wh
##uki
0000-
##omb
##usun
“
penga
##uju
##ask
00.0
angkatan
##isah
##empuan
bahan
##ona
##bert
##utama
ob
##umen
##ator
##ld
asia
was
##ungsi
with
ditemukan
po
hak
wanita
allah
##antikan
posisi
gelar
industr
februari
rek
sejumlah
##tin
##unjukkan
##arti
yak
dianggap
ibu
menik
cl
lingk
##ica
##nam
ik
ist
##lahan
##tar
menyatakan
radi
kant
lap
sit
es
makanan
bal
##unuh
mad
dok
##ins
tum
##alnya
##rat
biasa
##har
##etahui
##ektur
##bangan
##ous
organisasi
##sek
##au
##ora
##..
perempuan
ketiga
##ence
bahkan
tinggal
##udo
##ke
##uter
##no
bend
nomor
##anding
##obil
do
##uatan
bintang
grup
juta
##ogra
ken
##ideo
##eluruh
##ongkok
##adikan
##isar
##rist
will
yo
berm
terbesar
gl
##ase
permukaan
##uai
##orld
##uanya
zaman
##eter
distr
muh
int
jo
##ipt
##omo
jaringan
##atus
##andingan
##entu
buk
##ulkan
berarti
melawan
##ilihan
##sur
kegi
sma
bergabung
##ris
##eum
may
seri
##adakan
mesin
##baga
##bur
wal
##arnya
##iam
jend
rusia
bant
sosial
pia
##oper
putri
tujuan
york
##ret
tokoh
vol
university
##ear
tiongkok
und
##tilah
pra
kegiatan
##ihak
semp
mengalami
fak
buah
arab
form
bangunan
lima
##embangkan
perma
##uth
pembang
surat
;
mul
##osa
penulis
ca
terutama
##adaan
media
##laman
—
italia
bro
##ical
pendek
menerima
tok
##.''
##erta
##ner
##ei
##roduksi
##enter
(0000-0000)
##yanan
##aks
mungkin
fo
pember
video
##jata
akibat
##inc
##olik
kristen
pemba
menemukan
kita
##oni
##enang
##hy
keseluruh
pantai
pembangunan
mengambil
##lim
budaya
##jid
##ampir
mata
##bar
ped
##askan
dibangun
keluar
##ulit
sas
##rom
##ino
belum
##asti
daftar
dimulai
teknologi
mobil
##anyakan
##empuran
##ance
merah
##ema
keseluruhan
menulis
##wo
##bi
##ann
##ultan
ditulis
comp
industri
kawasan
##urunan
jauh
wak
kehidup
menunjukkan
0.000,
##anak
##ement
##pro
##sk
000,
seg
##itudo
wis
##unani
ged
istilah
##itania
sah
menikah
produksi
##ley
##pada
world
cinta
karier
hi
ol
penerbangan
##vi
agung
melihat
##rit
membentuk
##indah
bl
##inggu
periode
datang
##isitas
##inkan
mutlak
dom
op
##andang
pecahan
##ampu
sta
hind
meningkat
##eph
bandung
dewan
from
muhamm
pasar
bir
=
##ts
kend
##entukan
keras
##gus
##ulus
##arian
tentara
##endah
(0000),
belak
magnitudo
nor
##aria
##egara
mampu
mic
spons
masing
##akter
ef
yunani
fa
##elengg
00%
putih
cerita
##ulasi
##erd
##ohon
jat
sd
pertandingan
##right
log
##awi
sumat
##iko
##ikian
terus
serial
0:00
perb
menjabat
menuju
##ame
bank
gro
pihak
id
##yi
del
##osp
##lap
sesuai
data
##isode
memulai
kehidupan
pak
##ater
##let
##ono
perdana
eksentr
pla
##urahan
alk
tanaman
##ert
##oro
contoh
##sen
jab
teknik
piala
sepanjang
juara
pt
modern
##ubahan
##ute
kerja
##ordial
australia
rev
gamb
informasi
primordial
##oll
britania
eksentrisitas
dirinya
div
##arakan
##utup
##olusi
##wak
afr
mutlaknya
bandar
##ysia
##isimal
inf
planetisimal
kalim
badan
istr
pemimpin
##andar
awalnya
##anian
permainan
00.0.
##masing
mir
##lor
##iss
##uktur
##ikit
produk
##eae
##ean
kong
##rael
##ondon
##ool
pertempuran
tip
gar
selalu
tra
apa
bet
hampir
leg
du
elek
##ungi
kitab
pangeran
ne
##|000
mengak
smp
depan
radio
##irim
##uluh
##elu
saya
model
liga
mac
kaisar
##zi
tamb
wakil
##port
##–00
van
kematian
fis
##tern
mengikuti
warga
menghasilkan
abd
tangan
aran
penyanyi
kini
bak
bek
milik
##tv
wala
diberikan
lingkungan
prod
(0000–0000
##anjian
drama
penelit
sedikit
##tan
##isa
##ampak
##iti
semak
keka
guru
peran
kebanyakan
kontr
##yp
##kar
masjid
masalah
##iet
cor
sebanyak
##mer
##ler
bus
maj
##sc
serangan
iii
taman
adanya
karakter
sultan
uj
mati
##ive
warna
kekuasa
israel
den
##ect
##ongan
membawa
rem
##kup
malaysia
##ular
super
demikian
yakni
##ultas
##una
##ungg
##uman
city
perubahan
##anyol
tertentu
jenderal
pekerja
keber
##sat
##alif
wa
##ingg
kelurahan
##landia
operasi
##0.
##kota
##ganti
##0,
##pemain
pl
##osi
beg
alat
char
perc
banj
had
komputer
##esus
##imana
hutan
##andi
##chi
##ilang
perjanjian
##ye
sim
##impinan
mengatakan
kekuatan
##erasi
london
membantu
dimana
cal
##uhkan
sus
daya
fakultas
ingin
pur
##baya
berupa
kond
rah
##rasi
##asiswa
##ko
##antung
sumatera
##ahun
##gap
##lahkan
malam
berjudul
keturunan
##ubl
##ech
that
katolik
##ove
penggunaan
perjalan
mit
semakin
##ihan
memas
sakit
##atas
usia
belakang
##anjung
##ten
##ney
rendah
bun
##ampuan
episode
spanyol
mera
##anto
##ser
##we
##anggung
##laba
##bel
##ender
lembaga
penj
##ubern
)
berkembang
melip
instit
##ampilkan
##anjutnya
ayahnya
##ire
##ital
nilai
##rah
##yek
pertamanya
pand
##ulauan
##yn
ho
belajar
der
gedung
mor
##ania
##otor
pertanian
kantor
##ibatkan
temp
##umkan
tengg
mark
selanjutnya
sir
gre
rad
##engaruh
mantan
##uangan
##oks
mi
##jek
##urus
dav
##ogy
anti
##isti
yah
gerakan
top
##ign
##eld
rec
##warna
memenangkan
000.000
menyebut
##gaimana
pot
lin
duk
##artemen
tua
##ath
ps
kepulauan
tar
##tron
##ash
usaha
##kir
meliputi
##ican
tugas
##ii
##ale
jabatan
asli
afrika
hist
##din
ikan
##uf
##kr
hot
##illa
berg
distrik
lo
press
all
##ran
gol
##upiter
##ker
##estiv
mew
##ome
##ria
##isaran
kemampuan
daripada
international
jos
ny
port
kekuasaan
##sanakan
kej
##iptakan
##ium
##estival
##iknya
af
##angkap
##aki
tot
divisi
##saan
0,0
##iki
diberi
kuno
##ogyakarta
tepat
##ubernur
hitam
museum
##ministr
qu
tab
##sip
laba
##age
geor
##ilangan
##utradarai
##emu
##ren
gaya
##igh
christ
sisi
mendirikan
##orium
kaum
arm
muhammad
diketahui
##ografi
keseh
perp
##own
perh
##-00,
cab
ahli
inv
kuat
##tain
pergi
##ild
##ella
gra
##ony
##ty
camp
perjalanan
##bahasa
walaupun
##undang
berat
situs
##unda
hong
##tim
non
yupiter
sempat
meraih
misalnya
administr
pengembangan
memut
meter
##-0.
##ez
akadem
##mus
pap
kaki
sov
perkembangan
kalimantan
##istiwa
##-00000
##ambah
##pl
meninggalkan
##yal
kimia
festival
##tinggi
##-00.
cepat
iv
##wang
dah
penelitian
pu
(000
gubernur
##jaya
kesehatan
##tu
ialah
pemilihan
##andung
##gala
jarak
mencari
komand
berwarna
ram
##luk
lokasi
ras
hid
##sit
memilih
tradisional
panas
##emuan
##egang
aktor
##rik
laki
##ere
##andia
##olak
##tik
##wal
yogyakarta
##ubung
fir
keput
##ese
rus
##jang
ki
##uruan
##ewan
arah
mahasiswa
ali
##ng
mik
sura
jatuh
efek
##ambarkan
tom
tenggara
kekaisaran
mc
##ham
jur
singel
let
dita
##umumkan
tni
not
bala
uang
tampil
##ark
perg
istana
##anjutkan
##intangi
berikutnya
##/0000
##istik
##irkan
william
##lukan
rela
berlangsung
##que
##sel
##laki
##akit
pi
uni
dipakai
wisata
##atorium
ener
mu
berisi
##ampilan
comm
araneae
membangun
##yl
##urun
tuhan
##atis
##ilidae
manaj
sil
alkitab
##00,
soviet
berbahasa
##etik
##adian
land
berdiri
az
sula
##negara
dipimpin
##ros
peg
surabaya
lang
mesir
##ram
##elis
##amai
garis
keter
hati
olah
##rid
dusun
babak
bom
yesus
best
##ebar
struktur
begitu
##elam
labor
lokal
bersi
fin
sud
##put
##sama
##gerak
##mo
luk
disutradarai
##mad
berper
aktif
0.0
##ral
berakhir
departemen
##epatan
jadi
eng
##ugh
ikut
peristiwa
aku
##elesa
##bah
##pres
##eluarkan
##oko
##askah
##way
##ait
romawi
sl
##tih
##enarnya
gambar
bas
ham
##elenggarakan
hewan
(0000–0000)
enam
##seorang
tro
##atuan
yahudi
sik
dewasa
##ato
##ahaya
##af
budd
banjar
burung
mendukung
##aktor
##atangan
##ile
school
rock
##andingkan
kondisi
keadaan
proyek
mudah
diadakan
menengah
total
##abi
##oma
##''),
cr
hen
gi
dinasti
alas
sebenarnya
senjata
fungsi
##raga
memperoleh
##uruf
##emat
web
##adilan
val
can
kop
pindah
##mat
##uel
keputusan
##asia
fit
##enangan
sol
terpilih
##ingkatan
##ingin
##aturan
memutuskan
##istan
abdul
stadi
##zo
tulis
dag
prot
##ps
teori
vir
##lawan
##eth
singap
##tris
##jalah
##istrik
but
namanya
##ept
##ower
##anti
bisnis
memberi
##adip
##aru
##erang
populer
##my
ver
saudara
you
##ise
sip
##uhi
##iaya
pohon
paus
ni
ng
##via
##com
##ven
david
##0)
##onia
suci
bertemu
##buatan
keduanya
dibentuk
barang
penuh
glob
we
##isip
publik
penyakit
teg
pria
ratu
hol
layanan
dev
##iling
##ongia
mengk
tertinggi
bila
##sekarang
kampung
red
os
roma
keju
##ows
nus
muslim
##00.
lamp
##umpang
tam
teman
##ipp
menggantikan
kebij
perangkat
diproduksi
kala
james
aktiv
##")
##ure
lew
##sch
##sigen
bantuan
kompet
sec
minggu
star
##etapkan
##ukul
konf
pin
##amer
pengguna
##ataan
##ej
lapangan
##ipta
##ester
terlihat
sana
##uncak
sekaligus
my
##uat
##ition
##enti
##'').
rasa
##hana
alex
dewa
mayor
bali
##atang
##der
fasil
kisah
kos
aceh
oksigen
pengg
##ace
komunikasi
gad
paris
##ume
##ford
has
##elola
##wn
##yam
##jur
##ediakan
inc
##jau
##bon
majalah
novel
hel
antaranya
his
laboratorium
##ings
##agangan
vok
0000).
ulang
##orong
##burg
are
publ
##oba
##are
il
debut
##ahanan
meningkatkan
bla
emas
..
##of
##tip
##bs
konser
lan
##engahan
cap
file
sri
ass
final
han
##hael
kasus
##)''
demok
##etahuan
##enaga
perdagangan
##uma
antar
##ics
##amanan
khas
olahraga
##ime
paul
##uncurkan
keper
bul
##lad
0000),
##ukota
fasilitas
huruf
peringkat
je
##iring
energi
##cer
seseorang
##apun
##ling
diambil
pah
menarik
robert
##egi
benar
##amaan
istri
##mark
profesi
gal
pera
##wesi
##mon
##aksa
***
naskah
tind
##sus
darah
pertengahan
##rap
tung
##dan
##rag
##ospongia
eur
dif
##antik
terbang
elektron
bebas
perlu
##yangkan
titik
##ungkinan
##elesaikan
mol
coll
##erit
##erdeka
lee
segera
##br
##enda
sif
imp
listrik
menampilkan
##likasi
("
menjalan
medan
##asta
umat
tri
nat
##ations
padang
##ental
lemb
##bangkan
cir
##uji
fed
menjadikan
gas
judul
maria
stadion
pint
kot
##udukan
##pi
berjalan
diangkat
meminta
tangga
darat
kad
##uhnya
prib
national
kn
berbentuk
status
##che
rob
wind
hab
tapi
berusaha
##yani
asing
##lalu
mengembangkan
pengetahuan
tiba
benda
pac
kebijakan
##berg
kompl
tai
rat
hotel
cabang
##str
##umur
##ille
##ze
sukses
ul
park
kut
siswa
##impi
nar
terbuka
kulit
##hoa
##itasi
sifat
sulawesi
##ganya
berf
##over
cons
##epas
asam
##ashi
bay
pasangan
bon
kemerdeka
konsep
##gawa
mand
##atasan
##oth
love
demospongia
demospongiae
end
sul
##elapan
strat
"''
##hal
ari
##kannya
rangka
pimpinan
mask
keuangan
objek
ris
##udayaan
##hat
misi
music
##ated
rich
kemungkinan
##onghoa
##iro
##ancang
kode
##jam
##satunya
tor
kud
miss
##lasi
standar
menyerang
ukuran
komunitas
kolon
0000–0000
awards
produs
semen
##jari
rel
##ble
##par
tambahan
siap
sastra
fl
##ene
bandara
menolak
##alikan
##itt
populasi
##ulat
##abat
##jana
far
roh
amb
tari
kebudayaan
dikembangkan
##tihan
##enteng
net
united
ibukota
cur
##luas
mengalahkan
off
bunga
##uksi
##ito
daun
ts
berita
##elaskan
##enalkan
pengaruh
pp
rata
ide
singapura
pemberont
group
imam
##fik
##ikel
##ander
##oli
merasa
mang
av
menyerap
memerint
menghadap
0-0
phil
##ekan
enter
dibandingkan
massa
michael
##ungkinkan
bos
kod
pab
##upacara
jul
mirip
##erus
##eman
tanjung
##ensis
zh
bor
rencana
kemerdekaan
filip
keempat
catatan
dibintangi
ip
##esis
jaya
unsur
##uasai
penumpang
puncak
##upati
##rus
mengirim
bukit
##utuhkan
segala
mengandung
##amakan
jelas
kendaraan
##estasi
##line
teks
##ott
hy
menemp
peserta
tenaga
##car
##osh
perl
##antara
don
##lemen
##ix
##sal
minyak
desain
dijadikan
##akup
##unjukan
##ras
##oman
sekret
##peng
##icara
latin
tunggal
tumbuh
000.
##ebih
berbasis
sab
##zh
lengk
membunuh
##engaruhi
gir
##olis
''(
##alkan
aktris
sutradara
jurusan
temb
dimiliki
say
##edaan
##kirakan
pertahanan
pekerjaan
pribadi
mengubah
wo
aliran
penguasa
dur
suh
bersa
grand
##elak
edisi
##cha
fre
##arikan
def
##dis
polisi
tujuh
direktur
tanda
##enn
kela
##ekut
melayu
##pun
##esh
##win
gagal
uskup
dila
##gia
##onton
melanjutkan
##get
berusia
lib
kelah
ujung
studio
portug
kelahiran
ibunya
internet
##kenalkan
##abila
bergerak
##ohan
metode
##):
##mu
##ujud
##bau
fer
berbatasan
##anaan
##itung
mencoba
nag
kadang
pam
##ider
merek
manajemen
kanada
##ikahan
##ington
ditayangkan
##embatan
fc
tang
memimpin
upacara
##oran
motor
way
kemenangan
tionghoa
##ates
cina
##akaian
##empatan
keamanan
waj
##ward
undang
##be
##sion
##hari
abu
terlibat
##ualitas
menand
##dy
mari
mm
kecepatan
khususnya
bupati
bersifat
tata
##unungan
##rata
menciptakan
prakt
ata
tep
##ikiran
gug
##une
##isahkan
sid
pasi
##impan
##erik
mempert
00:00
##agam
pemenang
danau
one
pernikahan
##erahkan
##ombang
angel
##bil
polit
##uddin
george
##kh
song
merilis
era
##omas
##zz
##esai
jack
00.00
memungkinkan
murid
digital
cahaya
materi
##ben
arg
academ
lun
perguruan
hindia
##bl
##ux
##zim
##itif
bertahan
pelabuhan
##eidae
##inet
dahulu
gam
tay
single
area
##kom
turki
##nyata
##iar
00-00
##stem
##gin
##batasan
lou
frank
##ado
perbedaan
##ole
bap
kompetisi
nya
fe
jl
##bul
aplikasi
kepem
adat
charles
##intah
kami
##engar
##urnal
menit
bra
##ornia
##adah
membuka
##rani
dpr
##urat
selesai
por
china
out
##uw
kebut
##po
##gn
difusi
##ail
##its
##ferensi
buddha
rekaman
##emahan
west
pegunungan
##laim
nabi
##alem
##reg
tampak
##empatkan
tew
selam
##ters
##inggian
...
berperan
parlemen
bakar
ternyata
mengumumkan
##ukuran
karang
korban
##gar
penja
##bc
##versi
0000–00
##osis
##ujuk
ayat
angka
sipil
tindakan
filipina
cit
petani
##sy
kepad
terlalu
kalangan
cm
##kel
##operasi
$
##uali
semarang
pil
champ
hadi
sant
black
##ujan
vic
##ujuan
mun
tersedia
polandia
##alifornia
##estan
menyediakan
jawab
##ivid
turun
maskapai
berumur
mr
##edakan
##ever
##lagu
tol
pukul
##elar
termin
##ism
berpori
##yon
##osisi
gold
apabila
##eo
hijau
##alam
##ero
##iana
pembuatan
generasi
terkait
dipilih
naik
dibagi
alasan
dibuka
##namen
##ee
##tions
##adipati
00,0
kiri
##akah
ec
swasta
##val
memakai
pic
history
maks
upaya
##elang
profesional
##ambut
ketinggian
biaya
##for
record
dukungan
bh
##ology
solo
pintu
0:
memang
##tahun
000-000
bog
lahan
tumbuhan
##elan
pado
batas
##ekat
##ahankan
##den
peraturan
tulisan
##mur
tokyo
tewas
california
##ein
##vo
##lain
##iau
brasil
saluran
##asinya
tahu
kebutuhan
asilidae
year
mencakup
##kin
##angat
center
bill
kompleks
plat
nur
diselenggarakan
wah
##etnam
##lar
##lus
##ampa
rp
berkata
##els
tal
play
prin
part
mengetahui
real
ear
menyelesaikan
aktivitas
##kanan
pelaks
jembatan
long
##yasan
menggambarkan
##cu
##unjung
##raja
##tas
percaya
peter
bol
revolusi
semb
##ancurkan
##oki
##pert
ran
##intas
pendiri
##arat
mengadakan
ataupun
situ
memain
system
diam
##iskan
direk
##ture
mos
##wakilan
meski
##ultanan
fisika
##okus
##engkapi
arsit
melibatkan
richard
transport
kalinya
ton
##eder
lulus
pertemuan
south
##ikal
dec
vari
lev
anda
jasa
obat
tipe
klas
bag
##anggil
lewat
sayap
foto
##bb
american
##dr
##ustak
bekas
dingin
##eus
pelayanan
##omi
##ejabat
##pt
harga
##itor
##ubungkan
memasuki
##onis
##bal
##kes
##nu
penampilan
##air
akademi
saling
##eet
##tro
mewak
individ
satelit
academy
##ution
hujan
##isir
##ukai
wil
global
##ther
##kop
bagaimana
memainkan
##tainment
diikuti
dilihat
lengkap
reaksi
gitar
adipati
mont
vokal
##00)
yayasan
##ll
kejadian
##ky
dilaksanakan
sekretaris
##uga
vietnam
##ped
hend
perwakilan
mengur
dokumen
##ster
kanan
ret
##jualan
0–
bes
##inda
##ibusi
belas
##-000-00000
##ahu
high
diterima
##laku
remaja
##sis
##pek
##gg
sunda
ajaran
pendukung
gadis
##elajari
##
##aknya
this
dj
dial
penduduknya
pasal
seder
##ege
##poran
##iel
+
ven
terbatas
diperkirakan
biru
austria
##ustakaan
est
instr
##nama
##rich
sebab
##wood
##esm
##als
pembentukan
##iver
kand
stud
##irian
##lihat
thomas
merujuk
tahap
##ier
show
kuning
kejuaraan
##sm
simb
vis
##umbuhan
##jil
entertainment
bangk
mewakili
law
teb
anj
atom
##ifa
##anji
pengan
##kadang
sand
artinya
##ose
##amat
sci
##iksi
fac
mengeluarkan
kesultanan
indah
simp
buatan
win
berpend
gab
##utu
##bai
##imen
teluk
##ollo
##onen
calon
komandan
##umber
girl
##pol
kehilangan
##enakan
taw
##caya
melam
diant
0)
kabar
aut
##ety
sebagaimana
##enterian
kil
##fe
kementerian
fitur
##con
teater
##wira
tour
##set
##="
pul
artis
##indungi
##ebon
##organ
terminal
disebabkan
##isten
##impiade
digantikan
pemuda
turnamen
##ius
mov
melayani
terc
##epak
ibrani
##ake
##okasi
saint
##net
##dam
##jakan
perbatasan
centr
pejabat
##mis
aksi
##inus
menjelaskan
##ions
##ucing
##ambahkan
##/00
she
##ologis
##itis
##fis
##encan
##ailand
##indahkan
menging
##ewati
##yawa
##alian
troya
##epend
##amin
pengadilan
##fl
##ouse
windows
berhubungan
logam
kesempatan
fat
nas
satuan
halaman
administrasi
##usnya
##anyikan
dewi
##nan
menang
dokter
##ekar
martin
##porkan
senior
nuk
north
diluncurkan
##yataan
##eritakan
##antas
##cy
penjualan
ditetapkan
##ograp
pari
##eliling
##col
daging
##olongan
nob
##jen
##pu
##uduki
##hol
myc
tik
persen
perpustakaan
rud
letak
##omba
##oris
##atasi
pond
sederhana
##kam
time
##omat
mill
##cc
boy
ren
##seb
serv
menghadapi
##ometer
##fo
malang
ahmad
beroperasi
hat
dikar
makam
##ning
##etan
##erita
##unjungi
##ush
dana
apollo
delapan
perhatian
day
los
##''"
dian
##operasikan
##jas
hilang
##trans
pilihan
##epon
produser
##omy
lub
sebutan
##out
pagi
##sin
hindu
kul
soci
pemberontakan
wat
flor
##000,
layar
##entikan
angkasa
##nas
##lima
count
sulit
blu
henry
##lir
##faatkan
utamanya
drs
pabrik
demokrat
ky
wid
olimpiade
##ico
berka
##amping
##anta
bendera
thailand
sini
kalau
##cus
kecuali
##ury
tex
junior
seminggu
pras
mayoritas
##anye
##ree
kin
demi
kristus
setempat
latar
lebar
fisik
##krip
pangk
peningkatan
sad
##kt
gor
saham
bukti
memenuhi
##pd
##asitas
##kem
menentukan
##pes
moh
kudus
perintah
diantaranya
sut
##oci
##wis
##akh
vii
len
tema
menara
##adinya
##!!
volume
##ym
##asaan
melaksanakan
sarana
suhu
##ike
langit
cok
##osiasi
sara
##angkah
##anth
tuan
tekanan
##jat
berfungsi
pertunjukan
trop
##ope
menganggap
hadiah
##cr
##baikan
##alisme
lunak
##ebangsaan
senyawa
mempertahankan
##byli
ten
0000-0000.
sign
samb
nominasi
mau
##wab
berkebangsaan
jen
potensi
club
kamb
berkaitan
candi
macam
##ifikasi
fi
##cel
##okan
fri
kuil
adv
staf
wang
##ano
##cher
##-0,
##urg
##ally
santo
college
pandangan
kopi
##ection
##usat
puluh
lampung
ribu
##egah
##ontr
konflik
##okok
##aksud
##ument
mid
##ebasan
##vel
kalah
back
##inding
##sara
louis
laporan
yu
kucing
dihasilkan
persia
##ason
produc
game
champions
##ns
dikirim
##jurit
##ody
##elur
famili
benteng
##titusi
##irasi
##kap
##adu
##juangan
first
##etoph
##etron
##ematika
##antren
##edy
seks
mencetak
##untungan
istrinya
max
##tifikasi
god
kritik
mekan
0,00
bea
memegang
##lay
bogor
##,"
##use
iran
##hip
sya
komisi
##unus
##ridge
##app
##sem
##ario
ban
sarjana
emp
cho
dam
tun
##alisis
metro
terpisah
papua
##egan
pertumbuhan
musuh
balik
‘
000/
##oka
dulu
##alisasi
cirebon
##board
pd
voc
berhenti
menguasai
##...
ay
(;
##oshi
##alin
majelis
##urt
##unggu
inilah
##ichi
kampus
jag
##isipasi
##elahiran
##orit
##mod
hib
samping
dikatakan
independ
##work
##agang
##kelahiran
gelombang
kursi
lim
##amaian
##itz
dal
sinetron
ox
bombyli
##elamatkan
samud
institut
tertua
##alib
dilengkapi
pesisir
##mah
konstitusi
astr
##obatan
bertugas
company
dibawa
aman
pemilik
transportasi
pesan
ajang
##tis
##agus
kariernya
##cayaan
keluarganya
##irinya
panggung
##tidak
##utar
##ahat
##kah
swedia
akses
urutan
ue
pelajaran
ray
irlandia
tepatnya
##rib
melewati
series
menurun
##jem
pemeran
rest
##elop
micro
putr
##ingkali
shin
##juang
##lines
setengah
##dari
jin
cel
##rogen
##ray
##ukur
mengurangi
fifa
bec
##atangani
perjuangan
adam
poin
0-000-00000
smk
##ream
komedi
rute
terjun
##ukiman
pakaian
prajurit
hir
##teran
##imbulkan
##umpulkan
mempelajari
dipl
suka
kesen
sehari
iz
nik
menya
molek
##gag
##jaan
hor
##yarat
dirancang
tempur
##bia
##ach
intel
00000
pesantren
seringkali
##astr
##io
##emar
##intaan
0000-00
##itual
gag
##asang
det
saud
toko
##iano
dataran
faktor
victor
kontrak
besi
bulu
which
0-0000
profes
keberadaan
##cl
kid
taiwan
mengajar
menjaga
##je
drum
purw
##rod
##eing
telepon
memproduksi
raj
ditand
jean
perwira
artikel
matematika
##);
##angkabau
person
##aton
##tant
live
prop
mengakibatkan
##ric
berjumlah
##ogen
##kata
publish
pulang
ident
deb
##tual
vo
##ampaikan
diperlukan
bany
lintas
##uskup
pala
son
simbol
##met
bombyliidae
##oku
##amkan
jangka
##row
##oso
##elap
##ihara
##tel
menempati
kepercayaan
kartu
mich
membuatnya
apakah
##jan
##elakaan
lukisan
pondok
kualitas
##nes
airlines
terbagi
cd
waris
app
kaya
##mac
:''
##apatan
''"
lambang
##ikir
##caraba
tech
##ohanes
klasik
##kand
terbuat
##adari
ringan
##lav
green
##ket
sepuluh
##olos
##ges
##urang
(0)
minangkabau
wi
##waktu
berla
ciri
komando
##buk
##ilu
how
mini
sektor
##eku
##mati
stev
ikatan
##embak
##sor
patung
wash
hall
nusantara
dinamakan
##ional
relatif
campuran
amp
alf
hay
syari
##abad
##osen
over
tiap
bertelur
berc
##ugu
francis
format
kara
menjalankan
penyelengg
lapisan
##raft
wali
##left
##off
tersebar
dor
##arawan
les
##mos
adik
individu
angin
##egaraan
injil
komunis
swiss
brit
norm
pasir
##tus
berukuran
##ullah
puisi
membutuhkan
dijual
penonton
disebutkan
##ekutif
##ormatan
scaraba
##baru
##ull
kepemimpinan
##ewar
##–000
##jikan
##yanya
ekor
hand
peta
kontes
##embun
dihar
berbicara
miliar
young
memer
kuda
tid
##perusahaan
ulama
duduk
##mes
##ery
kasih
mycetoph
yohanes
japan
::
komponen
society
##entina
pengaw
##iyah
pingg
##lahirkan
##sikan
##sawan
mig
que
mengaj
spir
house
##inis
menduduki
uefa
##án
##lang
##wat
mengal
membeli
##uliah
##ersial
dll
santa
nap
cent
induk
armada
##ephrit
diubah
##mainkan
pekan
harapan
tangk
arsitektur
##ogo
##entingan
##indonesia
##ebunan
##ves
##vd
##under
##yle
amor
bersamaan
##chen
arti
dilahirkan
carl
yud
rh
##lawanan
##uld
label
prinsip
boleh
memerintah
meman
kapten
##inst
ganda
##umni
scarabaeidae
##alu
work
##elompok
associ
##yatakan
dol
##dalam
ditunjuk
harian
squ
##ague
semuanya
bord
##ulusan
perak
##kab
##truksi
##hak
##linya
sn
mengatur
washington
pelangg
hidupnya
##jasama
menghubungkan
##weg
joseph
penerbit
##sman
##iapkan
menaw
maju
##urch
berlaku
##wakan
##inginan
kedok
##ange
##jian
##bus
menger
0''
##uas
##ikh
##ude
jarang
kongres
##agama
online
##wit
##otong
rasul
tulang
##aram
ment
##erusalem
om
##imbangan
alih
dimainkan
##dik
raden
lantai
kub
run
harry
sound
peralatan
##ugerah
sekitarnya
bob
sekutu
perkebunan
wafat
kecelakaan
kris
##lag
ath
hadir
pelajar
komersial
##uch
pengalaman
menghancurkan
##ankan
buruh
##atnya
pola
kesenian
pelaksanaan
gus
kus
lel
praktik
##untuk
christian
##gl
simon
##ms
riau
paulus
panc
dimasuk
coc
##ingatan
##unci
bertanggung
eksekutif
stand
##safat
kac
##ón
##jin
*''
aslinya
##aha
##umsi
kapasitas
##eksiko
lak
makh
mund
balapan
##arto
fot
rt
buruk
tepi
pref
##anjutan
##uto
mikro
##cas
aug
kelima
kg
pir
clas
##omin
##jarah
menimbulkan
##olf
news
keker
daniel
dinyatakan
##tein
##fir
merebut
##ophagus
tephrit
were
seiring
tephritidae
##gro
lanjut
mendorong
spec
etnis
penyer
didukung
pelatihan
mary
##ujukan
golongan
tir
lip
cast
pendapat
bask
##ors
##0000.
county
pemand
von
jema
##idi
##med
rasi
##ekor
pon
sepen
nasi
aud
bung
kart
##rey
khan
sudut
lir
itulah
|
gemp
kedokteran
sembilan
reli
##anggota
##ister
##ject
blok
keuntungan
##omotif
mam
ketidak
melindungi
##ayakan
##guna
##ken
mart
##new
sari
fos
##thophagus
cek
melainkan
##resi
##ision
aksara
records
binatang
inform
##fil
rot
##vensi
strateg
telur
lawan
bengk
komune
##ansi
diciptakan
##band
fen
##ball
komite
kepentingan
elektronik
menjual
bata
mengangkat
menawarkan
##tle
urusan
animasi
menyebutkan
dinding
digambarkan
pemilu
##alo
ash
hill
molekul
institute
##usul
kilometer
##encanakan
##omun
00-
conc
him
##ville
##emia
ditemp
yus
##adiyah
meksiko
yerusalem
##num
serupa
##enam
positif
ud
seluas
##umah
anaknya
ukra
lepas
##uskupan
taj
sayang
royal
##ago
manch
memuat
kabinet
pencipta
##erson
sisa
altern
##ukt
##pat
kuliah
who
peringatan
##indungan
corpor
##igur
##eon
##gerakan
##uz
nuklir
jet
mahkota
##ely
##akaran
##ova
dalamnya
##cal
tas
##adwal
mengus
alami
##pon
won
##iger
##benar
kampanye
##odi
street
sho
##led
berlin
pay
mengin
inti
kertas
##angkut
master
menet
##ingkan
##kol
power
##aro
(,
##jib
##indahan
disa
dikeluarkan
turut
semi
##ited
##rick
##assar
nusa
##wisata
edward
pid
hil
tamu
##ambang
daratan
##ulidae
##kep
##esta
wir
pis
##obi
##amad
000-0
##arai
acc
hip
sahabat
panglima
kre
rap
##ring
diperkenalkan
pakistan
dimasukkan
melarikan
menceritakan
andr
makhluk
dipercaya
iklan
##-00000-000
hus
##erto
##ordin
##indung
##uke
jac
its
##enaran
##nia
nen
mencegah
##sia
##ulunya
dibunuh
filsafat
##ambridge
##zah
east
bapak
bilangan
ular
ekstr
##sw
gigi
punya
federal
sambil
##ahi
##sinya
##jemahkan
##ative
00,00
line
tipulidae
##uhur
##antinya
kump
##cap
bot
have
pasti
##adapan
pajak
##uy
cuc
setia
##abiskan
##abeth
pedagang
##nd
beserta
##eber
mong
##hiri
##ector
nit
boeing
keuskupan
menerbitkan
##angani
##awatan
00:
##omet
dimaksud
great
penya
skor
##ilia
siapa
##bay
sikap
pengelola
##our
rangkaian
sor
pahlawan
##bin
kebun
##imewa
##annel
pram
unik
zona
psik
sap
##wijaya
promo
##ello
membaca
##ross
jim
##hiidae
##gawai
##yanyi
ayam
karyanya
mencat
menyelamatkan
menjalani
night
perum
gerbang
##indak
diakui
diperoleh
church
##ilaku
marga
pernyataan
state
##eptunus
hukuman
##don
melah
basket
public
pembun
selamat
##mal
perdamaian
orig
hongaria
##zar
##iku
##otlandia
yeh
linyp
perlindungan
soc
linyphiidae
mengunjungi
##odo
pelatih
ditangkap
##asari
hard
nav
setahun
mycetophilidae
sapi
rahasia
langkah
disingkat
cender
persatuan
tergantung
tahta
terjadinya
##lock
0,000
karbon
hakim
sebal
broad
cha
##'';
hom
##gra
##ganegaraan
denmark
commun
##omen
bed
##kuat
sebaga
bersen
##adai
##field
dibawah
kelapa
pant
penemuan
##untut
team
dikarenakan
##bangsa
##eme
##ops
situasi
jemaat
religi
melahirkan
##vari
##ars
chris
pendapatan
##soft
image
##rt
pembunuhan
yam
pembawa
tit
##bir
anc
haji
ungg
gua
liter
mengakui
ukraina
##umat
##sed
##ukis
perayaan
pengusaha
fm
0000;
regional
##ict
##ungkapkan
singkat
gempa
lembah
permintaan
biologi
bayi
##ekuensi
##rab
##ihkan
argentina
bangsawan
menghind
##ampung
ala
##ents
nan
anime
##elle
##ahami
dinas
bum
kering
sebaliknya
ent
anjing
umur
##entrasi
tat
gajah
diumumkan
##asilan
skotlandia
putaran
##pend
keg
kamu
##rama
siaran
banten
muk
##yakini
##back
reformasi
##kec
basis
##hel
ruangan
##uala
##tures
##jalan
##ukkan
pemas
##tive
##alitas
pegawai
kolonial
develop
##ewa
koleksi
##omunikasi
cas
audi
dialek
sent
##xi
##ink
##sun
##opsi
kamar
irak
##iaan
perform
didasarkan
##sv
##juk
kesa
arus
##emui
pek
medali
ditambah
##semb
keag
sejenis
dong
angeles
keinginan
##andra
beragam
##pp
bass
##isk
rok
diganti
mot
##anggu
##elamatan
jamb
prasasti
fut
lulusan
belgia
island
analisis
##.00
##ehi
zat
gelap
##mun
##och
gil
merd
sinar
##sky
##imum
cip
##mann
seja
efektif
##orial
makassar
mengund
00)
##jahatan
palest
wajah
sr
penjara
##bud
##ulum
jon
las
mengumpulkan
liber
##anger
jepara
##/0
saltic
muhammadiyah
aer
iman
##his
salticidae
league
ilmuwan
also
ill
ditampilkan
lolos
dika
konferensi
##lis
mars
##bol
##wati
##oul
##romos
##epaskan
lor
cak
sind
maluku
{
##ific
gem
suam
ori
##elaki
##yana
bre
surya
##ebo
berkuasa
##yd
menekan
teh
##lish
##oa
##mel
jantung
##opter
ci
##ison
##dengan
arch
roda
portugis
dinamai
contohnya
meg
smith
##sing
diser
##ebaskan
dipert
aspek
markas
masakan
found
##lem
##osok
balai
##orth
##hire
rilis
lis
kebang
##png
asisten
##egoro
0000-0000,
techn
pemikiran
##elilingi
##idik
kolonel
isi
menak
disney
terjemahan
pbb
under
##odes
##adiri
mundur
british
##arki
apapun
mendengar
fran
agak
gand
padi
fiksi
##onald
aturan
pensi
ditutup
open
contr
##omyza
their
tahunan
independen
##etakan
amat
kese
berpendapat
gangg
##hu
##'':
gula
keda
main
pendirian
menghabiskan
supaya
cac
cup
##entasi
##urangan
bagus
mengaw
##rak
ort
semenanjung
nu
##seri
ditempatkan
##gaan
##ujui
tuk
##tag
lump
##bagian
timor
##yer
kira
hulu
mangk
channel
minuman
pengikut
##dney
bakteri
corporation
brig
brun
administratif
##urna
##zan
##esan
veg
##ancangan
(),
pangg
##embalikan
didapat
##ces
shah
berpindah
menetapkan
dhar
pembalap
sepenuhnya
##vasi
##du
##elli
##onan
##lop
prestasi
portugal
defin
jati
tern
ic
sewaktu
mendek
soekar
berpart
##ele
##uah
##alifikasi
!!
chi
##tempat
berlokasi
##angkit
##etujui
stat
rambut
##romosikan
bersenjata
##pet
prem
##can
lum
cenderung
cop
##izinkan
##aftar
good
raks
##gabungkan
gabungan
##eau
mengaku
mall
kamera
krim
(000000)
##wara
##arjo
##zy
kumpulan
##bas
##ilo
protein
prefektur
##pk
coun
region
##bad
ditentukan
##ots
##acam
##amu
##umpulan
menangkap
##yur
##esmikan
menentang
##gaja
cipta
plas
jung
menutup
kaca
##eni
edition
##zon
mant
##sejarah
pembela
##oja
##ancam
musisi
##des
lit
cad
princ
##yr
cla
roman
izin
disi
##ahit
otor
gener
diduga
menikahi
satunya
lelaki
seekor
rod
##nah
ub
book
times
menyadari
dra
##ines
berpartisipasi
##umpul
rekan
bertindak
##aster
road
batal
##usa
bertujuan
dayak
merdeka
pengganti
alternatif
mula
wib
chap
lirik
pariwisata
memerintahkan
jun
##mala
other
right
lomba
perilaku
semangat
##oy
##ss
berpengaruh
down
##day
##ogle
##seperti
##ily
menyebar
##won
##ektif
sebagainya
kejahatan
mencatat
melambangkan
jr
##torat
##ube
network
suaminya
tes
##alang
##endalikan
surakarta
##"''
##omatis
wes
##karya
oxford
##olitan
skala
norweg
##identifikasi
##kon
raksasa
sejarawan
mengut
keagamaan
rac
sinyal
##ident
##”.
##jol
two
##inder
bub
profesor
##ift
seniman
big
##isinya
biara
##az
##ikasikan
yon
insp
##ittle
association
gagasan
mengirimkan
##fs
##earch
sydney
nenek
0.00
senapan
dipindahkan
##fin
##gereja
rub
susu
:*
stabil
villa
##araja
00,000
##ette
##ominasi
pengend
##alik
##zoa
hiburan
pasifik
##gy
tin
palembang
abdullah
##tie
sdn
tidur
##ando
citra
gangguan
##ering
dh
##tipula
memperkenalkan
asosiasi
maz
xii
putranya
rup
hasan
kedudukan
kesatuan
##akuan
##av
##mem
eliz
##masa
##ujian
seksual
dvd
nobel
kakak
politikus
eg
demokrasi
dikalahkan
nyata
rekor
##roversi
manga
##ock
sport
well
guna
##imbang
general
##aktif
##erajat
mengklaim
integ
persi
--
menandatangani
##chus
benua
##enan
kematiannya
##idah
metrop
alexander
##pm
##tawan
berkat
##del
kabel
##lywood
albert
##bagai
perek
mengundurkan
membu
border
istimewa
##desa
salib
##ormati
oc
logo
dosen
##oner
##asakan
##sih
xi
hum
budi
kontrol
cre
suami
call
mult
sensus
som
luka
story
movie
palestina
kunci
spe
latihan
heart
##usak
##sup
diharapkan
##ature
milan
##arap
0-00
promosi
##lie
after
dampak
engine
duta
##awal
##lac
##otanya
berganti
kekerasan
menderita
##eople
##ungkan
mataram
bell
menghindari
tant
meneg
##epos
dki
##ekh
memakan
penyebab
##alih
kepadanya
##ru
pengunjung
tomb
##esua
##ifikan
strategi
##oe
##lai
america
golden
cin
legenda
exp
(0000-0000),
##entuan
post
cc
##ardi
sman
research
sawah
pembuat
##iji
##craft
bukanlah
##impunan
google
sepeda
##ebaran
dibu
virus
norwegia
##atikan
dukuh
madras
0-0000-0000
kandang
kuala
disiarkan
kebebasan
menetap
masehi
##nie
enc
code
penjaga
##uktikan
pesta
jazz
paroki
##ukses
light
##try
##yaran
doc
gul
games
##tengah
0-00000-000
##kat
##rot
mengacu
warisan
##inum
white
terbit
microsoft
wales
##pe
##ukti
##cti
##kira
bertambah
##urs
rw
##entar
##ustin
##tre
##ancur
stan
kenn
##jahan
##ão
shar
##ambar
strategis
andre
menempatkan
term
pelunc
bencana
development
berdirinya
##inter
suriah
##oi
beras
kedatangan
##tha
elec
elemen
normal
é
papan
##ejar
perencana
##td
##meng
dream
dibutuhkan
cell
penutup
spesial
##well
disk
states
signifikan
dipanggil
##olisian
mengan
mongol
##pas
##ahas
##asihat
material
##here
rut
##etakkan
##km
##wajib
ball
seng
persegi
bersaudara
fu
##elajah
cul
pori
##mak
chang
makna
##vis
service
marah
laks
ortod
##ancarkan
lemah
fokus
science
##inggalan
menyerahkan
yas
##pula
##tak
##hai
##sum
kepolisian
##lon
cy
##kapal
kontestan
##rie
##anyaan
##ihir
minor
anth
selat
##--
kaz
baja
cambridge
##coba
##ways
gard
tegal
memanfaatkan
##anggar
peman
##pers
spek
dipengaruhi
##ebihan
ibadah
most
semacam
##pal
siang
terbaru
otomatis
books
bekasi
vit
musa
transm
gib
pensiun
menambah
syarat
formula
sib
pembantu
identitas
protestan
sop
more
manis
##til
##iapan
engk
##ief
adegan
pep
##ambu
##masi
target
000–000
menambahkan
##endiri
karl
batalyon
dioperasikan
biji
konstruksi
get
0–0
##ox
##iew
semin
yos
hawa
mengalir
##gon
your
berangkat
kontroversi
##rol
##iarkan
legis
##lex
tangerang
mengungkapkan
##heim
##icus
iklim
lubang
##nik
##baiki
terbanyak
##gh
##elahan
pangan
corn
carol
##juga
dri
##reen
##enangkan
##ompet
##adopsi
sengaja
liv
central
##mpl
##uck
##inaan
pangkalan
halnya
malah
konvensi
dija
pencarian
##buku
doa
wik
##rian
penyelenggaraan
franc
pasca
mengakhiri
##ois
garam
##indo
##lian
##pura
memel
##angkatan
0-000-00000-0
human
damai
perairan
##dir
saudi
##edak
##mata
kank
##igrasi
##entangan
##ardo
seber
##icago
kehormatan
##ote
brown
##sub
beat
kacang
diatur
dilanjutkan
layak
##aft
jurnal
pergerakan
point
##").
##ال
kang
lihat
##endam
ditempuh
memerlukan
meluncurkan
##,''
old
##nov
(0,
##ovasi
invasi
fal
##onstr
##perangan
mengarah
dosa
##antian
pilot
##onegoro
mengenal
kup
pendeta
##itch
akibatnya
##wh
##jong
ditandai
##eck
##kal
padat
##elasan
##fikasi
columb
##das
pembukaan
manchester
##overn
style
gur
mengisi
bakat
diresmikan
##tig
*#
##ambahan
##zer
agen
##jakarta
mengenakan
key
tap
##fera
soekarno
kesalahan
##bek
ix
century
##bra
teknis
ru
atlet
mandiri
##ipan
terlebih
##van
keselamatan
kualifikasi
##ulitan
popular
°
dias
teologi
menyimpan
gh
yg
atap
mach
sukar
test
muara
cinc
##lihatkan
pikiran
##amar
##ipa
##"),
##onda
gp
##essi
##arch
mada
leon
aset
##barkan
dekade
krisis
berlanjut
menyukai
perset
ditujukan
##besar
##sd
##ware
modal
karyawan
##ador
penggemar
##inga
jangan
##kantor
kebenaran
partik
ortodoks
##oo
mulut
##iness
selandia
sesudah
elizabeth
akb
##ente
##dem
pendekatan
##vir
otak
frekuensi
parah
pengakuan
##pad
daud
##anam
water
angkutan
##mail
hut
gugur
utsman
dira
##sar
town
samudra
aff
##oskop
##asana
mons
kain
negatif
lemp
komik
##ografis
rupa
##adiran
##intasi
otoritas
##rahim
pengurus
##tiba
pont
tayang
##annes
misteri
dibantu
disimpan
kerjasama
shi
kendali
##angkaian
syah
##die
coklat
domest
##agn
##esia
##ques
##itra
##part
##wana
##wanya
konstant
##star
##lakukan
(0000,
manajer
visual
##ilasi
naga
mendes
##ebat
cocok
##ewarganegaraan
pemak
kard
00–00
##top
sint
fav
##olution
tertulis
cantik
##ilangkan
menyanyikan
##ishi
office
disusun
peperangan
pemberian
dilaporkan
puteri
personel
perencanaan
##ujuh
hon
terkena
halus
uc
##ianya
##aca
##wujud
fox
riset
##regnum
melaporkan
bait
virgin
##rin
berkel
letaknya
##imi
blue
##mir
infr
##amerika
pembagian
##dang
##album
##astikan
##ding
##ibus
kanker
lumpur
organik
##cia
lampu
mitologi
kesulitan
terpaksa
##chel
##kitab
##uction
roket
kalender
##!''
madrasah
dak
sains
beragama
##bak
about
memberit
dius
##ür
fort
0.000.000
mengingat
space
🔗
##ugaskan
menjelang
project
cro
kakek
porifera
##stein
diterjemahkan
##ski
##variasi
klan
##svg
##ragon
dimak
lut
miskin
terang
##agar
sken
detik
akar
pictures
english
##ias
risiko
##mond
chart
##enia
menghentikan
they
armen
cra
foot
menangani
nir
nazi
##ists
##intis
baga
radar
ion
ancaman
penulisan
cos
jari
##edral
batavia
##bumi
##onya
kurik
wad
##ground
##ikkan
mineral
surve
##erre
tk
hendak
persetujuan
##yanyikan
0000/0000
parazoa
dikelola
##aharian
subregnum
sunan
peluru
##pulau
television
##able
murni
##ektor
dagang
##idge
##ustru
econom
teng
##mana
putera
##efinis
special
##track
##emuka
wangsa
anggaran
##cs
tib
##tem
rog
kelak
aga
toy
yusuf
takut
menuntut
saw
##umpai
crit
jus
menyampaikan
semenjak
##faat
##ians
rit
chin
##orf
serangkaian
kw
level
##enger
diaj
komb
samuel
membayar
rusak
setuju
kehadiran
##ants
##olabor
justru
samar
sempurna
banyaknya
pertanyaan
tersisa
kolam
arke
people
menyerah
##pur
#*
terbukti
##zen
##olas
hamb
rena
dipen
##edit
via
diman
bergantung
##anga
jas
indra
tud
emb
##ett
sekelompok
metropolitan
wood
##ader
sea
##pela
pengobatan
fem
legend
tertarik
rudal
antoni
makin
memperkuat
##sari
wayang
pungg
rektor
domestik
universal
yosh
perawatan
ditambahkan
oks
rama
server
##rem
internal
##bun
pengelolaan
partikel
##efinisikan
terkadang
hu
serbia
harta
pameran
##eur
pedang
penerima
memasukkan
pred
##ency
##ahaman
home
rapat
##udin
##rut
letnan
setidak
##ences
ft
##inggi
kekalahan
##kamah
##olehkan
jones
##hta
##bawa
##jarak
##hard
hun
terkemuka
bervariasi
##unjungan
kritikus
##bro
##ography
(0000–
##sekolah
##ucapkan
juri
hamil
landasan
menjawab
##ido
##idasi
petunjuk
##saat
##',
##tasi
aleks
wajib
ekspres
##oides
ry
##igan
##ogon
bond
##bersama
bug
##uary
##uko
##omena
diplomat
##oser
##ajuan
dprd
peneliti
##ifer
0000–00,
perlawanan
lah
##yono
rand
efisi
kotak
championship
kro
lord
lomb
##aksikan
rancangan
been
rab
only
##arung
berpusat
perahu
##iner
wartawan
##ival
konsentrasi
##ebarkan
cairan
##icu
##romy
menghar
pokok
##anteri
##adar
dang
banjir
forum
moral
fern
manag
engkau
##ungguhnya
##wu
pemandangan
chicago
##ness
blo
govern
koloni
##unjang
actor
formal
bersatu
##ches
##pedisi
##iff
direncanakan
metal
##ats
keenam
##lagi
0-
tw
sidang
akademik
bersih
ste
beng
##pel
##masin
mahkamah
##far
berturut
dinyanyikan
##0"
##orus
##eling
##turut
medis
##char
##ijing
##aph
##ship
prov
##tivitas
budak
memenangi
nagari
param
batuan
##epakatan
##cobaan
geja
peluncuran
tentu
##wai
timbul
incl
kalimat
pramuka
institusi
patri
jantan
membintangi
##sik
nad
##apahit
prancis
eff
##iru
##ohol
##)"
force
lokomotif
restoran
kurikulum
##upsi
plus
kesukses
perannya
roll
terin
maya
karen
monumen
mendarat
##yama
jahat
##abu
gelandang
pemukiman
wawan
doktor
kekayaan
fried
cincin
mengor
mengant
##embahan
variasi
williams
saudaranya
##sec
0%
##suku
fred
sig
perumahan
##bk
(0000-
araneidae
kepadatan
cik
ling
ibrahim
child
gejala
bercer
##okerto
(0000-0000).
memec
terjual
dicatat
order
##apus
##ampur
semula
infanteri
setidaknya
##abatan
##enting
##ekatan
##sol
##egal
##mic
sky
hasilnya
tarian
francisco
##eki
riz
france
liar
balap
kamboja
kemajuan
tembok
##urah
panggilan
##gam
kri
anna
andrew
shang
pasien
##erja
00000.
##oria
majapahit
earth
finlandia
##ingen
maksud
mulia
komposisi
box
##rh
surga
distribusi
takhta
multi
depok
insiden
dilantik
##bala
##intai
##esarkan
##ekaran
##ication
##wilayah
federasi
##barang
##yeong
ritual
girls
##pos
##upai
pok
##mit
##anggapan
##utkan
ujian
sentai
armenia
##ged
betina
##lasan
sha
polri
kardinal
##irman
segi
##ammad
##lukkan
##organisasi
##macam
some
front
##kons
##ating
steph
##bour
lab
##yakinan
##adat
##iller
##otus
tampaknya
kue
##wayat
years
berkurang
(00,
rumania
##perma
ern
batak
keberh
##latif
cand
memahami
rs
##pesawat
##jer
##ograph
seoul
×
nada
##awinan
##ets
##serial
##ald
wr
card
##iannya
##rumah
diaw
jeff
cucu
berhak
gugus
##len
aur
bund
adapun
melepaskan
##dong
keset
hidrogen
skenario
##ype
piano
menunjuk
ekspedisi
pembelajaran
dy
##otik
mosk
kelam
senang
mengajukan
##ée
tunt
##lement
victoria
##atar
memaksa
mena
sosialis
mengoperasikan
##anon
dimakamkan
##rep
silat
tertutup
##esp
dipandang
nak
investasi
##pang
jkt
##inah
##bes
##komp
##osari
marc
mode
##amadya
dijalan
dilarang
jay
##cd
doug
march
little
philip
baris
##ror
##utaan
pangkat
hek
##ament
##orejo
##kematian
ug
##alumni
berpikir
mek
imper
pemakaman
produsen
ratusan
##empor
##ities
disc
into
geografis
tub
opera
peninggalan
##hatikan
##'.
perbaikan
##hum
##elat
aircraft
().
##isuri
dikuasai
kesepakatan
##bis
##gelam
journal
##rov
##ogan
pejuang
##ming
roy
##bag
sher
pembinaan
##zu
##king
mendekati
pemerintahannya
##ego
telek
(0.000
terdaftar
melintasi
obser
penyel
infeksi
diyakini
gon
paku
##arusnya
madrid
bambang
philipp
##ancar
adi
head
last
bunuh
second
boh
tek
scott
oh
union
derajat
penyair
##bach
banjarmasin
##trin
##ikopter
tubuhnya
menurunkan
##isipalitas
asian
##pop
paman
##ontrol
pemro
terit
##grup
adapt
sentr
social
##xy
russ
##inj
##irah
penyimp
kerap
##rec
##ffer
##seud
kena
gat
membedakan
muka
tropis
tag
leh
pembu
hancur
brand
##univers
wol
##antum
chir
kevin
cam
fair
kebangk
##oke
##ipedia
dimensi
there
cle
definisi
konon
kandungan
perkawinan
##sil
juan
kit
##ianus
pakar
varian
000)
patrick
texas
track
pengawasan
##kl
hein
##eno
vik
offic
##!"
##ikota
sala
##ahap
##esse
##trad
##tress
dides
leluhur
##urai
ribuan
evolusi
##trum
menon
disana
##dia
##ule
natal
##uluki
atmos
review
memanggil
made
##itungan
##atik
##bankan
kebangsaan
dna
pup
##ihatan
bambu
##anka
##kuit
##injam
##perang
kombinasi
##cor
kebi
organisme
##daerah
petern
##panjang
pendudukan
persiapan
nug
penari
mengganti
bod
gran
perbuatan
beijing
diterapkan
kra
kast
##onesian
aja
tank
august
design
##|''
gram
##vat
ron
menunggu
direktorat
##hist
mike
elektr
##american
##eknik
##ining
publishing
greg
kawan
mengejar
ama
ibnu
##adaptasi
seharusnya
yes
georgia
##play
##-000000
##atalkan
sejauh
bint
prix
##arya
karangan
menikmati
##ane
tiket
serius
roti
##sebuah
studies
keadilan
##uduh
fase
pemekaran
lov
##siapkan
##okol
##ublikasikan
sakti
joe
bara
paket
koordin
galak
kosong
##nc
sosok
dimaksudkan
##erankan
agromy
##onder
legislatif
##sl
paruh
tanggung
kunjungan
percobaan
aktivis
##én
atl
##press
##eto
##ér
##owo
sadar
support
##ides
death
mempengaruhi
jong
berguna
pemberontak
sesungguhnya
jurn
cross
##museum
uu
arena
berbagi
penurunan
##="0"
ded
semesta
athena
##ough
isu
kesuksesan
hida
##anggal
football
##keb
belakangan
dinam
orangt
tersendiri
cib
uji
rumahnya
##jad
runner
atmosfer
disajikan
gian
##kas
##endra
berjarak
mempromosikan
##ahulu
##etail
baku
kotamadya
tahanan
##pus
kah
susunan
memperlihatkan
maur
robot
bawang
##dua
#0
pecah
##ambangan
##erikatan
##bh
##ertian
taylor
##uay
##amana
setara
##phy
##ikanan
menyusun
pastor
pengarang
said
##ejarah
akunt
dasarnya
##ediaan
rain
vokalis
##penyanyi
punggung
perserikatan
keti
parkir
koran
julukan
audio
##etika
babi
##ün
##ahara
bulat
##olaborasi
fenomena
##rd
##neptunus
##ving
enzim
##termasuk
ltd
wujud
dance
dharma
habis
##estarikan
memisahkan
wilayahnya
siti
jambi
editor
vs
mega
##uce
##andu
##ensif
##spirasi
proto
##bla
dun
meriam
##ellow
kediri
madura
pelanggan
##ilikan
##kripsi
advent
gerak
jackson
keyakinan
mengelola
##ahlian
##elia
cua
##ujung
diing
od
number
ketujuh
##mid
bersejarah
ditugaskan
##integ
sans
koper
tong
##jahter
minum
perikanan
##zidae
monarki
pengamb
##kor
##itia
##ense
flu
gan
dimanfaatkan
##esaan
soeh
bursa
##obo
##pin
##ecil
deg
rumput
standard
tj
dieks
helikopter
##cast
##emon
centre
000,000
stephen
mix
urban
berbahaya
dengannya
##ilin
##stan
sony
lurus
alb
menerapkan
##-00)
##etis
loc
than
tony
petual
temper
tahunnya
##emuk
##imon
gund
vert
semasa
mulanya
dipasang
perasaan
##utur
##vent
pandang
chan
##lavia
wawancara
##sial
kebakaran
fakta
##ako
##ught
lingkaran
bid
tarik
anggur
bit
pelindung
##mud
au
yehuda
##uwangi
tukang
operator
menjadikannya
##iao
membela
ye
merekam
penambahan
dub
ell
awak
##edar
##sta
alian
many
gratis
##say
anne
wong
##atural
##ful
rid
ditinggal
##gagalan
histor
columbia
##etes
map
##wangi
tetangga
plaza
bani
horm
##ungguh
jabatannya
jew
mekanisme
##eti
kok
##ambat
##urunkan
perekonom
tre
pemegang
##suf
petrus
menggabungkan
##inci
libr
persa
barisan
##shire
terbunuh
mempering
disediakan
telekomunikasi
four
pertar
kekurangan
##vers
##antis
family
if
##zuki
##embunyi
digelar
walau
).
##sang
##rough
hans
##iaran
utsmaniyah
##akia
jud
##hin
##ench
pons
tent
komis
melebih
##emi
##pasar
##adaban
version
pengolah
##”,
##akti
alamat
rohani
pemerik
(0000–0000),
element
dokumenter
dipergunakan
##cky
ty
##bung
##etus
pdt
sesama
keahlian
anal
debutnya
##elayan
keraton
##ominasikan
##angkutan
##stasiun
##jahteraan
bulg
wall
tiang
hektar
pengertian
##rof
##iraan
pist
##ds
indo
##ugerahi
bayern
##sam
##aker
##love
anat
##jawa
##:0000
berdarah
##alth
menyerupai
##beda
##hay
hero
##arab
hea
uap
class
menandai
##ariat
##ological
adiknya
pinggiran
dc
steve
##esuaikan
civ
when
tuanya
##alon
##akkan
cond
##laka
solid
salam
johnson
kegagalan
penyebaran
indian
persamaan
##rok
##adan
laur
secret
berkumpul
nah
ther
diserahkan
gall
leo
reb
wit
##lopedia
##zhou
biz
mazmur
business
##org
cuaca
wisatawan
aj
##iminasi
berencana
pemel
perekonomian
kesejahteraan
mengembalikan
kans
pelukis
kontak
muatan
now
ford
##fiah
hung
##tural
menyel
agromyzidae
pesat
nep
kambing
diturunkan
trip
mitra
##reditasi
instrumen
##icon
meja
moon
perut
three
##sebagai
pertarungan
cil
slam
berjuang
biro
keberhasilan
viii
arthur
konteks
~
##ices
perman
penjelasan
fly
meneruskan
##jaman
##ophia
pelaksana
##ibu
##uro
konsumen
0000/
##mm
##buhkan
siklus
nelayan
zain
pasukannya
operasional
memperbaiki
##fan
##imo
ال
nev
usa
dulunya
dijuluki
lon
kebiasaan
##ted
karakteristik
##pha
ayu
got
##awa
##irus
melebihi
##last
##ekusi
tali
polda
mengeks
##esco
##raham
hollywood
wu
films
marin
kennedy
##dut
dog
kuba
bersaing
menekankan
suasana
##hot
memindahkan
nin
##enalan
##onthophagus
technology
mengendalikan
##utra
hits
##lasifikasi
##sn
##ifik
##onto
transfer
membuktikan
##rium
codex
memandang
##agan
##tung
berkisar
cadangan
memengaruhi
##abil
orde
##cle
sasaran
##utasi
management
##fri
##akm
##tri
berperang
##ía
##empah
audisi
maksimum
##adaran
##uturkan
berked
tahan
dimakan
##eds
das
mom
tm
prabu
##imia
bioskop
juru
jumat
darurat
jane
##kn
ruk
##kala
arts
##iharaan
##atukan
banyuwangi
##ginya
shir
kajian
dipegang
bent
##site
##tipe
conn
haw
turk
00,0%
##sir
##ordan
##-0)
##erahan
##program
##sterdam
##bank
platform
samudera
0/
batik
favorit
##gaz
eb
##iani
habit
ferr
galaksi
alan
puc
madi
formasi
petugas
##yanto
karet
ster
kadar
elektro
##rip
##otan
apost
malaya
aq
##aring
##udang
##celona
tongk
period
direkam
##olan
##bac
ach
lambat
##.”
kasar
menembak
pemahaman
##sebelum
##you
sym
korupsi
square
peradaban
##estor
tengk
##ference
murah
rider
letkol
dijumpai
##pah
mandar
mengajak
melarang
kebangkitan
##tet
##idat
adaptasi
##down
##isahan
##gaya
##astian
saleh
kepemilikan
##igo
##unting
menonjol
disertai
ted
tabel
pew
##iting
cita
salat
kekasih
##imus
ced
##los
hop
original
##best
datar
monster
bow
membahas
##luan
arj
lud
aneh
##kelompok
soeharto
istan
dibanding
laga
walikota
kedalam
##cont
harv
bunyi
diker
lemak
xvi
##ustaka
##rax
nasa
robin
##rain
komisaris
onthophagus
##uit
sehat
bac
includ
##time
chen
maha
wikipedia
munculnya
memerankan
singh
ponsel
kandung
##igasi
kredit
hem
##antium
sabtu
nantinya
sulung
menghadiri
{|
##surat
sirkuit
##ante
##omor
wild
##pob
kembar
##uruk
kutai
besarnya
dinominasikan
genre
##bolehkan
permaisuri
iri
permukiman
awan
dibesarkan
##eton
syekh
pribumi
mengizinkan
ss
##adron
alg
respon
liu
jmpl
douglas
psikologi
dw
batam
rantai
za
##lash
antonio
pengajar
seniornya
pengambilan
##arier
jena
##lib
##neo
##ween
fall
##upaya
otot
build
keperluan
foundation
##ids
dini
umar
tajam
permasa
##disingkat
kritis
disamping
soundtrack
kepa
soft
##feld
kau
resp
##oksida
berkedudukan
##fal
lady
##alisi
mengatasi
##rio
gading
malaikat
##omer
##osit
perunggu
pit
dimas
hilir
membawakan
##apur
##buan
harris
mengajarkan
manado
bulgaria
chili
kanon
##ahal
lest
##mara
hebat
berdua
##abe
jama
country
##:0
##gas
##angkal
##ekolah
spiritual
##onso
sctv
katedral
##ici
##latar
##uting
##low
isa
mahal
memperluas
##arm
gusti
mobile
properti
##ilmu
progr
pendar
ternak
##ych
fish
usul
berani
dijelaskan
marsh
##kins
rio
00000000
hub
##opher
kanton
samarinda
##run
phy
jacob
jenjang
airways
fan
dubai
diminta
menempuh
repres
dicapai
dianugerahi
idola
menahan
yan
##acara
baju
bukunya
##chan
##unsur
writ
##sional
jagung
primer
##00.00
klor
interaksi
##etta
agus
ditolak
menghormati
##ips
merusak
##ahabatan
larutan
bbc
bimb
##000.
add
##ompetisi
resolusi
##ston
pati
domain
##uble
text
beralih
kinerja
idol
trin
ledakan
bengkulu
menyusul
penyimpanan
##gio
ula
##ekutuan
##penulis
terhubung
##elai
##rint
##etapan
aliansi
##gm
##intern
dikelilingi
memori
penyiaran
##kod
bima
grav
sentral
barcelona
dihancurkan
lead
penyerang
##ehan
persekutuan
##tah
##asian
abraham
##coll
##imoto
amir
##edonia
view
##imer
##casting
##inop
asasi
##ization
##qur
##yes
musikal
##yap
0:0
##lands
alumni
syarif
##lok
##satu
harinya
tuntutan
purn
senin
serat
amsterdam
0–0,
##markas
penak
##episode
chironom
koperasi
sepup
tantangan
brah
tenis
paras
##misalnya
##iii
vegas
bertarung
%
##dip
any
nig
##young
rick
friend
tergabung
##akur
berkarier
kesadaran
market
petualangan
bagaiman
##berry
baby
firman
radiasi
anggotanya
##uis
''0
##thers
##ografer
dibawakan
ismail
persahabatan
##yata
##:''
mh
##salam
##idor
##final
##tal
serangga
spesifik
##west
florida
kakaknya
gong
disampaikan
##ected
pelaku
republ
saraf
yi
ner
##roc
iso
##opia
whit
##anjangan
##ebak
langua
##yai
##ulik
''00
##osaurus
season
wilson
kew
mtv
##yid
##idenan
##act
pre
##lal
##roid
##antang
##uransi
hanyalah
##adh
##uci
library
infrastr
saksi
seleksi
yer
otonomi
permasalahan
##sche
frans
konsili
merayakan
pengolahan
pengaturan
ze
##bury
rawa
hawaii
##zil
##wen
##para
berta
director
dijalankan
##irat
lat
komod
during
##ibut
die
dada
ming
brunei
lisensi
terluka
permanen
##berto
kompas
seluruhnya
freder
tambang
##ked
gurun
py
##less
diisi
queen
kru
garuda
pengamatan
##ijen
tuduhan
sev
##sumber
##arn
ds
##ijan
ever
limb
referensi
nt
tebal
erat
lock
penderita
##dewa
##pret
##nilai
##ordinasi
hidayat
laksamana
hitler
pinjaman
cham
juniornya
smpn
report
##rek
##ls
free
nich
sore
actress
00/
##mr
lengan
##athan
bapa
##bet
gang
qing
korps
hadits
##iy
md
koalisi
hok
ryan
padahal
##elo
##lot
##she
raw
0,0%
tsun
comedy
00000000.
##inger
kandidat
lebanon
senat
##atap
dragon
indonesian
pengajaran
menghilangkan
pembebasan
cetak
##ederasi
website
menyebutnya
##antau
##light
sisanya
menampung
sund
##bandar
pendatang
##lahi
##scar
fun
##burung
sihir
rasio
##arankan
##inu
kotor
potongan
flores
penganut
memastikan
klasifikasi
##ohn
friedrich
##wig
pengeb
pustaka
##akmuran
##antes
##inyur
##alanya
##not
party
##erba
##atuhkan
bri
##émon
##ianak
α
##ivia
##ongeb
used
),
##arta
##gara
visi
berbun
them
major
menjalin
membentang
jadwal
berharap
kepausan
penasihat
singkatan
##ced
##?"
stone
dikait
penerbitan
luc
hold
pemasaran
hantu
pengisi
##obe
jamur
reguler
cem
##nr
like
##eteksi
domin
riwayat
these
##fit
badai
liver
paduan
##peri
fund
step
arsitek
##utus
diserang
temperatur
ung
##iaman
arya
keterangan
##bre
kerabat
mp
kekh
##lamasi
abadi
chall
##ongebob
##isai
##ushi
cry
madiun
kreatif
##kos
what
##dit
demonstr
##uss
bp
##empurn
eksper
##agen
place
##helm
penangk
sesi
##opean
##gabungan
dicetak
mohammad
koto
menemui
##gie
chironomidae
##iva
thr
##rahman
malik
tangkis
##oney
barb
matius
pemeriksaan
pc
alum
ring
keman
##ebes
##epsi
ekonom
kolom
kutub
lewis
menyanyi
##yasa
utusan
liberal
lanka
menyimp
kontribusi
##sey
##papan
list
stock
alexand
akting
membagi
perhitungan
##rejo
marie
ditemui
bermarkas
ketentuan
##ext
##ures
tamil
tipis
##vy
broadcasting
menginginkan
(~
marx
sayangnya
perbandingan
##hop
yuan
educ
finalis
penampil
know
kediaman
government
##ohonan
mandi
depart
bermula
dominan
##ping
##ombia
##hib
##ione
##upan
bimbingan
wadah
##empur
anugerah
politisi
dikaitkan
•
##embah
lari
##log
amal
cong
alias
minahasa
bagaimanapun
##but
##nus
ui
turunan
pedesaan
mengundang
##boy
##tric
hij
****
kapol
##istribus
lakukan
##ista
pod
(00)
mengapa
(0):
pura
##ladesh
zhang
##cak
##akau
##ching
rutin
kedung
##other
klin
runt
massal
jenazah
pengas
pita
margar
cend
beban
dolar
##ete
##view
arn
station
performance
fel
cair
express
##pool
alja
kewajib
akuntansi
##embus
hidangan
##tz
##doa
##0000)
cour
subur
menegaskan
##pec
##opogon
kabur
dangdut
diselesaikan
##oor
##uncil
kuasa
##iev
zo
##book
tul
later
##gunya
##ulatan
bakal
##tp
carlos
josé
0000''
##eas
##lia
asuransi
name
filsuf
walter
##adipaten
biografi
seberang
##mag
ax
##opsis
##yanmar
rumpun
kelamin
##ukim
bangun
airport
ceko
jurnalis
het
pelanggaran
mud
rcti
vet
gord
penerim
peternakan
##igran
mind
serang
##ribadian
berfokus
berkompetisi
##sela
pasang
pewaris
pelayan
astronomi
##abut
##usik
auth
##opus
##artikan
sandi
alfred
berulang
##mil
beliau
##engarkan
##fc
miz
##atika
minat
mengab
hadapan
##rel
beh
wing
##amoto
##otaan
brian
##unculan
dibebaskan
##super
##vania
##opo
##ceae
german
panitia
##agia
pierre
##uag
ms
##diam
##hani
control
##cons
rose
berpas
##engkapan
##lee
ges
rag
start
dihuni
unggulan
##ady
##cent
##sung
rezim
between
mengawali
##sekitar
mengam
potter
##ebook
##gunaan
terbakar
terdekat
ful
##onakan
guitar
menolong
seragam
##uty
sumur
tela
##box
##imu
pembuka
himpunan
##ress
rer
##timbangkan
##neg
##issa
eksk
trag
didom
dies
ivan
domba
infrastruktur
##gol
##lit
cu
##ahul
pemer
semif
mempersiapkan
phot
hidro
##temannya
perkotaan
##erbaijan
pontianak
##edo
hik
hart
##gs
##enge
lautan
##ulata
menyebarkan
kli
pengendalian
pertimbangan
##opuler
disip
##yaratan
kompilasi
##fu
##ancing
##qi
##enne
##iday
konten
sampul
tenggelam
membebaskan
##waan
##imedia
manus
pacific
bangladesh
##ape
##dle
##dok
river
heinrich
age
doktrin
##sembahkan
keponakan
##mont
hai
andi
##irahat
ladang
penger
kenyataan
va
##000-000
magnet
tingkatan
##utt
menyuruh
disetujui
dipisahkan
##cker
curah
sriwijaya
kay
lot
##ebutan
pembaca
information
use
##ovan
leher
xx
##elek
teor
kroasia
##intasan
cedera
dendam
moyang
shanghai
java
tamp
lombok
dihukum
such
arist
sarah
insinyur
diletakkan
τ
bik
emosi
sejati
ditinggalkan
dipec
council
mencuri
cokelat
##nen
##rys
##iler
menyetujui
eric
dibatasi
protokol
##....
wel
##aluasi
ric
yug
menyum
kristal
kerangka
pengacara
##lath
##usiaan
pengec
berawal
baw
mcc
anton
munisipalitas
diameter
vlad
##arag
lyn
protes
astronom
menyaksikan
##kk
generation
bau
sung
##py
##world
##kabupaten
disiplin
lanjutan
##utube
##otakan
renang
singk
mengusulkan
##omend
olym
niger
##syah
##alifah
ekspor
low
##olasi
trek
penerimaan
konfederasi
##eliti
historis
virginia
##mau
buat
##onaris
roger
disini
##alat
##aktur
##elsea
jejak
toyota
romb
##witter
lazim
dibeli
##kripsikan
##pati
##enta
diab
##onsumsi
##sha
##mund
##onde
pisang
magelang
kha
klaim
pengir
habitat
##plan
dibaca
diawali
kecantikan
ai
##rang
akun
motif
sumatra
transmisi
kai
field
mengorbit
habib
nepal
perkiraan
venez
myanmar
##aktik
penerus
kadipaten
cher
peranan
##ct
##bahan
ark
kedalaman
singapore
##apura
##angkau
singa
gambaran
arkeologi
0-0000-0000-0
delta
sensor
diperankan
adil
tower
##bintang
azerbaijan
##jep
istanbul
bentuknya
##lace
mys
##asaki
##ancuran
##tret
kursus
mengganggu
##bm
##eva
tibet
topik
##olia
pow
optik
##head
maul
karenanya
fisi
geografi
##fia
datuk
penila
##és
dibedakan
##abang
##yikan
bing
buj
proc
nasib
mental
##idin
cerdas
dipaksa
berlatar
dikenakan
mewujud
kenaikan
gm
##ambung
globe
keluaran
bm
fad
demak
punah
bertahun
perlahan
persyaratan
nut
wars
beach
wahyu
didominasi
##uno
nga
sekuel
alkohol
through
##enci
fantas
ian
boston
marinir
pengiriman
menaklukkan
##enth
mengisahkan
##rev
bened
dihentikan
setan
sepatu
jog
##itary
pertambangan
##%)
boneka
resimen
lensa
##ristenan
##00-00
##enburg
herman
##spes
toba
tugu
christopher
gay
##awang
##uktor
dead
theod
##besaran
##obatkan
sampah
keyboard
##sep
hosp
short
mex
##ersey
##emenang
anthony
##pn
##hout
keru
berangg
##omon
tend
##000,000
link
women
kodepos
##benda
##ungkap
malaka
intelek
##jadi
##pemenang
##istribusikan
##cho
##ners
##lusif
berharga
##ić
##imin
##ebatan
studios
##comp
teles
ditarik
konstan
terinspirasi
##hab
hell
diceritakan
nis
row
##aruan
study
##emporer
diperd
android
jawaban
##0),
##fak
pengukuran
##suk
pea
prat
bahaya
harvard
dihubungkan
##eland
jang
prok
word
##graman
bicara
##ener
##etas
pho
otto
lukas
##station
instan
kudeta
youtube
##dar
food
bakti
pertuk
##tm
##wala
host
memicu
##bangunan
syn
wed
bangkit
##ales
##thew
avi
bij
ambon
satya
tampilan
##dad
klip
personal
statistik
##kus
gala
rong
bumbu
background
±
aqu
cut
##jangan
remix
mendat
kodam
dinilai
pembakaran
honda
jessi
##yakinkan
gog
ler
temannya
mengancam
penilaian
rail
kemir
tabung
lamanya
kemanusiaan
bertentangan
pacu
led
##endang
##hit
##mul
##base
##mula
jil
puluhan
timnas
posisinya
beranggotakan
yun
##angel
fant
soul
battle
##wil
nick
bergelar
basil
jalanan
##bill
kepribadian
yong
##umo
goa
jak
000000
magister
hubungannya
à
ketat
penal
indeks
##ades
##ayangan
menghilang
kontemporer
mimpi
##enh
kla
##osiar
army
gitaris
kill
mess
western
##uchi
peru
anwar
classi
goreng
misionaris
berpenduduk
naf
sour
ditak
sempit
##;"
##isia
##orak
##okh
ig
##inia
akh
telkom
keindahan
##ław
##senjata
hur
our
laju
##abah
clark
panda
menandakan
##arut
##terol
chelsea
bizantium
days
warner
universe
##adir
##bell
##rock
survei
math
hindi
thir
ditaw
jersey
yonif
##live
frag
ditandatangani
jah
linc
subjek
mengadopsi
lep
##kerta
cover
meledak
twitter
truk
steven
sekunder
##sium
kuningan
penggabungan
##yadi
##elian
tikus
bangka
hangat
##ogn
##ento
gabri
berupaya
politeknik
##iai
##imah
sach
##arahan
beris
jendela
##akum
##oleon
occ
##ories
tawaran
berdekatan
##eru
mum
nok
##tical
would
##untungkan
berlayar
##gunung
subst
detail
rentang
kewajiban
##prod
salju
eksp
##asu
##load
##inton
ditahan
tembaga
pembayaran
mengelilingi
##rix
bach
palsu
solusi
apostolik
##alt
##sul
##idia
##jaga
##andalkan
bertanya
sepasang
##akna
wolf
neptunus
mewujudkan
kost
penjajahan
apple
yakin
kekuasaannya
##zhab
##ontalo
##dian
abc
vin
ober
maksimal
pidato
membant
##enberg
##itanya
minimal
##ebus
##uge
##ontak
brad
konsumsi
##erv
ana
diatas
pemrograman
##iteria
dipublikasikan
##nar
lind
mats
early
eas
##non
rang
otonom
var
##rence
pekal
teror
telinga
##ollow
inves
fraksi
wilhelm
frederick
pembangkit
usah
mingg
0000-0000)
##vol
khalifah
memecahkan
##emukakan
##igurasi
menunjang
##leg
##sedur
pear
geologi
gig
##ening
refer
heli
tembakan
penampilannya
ve
##enya
coba
ungu
kotanya
perempat
transaksi
bergen
##likan
figur
kargo
##sius
asy
hier
gramm
pencaharian
##kritik
color
##mik
sug
fosil
sastr
fire
kron
asrama
merasakan
perbankan
diinginkan
##fah
##artikel
##appy
bil
johannes
menuliskan
##arak
##itim
##roll
sia
##jenis
speed
mencer
bernyanyi
##yin
##itions
canada
pekanbaru
president
##eria
serba
##foto
##ibur
##iker
##count
##aly
##kepala
billy
bruce
keraj
pacar
##ansemen
##politik
##adik
gede
moskwa
##emo
individual
ly
oscar
##ewaskan
ciptaan
dihitung
kanal
##owongan
00000)
bermakna
presenter
balikpapan
##cio
ich
vocal
tepung
sayuran
kriminal
kebumen
##isha
oposisi
##imir
##life
##house
##onfir
jumlahnya
plastik
kekristenan
##umbu
epis
##imbing
manuf
theory
##ische
kerusuhan
potensial
hori
cilik
diskusi
putrinya
##var
tump
##hod
cim
fur
lic
saf
##iliasi
sarawak
european
##dep
week
langka
terancam
hd
##arac
pasc
##adis
##teman
busana
##emas
##elson
bosnia
mengusir
cn
##entuh
##orasi
poso
akrab
transisi
penjelajah
ikon
koes
##inggris
gawang
0000-00,
chinese
membran
##jab
##pemeran
johnny
gorontalo
boys
abdur
##catatan
menari
seribu
menewaskan
##ín
andy
naungan
mengukur
ditunjukkan
didefinisikan
##%),
lea
alur
ketak
nampak
kerugian
spongebob
meyakinkan
##yet
##adak
fuji
yugos
##emik
##endo
osaka
pob
bible
store
##endi
satur
lantas
investig
##jet
ceo
aransemen
penyelidikan
##anai
##erai
ping
guang
salinan
pertukaran
##batu
dialog
apalagi
##epala
josh
melakukannya
hang
##gazine
panen
bersekolah
sv
#00
##iringi
break
mewah
tidaklah
##lakan
franç
guin
##herine
gudang
##pis
##ogne
##unduran
##ayat
##hati
tongkat
language
penghasil
##idium
basa
vinc
diajukan
##endy
font
resep
production
syam
gordon
prosedur
intelektual
##putra
##raltar
terakhirnya
##cul
pip
tob
slamet
##edalaman
melancarkan
##uin
##fore
sian
##black
nord
sarang
tugasnya
pendaratan
##tau
pembunuh
menyajikan
##enz
##kali
eug
topeng
ré
edo
##inium
##oarjo
dark
mali
##alipun
atlan
tenang
napoleon
penyelenggara
##lass
##urusan
mengangkut
terpenting
##kun
##angnya
##malaya
permula
hospital
berhadapan
##0-
##uela
wei
landas
##adwalkan
##iful
airbus
spring
melatih
##arikh
rombongan
bush
rumit
matthew
##anca
##furt
**#
##entian
peneg
angkat
membalas
nitrogen
##ustrasi
jember
tingginya
rahman
seluler
terlepas
##pertempuran
fas
paru
##lun
ost
screen
##eor
##indu
riv
cint
teratas
##pit
##etts
kedaulatan
pekalongan
##esik
isab
##murid
amin
court
##egasi
padanya
##ingkatkan
kolombia
kerajinan
dikunjungi
##cos
##pemb
aula
memperhatikan
henri
deputi
ulasan
pinggir
##law
ketiganya
##asila
iskand
optim
santri
##cong
##sana
sawit
##myc
##tab
##awanan
fantasy
##oz
jenn
arjuna
kartun
##gasi
hipot
paham
##dim
##jend
##user
##okrat
guard
johan
segar
serie
miller
wahana
komposer
##aa
##île
cs
jason
##chin
jum
##ikuler
pelop
uz
segmen
liverpool
0-00-000000
menguntungkan
og
jeruk
belahan
peroleh
##sebelumnya
uh
##esin
dibubarkan
pentingnya
##fon
systems
diplomatik
hana
##inopel
putus
##cita
##prin
aji
flo
##wer
kidul
disukai
berlebihan
##ages
duo
lake
##jepang
##satria
##sihkan
keram
perluasan
##tivasi
beker
french
praktis
##pak
##cinta
##onium
krom
##ecahan
##antaian
bertempur
##zawa
secur
##angkitkan
melanggar
keterampilan
tadi
selaku
bersuku
perisai
zi
##isbn
##nasi
yugoslavia
##hid
00:0
sutra
lembut
bertempat
##onim
##bourne
syaikh
##eam
##miss
inisi
empire
pelayaran
##ère
##ás
##ysis
jing
feder
kapit
bernard
demokratik
##iser
tut
##sburg
soal
kembang
sekalipun
$00
##omyia
kastil
mingguan
##saya
##yeon
tea
##endak
adit
terikat
kriteria
##terolophia
gemb
##itional
manfaat
persaingan
chem
##eksual
##untuhan
tebing
larangan
collection
##odon
##onna
##zair
##epung
full
wijaya
##impangan
##gold
arc
afgan
konserv
keliling
mandarin
pengembang
informatika
resort
intelijen
pg
##samp
abb
penas
seter
terdengar
fans
margin
persis
##gir
##tics
hud
pisau
menggelar
##pansi
##akapan
turbo
##iayaan
event
##hee
pk
##olit
act
##isisi
##ocera
neur
memelihara
##kini
##partai
ramai
kurun
permulaan
##fare
since
efisien
membatasi
##key
##ashion
england
dikarunia
bersangkutan
must
davis
prince
dihadap
fotografi
##self
cari
prom
kemas
minoritas
fik
geomet
religius
kelebihan
fab
##unduk
irama
##dé
##long
baron
futsal
berlawanan
##essor
memotong
dimenangkan
kyai
misterius
##aji
##lov
##yut
##wakil
##ampingi
palang
##blu
##idan
##edang
##ianto
##anting
bebek
berst
##identif
picture
##tulis
harimau
##hea
##ects
##jima
dakwah
dipenuhi
imperial
kres
##zel
##lapse
seper
yaman
melaju
rachel
jajaran
ekspresi
pemakaian
dijadwalkan
nab
penghormatan
##even
bonus
stage
diesel
tombol
septuag
atlantik
didesain
diperbolehkan
##bong
##beria
##cepat
##andanya
berpen
prusia
asalnya
kurangnya
##ede
matt
vitamin
miliknya
##aq
##.),
##fur
##alun
##illes
pidana
##oan
##ubur
mama
perbuk
platinum
kemampuannya
##orter
##oster
side
diken
ganti
merancang
##cks
##xon
eun
slow
##enggam
fitri
pengep
##enmuseum
##ogram
##menteri
atasnya
pemisahan
nil
allen
meluas
popula
genetik
pengawas
##iksa
meh
moj
00%.
diizinkan
pedalaman
berkualitas
##inn
hj
##hiro
knight
##chusetts
maharaja
gibraltar
ria
civil
penjual
merencanakan
yur
##itmen
where
encyc
kulon
0-00000-000-0
##?''
##titu
taurat
mendominasi
gary
panah
##ylvania
##ampungan
fernando
thai
comte
##istensi
grafis
penaklukan
##lic
##yung
alun
saran
tasik
bersedia
purwokerto
0-000-00000-0.
##inang
iain
##yangan
mayat
##umentasi
perkataan
##cop
bua
wakt
000.0
##upright
magazine
##ledge
june
marg
jonathan
terowongan
mb
##elanjaan
memeluk
elementary
panjangnya
##xx
menyus
radikal
mengerjakan
##nor
##usta
##anyian
terasa
##ternal
pemul
berapi
##emy
pik
seksi
penyelesa
##ibi
mort
##collec
##karena
motion
suzuki
mendalam
romantis
##laut
asp
jae
##front
##utanan
orkes
##lembaga
bertahap
children
pergantian
##ied
blog
varia
##ulihkan
berkunjung
konstantinopel
##hanya
sayur
limited
sepakat
##komun
liat
unggul
iskandar
fol
kip
£
##yaw
##alus
##eaksi
kapan
memberitahu
sb
sac
choi
##filman
sangg
kedutaan
penerapan
bekerjasama
horor
kamen
penyus
estonia
##adt
dja
mgr
##france
##kerajaan
billboard
sav
setinggi
bercerita
popularitas
##div
##ancy
##gerakkan
community
koin
take
perbukitan
terbentuknya
##tom
heter
jerry
donald
berputar
##wich
##alinya
campur
##othy
thor
surah
pembuangan
##batas
kemah
sponsor
hugh
catur
mongolia
ε
##hio
kuk
tempo
mencintai
berkomunikasi
gum
##suara
slov
voli
basah
000,00
dihadiri
software
diponegoro
penangkapan
memperingati
gos
yuk
alban
semifinal
##egor
##face
##oder
gond
##ongkar
libya
musiknya
##pic
eku
##ensin
clar
janji
jangkauan
cook
dina
##unggulan
mission
pangkal
waktunya
department
multimedia
##";
menganut
##enix
osis
stef
salim
theat
present
vatikan
koordinasi
mpr
rach
koridor
##burgh
##iawan
disek
##mentasi
choice
##hk
000,0
abang
golkar
paskah
##een
asa
kag
beta
##anggapi
penangg
bersalah
dinobatkan
revolusioner
##cur
laos
borneo
##wik
##emis
##lins
##sifat
every
linux
wisnu
##libatan
hidung
mengikat
mengawasi
##hie
##lyn
##niat
eth
being
waduk
##sihan
##orning
ilahi
tropenmuseum
##adam
rai
uran
pedro
##elus
##bulan
diag
belah
teratur
silinder
##akurikuler
##zig
raga
mendi
hamilton
purba
##ontribusi
pancasila
diadaptasi
woman
europe
ketakutan
##aham
##bukan
##lebih
diadopsi
seterusnya
##burn
##enea
##yyah
##inois
klien
pokémon
military
##town
alm
cao
kubah
valley
berjanji
##pia
mai
##utiara
drive
peduli
##riev
bros
diego
rupiah
sekadar
gravitasi
→
##nat
page
##dal
##sai
euro
tara
tawar
##lasifik
sports
bernilai
perbelanjaan
##kur
##wick
beredar
ō
barangay
carolina
menembus
septuaginta
##jati
##lihatan
russell
district
shu
##lacion
paral
education
##mb
cow
tersusun
transform
ish
lion
refl
peters
dikaruniai
##arif
pipa
##ekerjakan
keterlibatan
##olin
aziz
mass
small
akurat
libert
tahapan
negaranya
##yun
kelly
cooper
markus
imigran
komplek
keanggota
berpasangan
fon
jordan
terpadu
disp
menu
disusul
##sten
##usen
nukle
harfiah
##echt
##sisa
dos
##ether
critics
massachusetts
##ayan
##uban
nyaman
rug
see
##minkan
otomotif
moun
stro
berniat
##yataannya
ditingkatkan
##dh
##mouth
zhou
christmas
memperkirakan
nol
buta
kent
kanak
##egangan
kyoto
antrop
political
·
##jawab
000–000.
denpasar
##ior
##rac
lempeng
ars
##drama
babel
##collectie
membiarkan
nasionalis
perkumpulan
pemeliharaan
mitos
prima
penjah
publikasi
penyerangan
itb
gamp
july
##anggang
naruto
ksatria
ternama
dilindungi
##ewi
##oven
moore
sirip
lambung
##permainan
aljazair
lintasan
##ound
##tanda
laun
action
pandai
much
memo
##ebutkan
##industr
##kodepos
document
pendidikannya
##itte
##rida
hig
sean
##ulangan
barito
pujian
##ikawa
##uarai
hamp
banyum
##fly
zen
bangkok
ferrari
facebook
menutupi
apartemen
diartikan
##pil
tbk
queens
memadai
ditembak
##erat
tmnr
dinik
magic
blitar
tsunami
lawrence
pembantaian
five
##ordania
##:00)
##imat
##ileri
bomb
prad
penutur
diucapkan
sex
diundang
##kul
##nel
ragam
mengind
tanggapan
##tes
##amah
reh
##acing
rukun
kepalanya
makedonia
##pei
##jamin
mekkah
dwi
carter
menjamin
##john
##oritas
rating
penghuni
penyelesaian
##ör
##aptis
##austr
guide
patah
ideologi
konservatif
##-000,
##holic
chron
pseud
bahagia
virtual
terendah
menyarankan
##oon
##abet
##abumi
insta
building
penghasilan
##ambi
six
tae
howard
sungguh
venezuela
conference
penciptaan
0-000000-00
##ayu
kasi
cangk
sudirman
dibatalkan
##ved
puk
bedah
sampel
##uara
##ilitas
differ
julian
summer
cila
soed
berman
netral
masuknya
realitas
pengepungan
##osus
##iat
introd
penetapan
sumbangan
berakhirnya
##janya
perso
menyatukan
sekretariat
##epan
wina
banda
pinang
theater
penderit
bendungan
##osan
##istis
method
samurai
##ovo
krl
before
##skop
##tific
sebut
diraih
disahkan
##big
##mill
nyar
reform
##/000
saus
##alihan
pupuk
##aron
prasar
charlie
hektare
penghubung
hp
sila
##sungai
sejah
wew
##emani
bugis
delhi
letusan
kehutanan
##ites
vel
##aktris
elang
hatta
mazhab
tegangan
##kelu
##iance
spin
pengab
bohemia
toronto
persoalan
0000.00.00
0-00000-000-0.
##change
analog
dilalui
ditanam
membakar
##jauan
misa
pistol
menghitung
perdebatan
tapan
terima
senilai
##0;
##oru
##isma
bib
gri
ferd
nort
ross
##uburan
johor
kawin
pembah
syariah
##ems
##ghan
##yoshi
##jerman
membawanya
##hen
##mobil
##marhum
##anjurkan
##inas
##diper
##lation
jessica
ketimbang
perlengkapan
doll
khat
teleskop
meletakkan
##igu
lc
dod
rol
inspirasi
konfigurasi
num
karo
finan
delegasi
##oco
##yeo
##adio
zul
krak
health
pn
##buahan
frasa
perkembangannya
##esc
pm
##fort
##rent
vers
cikal
never
player
kib
atta
mengas
persib
dikembalikan
##nell
##iskus
unic
##artika
##anthrax
##tagonis
return
artileri
ekstrakurikuler
##hr
##pap
##aling
##bentuk
00,00%
kedelapan
nia
##night
##warsa
0-0.
memf
##egel
##ilya
##idiki
karb
seolah
##nsylvania
##inetron
culture
sejahtera
mendengarkan
##yas
##''".
##egon
##uria
diputar
seputar
##baik
##salah
palu
akbar
melemp
trade
premier
beasiswa
ibn
bunda
skand
gender
termuda
pig
##izi
equ
susan
000-000.
siam
cheng
exc
lob
pom
nara
vill
##ambaran
##iform
supporting
π
conf
(00-00
maroko
pengamat
sukarela
artist
menjatuhkan
##rum
type
jilid
brigade
sciences
keseimbangan
seat
##embara
ekspansi
hos
moz
etika
kresna
dibuang
kecilnya
pembelian
##sak
kejaya
sanskerta
mencerminkan
kontroversial
##evi
##inam
##instit
kawah
pengungsi
orangtuanya
penglihatan
yat
##incian
##yawarah
dialami
retriev
##ου
##roses
deli
fung
ageng
sisik
madinah
konvensional
shop
kapur
polic
berlatih
##vey
##udahkan
manapun
ditawarkan
##lasifikasikan
##inata
##spesies
##cht
##ovich
pengk
baterai
##urgi
mhz
qur
##itiga
jesus
mangg
amanat
kostum
nations
##ophy
##usuk
##hukum
(0,0
dasa
##engkap
perintis
##pot
rent
liang
##anjikan
playstation
dé
just
##contoh
sinema
natural
pasaran
##fre
##qui
##shi
##anol
##eser
##oshima
panel
norman
##adaannya
##standing
brothers
fro
serp
memohon
κ
##ores
##yuki
esa
##anaknya
menjuarai
##gant
tani
margaret
##gb
##erra
##plat
##model
##ombak
betawi
factor
against
memasak
menyiapkan
##antri
##cript
##point
dikerjakan
##ualian
paksa
garden
sakura
usahanya
##iris
##odia
##zona
##iskinan
alaska
bawahan
##ingkirkan
finansial
guy
##isius
kana
puri
##faatan
historical
salv
ple
vul
left
then
rumus
berdoa
isinya
december
pengangkatan
pennsylvania
##liga
##tanah
reka
yama
##kesmas
blues
ideal
lingkup
##etti
##mela
##idaya
garut
pemir
bergenre
prosesor
tangannya
##iago
##what
##christ
jimmy
silver
menonton
literatur
gn
##hong
##tama
##zaki
ima
aneka
tegas
inovasi
memanjang
meningkatnya
##ouw
##tid
##''",
##wart
lig
own
##putri
##ungkus
ramah
meyakini
didapatkan
##had
##odoh
##kanak
tian
bobby
warung
fashion
irigasi
computer
modifikasi
##.:
##ece
gla
sla
dikab
eksklusif
##estr
tog
rokok
##bilitas
gresik
peluang
relations
koh
next
pomp
ucapan
##odifikasi
komentar
##yce
##asiat
bina
dara
ethi
jendral
reaktor
tasikmalaya
##eko
##urasi
tindak
official
##bp
##trop
akal
joan
##lathria
seminar
jal
neo
##integrasi
##''-
khal
kubu
bermacam
##olok
artic
intan
illinois
menyimpulkan
##awati
hide
ward
##kek
daw
##ottom
##pengh
##reasi
lereng
beruang
dituduh
sisilia
laser
instruksi
industrial
lup
ott
pewar
lincol
makmur
penalti
disesuaikan
##uja
##:000
##okal
##tice
##masalah
koordinator
penderitaan
##sejak
##awasan
##lakuan
metab
keunggulan
##action
##okrasi
asean
berbuat
identik
terlestarikan
##elir
##lasa
##side
joko
##awatir
darus
common
sebelas
perfilman
prasarana
penerangan
с
dum
tamat
access
pengeboman
perhubungan
cia
sabuk
sumpah
mutiara
konsonan
menyambut
##avi
##bos
##gif
##jiang
hamm
adrian
nicholas
diusulkan
konsisten
##ives
abi
cic
lisa
asahi
darwin
finish
limbah
minang
philos
pintar
racing
##opulerkan
##emasan
burma
perolehan
menunjukan
##oha
rin
derby
services
penerbang
poblacion
retrieved
##pusat
luna
##idupkan
cilacap
##uar
##diri
##oday
kle
##lorasi
##market
tutup
oricon
papirus
##jung
lapis
prest
prime
##bap
##penc
both
nokia
sambas
<
##tib
##orum
##antai
basi
dekan
bensin
nugini
japanese
##hon
##illah
tvri
kazakh
unesco
afganistan
bertepatan
memudahkan
pengikutnya
##thy
pagar
pengum
berstatus
berkelanjutan
##agne
hara
bungsu
chamber
##inf
##sim
##into
earl
galeri
terapi
wright
(000-000
kolaborasi
##0.0
jose
##lambat
##olakan
nelson
##meninggal
kelemahan
mengantarkan
##cakan
##-0000)
menges
yesaya
##provinsi
(0000):
##gang
mnc
deut
rahmat
kesamaan
interpret
##ikatan
yordania
##arus
rim
body
##ebalan
alice
kesep
memberinya
perpindahan
tris
seven
##galaman
mentah
##sinetron
##ulingkan
karawang
0000-0000:
kemiskinan
sekeliling
##international
##kara
##aries
##garis
kompi
manual
albania
indosiar
bijak
ernest
oriental
mengkritik
##chy
geng
sina
algorit
pencapa
vertikal
productions
##ecut
##sono
mec
anom
mediter
michigan
##ize
##jun
##ensus
hamid
january
mamalia
##ugo
laras
propos
perjalanannya
##kham
fah
asap
##hattan
##larasi
pelopor
##sya
##impa
00°
##radasi
board
kantin
search
khawatir
##adion
##master
dapur
libur
republic
inn
intell
##uansa
panji
sabah
memorial
sastrawan
digabungkan
luth
reza
jaksa
lanud
mexico
medical
frankfurt
intr
##alangi
maulana
october
penggal
nasution
##wali
cep
##oting
buddh
mario
##elt
utuh
##sop
##more
tig
##aceae
neut
##lamannya
simpang
pemanfaatan
dikendalikan
##amen
sengk
menyem
koneksi
##harata
##intesis
marshall
diajarkan
##illy
##kamp
sedem
##apuskan
0/0
mts
##ippon
dean
##kandung
kerbau
manila
matang
lintang
(0000–00
kejuruan
mengamati
##uts
##emah
tow
democ
lisan
tujuannya
##olet
##wing
dibakar
menerus
000-0-000-00000
##was
##idel
##astis
dikut
menab
spirit
pemirsa
##ardjo
moch
##intahkan
eksperimen
perpanjangan
##eca
##isu
make
##rs
##kak
##tier
ign
sei
ski
##istor
aven
physi
morris
perilis
electron
##gau
harm
dugaan
discover
legendaris
rasulullah
persimpangan
##jl
flav
cengk
##inental
newton
gulungan
##angsungkan
halim
emirat
memuji
selang
hog
toku
amatir
kehendak
##zia
gin
nun
melbourne
##purn
##wono
mün
golf
maaf
sank
stew
##wenang
ensik
paulo
follow
##iliwangi
capital
however
nigeria
fungsional
##afs
##ares
masor
##pau
##unit
viv
##ophora
konservasi
##ayana
##musim
rempah
aviation
##embunyikan
keanggotaan
##kib
##aras
wen
author
johann
##aftarkan
syuting
sukabumi
dave
buaya
while
jombang
##**
##cial
shō
whe
stop
laura
complet
islandia
menanggapi
sedemikian
##ontal
sachsen
veteran
##encananya
dikumpulkan
tod
brazil
##ratu
##impah
shim
##ekanan
belitung
spektrum
##intin
come
pusaka
economic
pengantar
persembahan
neder
##tifikat
jatuhnya
##arg
##bend
##istry
yoon
##produk
featur
perselis
puncaknya
puskesmas
##saud
wasit
##gre
##high
kalian
dijabat
spesialis
##essa
giovan
hatinya
liturgi
pengawal
##mani
##risi
fame
lumb
peti
##arannya
##onfirmasi
memberontak
##lé
##anus
hob
tala
halte
kamis
##roy
##vas
##phia
ont
case
00.0%
harun
##padding
sepupu
senator
mengerti
pengumuman
cant
want
norma
segitiga
efisiensi
penyerahan
##kha
##good
##osom
##arium
morning
##hwa
##ipal
##eller
kees
ninja
ramad
afghan
charac
luther
farmasi
##ahb
##rier
lipat
ludwig
buahnya
vladimir
##ipe
zu
chu
##rodus
again
joseon
lincoln
##quran
##ritik
asin
herz
patr
##jemahan
berburu
electric
##encaharian
##ön
##nai
##uber
raff
##enderungan
permohonan
##wir
##edom
levi
pandawa
abdurrahman
pernikahannya
##hara
##kisah
mengkh
vampir
memukul
terkecil
mim
ginj
##ulator
diket
lil
baek
horn
manuel
penggerak
##qa
##ofis
smart
penjahat
##eps
##usc
##obat
##semua
kelap
tokugawa
##icle
##sign
##temp
ref
probl
teguh
titan
veget
##aco
##eke
##ondis
lans
including
mengucapkan
mé
##ehat
##angku
abbas
tawarikh
eksternal
dipasarkan
kewenangan
##raf
hav
##islam
shad
pengujian
##universitas
bertanding
engineering
##holm
##iklan
##andangan
##ications
##jonegoro
theatre
statusnya
australian
##kary
ambil
racun
berpisah
aleksander
##elaran
peace
dipahami
kp
mog
brook
kongo
teras
penangan
##loud
##mart
##ulin
ulu
$000
....
anci
edit
laku
pius
##enggung
##terutama
investor
perselisihan
##kai
##silah
tanam
##ejutkan
genggam
sintesis
menurutnya
kenyataannya
##kp
##atha
##istri
selebr
(00.000
pencari
##ging
desc
dihormati
##etri
##paui
##peny
##ighter
##disebut
pamannya
##blue
00%,
pilih
##injamkan
##roduseri
teritori
mematikan
cellpadding
##sas
##anja
##aktat
dick
##ements
##etulan
huang
residen
nyanyian
sumedang
published
dipromosikan
##nic
hama
poros
##unculkan
andalan
teroris
diselamatkan
##aser
##ativ
berda
usianya
##owi
##zal
##eropa
cost
bella
cermin
proton
keramik
##onstruksi
mengurus
##."''
##wari
ext
hap
berib
janda
phoenix
berkarya
dituturkan
kō
##enium
manc
pink
##ungutan
menilai
security
menyutradarai
muj
qui
jacques
orbital
bertajuk
kesetiaan
demonstrasi
##awak
##tius
##pemba
isti
rein
##naskah
ferdin
benjamin
pascasar
##cerita
explor
##pangeran
##elompokkan
##rup
##ña
á
##illo
baca
keris
berujung
tembakau
penentuan
produktif
nbc
vas
##aland
##indra
mbah
##itraan
entitas
rencananya
ayahandanya
##tav
##osia
##ished
##sex
##yum
##bian
##laten
even
anderson
division
diperintahkan
##tex
##lung
##enjar
pass
##valeri
syair
observ
southern
##daya
##prise
bart
##akiman
##epalai
dipotong
dipelajari
##dah
deep
gila
race
##hor
##icht
##ondo
ast
##wakili
mengob
bermatap
sulaiman
membangkitkan
##has
##konf
lanc
##egahan
##rofesi
ritus
singg
saingan
##''(
##arau
##ejut
africa
flight
##mp
##hur
##sau
##yop
##mask
##encia
##atuhan
permus
manager
teritorial
##-''
##dil
##dor
##how
##song
##iladel
homos
works
jaminan
klorida
catholic
##ards
adams
larut
propag
##ather
##famil
tarif
mengend
##,00
luis
pena
kelem
known
brebes
cerpen
philippe
permata
aleksand
bereaksi
oce
paper
perry
sedih
ginjal
argumen
##usn
##ompat
curug
ratus
professional
##ocal
##inggo
trio
sibuk
voice
bridge
stadium
berisikan
catherine
manhattan
kompetensi
pengenalan
##onic
##ograf
influ
##impulan
deklarasi
pascasarjana
##на
poly
diduduki
menangis
negosiasi
##jataan
iblis
##karyanya
revolution
##tura
##cover
bull
##atinya
suaranya
mendatang
”
##pre
##enna
achmad
dikenali
blackberry
##isal
ela
##stone
0,00%
detektif
implement
boul
untung
##kami
nato
tiada
patriark
##untu
ami
kewar
mother
dihapus
hambatan
slowakia
##evan
cian
male
##onment
##sutradara
mengandalkan
##olar
walt
lengkapnya
mendefinisikan
##isy
##ective
lagunya
tentunya
diberlakukan
kecenderungan
##mor
ih
syl
##ennis
##oharjo
masak
sifatnya
menghapus
##uster
##spacing
daring
kepend
bendahara
setelahnya
##ος
##yaitu
duri
hann
##sistem
0000–
kapas
fle
job
##andan
stars
grammy
##pemimpin
parasit
##tam
##adirkan
##belanda
mengec
cetakan
mendeteksi
##elly
##stal
tingk
##alonkan
berkec
transp
ternate
##reh
##come
sti
##jalur
##ellite
##setelah
grafik
kecerd
willem
fantasi
thriller
##ised
##jara
##tanggal
future
hormon
hilangnya
zak
kean
##icarakan
##zed
##ahabat
bergaya
diploma
##pri
rm
##heed
mutu
barry
tegak
oksida
perund
##ulia
##akatan
ultra
disert
barunya
concert
proklamasi
##ige
##ikator
guinea
komponis
kebetulan
kelaparan
cob
holy
##warman
(000)
dimuat
usulan
##cm
##link
##endum
gundam
nyaris
katanya
sidoarjo
bpk
##ollis
shak
jurus
ethiopia
lubuk
##epakati
terkejut
pencapaian
##isch
biola
morgan
peradilan
##kim
##pseud
##strong
diseb
##zing
michel
interior
##!--
cot
same
wewenang
musyawarah
##vet
ce
##otop
##inawa
##idence
kenal
kelenjar
penanganan
##afr
##grand
##ibutor
##untung
##ususkan
juvent
dicampur
penayangan
##india
arca
ohio
dikur
##bd
##lum
##vik
##iment
##ensitas
diukur
kesemb
payung
mengontrol
kelahirannya
##bow
##cow
##kapan
duet
##prinsip
called
keping
melingk
rujukan
perancang
##::
##lank
soo
##injau
lost
cagar
third
pendaft
pesepak
##ecah
##eger
mck
affair
vocals
melekat
yeremia
pengantin
##tori
lia
##ajang
wira
##amerkan
caesar
sambutan
terlahir
##wid
kis
##usion
tafs
tommy
ukiran
village
melengkapi
mengarahkan
##alm
##situs
cacat
meneliti
santiago
##ovina
##imanya
##utiful
diray
franz
gabriel
gerilya
bermukim
evaluasi
akreditasi
##ów
ww
##size
nanti
##ariskan
tawanan
konstitu
##edikasikan
penggunaannya
came
##imental
##with
##amina
##osofi
##aliran
minta
ratna
antartika
##ciri
iss
usai
##tionary
franklin
dasawarsa
berprofesi
##mang
##will
##orama
chad
filmnya
perawan
kakeknya
δ
##woo
tiri
instansi
dirayakan
##syat
rif
##umpah
talk
crist
valent
##uston
piagam
ekstrem
menyenangkan
##awar
##iliun
agam
medium
##partement
varietas
hipotesis
mengudara
##ippo
##rakt
fore
herm
ramb
bajak
chung
silla
giovanni
terbitan
##oss
sag
xin
##itkan
##obots
mori
sena
grace
orient
sejalan
##hao
##acun
##jika
inj
##antha
##amilan
##ombaan
sudan
yakub
avenue
kepres
kupang
##jay
##.0000
##music
##pener
##arinya
##imeter
karna
travel
mekanik
migrasi
bermesin
mendadak
ketegangan
##hein
##evich
snow
wara
berkap
pukulan
princess
koordinat
##ilet
##orogo
##ulainya
dilayani
##osistem
tombak
seratus
keesokan
##taf
##asus
000°
##donald
plant
utang
wetan
dikirimkan
##inting
celah
kamus
benedik
darinya
pembina
dipertahankan
##andy
oby
##ombong
##pemerint
pedoman
biologis
february
bermaksud
menyentuh
##ruk
ida
rib
##atuhi
auto
strip
##ovision
baginya
fla
##tomyza
arsip
##vironment
##ès
##bola
shen
pemut
chandra
traktat
banyumas
ferdinand
konsultan
##orge
puerto
##kantoran
penyihir
ilustrasi
##gion
##lake
aram
bone
jambu
sutan
agency
nikola
pembac
teolog
##national
kehancuran
##cla
gai
sequ
julius
##0).
##yim
##gart
##utes
porn
subang
penyusunan
afghanistan
##lek
##uha
##mari
##thes
##tugas
roos
abjad
##ilisasi
database
pendaftaran
berkontribusi
##many
zhu
usus
##lambang
bacaan
tersembunyi
##itsu
uss
##arani
##vision
konsol
sensit
bercerai
lembaran
slovenia
percakapan
penggambaran
são
vent
klaten
lahirnya
komoditas
kesembilan
encyclopedia
##guru
amun
titi
semata
mendesak
silsilah
outstanding
##beb
##)'',
ral
##anjak
##iayai
obama
venus
##uarakan
budidaya
kavaleri
menyerbu
terhitung
kazakhstan
sedikitnya
menyelidiki
didistribusikan
##hem
##otam
chat
mikha
mainan
middle
sinode
berkons
##interaksi
sosiologi
dad
##0.000
##isian
##order
##worth
cinema
belanja
transit
kemunculan
##pra
##sie
##bant
##tawa
camer
##ahulunya
kebaikan
orangtua
rekayasa
melampaui
mengakses
##eles
##paru
pav
##apati
##feksi
coup
hyun
nova
##buwana
lenin
phill
sumbu
teleg
##amankan
bangku
ditrans
tapanuli
diperluas
##ukir
##ission
meteor
holland
undangan
kristiani
darussalam
adu
amf
0-0,
castro
jewish
wonder
##cket
##hanzi
kumar
##umental
##maskapai
penolakan
membersihkan
##skar
##esium
udang
living
chaplin
direbut
bukannya
μ
##amo
##angko
##putih
kerag
mangga
##wajibkan
akimoto
pengecualian
tao
##ramen
merk
##uistik
ajaib
cakram
karate
sangatlah
sekolahnya
##tb
chapter
vincent
penyedia
kelanjutan
berkapasitas
##roe
dut
shaw
berenang
dirasakan
organization
##abd
##camp
rey
wag
plot
puas
grant
##tulisan
(0:00)
penyiar
komitmen
performed
##iest
hiu
##chester
lencana
mengingatkan
baker
based
selasa
0-0000-0000-0.
##oter
ves
##water
renault
menggunakannya
##lip
##enza
nba
hamba
karno
hiasan
nation
natrium
venesia
?
##iks
##enos
##iria
skema
harmon
ilegal
pemilih
membatalkan
cruz
tauf
##ahukan
butir
galaxy
taktik
mandala
terdahulu
##maj
##mol
##ikap
kiss
songs
provin
banding
raymond
perkantoran
berpengalaman
##))
kob
dinamis
musical
layaknya
berkantor
sz
##ayah
##late
##ustik
double
monyet
ancient
drummer
##eliminasi
##enes
##pohon
kiai
requ
##olitik
bujur
volks
panj
nasihat
demokratis
konstantinus
##ebu
##gak
sbs
stu
##wanita
kairo
nomin
kapoor
raf
guad
##anaman
selir
##angkara
partic
policy
memasang
bermanfaat
bukittinggi
##eu
##ré
lec
cris
vulkan
antiokh
jennifer
integrasi
##assus
fira
##gedung
didik
depresi
penjuru
bersembunyi
perkampungan
##video
miya
piet
##anggih
helen
leste
##umuskan
##soo
mrs
pki
##eless
##otbah
coast
still
fleksi
terting
bt
tree
kekaca
relief
terpanjang
##timal
navy
urug
##patung
##ikirkan
ronald
##tery
afc
fari
topi
kamila
klinik
kekacauan
perlakuan
##tek
##isit
brt
##bukit
juventus
lokasinya
perilisan
perlombaan
##.).
atr
elis
nint
past
swift
##okuskan
illustr
kuliner
seminari
io
##hasil
##tukar
kath
##elling
persem
tragedi
without
sejarahnya
perhimpunan
##zio
fra
##ingrat
kebon
penamaan
00-00-0000
##(0)
rint
##ending
beton
minim
staff
ground
nathan
pengin
kartini
dibuktikan
ald
ard
sard
stewart
ramadhan
##uer
kb
##kiri
##ulyo
##antam
##table
flash
mount
##pc
##amus
cbs
brus
berak
giant
tungg
multip
susilo
gunakan
mendiami
##hog
##stand
cass
0000/00
politics
##kie
-->
lie
kosm
jeong
nyawa
##keluarga
berkolaborasi
mewar
menaruh
akademisi
persenjataan
seo
##anced
chun
today
sesaat
##ondisemen
tempatnya
sai
<!--
debu
lont
madu
##emberg
demam
justin
manufaktur
berinteraksi
dz
mumbai
cianjur
diiringi
##iladelphia
##ilah
##aduan
near
legal
wabah
forest
penemu
temple
terper
##roh
##muka
appl
inci
ptol
dilatih
menantang
bb
fuj
zim
##isnis
##phone
##gambar
##ikannya
analis
fragmen
mangkun
diperintah
##gitar
mara
zone
kental
orches
##olongkan
barbara
batasan
minimum
dilepaskan
##upi
##hand
##show
lop
##hiasan
areal
reich
logika
pandan
friends
00:00-00
##oya
import
kontras
animation
kecerdasan
##ongo
pret
benang
pencak
##biasanya
diwakili
ditangani
##etto
##inee
ust
jarum
mawar
berlari
represent
mt
heaven
nascar
dioksida
pemungutan
##dha
##ease
##ying
hassan
diteruskan
menyangkut
##lirik
akta
priv
##ananya
##isolasi
kuantum
menuduh
##kada
aus
dpl
faksi
manda
##arahkan
telugu
diagram
rincian
tercantum
##gor
##data
##road
##ornis
##ulisti
botol
energy
melati
dimasak
memerik
aluminium
##eve
##rea
yoo
##wangsa
eastern
okinawa
##yarakatan
mengejutkan
mk
##hyun
need
##budaya
denis
hyper
##gromyza
memutar
ponorogo
kewarganegaraan
##dig
flag
fajar
mahmud
nippon
buddhis
gunawan
kuburan
professor
sod
very
00/00
##menerus
pemberit
##evo
##ypt
##eaux
##eros
fight
mitch
prize
##pembalap
antarik
maritim
disekitar
##liv
##idad
eva
mih
beca
danny
arnold
runtuh
lingkar
##peristiwa
mengenang
##ingo
##udan
atp
argo
kids
##angkar
gyeong
moment
##allah
##aktian
##evolusi
keberadaannya
fam
##apang
honor
##antumkan
pembuluh
##obus
##engka
kenc
nature
ungkapan
##pok
##egar
##rest
##owski
kash
pilar
palace
(00000)
command
kakinya
tayangan
##-0000-0000
asyur
profil
navigasi
purworejo
pekerjaannya
##rul
##shin
ruf
0–0.
mengu
mengikut
terintegrasi
##drum
##rand
flam
scot
kuant
tempuh
paralel
arondisemen
##egro
##astro
astro
propor
##sei
##bama
rabu
yudho
bermotor
dilakukannya
bird
shan
calvin
beracun
terganggu
##egu
##vid
##icia
##-000.
capit
happy
penyu
accord
foreign
##atra
##dana
gent
abstr
kenya
revisi
gamelan
karibia
##sho
##idon
##osta
jeb
toh
##ketua
gaga
iwan
faith
sweet
tumenggung
kehidupannya
##lep
dpd
bagh
digit
heavy
aditya
seumur
mengira
sinemat
mg
'00
eri
spr
##ended
##resent
monitor
mewarisi
##tt
##esif
##mons
zeus
agust
pearl
soccer
skadron
sendirian
##flo
##call
##catan
luhur
##orientasi
##akreditasi
referendum
##flag
##nanya
##ubungi
qatar
konstitusional
##tium
##cking
##peran
mans
serge
gandum
melintas
##chu
##iph
##lub
rusa
(00,0
##ecutive
##saudara
gadjah
isyarat
wallace
##gel
##(0000
path
##apolis
##awahan
dynam
opini
##eknologi
##isih
antena
almarhum
bayangan
pendahulunya
##ungu
##wall
dikat
wahid
##kemudian
merawat
merpati
##département
##,”
##omod
##imate
gaji
ultr
balas
haram
panama
filosofi
terungkap
##0,0
##nett
agr
sku
diap
elit
nurul
##ensinya
marina
russia
terpenc
mengutip
menyumbangkan
##fen
##ahag
jour
rangk
tintin
##penguasa
partisipasi
diet
blood
lidah
around
setingkat
perdananya
א
##eline
##engku
##egovina
hunter
pradesh
environment
persemakmuran
##pir
##iley
della
hiper
temuan
exchange
rekreasi
##dev
##iha
hiv
##uling
##uryeo
rank
diarahkan
##lif
##arius
##ulung
gill
julia
money
##entasan
arifin
pengkh
beatles
kemarau
stanley
evolution
tertangkap
##ml
##kot
##atom
##ilus
cis
sok
date
imun
##tifkan
kodim
##icaraan
because
##may
##yen
awam
beth
hias
block
seung
oblast
perkara
dibidang
orientasi
dikabarkan
transjakarta
##dp
##alk
##anch
##obot
ain
000%
cerah
diput
diamati
uruguay
##emudi
gluk
##uruhan
kamer
constr
leiden
rights
kegunaan
lamongan
translation
##from
##kawan
diad
##ensasi
bilang
pelita
hungaria
bojonegoro
pb
##amata
##ogiri
##ombin
##tainya
menanam
bapt
kanc
site
kesan
asmara
change
kantong
terkesan
publications
##hang
xia
##artis
leop
maut
##aksian
##ulangi
beast
miami
pelawak
polimer
##larasikan
perempuannya
##dec
##rez
##gate
deng
saka
castle
##cin
##bunga
mora
takah
##alurkan
perfor
gregori
intellig
##jai
arwah
##vention
korean
meletus
mengabaikan
##vic
jok
##usuma
nias
sate
##awaran
##okimia
disel
another
machine
selamanya
kesimpulan
##ocok
haf
##andro
dikh
binti
endemik
sindrom
penasehat
yudhoyono
##iban
##qual
##thia
gao
copa
dimulainya
##bot
terlaris
pengurangan
giv
meet
mika
##masjid
busur
''0000
sumbawa
berbunyi
membujuk
pembaruan
sertifikat
mempercepat
##ste
##zak
##unes
fig
hui
kemud
ais
palm
pssi
bibir
could
timah
##antiasa
etanol
berkeley
siapapun
##000)
pemburu
kejayaan
menghambat
##sein
rhy
ult
width
silang
toilet
klasemen
rasional
challenge
propaganda
atm
oil
adolf
irian
dalang
dirawat
mountain
##dewi
##liter
##novel
##ujaan
niat
solok
keberanian
memulihkan
diidentifikasi
##koba
##phil
##color
acak
turner
masukan
terkini
##iac
##alism
##arter
##krist
##recht
##ultasi
cabai
krish
##estarian
berdiam
membuang
##nh
##awah
##hone
##terior
##aksanaan
million
kelautan
senantiasa
transformasi
##αι
cf
##baran
##lotte
##london
patih
durian
vektor
canggih
seattle
##politikus
sertifikasi
bey
ibm
mao
tac
naka
##entase
##perser
diana
ejaan
##istilah
pinyin
giliran
menyamar
instalasi
##tang
##uver
hills
malta
##ections
female
petersburg
##sab
##loid
##oplas
away
guan
##angkai
diusir
kolese
##ahbiskan
bahrain
ceritanya
ekosistem
##ijk
##tok
kk
nac
yog
##kecil
##ahului
macan
gampong
pembicaraan
##acy
##akwa
sax
##sible
##ahkota
kesus
##rif
==
room
berapa
memaks
##ahagiaan
##perancis
serigala
ukurannya
menerjemahkan
##arc
##enep
datu
each
peramp
freedom
goguryeo
kelainan
variabel
memeriksa
##js
β
##sri
##tial
bio
##imbol
sens
tama
kings
dekatnya
pengasingan
dilangsungkan
##ān
sbg
badak
carlo
(00,00
##elma
pub
core
munt
##rempah
parad
##konflik
tembak
##ulistiwa
kalsium
berbunga
##empurnakan
sms
emma
emmy
tham
mekar
terpengaruh
##cir
##jmpl
edu
zur
00''
ekst
kapel
fisikawan
##lator
jump
gerbong
nila
chair
siprus
arsenal
princeton
perundingan
##tl
##ubi
##udur
bron
died
##adukan
berkom
##tanegara
antariksa
0000–0000.
menyesuaikan
philadelphia
##?)
##card
##osfer
bahu
lear
sanc
##ompson
babil
craig
sebulan
analysis
testament
dieksekusi
diperpanjang
keturunannya
##gil
##god
qi
sob
daily
karim
plasma
##esidenan
rupanya
##empurnaan
kepresidenan
##lept
eka
ess
île
##north
malu
obyek
##ampakan
##esuaian
berpot
samsung
didorong
manuskrip
dictionary
##jack
##jono
gate
kert
ahmed
dalem
##ographic
berposisi
##cp
##gos
##sac
##wald
##odadi
##dayaan
paten
##pelatih
##juangkan
kelihatan
dikisahkan
##mut
ez
##amida
##ipzig
##rusia
tren
##ebrata
##eransi
##ikayat
jiang
kanaan
committe
mendeskripsikan
##arte
##ukar
linda
nutrisi
menyembuhkan
##gue
##)''.
##wahi
bok
tau
ocean
widodo
yellow
##egorikan
##jenderal
berbahan
dipastikan
##ра
##hra
lb
##otis
pud
##media
giri
ruas
yuki
chand
diberit
fungsinya
##oyo
##ulf
##erst
##real
##uaskan
appro
mengindikasikan
##aut
##eun
##regasi
gatot
menump
tablet
##cambridge
##kad
##siap
##agung
##olisme
among
diagn
graham
pelaut
##bolinggo
pengelu
redaksi
alliance
françois
antarmuka
##)0
##shop
##sport
dani
goes
bantu
kader
lukis
merekrut
mediterania
##fax
##sig
agnes
lembar
marine
00.000.000
0000–0000,
reruntuhan
##map
##ambo
##etra
##emban
##sions
goth
##ucapan
benny
impor
melukis
diperkuat
boc
lif
ord
##ulian
hous
salomo
##ον
tho
##emari
kait
kaka
swan
local
pered
senen
pratama
saudari
berteman
desainer
geometri
base
kore
tinju
##ipulasi
sandiwara
sco
##trich
koment
oksidasi
eh
dup
care
resi
##ebatkan
##ekonomi
##ilikinya
pecinta
sumenep
##bib
##this
##isihan
father
lampau
andreas
tunisia
inspektur
dipersembahkan
gö
##ulir
nec
perf
##ularis
kerak
##lukisan
bojong
commer
##idion
graf
resm
istirahat
##hyn
lex
##ensen
thom
lebak
siswi
sentra
##isd
kung
pale
xiii
benih
##elihara
nickel
collins
jayapura
buddhisme
##open
eag
##aging
dihi
turn
##ipennis
nintendo
inisiatif
perebutan
spesifikasi
##arum
##amura
##akuasi
##ticons
disambut
pemujaan
##got
##aila
pain
rafa
cyber
large
tiger
firaun
panduan
kerjanya
##baca
##mand
biak
pier
role
succ
tersi
##dikenal
##journal
origin
kentang
##iton
##wait
myth
##banyak
emisi
##angsang
##orangan
##entaskan
publishers
##cis
##sci
##odus
nop
##takan
memaj
warri
amanda
aragon
peresm
purnama
yasushi
menghadirkan
#:
##atsu
##itus
##urian
cind
rece
##apasan
doctor
account
##hul
##ekali
##wiyah
altar
watan
survey
winter
tekstil
diproduseri
##araf
##enzo
##ipto
roth
african
mendidik
terbalik
##resentasikan
##fish
##nada
cyc
obl
bhik
rizal
##anegara
alabama
berkali
kemarahan
penanaman
dikonsumsi
pencegahan
##aci
##bea
##wad
##city
##izer
0).
keun
imbang
patroli
genetika
pelantikan
đ
##ews
##arth
##dius
##eren
##elles
##entak
punk
##jaring
walker
##hentikan
luasnya
##geme
sye
merc
siwa
##/0000,
##manuel
manif
porto
andrea
bolivia
anglikan
kolektif
committee
##itable
guild
taksi
constant
menabrak
thompson
orchestra
tendangan
menyiarkan
##kura
##intus
##obudur
##ziarah
jutaan
pantas
pemulihan
##plas
sirk
##modern
meiji
cacing
pentas
elektrom
menghalangi
(0000–0000).
##kre
##uba
##perk
cav
##hitung
kaset
moskow
paskib
taipei
pilkada
selepas
kekuatannya
mendatangkan
##0/
##odeon
gizi
nina
penata
sahabatnya
##ao
##ebe
##pac
##anco
koch
bawahnya
##__
##feat
##oche
##tains
bont
lith
kesem
munich
digabung
sakramen
subspesies
kebahagiaan
mengamankan
##lear
prec
##ampang
glenn
ricky
berbakat
logistik
##now
##bing
##eden
##yong
lal
mert
##iction
suksesi
diputuskan
karanganyar
##ов
##rim
##bagi
##ibar
##ipes
##olus
##break
##yanti
kupu
stein
hamengku
orkestra
robinson
kebijaksanaan
##rud
vat
##urnian
activ
prost
##ituania
cendek
marvel
bersikap
pengabdian
##ax
bé
##ungku
00).
cool
less
lyon
##engkung
grande
napoli
##undangan
##kia
##laf
##pora
##atory
konk
##kecuali
kecewa
dipecat
matanya
mekanika
##.;
byz
late
zero
medal
reser
kendal
lestari
tarakan
terkuat
biarawan
michelle
pengeluaran
##wes
##amed
##ohen
fif
##aiyah
##barui
0–00
katak
tumor
##ianisme
assist
##omendasi
reproduksi
memunculkan
##dra
ade
##impun
##ipula
kate
kawat
madya
pakai
##ominated
narkoba
rd
##ocus
##angun
look
pick
spac
##center
ernst
kejam
larry
##agangkan
berabad
dikutip
kemasan
semester
menghargai
berorientasi
kbs
cape
sket
darul
ester
slogan
benediktus
jurnalistik
pengunduran
nm
##luar
##quer
tanj
lilin
dominasi
memajukan
##hus
##spe
wor
##enarkan
dorongan
##tech
(0.0
birth
source
backing
continu
penjajah
penyatuan
dipinjamkan
##iny
##see
lé
##ende
##rome
sof
##batsu
##japan
##sekal
##secara
derma
samos
haruka
siliwangi
lp
##bass
##ingi
nuh
pns
##ophon
##resif
##wagen
ferry
struc
potret
result
northern
##logo
bia
##huruf
##sampai
diakhiri
dihadapi
movement
fotografer
xu
subs
asuhan
kenangan
interview
pengendali
##mend
asas
dram
yuda
pelep
ottoman
sejajar
perhiasan
##etsu
ipa
##alamat
horiz
isaac
##bendera
resour
timnya
##eis
##izu
baj
smu
typ
kurt
mold
##urutan
lurah
##opi
##kelas
vaks
xvii
anggun
cannes
compet
kapuas
pementasan
menyingkirkan
##ár
##som
lad
##echus
##elius
##enewa
##varia
tsar
marta
trump
stalin
subyek
tunduk
sanggup
campbell
industry
digolongkan
##rett
##onsori
galuh
isotop
parade
intervensi
ayub
##langit
natur
sleman
(000–000
lutheran
##etic
##askar
##teral
yani
diund
ibtid
price
bhakti
leipzig
##organisir
kemakmuran
masyarakatnya
##yla
##inae
alfonso
bayaran
aten
gory
latv
##ontrak
debat
brawijaya
kemiripan
terorisme
pribadinya
##oj
##omasi
abri
camb
face
gray
keta
chief
tuanku
##karakter
ditahbiskan
aa
##green
##anjing
##castle
##olisis
monte
arizona
ditekan
justice
rekannya
penyisihan
##osc
sj
##four
##heart
kalk
prak
##ancial
##ugikan
alpha
bourg
cakra
##manusia
00.00.
laskar
gregory
elektrik
training
terpencil
identifikasi
pemberdayaan
gha
mack
##ukuhan
eddie
separ
touch
process
membandingkan
mempekerjakan
##.)''
##hall
##encer
##lated
haag
pesa
rita
##ogaster
herbert
reputasi
0-00-000000-0
š
##upuk
apel
feat
fuku
pages
filter
statis
perundang
diakibatkan
introduction
memperebutkan
##idu
##aign
##jpeg
cag
tebu
pakan
pelarut
broadway
salvador
pemanasan
##ül
##utsu
cec
unta
islamic
ketertar
sebastian
##ires
pegulat
proposal
pembacaan
pembicara
linguistik
perpecahan
##chia
##engat
##mereka
##single
##ulikan
boles
dimodifikasi
khatulistiwa
menyembunyikan
##ural
##first
noor
petir
##pasukan
pendekar
##fas
woo
##tator
suster
liburan
menyeber
##anagromyza
##kupu
##olon
dai
##opoli
##enggal
absol
rasanya
independent
##ird
##xia
##bayan
##tional
decep
komet
drastis
mengepung
##gua
##semen
devi
##entral
brussel
eurovision
mempercaya
##raj
fau
##gawan
flora
route
uzbek
marcel
memory
separuh
##zin
bry
hey
ramp
##persero
miguel
membina
münchen
organis
kehamilan
##proyek
bloom
didat
dikritik
penutupan
penempatan
##leb
##ilar
##uncing
releas
##istirahat
renovasi
berdampak
hidayatullah
##":
##yō
##born
##ived
##meny
##read
diw
nek
orth
surv
bubuk
facto
marco
letter
petang
tambak
##presiden
dibayar
konversi
commission
ibtidaiyah
dikelompokkan
##power
000-
gant
savo
anggrek
terwujud
##onik
##langga
##unction
airnya
neraka
##kelurahan
pertolongan
rekomendasi
##pektif
pelat
sesko
##loitasi
poster
strong
merantau
memancing
wac
gonz
keshog
lockheed
pemandian
alor
ibuk
yahya
direct
sandra
sehubungan
##att
##rir
##alie
##ungun
##uning
lucas
sparta
bermata
keshogunan
##kip
0;
##pedo
abs
##radio
zhao
basic
##eksikan
austin
believ
kultur
membel
brigadir
marsekal
meminjam
##lm
##lob
##elix
##pung
##ength
jual
note
##embung
korem
youth
latvia
persentase
##mei
rao
##mesin
drop
teuku
tafsir
ranting
disepakati
mempersembahkan
##är
alt
manik
bantul
##malaysia
kutukan
pembentuk
stockholm
berpotensi
anark
kelin
basuki
fisiologi
##opang
##otrop
##taman
##undan
alien
##hubungan
diperhatikan
##chal
##imar
##atria
##thing
##ocentr
audit
keith
marcus
article
ketapang
deskripsi
menjelajah
000-0-0000-0000
##ols
##rina
bic
nai
rosa
##ekarag
puasa
dollar
resminya
berwenang
000-0-00000-000
##ikar
sui
##badan
self
sunni
yudha
amazon
bulanan
##billboard
borobudur
##bom
dsb
edin
glas
kian
menyerukan
##nab
##nop
##ount
##tica
eyes
menum
00-00.
jingga
within
conserv
russian
##ekaragaman
##ст
yen
asri
ikip
##inggung
actors
keemasan
reporter
mengobati
globalisasi
##wr
##qua
##idus
poc
cuma
##agnetik
bishop
forces
##pertinya
##bug
##ided
##igen
lus
gaza
gene
iron
lenn
rudolf
##perangkat
nederland
satellite
ibukotanya
investigasi
berkembangnya
##vii
##lied
##white
coff
extr
tran
##dragon
##negeri
idris
mahak
panti
##bayashi
perbud
##ombinasikan
##*,
##yod
##tiap
##barat
attack
charlotte
hiroshima
terlarang
politiknya
##doc
##hei
shot
sajak
##enhagen
00–00.
jajahan
predator
##hs
##pam
##loyd
##medi
gob
##kabel
cann
chak
prab
##ensive
infin
sandy
wonos
imigrasi
tercipta
tulisannya
##asem
lux
##antho
##ketika
greek
those
umpan
dicuri
ingatan
gencatan
different
substansi
##izat
##jemah
beda
##italia
hasyim
kutipan
teknisi
bertenaga
##nep
iw
hiz
nyi
##strat
quad
rudy
steel
##masikan
baghdad
pembeli
##osiasikan
menyeberangi
memberitahukan
wwe
apar
bibl
chev
papa
xiao
turbin
akademis
##alisasikan
##gow
utc
##emens
didi
duke
kemp
true
##akarsa
##fungsi
##ondria
batur
jenewa
penyem
houston
rangers
persawahan
##jos
erik
hipp
pandu
rindu
stasi
gurunya
pelangi
diketuai
minister
##diperankan
mengenali
##apt
##berd
##ktop
nay
sih
##ouver
emer
kiev
hijrah
menyes
berlalu
nopember
valencia
membawahi
nickelodeon
##yuu
##otes
##atron
kind
##embakan
kerang
respons
dipering
diperuntuk
eis
imb
##gagas
musta
beriman
religion
##omendasikan
##penghargaan
didedikasikan
##heon
amino
diimp
pasokan
pemancar
hebr
hunt
pest
evans
nazar
##truktur
stream
katakan
menempel
herzegovina
##atai
##hewan
##teori
lupa
ruth
##margin
jujur
##hitungkan
integral
kanselir
##soc
##memb
##than
brow
kanj
##instein
gadang
##öl
##jub
gy
##asat
amy
daur
geoff
##ophorus
became
fisher
miring
peralihan
€
##fun
##ibah
##inar
gub
lav
qin
vos
##oreng
##saint
##untun
morf
##kurang
examp
lingga
according
keanekaragaman
в
##erna
##grade
dumb
syeikh
timbal
highway
memuncak
mendaftar
menghukum
penguasaan
perbudakan
##00'
##cius
##gers
##matius
begin
dipan
parker
##nominasi
artistik
dikurangi
menamakan
perkemahan
perspektif
probolinggo
dikategorikan
##elf
##ils
##udio
lucu
##amatkan
harper
hormat
rangga
prototipe
topografi
mengemukakan
##erse
sto
##banan
##boyan
maxim
##distrik
baptis
##tionghoa
kehakiman
##him
##sons
bmw
bayu
round
diolah
complex
kisaran
pesaing
salatiga
##dol
##glob
##olep
##wide
mbc
yin
chip
rina
risa
diwar
naval
parit
rahim
surut
##apannya
archit
dennis
penand
perusak
several
perorangan
##taur
dul
eup
beli
saga
merced
monica
uganda
spesimen
tengkorak
##oly
gt
##atio
##cipt
##teks
##ments
##zaman
arif
nana
##faktor
##amental
##ampingan
progresif
keterbatasan
tn
##hala
tad
trib
hudson
rafael
skandal
filmfare
bermigrasi
menyandang
tertanggal
transparan
penggantinya
elli
kafe
soet
(0,00
bobot
fland
bundar
celebr
integr
oliver
pengor
permen
terjebak
pemainnya
diperbaiki
##nak
##date
##perg
##raya
lik
##erial
##erior
##harry
##ubara
dida
pent
aaron
##ekarkan
meniru
telaga
penataan
##cut
##apar
##ceng
##truk
##ekutu
dipo
seine
syukur
peckham
sengketa
prioritas
dihilangkan
membantunya
##laya
bip
##integr
stanford
menjanjikan
##iza
##kati
ciam
trem
mered
##osisikan
menguji
harrison
keunikan
lituania
pasuruan
kemasyarakatan
ll
##just
gym
##latul
##mudah
suri
##anduan
##ential
##esaran
0000-0
agensi
celana
kepeng
murray
berhala
diamond
nicolas
peresmian
##sma
##weet
pope
##embala
##mantan
month
batara
supers
autobots
bersekutu
implementasi
menghidupkan
##keh
##who
##roit
##edian
edge
##gaskar
batin
##egiatan
00-000
perkusi
##ilt
##ikul
##imes
##madi
haj
neh
##askus
hayati
holmes
nevada
toraja
>
##loc
##amuk
##pond
##hutan
tana
police
alfabet
gantung
##ubernuran
dinamika
eksekusi
christina
terkandung
metabolisme
##iso
##sawa
##ungs
##ushu
##itive
taka
##bility
galat
islands
italian
kesaksian
п
##arsit
merangkap
##arno
##ylus
puj
##itain
##micro
ganj
##singel
kabin
berkep
olivia
rongga
bertema
masanya
download
selebriti
memperingatkan
##cre
##cang
##enko
##roto
uhf
##biyah
held
##usatkan
making
current
melepas
gramedia
jejaring
untuknya
indikator
persediaan
menggerakkan
##sea
td
##crip
##marga
nash
messi
norte
sengit
piringan
character
sepupunya
membunuhnya
communication
##ilh
##gadis
menay
ciamis
diklaim
pertapa
colorado
studinya
mencalonkan
##kej
##olor
##rise
here
scor
##itatif
kamal
menggantikannya
##ple
##rub
##fred
##zong
neil
silik
membah
bengkel
pagelaran
bertingkat
##iak
##uen
##titik
arte
bong
esta
rome
##ulatus
kesal
botani
jamaah
bertulis
berdaulat
kegelapan
##ogun
lada
pian
skuat
kenneth
consider
discovery
kesepuluh
madagaskar
##git
fok
mrt
##00000
##mania
##ucian
scar
##ensial
dipas
supern
##presikan
dahsyat
berkisah
ketahanan
##gard
##iasi
##udes
##wind
gok
##ennes
##latus
jatin
yunus
executive
##lab
feb
upon
randy
neutron
struktural
##adz
##dat
##kut
buton
yatim
##elusuri
layang
bourgogne
penawaran
##fm
##%).
saul
issue
sejuk
shell
##alangan
relasi
bengali
menggali
edinburgh
cellspacing
##hya
##lau
dob
beku
portal
evangel
maryland
performa
armstrong
dibiarkan
transformers
observatorium
к
##hom
lek
kura
##khusus
lebah
akustik
kostrad
terpecah
م
torpedo
waralaba
menayangkan
##fall
wer
##evelt
mail
chick
khala
sasuke
solomon
personil
rakyatnya
##bie
##uder
hed
ukm
xiv
##musik
copy
sato
##bridge
##otamia
bersem
mitsub
mekanis
engineer
korintus
##usai
kav
veh
jatim
menel
ranah
fellow
orange
rotasi
tengku
##iningrat
beristirahat
##lou
##max
##ffic
cod
trig
voor
walk
marian
mengag
menyis
kongregasi
memikirkan
##lev
##sos
##core
##sept
kei
tenn
deret
leeds
ralph
jorong
##collapse
penguin
##code
##ility
yuri
nafsu
##angsari
dangkal
ekologi
indiana
menyewa
##antar
dion
atlas
berpr
bubar
psych
bertek
height
keraja
dikepalai
mitsubishi
##kaya
gaz
##minster
cultural
damaskus
menghibur
stabilitas
##ан
##zir
##elin
mie
##juara
cala
kauk
ringk
##jarakan
sulfat
presley
##raktikkan
periodik
dikemukakan
##ât
demo
finn
grey
stim
##espond
##ramayu
jubah
arahan
territ
purwakarta
##/''
##ien
hk
##spir
##when
pdi
clear
niaga
martir
##angganya
##apon
##rolet
##semburg
kuwait
tangki
pewarna
pacarnya
persepsi
masoretik
nasionalisme
##oed
##arui
##rawa
##iname
##langkah
goryeo
rentan
##ativitas
##aaa
##aper
##asai
##bata
ikh
lega
pour
sugi
aroma
##uraikan
##ugerahkan
hasanuddin
penggalian
##gom
##ebur
##ried
##pasal
##ruang
khmer
meres
pramb
mandat
sembuh
watson
cendekiawan
memperjuangkan
##gé
##qih
##aden
hank
luke
sedan
watch
balasan
adventure
pembatasan
tertinggal
belakangnya
##gae
ov
##atuh
ira
gosp
syar
derek
hendra
fleksibel
penyelamatan
diperdagangkan
##eal
##dunia
arms
cold
lini
blora
napas
##rediksi
planning
instrumental
xix
##otomi
erwin
exper
kotoran
olehnya
##ijn
##nin
##nom
##thm
##inju
##room
holo
mard
##consin
corak
priok
until
berkek
invest
albumnya
complete
gregorius
psikologis
##ondong
##anagara
##asilitasi
##lich
hyp
jeremy
samosir
tangkai
mendasar
##acle
##fire
##iles
hua
##space
boom
crow
dukun
storm
yosua
crystal
sekuler
tingkah
habsburg
tercepat
##cob
baden
kurdi
##borough
impian
warren
tersangka
0000–0000:
mengendarai
##two
tō
##opak
hag
vac
does
zait
##ernaan
penanda
tirinya
berdasar
elisabeth
##udu
##alar
##peta
“''
##pensi
##tuhan
herak
jaman
tatan
penind
karimun
karunia
restorasi
##ewu
ske
##rakan
canc
gren
kunt
ogan
##nesota
camat
##uttgart
circle
kansas
vulkanik
convention
dokumentasi
##ск
##erius
##etaan
kuis
balkan
lennon
melodi
diculik
ditempati
keberangkatan
##kri
##kont
für
ngu
ugm
hope
##eville
##friend
arema
##itarian
angkut
dianut
mayjen
sheikh
germany
mendatangi
panembahan
menyertakan
kegubernuran
##sr
##nos
##arso
cru
##villa
mond
rika
gelas
menda
maurice
##bij
##fol
##kit
lant
##ayanya
egypt
mesop
##issance
shadow
didalam
bersumpah
intensitas
mengalihkan
mengharuskan
##mam
##bukti
##onaut
##warts
bhar
hash
##endaki
satwa
taruna
sanggar
financial
berpakaian
menggambar
percetakan
##ovi
##ears
##imet
##lapis
ilir
pack
akira
ghana
dicari
mengga
proper
##kegiatan
mojokerto
administration
cé
##vert
##grafi
helm
rodri
##ukuhkan
angkot
mantra
##usahakan
beralamat
luksemburg
pernapasan
##leh
##egas
##stadt
$00,
achi
kimi
##kereta
cekos
colon
fauna
bertop
iphone
sayyid
##angganan
gilbert
santoso
mengutuk
dialihkan
dipenjara
menaikkan
sepertinya
##ggy
##pom
##psn
##yad
##sura
cah
##esmia
##uncur
stra
taat
ketah
terob
##mingham
joshua
menuai
tarekat
atlantic
memerangi
bc
##awin
##ined
##kron
pix
##frank
##unaga
anto
enak
indie
pedas
##sungguh
amfibi
former
brigjen
rembang
haruslah
pencetak
berdagang
alexandria
@
##hey
##atius
##eball
##mawan
dora
esai
##cadion
##golden
griff
disebelah
##bri
##dib
##zat
##ared
vid
##latin
keba
##omoran
navar
##gantungan
muslimin
pengadaan
peliharaan
##ро
##muh
##raw
##anyu
##erie
mub
##itusi
eman
##zation
cakup
##kum
##ues
##atem
##chaet
acuan
kekal
widya
probab
basilika
antiokhia
authority
sosialisme
membahayakan
##ae
##oga
diy
##adaya
gend
##roklam
simal
course
katalis
mengimp
indramayu
perpaduan
##tum
##alen
nish
##cabang
##enegro
bibli
emper
ingat
takes
agenda
##abharata
sedimen
##perempuan
hogwarts
mercedes
suriname
penekanan
penganiayaan
м
##gata
##ović
0),
haz
peb
cure
##ampton
##enthes
##ahkotai
##entific
menduga
pesanan
sensitif
bollywood
fermentasi
##iten
##korea
hers
mere
range
tuban
000.00
sanksi
##eberangan
##pterolophia
pencernaan
percintaan
##beg
##eira
aid
##opros
##south
alfa
brid
cemp
luwu
crown
trust
antibi
##ancouver
##medesmia
together
persilangan
pterolophia
##mc
joy
##ayama
##fried
boris
humor
destin
0000''.
gembala
membenci
pendamping
##luka
fus
ques
wheel
##senapan
cameron
hikayat
released
roosevelt
##laus
nim
vil
##ajian
suit
krimea
melanda
menaiki
mathemat
mengungsi
diungkapkan
elektronika
##dez
gb
##urung
buka
paja
##ekalan
##enovasi
darius
kurnia
nissan
desktop
fortune
premium
triliun
watanabe
##este
##fast
##mans
##perm
##ances
##april
##ulosa
aria
reyn
voya
##/0000.
melukai
roberts
0000-00.
muridnya
piramida
dinikmati
wisconsin
dituliskan
##ipi
##shan
''“
##anish
##arget
hobi
##sultan
karta
lotus
##abangan
##meskipun
perawat
minnesota
bersahabat
percepatan
##chae
##kode
##ties
##bekas
nyai
shik
sten
##000000
nancy
pasif
terry
hakikat
kencana
peranti
merugikan
mempercayai
##md
hour
pulo
pikir
##karnasi
charter
##angsungan
terlambat
dimilikinya
administrator
##gle
sos
##eport
beri
drag
eddy
##eseran
antik
bijih
syiah
##phantes
asumsi
gembira
ontario
position
emosional
mengharapkan
##asser
baud
gear
sist
turb
##dokumen
##udaraan
affairs
katalog
moneter
batubara
kromosom
##graf
##lona
##oksi
##ectic
##merah
disem
diskr
##inamika
stuart
##uet
deh
lod
##isial
buyut
diserap
kendati
pemusik
kembalinya
melestarikan
##brit
ice
ita
##alaya
##laren
bear
boro
dela
jamie
kalium
notaris
##likasikan
(0000–00)
menginjak
memberikannya
##jal
##ood
##uca
##egat
##prop
ftv
ryu
uud
##0000,
##ently
##ungut
deal
lower
often
##istrasi
berbau
dijaga
fluida
##industrian
berkekuatan
##alex
##toon
gom
idi
nem
##ifera
##osida
lucy
##millan
arief
femin
jusuf
pucat
dihiasi
alexandra
enterprise
##sic
##yed
##jasa
##kien
##ulnya
alth
curi
##pendirian
dimekarkan
»
##blo
##bye
##did
##uil
##daun
kik
kanji
metod
nyeri
ekstra
##yaratkan
tekstur
berjenis
cekungan
intensif
wonosobo
bersumber
##abar
anum
rise
praha
resor
susah
isteri
##ocentrus
samaria
melompat
kemudahan
komputasi
disaksikan
##lementasikan
pengumpulan
##dri
##imam
##ohid
oak
##icles
jian
romo
rush
##angsur
georg
jamal
penip
ronde
linear
comment
dicabut
sedunia
beruntung
penyunting
##rob
##ecom
nahd
rout
insan
vista
dahlan
regnum
##republik
thought
producer
marketing
perindustrian
##qah
eli
bisu
cord
entr
muna
extra
##satukan
nitrat
satria
sendang
various
wajahnya
babilonia
berdurasi
volkswagen
##vre
##hidup
hoff
000),
symph
##uburkan
wacana
siberia
mitchell
kejatuhan
manggarai
martapura
tersimpan
diperdebatkan
##osat
##publ
##rice
##scop
mabuk
##etuskan
memuaskan
mendapati
mendampingi
##fac
##fav
##sov
##pera
##enaan
bumn
epik
mean
pagan
romeo
alonso
diajak
gambir
menyatu
mikroskop
menanyakan
##ffy
bj
lh
##guez
##timur
paran
usman
##mission
berker
hamzah
brother
000-0000
literature
##bara
##hill
##rong
##toko
mob
nuc
##belas
##ubumi
djar
elev
tomat
ngurah
zainal
##iriomyza
militan
dilewati
megatron
motivasi
stuttgart
populasinya
##')
oz
##ande
##elec
##omya
heb
hul
lac
##float
mens
opsi
psis
##karbon
##utions
wayne
panorama
membantah
mengerikan
interpretasi
nos
zam
zan
##uania
soer
tell
heran
momen
##ailable
lancar
##angannya
##awatiran
ekuador
kartanegara
keinginannya
##dic
iq
##ired
##ober
##prof
bawa
dual
agric
##wujudan
beauty
hutang
montre
bijaksana
##hero
##midt
rul
##tanpa
galil
segel
##filmkan
vision
leaders
leonard
berbalik
berskala
brooklyn
depannya
obligasi
beautiful
disatukan
disiapkan
sebaiknya
birmingham
fransiskus
montenegro
##lio
##tance
siri
##daftar
##masakan
driver
enggan
##munisipalitas
##cam
##hae
##jok
dawn
haiti
makro
berjasa
dermaga
jalannya
pengangg
radioaktif
perancangan
membicarakan
##cion
##emer
##leton
##penga
##hausen
##endemen
000-00
chiang
harold
kedelai
kelinci
uranium
##yogyakarta
temanggung
dideskripsikan
##asy
##khu
##nabi
##spec
##antom
##belak
##smith
abdi
lift
timo
helium
merapi
melimpah
##sid
ou
##etab
##ucut
piz
pln
##ormal
npsn
##adalah
align
edwin
merep
bhutan
miliki
sekian
strata
menyumbang
sekumpulan
ب
##rach
##ehkan
##ivora
##ormat
sail
slot
yoko
entah
miles
##terinya
itunes
denominasi
eksistensi
persaudaraan
†
##''):
lau
mia
##canth
bret
lane
ning
prev
umay
julie
dikomp
piston
selisih
diabetes
diperingati
##sud
##ilian
##state
regu
waka
##ewakan
defense
pemandu
millidge
pergeseran
antropologi
eko
kno
goku
vern
##apusan
##pinang
berry
bruno
lubis
flying
aristot
khalayak
elektromagnetik
##rp
##än
ats
kov
zah
##malam
chrys
damar
ghost
vital
nyonya
berpeng
hamburg
didampingi
##inv
##dial
##ampas
##gikan
##paris
baba
emir
dilap
prase
##menurut
bottom
rwanda
berlaga
regulasi
takahashi
eksplorasi
sistematis
mengutamakan
transmigrasi
menggulingkan
mempublikasikan
nih
##sesan
##yamin
dest
shun
laris
polar
semut
tunas
upeti
angela
ditonton
penghulu
berevolusi
menjangkau
penyediaan
queensland
mph
00),
omar
skep
toul
##artney
anglo
ishak
baekje
bundes
remain
##idayakan
##tumbuhan
##atifikasi
canadian
bercampur
pendanaan
dipelihara
kerajaannya
##gat
##hof
##sert
##ayung
kwang
mahar
zaitun
roberto
warsawa
##trumental
antologi
biography
pertamina
##het
##wee
##orio
##enden
silva
bombay
combat
pengel
spiral
##aux
##uwa
##kuil
bula
hijri
dibahas
interna
jatinegara
##kg
##irin
##zania
##erinya
medic
anatomi
private
vancouver
kekhawatiran
*:
##uten
##emann
##vokal
legi
sham
siak
##little
diset
zhong
##ongkong
merintis
pengaruhnya
##fos
##seh
##dani
##klub
###
##efisi
born
oris
diuji
maeda
ditunda
genteng
##organisme
penggantian
produksinya
##oho
##sent
fuk
##china
amar
grow
musi
tempe
##okohama
somalia
terusan
nirkabel
religious
##egen
##amuan
##dasar
##ually
hala
parag
boyband
##hua
##rtt
##menc
geb
##akata
##isida
pund
vold
yale
fadil
hwang
pablo
senja
turis
launch
points
santos
singgah
paskibra
pasundan
##tw
##tun
##"''.
lay
##emput
cust
lebat
durasi
establ
glukosa
keperawatan
konsekuensi
mesopotamia
djo
euk
ubi
isra
eagle
modul
wrest
hermann
madonna
railway
simalungun
##dow
##girl
##illus
oral
soto
##egaran
##ijakan
##ukanya
filos
bersiap
hussein
##udidayakan
##instrumental
penandatangan
##nag
##rar
##ées
bim
##ernih
##ribut
rico
shel
##planet
melek
edmund
moscow
sarung
stephan
pariaman
beraliran
communications
0°
##ahli
##hood
eye
och
scr
dans
isma
nota
pabr
trun
##ihanna
(00.0
kreasi
keramat
wawasan
##saudaranya
##irs
zed
##anduk
kens
##unggah
bryan
vakum
rantau
barulah
fighter
##ais
##anas
##caust
##harjo
gaib
kera
pion
##terdam
train
adonan
bertekad
pemindahan
matematikawan
##cz
pé
##basi
##juni
##kiel
mok
feng
petak
tulun
handal
keters
##afiliasi
##epi
##etz
mits
ship
claim
zheng
dekret
dublin
gandhi
##enggelam
##oprosopa
journey
menimpa
officer
senayan
yudaisme
##utradaraan
datangnya
nampaknya
keponakannya
##jō
##ized
##lier
##obia
aka
##illon
##souri
benz
chop
##israel
##uliaan
cloud
email
dallas
eugene
sheila
stroke
sukarno
tandang
yakobus
meditasi
perantara
diasingkan
penghapusan
didirikannya
ö
##ebel
##racy
nip
##plant
kuta
##uannya
##united
match
betapa
kusuma
things
herodes
##lambangan
mengabdi
seimbang
melengkung
pengamanan
fundamental
##hoi
##ebec
##oles
##namun
flow
fron
berik
jerus
takson
##.000.000
mudanya
prosesi
tabloid
(0000)''
gantinya
learning
pembiayaan
pencerahan
uzbekistan
penanggalan
tetangganya
##ים
cub
cum
gowa
teen
##elajar
##ternus
deter
kerta
lloyd
pucuk
using
wisma
memanj
##usnahkan
mangkubumi
##def
##nap
##"'',
clay
##emaran
aires
ariel
carey
dirjen
pendidik
pajajaran
pengkhian
diabadikan
menegakkan
##–0
##ffi
##gur
##alas
##hing
##cheng
##ilogi
boss
brom
merak
##donnell
athlet
##produser
genesis
dramatis
newcastle
penomoran
pengucapan
terinfeksi
dpp
www
buff
gaul
sons
wati
##gagung
rival
berlian
##pemerintah
ketenaran
mendaftarkan
ow
##solo
rabi
balon
close
sekte
harvey
sierra
undian
amunisi
wafatnya
airlangga
westminster
##sz
##yom
##hoon
gita
oliv
sewa
twin
wangi
##afsiran
peraih
##jembatan
daunnya
janeiro
vatican
augustus
telanjang
penafsiran
##cra
##olph
##akura
##child
##erald
kish
##kaisar
penyul
##emporary
habibie
pemasangan
##-0;
##edon
##iste
##wave
keny
slav
##asemen
metaf
diikat
kesalah
partisi
##wikitable
membiayai
##roho
##mahera
costa
##intanya
experi
kemiri
pangdam
thunder
dinosaurus
##pb
##uya
##ergi
##free
##like
##ürtt
butuh
thing
bingung
partner
##kecamatan
##osintesis
menghuni
electronic
federation
prasejarah
ditaklukkan
pelestarian
mengakuisisi
##ни
##web
##itha
##trik
gap
hee
usd
spor
tail
##omatik
berna
dieja
patut
##icollis
angola
bahari
##mycetoph
artefak
mclaren
penunjang
penerjemah
tup
##assin
kejak
agresif
mochtar
terumbu
campaign
diangkut
memburuk
dipentaskan
##amba
##jaja
##neum
yar
##hakim
antv
##elahian
assemb
cimahi
kamerun
mengutus
jerusalem
##mycetophila
ensiklopedia
##ان
##ammed
##rique
kubur
tirta
##cayakan
##ungsikan
identif
problem
zealand
##abilitasi
mencolok
penyusun
wonogiri
mycetophila
##paul
gut
cindy
getah
belarus
pengoper
selangor
economics
perwujudan
##ño
##rog
##inen
cli
hugo
kaku
rana
trik
##english
arashi
nubuat
atlanta
britain
menggel
ulangan
bolesław
diwajibkan
keberuntungan
##00:
##zzo
##ewek
yag
##trait
##bakala
##tetapi
unjuk
##enstein
##history
gregor
merata
shogun
mikhail
collapse
challenger
menganjurkan
##cyc
##okar
##ingat
##rotes
fram
gara
daeng
pompa
tuber
vihara
lombard
##australia
pembersihan
##sad
##ilal
jami
cohen
hello
aerosp
kepadamu
menyembah
melihatnya
##kis
##nad
##atin
##imun
aeg
duc
hye
krit
oggy
(~000
herod
input
##asannya
##kampung
pemadam
guardian
kemitraan
##sif
mpu
syi
carr
##teriak
##omodasi
##resiasi
bertem
sekelas
serentak
interaktif
decepticons
##bid
##krim
##riks
asma
upah
##istana
##modium
chong
menek
motto
pelec
syafi
##ukiskan
tanaka
atraksi
kaliber
teladan
seberapa
semboyan
industries
##efon
##hira
##sula
##tres
guj
ose
suw
##queen
cort
gayo
keys
kunc
rapi
##enggan
kidung
available
komunisme
kebanggaan
##integrasikan
##bao
##bers
##tono
corp
sita
beran
keilm
penis
kasino
polres
princip
release
florence
terhenti
menganggapnya
ketergantungan
##.-
##ehr
##ihad
##tega
een
pai
##menga
fond
ombak
plato
fokker
korpor
perkelahian
##esch
##lion
##ombo
fib
##grave
bian
pgri
##lowakia
##selatan
ensemb
banteng
persija
tercapai
sepertiga
intelligence
##lid
##onit
##oral
cyn
naz
##ampar
##labor
feod
sangk
dongeng
0.000,00
teoretis
pengisian
terpasang
supermarket
##mia
##jauh
0'',
fast
peneb
slank
example
pengajian
berkeliling
##’.
##eco
##hos
##asius
##train
##unkan
glik
mason
##uhannya
talang
yamato
dibalik
imbalan
berakibat
kekasihnya
pakubuwana
ketertarikan
representasi
cafe
daim
prep
anast
upper
##baharui
##pergian
foster
piring
chemical
0000–0000)
instruktur
transistor
diperuntukkan
##cock
##perj
##quis
##istol
bald
melan
sesat
##usannya
anders
berkala
clinton
singles
terapan
paraguay
sebanding
horizontal
menyeluruh
mancanegara
##0+
##giz
##isap
##olla
##ucci
hidr
##bagaan
##optera
##tradisi
murphy
##alifahan
berawak
liputan
siluman
ujungnya
##ouk
##tot
sé
##wafat
aptb
ikat
urut
tunai
aparat
calcar
jaring
nuansa
##istimewa
nugroho
putusan
berambut
sebentar
##otr
##tat
##utat
##baban
feri
##ezkiel
##teknik
prosp
rhein
##ecticut
aktual
optimal
##perguruan
kepiting
##bha
crus
koma
##apraja
##runner
##yahudi
cakupan
agustinus
degradasi
destinasi
korespond
kemiringan
##rc
##awe
##syad
##ontan
##akarya
##eglang
sabar
bengal
edited
guatem
detasemen
didalamnya
ketersediaan
##wyn
##sala
bae
##genap
##imbun
miki
kakao
pulih
squid
##pengisi
jackie
kerinci
pemakai
written
dibaptis
yokohama
dianjurkan
##cab
##sti
##body
##game
##igon
##lane
evan
read
wide
biksu
buang
pound
yosef
##itation
direkrut
menemani
pendengar
dihapuskan
diwariskan
menamatkan
dee
##asing
##itage
mann
mint
olga
tumb
##amerah
falcon
rotterdam
dimungkinkan
##bed
##dale
"00
##engsi
0''.
dilip
oxyop
rotor
coffee
franco
bertani
rihanna
dirintis
explorer
daerahnya
sambungan
berprestasi
##aig
##fta
##éti
0.0.
idul
megah
rumor
should
vaksin
featuring
toleransi
adventures
philosophy
berdampingan
mengorbankan
##hik
##jim
##atsch
##chang
hern
mick
nats
##angkalan
##waringin
section
##september
magnetik
mencabut
tennesse
bepergian
penembakan
##enk
##oge
##ucu
##ikon
##teen
##indas
cath
##ladius
colin
wajar
sunday
stories
algoritme
birokrasi
pelepasan
##cula
##mono
##andal
##bourg
##emort
achiev
kebenc
badannya
berkulit
komedian
mentrans
kedekatan
kandangnya
kapitalisme
mempermudah
penyembuhan
##’,
##vez
(=
##umin
##matik
##odend
alif
rhoma
optimus
serpong
tatanan
congress
berjangka
protagonis
cig
aliyah
bryant
cherry
leader
chester
predikat
kekebalan
pendahulu
karesidenan
ç
##aug
##roma
fang
jaka
labu
deddy
keseb
thumb
claude
##argetkan
regular
relevan
saturnus
yamamoto
##ürttemberg
kebaktian
paramount
dipamerkan
dilancarkan
##gis
##itzer
iris
mdpl
owen
##pirasi
bless
lasem
print
sabun
thera
##century
##tanjung
kosovo
clathria
ramayana
б
##coc
##juli
00'
vib
##eping
item
minh
catal
burton
viktor
dididik
moldova
kemerahan
menghubungi
##zai
eus
keis
##eksasi
##emburu
pahit
louise
takdir
talmud
##isasikan
gallery
cintanya
parameter
tulungagung
##rw
##eer
##ugi
##eare
##ineas
##judul
half
dimin
hengk
hyang
arabia
sketsa
hidroks
halmahera
lithuania
antibiotik
##cing
##lase
##obar
##uras
dyn
jel
##injil
oslo
rotan
bright
seusai
##onduktor
counter
terkaya
kacamata
##bandingkan
mengusung
rekonstruksi
##tk
##ead
sq
##indi
##intu
##lika
lui
inov
joon
##ughter
berdosa
anatolia
terburuk
terpusat
cekoslowakia
##chev
bei
ruu
##termin
##unahan
sofia
##unangan
00-00,
acantho
gerejawi
pelecehan
tus
##edisi
##great
ende
punc
xian
multin
absolut
novelis
tarbiyah
(~000-000
sirkulasi
melemparkan
##eha
##home
##raine
once
keped
endapan
lorenzo
kemuliaan
komentator
memperpanjang
kepemimpinannya
##hold
0.0%
mina
##ically
0000—
perib
syria
oranye
pengus
rogers
mengeksp
berjalannya
##eong
##idas
##pass
##ewaan
brev
kaus
adela
perih
asetat
jurang
politis
penyelam
warnanya
mccartney
##cro
##ffe
bn
##yadh
##simbol
##yunani
devil
lembu
melon
penet
husein
tribun
bhikkhu
istiadat
christine
holocaust
keluarnya
pepohonan
ditimbulkan
##asty
##tank
dow
rez
000).
marse
kaltim
shield
##ambungan
makalah
bidadari
praktisi
tennessee
voldemort
connecticut
##identifikasikan
##aps
ml
##epuh
##that
swa
##galkan
kecap
sabat
narasi
singer
kerucut
menamai
##terjemahan
disamakan
following
kejaksaan
inframerah
pertunjukkan
##osed
muf
##icana
##works
erit
ukur
prodi
buenos
agricul
masters
##angeranan
aspirasi
bersamanya
##vine
##isari
##wulan
noah
corps
merid
tatar
kramat
segenap
although
bermuara
##bok
##jee
##lew
##asah
##blok
##frag
##olio
yap
##cross
##rutan
##sault
##ilmuwan
##pembawa
hughes
jernih
seakan
sersan
ditutupi
einstein
kesatria
##fra
##ubuh
##usep
ong
##iakan
user
##ajaran
##ikaian
dutch
##arisasi
0000):
(0000);
arkeolog
antagonis
disponsori
##tn
##té
##icz
nd
##maka
##ledore
dosis
hotsp
bakrie
domini
majemuk
kompetitif
##zl
##ар
xp
##anao
##chem
##kita
ppp
akut
felix
logis
##onversi
##osongan
krishna
##chaetetes
calcarea
##cell
##iket
##lett
##rakar
buck
kato
ragu
viol
##mobile
given
maría
salak
##isdiksi
persik
alberto
artists
##perubahan
kimiawan
bertuliskan
traditional
0-000000-00-0
##ega
##eso
ech
##etime
##kasus
##rajin
##wawan
rani
ambar
fatal
treat
tukar
mechan
ramalan
mengolah
operasinya
vertebrata
cz
##dhar
##pref
##sinki
##utang
taek
buana
pasha
suaka
mutasi
patric
spencer
yehezkiel
homoseksual
menggantung
##dm
##gent
aki
pdb
rex
rig
mush
vall
bocah
##enggang
##isiplin
##otongan
##spongia
rocket
wellsi
##abilitas
berwujud
missouri
##plasmodium
bergengsi
guatemala
melupakan
nahdlatul
diharuskan
pandeglang
competition
pengangguran
memfasilitasi
##cape
##chap
##ogue
##rove
rov
vag
##onale
bram
fath
bibit
clara
##umsikan
kontra
sister
dilepas
mustafa
menganalisis
##enus
##orde
##antin
batt
didek
kaget
##seniman
martha
monroe
nicola
capitol
liberty
cipinang
imperium
kopassus
laboratory
penunjukan
scientific
kekhalifahan
##cep
##pla
##idis
##iram
##mini
##rana
wet
##marne
##pihak
zoro
agresi
kanjeng
meminum
tangguh
##nominated
helsinki
diplomasi
kaitannya
louisiana
##banj
##hoff
##ikin
##sted
lai
##ecture
##antasan
koptik
kastilia
aerospace
macmillan
dumbledore
pemrosesan
##gma
##pala
esp
uta
vie
wai
##angin
kuah
##alasan
glass
index
kabut
perkasa
satupun
bebatuan
didapati
harganya
pengebom
##perjanjian
terbilang
penindasan
terbentang
berafiliasi
tereliminasi
##xa
##dai
##ité
##tage
dop
due
##wondo
stok
focus
##ohidrat
menyeb
harmoni
letters
mangkat
menyala
patogen
pingsan
anumerta
pusatnya
perjamuan
dikonfirmasi
##akb
gé
##uced
ein
##align
##irejo
bari
##aristi
##engger
##oncong
kenny
sopir
##okument
kraton
movies
ranger
atribut
champion
digoreng
membubarkan
diberhentikan
##cac
##cea
##arin
##asam
##cera
##quet
chal
kogn
stie
##ingkir
aston
exist
sumba
##galanya
slavia
##beberapa
penyangga
penggunanya
eu
##jing
##dream
##ratic
##ultur
door
soeb
drums
##favorit
trilogi
##aransemen
pemberitaan
mendeklarasikan
##iae
eds
ink
rna
##usias
rice
belle
biner
edgar
wings
alamiah
menelan
milenium
dijatuhkan
##ulo
joo
pks
chow
xuan
##shevik
conan
dirag
premi
##espeare
dreams
ziarah
peledak
diabaikan
terhormat
bersambung
##cn
##dj
##dos
##ihi
##ned
##colm
##quez
##tong
zab
##onius
zakat
terbar
termal
musibah
advanced
cornelis
terjatuh
pendingin
##ilio
##tind
ryo
uch
emil
##glenea
##ilhami
jasad
##uliahan
memecah
pemikir
kilogram
skuadron
melingkar
##enggelamkan
ditemukannya
memperbolehkan
«
##wed
##athi
##evard
##ously
##serta
##ussia
ngab
vick
##usatsu
rawan
tiber
##elopori
persero
diwarnai
keilmuan
pinggang
terputus
konseling
bermunculan
pengorbanan
eksperimental
ls
##esti
aim
bee
oda
##elasi
##lando
agro
till
angsa
ditan
logan
sekar
##lakinya
berkes
berkuda
momentum
pelengkap
bergantian
menyalurkan
##pid
##mach
##ostr
##tail
tsu
##ework
##unter
bias
dome
prac
kokoh
petra
suite
yahoo
##arangan
diutus
kenapa
mangsa
polusi
stefan
berdaya
labuhan
raffles
informal
##berdasarkan
penginapan
pertikaian
##ει
##pab
##uluk
pose
hours
saras
tinta
truth
##alkanal
baltik
bermus
dialah
gibson
quebec
rapper
rhodes
tampan
percera
trinity
diragukan
runtuhnya
berpangkat
dipersiapkan
pengangkutan
##guk
##ouv
##oden
##seni
##unge
##fitur
##inisi
##issip
aang
folk
jamu
sltp
udin
etnik
finis
genoa
##general
##present
bergel
##balingga
##november
ornamen
quarter
beriklim
routledge
konsultasi
kepengurusan
##toy
##ernal
##ither
find
ekspl
kerum
iberia
##ederhana
dilapisi
ekonomis
bermuatan
kesuburan
pemecahan
diskriminasi
##ible
##chron
##ilena
##bidang
##etabek
absen
##idangan
lovato
salman
tambah
##evaluasi
berlapis
ditemani
interest
nobunaga
ditentang
maksudnya
##bund
##kana
rip
xen
##appij
##empar
##ilkan
biar
silam
privat
mohamad
timothy
direction
hideyoshi
pembahasan
menumbuhkan
##pmr
:"
uks
polo
kasta
abidin
barong
marxis
tennis
leopold
dominika
montreal
tabrakan
diedarkan
konduktor
merumuskan
guadalkanal
##kang
##ored
##hotel
##wajah
qual
ulum
##ension
abram
##bandara
mengel
mischa
tawang
classic
sinilah
trailer
keas
rash
spar
sule
;0000
disen
orion
fosfat
others
##rakarsai
beladiri
caroline
mohammed
kepunahan
kontraktor
pengerjaan
##atib
##bali
##oire
adr
icon
##atahkan
##efisien
petinju
ditengah
terampil
menyangkal
gek
##alore
##jects
##opoda
##teria
sufi
hergé
mahir
tajik
##araneus
##ombolan
claire
constit
rolling
terpuji
anggapan
register
difilmkan
kebencian
##yy
##umer
hod
##otika
alph
moto
niis
##akting
##school
gamma
rinci
sebet
glenea
images
sharon
penegak
pengund
kenegaraan
##στ
##kbs
##luc
##syn
##ermo
##post
##ylum
##arida
##muslim
emily
gemar
tyler
estate
kelopak
bersuara
paradise
peternak
menuturkan
perkuliahan
##-'
##tc
##oux
"0
rb
cov
ond
too
##oprop
yeon
yoga
##ophron
andré
##liament
##organik
members
prabowo
subsidi
akuisisi
sentuhan
translated
##apo
##mie
##mers
apot
sora
##buruan
##divisi
##incang
chile
perse
korawa
solidar
bertopik
banjarbaru
dipopulerkan
##dak
##isc
##amon
##full
##moon
##rihat
soep
tuna
##lokasi
string
##festival
madison
spontan
memfokuskan
berkonsentrasi
##sbs
##yth
##atum
##icks
##tria
##erner
##every
##imbar
kerah
notes
salem
think
##alengka
##odetabek
babakan
edwards
kartika
blambangan
menaklukan
beradaptasi
diperlakukan
##uu
##bana
##tone
##yati
hin
spa
##group
pete
stain
gospel
mangun
##gubernur
khotbah
turkmen
komoditi
nagasaki
mengemban
mengkhususkan
##jon
##misi
##asure
##olali
chao
kaur
denny
kasim
sepur
##umpamaan
menantu
heritage
kepergian
recording
penampakan
##baby
##rose
##vana
rrt
##hyang
aris
bast
(00),
josef
skill
butter
concep
hearts
keliru
##ampakkan
##kejadian
swadaya
greatest
tanahnya
berteriak
purbakala
mikroorganisme
##kau
##mig
xv
##ikes
hyd
##ellus
##opati
fiji
bolog
lainya
terror
yamada
rachman
##wawancara
##arsitektur
eksplisit
dimahkotai
disertakan
instrument
##ilum
##akawa
asep
plut
berpengh
himalaya
leonardo
pemutaran
##ων
##det
##kid
má
##bahn
##borg
##onax
trim
berga
firma
demang
gerald
meriah
sophie
pendeng
ekaristi
mengantar
:#
##opeza
dire
fitz
nest
##format
blanc
jonas
##aparkan
weekly
##serangan
jamaika
komuter
silikon
biokimia
terbenam
ketetapan
multinasional
##dvd
amr
##-00-0
##adana
##dewan
##elapak
##esahan
hepat
irene
joint
jorge
rabbi
##ibution
europa
irawan
santan
cengkeh
deutsch
fernand
pastoral
##atschappij
dinaikkan
penobatan
halamannya
aleksandria
distributor
('
##atta
##bird
##cari
##tata
##yaki
ono
##shine
seas
##pember
imlek
irwan
kesed
kebing
suplai
##senbatsu
matriks
pemeluk
hierarki
tanzania
berkenaan
pengiring
kelembagaan
##uo
##$00
##kac
##lij
##anag
##orno
cnn
yaz
##ampek
##iding
flat
tula
##entris
dilam
saman
##satelit
minami
podium
##olahraga
contain
diingat
lonceng
reseptor
konstanta
berkomentar
pendukungnya
pemberantasan
##omed
##kalim
cole
lava
seen
tina
banks
kodok
lopez
##british
##majalah
0000);
abstrak
feature
hibrida
seharga
dipindah
apresiasi
perumusan
presentasi
contemporary
##jul
##amir
##anie
##olds
##sesi
jes
casa
wave
lucky
words
##angkala
notasi
riyadh
simulasi
pengkajian
sebetulnya
##joo
##hart
##umpa
ija
##ograd
##royal
##undai
graph
jajak
disuruh
getaran
merokok
relawan
megawati
petinggi
terjadilah
##oca
##nium
##tero
ops
qua
yok
##babwe
ajax
qura
birds
deras
kedah
paser
mantel
maskot
araneus
jeffrey
tumpang
##institute
dibongkar
mandailing
kedudukannya
##mim
##umu
0"
##iken
##ouin
hew
nal
##court
##jizat
##tiban
##umbuh
abor
chât
fact
jews
budha
darma
shima
dipuji
merger
columbus
interval
seketika
francesco
##okumentasikan
##ór
##gbt
##iry
##nur
##essy
vor
gpib
##(0000)
##office
candy
##angkang
angels
barbar
monako
stella
viking
##okasikan
georges
kritikan
diferensi
berkenalan
karbohidrat
kepangeranan
sra
til
##dapat
##leans
toei
galang
guilla
output
cemburu
paparan
pemberi
phantom
beratnya
penembak
rajawali
registrasi
purbalingga
ο
##mbc
##upe
bha
cred
fine
gott
pros
bubur
cewek
dihid
##icornis
pendak
teresa
teorema
hongkong
pecahnya
keberatan
direnovasi
pengangkut
pembaharuan
##anna
##emai
##kart
##vier
lao
mug
##ijang
##yakan
##double
pluto
pentak
sahara
sambal
vienna
##egradasi
olympic
student
mempelai
berakting
penyebutan
mv
##gest
##ocar
##iclona
elite
##iptanya
00.00,
lawang
kapolda
keguruan
mendalami
kesetaraan
д
##mys
##nit
##phus
##suya
gis
sle
##arawa
##guchi
##makan
keja
vide
wish
##jurnal
##uarium
##issippi
disimp
franka
forever
komering
neneknya
kebersihan
menembakkan
##wel
##emus
##okat
rri
uin
##alion
##uasan
##union
adri
bhat
grob
marl
mira
##emplar
##idupan
modus
sabit
##akainya
melody
milyar
genting
pengrajin
kreativitas
##fiq
##zzi
##mine
aba
##embar
##uring
huda
pong
soem
comic
cukai
graha
phone
title
##adamkan
heroes
taufan
archive
cintaku
mayasari
##masyarakat
digerakkan
pembubaran
penelitiannya
##eat
##fel
##brid
##esha
##gens
hbo
##ensor
expo
##dahulu
tekad
tomas
##uningan
bersel
comics
matsum
schmidt
temurun
kemunduran
pengalamannya
##dn
fk
##park
##sive
rpm
flem
watu
wife
##onisme
along
denda
lelah
##angkung
jeanne
bangkai
certain
membelah
rambutnya
kebingungan
##dk
##hiz
hs
##aren
att
##haria
##hitam
epic
garc
masy
spot
admir
embrio
krajan
stereo
termod
dikemas
direbus
mempertanyakan
و
##rcti
plu
##ajaya
##rated
alis
cler
nurh
##pindah
eksis
fatah
soldi
grogol
motors
penang
bontang
umayyah
protocol
penghancuran
##jit
##angu
##toei
wiz
pard
quan
ranc
jamak
kipas
inside
##jaringan
digimon
effendi
rainbow
senegal
bercabang
kuantitas
kenyamanan
aristoteles
dipertimbangkan
т
##elen
##nier
luh
osh
##ranya
##tabel
(0),
diga
gaku
sele
##fisika
##pantai
ceria
chase
elvis
lines
reagan
##hongaria
inflasi
ireland
resources
##ebi
##efl
##quin
dei
ios
muz
##bapak
##ctice
hoki
khalid
pretty
berakar
berhati
nominal
thomson
creation
##eut
##yud
##adia
##amal
##host
##thor
##angsa
##ially
##round
anas
cepu
hadis
lutut
sword
dakota
nagoya
captain
orleans
rosario
success
melintang
kandungnya
pembangunannya
##pg
γ
##arma
##gins
##onte
kho
kow
tax
##samaan
bodoh
jogja
kedai
pemat
tiara
guyana
diusung
orlando
pemakan
pengamp
kosakata
nacional
knowledge
pestisida
militernya
penyesuaian
diperlihatkan
terakreditasi
−
##cry
fay
jaw
naj
suz
##death
##endor
hiro
leuc
babad
crazy
gates
hokka
bintik
legiun
mariah
kejutan
symphony
kobayashi
tokusatsu
##akas
sdm
##sound
##yangi
hugu
qian
kasad
lumut
peron
theme
reality
telapak
diteliti
algoritma
shakespeare
penyutradaraan
##imob
##kiss
aux
jln
mine
adobe
jodoh
loyal
rakai
cheung
mengid
potong
serdang
pengatur
setiawan
eksemplar
majalengka
dibudidayakan
mengekspresikan
##chne
##obos
##uthe
exo
tyr
zag
##cules
carn
tale
chlor
seong
yoyak
avatar
bercak
beyond
regina
selera
atletik
hendrik
##tir
##apol
##intik
aber
aids
gama
limp
oman
##jumlah
##posisi
##stream
bayan
kecok
kiper
pinus
reason
reptil
salmon
menunda
perspec
pertentangan
tb
##dead
##ugat
ruh
##suatu
##inella
##urance
perti
bureau
kronis
milisi
sharma
menjelajahi
parlementer
##cue
mw
##princ
gela
issu
joey
rind
##lantai
kemen
##engerti
##hentian
diikut
oregon
pusdik
petenis
baseball
boyolali
menculik
sebabnya
observasi
penegakan
sesudahnya
##uap
##yuk
##chor
##ileo
##ipik
##news
##nick
##shir
alc
lyd
##.000,
aless
hemat
teddy
konrad
bologna
borough
##iskusikan
diproses
kedamaian
##αν
##isto
##ovic
blas
kort
##icipal
##person
andal
chuck
harum
##iklanan
improv
jokowi
radius
tepian
akhiran
emperor
gugatan
flandria
lumajang
filosofis
geographic
mencantumkan
##acu
##asw
##bey
##ène
##adil
00;
ble
gak
sey
##hardt
##uctor
jake
bakau
menip
natas
kampar
rhythm
mandela
medicine
generator
marseille
squidward
dimengerti
disarankan
population
##seg
##azhar
tawa
canal
charl
debit
ellen
perus
praja
quran
xiang
laguna
raider
wibowo
##asaannya
mohamed
siregar
redaktur
zimbabwe
dikontrak
kebajikan
mendesain
spekulasi
##''0
##ibo
##ulas
##year
##brand
lily
pran
rugi
tsuk
zion
##sangat
frame
##senjatai
##tindakan
detroit
pemangku
##aba
##zza
##olid
asi
pnb
uma
×0,
jahe
riko
takt
diwujud
kompati
similar
terluas
utrecht
dekorasi
melempar
buatannya
##add
##ogp
yui
##ified
##orkan
buch
buru
dona
jans
prek
shut
##esmana
##istika
##astraan
##imalkan
arktik
brahma
harahap
menggun
montana
menekuni
pengemudi
pemiliknya
##cf
##flu
##rug
##adne
##agal
##chis
##ikot
##ynes
ace
hep
##akala
##older
##three
mual
##inesia
##oneura
rossi
semik
sever
##entrian
better
felipe
meraup
penump
spider
ramadan
athletic
sekurang
perburuan
sukoharjo
timbulnya
penculikan
penerusnya
sg
##enty
aya
ica
##-00).
##balik
bale
evil
nine
##heimer
##lahoma
yoshi
##ampuran
mediev
pantun
berpura
jupiter
dihargai
induknya
beribadah
berurutan
keistimewa
kesenangan
beranggapan
kekerabatan
pembuatannya
##fet
##vour
dkk
nex
##otasi
##ideres
##veland
exhib
gelora
kirana
mentor
##oksidasi
kashmir
tabanan
peluncur
superior
zamannya
bundesliga
kementrian
sumberdaya
##uve
##chir
##onne
##text
gif
lyc
##patri
epid
##ething
aerod
diteg
favor
##emahkan
gapura
rasyid
sevilla
critical
harafiah
keragaman
perusahaannya
##rei
##wei
##chat
##itel
##evara
##osuke
chik
imag
ying
fasis
gerai
horse
alkali
pianis
display
pemotongan
##zhi
lcd
##apest
abel
confl
eyang
##estinya
paspor
cornell
maxwell
membesar
merambah
pemalang
##oeng
##urani
##zburg
sulf
##iliter
rizky
tesis
yudea
having
lenyap
mercury
memintanya
maatschappij
ff
##gren
##juan
pug
##idana
##masih
eden
##iticus
blake
keaja
bullet
fiktif
##sopocera
jelajah
manuver
minutes
scholar
cardinal
diagnosis
##dur
##thon
##ucon
##ères
rui
##ebius
##tries
milo
##editor
##ingkai
sopan
butler
waters
##elajahan
browser
musiman
adelaide
pelarian
practice
broadcast
mengungkap
##iga
##.''"
##arna
##ción
##sans
##ialis
sjah
##layang
anita
arang
entri
jenuh
penat
sophia
thalib
berbulu
cucunya
digubah
kendala
ricardo
dituntut
herakles
segalanya
structure
pengoperasian
##kō
##idd
##lez
##arep
##ises
##jean
##isans
bust
joel
seru
tart
jabar
kadal
landak
sesekali
commercial
##ifi
##thi
hm
##ameo
##umum
##upta
jaz
tos
##etkan
##happy
##makam
noer
rebo
slta
yuni
##akadem
pelam
valid
kapita
mesias
olympi
dikejar
tertawa
##phytomyza
dapatkan
tasmania
tinjauan
##pendidikan
dahulunya
datanglah
phytomyza
sayembara
diperbarui
##oryx
##gensi
##osoma
##selam
aren
##deling
megal
ngawi
##aruyung
bening
##frontasi
himself
memantau
trinidad
taekwondo
ditulisnya
pornografi
##ân
##uff
##iron
swt
gros
skrip
lesmana
workshop
##beck
##ibia
##active
##bottom
arian
dylan
menta
sales
scene
shock
solar
yeong
##telefon
klinis
yamaha
yesuit
##panglima
ditanya
malcolm
simpson
tenggoro
mengurusi
manuscript
yurisdiksi
0000-0000''
##iu
##biru
##enau
##nica
##odox
asc
##tanya
##ticus
cart
colo
nawa
utah
penug
seram
##ohanian
serbuk
talent
teaser
##asiswaan
##clathria
mahasis
whitney
bertukar
mcdonald
keroncong
sendirinya
xl
##ahta
##cour
##erty
rik
##ivitas
frequ
pakta
rapid
##scopula
letjen
sorong
triple
winner
melacak
mobilnya
progress
rambutan
persebaya
soedirman
perceraian
##peg
yū
##utri
afi
poh
##ulama
aviv
sinai
##aminasi
00-00)
harbor
isabel
##angkurat
##rintisan
##surabaya
lambert
terluar
inovatif
tumpukan
warganya
mengerahkan
##hes
##east
##look
##mium
##yian
lag
nhk
zee
##where
##yawar
lept
skin
##timore
petro
scrip
branch
nyamuk
baginda
medieval
monopoli
tersibuk
beginning
guillaume
kadangkala
cv
##tuan
ati
##ukupi
herb
##inavia
andes
eight
mabes
berger
disaat
mengad
menyir
regard
satyal
fatimah
jasmani
tadinya
sahamnya
perumpamaan
construction
memperlakukan
##cole
##elet
##iant
ans
lug
##ainan
remb
##afrika
brill
awalan
bisbol
crisis
hopkins
merangk
##ografinya
beraneka
operation
kemahasiswaan
dikombinasikan
##zam
##cuit
##mich
##ongi
loy
why
##balai
##ynski
anno
aver
glad
sima
''000
trich
gloria
unggas
glasgow
reprint
vehicle
toulouse
bertumbuh
perseroan
rintangan
0-000000-00-0.
jia
##ellan
##objek
##roman
##skaya
ditu
serd
allan
gagah
##bandung
helena
cartoon
cilegon
striker
maharani
##kalimantan
boulevard
terjangkau
(00-00-0000)
##alf
##cau
##dac
##eup
##jae
##izen
##zhen
##flora
0.0,
bibi
nakh
##proses
lives
nisan
versa
anggap
mengup
eurasia
hiroshi
thamrin
lantaran
pegangan
koefisien
terbangun
##nez
##tap
fé
##neph
##sctv
fior
##ousand
##unggal
antib
aspal
matsu
shank
campus
miniatur
nakamura
0,000,000
mississippi
penerjemahan
pemberhentian
produktivitas
æ
ו
##hil
##ubo
##asim
thi
##entin
##saksi
##yesus
manj
wine
bever
ilham
##antunya
##trocera
bereks
motogp
economy
physics
bersinar
kekosongan
diterbangkan
rehabilitasi
##oby
##anci
##icum
buc
hms
##jeong
dirg
xavi
##opolis
##sering
panik
##lington
kaidah
pagoda
torres
##gemeente
hyundai
bertolak
kaukasus
payudara
keajaiban
pengampunan
##cit
##dog
##sib
##wild
##yuan
abe
##along
##estro
##pintu
wald
##erlang
barak
sorga
(0000;
curtis
flower
spanish
0000–00.
diwujudkan
kekuningan
periklanan
hidrokarbon
persidangan
meninggalnya
##ør
##hui
##xis
agn
cay
##egory
keji
verd
##global
##istira
dikti
mnctv
##bayoran
marino
mister
prison
région
manufac
winners
##prefektur
academic
brussels
cikarang
kapolres
lawannya
phillips
permusuhan
didatangkan
memancarkan
underground
banjarnegara
kelangsungan
##opol
##apala
circ
fals
##kompas
dibeb
kurva
##iansyah
##ukannya
berser
random
##produksi
##rekannya
didanai
galilea
nirlaba
patriot
melayang
##bactrocera
experience
austronesia
и
mn
##beri
##htar
##ilas
##pras
keab
ozon
##gaulan
above
cello
heath
kalin
ketan
tulus
##akumbuh
##ombakan
autobi
brigif
komodo
konsul
lesbian
meeting
rangkap
keistimewaan
##bog
##yss
##ceed
##,0000
##ippus
meri
sche
tori
##inalis
basel
##ighters
##sebagian
berikan
describ
perihal
panggang
partners
peredaran
didaftarkan
##umn
tg
##ilat
##lord
##human
pind
rajo
##abisan
##berger
##buwono
##essive
0.00%
woods
ibunda
sunnah
memesan
dibilang
fighting
ignatius
singkong
pagaruyung
##dl
##equ
##ekal
##omus
##take
##ukit
##atari
##sepak
paya
rudi
##useppe
##odontha
critic
lorong
dipandu
dipukul
dirujuk
granada
pengemb
merespon
pencakar
technical
mendahului
starvision
kotawaringin
##iho
##yuz
##otti
##pter
##trip
##okong
hort
iowa
unix
balok
cowok
salon
##antauan
farrel
musume
guevara
sindang
liriknya
aktingnya
kelembaban
dikeringkan
menghapuskan
semikonduktor
bk
##ossa
##pola
ezra
##academ
##jubkan
alber
dansa
honey
husain
wander
##kumpulan
kompreh
tembang
pabrikan
terdepan
penarikan
##0⁄
##fram
##fuji
##omar
##writ
cun
mey
nie
ura
##orius
vita
incre
menan
terra
##michael
monaco
schwar
supran
##literasi
banggai
besaran
dilanda
θ
##nip
##allo
##aste
heg
sty
##anyon
##david
##eyasu
##incir
##romat
##voice
heat
##aragua
##singap
##street
pione
terap
willy
##amaikan
dewata
discus
parang
moncong
disimpulkan
##=0
##hm
##eim
##mec
##tay
##arit
##benz
##stop
##tema
ngc
yul
##tivis
momo
##/0000)
##adatan
##imanan
##origin
reson
rolls
##undanya
gerard
miranda
pemutar
benyamin
didengar
cemerlang
important
reference
kesayangan
##heus
edi
mae
##apian
##eston
adip
pali
##-000-0
##hangul
##minton
janin
kafir
taken
abbasi
garcía
lukman
pigmen
cempaka
kapolri
writing
##yawaratan
angklung
payakumbuh
bersemangat
demikianlah
##)-
##ла
##eson
##mitt
##tokyo
dell
todd
batuk
ionia
kemal
mafia
##ingsewu
uranus
membuah
ambarawa
membalap
kebayoran
memusatkan
mengiringi
mempergunakan
##ρι
##apu
##kend
bai
##adewa
##anime
##athon
duka
easy
gers
rené
rajin
wahab
##entucky
kaitan
kernel
rahang
##cription
leading
palermo
##pengusaha
antusias
dikontrol
jefferson
dipercayai
kerohanian
terfavorit
##.0,
##psi
##reb
##rer
##tml
hō
##esty
##oten
##sure
gui
pizza
rings
sungk
bersep
direksi
lebaran
terisolasi
##ván
##atri
##pose
##prov
##qing
hes
##dusun
krem
##buddha
##ushima
merag
tourn
##elangan
kurung
switch
therav
numbers
sandera
kalijaga
bisnisnya
yudistira
parahyangan
##edu
##iagn
##idol
##gigit
##ipkan
##rekan
hond
umbi
vera
##elemen
##eranya
albat
genom
lakon
terla
baling
##untingan
working
henderson
penyajian
amangkurat
kepedulian
##00"
##shō
##uhu
##ukh
##iono
##ising
jawi
pisa
##enuhan
(00%)
inang
italy
karat
kekej
lippo
might
naomi
parma
rhine
symbol
verona
dipecah
biblical
jaraknya
tabungan
bertemakan
digulingkan
ş
##joe
##cola
##jeng
sic
##ohong
##okawa
##ophan
anis
haus
plur
##ikeras
kyung
photo
prosa
wendy
islami
bertiga
secepat
subtrop
berlabuh
ensemble
bolshevik
terbaiknya
disempurnakan
##ça
##etin
##iona
##opal
##prot
##shah
aub
##aking
##encyc
##imper
##rokan
##seudo
beck
lamb
##adanya
##gender
##ration
armed
bidan
yogya
alergi
britan
gelang
powers
benggala
gregorian
sampingan
bersikeras
perpisahan
##ер
##ikum
##wung
shr
##chaft
##seong
bada
muse
##omulyo
erosi
polos
rimba
value
behind
rejang
##sertakan
0000'',
gerhana
indikasi
peziarah
isterinya
serbaguna
berkurangnya
##joh
##yev
##yok
jed
zep
##amban
##sebab
##upkan
bowl
duel
info
##-0000.
betty
cameo
fauzi
memin
parti
(0,000
dalton
##ocladius
anarkis
romance
bertubuh
jenisnya
##eksualitas
mangkurat
dikuburkan
menguatkan
mengesahkan
##tac
##bani
##simp
eve
usb
##quest
##reich
grim
##escens
fluor
pasta
ashley
wasiat
##kekuatan
##umpuhkan
indosat
jawatan
menangg
##awatirkan
frontier
nilainya
pringsewu
beribukota
penyerapan
mengaktifkan
penandatanganan
##gum
##kei
##wija
fai
jol
pmr
una
----
aero
boat
brut
cran
cros
pans
donal
topan
events
expres
tercer
kasihan
menteng
budapest
trisakti
pelaporan
tradition
menyisakan
penanggulangan
nh
fei
paw
tio
zoo
dato
nice
pana
proy
lazio
mouse
aisyah
hispan
menafs
yordan
bristol
harbour
terkend
winston
##kebijakan
bagaikan
mahayana
pemetaan
students
bernuansa
dibacakan
menafsirkan
sinematografi
##ffa
##hia
##tad
##romo
##udia
myr
nog
##block
##etnis
dama
jaga
##tenham
donor
serbu
stern
##kristen
trauma
andalas
malaria
perfect
tatkala
ketertiban
kopenhagen
meresmikan
pemantauan
percabangan
komprehensif
permusyawaratan
##ws
##dek
##nard
kuh
yor
##witan
help
html
reno
##ophila
intra
raven
##urutkan
forbes
hasrat
persip
antonius
hokkaido
##pemandangan
jurnalisme
modernisasi
##lv
##doba
##epit
cij
dea
few
##bucks
##inian
##lytus
##oklas
##ronim
##ugasi
chit
lakt
bulus
digel
##atipula
##kostrad
bintan
kelabu
believe
kampong
longsor
holdings
oklahoma
alasannya
pedukuhan
pergaulan
penghalang
menakjubkan
memberitakan
##.);
##insi
##ovie
##sisi
##tiar
gps
##candi
##polit
mono
obor
poet
putu
deriv
dhani
excel
lydia
sunny
trend
ieyasu
pemuka
00.000.
bantalan
countries
morfologi
dipekerjakan
diperhitungkan
##hyl
##amis
##gong
kpk
##upang
eduk
kawa
suff
visa
##ianati
##tangan
:0000
betul
katai
yudas
archae
canter
depdik
gustav
istván
pieter
alokasi
bombard
berbadan
primitif
substrat
anorganik
konsensus
kegiatannya
##cé
##hap
##irk
##tol
ew
##hika
##uasi
##urif
gim
spy
##ensik
grid
kult
kutu
shal
torn
##elawar
djoko
genap
khair
meyer
00000,
aurora
vosges
##iversary
bradley
caranya
elliott
siantar
stevens
##komunitas
##ophronica
teologis
xinjiang
penugasan
tengahnya
##ahn
0×
##team
yao
##annon
##endek
##imaru
##level
##maret
##tujuh
jago
kios
##bijian
dicap
katup
wulan
##ampaian
##periode
mencur
nether
gugusan
mencium
pertiwi
##aktivitas
hermione
amendemen
tenggorokan
##cip
##lea
->
pj
##$000
##aine
##ebas
##vius
fbi
ips
crim
sagu
trap
##anning
agent
karun
##pokémon
albums
restaur
mendekat
orisinal
suspensi
bergambar
democracy
nominated
valentine
prestasinya
dd
##kosa
##olev
##ovia
:''"
grac
penn
tabu
vice
##asalah
annie
cargo
tanya
tungk
berter
conver
matsui
sekjen
include
springs
includes
kotabaru
thousand
000.000.000
bertambahnya
ave
mba
##phria
scan
busan
creek
metam
schol
sidik
##angkali
##laksana
leslie
newman
##........
amazing
pertiga
kontingen
dikhususkan
penyembahan
##oms
(#
(£
##elon
dud
##bbean
liem
mila
miri
##ometri
##people
##tarian
kalla
pekar
##koordin
digali
faisal
magnus
metana
pesona
risalah
telecom
patricia
dibuatnya
gilirannya
mengesankan
menginspirasi
##chn
##nac
##nal
##yst
##isse
##sian
ntt
chef
##berita
trofi
radang
baldwin
sanjaya
assembly
genosida
tertunda
ketebalan
disebarkan
jenazahnya
sinaiticus
pasangannya
solidaritas
ع
##ück
##acar
##nnya
eti
##bubur
blan
isid
raka
syst
##evitch
##iksaan
##utusan
hibah
##ompokan
burhan
ijazah
##britania
kantung
kimiawi
melemah
grobogan
refleksi
malayalam
membesarkan
##kle
##anty
##enig
##usty
vip
##chant
##embel
##omega
nani
oise
rend
quick
ronal
##ibarkan
##western
beregu
dipati
pascal
##desember
##kurangnya
approach
bermusik
negerinya
renaisans
0000-00-00.
sukarelawan
menerbangkan
##mix
dü
##oros
ipb
pie
suc
##artet
##dance
##matan
gali
hawk
##etooth
canon
navig
quest
samoa
##andakan
ambisi
arteri
kalsel
norton
##ogenesis
concern
victory
##peringkat
countdown
diandalkan
dicetuskan
kesusastraan
##yll
##/00/
##apel
##clus
##enze
##horn
##iled
##inson
##sumat
##ushin
cess
mist
built
langs
kharis
fukuoka
jasanya
magetan
merkuri
pelosok
samaran
serdadu
setting
beringin
dijatuhi
cleveland
pencurian
menyalahkan
dipenjarakan
##ís
##kari
##orig
ino
lol
##astik
(0).
anus
dend
##artono
bertr
senar
stres
ananda
kerala
ranjau
southe
sulfur
tunggul
warrior
giuseppe
lahirlah
budayawan
kebalikan
mencukupi
prambanan
menghimpun
parliament
praktiknya
å
##jud
##bane
##febr
##gius
##naan
##ordo
caf
##ovsky
arak
cron
sich
##icsson
##olepta
eugen
toshi
##olophon
dihind
lelang
##wayatkan
marzuki
vicente
cangkang
##lunatipula
##university
baltimore
menerangkan
##üh
##voi
ij
##homo
ahn
ffi
rij
##detik
##short
##siapa
lund
medi
salt
##aduate
##undaan
##william
aborsi
kancah
simple
sukhoi
mencuci
moderat
kemurnian
mengarang
streaming
##olophonotus
penjelajahan
##’’
##ads
##haw
##ayam
##illi
##ipur
##oret
##tiva
niz
ons
phd
##oroti
adel
dame
shep
##anahan
##ancana
##kosaan
##league
astra
pemin
##ologies
antark
invent
memasok
meranti
lorraine
terpadat
komplikasi
programming
##nea
##ebra
##okie
fia
gnu
##itium
##ostik
##puisi
attr
crew
glen
vand
##ilustr
mesti
##spanyol
animal
bangga
dimasa
garcia
groups
menyet
rescue
ceramah
panggil
terduga
membacakan
menginvasi
spesialisasi
##gul
##fron
##hias
##sosi
psm
##ubang
cres
isha
karel
hebrew
komuni
lemhan
menginap
proporsi
##esisternus
menyertai
considered
menolaknya
##ен
##cic
dt
##fran
##rush
##echia
##irama
craw
giat
krab
zeni
##atives
##rotoma
linud
menged
mesjid
digemari
biarawati
meragukan
municipal
purwodadi
##württemberg
##edes
##foot
##teng
##walk
ley
##kamen
alim
homo
nark
nike
alpen
curam
klaus
sepuh
berseb
magdal
gelarnya
martabat
theodore
kaligrafi
pengundian
memberlakukan
##kb
σ
##(''
##aray
##pria
##word
bih
rav
##tonik
coul
hund
##chenko
limit
titus
torah
##uliakan
fujian
jerami
kendari
nuclear
runcing
ericsson
##yit
##gila
##irik
hyo
pej
soh
zap
##000-0
##adiah
##ayang
##louis
##ández
knot
saur
makau
monog
tales
##benteng
dorong
##muridnya
diadili
ditawan
sesepuh
bretagne
hamparan
mukjizat
churchill
ibundanya
kelelahan
memprotes
achievement
anniversary
##hung
##tari
##ugar
##istin
##layer
##raman
lgbt
nano
##pierre
##oloskan
##pejabat
djarum
kirgiz
kromat
remote
chrisye
pencuri
teratai
infantri
persebaran
kependudukan
##yra
##mall
##only
##uben
00"
ate
cid
"...
##itsune
anand
braun
falls
##icester
##ulasikan
bachchan
kompresi
menempat
menumpas
manchuria
presidium
##0:
ua
##woyo
bam
jap
bris
mamm
midd
##ampuni
##musisi
oasis
syams
memant
akuntan
bourbon
lumayan
pondasi
bangkrut
berbukit
monmouth
scotland
gelembung
guangzhou
mcdonnell
turboprop
dibentuklah
##eye
##yna
bd
##kund
osp
##known
asim
dent
give
kasa
##ragiri
karma
polis
tenun
##helatan
granat
mendik
nurani
berdamai
bermasalah
##area
##enai
##iska
kyu
##anggi
##biasa
##budak
##efore
##ichte
##icket
duck
fluk
moor
trev
bromo
guest
menor
komika
suharto
terkons
anjungan
belerang
bersayap
dikarang
geoffrey
mengenyam
additional
gerombolan
##fb
ה
##mpr
##amas
##anis
guo
biot
shig
##utunya
gulat
kalam
mirza
kalung
lontar
sepeninggal
bersebelahan
##opl
ej
ey
##case
##esto
##romi
arr
##dekat
##titan
sesa
univ
allow
pneum
stupa
bayang
candra
sperma
torino
heights
kannada
bunganya
konspirasi
menyinggung
pendinginan
vig
##class
acid
jeon
##ukadne
nikel
##ewatkan
##unggang
ibadat
suling
ketahui
platina
serbuan
000-000,
chronicle
perhelatan
kesetimbangan
##ор
##kav
##lix
##vio
$0
##foni
##ilda
##uwen
dou
##-00),
arie
dwar
iata
kuku
##angkis
##antine
##zionale
amonia
gadung
iaurif
paradi
factory
indones
lanskap
quraisy
squarep
pengasuh
diperiksa
kesedihan
berlangganan
##εν
ipt
etim
iraq
karn
sepi
##chelor
##hingga
cyrus
humas
lunar
manas
mendo
revol
##hynchus
melaka
papers
runduk
##alolepta
further
bergeser
kentucky
kolektor
meridian
normandia
##sb
##amak
##apas
##dorf
##thal
##ypta
cet
##inius
##james
##olulu
bath
cali
praw
jesse
kacau
karam
kesib
ketik
kosta
oksid
effect
ramuan
##ukadnezar
inginkan
vegetasi
particular
##ли
##cup
##iasa
##jane
dae
gsm
ito
##fiksi
##odera
##tives
fear
bakso
##ederhan
##oplasma
duryod
isabella
proyeksi
##ply
##nail
##osol
nmb
##acita
##imasi
alwi
bean
cctv
león
scha
tomo
##minggu
becak
bilah
brief
magma
oppos
##chinese
##dinasti
##ulation
ambang
fosfor
kijang
pocong
finance
reduksi
##inderella
molekuler
panasonic
menerimanya
independence
sekelilingnya
##xt
##dark
##gung
##kert
##makh
##orax
##rela
pdf
une
dash
##acaran
##apakah
draft
senam
wells
bermin
punjab
santai
deretan
berlebih
mangrove
bluetooth
penyiksaan
diasosiasikan
mempersatukan
##ет
##udh
##urr
gk
##eppo
##okoan
##sybra
soon
tapak
danger
gujarat
emmanuel
kognitif
wolfgang
kebesaran
pendorong
pekarangan
##atr
##wol
##paus
aru
##udaya
kobe
##abaran
##esalan
elena
fairy
marty
mulya
named
ramon
sybra
pietro
keluhan
##embalinya
creative
menghantam
menjunjung
nebukadnezar
dianugerahkan
##+,
##dpr
##enov
##obik
##icans
##igami
##speed
cyan
pell
mercy
rahib
##akarida
origins
brahmana
ditempat
election
mematuhi
matsumoto
ditransfer
pemenangnya
philippines
##erno
##shad
##sour
alp
##arina
##warni
ding
dyah
lent
ryuk
susi
trav
zamb
##terian
katek
perez
##amalkan
##gerbang
berber
jateng
jinnah
lemari
strike
bercita
mahakam
memihak
antibodi
shopping
badminton
direktori
berpacaran
pengesahan
##vt
##cik
на
##0.00
##found
##frame
##siswi
grig
kuad
vina
##screen
basal
worth
camera
powell
ridwan
##nasional
##ontarkan
klemens
nikolai
saputra
subroto
indische
kelantan
pembatas
dipanggang
membenarkan
##abo
##hima
##umph
suf
##rinus
agre
dale
fusi
bisma
crime
murka
puspa
tolak
##kawasan
dengar
endang
mixing
nicole
voting
pemukim
primary
ditinjau
evakuasi
##ederhanakan
manufactur
penyerbuan
ketinggalan
##uur
##pasi
btr
yue
##itius
nadi
zara
##brecht
##menara
tonga
vinci
bagasi
balada
update
##evakuasi
gemilang
produced
caribbean
leicester
dibentuknya
##err
##hun
##ekah
::*
##itari
##lingk
##ropus
##sudah
kwan
peka
supr
hanna
kilat
table
telev
chance
menyed
scient
tunggu
diunduh
mentega
mushola
nanjing
rahwana
##nephrotoma
keranjang
pengkhianatan
ś
hr
##kton
bbm
##atani
##imura
##jolan
akum
chou
lies
nico
##ashima
##endung
##orsium
petisi
roland
destiny
tonight
writers
accessed
diminati
kanannya
simbolis
suporter
ultimate
operations
##sg
##óp
##vit
##ledon
essa
indy
rule
##summer
basri
unter
(00%),
diklat
kirinya
##khususnya
hayatnya
kawasaki
pematang
digantung
janganlah
canterbury
diaktifkan
tajikistan
##ucn
##ebal
##ekul
luo
##alias
##oling
##sweet
diva
zach
duren
supri
angkor
desert
palmer
sentuh
lindung
animated
menyelam
terlarut
dijangkau
memadukan
eksploitasi
membolehkan
mempertemukan
##ürk
lt
##(0):
##ehida
##oceph
caus
coel
mnet
thal
bekal
horis
mungk
paolo
tarum
tenda
tsana
brooks
conrad
pangsa
kuching
replika
(000.000
pelbagai
ekstensif
pendakian
##mahabharata
membuahkan
penghitungan
##tae
wł
##quid
##ulah
rox
##kemen
##virus
dmit
kras
0000"
khali
seism
trial
kraków
kronik
legacy
yehuwa
histori
selayar
krakatau
rekening
memproklam
renaissance
kemerdekaannya
##dc
##chio
##mort
##rosa
hae
jai
mgm
##ahuan
##blood
0/00
cabe
crop
##ichiro
bafta
mahat
sampo
##aringan
judith
murder
saturn
greater
moravia
protest
##nepenthes
islamiyah
lempengan
internazionale
##-,
##0''
##lahu
##opro
+00
hoh
sog
##ohkan
diin
kick
##antrop
makar
padma
##andaran
##ektorat
##odohkan
guntur
porter
##aktifkan
##ederhanaan
greenland
menanamkan
seperempat
tentaranya
illustrated
pemerkosaan
lingkungannya
##hyo
##jir
wy
##abur
##gigi
##jiwa
##mary
dot
fog
##hatta
##islav
meni
##engkar
##family
##online
helic
cessna
fergus
kokpit
mangan
sastro
##ibusinya
pendopo
##lahgunaan
bengawan
deutsche
prediksi
squarepants
č
##maz
##ique
##itya
boo
##aight
##baden
##nomor
burn
kush
##esekan
##ffield
chain
cream
sihan
become
lumban
pencah
holding
bernomor
wakilnya
magnesium
pertokoan
protection
skandinavia
##loy
##emin
##esak
##kuda
##turi
##elahi
##peter
("''
cipt
pusp
wool
##eopsis
ampel
hamka
keser
nikah
sidney
strand
tersen
bharata
pemasok
sources
kulitnya
negarawan
pengintai
starbucks
documentary
##.0.
##sah
##colo
##oras
##week
cai
##batan
##dikan
##ilium
##quist
##rican
lala
##edahan
##eldorf
##secret
onder
##saluran
imamat
kartas
padatan
sombong
didasari
partainya
theravada
pengalihan
berdiameter
memanggilnya
vr
##dium
##orin
##istic
##omiya
amos
falk
grad
kema
##acetan
##acunan
##schild
##syarat
ritel
behavi
hannah
##japanese
fischer
diekspor
diktator
reynolds
signific
sihanouk
terlatih
kelelawar
sederajat
dirgantara
pencitraan
kemenangannya
##ατ
##hev
##irut
##umar
boa
loh
bhay
farm
##selain
00%;"
abbey
cally
drake
fifth
gwang
spain
##respond
depend
genera
signal
##komponen
admiral
aljabar
bennett
intinya
isolasi
oseania
reaktif
baptisan
ultraman
editorial
basketball
konfrontasi
mengonsumsi
##apy
##bob
##akes
##jojo
##rill
##after
##borne
##endon
alba
janet
pawai
##artinya
##central
dipicu
laptop
powiat
sintang
##intaannya
pengirim
provence
classical
diseluruh
0000-00-00
konsorsium
menyimpang
##ilustrasikan
penemuannya
##pag
bw
##'');
##ilap
##type
ppd
roc
##girls
00-0
estr
fakt
petr
ordin
schne
##alkohol
perker
script
disiksa
memburu
albatros
makamnya
(000-000)
eliminasi
menyusuri
diberitahu
dicantumkan
##cav
##smp
##xen
sō
##door
dap
##ellia
##pemer
hook
nadu
saba
ubur
##berkas
##jinasi
ching
invol
nixon
omega
paguy
pitts
putar
taraf
##adangan
##umacher
00:00,
kompak
milton
mystery
unicode
fighters
hitungan
penipuan
terbiasa
##indonesian
cathedral
kerapatan
penasaran
yorkshire
richardson
mangkunegaran
tanjungpinang
##ded
dk
##jala
##teur
##thel
##anjuk
##eleng
##karna
##kreis
##tauan
burg
##romini
holly
indic
intro
misal
mukim
sendi
susun
zakar
##deeling
##ellidae
##iformis
curiga
hikmah
irisan
underst
aeronaut
frederik
bilateral
duryodana
greenwich
meloloskan
memamerkan
alternative
menenangkan
##-0/
##qin
##unk
##viv
##rift
ayy
##ambik
##anton
##ators
ketr
lewi
pole
ruby
##isensi
##mawati
balet
kapak
kubik
tajuk
##agustus
wolver
anthrax
defence
pasaman
##onsiliasi
sardinia
theology
berkelahi
bersilang
dipersenjatai
##ased
##otto
##antra
##jelas
##linik
##riage
chel
dens
gior
ulah
wajo
xbox
##baling
henti
maine
moses
porno
##academy
clarke
combin
disapa
pionir
taufik
##imbledon
andrews
anyaman
forward
##bagaimana
bercocok
klenteng
bentrokan
berpegang
microcion
peluruhan
pentakosta
##mn
##hoe
##tua
##ulla
aan
##earth
icao
##scream
quinn
appear
compos
berland
duniawi
ekornya
kencang
missile
temukan
terjaga
belalang
jermanik
memasarkan
mencatatkan
meteorologi
penyempurnaan
##.'
##sev
##adas
##embo
##iput
##kimi
##rano
##undi
dre
mui
##fokus
##ggest
huta
luck
oval
kinab
##akannya
barack
brimob
excell
havana
indera
inspir
pahang
priest
verlag
xavier
akurasi
pejalan
serapan
takeshi
karbonat
kemacetan
penguatan
dihadapkan
tsanawiyah
mengubahnya
penyampaian
konstituensi
##lp
##iwa
##noy
##tec
##kong
##sson
##yudi
emi
##berat
##erium
##esias
##isuke
##lokir
##marie
reed
silo
tuba
##pabrik
beyon
disum
glory
krabs
magis
bomber
gilang
##personal
antigen
jauhnya
kabarnya
property
pensiunan
diterimanya
pendiriannya
microcionidae
menempatkannya
penyalahgunaan
##dock
sue
##uncan
tjok
zomb
##endorf
##ujuran
##vatory
kasat
##menjadi
active
ekstrak
frances
lelucon
evidence
hercules
keraguan
kurniawan
pencemaran
fotosintesis
membedakannya
##bih
##elok
##hijau
##utara
coca
semu
##enangi
alone
anang
berau
kebid
latih
perth
rugby
koresh
kurban
mycale
melantik
penundaan
jabodetabek
menguraikan
##gao
##usu
##zzy
cp
##awir
##dulu
##erap
##igne
##ofil
##ukus
##wash
auf
##sisik
leuk
nini
tond
toto
##soviet
fresh
leone
pemda
##esterol
reader
bentang
carroll
cynthia
parsial
phillip
maladewa
mencinta
psikolog
##formasikan
menghemat
pengairan
terobosan
keruntuhan
pengendara
penyuluhan
karakternya
menampakkan
menyuarakan
##nut
vh
##agon
##ekam
##haus
##orda
##uhid
##ulya
:::
##bakar
##width
kuwu
laws
sani
ulat
##border
(0.00
benci
kenji
shire
##engganu
dipuja
milano
advokat
empiris
esensial
pendahul
prakarsa
didahului
associates
chronicles
penyuntingan
permukaannya
о
nk
##beat
##enag
##guer
##lava
##opul
##eding
##isili
alga
bunt
hera
nata
##ematis
##kaitan
hugues
kauman
pajang
episkop
romania
vampire
aromatik
menanjak
integritas
berlangsungnya
##aho
##anse
##onym
##toar
##ucuk
cile
furn
ipar
##opatra
elast
gemuk
inder
viola
##fsirkan
anchor
raihan
##asevitch
landing
simpati
syariat
memanjat
propinsi
berlindung
kompensasi
penghujung
а
##opy
##chlor
##iklat
gori
panja
##omachus
cruise
injili
resist
##wayangan
sisinya
thorell
palawija
province
abbasiyah
produknya
democratic
dipulihkan
kesemuanya
schumacher
statistika
institution
##.(
##ieu
##brak
##hwan
sae
##/000/
##based
##elsen
##iamat
##iyyah
brew
took
##comune
abdel
began
comes
fidel
gusta
kehar
uttar
casino
impact
konvoi
##independ
keripik
hengkang
rintisan
insurance
interface
kekejaman
berkelompok
0000–0000''.
menyempurnakan
##phi
cb
##idur
##pell
elf
etn
rss
##konsep
##normal
agrib
##aruddin
##hijauan
##makhluk
##monumen
always
marcos
matsuri
ketidakm
possible
berselang
kebidanan
kuliahnya
languages
menggarap
menyoroti
southeast
berpenghuni
environmental
mendiskusikan
ae
qa
##ecca
##meri
##tala
gki
##asihi
##igner
béla
hair
kiki
lara
pool
##andian
##andong
##orient
0,0%,
00-00%
hipert
wesley
##elektron
gombong
dibagian
monument
##hymedesmia
menjemput
metromini
tersenyum
chamberlin
dipanaskan
dihidangkan
architecture
##ims
##tii
##comm
##rons
##usei
##usha
##jipto
##scape
000:
cuti
hany
isai
mojo
##setiap
retro
sangi
attemp
magang
rather
sewaan
tragis
##jadjaran
##tiongkok
married
honduras
berkelana
korporasi
konstituen
##oen
hé
##anne
##ilau
##isik
##estic
##oscar
##ysław
aldo
hast
sats
sett
thus
troy
##aksara
##erling
irish
riley
##tentara
##unyikan
marmer
safety
taktis
gondang
kontinu
sisters
ekstensi
kepanduan
subtropis
tangkapan
melemahkan
mengenalkan
pendahuluan
##,0
##acc
##loh
##tbs
kv
##otar
fey
ned
zay
##danau
##mulai
gaun
kerk
tita
##anthus
##second
aksel
haris
intim
mccar
ditump
perist
schumi
diawasi
menetas
menjauh
ranking
spektro
##ichondria
orthodox
plankton
question
superson
bengkalis
chevrolet
bertekanan
dikukuhkan
kekeringan
menyalakan
perhatikan
perkenalan
mangkunegara
kö
##00,0
##akel
##aset
##ious
##joyo
##lotr
jem
##atara
##belle
##metal
kyle
vila
agreg
gagak
sally
witch
##awijaya
##luaskan
##stadion
higher
kemand
deliver
freeman
novelnya
indragiri
supernova
berbanding
kecoklatan
penyimpangan
##pay
##pul
ct
zü
##..."
##bula
##obak
##tivo
##zali
osi
##stock
seal
seth
##dolich
diver
melly
efesus
mancur
selesa
speech
wester
berduet
mangkuk
namibia
##contohnya
category
commander
influenza
karangasem
dipancarkan
memanipulasi
diaplikasikan
##boh
tp
##bone
##mega
soe
##.000.
##hanud
diti
reng
sial
urin
##entius
##ogenik
jalal
karir
kongl
merry
siria
actual
berkah
sergio
fiction
pelacur
related
sinkron
##pelabuhan
eusebius
included
definitif
inskripsi
kesebelas
disuarakan
memusnahkan
terkonsentrasi
##aer
##cot
##vor
##usin
cen
zig
##asley
##manga
##érica
synd
ukir
##member
cable
ilyas
mekah
relik
selim
##imbangi
##mungkin
fourth
mirage
mistik
parodi
##anggakan
berpihak
episodes
favorite
kutoarjo
samantha
menumpang
pertapaan
territory
dirilisnya
pembalasan
kontributor
##iya
##shū
##akon
##ilit
##ilyn
##isen
geo
hwa
zal
##-000)
##aspek
##esona
##schap
boot
lele
rate
##dibaca
assam
dumai
genta
mello
porsi
utomo
##argumen
##tingham
badung
beirut
though
subject
bordeaux
conflict
persembun
difungsikan
netherlands
##fk
##aqu
kt
##bins
##perb
##upat
jad
##anala
##maria
##owska
mani
##ession
dolok
garda
klein
langg
##oktober
burger
dirimu
shinee
##andainya
deteksi
firenze
kakashi
tumbang
balistik
dikenang
sintetis
menyeberang
##-0-
##hav
##jie
##rij
db
##crit
##ikil
##tani
##tila
##uche
kpu
##ammer
##ekuan
##erian
##essen
##lehem
dede
twil
0.00.
rawat
##/0/0000
##adinata
##omorpha
amelia
manchu
##emparkan
##issodend
memperd
baudouin
correspond
##issodendoryx
penambangan
sosialisasi
sekembalinya
termodinamika
##ío
##ska
##uak
##engs
##imba
##obac
##seok
##umes
##unch
xav
##jajar
klad
##ashita
##oleksi
arsen
dayung
sragen
effects
kanonik
melamar
perlunya
kerabatnya
photograph
saudarinya
application
pandangannya
dipertanyakan
perempatfinal
##gp
λ
##-0),
##atwa
##dosa
##eban
fes
iod
try
##areng
##dosen
##yamat
aqua
clif
feel
gast
pata
tape
vitt
##porter
bungo
panca
piatu
stade
vasil
##ukainya
essays
garnis
##indosiar
bertahta
cuplikan
poseidon
messenger
padjadjaran
##apak
ufo
##chard
##eanor
##kunya
##orpor
adap
dres
gaon
urat
##itaire
##satuan
##tainer
initi
sasak
ushul
##lamanya
heidel
sembah
eduardo
membaik
mendaki
menular
kesucian
menjauhkan
kesenjangan
mengikutinya
##ios
##ção
gw
##wani
dru
##calon
##ensia
baut
rais
thro
##ekukan
##rement
adnan
banua
fonem
manok
##aswasta
##sayuran
makkah
searah
##industri
hunting
misinya
rumusan
tembikar
fellowship
##ík
##fum
wc
##glee
bpd
##astra
##entes
##rahan
bodi
joão
masi
urdu
went
yard
##engers
##marine
##violet
berkh
gokai
lawas
sukam
##praktik
##walayan
bonjol
konver
matter
prayer
vettel
##anangkan
hartono
natasha
diaspora
mozambik
tektonik
##kecelakaan
ketiadaan
soekarnop
dijanjikan
berkecepatan
nr
##boys
##econ
##witz
kfc
lid
##jolak
juda
moda
tsub
##ijinkan
##sendiri
##ulitzer
suprem
akronim
contest
berbaris
sequence
xaverius
dibungkus
disunting
0000/0000.
dikerahkan
##abc
##lut
##pow
##alli
bena
eras
idea
wadi
arung
damon
kehit
siaga
kiprah
##komputer
disalah
dorothy
liberia
sinonim
vanessa
harmonis
pengarah
pujangga
specific
demonstran
penyelamat
terdegradasi
##wy
##six
esc
##0000:
##holla
##ianat
gare
haid
knil
sanj
##oxford
autom
cakar
diare
pengu
putin
weber
##impahan
button
gotong
kosmos
mizuki
pakuan
teliti
beograd
silesia
daughter
received
warriors
##permaisuri
membimbing
brandenburg
dipercayakan
##epha
##omis
##plus
zhi
##liber
##odont
"000
konv
lauk
poli
vega
##rogram
##terium
fleet
gould
parep
paula
stras
tomor
##misikan
ryukyu
takeda
penghun
berpasir
portland
##wawancarai
favoritnya
perbekalan
sentimeter
##lys
##conf
##lost
##pand
##path
##tara
##umba
##etris
##inten
##santo
##siswa
acap
itik
stam
tapa
farah
luigi
##adysław
##digital
##project
destro
##pahlawan
00/0000
berbuah
product
perampok
dicurigai
kehabisan
kelenteng
kepastian
pemasukan
perakitan
pembajakan
pewayangan
kelengkapan
penyebabnya
relationship
##rai
##alau
##emud
##etar
##ikus
##keka
##kook
klu
tuc
yoh
##rates
##royce
##simon
duty
##eburan
##ennium
##eptida
kript
stark
##cluster
basque
mertua
sergei
sulliv
sutera
##struktur
galileo
nganjuk
aparatur
turunnya
berlimpah
berurusan
karawitan
kelulusan
leadership
berpendidikan
##leng
##ński
##ospha
bumb
juna
##season
arbor
claus
donny
kadir
alicia
diakon
medang
royong
enrique
untukmu
doraemon
keracunan
ketrampilan
dilambangkan
##eff
##(0),
##aldo
##assi
##liku
##belum
##ciata
##eburg
##oween
heks
mosa
arrow
blind
kabag
kabul
maros
prote
berund
kapsul
nestor
tidung
revised
kinabalu
marxisme
dihindari
dihidupkan
koreografi
menanggung
restaurant
##)".
##cok
##jac
##muk
##waw
##whe
lk
##arsa
##elda
##stra
mua
##biara
##ellen
##kyung
##oning
##üller
lili
##arapan
##ashtra
casey
jenny
jihad
licin
nadia
ruben
suzan
##dayanti
bawaan
brooke
cermat
horror
sacred
nasabah
kepuasan
koeswoyo
pulitzer
swalayan
dituangkan
kondisinya
0000–0000''
pemimpinnya
publication
terbesarnya
dipraktikkan
##hah
##qwa
##rae
##anku
##asut
##joon
##mila
##otel
fix
lrt
viz
##cameo
##elkan
auri
bobo
hole
##energi
elect
kibor
misil
score
arsyad
danton
ganjil
memuja
praset
safari
##sseldorf
butiran
chapman
prospek
sanders
sensasi
filistin
pembesar
richmond
##ographical
puteranya
dibenarkan
probabilitas
turkmenistan
##но
##bec
##udy
kj
##echi
##ikah
##waru
και
##atoes
##janan
djam
lens
mild
root
##winata
arbit
muria
resin
##temurun
##tenberg
00.00%
mahluk
menget
shinto
bermimpi
sullivan
zakharia
bertengkar
menugaskan
mengangkatnya
##ryn
lg
##flor
##khas
##sand
##tika
##erman
##icola
##metro
##pengg
##tiang
##ético
aust
daha
epil
jala
kwee
##ophone
bayar
javan
jules
marit
matan
texts
##ebihnya
##estrial
##tabilan
binjai
impres
lisbon
berbatu
budiman
circuit
kakawin
bertaraf
mulutnya
palangka
chemistry
mengemudi
penahanan
associated
kalinyamat
pembimbing
##fid
##lers
##tact
''-
mez
##oksin
##sanya
arri
lynn
move
nang
##omerat
ancol
bayer
blair
overs
spasi
##emarnya
anonim
shinta
##undukkan
bingkai
ciputat
horizon
prangko
synthes
function
musuhnya
guangdong
difokuskan
hidroksida
##ät
##''”
##jap
##yos
##ège
hb
##otte
##poro
##step
naq
yet
bres
hood
knox
nino
pare
rian
tjah
zhen
##battle
##nataka
##schaft
##tilasi
embra
lazar
disewa
pepaya
created
mariana
pioneer
warfare
kosmetik
morrison
melangkah
wrestling
diusahakan
pelarangan
terpopuler
ditafsirkan
melumpuhkan
kesempurnaan
0-00-000000-0.
##eul
dp
ika
ppi
olig
##ayoran
##bupati
##sworth
smile
##titanic
alumnus
sanggau
penjabat
hepatitis
manokwari
władysław
terkendali
tindakannya
penyeberangan
##yū
##οι
##loo
##nio
##elyn
wij
zar
##actor
##ontor
##orean
##tukan
kret
sion
##father
##spring
donna
latif
rokan
setim
##biologi
##through
chapel
declar
growth
mustah
nikita
##elektrik
berjaya
rowling
theodor
atlético
ditanami
mendanai
vaticanus
##pemerintahan
rekonsiliasi
mengkonfirmasi
##bez
##hou
##eras
##five
##inos
##rung
##ulsi
cox
##arnai
##harma
##istus
##oment
##umbul
diut
shiz
hajar
lahat
wakaf
##ofisika
##pertama
amanah
famous
haluan
rising
clement
kuantan
menawan
natalie
running
afiliasi
editions
ministry
scholars
akumulasi
kejujuran
nikaragua
strategic
progressive
##yya
##áng
##bulu
##coun
##eces
ces
etc
nij
##heter
seti
##antika
haven
korup
ledak
names
pakis
ridge
ustad
##mamalia
terpen
bertobat
brisbane
contains
honolulu
berangsur
documents
heidelberg
perhatiannya
ketinggiannya
г
##ilde
##yatt
apg
nub
suv
thy
##alisa
##anium
##chnya
##intel
##oglob
amen
fuel
jela
kama
oost
size
stor
##ecting
##instal
##romawi
dhabi
dicat
julio
rocky
rosen
##charles
belang
duncan
fiskal
membas
mistis
##antarkan
##lapangan
##ometimes
##revolusi
injeksi
pacitan
taoisme
##usianisme
mengecam
mewarnai
penyebar
realisme
sulungnya
terengganu
tinggalnya
bhayangkara
terpisahkan
##bee
##yeh
cj
##ckey
##itri
##kond
##mash
##omez
##talk
hlm
##osono
cash
dort
guta
iucn
yone
##ariota
aksen
fiqih
ilusi
lemon
meles
wiley
##jasanya
##istrikan
##terminal
request
reserve
ayahanda
konsulat
strategy
timotius
ditelusuri
profesionalnya
##''/
##bei
##uct
##asaw
##asur
##hair
##itai
##lach
##upas
'',
spp
##anion
##brook
::::
fres
glee
noda
wiki
##melayu
innov
melet
##-0000),
##individ
eduard
hatiku
kaleng
keynes
baiknya
menanti
opening
richter
takashi
beatrice
particip
theresia
tomorrow
wonosari
peranakan
pengembara
diprakarsai
disumbangkan
berkepanjangan
##zló
##java
##kill
bao
pog
##anten
kosa
mitok
polip
spora
coming
kyushu
length
nobita
pemula
semoga
animals
berguru
ramping
umurnya
##peraturan
berjumpa
hardware
kesukaan
pertanda
berkerabat
merangsang
pendarahan
##ре
##wet
##shot
stt
##pesan
##uding
##ászló
tomp
##konser
##umenis
bonif
choir
diane
hakka
myung
piece
tutur
wakan
##angalia
buwono
emerit
jungle
liturg
sajian
terisi
tomomi
banking
dynasty
kerupuk
mention
##persatuan
historic
kanisius
versailles
pemberitahuan
pelaksanaannya
##adv
".
zy
##rote
##ugal
##urin
tpi
##buana
##fauna
##ongko
##ostal
ceng
liku
moro
mugh
ojek
seku
teka
tess
##malang
soyuz
tekan
##derabad
##ibukota
amitab
carmen
contin
kojima
olahan
tolong
gautama
wedding
##kepulauan
garnisun
imajinasi
wimbledon
alessandro
dihabiskan
southampton
0000-0000''.
mengantisipasi
meninggalkannya
##aso
##hub
##yuh
uv
##food
##gede
##iros
##lady
##otos
##otot
psp
##chand
##uchus
arit
koki
tiff
tril
wana
##cusuar
##dowoso
halal
perab
fields
tungku
##semarang
konsesi
laurent
quality
konstruk
kecakapan
terkumpul
kompatibel
menyunting
##"-
أ
##atic
##oton
##ópez
clo
dro
ila
koi
nes
##ahana
##alogi
##bound
##broad
##ophyl
##uinya
asih
giok
inka
ones
amber
farid
offer
previ
rules
sakai
siput
tracy
##apainya
andhra
thebes
antoine
haryono
koramil
narator
disadari
lebarnya
mengidap
remember
disengaja
penangkap
investment
kestabilan
selebihnya
(0000-0000,
karimunjawa
memperdalam
theological
##0⁄0
##hij
##abis
##cina
##ipat
##ohar
yum
##champ
##pilot
##sberg
hkbp
niko
shri
vols
dinda
foton
kreta
lajur
notre
occup
sugar
##aranger
kerdil
weapon
kolabor
zakaria
didaerah
karnataka
kerumunan
oxyopidae
komisioner
makanannya
nottingham
pembedahan
koresponden
memprediksi
christianity
##ка
##onf
##too
##inth
##rash
##rika
faw
qum
##force
##paper
geop
gest
##aparte
##omatic
cagli
hamas
jaket
##jalanan
akashi
aleppo
asiria
keberl
bahtera
cinemat
surface
tonggak
perantau
kronologi
düsseldorf
technologies
dikeluarkannya
##chō
##onc
##agri
##ikai
##ivan
##lead
##leks
jir
lsm
##satur
atol
cuci
manu
octa
peak
##amatsu
palma
perda
trent
##special
burgun
calcio
danyon
diapit
##inginkan
##kenankan
bintaro
menusuk
perdata
simfoni
albrecht
macdonald
pembekuan
singkawang
pencahayaan
penggemarnya
##xq
##gih
##hye
kc
##each
##enak
tcp
##mengh
##ujang
jill
miko
nair
##george
anyar
brain
diary
diseg
ellis
jalil
kalip
migran
mirror
nordik
##ampurkan
cibubur
consult
message
schools
terbawa
variety
yosefus
batalion
berbayar
dicintai
kepadaku
tottenham
barangkali
pendengaran
##*/
##ack
##utz
dm
##rish
##usif
##adona
##icial
##oslav
gods
heru
mimi
tobi
##church
##elisih
bagan
barth
bound
quint
sonny
rivers
scroll
simpul
tindih
alquran
ganteng
perekam
chechnya
elements
mengawal
##pemerannya
hampshire
kelayakan
mauritius
menghiasi
sekutunya
menakutkan
diperbaharui
##dd
##basa
##etia
##leit
##folio
##icius
alto
aura
diaz
mash
phyl
saif
wita
##dokter
##uhanan
##victor
antis
hidra
lexus
palem
perpa
restu
ridho
##acarita
makoto
pembom
sumbar
##institut
##original
jazirah
pantura
sebatas
windsor
akuarium
bernaung
hurrican
infinite
dilintasi
berselisih
mengulangi
penggembala
ü
##bini
##frat
##jama
##maid
##pong
##some
amd
lei
oka
##buang
##tivar
##toral
fuad
heid
nero
##bahkan
##emaios
##leurus
fasih
homer
thorn
##eksinya
canyon
kiamat
menemb
##ublikasi
gardens
natalia
sulfida
##rihatinan
dibiayai
diganggu
identity
minamoto
parepare
##-00-000000
berlantai
mewajibkan
kebangsawan
perbedaannya
##budi
##iche
##raha
##iprah
##nagar
capa
clin
clip
doel
ferb
hull
kane
pamp
rust
##anthon
dehid
drain
gomez
grass
johns
##optimal
astron
diasuh
takluk
induksi
bundaran
pemangsa
menelusuri
tersingkir
konglomerat
0-000-00000-
mengevaluasi
##lb
(?
té
##bath
##ombe
##otif
##soul
##abung
##ersil
##oller
##penya
gone
leng
##pennis
##umbang
azhar
parts
twice
##takuler
ishida
polong
projek
siasat
tarikh
##walaupun
andaman
diminum
pembukt
cikampek
kisahnya
musholla
pebisnis
proyektor
dirumuskan
dipasangkan
satyalancana
##daus
##geng
doh
glo
##ennai
##never
##turki
##utani
koko
neop
nguy
rsud
soeg
##silver
apart
chern
metil
saito
##sebelah
carbon
daimyo
kewira
linkin
mansur
prefek
rahayu
remake
agregat
bastian
bavaria
holiday
hundred
makasar
supreme
advokasi
gerindra
marching
selektif
bondowoso
corporate
kapitalis
kuantitatif
mengabarkan
mengabdikan
diperolehnya
י
##nev
##atul
##beli
##eret
##gary
##tapi
jyp
oli
##oidea
##tujuan
##unanan
warta
(000),
feodal
kultus
lászló
desakan
karaoke
sejawat
bernhard
kamakura
miyazaki
mustahil
petarung
sikapnya
berkiprah
magdalena
mertuanya
plutonium
taksonomi
auditorium
penyesalan
##kö
##vb
fx
##cerd
##ippe
##khan
##othe
##pian
kyo
##contr
##kimia
##musuh
funk
hyde
lhok
tool
wies
##intosh
##taiwan
burke
donau
kaliw
kepan
malay
mulus
torsi
gakuen
hubert
kansai
kekelu
neuron
trayek
passion
portrait
berjualan
hamengkubuwana
keterlibatannya
##civ
##gad
##myr
##ambe
##bila
##deut
##hyuk
##riet
##uage
##ujin
pha
rej
##...''
##emart
##yawan
moab
nyak
stik
wais
##wealth
alain
aulia
rubah
brutal
chakra
duyung
figure
gangga
issues
khatib
matrix
deposit
dilukis
knights
relativ
terlama
tupolev
##christian
berkeing
networks
tertidur
berfirman
dikandung
mematahkan
pittsburgh
terbarunya
keterkaitan
##rí
##née
##pho
##-0).
##alut
##corn
##gayo
##leen
##suka
kia
yad
##entik
##jutsu
plak
##commun
##erator
##odohan
##weight
anion
centa
means
metac
polik
puing
##cirebon
##enovela
mayang
menipu
pimpin
zürich
##marachne
00-0000
akhirat
kawanan
masoret
sembari
semisal
bulungan
churches
ferguson
rendahnya
membongkar
kelompoknya
krisdayanti
000-0-00-000000
##fj
##sej
##berk
draw
drug
func
##omatia
##ualang
ayyub
irfan
matth
melej
neigh
shall
##ongyang
episod
gutawa
mengun
##reditkan
kompeni
primata
rebecca
jennings
keyboards
0000/0000,
fiorentina
perpajakan
bertunangan
established
conservation
##edel
##ffen
##olic
##raad
cey
##yandu
fell
tito
##public
mapan
sheng
##aksinya
bremen
dayang
hizkia
larang
maryam
##himpunan
concept
beranjak
governor
menghina
monogatari
berkeinginan
indianapolis
mengkonsumsi
homoseksualitas
##ße
##ησ
##0,00
##gula
##radi
##usim
##arman
##endar
##umman
cumi
magu
mift
rote
sass
##inilah
##lubang
barus
chiba
engel
equal
progo
(00:00
cemara
centro
tersed
##indische
américa
rachmat
##transport
palabuhan
pneumonia
polinesia
exhibition
memadamkan
keputusannya
##tio
##weh
vu
niv
omp
##agara
##ardja
##iders
##incar
aden
cebu
doub
jobs
pitt
pung
##inform
##ulatif
busuk
floyd
jelly
pergo
##chichte
##lagunya
dialam
isidro
konduk
##ayaannya
kromium
montgom
digambar
masjidil
sunshine
kemayoran
peleburan
terdeteksi
aktivitasnya
##shu
##hawa
##hori
##lean
##niss
##tona
stm
##aliza
##cheon
cock
dham
kwon
nath
##flight
##titude
bravo
camil
ganas
hanja
kamil
mogok
pemod
raman
sunga
##icomyia
##katolik
gedong
metall
mimbar
organiz
tanggul
tourism
##thumbnail
berdinas
saudagar
trinitas
disertasi
banjarsari
perhentian
##ол
##jus
##lig
##aryo
##cian
##olga
##ismus
##omial
##santa
gron
happ
shab
volt
##bisnis
##featur
##social
kakan
lópez
mujah
pemes
sumut
##jawaban
##komunis
putnam
kepopul
merauke
disangka
ekumenis
dibagikan
pemeriksa
ciptaannya
kolesterol
perantauan
mitokondria
tanasevitch
championships
##mé
##riz
##sio
##bish
##dick
##reng
##stad
cly
dry
plo
tie
##agnet
##ectiv
##lunto
##naeus
cili
watt
##tulang
lever
mayer
nakal
numer
raksa
watak
cities
dipers
lauren
models
perkap
sabang
seleuk
chicken
squadron
kehitaman
distribution
##ád
##exp
##mai
ao
rc
##ebol
##sens
hou
luf
##urnya
abim
esok
kuru
rejo
##alonan
##uarius
andil
istiq
laban
lynch
memal
molly
patty
sabda
##ération
buffalo
condong
desanya
meaning
wolfram
##alization
nyawanya
tomatoes
##onfirmasikan
dibersihkan
menghendaki
keprihatinan
proporsional
##ий
##ejo
##ujo
##ilee
##hoven
##tagon
##tahap
##urger
atma
dios
##onomus
lipid
migas
psiki
rambu
ratih
stmik
surau
centur
natuna
ubuntu
diakuis
michele
weasley
##singkatan
sepotong
twilight
ringkasan
##kemungkinan
dikonversi
dibangunnya
kepopuleran
kekeluargaan
kewirausahaan
pembentukannya
ht
##acia
##ević
##ikos
##ilir
##snow
##tree
slo
##centr
##entif
dien
fert
judy
##agaman
##awasih
##ensius
##volume
bungk
kepah
lawak
melod
nasir
poppy
simat
valle
##dirilis
##januari
##sahabat
berkeb
distor
domingo
kedepan
judulnya
physical
telegraf
penginjil
sheffield
00:00-00:00
berdatangan
memperbesar
kesehatannya
terperangkap
mempraktikkan
##lc
χ
##cco
##fus
##saw
éd
##dera
##flet
##olfo
oto
##berra
baro
maia
paha
push
saar
tora
##bayang
##metode
##nasium
angga
fungi
kazan
rayon
ritme
##injilan
##uluskan
barbad
granit
petrol
venice
whiteh
artemis
niatnya
pahatan
zoologi
##beautiful
berantai
ketaatan
manakala
perkakas
priangan
schuster
berikatan
hyderabad
mengulang
muncullah
ketidakmampuan
##υτ
ž
##naz
##opp
##phan
##ulon
jib
tox
##''(''
##_0000
##egger
##ighur
##orsky
##wardi
herr
metz
##anggan
##arthur
##atalan
##bekasi
##flower
##inklij
##ocerus
##ungkas
hadap
kalor
kecoa
proph
spart
tiran
##halaman
belaka
kelola
maggie
sitkom
tauhid
tertib
werner
##endahkan
##language
##keturunan
hukumnya
memangsa
##komunikasi
kartasura
menyamakan
pikirannya
membayangkan
##ρα
##agh
##asm
##atl
##dih
##ske
##-0,0
##chet
##cken
##eroy
##rena
##udar
##ulak
-00
mio
wii
##andon
##hasan
##orbit
drew
eleg
meme
puji
daman
espec
kuota
melun
schul
truck
##amainya
hikmat
peromp
residu
towers
content
ditukar
marilyn
penguat
tolkien
##entangkan
berkemah
pencinta
continental
kolonialisme
##dt
##gay
##”''
##alya
##eges
##ethe
##odac
##pent
##reli
##rator
gide
khay
maja
saku
shih
surf
buena
kwart
##angelis
lembap
lionel
paduka
qumran
agraria
belasan
bergaul
fondasi
lumbung
ronaldo
sapporo
bercorak
marathon
mindanao
mutakhir
simpanan
00.00-00.
penebusan
rohaniwan
separatis
wanderers
kirgizstan
maharashtra
investigation
palabuhanratu
##gha
##kok
##loe
##mez
##nih
rx
##jabi
##osin
##pern
##raph
##uden
##empit
##madja
##ogasi
kiii
mimp
muri
sunt
taxi
##ingkuh
##utaran
areas
hayam
##delapan
menata
seraya
##sumatera
fleming
melebar
waspada
afdeling
ambisius
(000–000)
aktifitas
demografi
mercusuar
##dolichopeza
kontraknya
photography
pemikirannya
##hyd
##lei
##ahar
##ibal
##idih
##onta
geg
nib
##empol
##owitz
##purna
##umpun
avec
bild
neon
saji
sond
##antoro
##ellius
##ocoran
##ukukan
alive
burns
crash
kashi
kayan
musée
santi
sense
whole
##emonstr
##pahaman
hubble
ketela
mengar
pierce
places
supply
##partikel
beraksi
respond
shirley
cagliari
saturday
penentang
diakuisisi
montgomery
berperilaku
diadakannya
protektorat
disingkirkan
nv
##abel
##baum
##folk
##keys
##rati
fag
##ihiro
##kalau
sikh
tvxq
##falkan
choco
##idental
louvre
sirkus
stress
triang
beradik
brantas
diinter
gesekan
langkat
##istribusi
suplemen
utilitas
aleksandr
episkopal
commentary
mengeksplorasi
##hd
mā
##-00;
##cott
##isel
##itur
##shar
##inski
##otype
##rinya
##umbuk
corr
hass
igor
teat
##martin
##usumah
000''
explo
leung
megap
monta
rangs
##chicago
timber
biarkan
brandon
digarap
ringkas
##angkatkan
berjadwal
liriomyza
pemenuhan
perekaman
verifikasi
penangkaran
perasaannya
digunakannya
kontribusinya
ι
##vag
##xii
ea
##ecia
##lemb
yab
etis
guns
leks
sulu
tuas
##eption
##kansas
##vertis
camar
hawai
sirih
tawon
##ancaran
##arutkan
##atenkan
gebang
riyadi
didakwa
dipesan
konklaf
sudarso
##liriomyza
menjelma
perdanak
bonaparte
kemiliter
pembaptis
tercermin
penginjilan
##,-
##jum
##graw
##hucu
##info
##yaan
##arong
##chman
##massa
##urier
alej
sapa
##_0000.
##oorweg
brent
sonic
subuh
tetua
##aculata
##aptisan
kemana
makabe
penyal
regent
senyum
simpan
##histoire
##keyboard
edukasi
hijriah
##angkaraya
atlantis
benedict
bentukan
speedway
anastasia
mangalore
beralkohol
pengontrol
pergolakan
relativitas
##yx
##gem
##mii
##tia
##why
##abri
##owan
##teki
pyr
##ectus
##elium
##irnya
##marin
##mengg
##touch
ingr
kurd
mako
shib
sylv
task
##galang
##ongkol
##ubondo
dinar
innoc
nigel
sarat
tromb
##harsius
##senyawa
##unaikan
berdom
demand
dramat
tidore
address
filipus
memphis
semalam
vulgata
sebidang
influence
istananya
paradigma
kolonisasi
leluhurnya
mengepalai
pembuktian
punggungnya
terciptanya
##jaz
##meg
##xes
##''")
##aret
##argo
##atia
##buri
##ezer
##klas
##tinc
##ugan
dao
hov
##antap
##estes
##hello
##studi
##warga
dili
glet
kola
lend
milk
fruit
hesse
paint
senna
##rencana
chorus
kearah
labuan
saints
tobago
##fakultas
##ologinya
dominic
profile
terhind
vikaris
barbados
berminat
emeritus
estetika
fujiwara
merampas
topologi
haliclona
keputihan
mobilitas
pencalonan
perampokan
wiraswasta
mengkoordin
pertanggung
##bt
##nn
##)00
##eze
##fot
sf
##aken
##ampi
##omyc
##opat
##stor
clu
dys
##abisi
##andak
##askia
##ernet
##menya
##utung
baha
luca
sami
suma
sumo
tram
##pendek
beres
gabon
gigih
going
hitch
pojok
juanda
marion
tiruan
vagina
000000,
announc
asalkan
lipatan
templar
collabor
dortmund
kapalnya
komposit
meluncur
semanggi
aksesoris
sawahlunto
kebersamaan
pangandaran
##sf
##şti
##demi
##elev
##lave
##spin
##.000/
##0,000
##etaka
##indai
##orden
##urban
amon
dadi
eter
sait
##dialek
##french
expos
hayes
lupus
reign
salad
##perimen
barber
cakung
happen
konstr
muntah
parish
stones
willis
##irahatan
kolkata
antasari
astronot
berlomba
construc
ensiklik
alexandre
rodriguez
manipulasi
pembelahan
sejarahwan
0000-0000).
memodifikasi
##kif
##yol
##eday
##syst
##essel
seed
##kuning
##ocalyp
##yellow
cesar
##antamal
##windows
gambut
halida
korosi
nyoman
pelari
seljuk
##emudikan
epidemi
kartago
raphael
##lotrechus
aktivasi
archives
borussia
disegani
rilisnya
superman
memproses
dibicarakan
transkripsi
##ref
##gues
##iesz
##omes
##ouch
##ryan
##inong
##kenal
adis
ares
goal
hime
ride
##brakan
##ivalen
ayumi
cause
galia
inner
ishaq
peker
sanak
semar
teach
##ability
narnia
##potongan
analisa
celcius
erasmus
largest
legitim
marissa
determin
misalkan
penakluk
terbelah
berlainan
tersukses
everything
lengkungan
pengusiran
seorangpun
pengelompokan
##smk
yō
##buya
##enic
dus
##falan
##nberg
bonn
mete
nori
##enisia
##filsuf
##kinson
bolak
coach
didih
donat
gnome
percy
taira
##channel
##monster
bailey
fusion
jaguar
sebaik
advance
gendang
memandu
nielsen
komersil
upayanya
##pertanyaan
bidangnya
dibukanya
prosesnya
pembatalan
penguburan
menyiratkan
##!)
##hō
##lt
##00/
##orr
##hina
##kaku
##unga
##visi
jut
sao
##ukuan
eros
save
thur
togo
##andeng
##indian
##itaine
##ologie
accel
biang
lapar
ratio
telak
##ropolis
debate
gontor
jagoan
sendok
sounds
webber
beyoncé
porsche
handbook
sanitasi
dicirikan
nurhaliza
tertembak
arkeologis
ptolemaios
spektakuler
disekitarnya
##ης
##cod
##kyō
##lil
##amid
##bean
##most
##orea
##uren
##viii
##bogor
##latur
espa
temu
tuah
##embali
##famili
##selves
##uhunan
##winter
cliff
fikih
fritz
jamil
naras
pratt
reach
split
terak
##melalui
##pastian
##perdana
bieber
cancer
cheong
kriket
uighur
chennai
dharmas
diimpor
memasuk
nothing
shannon
tertera
tituler
galangan
##exocentrus
kasunanan
mengunggah
manifestasi
seksualitas
##'"
υ
##nob
##osy
##adhi
##blad
##edis
##gill
bsd
ngr
##ampok
##emoni
##fiyah
##omori
##tekan
jord
pdip
vish
##umbuhi
bocor
disco
galai
iskan
mills
rawas
rohis
tours
##asiakan
##tingkat
fulham
kepler
kodeks
palapa
##sibility
berkend
cardiff
eleanor
everton
navarra
selaras
serambi
shuttle
tornado
##ingungkan
midnight
simetris
menerobos
selection
sometimes
pendirinya
philippine
wiracarita
ultraviolet
perbuatannya
kebangsawanan
##ël
##mot
##pea
##imak
##iras
##orca
##seum
##sher
##voir
##xter
##yoff
jie
##epren
##lumba
mead
soek
##yarkan
pipih
sinus
suryo
##mycomya
##pendiri
000–00
berkem
divine
mozart
panzer
peraga
katniss
memikat
parthia
penentu
speaker
karirnya
merambat
metamorf
perenang
##optimalkan
paripurna
resonansi
ditaklukan
strasbourg
kemandirian
peribadatan
menenggelamkan
##ulp
##edge
##krit
##mina
##serv
bem
##atana
##imuti
mohd
mona
ongk
psms
##robert
##stabil
##thansa
##yevich
0.0.0
doctr
menge
##makanan
##otarsus
argent
bassis
jabung
seruan
bintara
voyager
bakatnya
menjarah
multiple
pengaman
problems
rahardjo
lombardia
keberhasil
dukungannya
##beh
##plu
##alla
##eves
##gium
##ompa
##orok
##orra
##penj
gud
pkb
tha
##ephal
##gelar
alla
empu
ples
blink
helai
katie
robby
samba
##guerite
##standar
akhlak
asahan
isomer
nabila
oshima
pemalu
preman
syaraf
window
##untuhkan
gletser
jadilah
khasnya
kitchen
mycomya
sorotan
##entingkan
bachelor
richards
##royeksikan
principal
pyongyang
metodologi
rothschild
menggagalkan
mengusahakan
peristirahatan
##ós
##ны
##dub
##dafi
##atlan
##ondow
##theid
heil
konj
paud
alleg
dikec
fatwa
grove
tania
bodhis
denver
##angsanya
##kawannya
bertump
casting
mempers
extended
springer
terdakwa
ditumbuhi
mendasari
zainuddin
spektroskop
##0(
##mg
##udus
##yoso
fum
tuo
##akami
##anjur
##total
##zhong
buzz
etik
jeda
katy
soen
wade
##mother
##persia
##series
gangs
gonzá
minis
nadal
razak
##aktivis
lights
radial
##omposisi
barrett
ganesha
marcell
neville
printer
shinoda
usually
##oordinasi
chairman
penganug
sterling
berkepala
dreamworks
gerilyawan
memaparkan
penghinaan
reorganisasi
##rā
xy
##ango
##edah
##math
agu
uit
zhe
##adeus
##alina
##babak
##oming
##wanto
adhi
gulf
ichi
init
##abilis
##ughton
alvin
hampa
lumba
memon
pekon
tries
##alarang
anakku
celtic
kopaja
musnah
schles
dirumah
heteros
hoffman
##featuring
birokrat
ditawari
patungan
response
romantik
sayapnya
teaching
beraturan
matematis
##kualifikasi
bermusuhan
electronics
##iq
##oti
##saf
##thr
##idul
##then
ale
lur
paz
tia
##achim
##emont
geum
worm
##engine
##ophrys
armor
farel
inoue
kekec
reuni
sunat
wuruk
barnes
metrik
nangka
romans
bijinya
dikubur
diulang
giorgio
##wikipedia
bubungan
kultivar
sebatang
suleiman
yudisial
bahasanya
(0000–0000,
kompleksitas
palangkaraya
##00’
vá
##!'',
##.00,
##cano
##chun
##duta
##edai
##pari
ego
waw
##''/''
dino
flet
glut
poll
ragi
seto
trot
##hampir
##oustic
buluh
nafas
nishi
ramos
trail
##oksidan
##pekerja
adopsi
berant
kilang
mekong
mikrop
mughal
persep
sebagi
hepburn
persiba
seberat
dikepung
dynamics
menaungi
terindah
kandangan
sanghyang
schneider
situbondo
keempatnya
singhasari
keberhasilannya
##ahl
##tho
##mada
baz
chō
##chris
bras
##aniaya
##ciuman
##sekret
dendy
depos
hades
iqbal
kardi
liong
logat
plate
rifle
tiong
apache
astrid
disitu
either
escape
kation
keikut
lumpuh
sholat
techni
##sehingga
kwartir
sekresi
suryani
canberra
depdikbud
diberkati
narkotika
stephanie
yamaguchi
menunaikan
supranatural
ا
##asp
##epe
##sax
##cool
##deen
##emur
##sequ
##syur
##tral
jig
ntb
upi
##afkan
##gajah
answ
kats
##ibuted
##iriyah
##tingen
debor
gesek
hands
mckin
sepat
siena
venti
##oration
barnab
enough
monter
murung
panjat
pseudo
sayaka
diatasi
jebakan
musikus
sichuan
alamsyah
seminary
terdesak
##exoprosopa
dipecahkan
ekonominya
penyandang
wellington
efektivitas
menemukannya
##′′
kd
##atue
##grey
##nadi
##stab
##terl
eut
##ohara
##pelin
##swana
bore
hack
klik
waru
xing
amnes
infra
ligan
androm
angelo
dirasa
itachi
penyam
serayu
aksinya
sekilas
bertrand
angkatnya
pemberani
perkalian
exoprosopa
menyayangi
##!,
##ouf
##vus
dg
pv
##hare
##ivor
##ulut
##zzle
liz
##codex
hono
shap
##arisan
aguil
andra
demon
carpen
davies
gaulle
kelemb
played
rotten
soedar
##ampainya
iparnya
terawal
agamanya
perangkap
antropolog
mengembang
bergelombang
constitution
dipertandingkan
`
מ
##)",
##cii
##dot
##suo
##cham
##chik
##fied
##lala
hof
##logam
dung
bilik
coron
rasis
reput
sujud
##ditulis
arafat
atasan
talaga
ustadz
##enggalek
applied
carrier
claudia
lembang
karnaval
00.000,00
panjaitan
memaksanya
bangunannya
kemiliteran
##melanagromyza
dipertuturkan
melanagromyza
dideklarasikan
##īn
##ос
##idy
##upt
##beth
##uven
##vest
cpu
vog
##diter
##igata
##itang
##trasi
boyd
mami
##ekerta
coupe
jengk
mainz
masam
parfum
aquinas
memperl
messier
paskhas
##spongebob
menjauhi
portabel
tabalong
terjalin
diurutkan
framework
ketuhanan
mengajari
menyangka
mountains
##dao
##dap
##ewo
##geb
##isat
##odic
##rant
##ready
baka
hild
kano
lomp
roes
##araton
erich
jewel
sigma
##andingi
belong
jerome
saddam
summit
zurich
##generasi
evening
jikalau
pattern
sekarat
turbofan
mahasiswi
paguyuban
terlaksana
transgender
000-0-000000
diperkenankan
##nt
ב
##ijo
nj
##chon
##elve
##flow
##sund
##trial
##udung
##ukawa
abah
kuni
nobu
rapp
##timura
awang
devon
kanto
monok
prior
siber
swara
zirah
bujang
degree
esensi
ironis
irving
kaiser
kejang
kodrat
komoro
lebong
mcgraw
recent
sunder
amonium
biology
selaput
singkil
tripoli
aborigin
berlibur
manggung
northwest
melukiskan
simatupang
berkesempatan
perjuangannya
##gt
##zm
##kina
##rico
ina
##awari
##ignon
##intan
##kebun
##raden
##seven
cana
darm
isis
judi
munc
yuen
adler
césar
jetis
lille
memil
retak
twist
##germain
##laporan
asupan
electr
mosque
playboy
##pandangan
comeback
disembah
terfokus
terdampar
disalurkan
experiment
berkomitmen
kebangkrutan
terorganisir
##db
##ев
##-0:
##aga
##efek
##wadi
tif
xue
##hanan
##risno
mung
##estyle
##harmon
bosch
depor
dress
layer
lions
soleh
##rolling
keatas
shalat
##awirawan
##embiraan
harvest
panther
meninjau
promotor
sinemart
tikungan
vikariat
terserang
perdanakusuma
##++
##haj
##ppp
##uza
##zone
gmbh
poor
##ikatif
basin
gosei
least
nicea
supir
##andikan
00:00.
menyak
terkec
weight
menyita
mozilla
mulyadi
pemanah
santana
sjahrir
articles
magellan
mccarthy
originally
diferensial
##amor
##bria
##brun
##heid
##noth
##ohor
##osum
##rase
##test
##trak
ani
tzu
##chrys
##iland
##image
arok
neum
rara
thre
##ilanak
##lingen
dogma
hatch
jakob
links
malas
mukti
phase
posit
retno
supra
arrang
chopra
hammer
kimber
padamu
sinaga
wagner
0000000
naiknya
sangkar
topsent
división
kultural
mengkaji
##entralisasi
bertabrakan
kejayaannya
pergelangan
johannesburg
ketidakpastian
ف
##wam
fn
##bawi
##mour
##roph
##wiki
##yuga
##zier
suj
##onica
##ursor
feet
klim
liam
maga
##sakura
adele
amina
ayaka
blade
botan
dalil
firef
spark
##elitian
##uckland
accept
ballad
itupun
kecuri
qantas
terigu
##perintah
beverly
fletcher
gonzález
kelasnya
playback
premiere
memasukan
mencampur
penghujan
gelanggang
meledakkan
monitoring
terpelajar
tournament
pertambahan
semifinalis
sesampainya
meminjamkannya
##ák
##ας
##gla
##pai
##rhy
##duet
##etil
##very
hoo
oki
##amang
##guard
##ippin
alma
beet
gale
humb
keep
mith
plum
tall
##aniyah
##eloper
britt
kirch
turin
verde
woody
##edaunan
##finalis
##tentang
##umumnya
beradu
berkar
gandar
ichigo
itself
nikmat
sumsum
##oprotein
berduri
didiagn
ditingg
freddie
jenkins
nehemia
olivier
saatnya
tomohon
auckland
inspeksi
membalik
increment
sampoerna
terhambat
worldwide
antioksidan
memperlambat
##owa
##eken
##umbo
##vard
bni
kuz
##franc
##ghost
##isnya
##itter
##zilla
judo
nons
obsc
##endels
##wibawa
terms
##andalan
deuter
hunger
markah
mening
shahab
sprint
##mitologi
tangkap
akomodasi
bertinggi
dampaknya
directory
philosoph
programme
robertson
ketenangan
rangsangan
observatory
pembaptisan
perspective
##/,
η
##jew
"(
aé
##ffin
##hita
##ilot
wap
wea
xxi
##benua
##kolon
##negie
##rapto
fach
lobi
scud
wort
##wright
advis
buster
ceylon
hansen
sakral
sangha
violet
writer
dijawab
masinis
outside
##merupakan
##pemilihan
aguilera
menuntun
tuberkul
##endaharaan
kebocoran
menjulang
peletakan
peradangan
seandainya
ditargetkan
##jn
##cyrt
##edug
##ulur
tbs
##cinia
##ocean
##randt
bamb
done
roch
shiv
stig
##elanja
appar
brock
chaos
cruis
falsa
kemih
lange
negri
ventr
(0000—
favour
litium
pegang
melissa
memecat
players
riyanto
strange
weather
mendiang
zulkarna
ketidakpu
especially
smartphone
memperbarui
##bio
##akto
##made
##mama
##perf
##yori
aek
xer
zub
##agoga
##intar
##iston
dami
glam
holm
[...]
