[PAD]
[unused0]
[unused1]
[unused2]
[unused3]
[unused4]
[unused5]
[unused6]
[unused7]
[unused8]
[unused9]
[unused10]
[unused11]
[unused12]
[unused13]
[unused14]
[unused15]
[unused16]
[unused17]
[unused18]
[unused19]
[unused20]
[unused21]
[unused22]
[unused23]
[unused24]
[unused25]
[unused26]
[unused27]
[unused28]
[unused29]
[unused30]
[unused31]
[unused32]
[unused33]
[unused34]
[unused35]
[unused36]
[unused37]
[unused38]
[unused39]
[unused40]
[unused41]
[unused42]
[unused43]
[unused44]
[unused45]
[unused46]
[unused47]
[unused48]
[unused49]
[unused50]
[unused51]
[unused52]
[unused53]
[unused54]
[unused55]
[unused56]
[unused57]
[unused58]
[unused59]
[unused60]
[unused61]
[unused62]
[unused63]
[unused64]
[unused65]
[unused66]
[unused67]
[unused68]
[unused69]
[unused70]
[unused71]
[unused72]
[unused73]
[unused74]
[unused75]
[unused76]
[unused77]
[unused78]
[unused79]
[unused80]
[unused81]
[unused82]
[unused83]
[unused84]
[unused85]
[unused86]
[unused87]
[unused88]
[unused89]
[unused90]
[unused91]
[unused92]
[unused93]
[unused94]
[unused95]
[unused96]
[unused97]
[unused98]
[unused99]
[UNK]
[CLS]
[SEP]
[MASK]
##00
00
*
0
0000
이
##으로
##에서
있
사
대
그
분
분류
(
수
시
가
아
지
##었다
전
기
하
제
##0000
:
##이다
한
정
있다
-
주
일
선
중
##했다
##하였
다
자
것
##하는
공
경
유
인
부
보
동
위
##하고
##되었다
영
등
조
미
마
##''
나
오
##하여
연
개
모
역
000
소
##하였다
의
《
고
스
발
도
국
##er
여
구
##으며
세
상
서
신
##학교
##에는
비
##한다
##in
##an
s
성
후
때
해
##on
##000
프
관
**
##국의
교
남
방
선수
t
장
m
파
##지만
##부터
무
출
않
현
있는
만
c
##에게
바
우
대한
##되어
통
또
최
##ar
작
내
문
진
어
강
노
##),
원
포
##en
##까지
결
불
거
김
##이라
생
##or
"
배
##적인
##된다
##al
축
당
f
'
##적으로
반
없
계
##at
실
~
알
리
태
(0000
b
p
따
##is
##es
명
d
받
안
설
같
사용
##스트
말
에
축구
##에서는
재
##면서
두
##들이
##하게
요
차
단
##되었
a
함
예
한다
참
##하기
사람
로
##:0000
특
타
##he
이후
군
##들은
#
카
일본
##리아
독
k
##.00
데
종
''
초
라
##으나
감
##ic
운
올
되었다
o
많
l
##였다
##년에
##았다
##it
##레이
및
추
영화
코
외
입
양
프로
매
행
음
형
왕
변
그는
##(0000
건
더
활
##는데
적
때문
피
##re
평
본
그리
호
회
승
화
산
과
베
위해
##들어
미국
##ro
크
번
##bs
##.0
되
게
박
##주의
##민국의
##us
##들의
##le
그러
임
시작
g
각
##기도
메
같은
열
##이며
따라
북
##라는
##,000
드
총
경우
학
##대한
표
민
물
##들을
n
지역
목
함께
##이나
처
달
##시아
또한
편
다른
##라고
##하며
한국
간
자신
w
##하지
야
직
새
속
약
##하다
##-00
항
저
때문에
##ion
##등학교
세계
##as
h
토
e
체
국가
집
청
##스의
이름
그러나
된다
점
사이
당시
천
##ol
태어
##에도
현재
존
##un
금
그의
것을
##()
광
##기를
가장
##-0
뒤
법
의해
기록
레
##기에
##el
디
##ac
것이
확
못
##랜드
죽
투
복
했다
of
삼
있었다
##되는
필
애
하나
##am
브
합
철
히
##이라고
있으며
조선
창
##il
파일
또는
##ing
버
증
##민국
것으로
the
v
##리는
황
서울
취
##th
그리고
심
살
판
##um
근
##지는
##and
프랑
위치
##ch
백
돌
언
치
##리를
할
참가
첫
아니
‘
##라이
들어
통해
충
활동
병
##대한민국의
완
플
##id
##는다
##ur
많은
##pg
##되고
##ig
하는
##졌다
배우
출신
r
##om
클
트
##이라는
것이다
##st
##대학교
네
다시
;
##대로
용
대해
쓰
j
경기
손
가지
게임
친
높
##jpg
##림픽
##위원
〈
권
##로서
있었
독일
루
##했고
패
월
포함
##하면서
연구
아이
은
페
다음
순
팀
##et
채
사회
##일에
여러
준
##니아
/
감독
##하였고
대한민국
테
##이었다
i
##스는
전쟁
방송
##사를
큰
##bc
)
##있는
모두
이상
##보다
작품
하였다
##ed
음악
##졸업
시즌
모든
올림픽
이용
허
##도로
##지를
##되었고
##라마
##-0000
있어
##자가
동문
##리스
정치
일부
정부
##회의
##ad
##상을
##리그
규
in
등의
##이고
##성을
태어남
육
즉
위한
대학
##위를
처음
##ent
##력을
##이었
리그
***
##이스
식
이루
##거나
설립
캐
##장을
대표
도시
졸업
##대의
끝
것은
온
##도의
##리가
존재
문제
##통령
국제
0000.00
##이는
홍
제작
뉴
별
키
가능
영국
##나라
여자
##디오
중국
맞
##개의
알려
농
##부분
##..
환
러
##기의
자신의
걸
##년대
검
길
0,000
프랑스
##이트
되어
##리카
폭
우승
남자
구성
일반
##).
나타
하지만
앞
윤
공격
##이션
프로그
##란드
중심
##ia
협
##if
논
##리에
##스터
이러
##기가
담
송
대통령
##iv
개발
전투
##로부터
##os
이러한
교육
하고
이어
st
맡
##하면
사건
새로
없다
발표
볼
##자의
날
주장
##했으며
##시키
##세기
##년부터
폐
##ag
##년에는
##op
##도록
섬
수상
##인의
밀
좋
##ir
극
귀
곳
접
0.0
##기는
잘
##ul
##사가
등을
##이자
갖
##학자
와
##버지
##서는
앨
문화
동안
이를
##아있는
밝
엔
##들과
발견
이는
향
“
##ation
##대학
##로는
관련
이전
블
번째
##군의
막
##im
##km
설치
대부분
u
면
대한민국의
##에서도
##미국의
##'')
##리의
최초
석
##이지
##ap
##(0
프로그램
##났다
얻
##정을
영향
##...
지방
관계
##되었으며
발생
##텔레
발매
이에
##ter
##em
헤
##시에
##들에게
##고등학교
줄
생각
봉
독립
##어진
##성이
##와의
##했던
##명의
지원
##:00
##가지
##리즈
##살아있는
효
기술
역사
##하였으며
그녀
##비전
등이
##ot
##일본
##도를
진행
0000.
시간
누
##스타
##다는
##프트
is
and
대학교
운영
##탈리아
##자를
##므로
의미
된
##ct
슈
중앙
책
##대표
타이
사실
경제
결과
절
골
인해
##대를
등장
변경
##월에
만들어
곡
일어
침
##ut
글
니
##od
##스를
이것
(0
커
대회
##으로는
암
자유
로마
##사의
머
필요
데뷔
##ay
갈
(0000)
아들
##다고
계속
유럽
받아
스타
잡
쿠
뜻
러시아
드라마
##자로
특히
질
수도
혼
부분
y
kbs
##-000
##머니
##비아
탈
소속
월드
##화국
형태
새로운
사망
참여
##르는
상태
텔레
##으로서
케
##인이
탄
##위원회
##oc
##우스
라이
난
##자는
측
##르크
가수
범
##년까지
있고
##다가
매우
tv
##초등학교
있던
*0000
벌
결정
급
가지고
##도가
같이
최고
싱
찾
넘
들
악
없는
##에서의
운동
##식을
##부의
##!!
##처럼
##~0000
텔레비전
아버지
##과의
##(,
돌아
성공
##거리
앨범
##기로
00.
제공
re
##렸다
##명을
다양
인구
주로
##해서
중요
##스가
조직
##특별
힘
미국의
터
##전을
아니라
받았다
행정
##하기도
##번째
않았다
모습
##ow
##ers
않고
고려
만들
##남도
업
##권을
좌
##간의
##스템
##스크
쇼
##방송
결국
##ov
이유
몇
##리스트
##되지
##대에
,
떨
##장이
빠
0000.00.00
하여
##명이
##자인
학교
딸
##민주
정보
##the
많이
진출
여성
##하자
##운동
##드는
헌
대전
mbc
컴
내용
출연
##학급
인터
지정
스페
마이
##했지만
기준
않는다
##센터
##으로써
##교육
능
이탈리아
레이
한편
데이
##원의
##문화
계획
애니
야구
폴
콘
외국
##왔다
둘
항공
국민
##운데
##도는
팔
얼
해당
##bn
##ht
눈
##학과
##나는
##ce
방법
##음을
##수의
이미
00.0
##ie
##ra
##리고
생산
전체
국가대표
차지
몸
##수를
공동
##원을
##어로
##메이션
##화를
##사로
##art
떠
##진다
##야마
주요
잠
작곡
「
구조
##하려
##연구
노래
사랑
##군은
##력이
유명
그룹
격
##으로부터
이야
##ist
##(00
관한
붙
##umb
마지
##.)
가운데
역할
00,000
##북도
시리즈
프리
##했으나
de
선거
##스로
각각
지구
ch
##상의
칼
몰
풍
##부에
##ou
부산
시스템
발전
##ae
인정
##사는
##하던
##였던
교수
0000-00
...
따르
홈
##카이
##ab
민주
x
##제로
사업
##인민
##냈다
##성의
표현
##ip
##est
빌
·
##ak
이루어
마지막
##르트
애니메이션
00%
##역시
대신
직접
##버스
기원
브라
엘
##og
보고
##장으로
거의
##잉글
##가는
따라서
##가와
##지의
연결
높은
되는
##시마
특별
뮤
추가
유지
기타
##지고
플레이
울
아래
##tv
–
생활
##스와
노선
기능
##동차
공식
제국
않은
##all
다양한
##점을
어머니
##잉글랜드
엄
##이가
운행
##인다
##어를
상황
결혼
##시켰
영향을
후에
##ess
월드컵
##ight
##군이
##원이
학생
##》(
구간
경상
##제를
##광역시
##해야
##시간
뛰
##ifa
fc
그리스
##지에
정도
0000)
퍼
##수가
나라
이름을
작은
##레스
녹
대상
##프리카
isbn
##운드
먹
도쿄
현대
##조선
바이
지금
과정
않는
하계
##리오
그것
시대
남아
희
##px
##av
싱글
##쪽으로
##었고
건설
압
일본의
##전에
국가대표팀
##이드
워
인물
그가
##달리스트
##thumb
##세의
sbs
동시에
##나다
아르
개최
##장은
자연
##제가
오스트
연합
0.
있는데
##리지
묘
임명
모델
다이
##ang
않았
이동
기본
##인을
평가
뿐
응
##니다
##갔다
##부를
보여
싸
##ef
##(0000)
죽음
##자와
fifa
##트로
색
나오
요구
0-0
취임
##일부터
##모토
##지로
휴
혹
##위에
관리
서로
##린다
일으
위치한
기업
##지가
##치는
##서울
##ard
어린
따르면
배경
역시
##ell
##qu
완전
티
망
반대
크게
방식
느
후보
철도
##피언
알려져
##kbs
의한
비롯
##계를
군사
상대
##중학교
##있다
활약
##경기
위원
긴
출전
낮
선정
하였
핵
명칭
##임을
실시
수록
훈
겸
제외
##이의
0000,
##사에
##se
##장의
to
##됐다
통합
##인은
##치를
##로스
원래
(''
인간
견
이론
un
##문을
아닌
외국인
##)·
지도
##ine
민족
가진
건물
중요한
시절
##ill
과학
##제의
##하였으나
##퓨터
만든
놓
말한다
##스코
경찰
인도
##특별시
##》,
##기관
##전에서
되고
맥
이르
웨
노동
연속
공개
##른다
열린
어떤
##인민공
보통
다음과
##(000
거쳐
챔
교황
있을
##단의
전국
정의
##ant
태양
##군을
형성
##대가
담당
##들에
궁
연방
##ph
##되면서
정책
##(''
##하지만
0.00
소련
슬
0,
##이었던
&
공연
##원으로
##부는
이때
##이어
달리
판매
##격을
기관
##스탄
샤
혁
(00
착
##이를
콜
사이에
##소를
수행
##회를
개인
ro
탑
##ity
챔피언
##드의
##대는
비판
퇴
비슷
처음으로
옮
최초의
##:0
음반
##독교
기간
계약
##원은
지휘
##장에
##체의
도입
탐
마을
##중에
##bo
##호선
밴
소설
시작했다
##한국
그래
##어는
##정한
전문
##과학
##포츠
##마다
##과는
혹은
역할을
##사와
##일의
기존
하며
옥
##트의
##영화
##카와
##ne
##멤버
전라
있다고
##년의
##~00
너
##주시
컴퓨터
이사
경기도
주의
친구
국내
##하는데
지배
##체를
초기
서비
바로
##ri
숙
빈
##무를
환경
우주
특징
사고
##서를
##동을
##성은
##ud
##사업
그림
히로
##트를
##수로
##이기도
육군
개의
차량
종교
대구
##물을
기원전
##선을
##ec
지나
푸
##동안
지하
보호
될
전통
먼
승리
****
##트리
→
##장에서
여기
아시
##적을
##드를
과거
모양
for
산업
##크로
##정부
##주는
##cm
##지역
찾아
보내
벨
##으면
이것은
덕
##시의
클럽
풀
교통
편성
##명은
##사관
##리와
멤버
피해
윈
##사카
##):
떨어
밖
부르
##나이
##되며
인천
낙
##ong
곧
중심으로
##화가
##하라
언어
사상
이끌
##하거나
그를
기반
##드로
위하여
##적은
##체가
받은
주변
##혔다
나가
없이
요시
##촬영
사무
##수는
중화
있지만
실패
어느
##ber
##의를
있다는
on
자기
받고
가까
때문이다
가족
이와
염
##시켰다
##조의
기독교
##스키
유일
!!
방향
되었고
윌
적용
기념
센
비교
마음
##기술
##덜란드
##종의
자신이
al
##프로
물리
##했는데
pro
충청
해외
선택
있어서
상당
##계의
갑
##ord
획
뛰어
##국민
늘
##."
불가
th
##구의
폐지
##도에
##이지만
열차
작업
##라도
##호를
작가
##위로
컨
전기
교장
공간
익
설명
##ge
ar
##메리카
##정보
##시켜
##릭터
받았
##ub
흔
넣
넓
##ian
##io
##~0
##르게
##up
##스턴
역임
촬영
분리
솔
##톨릭
건축
뉴욕
개통
등에
최대
시민
초대
출시
도로
이런
데이터
주인
증가
##일까지
##정에
활동을
##리로
##소년
앤
배경으로
성우
##ive
연주
선발
##ea
##|000
일반적으로
오늘
분야
##ok
##어의
##어가
##일랜드
##식의
흥
##시대
같다
땅
##레일
는
##사회
개칭
씨
팬
##상이
##요일
없었다
##쳤다
##ack
##단을
확인
예정
##당의
좋은
##efa
대부분의
잔
##움을
##먼트
##0,
명의
연기
##세가
우리
##이란
##스티
##인으로
조지
##선의
입학
전자
##군에
최종
##te
괴
##했을
##나무
##세는
##ith
잃
걸쳐
##심을
z
##부가
경기에서
sp
개시
이상의
올라
사진
##ik
##이로
득
흑
##나가
아시아
##고속
##쪽에
개념
대하여
지지
##학년
국립
움
캐릭터
최초로
ne
명령
##드리
##이치
더욱
##tr
내려
미국인
##스카
스페인
좋아
동일
밤
왜
##했다고
##드라마
조약
흐
##기와
##스테
스포츠
##시킨
##성과
라디오
하지
##철도
##리아의
##렇게
com
최근
그녀는
헌법
대체
이름은
하다
에너
표준
con
##원에
등으로
공항
##라의
승격
되었
##만을
##회는
##mm
부족
두고
##일본의
공화국
##함으로써
##류의
서울특별시
##면에
조사
어려
##제는
삼성
##러스
km
공산
이해
점령
가톨릭
##자리
메달리스트
##으므로
##정이
마사
변화
##한다는
##이에
획득
규모
동물
돈
결승
##년간
##'',
베이
##서관
##적이
소재
휘
##und
디지
##세를
##여자
있게
소비
소유
##성에
##공항
꽃
##부르크
##만이
pr
##프랑
보인다
##무라
맺
##스케
메이
효과
빛
슈퍼
가리
##트는
##지방
야마
##난다
소프트
옛
아키
크리스
##sp
하루
##na
선언
##개월
예술
추정
##식으로
버전
##겼다
자료
##일에는
이유로
##내는
캐나다
목표
출판
##학생
칭
가문
##소가
ii
헬
홀
##)'
아시안
태어났다
##fc
##치가
실제
##키는
이야기
모습을
광주
##오카
언론
편입
정신
##mbc
##시키는
##로의
이적
쌍
주민
##디어
##지와
##자들은
맨
불구
##정의
전에
시설
##대상
방영
강화
##대회
##아의
##ver
sh
연극
##시코
움직
법률
경영
##학적
페르
겨
##하이
##나의
##하도록
제한
##ain
런
자리
##라스
##인민공화국
아카
폴란드
##구를
비행
##지지
##회사
##ich
조건
액
징
마르
##end
##호는
예를
##렀다
##차로
수상자
정규
##트남
칸
##명으로
실험
이들은
통일
바탕
덴
믿
후반
##대전
비해
##치고
##비를
이름으로
##man
##메이
선출
##역을
끌
네덜란드
사용하는
##민주주의
깊
se
나온
자주
##학을
##사이
아직
##스에
것이라고
##ate
동생
있었던
##스토
##어서
고대
##인데
##자들이
하나의
##uc
00:00
몽
영어
포르
##상에
행동
엔진
류
그들의
##라인
##협회
##our
##되기
##관리
갖고
통과
##부로
##0)
오른
국회의
##관을
an
##사단
##ast
영토
단체
##ass
인터넷
비디오
##계에
그런
디지털
멀
추진
여객
불교
불구하고
만나
사람이
교회
잉글랜드
##ry
널
불리
##ort
##)》
평균
정당
##금을
##었으며
##루스
at
현재의
##도시
아프리카
깨
##웨어
::
방문
특수
영국의
발달
작사
찬
##쪽으로는
##하의
##ens
he
것에
대중
요청
##법을
거주
회사
정확
물질
##르의
##베이
##웠다
스테
##르고
하이
많다
구분
인구는
정도로
스스로
##산업
##소의
##ile
##미널
##가의
이듬
밝혔다
현재는
↔
유로
##화국의
##ran
말했다
##연합
디자인
종합
확장
『
쓴
알렉
펼
을
##은행
계열
##ib
##점이
칠
##식이
##없이
바뀌
파괴
다카
목적으로
##드가
성격
자동차
강력
프로젝
##학의
않아
##리포
사라
##와는
그대로
멸
중에
이듬해
##예술
완전히
##아가
쉽
드러
##사키
웹
##모리
?
등과
##우리
##워크
##sh
이로
##ob
##바이
아마
##물의
지속
차례
##력은
그들은
##랐다
()
##웨덴
##iz
부문
지역의
식민
윈도
놀
배치
품
클래
황제
때는
만화
거두
##축구
##상으로
고등학교
##위가
##형을
이들
알고
##물관
##신을
le
##위의
유사
##멕시코
정치인
개교
베이스
반응
군인
언급
##oh
##지게
##교회
포함한
##ace
오늘날
##월에는
표시
##식은
##월부터
관할
북한
##프리
경험
전해
분석
##아이
먼저
주인공
제품
유래
우수
발행
밝혀
수준
##~0000)
뮤직
아무
결성
##트가
부여
이곳
시행
경우가
독일의
##베르
사이의
##선거
오브
육상
있도록
천황
경쟁
uefa
있으나
브라질
##이기
##메달
sk
습
때까지
##ss
##었던
##.(
술
##안을
널리
들어가
me
성장
##ory
빅
##직을
몬
##감을
##가를
임시
0)
록
세워
cl
이외
여겨
캠
위해서
##크라
위에
관측
하나이다
패배
기초
그녀의
일어나
설계
궤
제조
가르
앙
상호
제국의
남부
##right
##hy
sc
##되었으나
마찬
00,
못했다
성립
해결
##원에서
##웨이
마찬가지
##니스
핀
##체는
세포
##단이
왕국
알려진
##위는
사람들이
##세이
##워드
##전의
##토리
하나로
바다
나머
##선이
오래
##면을
##일을
##="
##로를
##역으로
##산을
벤
십
외교
가능하다
아내
흡
도착
파이
##ove
바꾸
것이었다
부인
짧
싶
000,000
##경제
##인지
접근
##들도
##테인
##오는
유명한
여름
장관
자치
##상은
촉
##ary
##ii
##ly
종료
혈
##고를
비롯한
##들로
##경을
##지에서
명예
비슷한
나카
미사
승강
공작
##규모
##ex
##인트
숨
규정
##ft
##》(0000
##량이
파견
am
이승
##단에
가져
반란
런던
훈련
##자에
불리는
케이
##왕의
##개발
프랑스의
##만의
##단은
타이틀
##cl
펜
거부
그린
해석
##래프트
졸업식
제시
처리
##민족
##소는
##ction
개편
않다
동맹
대해서
후쿠
##평양
고속
##ign
기준으로
##ide
부정
스위
강원
의하여
(000
일을
##크의
##법인
##군과
##되기도
##지원
##sbs
제주
의원
##스페
0:00
신설
##동으로
근처
##장과
##쿠라
과정에서
##ial
##age
속하는
##ure
bo
##rom
기획
##하다가
복귀
체결
##요시
##한다고
##레이션
##파트
##리엄
##정책
##하였는데
##간다
프로듀
##중앙
##미터
살해
유전
##년을
##불어
##sc
##ep
후지
왼
수용
##받았다
##행을
이주
##지도
선수권
##데미
다르
맡았다
베트남
##해의
위험
##했다는
완성
서비스
친일
문학
##문학
엔터
달성
빨
단순
비밀
##피아
평화
사용한다
##인과
##트워크
우승을
곤
경우에는
즉위
못하고
것과
방어
잇
특정
개혁
##인가
영업
##헝가
##함을
붕
##골을
유니
있기
의하면
##우수
사용할
##',
부임
상징
본선
따른
##권의
##많은
000-0
##ff
근거
##ug
##ies
=
##one
##투갈
중간
##의회
번역
조성
##관은
##pl
##ue
등록
##롯데
##구역
은퇴
##량을
이루어진
편집
##려고
##시로
스트
해군
읽
중단
만에
준비
##우는
##어나
##라노
세이
##구가
신문
보다
형태로
체포
be
겪
##임스
각종
작용
##ond
##주로
##단체
시험
신라
말을
젊
##ld
##ivers
##쪽의
##신의
혁명
##낸다
##리그의
밴드
##ma
##시장
가정
ex
bl
##pe
##데스
당선
회의
##그룹
##도와
것도
달러
내부
##력의
오사카
##주의자
##차전
합병
가입
의사
지역에
기여
중에서
끝에
나무
센터
##세계
.
주도
##pr
금지
##형의
##호로
노르
경상북도
시청
##마을
뇌
pl
프레
##아시아
대해서는
년
##ind
강한
재판
##ix
##ore
뮤지
오후
회원
##공사
미술
일제
수비
죄
##정은
##졌고
투수
필요한
존재한다
##하기로
##주교
본래
오스트리아
##다이
##기업
##음악
실행
##점으로
던
살아
시도
##관이
꾸
##사랑
있지
##다운
수많은
꿈
##사무
객
이렇게
##헨티
##캘리포
에이
못한
더불어
안전
귀족
결합
북부
발사
##we
나타나
##생활
##ish
제기
##브라
##작용
보유
##시는
미래
##sv
스웨덴
##주를
##조를
엘리
윌리엄
바람
계승
촌
이름이
국방
낳
떨어진
죽은
시작하였다
##ont
it
대륙
##일보
마찬가지로
작전
치료
이용하여
듣
필리
##캘리포니아
지적
부른다
##미국
##후의
해안
##co
##우승
바르
##로가
카를
오스트레일
##치의
맹
대응
준공
##으면서
##물이
##부장
la
남편
소개
##라운드
채널
##동생
##/0
벽
##티아
다만
사령
안정
논란
아나
##대와
있었고
얼마
##전쟁
삶
##마이
##롭게
조각
대표적인
충돌
##화된
동부
즐
바탕으로
빼
투표
의견
관련된
내각
상대로
지상
문제가
00)
##소에
회장
##되자
항상
##성우
입단
쌓
##디아
##시설
파리
최고의
##화의
##포르
집합
##per
##구는
##하나
##미야
##시키고
0000:
##시즌
##틀랜드
아사
춘
##았고
구성되어
##치원
활용
ed
##",
##공업
벗
아니다
##에게는
관광
##국제
##자치
아일랜드
스튜
제안
적이
##당은
##fl
인수
##였고
mar
##니는
##ice
납
픽
가능한
연장
블루
국회
근무
0~0
##ng
통치
##러운
여기서
베르
전달
안에
##교통
밑
제거
나머지
남북
##통신
지역에서
:*
값
##력으로
경상남도
##내고
전환
##구려
by
문제를
블랙
마이크로
##ment
시기
##준다
00.00
##상과
##버트
##ust
르
##문에
청소년
##하마
다루
부모
##제국
co
##가로
켄
##소로
국제공항
##계가
너무
떠나
##테인먼트
강점
생성
##권이
를
출생
##스에서
##항공
인식
##나라의
##~000
억
크로
일이
인한
간의
0000-0000
유리
표기
취급
혜
지난
##우주
##대한민국
##미디
##과에
##idae
사실을
##교의
냉
##니어
en
얼굴
알렉산
가는
예선
박사
없어
옮겨
##성으로
종류
유대
이슬
지하철
폰
##량의
+
김영
지명
정식
실제로
##구에
us
##ll
##분을
몇몇
영역
뒤에
##국민학교
##적으로는
##리어
제정
신인
주는
마쓰
##즈의
직후
멕시코
꼬
사이에서
##조는
하기
제도
##나미
조선민주주의
전시
면적은
있었지만
글로
울산
곳에
##로운
동료
묘사
그려
you
##관의
히데
기자
넘어
편곡
되었으며
##기간
가까운
롯데
둘러
##ical
##조가
##동에
이집
##경찰
##시오
적극
무렵
저항
물론
##였으며
네트워크
##)(
##해졌다
보수
유일한
건너
한국의
굴
낮은
스코
wor
##했기
##부인
##붉은
cd
##아버지
헨
관계를
##게임
나누
불러
##미어
##로로
##이사
##화에
교체
##전이
tr
젊은
##하에
00000000
전략
둔
수가
원자
##iss
확대
##로서의
##현재
##사에서
##국이
변호
##기고
설정
최소
고양
##세에
기계
의해서
##감독
##ys
하늘
라이브
##분에
##서로
#:
##선은
##무원
전라남도
주목
오르
정부는
지냈다
국회의원
홈런
오리
만들었다
##ah
구축
##같은
게이
주었다
피아
득점
##비가
서부
##ica
출발
new
협력
정부의
##해를
에피
##ung
마리
##체육
이스
전차
##점에서
##)"
중의
계산
의회
or
col
뒷
목록
##타이
요리
고구려
혐
시티
##시를
##고로
소녀
엑
##유키
국왕
보존
이래
시대의
보도
##메달리스트
마리아
보컬
팀의
생물
인가
기존의
개정
봄
##시리즈
##실을
그렇
스피
판단
제외한
00~00
##면의
##론을
##습니다
아름
0000–
정치적
마련
수는
주연
옆
힘을
##티브
##교도
통신
분포
강력한
셀
만들어진
합류
범죄
##까지는
갖추
때에는
끼
하게
##트라
보이
##만에
오스
##전히
끊
작성
나중에
모리
##사령
##파의
폭발
사람은
준우승
전반
제목
##ood
원작
미니
불린다
여행
수정
##력과
##량은
##보다는
수립
00.0%
붕괴
##관으로
##자들의
허용
인디
##밖에
##데이
##나카
족
공격을
아우
##까지의
차트
;0000
기능을
##시가
장애
##력에
mc
남쪽
00-00
##일러
멜
##ach
받아들
##삼거리
경우도
##pa
##ire
반면
전설
##ational
##질을
##가가
##케이
##ost
탑재
잭
기억
로스
쉽게
사용된다
동계
타카
확보
##리기
인민
해체
##고속도로
포르투갈
집중
##br
알아
##me
##sk
lg
##0.
전투에서
##당한
이슬람
##com
만약
만드는
경계
겨울
서식
자동
##싱턴
전사
##크라이나
인근
최우수
##이탈리아
##연대
보면
0:0
극장
조정
관찰
정착
당시의
##키아
선생
##적이고
소프트웨어
##호가
상업
듀
지역을
밖에
뿐만
##자유
##진을
##ath
##르타
##ence
기록했다
뮤지컬
##당이
보여주
집단
자체
사단
썼
부근
윈도우
요코
책임
뉴스
##프가
북쪽
거리
이루어져
##과를
업무
기록을
민간
##하려는
##신이
좀
##나이티
##ps
참전
태풍
##00,
소년
베네
링
##ern
정보를
로드
공급
베스트
척
침공
##끄는
##사건
시의
홍콩
전개
제임스
##들목
일어난
##마크
##당을
탄생
그래서
##라비아
불가능
##되었던
루이
이다
##치로
흰
통하여
##gr
##pt
##인들이
경기를
##면이
스파
시에
에드
재위
듯
강조
귀국
자신을
##전문
with
love
##라고도
나들목
전용
##de
분할
사람의
수원
##로도
##메라
##부문
##나와
노부
마법
오스트레일리아
사용한
아침
##석을
엔터테인먼트
##az
컬
숫
##히로
등은
때에
생활을
##마스
나폴
##종이
음악가
##mar
##산시
왔다
##vd
##천시
##졌으며
쉬
어린이
##구로
##선수
뛰어난
0·
##ite
##잉글랜드의
비난
의미한다
남성
왔
무장
##주가
##로그
##라엘
##업을
아메리카
##sl
출장
관심을
##-00000
##동이
##부와
유나이티
##자키
쇠
구단
터키
##배우
##자에게
암살
회복
##프는
채택
##보드
so
수학
행사
트리
이후에
자본
##hz
##산의
사회주의
##bl
위협
프로젝트
##타로
수입
해방
##노동
강원도
찰
##개를
##공립
##이라고도
않을
충분
흘
##이던
인기를
츠
##받아
박정
통한
##하다고
신경
충청남도
##세대
시내
떨어져
##act
자리를
다섯
원칙
##마의
##시티
노력
버스
개봉
##의로
##셔널
인간의
사람들은
그곳
##지기
##서의
인사
##연상
##소리
##공원
옹
대립
##되었는데
##이와
univers
##동의
헝가
검은
아카데미
측정
##라크
대형
보이는
##즈키
##라우
여전히
선수로
설립된
출신의
##성군
사는
##로드
동쪽
##to
##〉,
세종
##행위
아주
##서에
##dr
증거
일반적인
받는
이것이
##tern
이시
정상
최다
델
에피소
홍보
올랐다
##"(
재정
점차
모스크
조금
승리를
##법에
불과
보급
##약을
br
##류를
##회가
붉은
개선
im
##월까지
경향
위치하고
오픈
문자
주식
##해진
건강
정도의
##년대에
샌
##국은
어떻
감소
##오프
머리
개업
나뉘
##플레이
필리핀
인하여
fl
이끄는
광고
그에
주어
잘못
태평양
##유럽
##었으나
그해
부터
사용하여
전혀
교차로
은행
##러시아
##드와
농업
##브리
##문이
##국을
##자기
댄
##분의
무역
##세포
중국의
##차를
##svg
##스파
저장
##아르
수영
현실
아르헨티
주장했다
화학
##자이
##테르
타고
나이
##세기에
##ese
mus
노예
체계
##다른
##평가
에어
자이
나오는
미야
한다는
유도
##aw
##fe
##사거리
속에
녹음
장군
##ium
높이
장착
##대에서
##ms
##권은
##물로
단계
sch
국무
시장
##영어
무기
사후
##소프트
시기에
*****
오전
##kg
pc
뽑
##았으며
##려는
매년
대사
있었으나
##받은
옷
##리트
my
재직
##구치
속에서
린
잎
##면에서
##바라
##전은
본격
욕
공공
했지만
개신
평양
겐
사람을
주교
##슈타
##하고자
##병원
은하
되면서
사용되는
##ick
리더
천문
되지
##ai
창설
##를린
복잡
##면으로
솔로
##'(
숲
시각
##리학
시작되었다
목적
형식
등에서
내용을
연출
전철
##레인
##명한
##었는데
##부에서
##land
장기
##인들은
##제에
##출연
근대
애플
##민주당
##하려고
어떻게
기후
##보통
요한
고등
##더라도
없고
완공
part
우선
##되었지만
프로듀서
운전
고정
구역
에서
##자동차
비용
##천군
##메달을
##부산
텍
초반
답
메이저
##호의
고전
항복
##크래프트
하면서
통산
##족의
오토
나서
##je
콩
유키
##비스
##ert
했으나
전주
##fm
서쪽
##었지만
지식
있었으며
##for
권한
##be
짓
##/00
보는
##소에서
금융
부활
길이
##카이도
방식으로
생겨
man
각본
아버
생명
대규모
대항
컵
종종
일종
팝
##테네
00000
사실상
오히
##함에
형제
하는데
##자이다
##ict
##인민공화국의
정리
##년과
as
에너지
##차례
형사
##마트
##에트
ac
교토
##olog
##.00.00
##중국
##))
##대신
내에서
스튜디오
##니아의
참석
##유의
ad
라틴
##형이
sy
외에
김정
##선에
##권에
te
##서가
창립
도중
태어난
다니
율
한다고
##이었으나
가격
##지면서
000-000
##계획
##ax
셰
##uk
##지마
—
외에도
##상에서
비교적
##도르
ph
투입
wh
##아프리카
공부
뒤를
##수와
레코
##질의
##타카
프로세
낭
시대에
운용
##올림픽
##레이드
##행정
적은
##승을
##과대학
이번
##|0000
##등을
계약을
##정치
둥
작곡가
##son
대상으로
미국에서
묻
조합
##품을
##어도
##서트
##.”
섭
##조합
성인
##어져
만큼
##ck
균
##회에
world
확정
##ier
인기
한번
노벨
살고
행성
수여
##비는
삭
도움을
하드
세운
오히려
되면
##았던
##일은
ap
##기획
기사
##과정
드라이
##료를
거절
위치해
세르
한정
이스라엘
뿌
첨
도움
청년
##시킬
구체
화물
##--
##심이
##프의
짧은
##우고
##나고
형태의
gr
##코의
고향
챔피언스
비율
분쟁
캘리포니아
##ba
##비의
코미디
##ca
##여서
##00.
모스크바
##종은
물러
등장하는
공포
수출
##공화국
사회적
이용해
##원과
핀란드
##화는
간주
경성
유엔
확실
추측
펠
##으로도
보병
##문의
fa
렌
신성
vol
워싱턴
par
식물
##점에
강의
##에르
흔히
##리게
##버그
##추어
##독일
팀은
발표했다
##스럽
털
##하시
##두고
이전에
##net
##타를
이끌고
##전자
집안
##에게서
이용한
지역은
##경의
##리케
흡수
##형은
오랜
활발
##선에서
##체에
##ult
##old
손자
짐
중반
아랍
##이었고
##에이
##ata
나는
후손
종목
증명
개국
시간이
##겠다고
##점은
연재
프란
닛
나와
응용
해서
##네시아
마침
##대장
저지
있었는데
약속
##수에
(0)
헤이
강제
##단으로
##하다는
동일한
만족
탈락
쪽
공유
##마루
##설을
과정을
##인에
##어들
니시
열대
출입
우크라이나
##라가
띠
산맥
##만큼
##수록
##프레
카드
사용하고
##분교
숭
대회에서
##ta
##pro
플로
했고
##문화재
##-0000)
알게
구성된
이민
선수이다
##드시
탁
채용
합격
만주
##바르
건국
##언을
그것을
서양
조선민주주의인민공화국
랭
독자
셋
##관계
양성
##술을
##일이
역대
##였으나
전후
가로
지정되었다
김성
사용되었다
##du
장치
넓은
예상
때의
진화
##로마
장악
자살
we
멸망
어렵
도망
file
##대사
웨스트
약간
##받고
전라북도
##경에
##아서
융
##비드
검사
인터뷰
발생한
내에
university
사례
지닌
자격
##ime
절대
##켓몬
이익
지금의
소장
##어와
##기압
위해서는
##체로
찍
미디어
##국가
했으며
빠져
차이가
스페셜
000,
##크는
##연맹
팀이
역으로
군주
반복
홋
##해도
전역
맡고
왼쪽
##군으로
##cd
##스러운
판결
잠시
미드
신앙
##자들을
##사인
##본부
##ina
브랜드
##판을
대공
##오스트
킹
##시와
능력을
후에는
##오리
##킨다
##ous
탈출
이것을
중화인민공화국
세계에서
##당했다
쫓
##니의
훨
##주민
##세와
음력
이집트
##기에는
계획을
얻었다
때부터
##일로
##연구소
그에게
##당에
이후에는
##더스
하면
지원을
제출
##리노
##에만
원정
써
##아파트
온라인
취득
훨씬
그러한
이성
##음에도
스크
##기념
##면은
##화로
라인
레드
얻어
구별
수사
방출
##종합
유명하다
빠른
정부가
이란
몽골
##전으로
##int
소비에트
##없는
##법의
사항
래
##ics
요새
앞서
##ohn
박물관
##법은
##조사
시인
위의
엄청
##앤젤
식민지
무엇
0000~0000)
붙여
##아일랜드
comp
경기장
전쟁을
창원
##디션
##조에
##미의
##히는
보였다
주고
##네스
##의의
사장
롤
힐
##틀러
소수
점에서
해당하는
영상
##인도
##지구
방사
주재
이른
받지
##년이
처음에는
베이징
##리즘
지니
##적이다
##리나
##la
공군
##령을
##ann
하였고
##대구
장남
병사
서버
이유는
대성
조카
농구
연맹
세웠다
##류가
호텔
##기원
동작
##용으로
##ans
국가의
##론가
##저우
보조
부하
지어
경주
포기
##대학원
##등의
경우는
플라
##왕후
fm
##ve
##모를
혼란
총리
##간에
덮
생긴
합의
상당히
##국유
##00000
받게
테마
맛
##선으로
##)’
통해서
##ame
스코틀랜드
##.,
##색을
승인
##mer
시작한
##분이
투자
거대한
비록
sm
##도에서
0》
오프
한나라
제어
일본에서
나치
간단
##회에서
인공
튀
##이었으며
##col
심각
부상
삽
##베르크
##형으로
결과를
마케
지키
정복
##af
kt
##-0000-0
독립운동
피아노
반발
(,
수송
머물
오른쪽
##사우
##ere
##아키
반드시
것처럼
개설
골든
베를린
##시스
##총독
뜻을
계급
##ork
##도서관
역을
##안에
도요
##독일의
이르는
위반
공을
##con
방향으로
택
베이스볼
##라이언
진보
전쟁이
도쿠
생존
가능성이
##산군
해양
##명이다
##처스
도서관
시간을
킬
북서
성능
동원
##만은
##지자
##서울특별시
핵심
##박물관
##ital
사건을
##페라
마이클
벌어
장교
영입
포위
스트리
중학교
##안전
파워
태어나
qu
스토
##les
전공
자이언
##씨의
##국으로
##지며
##료로
##미를
##보병
둘째
##트와
##위원장
상륙
김일
##관광
동성
포함되어
어떠
사토
발표한
역사상
번째로
##상태
##str
##리우
##차가
트랙
##국에
from
교사
소재로
러시아의
##실은
각각의
철학
마드리
##회장
프리미어
챔피언스리그
이중
현재까지
서울대학교
내의
진입
##ale
보아
백작
하자
이제
그것은
교환
no
올해의
##지사
도달
의료
위치한다
없다고
한때
좁
vs
스미
일으켰
이탈리아의
바라
빼앗
##퍼스
방법을
##학부
료
불법
타이거
동아
미치
##리다
공주
됐다
토론
##법원
##카고
##슨은
##가타
##드에서
##신은
이하
학습
000-00
연예
##자들
##프랑스의
0000~0000
##my
##0000)
기반으로
##닥터
##ke
##리히
덧
엠
금속
##시킨다
##오스
논쟁
점을
임명되었다
달라
부대
##되면
##시험
##화와
##재판
건립
계기로
##ree
##하였지만
##미가
##음이
헨리
기술을
##겠다
##인들의
사건이
##왕이
##아메리카
보안
##로바
단일
저술
그런데
다르다
국도
언제
공사
미군
늦
설치되어
아오
##페르
선교
되자
등판
일정
##리우스
이전의
오래된
충청북도
출간
##산이
대장
##프랑스
종류의
##적의
##ther
고용
선고
직업
뜻한다
총독
앞에
##신문
회전
##체스터
한반
##리가의
지방의
다케
##대중
##소와
되며
테러
##cy
보장
그레이
##애니
가을
jr
##조선의
포유
##세로
##스컵
저작
주둔
주에
##구와
##거운
#*
##노스
함수
시작으로
##기에서
##사람
##페이
대비
이야기를
##환경
잡아
특별한
##보고
##으로서의
까
드래
말았다
어떠한
남동
##이상
높아
진압
가서
##병을
그와
##등이
##련의
당초
##조직
전파
car
효율
팀을
법칙
거래
코드
##》(0000)
스탠
하였으나
니콜
##개가
##바로
##이센
##지인
##버드
##보는
민주당
정비
트로
강점기의
##조판
국경
시나
공업
##금의
##누스
##진이
##''.
레오
것이며
이들의
##즈는
조종
말레이
##원군
규칙
김종
##터리
쓰는
##토의
상승
콘스탄
갈라
기록하였다
돌아가
사운드
벨기에
##hk
희망
등장한다
cr
행위
희생
넘는
받을
맞이
##방의
도와
에도
##ition
프로그래
로버트
##수한
체육
제대로
##ase
기대
남은
##이닝
##che
향상
ag
올리
##고등
##입니다
##기록
개막
고문
지급
##훗날
##님의
이룬
##보통학교
층
##영국의
곳에서
보냈다
##렸고
##도쿄
##마르
했던
##사전
##진의
##레옹
##법이
##프를
북동
느끼
des
코치
벼
##무부
이재
##머스
개관
메인
라고
아들이
공통
##동과
##일제
부르는
양자
명이
선의
##동은
##재를
갤
##질이
문서
dvd
로켓
학문
사용되고
연대
##퍼드
##메리
##학원
q
##번의
##orn
관료
성을
스티
끝난
##고기
의무
남서
ver
세력
수집
여기에
출범
쓰고
예측
##증을
##시대의
##orea
타이완
영웅
기록한
단독
##락을
처형
존재하는
배출
운동을
조작
미사일
정지
##치아
##키스탄
아이돌
진주
주관
초등학교
*0
신뢰
신청
##가에
##그라
##지션
목표로
반도
깊은
장식
##석이
선보
않았고
외부
제이
마이크로소프트
##방향
##년에서
촬영한
##경영
녹색
##연히
반영
##보를
사태
통제
구속
파라
아라
않으며
받는다
##미니
##세한
이기
##계에서
발견된
제일
##고의
경우에
동남
프로그램을
쓸
미상
군대를
횡
##극장
##사스
완료
건조
파악
이정
##리안
예비
문제로
와이
마치
실질
##미는
##우라
##출판
피해를
차별
##소설
##주의를
흉
##건을
공화
##었다고
##pu
##통을
후속
##유치원
집행
테이
##조로
번의
학술
##였지만
곽
##교수
살인
대표팀
##부터는
##타르
##모델
##질랜드
##카드
##att
동의
나타내는
둘러싸
일찍
##씨는
선수가
발표하였다
##식에
##》-
##우의
꼭
##amp
누구
##지정
프린
##츠키
수훈
주말
카이
##ash
##ock
톰
##비디오
##대대
##ance
##주년
제외하고
농민
hd
늘어
항성
##so
##리티
맡아
명명
출마
주에서
##네이
##관에
지낸
임진
##복을
창조
##교를
##론의
작품을
해산
##방을
##야구
##화되어
##bert
망명
반대로
이후로
지켜
##겠다는
##물은
픽처스
모여
마크
##영의
한국어
중화민국
틀
발매되었다
그때
재개
급제
헤르
시작하여
공식적으로
창단
당시에는
준다
플래
##해가
mm
도모
올려
##정으로
왕국의
##타운
해에
추정된다
사법
나폴레옹
개조
대학원
대기
##스트라
##gl
릴
뮌
논의
##비트
##야의
##자료
승진
아들로
잡지
샘
신축
묶
##복지
성적
사냥
오오
war
부산광역시
##토니
##곡을
않게
논란이
도시로
자이언츠
위성
##ubl
sing
다수의
백제
##기까지
가게
야스
실현
병합
무게
오스만
콘서트
0000-00-00
대개
##명에
경유
유형
일원
##우에
체제
플레이오프
##하루
정기
그래픽
##주의의
검찰
왕조
##양의
아티
향해
황금
##뮤니
##ise
##ism
등급
한글
##앤젤레스
스카
점점
마침내
정책을
우려
하였으며
##비치
웅
*《
경기에
##해져
됨
##선과
##au
##스포
모아
요소
분위
##생을
통상
소송
어디
능력
##패를
대리
무시
※
침략
##텐츠
로봇
세인트
많아
지도자
##리타
press
fe
플랫
없으며
##경이
##터를
들어서
쓰인다
##색의
분기
불안
##가시
##년도
조선의
##리적
##뿐만
##계는
##즈미
##리에서
동해
##으니
독특
일부를
##산에
##unt
오카
##경기에
포항
아름다운
아미
구조를
샤를
미드필
합성
아버지는
##yl
자는
풍부
##하였다고
빙
##화한
##order
##주군
##당시
관계가
없다는
콤
차지했다
상품
마지막으로
##트에
##own
천안
방법으로
스위스
##개로
터미널
페르시아
##오의
듣고
법정
##했었다
일본에
##실의
##png
하나는
##수산
변환
메모리
대통령이
000.0
##로나
라는
알파
조선총독
##섰다
사용자
##산면
스타크래프트
##oph
메시
중인
합쳐
시작한다
##ton
감염
정확한
군의
사람들
교향
##년경
##우치
##이었지만
##공주
##피스
##are
엄청난
근본
인권
ost
정차
청나라
##표를
##역이
시즌을
중세
##기원전
##랫동안
가지는
단편
띄
##전과
##row
형태를
미드필더
##국에서
##대교
##씨가
##타마
것이라
캔
현상
타임
모양의
빠르게
##문제
강남
덴마크
##박쥐
##able
명확
##ake
히로시마
##산리
들고
함락
길을
이명
캄
닌
발발
문헌
병설
브루
인종
앞에서
란
힙
하나인
신호
이뤄
##범학교
##뱅크
##재로
fr
가스
자녀
펼쳐
그들이
글을
감독의
오랫동안
춤
가문의
천연
##령이
확립
박정희
##리코
트랜
##단과
흘러
의미를
다다
이르러
##街道
##ius
이후의
##석은
성남
##교육청
아스
세르비아
|
꺾
중지
##내에
나온다
di
새겨
이혼
웃
##드에
ser
##개혁
##고가
기다
cm
대부분은
##름을
받았고
아테네
묵
##iel
일치
##주었다
val
승강장
##되었을
##우주연상
주장하였다
##ome
단지
##건설
침입
해설
장비
##시타
##에른
go
한성
##비시
##산은
카르
##계약
##포로
다수
변호사
안동
지내
##티노
포지션
갔다
가와
##드라
장수
받아들여
바뀌었다
##토미
0/0
켈
놓고
바깥
불렀다
출신으로
##계열
편찬
지붕
##카의
##보호
##고려
예수
체코
##생의
소방
글로벌
세계의
##테이
입학식
상황에서
지금까지
gu
팽
##ail
구현
것이라는
가담
추천
지냈
##rist
공화국의
##ward
히틀러
##주고
뜻하는
잇는
##임이
두었다
비상
연구를
행동을
쳐
##투스
##sch
##함과
나타난다
본관은
속한다
##대문
이종
리그의
분열
##cc
##vp
세계대전
직원
처벌
카메라
뜨
##der
유사한
##no
##당과
멀리
##시키기
##ations
훗날
의존
##ower
##캐나다
말하는
훌
인도네시아
##코스
##yle
##하였던
##하여야
앉
##irl
구입
챔피언십
다운
돔
##독립
##책을
라이온
##ool
데이비드
마츠
우에
후기
중에는
음식
##마니아
프로이센
작품은
##드레
##크를
op
오페라
ep
중추
인접
후계
평가를
유일하게
cent
##게이
무사
##학회
싫
dr
부속
못하는
안에서
##라디오
가치
중계
바이에른
##르가
매일
보관
쓰이는
##대원
##루가
디스크
##클리
일으키
조절
포켓몬
섞
##사무소
미쓰
예정이다
쾌
가나
뮌헨
##황후
보건
활약을
돕
시가
탈퇴
afc
죽었다
고속도로
요코하마
##공의
0%
주최
##중의
##레오
무너
##릭스
사망하였다
쥐
##이므로
##유가
원년
##났으며
##번째로
##타의
기울
보잉
##시스템
있음을
석사
##니가
미나
소멸
적절
##각을
##리지널
##났고
##다의
##안의
아르헨티나
갖춘
이벤
상당한
인디언
해상
music
##종을
기록이
##다면
##슬러
골드
말에
프라
올스타
##단지
대사관
철수
##mb
mo
저녁
아나운
중이다
클래식
스트리트
리처
빅토
어려운
갔
##무리
##왜란
##차원
나고
오다
##port
다르게
시위
교육을
설득
싸움
한일
시리아
##되었다가
가요
알려졌다
##율을
가리키는
##그래
해도
서비스를
돈을
##라며
부담
개입
중부
##00-0
보낸
##보이
음악을
꼽
##쿠스
단백
아야
상태로
##양을
위원장
0.0%
##운트
##어버
##타나
그레
##부사
##》()
수훈자
##stem
명칭은
##》...
논문
##가이다
##kbo
##격한
(0000).
퀸
대략
발굴
얻은
가졌다
일어났다
대수
부분을
자전
##키의
크기
맞아
투어
개명
거듭
취소
브라운
##하므로
##니버스
##di
상하이
세력을
일부는
잠수
전신
이름의
윤치
비트
all
사람들의
##석의
##히고
##ana
변경되었다
명을
특이
해야
플랫폼
##간이
##생물
##풋볼
분노
art
여동생
##총리
##스럽게
나아가
철학자
##르기
두려
##스피
갖는
따로
##하지는
못하였다
##역의
다스
무한
삼국
##히코
##왕은
그렇게
작업을
##공학
차이
##스트로
##리언
##igh
##거래
개원
프리드리
이루고
##주인
##진흥
올랐
##뉴욕
썼다
다음날
포함한다
##야시
스케
전통적인
##미술
##혁명
큐
##대부
끝나
연습
프랑크
et
적합
##sm
##ink
공중
주간
##ream
내용은
맡은
핫
궤도
깃
##카미
삼각
집권
##ife
여러가지
지금은
수석
높이는
##포를
파트
어깨
새롭게
사망했다
##wh
이루어졌다
여객철
골을
닥터
지니고
기상
특성
이들을
##되었다고
##국장
있었기
유나이티드
문화재
##향을
공산주의
속도
입고
토모
포트
일부가
전부
##타는
경남
협회
일정한
헝가리
##색으로
만들고
홋카이도
대학교에서
코너
##인에게
포유류
만들어졌다
폭탄
##치게
개발한
마음을
저서
포함하여
메이지
벡
교구
활성
곡을
방면
부상을
##었기
모토
사임
##어스
##티오
시게
패션
##시스코
##자로서
##ology
지시
사용된
##사이트
알바
의식
복합
##ye
되는데
화산
##판이
##작곡
##함이
##way
분명
##에선
동양
목소
무덤
이로써
##소녀
가슴
공헌
않으면
그로
ss
##동물
##터스
일시
전력
전송
혼합
고유
나누어
##마가
인쇄
##arch
##left
기회를
코파
전동차
뉴질랜드
겹
상위
현의
나타내
의혹
특정한
이영
과학자
##진은
##졸업생
할아버지
똑
후쿠오카
##그리
##너스
##여객
##ley
자극
주전
##cr
역임했다
몰아
돼
연관
gl
원소
고종
덧붙
나왔다
##무늬
졸업하고
좌우
아사히
##)-
##타지
##par
섬의
##인천
##한의
포함하고
##파를
행복
화성
시작된
0000-00,
존재하지
##어야
대결
레벨
선전
속한
확률
입장을
다리
달려
심사
수상했다
##페이스
성적을
##가능
일본국유
##장관
왕이
##단계
##호에
김씨
##차는
##플로
장소
자신들의
힙합
교류
호소
##었을
연산
##산화
##연구원
##이탈리아의
대한민국에서는
교명
##론이
기업인
##로써
##되는데
필요가
##비뉴
보스
않지만
##론은
##점의
독특한
발견된다
##제도
다소
파크
당원
##만으로
공연을
갑자기
네이
러브
포도
가진다
대부분이
##’(
##연속
##ode
기병
##ade
마산
##강의
민영화
##들로부터
상태에서
참조
발음
잉
간행
선박
##명과
쓰러
안내
##세대학교
좋아하는
천주교
책임을
발견되었다
##앨범
눈에
요미
##지어
신체
##온의
사마
##가락
감사
들면
위치를
##ars
ic
거짓
고시
나뉜
극장판
반란을
평안
전쟁의
추구
후원
##미디어
##슬링
##let
##영은
말이
상대적으로
##ger
##ron
##주의적
임진왜란
랜
##발전
##que
커뮤니
##0"
대우
감독이
사실이
길이는
하에
사랑을
재건
폐쇄
##보험
##rop
굳
##yn
청주
나라의
행정구역
##bm
##바일
계통
도쿠가와
프로토
##받는
댄스
##라와
ge
조지아
의학
지은
창작
##부대
절반
드래곤
변화를
hist
한자
##격으로
찰스
스키
필요하다
##니치
내용이
루이스
부분이
##고는
거두었다
승려
자리잡
김동
경기는
##느냐
##역에서
##역이다
##호쿠
정권
넥
##홈런
##(),
기둥
조별
##화되었다
##igital
##등급
대원
금메달리스트
화가
per
규모의
나이로
의정부
전형
크라
##fr
얻을
자리에
##루의
##여자고등학교
##00)
도전
##해군
코믹
화장
시카고
에피소드
##공산
가이
리버
##들이다
000)
나타나는
접촉
주어진
핑
시즌에
##구조
##reat
##번호
*:
라이트
##천만
경제적
루트
##프란
없을
점이
보았다
이미지
변형
##다란
##go
전면
효과를
##사상
십자
##레나
개최된
up
돌려
벗어나
000~000
##터는
##터미널
내렸다
##터의
##oci
앞두고
##라에
##양이
0000.0
빚
##가요
##구에서
##되어야
곳으로
첼
##별로
돌아와
타입
##eric
##용의
만다
지위를
사람들을
##월의
학살
소련의
늑
이은
그리하여
##동맹
##레의
##산동
##연을
격파
순간
##aceae
추기
##십자
##ild
트레이
##듯이
##치에
유럽의
랩
##ien
os
오직
##:000
국민의
사업을
su
왕의
주택
##운영
국정
끌어
지역으로
##마를
##메리칸
뚜
주와
##종으로
프리드리히
재배
선정되었다
##디움
유학
가상
멀티
유기
##스티벌
노래를
평론가
air
dna
편이다
##층의
타격
##라면
몸을
부동
하여금
가리킨다
시상
없게
mvp
졸업생
동방
완벽
대체로
방송국
아버지의
##파이
이씨
##항을
##카가
발탁
노출
성의
벌어진
dj
고교
느낌
##ha
발언
##경은
##크스
승객
##마쓰
부친
미국과
##itt
전화
##우가
##편성
혼자
##실이
##초등학교로
##즈가
전까지
##그램
재능
프로그래밍
day
유행
더블
투쟁
역사적
시스템을
원인
발간
임금
##체와
pe
##")
##지면
방해
그것이
##또는
##주에
##ank
김태
이토
마스터
있었다고
ak
##가족
##로와
해리
바닥
오리지널
공원
인구가
대통령의
발생하는
모험
##sa
##터가
##조건
##파는
오키
자랑
##되게
인기가
##프라
##노미야
이른바
활동하고
며
이지
일어나는
##제와
복원
설립인가
수의
제공하는
부탁
게임을
서울시
사우
일종이다
소리
##처를
kn
상속
##민족행위
되돌
세상을
##제작
##라이더
##에서만
단어
종사
##활동을
##안타
##폴리스
즈
##자베
단위
닫
##투아
이수
청구
받았으며
##아나
권리
입력
kg
live
이르렀다
액션
짝
이라크
비롯하여
##차의
블라
해당한다
single
임무
익스
전쟁에
다룬
표면
##ensis
##친다
닛폰
유효
명령을
하기도
보유하고
##광주
##기지
손을
혐의로
앵
위로
학위를
##분교장
##ternational
##슨의
게다가
방송을
##오로
do
##로서는
##례를
광복
미리
박영
comm
##원숭
자원
0·00
##리며
강릉
쓰여
##베이스
##-000-0
##편곡
무대
싱가
크고
선거에서
##버스터
##일과
입장
즉시
##럼비아
스타리그
일으켜
##만한
대화
종로
##inal
하위
##-00000-0
##특수
##인조
쿠데
혼인
심각한
##공을
동북
마르크
명칭을
완전한
있으므로
##망을
##보살
수리
신분
레인
제공한다
##내의
화이트
선임
어워드
최대의
문신
신화
프랭
##기인
##활동
시사
애비뉴
의심
##했다가
발매된
재산
연결하는
프로리그
##즈니
만한
##사기
부진
유한
스페인의
##일스
상실
제작한
##전기
연료
##트에서
번뇌
cell
이웃
##자들에게
병설유치원
브레
주식회사
치러
대상이
##월호
속의
올렸다
병원
좋지
사건으로
덩
짜
##즈를
##트랙
선포
테스트
시드
이외의
##조부
##훈련
이후에도
되기
용인
##클럽
tvn
전투를
##isc
재단
##스테이션
핸
국토
유통
원인이
드라이브
##펙트
방지
상임
one
매니
재학
페이
만든다
태양의
##ution
##.000
뮤직비디오
가면
내세
이치
##다이라
추방
개신교
이전에는
##베르트
여섯
임대
##물에
##즈카
알렉산드
활동했다
##lo
##양군
가끔
말레이시아
스프
삽입
소속으로
탓
초기의
##달러
내놓
철거
##백만
중성
서구
##조차
##파가
##다시
밀려
죽음을
##ute
리처드
이사장
##청년
서서
##크가
텐
##자원
겸임
0000000000000
##기구
파르
##월드
사퇴
##법으로
##바의
남겼다
어머니는
지지를
##수도
##중인
특집
##네일
##래의
##form
이른다
##da
순환
유배
갖추고
##mp
사전
소화
인용
##수원
도덕
탄압
부분은
##식품
관여
##ins
배포
개량
착용
0·0
공장
집에
사용하였다
소요
거행
본질
##감이
나왔
인지
그녀가
##안군
김해
번주
상관
##ts
##스팅
작동
##에서부터
##누리
##무현
대법
수요
##베리아
권력을
독립을
상황을
##맥스
지구의
##이후
싱어
nhk
이상이
힌
##유를
사망한
일본인
감독을
신사
##apan
높다
##·0
맨체스터
고급
연간
##ml
멈
수호
안타
감독으로
밝은
긍
##공신
##식과
세계적으로
차지하고
스토리
크다
권력
크레
받아들이
##결승
##린의
##니스탄
##왕을
##vol
도시의
아들인
##장군
##top
일행
##="0"
프라이
##인물
##anc
사촌
##았으나
설치된
##키퍼
el
노선을
수학자
##모가
##아카
기도
신의
불렸다
이룬다
참여하였다
끝내
주를
##duction
##ave
코난
활동하였다
대한민국에서
##red
열매
로마의
##년부터는
##ск
히트
##렬한
통계
에드워드
##)〉
주지
지리
남아프리카
##둥이
학사
pol
이들이
style
##비히
##시청
개별
재임
금메달을
##류는
검색
화려
복잡한
히어로
주기
질병
민중
gen
나타낸다
##유대
##문은
##박스
##작가
##조정
##페이지
여겨진다
##-000-00000-0
##모의
##산으로
코리아
스마트
##필드
물을
권리를
특징이다
성직
기본적으로
속해
##센트
터널
##uefa
##)」
##와이
생태
밥
##마는
##육군
드럼
이복
직전
크루
##같이
미나미
사다
대표하는
들어갔다
##고지
##족이
일컫
아버지가
##비로
##화학
(00)
##car
##ner
보이지
아나운서
##야수
개척
##라이터
말이다
##서양
앤드
fil
아티스트
대동
##머리
보여준다
측면
카즈
토지
성공을
##구리
디스
작품이다
##닉스
발족
##비행
탐사
##목을
감시
카라
##금융
돌아온
주장을
es
##uro
에스
미국은
단순한
아이디
태조
기록은
대량
보물
클레
best
코르
##심의
##카타
허가
기구
식품
문제에
역사를
##특별자치
경북
관련자
용어
클라
##ement
있음
##오스트레일
업무를
사람들에게
왕자
##장인
##초에
##제국의
가까이
소식을
임의의
후보로
겉
##fer
##ops
보험
전쟁에서
system
실천
##트릭
##조참
데에
발휘
피터
##ty
곡은
말해
비잔
진학
혈액
##린이
세웠
싫어
문제는
한국인
차관
하느
##스포츠
##0.0
결의
표창
환승
(0000),
##는지
##니시
##ose
사형
이름이다
변신
책을
윗
닮
##역사
개체
현지
방식을
역이
##비아의
대통령은
##정도
나고야
멘
##실로
##현대
맞서
이행
앞으로
##-00-0000
##의정
당사
목포
싸우
##민의
##직에
갖게
입은
형식으로
골키퍼
##마에
조선시대
##마리
##영상
남녀
양의
영혼
구로
접속
나타났다
##노리
##령의
뻗
상을
하우스
최근에는
##미아
승계
게스트
##브로
원래는
이루는
세우
타율
항의
스탈
착공
코스
마무리
##과학기술
##영을
김용
방정
##초의
노르웨이
개방
김현
주력
##mo
##중한
##챌린
초청
##반민족행위
##라를
##이면
검토
##지이다
질량
##통일
명단
차남
실내
##발을
##비에
오는
김대중
##tbc
목숨
##검찰
피겨
떠났다
##(0)
아리
고객
sn
가야
언덕
그들을
전남
##헤이
##회관
##iam
##루미
##입구
승부
알고리즘
운영하고
gro
구원
슬로
루마니아
##후보
##gen
나뉜다
##바다
##하를
지향
##inc
가깝
##위에서
##feat
##루를
##평을
꾸준
역사가
인천광역시
digital
##’,
노스
수익
자매
관련이
동성애
##위와
가속
초기에
##름이
##000.
로스앤젤레스
##선생
붙어
작품의
명나라
*''
##안이
##영국
유닛
일단
다이묘
##린은
하인
동일본
제작된
친일반민족행위
뱀
##군에게
##~)
단행
시조
사령관
크로스
그곳에서
##포스
수술
예산
강을
말로
흑인
불가리아
오이
av
적도
커다란
##oid
동안에
틈
0:
한신
역에서
임무를
##.'
낸
별도의
##미르
레지
첫째
sup
사우스
텍사스
stud
##시절
##키가
걸친
그만
##바시
##ple
##용을
##역에
##인명
전작
수도권
위에서
작품으로
##의원
##ames
##되지만
전문가
##(:
##재가
사도
##훈장
관할한다
본격적으로
0,000,000
##환을
엘리자베
고위
후임
플레이어
쏘
이순
오케
##러리
사립
안양
##ason
정원
*00
바르셀
회사의
남쪽으로
스타디움
날개
##ini
재생
##하기를
##si
롱
##타임
##vel
확산
물리학
##국대학교
colle
##하기에
ind
만들기
전북
##렸으며
john
인터페이스
##ull
사가
##%)
오빠
트윈
그녀를
못한다
손에
함경
##ings
라이벌
가난
감정
##운동을
밝혀졌다
대변
주장한다
border
사회의
후에도
##rap
갖는다
pd
양산
전당
##투표
영화이다
매주
크리
소프트웨
외계
넷
##밀리
발명
복무
영원
##보다도
##커스
강요
정체
##su
농촌
부르고
참여한
탄핵
되기도
교회의
##열을
이글
##스케이
열렸다
tran
구매
신한
##계와
##능력
동시
##네덜란드
참여했다
##파로
까지
##였는데
##트롤
수십
연애
원시
후인
##티스
내가
아이템
있어야
충분히
했는데
korea
서술
연구에
유치원
성격을
초기에는
폭력
추가로
시리즈의
정무
주장하는
나타난
class
##범위
##면과
##타니
##도니아
##ella
모바일
드래프트
왕조의
##bur
사건의
사단법인
##이게
그러므로
연결되어
영향으로
수상하였다
초에
##호와
납치
로렌
크로아
##세스
계속해서
무인
근처에
특별히
센트
##로지
구성원
스티븐
##데르
##베리
아동
가치가
든
##아는
##판은
대대
물려
##환으로
##서와
##토시
단순히
제도를
00-0
인텔
##계로
##힌다
##ara
강등
챌린
가마
김재
사유
##ument
시로
전의
##po
##통합
습격
창간
합동
군대
나이트
##친구
따서
벼슬
팔레
의미하는
##공식
##uss
가고
개인의
##로바키아
설립되었다
##ga
인상
신학
진격
파티
당시에
##균관
마틴
##칸센
영구
그랜드
정수
상태를
##후에
##ott
sl
기소
##스톤
##온은
엑스
위원회
##치기
##air
탑승
허락
##라이트
열차가
적극적으로
엄마
폭스
메탈
사격
여왕
우라
##편의
마주
일은
사용했다
##mon
구멍
##개국
기동
##안은
##일리
##판에
##hel
##클레
백성
카나
곳이다
보스턴
##바나
대다
신도
심리
정교
필름
##ject
한나라당
##끼리
감옥
복음
##협의회
영토를
일요일
분야에서
유고
(0000,
레알
참모
cor
오프닝
##mat
클로
정식으로
이세
철저
##란색
##말로
배급
유력
개념을
##애나
편의
##우스의
방법은
##국민학교로
성질
엔딩
##우스는
원주민
##티움
발전을
세계를
##층에
만난
정부에
##인터
입법
살아남
##론에
##미나
타케
훈장
나뉘어
영화는
이노
##aster
##당하고
##-00-000000-0
옵
##집을
##ret
꺼
덜
패러
##행성
##ble
##디스
싱어송
##기능
##목으로
##에게도
fran
기록되어
##니와
##오와
매각
can
{
않기
##카스
시모
##프란시스코
차단
브레이
일본어
새벽
주니어
줄어들
긍정
전원
##ox
ent
소설가
암컷
##인이다
일종의
##공간
별로
잡고
펜싱
##로우
##슬라비아
##코프
집필
##관계를
보여주는
일본국유철도
##하우스
사건에
이끌어
박근
비중
실제로는
관심
걷
망원
상태가
이용할
에르
후퇴
##되거나
간다
##구청
##올린
테니스
행위를
##브레
##사한
본다
양쪽
외무
체험
출현
주제가
셔
남아있
##(0000~0000)
##자연
##채널
훌륭
##ster
이상을
##나르
경기가
주변의
일으켰다
호주
일본은
대구광역시
당나라
##곡리
관객
오세
튜
서명
신고
대표로
공기
rec
##침을
##목적
게임의
포함하는
##권과
안드로
미국으로
모습이
반대하는
사건은
!!00
##번뇌
삭제
대학의
##투니버스
남양
돌파
*#
그라
일상
자금
지불
##든지
##씨를
보기
경향이
이어서
데이터를
첩
석유
노동자
그리스의
##나게
휴대
동반
0.000
어두
집을
명예의
##ark
##ual
새끼
##재위
문을
빌딩
압축
오디션
위치에
##yo
##플러
##
공정
구미
싱어송라이터
쌀
힘들
##코토
중시
출시되었다
##슬라
##음력
가라
독재
##ater
##담을
강하게
##여성
성과
##포트
통행
현존
시청률
스테이지
이외에도
##버스터미널
##체국
어릴
자가
연구소
##다리
마그
원하는
하나가
셋째
징역
폴리
많았다
브리
이준
밀도는
운영하는
사쿠라
넣어
어드
하던
##뉴스
##아웃
##열차
가쓰
##org
드물
아무런
특징을
##도사
추락
##작으로
##pc
부장
자신은
##노의
##제공
##타가
모임
톱
한양
대부분을
##해에
시마
토벌
##년까지는
##gin
사찰
##enn
논리
비례
##러시아의
##오고
##토스
##판의
자라
##내셔널
여성의
##전사
우익
##실에서
##로디
##배를
이원
수록곡
아래에
##현의
ps
콜롬
해제
##lect
위대한
지속적으로
이념
정확히
##아리
경부
카운
북쪽으로
##주식
sf
막기
비판을
올림픽에서
멸종
점성
##파와
##시안
원자력
##실한
다큐
축제
##소방
상하
홈런을
##서울대학교
메모
##파이어
되었는데
민영화에
데뷔하였다
퀘
##돌프
##ene
신자
주제
##ific
바람에
##new
신장
좁은
마음작용
소집
##〉(
예전
직무
해병
##긴다
맺고
유치
티베
##하면서도
##만원
##소속
##테쓰
id
life
선출되었다
아이스
기재
으로
cont
##gu
시를
옛날
부르기도
##음의
##장한
##ane
와카
후지와
##전에서는
##마치
##중이다
이승만
##프가니스탄
군사를
보이고
곱
##작사
무라
빨간
카메
의견을
페스티벌
축소
했
미카
공산당
##루는
적을
주파
ass
##사관학교
##va
##도어
##로에
왕비
##신으로
##ura
호는
세력이
상호작용
##캐나다의
##공동
수반
지칭
빌보드
李
##밀한
가설
생기
##gro
모터
지진
##칭은
##폐합
##장애
관해
##들에서
미국에
에너지를
요미우리
상황에
연주자
기록하며
칩
##니즘
##대왕
블록
장면
##러브
그랑
극복
선조
성향
압도
황후
해적
(0000-0000)
수컷
예외
한강
와서
.000
##됨에
피고
담고
미스
불렀
##정과
ab
있으면
내는
아가
##夫人
##박사
놀라
눈을
대지
지중
스피드
med
##of
##기사
스카이
##nd
나의
여의
ma
남겨
상무
##하라는
빵
수소
반응을
현상을
미니시리즈
##보로
##인간
##령으로
법무
인증
초등
푸른
섬에
유적
북아메리카
school
##다니
음성
##검찰청
사이트
##실에
분자
sec
판타지
배우이다
김상
대단
##소수
보냈
정통
필립
필수
mon
우리는
이명박
자체가
##치오
##ena
네이션
신칸센
will
##형에
##화점
str
닉
참고
포스트
##검사
##차에
##협력
김수
뚜렷
장갑
황태
##까지도
그려져
빅토리아
##니까
구성하는
동쪽으로
##게는
##중심
교과
규슈
오버
유성
재료
##현재의
역임하였다
서쪽으로
당해
싱가포르
내셔널
레코드
##역은
##예를
혁신
알렉산더
잊
##의가
time
갱
신흥
장르
뼈
##min
죽자
덕분에
##았지만
##레는
##본을
##ama
ke
동경
사막
이온
좋다
##ato
급행
호수
도중에
소속의
일으킨
conc
모습으로
믹
천체
토너
이날
노무현
대해서도
##워즈
무릎
용산
땅을
예로
##스페인의
정도이다
마쓰다이라
:0
일곱
##세기의
##)''
되찾
생애
연안
##인들을
her
못하게
접한다
##ya
##제이
김진
이탈
연기대상
전직
출력
##ий
구사
선호
금강
초상
girl
전형적인
섹
##타케
사카
##ited
상태에
##조판서
##제르
cf
관계에
일련의
이어지는
##로미터
때마다
##츠의
이끌었다
##기상
조건을
리드
삶을
요금
죽고
har
기능이
##-0000-0000-0
##cs
##고에
##보기
스승
전술
탐험
구간이
중에서도
영광
사람으로
사용하지
퀴
모드
언제나
##.0000
무리
특허
영향력을
##세트
명시
선두
호남
##ated
끈
맞추
##전한
##란드의
에스파
시나리오
##iew
##소송
##회말
##app
김지
동서
맞춰
알레
주된
영화제
인물로
조선총독부
올라가
수준의
수업
##플라
##해양
이자
광범위
영화의
크리스티
##ces
간부
내장
웨이
관하여
준결승
history
##되던
##전공
소형
좌익
tour
##구미
##목에
##슈퍼
##폴리
##자이너
##토를
er
펑
사제
##년제
아웃
화합
##한다면
김민
##중국의
000.00
기부
아케
##았는데
tbs
##치지
커버
생각을
수밖에
모양으로
진행되었다
두산
마감
삼아
스틸
얻게
이관
한화
라이프
주목을
항공기
데려
##데이트
##불교
##자책
##총장
##하에서
##나를
공무원
##ze
##군사
김기
양도
아니고
##치와
개성
조용
쥬
간에
알리
적응
앨범을
에릭
##야스
기갑
이하의
##시노
중동
##lin
소리를
않았지만
곰
##미사
##인인
미즈
대회에
운동에
케이블
##마저
이론을
황제의
##받침
놓여
##생활을
수를
스즈키
inter
##삼진
세부
등장한
##실점
여신
기본적인
##타스
보르
##니스트
있다가
방위
사로
서기
##ize
의거
주립
관계는
##국어
##나마
##무스
두려워
##ebs
문장
암호
일대
코어
발표된
없지만
publ
##시픽
상주
##이라며
공룡
버지
락
메달
운송
후의
감독은
##건의
해발
##학교로
##란다
거대
##졌으나
이용하는
##관과
##주쿠
##해지고
증언
##바야시
##뮤직
제네
것이고
전체를
##분야
##지휘
카페
cpu
##방이
말하고
##아들
##전투
말은
붙잡
일일
파울
않았던
결심
그들
구글
월화
bar
시작했고
##덕션
##탄을
##미즈
메가
현역
아파트
읍
##루수
##중화
구장
##였다고
분데스
0000–00,
비정
##적이며
계기가
##ka
##문과
##삼국
고고
급속
수감
##시스트
세리에
##비와
비틀
##훼손
로맨
테크
본명은
##수리
배구
실업
not
##크와
##르바
##식물
##자동
없었던
삼았다
##학은
##ric
발렌
sol
##속에
##여단
카자
특급
열리는
##청의
받으며
모래
빨리
쿄
##마사
##조지
달하는
##유한
##출장
em
갈등
무산
클리
필요로
##롤라
학원
wwe
우리가
##속의
막부
찬성
포맷
건축물
star
##방에
##즈와
##천의
근육
배틀
##시민
색깔
수신
호환
대한제국
##히토
*●
조기
레이블
개그
힘이
##케이팅
나이에
수백
mag
서일본
자전거
젠
##반의
##사추
명으로
박근혜
콘텐츠
##름은
##연의
부분에
##모는
넘겨
심한
##ux
쿼
##루살
##율이
학자
지원하는
##·00
고리
보편
역의
##주의는
에이스
주요한
처음에
포함된
부드
비서
vers
설치되었다
##그리스
##by
##강에
##터널
##over
사고로
##bi
##그러
관중
미키
단백질
christ
아울
res
아메리칸
긴급
대선
##코는
벡터
인류
돌아왔다
##메르
건담
무관
권한을
##재단
아트
nor
##대책
##이라면
bbc
##이야
##정리
##집합
콜로
성공했다
##법과
##ino
한반도
사과
시달
##루살렘
마라
타워
내용의
뜻으로
말라
승차
라운드
배열
영주
##지기도
##ors
동화
연락
##작은
##점과
iii
들어간
파트너
##참모
수직
테오
##스부르크
##등포
##문관
##이시
##작전
ce
쓴다
순수
인조
해협
0000–00
위탁
명성을
의장
잃고
졸
김포
집에서
되었다고
##오가
##인명사전
##주의와
김경
산하
정권을
클래식의
##제품
##피를
##ari
곳을
(0000–
할머니
##세츠
ste
york
여객철도
##연한
가해
도심
리듬
시간에
수록되어
##함은
등도
순서
##공단
뒤로
##갔고
기용
종이
데리고
밖으로
##루타
##보면
##.''
먹는
##경찰서
존재를
내지
보좌
운항
##졌지만
딱
분해
mod
나라를
지나지
##렸을
##체인
연계
심지어
##민당
##슨이
##우를
법적
없음
풋볼
자유를
졸업한
부상으로
pp
감각
고안
웰
무선
##들과의
가치를
브라우
철도의
##슬림
간호
능력이
동기
방언
수목
##우드
신용
##특별출연
드림
복수
상의
말할
순천
통폐합
잉글랜드의
##기계
간섭
약탈
없기
유전자
이스트
빗
##영이
가시
겨우
밸
##담당
추적
##with
목숨을
세계에
##발의
지역이
램
##군단
##네의
##족은
##프와
계곡
촉진
공격수
인터뷰에서
유입
현장
##ocese
##유로
부설
전두
머리를
불리며
적어도
탱
반면에
##도리
##말을
##모로
##out
모듈
##베트남
##outh
안토니
약간의
람
극단
소환
유용
변화가
병력을
의미로
##나기
##작품
##테스
뿐이다
##네마
##ald
디아
장례
토마스
##inter
대학교의
비잔티움
##미와
소규모
아르메
song
##령에
본부
적색
##위원회가
마케도니아
##졌던
되었으나
호흡
##때문에
##ouse
작전을
중추원
##악의
##클린
##저스
순위
유대인
##루과
사진을
우수한
운동가
또다른
밀라노
비롯해
##되었다는
##과장
농림
your
뚫
##수사
##클라
##하늘
mac
##고리
세우고
전해진다
##어리
##져서
거친
메리
지바
곧바로
##쟁이
야쿠
##리케이션
##하가
##any
들여
새누리
##라델
##습을
##우조
##족을
##학에
도서
마시
스파르타
발표되었다
##병으로
##경기에서
딴
수수
월간
총선
##합니다
도시를
##ony
디젤
사무실은
##나리
소위
전승
곁
가즈
연고
##학에서
international
담은
독점
무신
의도
거느
석방
교향곡
크기가
리그에서
##으려
쇠퇴
중립
물이
럭
##처리
##팀이
결과로
의미가
##ike
##ste
최저
##식에서
센트럴
##님이
##면서도
min
##스위
##주와
가득
무효
캡
##탐정
평생
##ates
아프가니스탄
##카리
맞는
페이지
태종
웹사이트
##gy
소스
경전
서독
##생명
인구의
프리미어리그
##uck
도구
랭킹
##정신
역은
항해
del
과도
##ience
서브
폭격
##ja
영국과
이르기까지
##0(
로빈
르네
이병
##해진다
과거에
접하고
스케이팅
급격
이화
##스페인
끝으로
디자이너
영국에서
낱
##oul
사이클
상황이
##상업
##절을
다루는
블라디
##렌지
##색이
발레
위상
플레
많고
싶어
##rain
플로리다
개장
모로
시라
유인
일로
iso
앨범은
0~00
독립운동가
차지하였다
칼리
때문이었다
##공립보통학교
굉
곳은
남한
award
툴
약한
없었고
때도
맺었다
##ds
##정원
하사
거리를
국가가
##국과
##쳤고
항구
##기서
평택
##프라이
관심이
독자적인
지역에서는
##창군
가사
성당
##시대에
가지게
퓨
##인사
공략
##영화제
0,0
방법이
##bus
걸려
고통
##분으로
보이며
이야기가
##곡동
##런스
##모니
막아
업데이트
##ven
선진
이윤
목소리
##보건
아베
침해
쿨
구름
반사
##메이저
##flag
들어와
소관의
##조약
추가되었다
론
없애
잠재
중구
##케이션
##태평양
가능하며
번호
자율
지연
##ient
##irst
사양
책봉
##세리에
마치고
##꼬리
사용이
일어난다
##ek
##oy
##고쿠
##ons
pa
억제
크로아티아
##금은
침몰
파생
관계로
콘스탄티노
##학교를
다음으로
편입되었다
됐
삿
##리크
##평균
##노르
##라트
##mix
바티
##사추세츠
##등한
##성도
##erican
게르
올림
##석으로
##이었는데
뷰
##chn
반환
production
심장
홀로
일본군
버지니아
0×
##노부
거둔
고지
##ford
당했다
간접
벗어
성과를
##되었기
뜻이다
rad
천황의
아틀
명칭이
##국인
##억원
이현
추대
##리스토
차지한다
포함된다
dream
##후쿠
이진
있다면
펄
##글로
##일간
국유
##런트
팩
도움이
sw
이벤트
##랑이
열어
공동으로
##아라
전임
쿠바
##하르트
##eter
아직도
##스케이팅
##출을
갈색
구간은
##ision
샌프란시스코
cj
발라
대학에서
문화체육
##고자
곤충
못해
설이
타운
##골든
근로
영화를
개신교도
적의
꾸준히
##시내
##현악
빛의
##메이크
##이스케
출연했다
##살이
서북
자세
##》(''
night
##물과
가미
매장
문화의
스크린
유고슬라비아
##gi
##임은
방향을
이익을
토요일
##급의
리눅
결승전
산악
이광
플루
하야
##편이
구리
영양
##stit
들었다
애플리케이션
station
모집
타원
현대의
히가시
파키스탄
:#
빌헬
사직
점은
초래
##스코틀랜드
##실장
##코가
무료
김영삼
형성된
예루살렘
이루어진다
##강을
##순환
동굴
비로
사실은
민법
정부를
흐르는
##aa
##버설
##보의
##생산
##카르
마에
##한국의
고양이
별도로
도시이다
출연하였다
##온다
재즈
##등에
##청을
화폐
자료를
##성한
빛을
충주
후궁
##원숭이
##ange
발생한다
유발
충격
미스터
풍부한
back
굽
##공파
##란의
모니
##avid
##-000-0000-0
하다가
남아메리카
목사
대신에
시절에
않았으며
##교사
신부
총재
##졌는데
돌아오
사이를
##가루
##석에
출가
효과가
계층
페이스
세계적인
구상
살펴
찾는
동맹을
발전에
##가스
##황제
이경
전망
ever
##토가
불명
정벌
물리학자
##편을
두드
##코드
##해주
이인
입었다
결승전에서
험
##회로
달의
무용
벨라
사위
여수
주거
요구하는
실종
앨런
자바
##주간
##형태
지점
퍼져
벌였다
##차량
귀환
모르
시대에는
##천리
##''(
예언
유우
버리고
인생
##화에서
꾀
##화하는
무슬림
##츠는
##led
유격
수비수
왕위
설립한
스파이
##역과
ms
##무기
##실록
기지
##과로
애국
이케
도호쿠
아마추어
포함되었다
##평군
##권으로
der
##인치
경고
오염
이나
일도
사람에게
##번을
깊이
소닉
화면
오늘날의
임신
##브리지
##하였을
세워진
##카는
부천
손해
참가하였다
베어
##관광부
##령은
##인들
공학
광역
홈페이지
##(0000),
윙
기생
##림을
##범죄
조선민주주의인민공화국의
모음
미네
북미
부통령
##por
그럼
채무
##된다는
원자로
딜
##그로
##일반
대칭
야기
##티의
##ris
게시
대답
out
훔
##모어
##색은
심판
오노
자문
타이틀을
##ler
지방자치
차지하는
제자
인간이
아니었다
##tc
고베
이마
걱
아빠
활동에
##과도
##블로
게재
실용
중력
##idge
베네치아
##관에서
##수엘
##위대
##add
기요
법인
아울러
spec
입증
bus
열었다
종교적
##아카데미
##벌레
했다고
*0000.
흩
##번지
##친일
영등포
##몬드
지대
발생하였다
이리
입사
인도의
적절한
자유롭게
토너먼트
고려대학교
##러는
기하
위키
된다는
##아르헨티
유형문화재
##액을
국장
부처
역전
수록자
연방의
##운수
공전
서서히
위기에
프로그램의
##형과
장난
주장이
과학기술
##cent
주변에
프랑스는
mat
##여자대학교
네이션스컵
뿔
융합
##이라도
컨트롤
##가인
##카라
tw
학부
조부
##ский
불만을
##lap
##함으로
##----
##work
jtbc
일본에서는
##내기
책은
살았다
쏟
전진
정이
측은
국경을
##편에
##어졌다
일본이
##정동
##희의
공용
모노
주문
착륙
오디오
##론과
##즈니스
##타나베
활동이
사용자가
##에너
경비
안의
말하며
학교를
이어졌다
당한
밝히
스톤
서쪽으로는
##졌을
스타일
옮겼다
고성
off
사이가
##니에
행렬
깔
개찰
득표
복사
아들을
##결을
##세요
의지
##사령부
##주의에
자리에서
다이아
지방에
항공모
공식적인
##토는
##무역
##청이
##치며
지내고
루트비히
말한
법학
천문학자
##규칙
##아와
##하러
밀접
전성
공간을
타이틀곡
엘리자베스
##도우
##산과
##후지
김병
배제
트라
##중에서
전체의
크기의
베타
언더
노선이
##서비스
문화를
##기준
쇼트
진영
지원한다
가톨릭교회
##고도
alb
건물은
선생님
한국방송
##기독교
특성을
##기자
관람
왕족
지목
캐스팅
생각하고
동쪽으로는
닿
##시피
대승
보살
중복
##나라를
아우구
쪽으로
##사우루스
##세종
계획은
그동안
파이어
칙
##her
기호
다녔
평소
디비시
성균관
참가한
노리
막을
몰락
통칭
크리스토
##pm
흰색
교수로
##자나
관련하여
부흥
착수
창당
최상
희극
엔진을
지었다
유지하고
##물질
맞게
올린
목적을
미국이
허리케
동아시아
##관찰
ye
자손
##하겠다고
마드리드
장편
##푸르트
결혼을
##고한
대로
성벽
기반을
철도역
##투아니아
이적하였다
##벤처
마카
소득
##.00)
개발을
##변을
입대
##내에서
전체적으로
폼
건의
끝났다
구동
비스
산화
유럽에서
흙
##마일
##미스
?)
교차
죽을
##어머니
바꾸었다
하더라도
교섭
달아
진흥
##나라는
bro
메트로
바이올린
닌텐
##디자인
##바이트
×
얘
##강원
##소스
##투자
기체
적대
##공연
이외에
그리스도
발생했다
결과적으로
##아를
du
나선
본격적인
version
크기는
불리기도
##가수
##률이
남쪽으로는
##길이
##평화
제공하고
##?)
분산
##-00)
간단한
##사장
못할
##노래
##류에
##pop
찾기
##너는
##디지
##받지
##조와
군수
msl
과학적
##에의
마스
조직의
valign
##xt
##마자
가도
조명
않도록
참가했다
##널드
##렸던
##리온
폐기
낳았다
레이저
우리의
##있고
##천면
##)/
##몰년
클래스
##그레
신입
압박
얼마나
##oo
##」(
##카를
구마
미치는
##책임
본토
중장
##하라고
먹는다
떼
##기타
##소한
옆에
제후
커피
##러스트
다큐멘
사용해
조약을
일본으로
##oll
칠레
##중에는
##ator
도시는
몬스터
##유니
잭슨
진짜
친척
우연히
##0000.
바이러스
프로덕션
##석과
양식
##웨이트
대외
상영
테레
##년생
##란트
##바흐
##터와
복지
서재
동지
미시
전향
차이를
##측의
패턴
##웨이의
†
##파에
가질
안산
담당하는
근접
버튼
온도
##스테르
또다시
월화드라마
##라기
강경
분야의
잘못된
가능성을
목격
수단
##문으로
##atus
가능하게
시와
인물이다
랑
##였기
에미
##류와
동래
서방
원수
이곳에
하버드
사자
자식
##선수권
제도의
##tt
##파크
서남
찾을
춘천
내부의
스프링
생각했다
중국에서
캐나다의
여우주연상
내리
분기점
rock
아르메니아
record
##트콤
##히메
오리콘
##교로
##타리
보충
성은
라틴어
훈련을
연세대학교
폐지되었다
무력
수료
안티
예방
최신
막대한
이라는
최근에
부른
체제를
##았을
전선
작품이
지금도
##복합
발효
유신
의뢰
##학과를
##dp
##바람
##arl
po
섬을
할당
##john
규모가
뒤에는
##돌이
김창
꼬리
결과가
대표이사
##측면
속도로
##디에
강수
디렉
물건
바둑
약칭
근거로
북쪽으로는
##변경
받기도
뤼
##대군
##키스
선형
세상
편지를
##mus
견해
피난
전투가
가공
오가
##사령관
##결정
##통상
바그
트위
어두운
##브라질의
##번대
관광객
디즈니
아이를
지정되어
고립
원형
##당으로
계획이
##철의
##팀은
곳곳
꿈을
점유
출연한
갓
펴
##교가
##반을
##urn
아파
왕립
모양을
##차별
대만
왕복
컬러
않는다는
##보가
##이하
위안
아니면
용어는
히로시
##프리미어
값을
잃은
##국제공항
##ondon
##작을
교실
옹호
지혜
cam
##우조연상
##명인
##아스
bu
냈다
종전
구간을
원래의
특수한
엉
##렉스
개화
별의
원주
사랑의
도움으로
광주광역시
##재의
##시켰고
##ustr
mem
##본은
메디
미션
##ions
##리브
##파일
거기에
시대를
화제가
##ograp
##때로
##란을
선을
에우
해운
해임
gre
아시안컵
하천
book
한국에서
##바타
##주곡
밖의
숙종
정찰
##펙트럼
##iver
충분한
쟁
##ida
오타
글로브
기술이
아니며
상태이다
##병이
선배
원내
출전하여
##간을
내륙
언니
클라우
직접적인
마키
##견을
##요코
##현이
남긴
노비
브래
발매한
자격을
##라델피아
고백
탓에
eng
하나를
(0000.00.00
계열의
##왔고
사기
시에서
되었지만
##팩트
창업
청와
크림
퇴각
경계를
다음의
마케팅
휩
##고시
##고종
##마츠
##eng
멤버로
사로잡
밀양
ebs
속도를
찾아가
있어서는
##용이
sa
무늬
일에
못했고
얇
저택
특유의
##슈타인
토머스
보상
선제
##프로그램
##금이
대폭
top
빌헬름
눈이
재무
전두환
기록하고
오케스트라
햄
##민이
들은
바뀐
소생
제휴
하얀
어렵다
훌륭한
##alk
##ham
육성
지표
##으로의
##오르
~)
연설
##된다고
시작해
몸무
입문
보내는
high
##증이
##rol
대조
******
##미에
##파리
##ular
시범학교
성공적으로
남극
채로
수록된
사단법인이다
##디는
##즈에
##회와
머무
##년으로
kbo
##,0000
졸업하였다
##분데스
성질을
##yr
백인
##oss
김규
나나
0-000-00000-0
##분은
##일체
##자본
맡게
메르
전투는
캠퍼스
##(0,000
金
규정하고
바르셀로나
##청은
갤럭
마루
모델로
##수수
범위
주소
##노스케
##스웨덴
일환으로
##mhz
아래의
national
레닌
서해
##년만에
##당에서
곡으로
##교실
##off
곳이
삼고
##직에서
##진에
산타
아서
외의
창시
따르는
민주화
정도가
최종적으로
##르노
##미쓰
고도
교도
다가
박지
구체적인
##오를
점프
##경기를
어울
##금으로
##레이터
게임이다
##li
군을
경험을
행성의
##천동
북극
브로
인문
획득하였다
데이터베이스
멋
##실과
영남
총장
측근
과거의
덧붙여
##위원회는
대의
병력
탄소
트럭
만나게
방식의
that
비슷하다
공무
기아
##삼성
실험을
하거나
해군의
움직이는
꽤
띤
##심한
금성
땅에
사쿠
##자였던
전투에
##구장
##려서
매니저
이곳에서
한국에서는
##악기
##톨레
##ole
ip
뒤인
진동
유니폼
생각된다
hy
명문
역도
##실베이
목적은
중심지
소총
##ures
강점기
동아일보
객관
관장
사사
일렉
합창
##och
나쁜
##격이
영동
##루션
##류로
동구
운반
룩
탕
##브를
동독
지배를
스웨덴의
##테나
비오
합리
##icro
화려한
토착
대주교
##보안
숨겨
정류
결과는
마르크스
##mc
샬
##기갑
따뜻
진술
최연
하마
근처의
##ов
##세르
##야는
##예프
면허
수천
신동
예능
##wa
몸에
스쿨
스펙트럼
졸업했다
##제한
야생
act
군대는
토대로
하와이
##osa
조항
중소
늘어나
최후의
에스파냐
##곡이
보인
에디
제갈
int
들어오
차례로
현상이
막내
손상
채권
남동생
속도가
##전문학교
##sd
##제프
시집
##eral
은메달리스트
##ny
##유미
##하니
바꿔
비가
얻기
국가를
프랑스어
##프리미어리그의
래퍼
모순
cal
##음에
강이
창의
pre
##롤라이나
##kt
톤
계절
부품
비극
시즈
경제학
일찍이
##들인
시립
이즈
면에서
언어를
열차는
##있던
형태가
연속으로
자신에게
##asa
다녀
엔지
원로
풀려
후일
선거에
운동의
알바니아
콜롬비아
##그는
##기기
관통
연인
시호는
정치가
죽이고
브라질의
##동기
제약
왕위를
heart
##하이오
오키나와
커뮤니티
대전광역시
마리오
black
##000-000
헐
트레이드
##수아
부과
신규
지폐
만화가
전에는
추기경
good
그럼에도
굿
아폴
증축
부르며
생각하는
##야가
##직한
골프
##출판사
주제로
##온이
##일드
##ser
떠난
##한국어
##》(0000),
##등록
##범한
##신과
복구
폭풍
언어로
중심의
##률을
쇼군
비공식
활성화
회색
페르디
플라스
국기
선물
장녀
##프레스
'00
획득했다
##hi
포병
등이다
사용을
포함해
리메이크
맵
짙
송시
저널
풀어
확인할
##어트
##ect
노트
프로그램이다
##투를
##이었다고
울산광역시
정치인이다
大
달린
배정
협상
##마크의
##isbn
그림을
##만명
##용은
##주일
##지리
요소를
슐
##수면
af
광산
유물
평등
공개되었다
프로그램이
뿌리
숫자
이르고
##위원회의
##지대
고무
부착
요크
sim
게이트
방송인
운행하는
##열의
##오른
삶의
때때로
한성부
담당하고
현존하는
##고래
##켰다
리얼
용이
케네
헤비
##line
운동이
##lapse
상상
시흥
##vent
모친
신하
아는
캠프
생기는
진정한
활동한
포지션은
배를
된다고
브라이언
조건으로
##')
##우와
하노
군대가
끝나고
왕으로
잠수함
중이던
##gm
##學校
##사리
##어에
미츠
##받는다
##orm
갑작
리스
이오
##해방
##can
어른
연구가
등장인물
면적
성경
##외선
##itz
발견한
##!"
##ko
##실험
마찰
십자가
네덜란드의
##란이
##포의
마친
지질
##어진다
##라미
##스런
##화물
세로
소실
충남
##성에서
결정을
민주주의
productions
시드니
##;"
누군
화재
건너가
관현악
##경남
##율은
맥스
심의
클린
술탄
시스템은
화살
##불교의
시스템의
##노는
##버러
멈추
항일
##ille
##ival
무거운
##리자
##스러
쉬운
##편으로
스미스
##빌딩
##티즌
##ety
존중
##철도의
##하였기
중앙에
##쿠로
끝이
토론토
##인들에게
보여주고
하였는데
##건은
##어요
##연방
옷을
##라이어
##정부의
금메달
파운드
사용하며
고민
신한은행
참가하여
제외하고는
##네가
##지나
듯한
취약
롬
##각형
fo
전압
줄어
##군에서
##ocal
하드웨어
000000
킨
악화
에버
##치면서
##angel
##!》
가벼
##지역의
ber
없으나
##프스
총괄
사고가
##디의
태그
통화
##이치로
되었을
조직을
끊임
##-00,
ibm
게임은
프레임
##순위
##장치
걸어
한동안
프로그램은
##권도
낮아
먹고
편리
##시에는
신라의
찌
명성
반지
써서
##연속극
##)0
##투쟁
김명
김승
##:00)
리버풀
문화적
와이번
죠
##집행
김준
날아
부패
증권
##숙한
군은
cap
레이더
명칭으로
시내버스
##받을
##연이
##ext
{|
흐름
##나라에
선교사
정교회
image
##신라
업체
조상
주한
ant
의견이
이어져
사이에는
##너의
##전도
소니
영문
링컨
##ield
##하였다가
국가에서
##bu
몰래
노력을
사상을
생각해
들어가는
사용하기
##희는
일관
##아과
##토모
##ora
mp
불꽃
정한
주석
팽창
그룹의
전쟁으로
##주기
##har
당의
##love
방식은
전부터
주장하고
##작의
사원
후반에
제목으로
회의에서
##여자중학교
##허가
뜻의
포수
방송된
세이부
##진과
기숙
얻는
초창
하시
역사는
나가사키
##met
무승
존경
캠퍼
호칭
두드러
오렌지
제국이
japan
##fa
##경상
##다지
##시게
##잡이
유출
하트
00°
둘러싼
정확하게
##마와
##열한
##증권
아즈
좌파
프로토콜
한미
##cess
##년대부터
##ee
##바닥
##res
나츠
전인
대회를
포크
쌍둥이
젖
촉구
##공학과
공동체
영역을
##주년을
사이드
남우주연상
잦
##득점
매카
시외
연루
모르는
컸
꺾고
내보
여행을
##울산
살던
선이
연금
##이어서
때로는
집으로
##번에
##분석
##업에
##플링
위기
주축
향한
그러자
끝까지
정부로부터
군단
캠페
붓
##체제
법을
성모
신비
자발
쫓겨
##유대계
결성된
트라이
남아있다
데뷔했다
드라이버
##실베이니아
##지부
코트
개발된
##제주
##pol
대하
미하
분당
공개된
지나치게
디스플레이
바위
헌액
헤드
##안으로
않았기
##ember
학생들이
수치
이슈
경우를
##한을
mr
남원
몰려
밤에
##교회의
인근에
mhz
성격이
자신도
##mi
##업체
##don
부수
피에
흔들
reg
대회는
##구성
##열이
오라
이반
총선에서
##누엘
##보에
##홍콩
이처럼
##암동
얼음
che
파이널
##hr
##포병
도메
장로
증기
허브
##오사카
기업의
소속이
지역과
횟
반박
식량
우주의
지중해
급진
단종
의사를
##원사
구출
포괄
kia
그렇지
##론적
구제
맞지
mix
다루고
독일은
마음이
##公派
##day
ca
각기
굉장
어둠
트레
##쿠니
##cal
gn
서초
여운
조반
##겼고
##선언
거울
분광
결정했다
시절부터
응원
프랜
호르
칼리지
영화배우
히데요시
##)』
bc
공립
모형
전례
바꾸어
지지하는
##?"
##公主
시키
실수
##게이머
##벨기에
우루과
##민주연합
나카무라
##gb
##공이
##사고
##사시
끌려
대령
쓰인
주가
##사이드
승무원
##하였다는
##미네
관습
포로
이미지를
##노프
모모
훼손
흥행
##베니아
##기관으로
##비서
##티는
리가
만남
사범
지각
어려움을
검증
위임
점이다
티베트
##포르투갈
##do
##전대
##마르크
휠
##났을
간이
손녀
용의
나이가
비난을
일원으로
낼
과장
원더
구성된다
au
사르
스핀
체중
##호선과
sum
조선인
중심이
형식의
##리얼
##화하여
##anth
차트에서
center
##교는
##여행
##족과
시계
작고
합법
##곡으로
테일러
일으키는
전통적으로
##저지
강사
자신과
특징은
국무총리
스트라이
##턴의
명백
취항
부대를
속으로
언론인
재산을
분리되어
group
동메달리스트
##외의
《0
직결
타자
프랑크푸르트
##將軍
##래스
##여래
바가
산다
체조
두번째
우라늄
활발한
##오스트레일리아의
강과
한쪽
이상으로
##동성
##석기
##전국
고가
털이
##클랜드
모두가
블랙홀
시절의
영국은
감정을
전투기
##era
이태
강제로
카이사
##여우
두개
빌리
제독
##테스트
soul
이듬해인
●
##속도
남해
조사를
줄여서
arch
대책
두루
들이
수동
노선은
성공한
park
season
##님을
쌓아
약화
이론은
조금씩
##사지
##슬로
##전시
##섬네일
net
껍
##나타
날짜
느낀
오지
are
동물의
아버지와
오스트리아의
##르지
##에미
##자스
쾌속
다리를
승리로
##/0000
브라우저
옐
##토르
추증
힌두
아니지만
밟
##리라
##약품
##alt
입자
죽이
차가
폐위
부동산
쓰이고
치렀다
사람이다
##제일
##판으로
##strument
매달
##rich
거리가
길이가
펀
##버린
##산성
둘은
카와
##동에서
##이었기
템
##ody
로즈
친선
페루
기록에
종로구
투르크
활동은
둘러싸고
##학사
부를
쫓아
##part
돌아갔다
갇
##공화
##패로
##ula
보니
inc
정책에
공인
죄를
##ales
##ideo
군사적
포인트
##(0000-0000)
##오루
##우며
맞추어
웨일스
충격을
000%
가톨릭교도
##조각
싶은
##환의
내고
내무
시범
의병
##세에게
관점에서
참여하여
##펜하
않음
평행
나갔다
edition
##유는
##정당
##티나
구의
사천
재발
##자문
##코와
리틀
응답
하라
##본이
유저
타쿠
##선거구
##캠퍼스
##sw
##농업
격퇴
추모
##ett
특이한
##금지
##왕과
둥근
알라
협의
##/000
문화체육관광부
##믹스
##터키
내내
누계
몸이
박성
병행
총무
##(00)
##berg
##」,
##로니
##릴러
##태후
김원
시뮬
왕은
##리노이
##종이다
명단에
바오로
사이버
##za
규제
바닷
봉사
부부
야간
국방부
센다이
##ative
시작된다
##직할
감지
초록
모델은
##년대에는
##우지
##mas
고수
받기
피부
##경기도
mov
전자기
시작했으며
##포드
추격
**〈
황제가
텔
##라톱
##아비
미노
불을
중순
생방송
작품에
다크
반해
쇼와
블로그
##로이
##미로
##아트
##차장
부딪
음향
건물을
것으로서
플레이스테이션
##로동
##ada
##해지는
##천을
장의
종결
대서양
##gh
누나
이소
제국은
빠진
회고
##방향으로
연구하는
임시정부
수평
##gram
개념은
리눅스
올림픽에
캘
##大夫
##글라
##릴라
충족
##자리를
##reak
굉장히
city
카트
했다는
와타나베
super
물에
이틀
##당하였다
중에서는
##터에
강동
깨닫
조치를
##erson
그리스어
비즈니스
지역이다
##ji
믿고
시켜
상징하는
여객철도가
bi
소지
##메이지
형식을
민속
박탈
##있으며
분야에
시기의
일어날
세워졌다
크리스마스
##융합
나루
아츠
이바
퍼시픽
공동제공
않았으나
##디아라비아
##가고
##길을
모으
청춘
개혁을
대학에
레슬링
실시된
게오
김윤
난이
대처
바실
독일어
부회장
대신하여
알려지지
역사적으로
마녀
원리
정부와
프랑스와
여론
##날로그
가난한
대학생
무기를
##王后
##야를
##aby
깨달
유아
협박
akb
갤럭시
무대에
##네는
##법률
li
마린
외곽
처녀
##보병사단
000.
실질적인
자동으로
여객철도의
##러가
##ita
왜냐
사이토
잃어버
서울에서
학교법인
##가미
##ball
외교관
°
##ano
오쿠
차기
콩고
ter
전쟁은
판결을
실패했다
##러의
단축
판사
본선에
연구는
##결과
##시나
복선
장려
mil
위험한
태도를
뉘
탤
##비나
##선조
ob
친정
##size
아래로
심사위원
봐
##관련
##전주
##its
부적
영조
제수
존스
지형
경험이
##volution
##vi
목표를
새누리당
하인리히
##주리
##터로
여덟
이규
이긴
토크
##단에서
##래스카
받았으나
##술의
민영
성공적인
##광장
##호텔
김광
법원
##어지는
건물이
브라더스
techn
##올로
##판매
보지
역에
이내
충북
지어진
조선일보
##스틴
사회에
앨범의
phil
노부나가
##디가
##설이
##전차
작센
##산에서
##주에서
남부의
대학을
태양을
##건이
##런던
##블리
불이
취재
출신이다
김유
현저
질량은
베네수엘
스마트폰
lo
생각한다
당선되었다
##jo
##밴드
##peg
우정
장학
##학년도
르네상
king
발매했다
보스니아
##대리
##화하고
##요한
제압
##(0.0
거슬러
시간은
철도가
위치하며
다중
##urus
맏
##르드
##질로
김옥
냉각
안성
제트
open
소유하고
일어나자
##내어
##신인
##형제
무죄
유해
일본을
테이블
한국에
##지점
시그
##cn
쉐
##백을
##애틀
##오늘
공익
박상
스콧
##메다
##아마
##ael
그냥
것에서
만났다
##그림
##전선
##짜리
##피는
사적
조달
##press
##ertain
##부르
일부로
수행하는
##티에
무려
부호
석탄
텍스트
##바스
수색
향년
맡았고
경우에도
변경하였다
프로게이머
##역대
##츠와
갈릴
대관
두어
토니
##아시안
##자리에
##angu
##리조
##bar
극히
신속
얻고
지명을
##적이었다
##attle
##디언
미루
전념
회사가
발견했다
사망하고
인정받아
일러스트
##서기
##푸스
--
상처
실린
힘입
##학위를
되지만
##조선민주주의
##키타
##ala
:〈
광장
##진으로
##하려면
feat
도시철도
태어났으며
##공장
모닝
부의
시칠
억압
협약
데뷔전을
##려면
##집단
길고
모방
반공
짓고
토요
핸드
요괴
중간에
학교에
##의에
강도
회계
##ross
중국어
##설립
##종교
##폭풍
##가에서
넣었다
스티브
한국전쟁
덤
##남자
##스기
##층은
별명을
서울의
인정하지
##내가
##수동
##포항
##0,0
뒤집
##fo
##jr
##서원
##절한
조조
지고
패키
거리에
나섰다
아이슬
항공의
독일에서
##ground
##pd
솟
##위해
##ram
조리
피에르
활약하였다
##분과
##cus
입구
전도
전속
리더십
별다른
##망이
느껴
대행
시노
창건
컨페
마음에
project
##단위
마오
선구
유언
잎은
회담
##시에서
교수가
국가에
지식을
기록하여
소속되어
*0000.00.00
##청장
나아
며칠
실려
어긋
역설
우편
장애인
진행자
셈
je
듀얼
선도
수습
촌이
대회의
방영된
선수들이
아버지를
경기에서는
고쳐
아래와
##더레이션
##ho
미얀
액체
##컴퓨터
급격히
회사는
파리에서
##방울
##val
리치
##시부터
라이선
##학습
쇼핑
애덤
원장
시즌이
부정적인
00:00,
##-0000-000-0
##멘트
##양은
##초를
##ola
한명
다음해
들어온
지상파
함으로써
##사항
##업이
고발
지옥
##하겠다는
##코쿠
김구
스폰
커널
met
대상을
마을을
최대한
있었다는
다큐멘터리
##느리
라스
상반
성주
추상
end
다니는
운행을
이상한
장치를
참고로
show
아인
장성
##거리는
##서에서
##이면서
마코토
제주특별자치
##주얼
##med
좌석
중대
헤라
##자이자
실시간
##보리
##inn
##ney
관직
내린
재활
환상
##리학자
왕위에
결정적인
한국시리즈
##zy
##현은
불어
요원
way
물고기
에스토
다운로드
이루었다
턱
##곡의
##목의
##예정
##천사
존속
##강에서
다음에
생겼다
어려움
정보통신
##개는
##테크
그중
장미
해주
회사를
댐
윤보
멜로디
왜냐하면
지구에서
first
분데스리가
햇
높고
##왔으며
##주식회사
##결혼
##따라
사료
##년동안
버전은
소수의
일시적으로
엽
##무로
##씨와
##인권
길게
본관
##과정을
don
승리한
아름다
유소년
00%,
0000),
口
##준의
##출력
##ugh
대교
아기
안쪽
장거리
london
da
도주
우즈
토마
패널
나오지
의미의
##레드
난징
밝혔
온천
##스타인
바이오
바티칸
실패로
재단법인
##전설
'0
초점을
##차전에서
기록하는
학교에서
##신경
##특히
청룡
거리는
부족한
북쪽에
설립하였다
##아야
##인한
##rad
팀에
##fran
교수는
##une
iv
결코
삿포로
음식을
##고등학교를
상장
시점
힘든
뜨거운
말하였다
폴란드의
##워서
병역
역과
시점에서
>
##거진
##민은
권위
누르
배신
별칭
염색
거주하는
##×00
강연
검정
사정
포인
호세
##네스코
##량으로
마을의
##공개
sd
딸을
무상
일컬
식으로
야마토
젤
##사용
물고
산림
세대
##inae
발생할
이르렀
샹
##왕조
괴롭
니혼
로고
일명
건물의
스릴러
안드레
체코슬
홍보대사
instit
science
톨
##만여
##세다
##세자
가짜
시공
비평가
이후부터
바꾼
조치
##백화점
sun
결과에
char
##바른
##사태
##lor
경신
이가
##ring
##view
김일성
드러나
뛰어나
신인상
지휘관
0-00
컨페더레이션
김형
했을
##달라고
god
선수를
필라델피아
굵
##버리
걱정
직선
##년간의
##부장관
그레고
주도는
지방도
기타리스트
##놓고
##모와
##반응
##공무원
여기에서
##ci
곡이
상용
순교
신생
비슷하게
문명
사헌
아비
왕실
초과
공사를
순수한
영향력
성공하였다
보완
마이크
도요토미
##이즈
##황을
사육
피트
불리고
상원의
시즌에는
보여주었다
##아래
기습
오바
치명
물리적
전한다
형태는
후쿠시마
##함의
##헝가리
fre
북한의
요소가
움직임
soci
야마구치
##ju
##자도
어뢰
흥선
##구나
강서
삼촌
경력을
차지한
##리시
##창조
##하키
국어
피렌
비로소
전체가
자본주의
##감한
맥도
붙은
애틀
##경으로
부대는
의원은
방영되었다
##놓은
##박한
천재
표지
황해도
지냈으며
봤
##백과
##업무
##히데
관념
대치
진단
##베스트
##ious
다목적
사회를
자체를
우리나라
임명되어
##포가
업그
손가락
의회는
##공격
##브의
##톤의
##ump
모시
##라에몽
mtv
위기를
사이타마
##지방검찰청
##렉션
##상소
라우
작사가
맡았으며
동남아시아
앓
##목이
정면
진군
##대통령
##자들과
##로부터의
냄
##욕을
##코르
ec
곡의
최진
##연합회
파일을
컨페더레이션스컵
##서도
ft
경희
본사
적고
팀인
편지
하차
##플러스
##호선의
통합하여
##애니메이션
딘
북위
탈환
##ks
##되다
##bin
군에
서정
캄보
그다지
맑
##국립
##대수
##효과
해변
##렸으나
##베르토
##000,
되돌아
##기관이다
좌절
##back
밑에서
일본과
일했다
않는다고
앱
얀
불상
임기
하키
ann
개발에
엔지니어
##미치
공모
log
기술의
소설을
영어로
long
시절에는
##만화
##미코
##측은
생일
이남
ceo
베네딕
발견되는
##우트
##타입
악기
통근
##ural
국가로
지방에서
##남면
##야만
놀이
한계
und
그려진
버렸다
여부를
##대회에서
대통령을
##고등학교로
album
##nn
##연예
##음은
##준비
쓰지
일기
주행
진정
컨셉
##남부
##수용
##운다
ty
매출
무궁
옵션
축출
터보
남쪽에
네이버
사람과
의식을
##보스
##추진
무지
분배
구조는
이었다
학교의
이후로는
##공은
##그의
##모스
##상규
실력
쓰기
정해
얼굴을
요구했다
0000-0
##년은
##시즘
##애를
##할때
난다
총대
투옥
서울대
창원시
떨어지는
계속되었다
##다르
##오나
##포는
성종
신념
신정
카프
공격에
생몰년
##결합
##목은
##북면
##회원
##ury
nc
연령
##arth
아날로그
제작되었다
##감사
단단
라트
이선
줄기
최하
##한국당
rel
되었다가
아들이다
리투아니아
##국사
##께끼
##부작
##척의
던져
제니
##코리아
카를로
##orean
가마쿠라
들어간다
##방위
라파
정동
헤어
##사이다
##크리스
외야수
총선거
적극적인
플레이어가
##uz
왓
##퍼니
빌려
유이
일방
치료를
시작되어
##악한
부평
환원
##생으로
지휘하는
##캐롤라이나
닭
최후
긴테쓰
영화로
힘입어
##란히
##산물
##일자
##통의
왼손
전제
히라
이곳은
선언했다
##".
##트니
그날
내전
북구
칭호를
##브스
로저
축하
##이거나
정신적
늑대
##ines
may
불교의
승부차
쓰였다
에티오
첫번째
제외하면
##000000
##sy
밀어
열고
계획에
독립된
##강점
##병의
##질은
##층을
##히트
진급
##버렸다
pal
영화에
페르디난
##-00000-000-0
##도바
##리야
##팀의
##cle
것인
동년
매개
페어
달러를
pres
##strumental
##》:
##마키
바퀴
##orge
실력을
##朝鮮
##액의
##올라
##피의
##mal
김홍
시초
##권에서
##임에도
프리미어리그의
트루
사용될
어머니가
##현동
시합
하원
과정은
새겨져
수도원
인물이
$
##대륙
##채를
야당
##가지의
##000)
득점을
준비를
카자흐
sound
종족
##rown
특징이
##준은
##층이
##현을
공민
버려
세월
공사가
기자회
노벨상
얻는다
키보드
있으면서
##엔터
##ady
##mac
이장
##레인저
불리게
체계를
하루카
구체적으로
##구간
이의
##인기가
게이지
만나는
베드로
신호를
측면에서
##부산광역시
실패하였다
##도스
##파인
##풍을
sv
계몽
낱말
놓은
##등으로
##밀하게
von
도착한
존재가
봉해졌다
##률은
##문자
##파르
##ero
교원
레논
요르
존슨
##uman
성공회
인정하고
돋
가맹
넣고
재혼
주오
red
생각할
섬에서
영감을
이유를
있었을
그렇다면
가면라이더
남구
돌격
##타리오
휴스턴
민족주의
##요리
gt
수녀
이타
누르고
##셈부르크
상태였다
##턴은
거제
난민
도는
몬테
우울
원산
카타
over
기점으로
사랑하는
움직임을
원작으로
동치
##사업을
대통령에
타이거즈
매사추세츠
시작하였고
##역학
고조
나올
담겨
##....
sur
저기압
어머니의
유네스코
체포되어
##직원
경사
분화
호출
##되지는
##북도의
다나카
시기는
거느리고
끓
##진보
별은
보라
사와
##ship
월드컵에서
##마로
연수
합작
##공산당
##그라드
##샤바
##중대
mi
대두
구조가
규정에
##0,000
##아일랜드계
셸
거론
초월
가리키
주장한
##eration
college
##sn
##전략
##한테
품고
하동
##시키며
교육의
물질을
급식
연쇄
##남도의
##드리아
적합한
##봉사
중독
초신
호위
지정된
##임브리지
프로세서
dc
날카
넣은
담긴
##행위를
다니엘
잃었다
야마모토
company
##친왕
소울
수성
진실
천사
국내외
기록된
아니라고
지적했다
ka
본인
숭배
##시까지
군대의
대니
말기
안나
오리온
남아있는
있습니다
옳
##변호
측의
##디스크
##음으로
##텔레콤
bel
##ichael
right
##rit
신이
american
고토
##우체국
이름인
프랭크
##sup
이방
##해왔다
헌법재판
##으로부터의
보일
아크
장안
단위로
세상에
##네덜란드의
##가게
##됐고
##양성
데스
종의
##장이다
와중에
재능을
power
##고교
##노트
##보르
경력
세자
세조
이식
지능
나가는
이산화
지점에
##나시
##천여
유진
정조
##스트의
서재필
아키라
##번은
##제학
0(
궁극
해를
거기서
관련한
밀접한
위협을
0000-0000)
##라브
##속을
엄격
초빙
포드
문제의
이루어지고
<
##''),
들어갔
역까지
낙선
영상을
serv
중화인민공화국의
##진행
불편
생략
학과
##소련의
말하면
빔
##보장
##하로
구릉
국군
마약
마인
밑에
오고
##까지만
##방에서
nat
교황의
지방을
천문학
미국에서는
##통제
김제
안장
중도
키스
##리우드
노동조합
##ertainment
##vs
##日本
##바위
공과
히사
어렸을
펼쳤다
후보에
##것을
##주자
##후기
대위
표명
화석
##char
자체는
닐
왈
##건축
##익을
박헌
볼리
음원
지녔
첨가
##방으로
음악의
트랜스
story
##일기
섭취
정해진
트리플
##테르부르크
##)=
##대성
##양함
##리면서
##암으로
개봉한
연결된
요청을
나라에서
방법이다
직접적으로
섬유
수련
##년대의
##자책점
기간에
신입생
(0000-0000
##비키
##암리
##지붕
조연
##어이다
최근의
##나오
##모든
##ird
나눌
랜드
변수
##ctor
::*
구조로
스탈린
의회의
##들에게는
##인기가요
그렇지만
##동면
##주지
피신
여성이
프톨레
거주하고
수목드라마
##고등보통학교
##매매
꽃은
잠실
장인
즉각
부분의
에디션
##ра
##캐슬
안녕
해태
dis
선수는
아무도
프레스
시스템이
부서
출토
평일
##ourn
##산초등학교
##우크라이나
우승하였다
카스
호조
##레이크
##aint
소리가
수술을
앨리스
육군의
인터내셔널
役
성서
후보가
##광고
##플래
미라
백색
최적
개통과
닌텐도
사카이
##pi
##на
##타와
##dvd
권고
김선
상인
식별
히어로즈
프랑스에서
##보수
##산역
##%),
딸인
연봉
정경
주류
##루시아
##번으로
그대
벌인
마쳤다
평범한
협주곡
옴
##다카
##변이
##서야
어휘
천도
장면을
출시된
##폭력
오를
주위
터치
독일인
것이므로
존재하고
##각의
##아사
로얄
애슬
고려의
요시다
##지방법원
넬
##동아
##모노
##위성
##위안
##작이
금호
노조
##트리올
과정에
내부에
배웠다
후기의
비판했다
##감에
##최고
포스터
설립했다
##발이
민족의
직전에
피해자
##가쿠
##경주
##림의
##oto
별이
붙인
호의
노래는
다케다
많으며
miss
##헌법
리오
범주
빛이
자회사
제주도
근처에서
자유로운
`
##르며
jo
고분
박씨
브뤼
임상
장덕
사라졌다
0000.00.00.
##미엄
##브르
##cer
신임
칭찬
모델을
##레아
##생이
성취
자의
##루미늄
리비아
먹이를
최악의
케네디
대한항공
얹
##택을
방패
정인
mor
일컫는
제품을
카드를
line
문화방송
##덕왕
##iii
그릇
나눠
함대
##기관의
##외국어
엄격한
일제강점
진행된다
##formation
오스트레일리아의
슌
##먼드
##바리
송신
한층
с
##무가
##워너
돌연
유식
중종
리그에
사고를
운동은
결혼했다
지속적인
겁
꼴
톈
##말라
##수상
구해
민사
##으려고
비용을
않으나
자세한
##항의
도루
잡혀
그러던
도카이
##vo
##링턴
##미노
##언어
##혁신
본거
술을
신선
쏟아
##기록을
##우리는
##지금의
##ters
데뷔를
등장했다
후지와라노
##혹은
기름
입체
##콘서트
플래시
중심기압
추측된다
0-0000-0000-0
##평리
##(0,
##ows
설도
정유
진해
통틀
향후
협정
##unic
불가능하다
안드로이드
팜
##불가
##수지
재미
후안
ger
공간의
구조의
기반의
기초로
시설을
활약한
데뷔하였고
entertainment
엿
거북
목을
정재
추출
히메
썬
##곡면
##음과
##ume
뻗어
일체
재현
##기이다
그랑프리
##것도
##기동
##리버
맞은
해밀
간사이
라이언
허리케인
개최되었다
##0》
##경북
##바는
##사토
##진영
산성
선종
나이지
##상으로는
고구려의
every
대한민국에
펌
##나가는
##운동에
독일과
손으로
##–0000
##우정
##ior
더빙
주니치
00.00%
##fs
##hl
##cap
가네
공로
입성
##amil
활동하는
##연세대학교
##::
쟈
##기게
수렴
퇴임
##교육을
금요일
기술은
소속된
작곡한
제안을
초반에
프로레
확실히
##ray
발을
실버
##스퍼드
우승에
급제하여
존재하며
처음부터
예배
해피
##들과는
##키아의
방송되었다
##bit
##wor
ur
기어
송도
신지
호쿠
히타
##포켓몬
##회말에
도시가
##분데스리가의
##)”
##ico
케빈
버전의
연합군
글로브상
선보였다
##레티
##세키
규격
까닭
발급
시는
조병
##-00.
기관총
있기도
콘스탄티노폴리스
##냈고
##당해
문예
상공
스톡
이완
변화에
광범위한
출전하였다
##군다
노태
매매
아예
앙리
파스
한인
본인의
여름에
클라이
##회담
대거
저격
더욱이
음반을
뭉
##측에
("
vi
곤란
낭만
성운
##년대를
사람도
지구와
파이터
##과학대학
여기에는
##디나
##히사
미토
발원
플랑
##에너지
논문을
오피스
전체에
차량은
가고시마
##경과
##일으
##omy
아랫
온갖
겪었다
수상한
영국인
정신을
##트로이트
플레이어는
associ
##탄의
##san
김희
맞고
사살
##심상소
##atic
북부의
진행된
아래에서
프톨레마이
##값을
##판과
박종
증손
##당한다
대법원
문자를
이유가
##중계
가죽
발칸
우호
잡은
##live
도미니
분명히
일이다
작위를
지키는
##반에
네오
불확
암흑
윌슨
폭넓
간단히
##가면
##경비
##레틱
세균
캐시
트럼
광저우
밴드의
비행기
일하는
페르난
닦
면역
섬은
포터
상원
유래한
진출을
청주시
타격을
추정되는
##hd
##두는
##킨스
권총
담배
메타
숙부
트래
평면
해소
##자였다
속도는
시네마
우승한
동메달을
##통이
김인
동행
스캔
아쿠
승인을
스스로를
않았다고
참여하는
##하임
##uel
cy
강희
약혼
희귀
관리를
동대문
보호를
장군의
저술가
환경에
방식이다
island
0000–0000
눌
##나스
##대손
##우기
##차와
##rew
그랜
비유
외손
예술가
획득한
가량
무슨
아벨
윤리
##운동장
##테이너
##ever
독일이
업적을
쳐들어
환경을
##라리
##무장
##해상
청원
##cher
개발이
마이너
##|0
≪
##르와
##청에
감행
눈물
mer
물건을
트윈스
피하기
의과대학
##누마
##서면
소매
콘서
##나갔다
##지는데
hol
sam
놓았다
알렸다
중국에
플라이
은메달을
코드를
##(00.0
오하이오
##표준
연상
발언을
있는지
출전했다
프랑스인
쾰
##레타
##추는
복제
##ophy
것인데
게임이
이에야
david
##곡은
##rib
배상
tra
국가는
니콜라
백제의
연기를
road
대하드라마
##집이
부지
비타
앉아
코코
현종
##증으로
##테이션
달러의
여학생
장군이
출전한
##운트다운
##acing
##적에
##체고
실전
정선
##인터넷
lib
질량이
밀집
박재
유동
cat
##-00-0
어드벤처
great
##ru
##번이
##수인
##ift
김혜
유산
##식이다
##운동가
가벼운
레이다
아버지인
이야기는
콘스탄티
아이스하키
크리스토퍼
##功臣
##림이
##풍속
먹을
한스
##agon
《00
가지며
공부를
제도가
팀으로
##형사
격하
때가
몸길
영지
정성
기능은
남기고
북쪽의
요구를
정하는
불러일으
커뮤니케이션
##("
##내지
##집에
##희가
심야
위장
##웨스트
##star
친일파
##학자들은
축구단의
민병
소모
##하자면
##publ
어려워
club
목소리를
엘리베이
##ization
개축
오비
응시
직통
##바이잔
##속으로
무궁화
종류가
주위를
지구를
수수께끼
##rh
前
##ope
동명
신탁
추존
루이지
밝히고
시설이
자금을
##먼은
##바퀴
##소타
누이
단기
##회초에
mark
##lg
##골로
ng
군산
리에
##케라톱
방사성
주장은
##ional
mnet
등지에서
매입
상응
##오른쪽
pat
기회가
노란색
용어로
프란츠
this
라이온즈
벌어졌다
참여하고
##테면
모은
미분
가까워
것보다
경주시
완벽한
##술사
##fin
##ima
결방
군이
레전
매직
식당
유교
임관
입각
치안
탐지
##고개
넥센
로이
알제
왕을
통영
형상
그쳤다
방식이
##교류
##르를
##커의
양반
##겼으며
문과에
대한민국은
사우디아라비아
##심사
##조한
##홀름
손님
우치
퍼포
펠리
##omas
원인은
전라도
차량의
야쿠르트
우수학교
자리잡고
자연스럽게
%
솜
##행이
##vis
마하
명에
알코
채워
카츠
##독일계
##선생님
##어에서
레이싱
블라디미르
##크리
##키와
##reg
걸린
발트
자를
##시키지
섬으로
찾아볼
##제르바이잔
##ournal
대한민국과
갱신
내외
대피
여인
이이
적혀
##됐으며
표현을
(0000–0000)
##zo
##칼라
대마
베니
이북
##문학과
tim
비판이
언어의
##fb
##box
순회
자칭
중일
##아이돌
##ison
기록해
시즌의
프리메라
대통령으로
##놀이
##렸는데
구간의
느낌을
아마도
조선에
진출에
가수이다
##국도
##달아
##aph
등용
유카
##학교에
차이는
호평을
##korea
대회이다
정도였다
##가치
##미래
eu
고쿠
로열
수필
인격
##스키는
이래로
##align
wind
이때부터
유나이티드의
룰
##도군
##트맨
청소
최성
해의
##루스의
성능을
프란체
pict
##바논
##석탑
##풍의
모나
시종
고유의
곡이다
세력의
##회의에서
관리하는
아리스토
함부르크
##td
##개인
##배치
##액은
##언론
선로
키타
##마스터
남쪽의
물질의
제국을
##더니
##법상
##연은
각자
고령
바빌
기사를
대도시
새로이
내용으로
중요하다
##》)
##혹한
기증
누가
서원
리스트
무조건
##adding
##루아
##토벤
받침
배려
선원
하남
개념이
이용한다
실질적으로
##루와
##부상
bs
디오
부가
아홉
양이
##수이다
##평론가
전력을
##구르
##ipt
당일
안보
즐겨
것임을
쇄
##콜라
##gal
드문
때려
산소
입을
uss
들어갈
유학을
🔗
##니를
수면
정의할
##재는
##천년
##ude
동영상
어려서
##ni
##성인
디자
뜻이
침투
##차고지
die
vir
시위를
##환이
경호
교역
보게
상태의
발매하였다
에스토니아
##날레
##슬리
나눈
추억
##주머니
fri
경계로
바이러
에이지
나중에는
##계급
##기아
##중을
가동
물어
유죄
전염
탐정
##체에서
제네바
play
이집트의
하나이며
포르투갈의
##방은
##eum
권유
세라
장면이
출전해
##라리가의
의미에서
자유주의
##시다
##unk
상류
색을
수장
페리
선발로
안에는
again
룩셈부르크
깎
낚
맘
##나우
광명
양주
인형
체류
노선의
##학적으로
다양하다
설명하는
##공립심상소
##살의
##약한
##인승
##재산
견제
더글
오류
진지
dem
공로로
방문한
림
##신학
##키를
##ush
간선
김대
미국을
오른손
##문제연구
확인되었다
society
##팀을
노인
상담
후배
##하자는
서쪽에
gold
자격으로
개발되었다
##마지
##청구
##트페
고래
달이
북방
성사
##적이지
고통을
조선인민
##데라
곳의
미터
책의
mid
경찰은
발생하여
##instrumental
##은하
##푸르
봉쇄
열심
이창
피어
##게이트
건물로
넘어가
취하고
협상을
디자인을
차원에서
##계종
##사진
##해와
세미
적지
투구
핑크
사거리
조약에
끊임없이
시뮬레이션
이루어지는
##레알
##ira
남매
대가
문법
백상
영유
지평
##면에는
견해를
머리에
시장에
fest
알루미늄
##감과
##는가
##타워
##팀인
아부
워크
정말
이어진
주인공으로
##받게
발현
보전
서포
소금
스노
표방
환영
boy
메시지를
이노우에
##러드
##산맥
바른
얻지
pop
죽였다
mart
미야자키
##++
##皇后
ir
다테
손꼽
중기
남부에
무료로
사랑에
기독교의
선언하였다
얽
글자
낳은
서민
현행
##스페란
소송을
이론의
황제로
사건이다
##0-
##nt
차장
##코미디
때에도
손해배
없어서
붐
##왔던
##의학
관악
기기
말미
##운동의
서대문
##소비
##elf
마포
아담
이천
패한
##거리를
기초를
house
##각이
##원자
두는
등극
비평
원반
위헌
적다
최강
나가노
없었기
시작하는
##상대
##커는
구에
깨끗
낸다
징병
##당하는
블루스
신주쿠
state
##rd
##더는
##부리
##세손
##자금
가려
고소
용어를
이즈미
향하는
덴마크의
되어있다
시칠리아
##망의
공직
쿠로
태백
번호는
긍정적인
비밀리에
##파라
스리
연호
쾰른
##정책을
병으로
본인이
의원이
인접한
잡았다
##ident
학생들의
도입되었다
0000).
##닐라
##유지
##히라
구스타
시기를
land
물러났다
불가능한
프로그램에
##(《
##루에
##타점
##해온
둥글
물의
총칭
##여명의
차량이
##유니버설
일컫는다
조선시대의
##열에
##치료
도마
돌입
말의
제퍼
##iness
##ittle
sign
사망하자
remix
국가대표팀의
##성사
##스퍼
만의
사관
서인
선과
##졌다고
##ally
bas
가지가
동생인
부유한
다이스케
총대주교
##》.
##도라
##서스
##줬다
##클로
발각
향을
##도르프
##우스가
##ness
자기의
전통을
차량을
##ral
서경
시골
진공
##청소년
공화당
관직을
디비전
부근에
중국과
부분으로
##bridge
##거를
##들여
##법칙
##ied
구와
들을
상동
세트
작아
안으로
회의를
##국적
##비언
##사쿠
##타수
고체
당대
산의
신기
##감으로
갈등을
브로드
구마모토
##블랙
##영업
##체계
다름
주체
첨단
##자이며
행사를
그리스도의
제주특별자치도
##親王
##교에
##위기
##의사
ds
대덕
번식
##스카이
hall
##항에
가축
이끈
회수
현재에
대학교에
stand
피겨스케이팅
##트페테르부르크
##』(
##품이
##필리
가자
감마
나비
시부
용병
조언
직할
##영사관
sky
저작권
점수를
##았기
##연수
##특집
구할
띠고
봉건
의결
하부
san
동쪽에
뒤에도
압력을
예수의
실시하고
##말의
##유산
##장로
모하
정사
중재
플랜
사범대학
##왕에
##지하
##pos
가의
헬륨
hot
이글스
하느님
인정하는
##것은
##란은
옹립
제곱
니가타
시티의
제국에
##노가
##운행
지주
카롤
태자
나타낼
모습은
뮤지션
소비자
학자들은
##gar
na
함유
##폴란드
law
조건이
몬트리올
radio
다이아몬드
##주택
무서
삼척
요정
##쳤으며
월요일
주파수
참가자
##특수학급
공격으로
캄보디아
##량과
##즈마
##men
경로
미만
##있었다
##reet
아이들
정보가
부분에서
알려지게
올스타전
##것이
##상황
##시한
##청사
분출
이건
was
다음은
야마다
정도를
클라이언
##padding
##기본
##량에
##뮤지
딸로
산출
세븐
유비
유혹
파나
##능력을
##도비
##모에
경의
경인
이호
철회
하우
동명의
버전이
붙여진
싸움을
이름에서
킬로미터
아르헨티나의
땄
여진
충성
##어지고
은퇴한
집안의
정치적인
현대자동차
##였을
##함마
나를
만일
뽑아
일조
지선
횡단
##계약을
##해주는
max
같은해
본래의
수상작
온도가
정권의
슬로바키아
##cp
##리사
##링을
##병에
##회전
신조
중퇴
척추
출산
콜린
양식을
인근의
패배를
##위원회를
그들에게
연합군의
컬럼비아
가볍
강철
밝힌
배가
실망
왜곡
입원
##메이트
##점이다
nov
rna
새겨진
아스널
크라이
퍼포먼
하원의
orig
부문에서
진행되고
씌
##널티
##연료
#"
공신
나노
높게
배후
양호
통용
but
미래의
주위에
즉위한
부분적으로
0000000000
##tw
##괜찮
##vin
##war
경연
동상
말씀
숨어
밖에도
아돌프
이라고
##예술대상
결정되었다
william
##께서
##내면
##.0)
궁전
종은
##루이스
##연기상
##회사로
강남구
비주얼
유로파
blue
입장에서
중소기업
드라마이다
##니코
##미트
##약성
##종과
##mag
궁정
담아
제치고
메뉴
목조
토르
귀중한
데스크
똑같은
아레나
정치를
free
달성했다
쇼트트랙
공산주의자
##들리
##츠크
##타고
성씨
let
더이상
니콜라이
##영웅
##평일
객원
공의
플러
영향이
용도로
분류된다
전체적인
##하리
대명
떠올
연꽃
제노
토끼
목표는
벼슬을
역사의
코치로
크레이
설치하고
실패하고
##미상
##엑스
시속
좌표
캐서
인간을
차이로
표면에
##학자이다
승격되었다
킥
##아오
##쿠버
##플레
##한이
##무스메
격렬한
##네트워크
국제적인
포기하고
##유리
남산
성에
악마
제로
제의
##영화상
기간을
있거나
크라운
시장에서
카를로스
##mr
##검은
##장사
##컨대
##uch
ox
폭로
##거리가
경기의
군대에
알리는
의미는
코스타
결정한다
도라에몽
cellpadding
##원장
##olf
극동
도둑
동위
지위
가리지
며느리
북부에
수도인
애틀랜
존재할
engine
##봉을
##일즈
##티드
##프에
##행동
##nam
##pan
가산
무술
문고
발동
판정
모양이
일하고
##urope
공격하는
연도
탁구
하락
해명
대가로
드물게
크기를
안토니오
하나였다
익스프레스
##조선민주주의인민공화국의
꽃이
들려
신중
앞의
축적
##문학상
##mann
선정한
news
사회에서
##성면
##우회
led
비율이
사라진
받았지만
아시카가
##전용
단원
돌고
이산
자국
품질
피츠
현금
##티아의
인상을
설치하였다
##esearch
##녀를
##솔린
##주연
공수
동인
무척
사절
조광
동안의
최연소
disc
결혼하여
나머지는
배치되어
수산
스킬
충실
피를
south
##오스트레일리아
쿤
##냐는
##레가
##설에
##:0.
각색
델라
상표
알지
직면
춤을
은퇴를
전세계
형태이다
활약하고
##가장
##영과
##타우
강변
살려
상경
세속
조인
종속
관련해
막부의
문서를
서유럽
이론에
죽음의
투수로
한국철도
헤르체고
institute
##벽을
##중추
##sam
교외
등재
모용
박용
본명
##스트리
경찰에
왕국을
파일럿
힘으로
시베리아
중단되었다
##야와
##토쿠
##한정
결론
김은
숙청
중산
차원
평정
호응
##관계가
##burg
나타낸
당선자
그레이트
설명했다
발견하였다
##내며
##튜브
##han
더해
메소
이모
일산
탐색
##렸다고
느끼고
font
승격하였다
##진군
##편집
성이
초연
##레이트
대표적
싸우는
올리고
##텍처
루스
주사
표본
##왕후의
레스토
마르코
일대를
전반에
정권이
청와대
확실한
code
도카이도
##아프리카계
##드래
##안동
미디
아닐
태평
##부원군
마르세
표현하는
에티오피아
##럴드
##묘한
##토와
##해튼
제너
폭행
##읍으로
##ague
mit
차례의
##보도
로그
법조
되었다는
주민들은
diocese
##축제
"0
빈번
싸워
원숭
유연
정립
협조
##iana
보유한
독립적인
##왼쪽
##pet
감금
공채
따온
바꿀
보헤
연희
이빨
주자
##omys
##ones
##ople
교사로
통틀어
패밀리
유지하는
콘테스트
웬
##개소
##서부
##슨과
##창의
##)》,
##iro
때인
양국
에밀
위와
춘추
##리조나
##됨으로써
##주민센터
과거에는
분위기를
이어진다
환경에서
##특별위원회
진출하였다
펜실베이니아
렉
##달의
nt
공손
모자
점에
타츠
교향악
친구인
결정하는
##포켓몬스터
아이슬란드
잉글랜드인
##고문
##여름
카네
회화
##되므로
것인가
중대한
페널티
헌액자
프랑스에
##서리
전날
궤도를
주위의
투수가
바르샤바
##大王
##르다
##트넘
##gan
강에
대영
옮김
이며
원인을
000–
##두산
##hpa
박쥐
씨의
도입된
보내고
본선의
조정에
진행하고
항공모함
##네오
##보컬
##학이
##ben
##wik
cp
ev
교전
보성
키가
폐교
두개골
스테이
팀에서
##니즈
##수정
##트르
##ery
로버
아역
##자리의
##협회상
##ense
tom
것인지
알코올
trans
박스
우드
이데
투명
##비서관
미시간
점령한
아라비아
00.0/
##있게
##집의
##ipp
ho
냄새
마나
시정
임용
점수
포장
##판에서
나라는
##킬로미터
에어버스
##vir
돌을
전무
##게임넷
##그러나
##스카르
뚜렷한
반도의
타이거스
체코슬로바키아
##그린
##돌을
##전인
##지능
##코로
##cor
전격
처분
beat
국립공원
결혼하였다
##공업고등학교
##친일인명사전
민족문제연구
뻔
##국방
##업의
용암
홍성
##티미터
부대가
실패한
합병해
##프라이즈
주장하며
party
그레고리오
뭐
샐
동참
축성
##형이다
sil
감독상
뒷받침
본인은
지구에
결정하였다
입단하였다
갯
##거는
##수영
##족에
##행의
가신
미들
자택
증후
바꾸는
##-0)
광둥
비단
키워
김옥균
당연히
dist
作
##능한
##사자
##카즈
##mel
yo
학력
##았다고
마라톤
모니터
의무를
현재도
##불을
볼프
조영
해인
규모로
삼성전자
원조
##urch
체육관
##마니아의
캐릭터가
##급을
##열은
##좋은
끝날
데미
세리
이별
죽인
선거구
조직이
르네상스
좋아한다
##막을
워터
인원
헬리
##책으로
##inus
단어를
물러나
보다는
선거를
생산하는
연구학교
해결하기
때문이라고
##쥐속
##크에
수염
장흥
##르트문
##ique
모델이
살았던
속하며
일제의
##ather
성격으로
이루어지지
취임하였다
엮
##화문
세례
soc
가지의
앨범에
치러진
쿠데타
결정된다
진출했다
낫
##경쟁
##기나
##전남
##준이
##dom
인플
잘라
뒤이어
베토벤
선택할
프로레슬링
##ki
##다스
단절
면이
성동
중위
van
인테르
설치하여
##품의
갈아
고이
꿈꾸
나주
전함
##층석탑
아폴로
영국에
##univers
##사유
##피가
균형
넘버
부사
부총
집결
타마
필사
히카
##일체유
##하기는
따른다
떨어뜨
센고쿠
음악에
토지를
공격하여
보호하기
##get
넷째
성별
싶다
유년
제천
내야수
범위를
설명할
분포한다
##iction
##aka
지미
가문은
가수로
되었던
역이다
자신들이
합스부르크
records
##궁의
##색과
##칸의
##폭탄
##ids
##lex
감리
감수
군정
##주의가
##ning
방송이
주민들이
플라스틱
langu
##mn
##락이
도네
번에
택시
##라이드
##브리엘
내리는
단어는
연구의
스페이스
프로젝트를
##민을
뜻은
뱅크
부시
상해
송출
앞장
찍은
##지역에
도시에
비하여
성장을
클럽의
##단장
##수욕
나미
마블
선행
필드
##났는데
##층으로
교육부
마을에
말기에
소문이
실시한
아름답
위치는
프로듀싱
##잉글랜드계
##로스앤젤레스
##=0
규범
브란
죽어
지름
허위
##물이다
##조참판
나오고
##ander
프리미엄
##과거
##아지
##어촌
##웠고
##카쿠
##협정
목성
##will
일으킬
전했다
지휘자
##스코리아
몸무게는
##소득
반경
전산
정몽
편에
##심으로
문화가
사업에
평화를
휘하의
고려하여
관계없이
아카데미상
##조리
##투수
단식
만세
모인
무의
전수
포토
협동
확신
##iter
상처를
전하는
파라과
포로로
*000
가나가와
각지에서
아케이드
주어진다
시작하면서
##로프
감안
관동
낙동
오로
오해
##는지는
##ider
베어스
패러디
text
헝가리의
(0:00)
##녀의
##재인
##체험
값이
광양
대부
맺은
몸의
배수
병을
상급
워너
원천
his
게르만
생각이
##위원으로
벵
##벌을
##참여
줄여
탁월
##속에서
##icus
역사적인
##두를
##창을
##arc
미친
방화
분동
##성이다
수행할
중국인
설일체유
익스플로
지나면서
##마법
##성장
##철은
시직
싸이
부문에
산업의
이곳을
피해가
기록했고
manag
##루트
##부키
##비야
##시킴
##쓰마
##ker
대종
반격
재팬
마에다
보고서
설치한
외에는
자치구
제작자
활약했다
##고와
##창원
바나
알을
이라
해병대
##적으로도
부근에서
##마귀
##식스
mb
정밀
증설
##그리고
##디지털
##시간이
교육과
단행본
연평균
자체의
film
담당했다
##보와
##사도
개항
##vers
과정이
제목의
총리가
거부하고
있어서의
##선수권대회
##예가
##위인
##취를
##츠가
##풀이
실무
##론에서
별자리
시간의
시대가
작용을
설탕
이범
하치
후한
abc
못하여
행정동
으
##드르
##무대
##지오
##asy
극대
뛰고
루터
방침
의상
패전
당하고
대통령과
싣
##메가
##쇼와
##포시
##황금
##den
##nor
기각
동영
타당
혼다
기여를
기본으로
점령하고
업그레이드
카자흐스탄
##ин
##철학
##쿠르
승점
야외
차체
가족의
본사는
##japan
개칭하였다
나이지리아
##레를
동점
빅뱅
취업
홈구
##포인트
대신해
성격의
아나키
하워드
##시켰으며
##보라
##에어
##sec
감싸
반포
살라
석가
슈팅
##르트의
big
가사를
따뜻한
상대를
소련은
열심히
그녀에게
하느님의
0-00000-000-0
##개와
##기일
##다테
창녕
한해
##스트는
모두를
치열한
##텔레비전
그러다가
아니라는
형성되어
니코
짙은
고시엔
모티브
밴드는
본사를
새정치
태권도
방면으로
사용하면
에스페란
하였지만
##갈색
##무의
##하와
##ken
각료
블로
색채
서면
자선
조문
조화
헬로
공간이
기관차
기상청
나란히
바꾸고
사전에
세력은
영의정
유학생
투표를
##리그에서
도르트문
해상에서
light
##신정
교리
빈곤
송파
않자
에콰
읽는
붙였다
영지를
지키기
헌법에
coun
지어졌다
형성하고
##sf
늙
##동원
##레기
##만과
강은
내정
루시
봉기
서적
온다
##공화당
##라이브
##상규명
##요시의
공격해
역사에
열매는
이내에
회원국
레스토랑
프랑수아
고등학교를
디비시온의
아리스토텔레
##만년
##양과
##쪽은
두꺼
성북
없던
이룩
정작
차용
피로
경찰의
물체의
아스카
했었다
##노에
##니티
##발로
##세인
공표
사서
성명
해고
것이나
시장을
않아도
제주시
지냈고
dire
##니오
고아
링크
세션
음료
포획
화를
##사회의
건축가
위치로
port
《0000
시작하였으며
옌
##복음
0-
견인
상행
여배우
예이다
주머니
진출한
러시아는
special
##오기
개종
남게
사야
죽게
각국의
기간은
우승자
개인적인
##/0,000
슬로베니아
선사
수령
없었
종착
퇴역
항소
출신인
##으로서는
##날의
##제비
난을
넓게
스태
풍자
회로
##누스는
구하기
전역에
활발히
상관없이
샀
섀
##가나
##리면
##사라
##사실
gs
검출
길에
법의
사면
증대
##노동당
:''
갈수록
케플러
도로이다
아이디얼
##아르헨티나의
##드림
##퀘어
대안
반전
올드
즈음
칼럼
동일하게
역임하고
일종으로
친일인명사전
##더의
##무관
##출소
##큐어
xp
공방
버펄
전지
정종
##oney
lab
건설을
뉴욕의
무대를
바다에
미나모토
등장하였다
##여고
##좌상
선비
저렴
##되도록
음반은
airport
##도서
##면적
##주공
il
담임
대웅
리베
발의
수에
인명
자서
카탈
est
pap
경상도
네티즌
사헌부
지키고
이전부터
콰
##겨울
##신도
##oma
고산
파동
흔한
방사능
장관을
클레멘
파란색
design
research
##환은
광학
동조
세금
제프
짐작
##문화의
##adem
묘사한
붙었다
하에서
행성이
음반이다
일리노이
##+0
##강이
##cha
개가
공습
년간
대왕
렌즈
리우
볼로
부각
소말
식사
집착
##나라가
##났지만
말미암
아이가
주도로
##glish
나타내고
##院君
##복의
ha
가열
다마
매수
수축
팔라
##블랜드
##일에서
ext
순위를
십자군
종으로
출입구
##)(0000
헛
##설계
##프린
##현수
글리
대역
무비
현에
휴전
##개월간
##공사의
##양으로
기존에
정치에
카운티
동일하다
서식하는
##라쿠
##코를
tu
개소
고든
꼭대
다툼
분비
유벤
이누
크롬
환자
##받았고
신학자
##남동
##표가
고사
도미
배속
선동
종업
##레스를
var
규모는
아리아
일대에
작품상
담당한다
둘러싸여
따라서는
서식한다
이용해서
프로야구
##공로
##스콘
##코딩
##훈은
여우
태극
##지지만
내무부
시트콤
않아서
영화가
중성자
##세기부터
경제학자
##광년
##세력
##와도
조세
##acaf
기간이
영업을
올바른
##oidea
##nc
##지상
##호대
시오
안치
카우
파손
파인
##릴랜드
##협회는
##illa
열차의
종교의
주장에
##주의적인
참가하는
후지와라
##mw
##두에
##심은
##취급
##풍이
루카
원격
최영
국제적
물질이
저명한
##독한
##외교
격투
다투
두께
순조
##차이나
끌었다
모른다
무함마
알프레
작업에
down
북아프리카
##kw
앗
##솔리
##hal
아산
추산
##들었다
##제도를
싱글로
관해서는
##났던
##승지
##시카
##ios
나갔
베리
인재
조르
탐구
합계
각본가
독일군
친구가
plat
드리
##렸지만
새마을
접하며
##그리스의
##덴부르크
일어나고
##나도
##반도
날에
단말
메카
수양
즐길
미치지
상황은
north
복귀하였다
##달마
##트루
##hed
공이
동력
면제
은거
조수
피오
##방송국
게릴라
마음의
사태가
슈퍼컵
외국어
##ility
rich
프로그래머
##동화
##락의
##크레
경과
독서
산란
어업
##sing
고향인
무렵에
비율은
올리는
야마가타
운행한다
##hu
##시경
##트륨
##use
간토
김연
닮은
반감
읽고
접수
초회
타협
bet
비용이
야구장
위험을
제사를
혼란을
중요성을
평가했다
신설되었다
크리스티안
육군사관학교
0-00-000000-0
애칭
연소
##만명의
##품으로
대회가
우체국
자유형
클라크
##uring
시리즈는
프랑스가
summer
festival
##두로
국적
살게
파랑
aut
강하다
사무소
양자로
런던에서
스튜어트
생식
수확
오기
완화
정읍
집계
창출
칼라
형법
왕가의
이를테면
##닌다
##아름
##운의
##log
러일
재일
체크
테라
테츠
gal
나이는
나폴리
선으로
와일드
표현한
존재했던
콜로라도
건설되었다
철도역이다
association
##ан
##월과
겹쳐
궁궐
암시
압둘
자부
##hell
cbs
나라가
보여준
오클랜드
비판하였다
robert
##농협
##롭고
##승의
##운이
다윈
당주
어쩔
유타
추종
파산
은하의
지휘를
추가적인
public
program
―
딕
##무네
##보니
##쿠치
느꼈
불태
시바
##시카고
것들이
달리는
레전드
최소한
프레데
고려시대
구분된다
수준으로
올라간다
노르웨이의
단선
몰수
절차
시간대
안티오
엔진은
운영을
증거가
행동에
라트비아
under
아일랜드의
##spacing
##강한
맞붙
신촌
풍속
현을
##페스트
그래프
언어는
음악은
이루며
##권자
##츠카
노란
믿는
섬과
스기
치즈
##석에서
phy
이해할
전략을
학문을
##erica
프로세스
##diocese
##마디
##선택
##연극
##졌기
##pha
명인
성숙
발라드
요새를
허가를
##다드
##액이
##영리
##츠를
데서
자책
줄리
##우리당
머리카
생긴다
시가지
줄무늬
지도를
하늘을
가져왔다
##피크
러셀
상수
신형
전한
청량
##관계에
누구나
독일에
잡아먹
개를
날이
양키
유코
출석
가솔린
죽음에
온타리오
##ij
##더슨
##동리
##콜로
##bro
##ely
봉안
불참
요동
학위
##프로스
tok
고대의
교통의
민간인
제작을
##thing
0.00%
##공립국민학교로
##테러
##hol
기회
아유
약물
##글라데
##ling
심하게
시스템에
##-)
뾰
##대우
##pre
기법
에리
연못
하행
##크리트
경쟁을
유래된
##계에서는
기념하여
이용된다
video
##난을
##냐의
##석사
##안보
##이동
경복
국소
나섰
불평
##드래곤
##edia
ben
마우스
선수의
중의원
천황이
핵융합
##문화방송
개념으로
남북으로
부드러운
중앙정보
##론자
##아버
끌고
막시
박경
배드
상세
이봉
인과
dec
div
미술관
##과정에서
##ality
미시시피
학생들은
films
cellspacing
틸
##네티
##철이
##포럼
##행사
외래
정서
콜라
pan
결론을
교육인
심리학
장군은
종래의
혁명의
##구무스메
##라이어티
생겨났다
알렉산드르
예정이었으나
##ón
##도전
##코어
시몬
##사단은
##캐스트
usb
리그를
변화는
올랐고
중심에
아무것도
##오스트리아
상트페테르부르크
新
##皇帝
쌓은
요절
원을
정렬
조모
##문에서
##appy
극심한
대단히
대전이
선수들
인류의
주지사
카리브
탤런트
like
연결되는
취임했다
champ
앰
##끄러
##커가
##형인
돌출
불린
조립
kim
sal
교회를
다룬다
약속을
어워즈
완공된
제도는
count
사용하기도
##ql
##교와
데카
비전
##홍콩의
레바논
바뀌어
트로이
에너지가
##동초등학교
킴
##모르
##원수
##인수
##진주
##not
간신
보드
사치
카디
포스
##당하여
##~000)
드러났다
일본군의
학생들을
후임으로
디트로이트
##나로
##밀히
괜찮
띤다
모의
사모
arm
놀라운
대화를
인간은
터키의
##학교에서
그로부터
머물렀다
폐지하고
깜
##방과
##이한
다를
머신
요인
유료
집어
##시아의
pet
하노버
월드컵에
캐릭터를
##∼0000)
grand
##병과
##숙종
##치히
기슭
내어
라그
서자
직장
논란을
성남시
열린다
제시한
##판에서는
떨어졌다
발견하고
버전으로
##광을
##방식
##진구
마야
연말
##일이다
##히어로
##cycl
경제의
오로지
##보병학교
수행한다
효과적으로
##보우
##분간
##함대
##히지
맺어
위촉
임원
황해
후루
##것으로
##어린이
나라에
elect
바에
불량
슈투
이양
mal
별명이
부대의
아이치
대응하는
선수들을
애슬레틱
##』,
##메트
##사법
나인
늦게
만성
세기
행진
nba
가르침
건설된
국민당
선출된
장비를
중기의
중반에
열대폭풍
##감은
##예수
##용과
##fre
동요
벌여
서스
아메
유희
전복
##00.0
내용에
목성의
캔자스
프로모
플러스
##velop
공격했다
기록으로
일렉트로
프로그램으로
##통과
슬픔
안경
좌측
##회사의
##best
마다가
앨범인
우즈베
의혹을
표현이
하늘의
마을에서
스테이션
##상업고등학교
##근의
##유도
##토론
##홍보
obs
가깝다
경찰이
동쪽의
바다의
작성한
접근할
기여했다
사용자의
이전까지
공과대학교
##브루
도박
부합
손실
자작
청동
프론
##ages
아이콘
아르바이트
##수호
##전력
##ago
갑옷
낙하
이문
자산
런던의
수도를
영국이
음악적
##되어있다
plan
흥선대원
##ls
##자르
거점
격추
대출
독도
사에
재편
조국
측에
카지
##사랑의
기억을
젊은이
##대학으로
미사일을
사람들과
##고려대학교
master
##로봇
##파울
##학술
갖지
거뒀
꼬마
평을
피의
mot
카스티
rain
형성한다
##엔터테인먼트
가쿠
입지
해가
후진
가상의
대전의
세상의
##ering
기간동안
받았다고
##방법
봉인
빌라
점과
팀과
##안에서
who
똑같이
리모델
반도체
대학교를
준우승을
컨테이너
##collapse
##람회
##작인
그루
라오
마일
사리
유령
필살
소나무
여성을
왕국은
카르타
현상은
유사하다
##카운트다운
##ti
##트레
기성
덮여
리나
매킨
입수
조슈
지사
##가능한
남쪽은
생명을
싸웠다
수록되었다
##”,
룸
##기반
##다를
##드릭
##미라
##인구
버그
주주
##경기장
밴드를
장소에
하도록
나타나고
성립한다
특별기획
평안북도
0000》
##cbs
가구
갤러
전세
정명
프렌
##chen
que
가족은
기준을
보낸다
작가의
정측면
설명하고
올랐으며
아제르바이잔
##로워
##와라
##토록
공휴
명종
섭정
재해
조형
헌정
힘썼
검은색
그곳에
대기업
되도록
비스타
서울로
엔진이
오르는
##ester
시대부터
##xx
##그마
##노미
##민법
##배가
##조치
검거
본상
풍경
gra
규정을
아마존
헬리콥
더비
라쿠
우르
장제
치고
황도
##미술관
##부에는
ele
mir
경향을
마리의
미얀마
코러스
평안남도
몫
##언스
##조작
##현실
다항
문경
미소
비치
튀니
##book
가을에
그래도
방문하여
일이었다
백상예술대상
##)・
얕
##닷컴
##일부
##히게
##sky
##ule
vo
김주
부재
서태
장을
신이치
dance
남우조연상
network
찔
##藤原
##기니
##bor
막는
성전
잃게
청계
##wood
가격이
라이더
별개의
연합의
챌린지
흥미를
##른베르크
편입하였다
욱
##업은
##퓨팅
산이
이도
장사
국왕의
로맨스
무대로
서쪽은
팰
##차트
##초로
양재
워드
조로
테르
##하게도
##ouis
##weet
api
기온은
문제와
성으로
하나님
흔적이
##요코하마
정부에서
하나님의
##아일랜드의
##ns
릭
##항은
럭비
부채
##자들에
##전부터
##하기가
sat
tem
로스쿨
스테파
일본식
농림수산
받으면서
##근이
##리쿠
##정상
##콘티
누적
사신
차출
화순
거리의
단독으로
물리치고
없으므로
princ
##거의
##나파
##소장
##우로
##운을
##you
공자
단장
맞대
방콕
영산
절망
제인
청산
파란
##일요일
가족과
유력한
행위는
##컬럼비아
보도했다
와이번스
##씨로
##카에
##포와
레온
##주인공
##지라도
##학교의
개인이
미유키
시상식
신화의
언급한
중점을
게임에서
시리즈를
white
##!(
##리치
##정수
if
과일
주부
##커니즘
mel
다녔다
시코쿠
##처분
##ona
cg
##학적인
재판을
전국적으로
한편으로는
촛
##문고
##열대
동정
라마
요충
자란
휘말
정도에
타인의
법과대학
차지하며
체포되었다
##란스
##마력
##매일
##벨라
##ava
gi
네팔
캐논
##내었다
##해졌고
##king
그룹은
무소속
전설의
조직에
회장을
##경희
##초교
##ips
ko
ra
교양
데모
얘기
휴식
##리아는
##onia
ktx
가이드
가지로
가브리엘
설명한다
실시하는
*000.
collection
##벨트
##병은
##쉽게
##지않
##콜릿
되던
역명
하반
도왔다
사건과
사령부
완성된
장기간
내에서는
도착했다
시즈오카
맷
공감
복싱
컴파
##해야만
wom
인간과
처분을
홍문관
track
시리즈에서
##브는
##자고
##토로
예고
지쿠
컴백
테네
해왕
레인저
탈삼진
파리의
한계를
보이지만
스위스의
:0000
케임브리지
concacaf
##분열
##이론
##태수
##|''
김도
드는
철폐
전국의
포르투
oper
윌리엄스
해당된다
##이탈리아계
##ст
떡
밭
##개정
##나에
##제조
##편은
##ias
강성
것일
도봉
묶어
보증
부도
소극
잔류
##물리학
발전소
쓰여진
우려가
위치가
멕시코의
앨범이다
일본군은
##쇼핑
##정지
##awa
그후
성분
이븐
자크
중원
차를
체인
회상
##년에도
감옥에
닛폰햄
서쪽의
연구와
전철화
점성술
회사인
##위원회에
지원하고
##에스
##오오
##화산
##eth
군부
뾰족
안중
입주
피핀
회피
##부분에
##소방서
뛰었다
최상위
more
만들어져
소프트웨어를
모범
번성
##로이드
##테인먼
cup
lee
받아야
방법에
성에서
소련이
시험을
단계에서
컴퓨터를
컴퓨터의
친일반민족행위자
##리던
##지아
00(
게임에
다이빙
버린다
언론에
캐스터
협력을
살아있는
성적으로
베네수엘라
세종특별자치
홉
##변의
##설은
권장
딸이
명목
사인
클러
티켓
항쟁
관직에
남자가
서울에
한민족
흐름을
기록되었다
##두의
##득표
##레디
##제약
##푸른
##황의
곡선
느낄
호를
북쪽은
수페르
시애틀
시에는
영역에
##노와
##러를
##소니
##한신
가늘
서사
잠깐
흥미
##ible
경찰서
반정부
아키타
혁명을
오카야마
united
##애미
##오자
##정비
##mod
긴장
신원
양을
인력
허정
후작
동쪽은
맡았던
사이로
안되는
이사회
전투의
질량을
가정에서
james
##unction
##링은
##분한
##알라
##워스
##웍스
##큐슈
##하우
##ped
가오
관세
수중
승무
코우
##aven
보이스
유튜브
발표하고
최대풍속
##건강
##대행
##등과
##블루
##화재
##iff
승용
이회
입상
그보다
대대로
대성당
몬테네
유닉스
일대의
주계열
##ister
계획이다
사용되지
지배하는
진행하는
##이전
##저는
동학
사하
석탑
압력
저자
##사우스
##업으로
##투스의
넘어서
영원히
절차를
지나는
프리스
해마다
후보를
##스테르담
교육과정
journal
##아우
##카쓰
무안
실존
아세
악의
자아
토목
##치바나
##했음을
##fifa
##obal
dom
two
넓이는
뉴저지
본질적
슬라브
이름과
자료가
전까지는
출연하여
기록하면서
기여하였다
데뷔하였으며
과반
다쓰
문인
종군
충전
##레스의
##회의를
부근의
여의도
조정의
올림픽의
임명되었고
인천국제공항
##소재
##어린
##-0,
매체
발령
부에
사당
입양
혼혈
화강
그룹을
달한다
빛나는
생겨난
서바이
증조부
협정을
##world
개발하고
연결된다
올림피아
원인으로
평가된다
##kr
##韓國
##강전
kb
구절
기적
염려
조류
노르망
대전차
조약이
태그팀
##)=000
비례대표
요청했다
위치하는
##대비
##임의
##yal
공백
동창
중수
청색
##자료실
how
각본을
리믹스
죽는다
제기되었다
##ال
##개에
##포동
경원
달걀
문하
베른
유재
의령
적어
중엽
타점
호프
##oria
fin
마법사
문화와
유리한
자세히
자유의
제작에
게임으로
필요성을
0.0.0
##발사
##유공
##hen
고기
생모
오산
저하
가족을
국가와
멤버가
game
선수들의
역사에서
vocal
##디부
##코타
##통치
##sen
##ved
가락
결별
날려
조례
즐거
##필리핀
결정에
공격이
미쳤다
아오이
작업이
압도적인
이전하였다
information
##天皇
##순이
##시외
공병
부왕
성곽
이희
토시
하쿠
호크
##부리그
동유럽
말까지
메달을
배우로
유격수
표현할
##·0000
말미암아
진행되는
(0,000
##0:
##gn
##너가
##시드
##온을
##정권
##지던
느린
달고
보석
심지
유정
주조
쿠퍼
탄도
##직할시
고문을
단거리
메구미
전신인
정하고
west
수단으로
일어나지
##되나
##땃쥐
##미한
##왕복
##푸아
금산
박진
로마에
보내어
세워져
자랐다
행복한
여겨지고
우승했다
##느러
##증의
##cat
강간
돌로
생겼
여단
##현으로
our
음악과
장소로
헌법을
last
닥
랴
##노선
##플리
강풍
내걸
하코
##신도시
:00
abo
내려가
도입한
두개의
디렉터
불안정
브뤼셀
역사와
오늘날에는
##ар
냈
##요원
##전라
실은
와타
효고
##play
견해가
달라고
드디어
명탐정
의혹이
000(
##위원회에서
0000~0000,
흠
##uct
사간
유의
정진
주먹
추리
토미
펑크
글러브
늘어났다
실시했다
한양대학교
(0000.0
##막극
##매치
##문서
##발은
##비오
##함수
리옹
섬식
습득
폭파
##년도에
cur
박영효
이순신
전화를
제정된
행하는
##light
스페인어
특징으로
짱
##소련
가토
문정
박찬
우측
지수
최장
가져온
다이어
레이디
베이비
주연을
콤팩트
독일군의
활발하게
##준을
##쾌한
##타자
##)-0
고모
배달
원의
이득
종영
코카
키르
하타
mak
메시지
조지프
필리프
##사회주의
##black
점령했다
캐릭터의
##tn
##변에
기단
리사
마가
부파
사귀
사키
석조
집정
쪽이
학급
꼽힌다
소행성
스포르
연구원
왔으며
위주로
유지할
전원이
한국을
거부했다
출발하여
##고속도로의
王
것의
김천
년에
산지
아소
잡는
주차
찰리
치루
터뜨
페니
필터
hpa
가져다
딸이다
쓰러뜨
조사에
##라마운트
근무했다
한편으로
##네트
##노를
##민정
##불의
##예산
고로
독창
맡는
스왈
해저
해전
황족
##지역을
##phil
##side
공의회
구축함
구하는
들어올
생산된
신세계
의문을
조직은
##세기에는
##(000)
어머니와
angel
뷔
듀오
보리
육체
퇴장
##방송을
어렵게
예전에
위험이
스톡홀름
##연애
##제철
##태양
##cra
넘게
이코
호족
##위까지
주목할
도시에서
발견되어
##kb
##가이
##동부
##찬을
##ych
강당
루돌프
배터리
알파벳
역임한
클레이
흐르고
증가하고
green
독자적으로
당신
만날
무작
산요
일간
정전
태국
한큐
##〉()
##해지자
##eaut
명령에
목적이
한국과
희극인
##하더라도
연합군은
##public
studio
쉴
##네르
##보물
##불이
##장비
##정류
##훈의
##omb
대북
박해
서임
이송
정씨
청사
퀘벡
##inst
적외선
##ference
##실업
##-0.
감찰
고원
기수
대패
생체
이석
이쿠
청송
커플
##들보다
급속히
버클리
사항을
상에서
에어로
웨스턴
paul
라이온스
미쓰비시
유지하기
이시카와
고장
델타
재상
전래
중공
허리
##크로아
교수를
교황청
순으로
어느날
알래스카
어머니를
정치적으로
##천이
##태종
##확인
오아
정자
제사
채취
키는
투르
후예
계속된
학생이
발렌시아
##ky
sr
명은
어리
이효
하프
계약이
스크립
시장의
정책은
baby
##itable
##보존
##에쓰
##웠던
##치쿠
##태를
##aud
서귀
스이
여는
##버스의
##프로세
가르쳐
왕실의
몸길이는
의미하며
핀란드의
프란체스코
##돌은
##반은
##사르
##창한
##티넘
동네
스와
스칸
중등
해남
##베를린
되어야
마누엘
서로의
손실을
econ
헥
##대역
##챔프
나은
돼지
번영
보강
열쇠
오미
퇴적
##저기압
데뷔한
맨해튼
컨트리
투어를
노선으로
발표하여
밝혀지지
개칭되었다
##궁을
##볼넷
##여운
##오토
##외로
##포에
##.),
밀리
브룩
신봉
윤씨
한중
헌신
##anus
머리가
미군의
체제가
클럽은
한국은
우루과이
##교육청지정
이스라엘의
museum
##bb
##현과
겪고
노바
높여
미성
배운
어찌
일족
전담
첼시
##나치오
레오폴
수도로
변경했다
인디애나
##플레이스테이션
##노벨
##샤오
##ota
##ren
나갈
닫힌
막스
무네
별을
불행
상사
성산
소의
직행
##프스키
##ification
##감의
##기시
##두리
##질러
##,00
##ori
아타
후미
##버린다
##iano
##rock
ram
거짓말
아미노
초창기
설립하여
개통되었다
이탈리아에서
##--------
찢
##임시
##척을
개헌
농장
방치
유미
의문
제왕
##스에게
기업이
되므로
세월호
안전한
여기는
이용객
참여할
개념이다
히틀러는
팔레스타인
000~000)
갚
##개씩
##구사
##나비
##더를
##하트
##ets
경에
와인
해독
##났으나
곳곳에
극작가
논쟁이
명확한
자원을
지위에
##opsis
내부에서
내용이다
전역에서
추구하는
대표적으로
##때는
##요의
우유
전전
천왕
치는
칼로
내리고
단체의
제국과
제한을
토리노
하루에
hand
대대적인
부르고뉴
사용되며
우에스기
일으킨다
함경남도
##동주민센터
효율적으로
##ui
##든다
##만장
##시계
##호르
기뻐
넣는
영의
오대
웨일
침묵
##타이완
say
그림자
내각의
목요일
분리된
자기가
저항을
팬들의
technology
##레우
##배에
객체
사명
##교에서
##기념물
##위원을
균형을
불규칙
없으면
항복을
cult
데이비스
부위원장
사용하게
##ustral
꿀
##마케
##있어
##투어
##현종
##uth
류큐
모색
박준
브랜
세키
양궁
양대
자결
점거
지극
화해
공격할
과학의
프레이
제안했다
##사사
##수학
##캠프
##mes
ht
국보
볼셰
사슬
수로
씨가
우회
커서
포착
혐의
홍수
##우스와
att
공격은
도로를
엘리트
연고로
제목은
진행을
활약으로
대회에서는
##레븐
##린을
##몽골
##심과
구형
남작
너머
매치
모차
병이
질문
##정부는
각지의
시작할
##히로시마
문화예술
챙
##각은
##버른
##중량
##즈로
##00(
##cis
도사
무성
수락
애완
얇은
이렇
##피안타
##하겠다
nav
한사람
##ür
##수단
##자전
미식
박원
찬양
총회
##기관이
##사이클
##호선이
공으로
못했던
제도에
제조업
도입하였다
##라드
##토크
백악
신상
용서
트렌
##고양이
##였다는
##자리가
##텍사스
now
로맨틱
역할은
유럽과
철저히
##onder
않았다는
쿠데타를
스코틀랜드의
##겐의
##세라
##수송
##피트
##bel
##rac
박태
사바
걸리는
과도한
무솔리
부모의
지닌다
케이스
가르쳤다
벨라루스
##강화
##기병
##빈의
##완전
##이니
##협의
##kor
##max
블레
영천
일화
자오
충렬
투항
하니
혼성
남자의
부작용
제한이
혁명이
혼자서
##opter
##oseph
just
그룹으로
다양하게
운행하고
##ington
중화민국의
##교구
##막이
##비용
##bon
##die
##sol
##tbs
공존
김소
도청
보은
스즈
연동
이차
절친
카시
##이었을
##출장소
##피아의
것과는
끼쳤다
북조선
사랑과
안정된
진나라
프란치
환자의
brit
발견되지
완벽하게
통일신라
대한민국을
三
결핵
##소수자
붙여졌다
series
지방자치단체
##ен
쥰
캉
##고스
##극의
##당할
##예선
##ski
국영
로비
실재
피할
##학자인
##회사가
##ince
말부터
생각한
호크스
##스웨덴의
지점에서
프로젝트의
##cg
##ро
##대동
##isa
듣지
성악
오크
유러
죽기
차츰
강화를
오스틴
함수의
행동이
fire
손해배상
사회주의자
000-0000
##미경
교정
도래
모호
무어
아바
정문
치세
탈취
##유가행
모르고
성향을
정리한
참석한
##진상규명
000°
목소리가
##개선
##동산
##련된
미셸
재난
카토
통보
성적이
와세다
자격이
제출한
카이로
판매를
예전에는
주인공이
클라우드
•
##군인
##민과
##아니
디나
땄다
압록
온대
##운동이
가지지
모리스
미카엘
법무부
작전에
##ating
##ities
것이지만
영화에서
в
##강은
##백제
##회초
##훈이
간첩
레버
면을
손잡
형인
##×000
가문을
능력은
성적은
요시노
움직일
질문에
패트릭
##anger
이승만은
작품에서
캐나다인
##구라
##key
ig
매력
장원
휩쓸
##단체의
빨간색
사실에
생명의
수익을
쓰기도
열차를
클리어
만들었고
온게임넷
주민들의
해당되는
develop
##구스
말도
안고
앞면
전대
##팀으로
감독과
사례가
자란다
크리에
화장실
아이들을
##uv
##농구
##화할
마다
마도
우파
이덕
주입
포털
프롤
##》,《
##법에서
버전을
소피아
수학적
요제프
음악이
공개했다
유식유가행
00.0%,
##hs
##기둥
##나드
##또한
##의료
보복
예약
자제
##레스트
일반적
진주시
컴퓨팅
푸에르
##지역에서
##할아버지
대항하여
승강장은
박사학위를
##무는
##배의
##아역
관제
귀속
앵커
평평
##지거나
##직으로
##프라노
느끼게
밝혀진
방사선
아이폰
의사소
싼
튼
##ない
##발생
##비안
##성공
##센스
##저를
ta
공성
유영
현악
##분부터
##쪽에는
공군의
권위를
대륙의
명확히
솔루션
의지를
리모델링
선수이자
##대한제국의
##ography
language
##무사
##베네
법전
보령
doc
mad
노래가
미주리
강조했다
시작하고
이승만의
sport
구성되었다
##군수
##ani
노이
바흐
송진
앞선
오락
간신히
동등한
세금을
이르게
이바지
존재로
##yeong
귀국하여
버라이어티
활동하다가
##dc
##sr
##엔진
##제곱
##춘추
축조
평야
##탈삼진
##blue
bur
tri
각자의
부드럽
함대를
hill
운영되고
street
publish
##international
##극을
##내려
##비밀
##프턴
##bat
동급
부다
소셜
영덕
지는
학칙
##터에서
데이비
주제를
휴대전
국무위원
움직임이
##상가
##암의
##mic
강행
돕기
부유
쉽다
영장
증폭
총을
법정동
중국을
이동하는
챌린지의
통과하는
##루이
##루즈
##이승
##칼리
기장
맞춘
산을
스텔
에반
우월
의정
최씨
라파엘
번째는
부모님
아라곤
알렉스
체제로
통치를
회사에
human
##토지
사내
하리
헬싱
##나이트
골드컵
블루윙
솔로몬
해군은
##뮤직뱅크
##공과
##다만
##이름
닌자
만료
열을
유가
혼동
##府院君
##갔으며
##그룹의
##익스피
##체이다
ill
등번호
등에게
부르게
브레멘
국내에서
로마에서
적용된다
##봉은
##여왕
##ado
온건
옮긴
치렀
하단
헬레
##시간을
##으려는
가리켜
기사단
생산을
향상을
00.0(
해체되었다
##오스트리아의
management
##례로
##이케
##천읍
도피
아프
완결
이겨
퀴즈
##스콘신
국적을
매카트
체제의
초콜릿
##권에서는
활동하던
담당하였다
알려져있다
people
##방면
##요미
##위치
##황이
##bal
동진
에게
영월
이한
작다
조이
칼을
파기
하비
한가
합친
데이트
매거진
운행이
항성의
혐의를
##아메리칸
무대에서
##db
・
##공영
##귀족
##인칭
##증은
##테의
##iet
상서
신민
쓰촨
원활
친왕
팔아
##ents
뉴캐슬
사쓰마
숫자를
다카하시
solid
##~》
##고양
##도호
##호기
lp
서진
운수
유태
전교
증진
치른
##루에서
##이야기
##less
aug
기반한
드러머
사상은
퍼스트
##stand
미나모토노
##살인
##심에
##ful
##oca
##una
경질
구경
나름
드라
봄에
요하
조현
진사
파는
##층에서
송나라
키예프
(0.0
들어가게
무시하고
front
##인당
##젝트
설비
원통
호리
##cept
발달한
보이게
앤드루
패했다
##명이었다
##받았으며
band
jack
간격으로
볼리비아
아직까지
영향력이
옥스퍼드
유래했다
중앙아시아
0000.0.00
##데일
##성남
##캠퍼
##표는
##bas
그저
몽고
발병
벌금
잠정
포럼
men
가라앉
신화에
아무리
유니콘
조반니
태양과
황제는
운행되고
퐁
##방지
##본의
##오버
##타율
##타인
##하곤
##하타
##해피
간사
나빠
안창
이고
cir
임명된
지역인
컴퍼니
멀티미디어
##포니
##mos
강대
맹세
위를
익산
잦은
제대
함양
##ulus
결혼한
근거가
기술적
마을이
##개국에서
mach
moon
의미이다
states
##피에
무명
정주
질환
친한
##리기도
##cast
생활에
수업을
앨범으로
에콰도르
원칙적으로
theory
슛
##바인
##cam
간혹
김석
나열
신해
##하버드
남성의
미야기
포로가
##디에이고
사용되어
america
##공작
##싱글
마셜
모른
선은
오인
전동
짧고
파충
##지었다
비중이
정의를
불과하다
회사이다
적용되었다
정기적으로
##비크
##des
),
낮다
신진
안도
##가톨릭
##차례의
##itch
고양시
그것에
다리가
도덕적
무엇이
안타를
예컨대
온도는
전략적
축구를
침공을
##공립심상소학교로
##견이
##다오
##람실
##연출
##장교
##전북
##지금
##하길
##els
##ror
격려
도리
양육
집회
추첨
출구
##미스터
##변호사
##phal
##reen
그렸다
듯하다
마르틴
마오쩌
수용할
숫자는
캠페인
##super
들어오는
바르셀로
병원에서
상대방의
독립적으로
service
##fi
##kn
##als
군용
밀란
산호
세네
앙골
왕과
이대
진한
천천
##대학의
##슬라프
rfc
높이가
만난다
명령어
비교해
성향의
주민의
날카로운
방글라데
슈투트가
타이베이
댈
엇
##도루
##랑카
##상공
##전화
##피탈
고생
우아
천거
##테리아
amd
개그맨
당대의
떠난다
바이트
사나이
장소를
전자의
전통적
제의를
데스크톱
서울중앙
##가정
##달라
##망에
##안과
##ape
##yes
발착
숨을
온난
했기
##론으로
##브라질
lim
갈등이
걸쳐서
그리는
목록은
선택한
우승팀
주도한
거리에서
##dj
혀
##금속
##훈을
##pen
기인
##각으로
논쟁을
사무를
아카이
정보의
정책의
출판사
공항으로
도쿄에서
마지막에
못했지만
경희대학교
만들어진다
石
핼
##운송
##정역
급히
지장
##시간에
##ives
les
원칙을
캐서린
##그라운드
시기에는
전해지는
프린스턴
##wikitable
(0000.00.00)
##강과
##남성
uk
둘이
시어
요약
주임
카미
헌병
##년대와
##체육관
##anna
##ware
개인적
광고를
동메달
보너스
여겼다
연이어
등장하지
선수들은
키프로스
사용되기도
##뉴얼
##렐라
##스프
##전체
미호
전락
정형
##icht
##mark
규칙을
수사를
에이전
##년대까지
정상적인
현장에서
micro
##궤도
##등은
##통은
돕는
부당
암석
##icle
##ides
교육에
아내가
이케다
흩어져
아키텍처
쿠웨이트
파견하여
##아르헨티나
발전하였다
##겨레
##김해
##심판
##오게
##항이
간격
논산
당황
성도
준수
쪽에
차종
##문제를
wil
시도를
시신을
원리를
위에는
은메달
철학적
추가된
게오르크
살인사건
효과적인
친일반민족행위진상규명
##구동
##보국
##특급
금환
선우
슬램
음모
진수
출동
##전까지
##직하고
가족이
경력이
리그로
바람이
신앙을
장점이
전쟁과
참가할
철학과
출판된
패배한
흐른다
##”(
##거스
##리츠
##죄로
##주부
##치면
부러
취미
칠곡
파우
함은
##행으로
길이의
무리를
미우라
승리에
영원한
취급을
##후쿠오카
비교하여
지원하기
효율적인
##gs
##동네
##라니
나지
말고
파병
##말레이
##miss
비타민
이동할
##삼국사기
관할하는
굶
멍
##동쪽
##러와
##서인
간략
몰두
무언
청취
##자원부
뛰어넘
분야를
성능이
세우는
아들의
왕국이
요구에
자유당
year
도시계획
##」(0000
##상담
##소유
##영조
##증에
##충청
씨앗
접한
중견
##군이다
ova
나리타
단막극
미하일
믿었다
영어를
용인시
이스탄
제한된
중앙의
철저한
##세기까지
감독이다
고등학생
대규모의
둘러싸인
설립되어
안정적인
##북부
##pat
김두
몸은
보며
칭송
패스
##년이다
##본부장
맡기도
명이다
자세를
부족으로
전반적인
사이에서는
##포리
맞춤
산에
소사
스텝
적게
조경
중형
##티모어
##good
##itar
세일러
##만으로는
미네소타
입학하여
europe
##매를
##시모
##코이
나뭇
남하
미륵
이언
절단
정화
지류
##스페셜
##프랑크
lef
그림은
느끼는
비중을
아미타
##지역으로
prof
가르침을
러시아인
없었으며
중심지로
후계자로
성장하였다
00:00~00
##uf
##노키
##몬트
##유기
##치카
##tvn
규탄
많지
보낼
아약
우지
폭이
##교차로
##로동당
##로스의
당사자
보한다
인접해
조성된
특별상
헤이안
효과는
여겨지는
연극배우
##포르투갈의
##광이
##두근
##반이
##제어
##해는
노보
마우
알폰
잠입
지분
총수
포격
해부
##》(,
##비서실
##세가와
##seud
공간에
구단의
두가지
빠졌다
지시를
차례에
about
팡
##녀가
##신당
##자살
kl
관절
나르
대접
박은
분지
쏘아
징수
##는다는
##월에서
run
그룹이
눈물을
병원에
작전은
제이슨
종류는
##아비달마
hell
독일군은
투수로서
분리되었다
##ological
##마산
##줄기
선봉
요격
웅진
일진
진도
##조계종
"00
비영리
연예인
지나면
해안에
famil
출판되었다
##흐트
백과
수교
클릭
##스터의
생성된
시즌은
이론이
파나마
극장에서
##연장
##월간
##저씨
값은
군중
내야
명사
임의
##러스의
##세였다
광주시
국립공
그만두
사이먼
펠리페
행위가
##노동조합
것입니다
계속되는
뉴욕에서
베네딕토
살아남은
background
α
##로폰
##마니
##박이
##정화
##ele
맛이
이륙
타락
파고
폭주
현립
son
강의를
미래를
사단은
상대의
##멕시코의
##umber
days
베트남의
스스로의
스타일을
영국으로
위원회는
프랭클린
미스코리아
##(-
몹
##길에
##마타
가드
기가
뉴턴
바리
복소
상연
소령
이강
쿠르
한창
##웨일스
가문이
대표는
방송의
예술의
##이었다는
뉘른베르크
п
##공정
##복이
##rix
dou
다니며
단어가
모시고
오이타
fact
국가정보
그룹이다
위원회의
컴파일러
##로바키아의
##ος
늪
##금과
##체코
##카오
김우
동탁
재벌
전하
피처
당한다
안전을
유럽에
자료에
중국은
진출할
회고록
들어왔다
의회에서
지칭하는
받아들였다
임명하였다
형성되었다
##레니
##베스
##형식
계단
대각
자진
전장
캐리
한림
##되어서
##퍼런스
##플라이
그만큼
미군정
미루어
선거인
정의한다
수여받았다
##랑을
##브가
##파워
##회계
rt
ve
##문화사
공화국이
보호하는
애틀랜타
##강릉
##시기
##정희
##sum
가중
기종
로페
버린
송병
스쿼
예하
일요
클럭
항목
헌터
sea
동로마
바탕에
방안을
화제를
명성황후
##중화인민공화국의
뱃
##태자
##lam
dd
거칠
고흥
앤디
충무
쿠라
##본으로
바다를
사상의
원나라
적당한
충청도
하이드
콘크리트
movie
pictures
##!)
##라나
##투로
##하되
국한
색이
실각
윤휴
장이
lov
국제선
모았다
체결된
코치를
유니버설
참가하고
##군주
##다와
##마당
##생은
##지명
##초가
##cil
##nhk
가던
물체
유목
유선
재차
증상
지자
초당
코지
##데이터
gnu
도널드
병력이
카메룬
특수학급
##(0000,
선임되었다
##ev
틴
##기며
##측이
##mor
리만
모셔
불필
사수
솟아
알맞
재래
전경
화염
##anta
간호사
그것의
일부의
하겠다
사쿠라이
수행하고
장소에서
프로모션
마드리드의
프로그램에서
##움의
##잡지
##raw
##ues
##win
게리
국내에
시위가
제품의
지원이
anal
type
공산당의
돌아가는
없었지만
##christ
명명되었다
지상역이다
필요하다고
꽂
삐
##꾸로
##서구
##원인
##주어
##촌동
##티가
##pga
무실
바스
번도
봉화
##썸네일
##플렉스
##soft
jul
기술과
반란이
여자가
영국군
이것에
조조는
##스크리트
엔터프라이즈
뱅
##배로
##시인
##0·0
과의
읽어
조롱
무기로
반응이
원칙에
한다면
관리하고
국토교통
활동하며
##개그
##개미
##바가
##하르
둔다
믹싱
바우
샌드
아끼
아테
은혜
특기
##되다가
##시설을
##중공업
tur
개기일
끌어들
단체인
당하는
##벨기에의
시리즈에
얼라이언
판매하는
플래티넘
형성하는
##번과
##소시
##쓰고
국철
기고
때를
복권
섬이
야전
찾고
##ants
기숙사
사무실
어둠의
##micro
head
받았는데
유러피언
프랜시스
승리하였다
요구하였다
cambridge
##lb
꿰
##미츠
##지다
##한은
##"()
##jor
딸과
유라
입국
짓는
항만
##목소리
##itor
sub
계통의
계획의
교회에
마닐라
바이킹
산하의
스트라
않다는
여파로
영국령
의회에
이상은
##들이었다
general
##族乡
##리드
##제과
##phy
굴절
변광
아치
점검
휴게
##색이다
사형을
시민의
요청에
인해서
작성된
mill
이베리아
여우조연상
##개시
##노조
##신기
##쿠사
##품은
##하드
가가
교부
남궁
종을
##경찰청
##시켜야
가깝게
무실점
소유한
의원을
정보는
second
##ua
##집은
##천문
##화장
ba
ol
고인
복역
응급
##번호는
##정부가
##터키의
겉보기
그밖에
기대를
작품인
장치가
타카시
대승불교의
##,0
##백의
##살에
lb
um
꼭짓
당진
리포
바꿨
사각
세습
신은
처럼
타는
##소이다
##워싱턴
상소를
시간과
전투로
후계자
러시아와
용어이다
##불명
##엘리
##통에
랭크
세레
이설
읽을
종신
희곡
##나고야
경기로
극도로
않다고
자연의
전하고
증거를
평가가
피라미
전해지고
하시모토
암스테르담
설립되었으며
0000/00
##글리
##소총
##ema
감상
거창
동등
말과
사슴
안재
조씨
컨설
##자리는
원소의
정상에
탁월한
파시즘
만족시키는
michael
0000.00.00)
##.:
##위한
##합의
##sal
다듬
리카
우두
혐오
것이기
교류를
구역은
기준이
서초구
아나톨
인기상
조종사
패하여
방지하기
지역에는
치명적인
클리블랜드
##무르
##선진
공예
상소
안드
이홍
캡틴
탄약
평창
##놓았다
##위이다
wii
브루스
화성시
황제를
fall
나타나지
라이브러
러시아어
이산화탄
books
young
0000~)
숀
턴
##표의
##ots
국의
노랑
마요
법에
불화
삼남
##"(''
##itan
leg
wcs
밖에서
법칙을
사사키
유래는
의사가
지리적
측에서
행위에
근본적인
보건복지
비판하는
유니버스
이용하고
청나라의
##ал
中
##門下
##가라
##커를
##한양
##mov
그외
도키
마천
병기
서산
여부
우세
이단
카니
허블
##른스트
규정이
금환일
도야마
말기의
분석을
이론과
중요시
함수를
행동은
##버지니아
놈
##성종
##암은
##평동
##평면
##현에
==
고온
조동
##루스는
##rary
사람에
자국의
즐기는
호스트
활동의
만들어낸
입단했다
cross
##변속
##촌리
##chi
##eri
나쁘
도스
문과
베풀
사물
섞여
##대학을
##새로운
##쪽에서
나타날
비롯된
세계로
장르의
전기를
전주시
정체를
하야시
해준다
hard
프랑스로
##大學
##늦게
##메랄
##비노
##지스
##mit
모금
서지
스포
제임
##겠지만
##다니며
대중의
따르고
시장이
줄리아
참여를
프랑스를
대체되었다
진행하였다
german
스피드스케이팅
##大君
##버는
##총회
##테른
##ova
##시키려
##지방도
기관의
뒤에서
받았던
양식의
이기고
이란의
책에서
토트넘
하므로
pass
강조하는
디자인은
방송에서
언급했다
패하였다
아프리카의
역임했으며
##나치
##틱스
##aki
김보
나간
맛을
위함
##지도자
web
노태우
빅토르
소속사
영토로
오릭스
총독부
황태자
##퍼레이션
##sport
기업이다
사회복지
트레이닝
성립하였다
컷
##료가
##코치
가옥
고다
셰이
이닝
허드
##뮤지컬
gdp
경찰관
발전과
쓰시마
화요일
mind
거치면서
국가대표팀에
##라틴
##순의
##신에
계수
리조
선천
입는
절벽
판례
필하
한상
##끄러운
##네티컷
가로지
단계에
대표부
벌이는
수시로
장면은
직후에
국민투표
콘서트를
후반부터
문화재자료
##,"
##있지
구호
떠오
만드
성지
순차
정령
중령
하후
한달
함흥
##페오나
far
기법을
라쿠텐
밴쿠버
home
말하자면
설정되어
중요하게
편성으로
brown
프란치스코
church
##더가
##빌리
##옹주
##주사
##헤드
괴물
네모
드레
반입
버마
소노
이메
입헌
장래
fer
ret
남았다
대사헌
미래에
세포의
영토가
패키지
사용자는
'0000
##william
##nh
##煩惱
##셨다
##우편
고마
위법
최재
코소
불확실
음반의
총학생
익스플로러
##yp
##오던
##진출
##nes
경작
구한
김세
끼고
백운
불분
초고
##메트로
##rian
기타를
방식에
빠져나
사망자
쌓았다
언론의
여기고
주장도
##슈타인은
camp
결합하여
페이스북
고추
길다
릴리
배에
서거
시호
열려
차녀
천수
##대사관
##인들과
##head
lin
기술로
league
concert
쪼
##보트
##지식
##청주
##축을
마술
소외
왕가
울릉
##미트리
##콘텐츠
spe
갈리아
것들을
끝난다
내린다
노래의
맞았다
표현은
회장이
구성하고
포함되지
space
##kl
##뛰기
##모모
##발매
##비한
##사다
##오지
##원제
##장기
##진한
##cel
##sim
kr
계엄
기쁨
기와
발기
오페
웨인
일괄
재선
조봉
칼뱅
후유
##기면서
뜻에서
보통의
생전에
숫자가
원소는
접근을
정도는
집단의
##핀란드의
실시되었다
##나지
##여의
##절로
##한화
놓인
사설
사탕
산둥
신전
이철
측이
케냐
##승으로
##우리의
##omic
소련군
천황은
관련되어
뿐이었다
영역에서
경제적으로
교장선생님
씻
##등장
##레미
국악
병자
소용
욱일
##왔으나
pac
기리기
모로코
무사히
밀도가
서스펜
총애를
하이퍼
east
nasa
control
##마켓
##서비
경선
눈치
죽는
추축
클랜
회귀
##미사일
##식품부
##idth
00:
릴레이
배우고
지내는
체계는
반대하였다
줄어들었다
##격투
##네를
##니카
##메스
##모습
##보조
##수입
##운전
##움과
##재정
##후미
공영
남방
랴오
분홍
은신
재회
화랑
##들처럼
##세이다
##체제를
##aria
bra
건조한
검찰은
경로를
성명을
죽이는
증상이
차가운
team
노선이다
메릴랜드
벨기에의
심지어는
라이브러리
little
english
##×0
##그가
##나서
##포타
##행에
금천
넓고
문종
바비
비싼
상정
석회
저주
조준
품은
wat
로렌스
시호를
에서는
의회가
일행은
정의는
출시한
표현의
행성은
떨어진다
애리조나
예선에서
##맥을
##협동
##ika
주권
##년경에
##누스의
##버스가
##한나라
나누는
단계를
우에노
제너럴
중심을
칼초의
항공사
##-000)
dark
이적했다
종료되었다
##가르
##독을
##돌아
##발표
##보지
##시라
##apt
났다
때와
매도
주세
##로마치
##화하기
##eing
##hist
각지에
교회가
문화에
이사를
천천히
클린턴
효력을
know
공동대표
노르망디
설립하고
##직은
:;
겪은
굴복
레즈
명왕
복용
전멸
중랑
카바
##가들은
##노카미
##올리언
##우리가
서로를
서양의
아사미
차세대
책임이
승강장이
이용되고
처리하는
나폴레옹은
##거가
##결한
##수소
##어인
##해질
감추
구이
뒤의
뚫고
매리
반역
선양
시크
접해
피쳐
##스위스
검사를
배우는
컬렉션
기록이다
노래이다
사용하던
주관하는
함경북도
활용하여
이탈리아는
친일반민족행위진상규명위원회가
##림동
##탄이
##패의
구룡
나우
남을
대담
도출
동산
미합
의석
##대서양
##버스를
##에게만
##클라호
##uary
되어서
사명을
시마즈
시티즌
필리포
복귀했다
사무라이
생각하여
(0.00
*0000.00
쿡
##主義
##대칭
##요를
##좌를
##호란
##oth
그릴
법령
온양
자립
##당했고
마르티
시미즈
식물의
이름도
정당한
존재는
메커니즘
브레이크
0000-
모닝구무스메
к
##닛폰
##무한
##재해
##코모
##set
막고
성실
인하
죽여
##대회를
##명에서
##조사를
eff
usa
도로가
소식이
않았을
anim
더글러스
에너지의
잃어버린
시작되었고
∼
##소닉
##차도
##창이
##.).
mk
매립
상점
씨는
왕궁
최남
##억원을
문학의
주었고
스타일의
시즌부터
영등포구
작용하는
중앙위원회
battle
##national
##너를
##좌석
늦은
맥아
맥주
문교
볼넷
상부
시선
싸울
남편의
남편이
생명체
손상을
외부의
정권은
##예술대학
결승전에
못하도록
프랑스령
학생들에게
00.000
##尙書
##보자
##부시
##용사
si
서문
시아
옥타
인적
평상
호랑
##천으로
dan
ios
공세를
디지몬
선언을
출연해
통일을
디비시온
죽음으로
우즈베키스탄
##전적
##처가
##화성
##활성
가타
길러
소문
정글
평원
피셔
##재판소
구성요
맡는다
목록에
사회가
속하게
여지가
초상화
호랑이
##애니맥스
##음으로써
##trans
전적으로
주말연속극
##bt
겔
##시온
##피오
군벌
리뷰
잡을
##스트림
##west
get
레이스
섬이다
시절을
차이나
케이프
##yu
##ер
##외과
##티어
nh
김호
벽돌
조셉
진구
진료
질투
##스토리
담당한
법원은
병사를
가르치는
와카야마
엔터테인먼
중앙대학교
##봉의
##토끼
##ami
##aut
##ube
구슬
노후
번갈
사의
웹툰
증조
취한
하르
##만원을
she
기원후
백화점
정신과
후기에
left
스페인은
진행했다
완성되었다
##광의
##근을
##모닝
##번역
##천과
##천안
가기
거세
겐지
고딕
모욕
싸웠
양보
정은
##네거리
##단이다
##조에서
무엇을
연주를
원자핵
정해져
지분을
질량의
취리히
##페오나투
html
국회에서
개발하였다
기록하였고
가톨릭교회의
##zi
##상블
##신보
##음반
##질에
##카게
두지
비늘
성문
수복
앞세
연한
원종
진을
컸다
가격은
경제는
로마로
만주국
상태는
수요일
수준을
실행할
여자의
용어가
플루토
*00.
대다수의
대항하는
순서대로
진출하여
광범위하게
받아들이지
산스크리트
이탈리아어
분데스리가의
00(0000
##바야
##서니
##송이
##투르
##펭귄
말리
멋진
법이
상기
정적
피카
##당하자
##alth
hen
tro
대표가
실수로
철학을
호르몬
##강전에서
##시키면서
등장하며
성공한다
스칸디나
싫어하는
found
네트워크를
스튜디오에서
##ér
##공무
##교동
##대승
##산염
##상속
갈래
굵은
단역
박수
빨라
##예정자
경우와
동서로
총리를
해밀턴
educ
모델이다
정규리그
클럽에서
아카데미의
000000000000
##'.
##모양
##빈은
##자격
##제인
##dos
도이
수퍼
예가
재외
징계
##제도의
급격한
난카이
데이브
지나친
투쟁을
모습이다
않으므로
oxford
00:00~00:00
##든가
##디드
##벤션
##성동
##제나
##)',
##aco
##aya
김학
샬케
심화
울프
지우
진상
최정
틈을
평론
휩싸
##항으로
##회의에
##cont
경제를
그러다
단계로
많지만
바라본
뿌리를
소설의
수원시
아이의
없음을
적었다
코펜하
0.0,
공장에서
전성기를
타카하시
룬
##민속
##엄마
##연금
##이집
##쿠마
##테는
김효
비엔
세분
##제에서
##집으로
북유럽
손해를
파견된
아오모리
파괴되었다
##리니
##이글
##자형
##히드
##akb
경매
극우
남면
낮고
미에
신을
에마
자사
적법
##부분이
##왕으로
non
국내의
낳는다
성격은
얼굴이
원정을
일반화
죽임을
화재가
교향악단
보존되어
스왈로스
진행한다
##리콘
##스레
##신앙
##연기
##저의
##ats
##ban
개미
미수
불사
사림
콘솔
하급
거꾸로
광해군
사업의
세미나
취임한
친환경
패하고
mont
##ograph
polit
거절하였다
경기장에서
썩
##질량
##층과
공명
임계
전이
정에
고종의
기념물
나오게
받아서
앨범이
오바마
##하였으므로
##가을
##바사
##업과
##파티
##하느
##uki
감동
문무
분별
안젤
지출
착각
패해
ngc
두각을
상대식
숨겨진
가능성도
거점으로
대학교는
사망한다
발달하였다
포켓몬스터
awards
##강도
##막의
##방정
##숙은
##신용
##학위
깃털
물과
불에
상금
시국
유망
##과학부
##행위에
글자를
무너뜨
바뀐다
시기가
출연을
##uture
side
명확하게
선언하고
어디까지
에른스트
stage
교육과학기술
##mg
##돈의
##루로
##아랍
##천은
끝을
막대
완봉
힘의
##스키의
##연구회
##정보를
경성부
계승한
그녀와
도시인
무역을
비율을
이시다
해에는
##공화국의
셰익스피
엑스박스
통합되어
friend
쑨
##명종
공약
일주
자생
제헌
카사
##브리아
##스타일
##여명이
##자라고
##퍼센트
dev
국정원
끝내기
올리버
원소를
탐험가
하나씩
홈경기
국민들의
마이애미
진행되어
활동으로
스트라이커
##국회
##자카
##조제
##쿠젠
##테랑
군과
답변
동전
모던
바보
분사
이브
읽기
전범
중서
##pres
노동당
산티아
성질이
유학자
작가가
페트로
현대에
화학적
##james
레지스터
명령했다
프란시스코
뮐
므
##비상
##해리
##las
##pal
공대
급성
##덜랜드
쓰레기
판정을
드라마의
이번에는
조약으로
아이디어를
피아니스트
00,000,000
##가도
##교리
##연주
김장
다행
배척
쓰게
예는
조심
##바라키
##이어야
빠지게
전달하는
인도차이나
드래프트에서
마다가스카르
맴
##그와
##반대
##술은
##지청
##해줄
##boy
니켈
미쿠
순식
원고
초판
파벌
##다니는
##렸다는
##로니아
##하지도
##ices
gar
공주시
법률에
설립을
이제는
인물은
인증을
what
이들에게
장악하고
##margin
social
##가야
##무용
##부정
##원칙
##직의
##fri
모후
영암
인연
임정
정제
카테
##심에서
bir
공로를
기관이
높았다
다음을
바라는
벗어난
변하는
아열대
여자를
비스마르크
평균자책점
댓
##불상
##지수
##창은
##토키
##품질
##향의
##ito
tg
글꼴
법은
상록
월터
이그
##레티코
기원은
넘치는
조약의
출전을
특성상
발탁되어
은퇴하였다
studies
첸
##다케
##림과
##복무
##철수
##udd
공안
반죽
오사
이례
조소
표를
헌납
##만명이
##상태가
tor
총리로
토스카
현에서
활동과
post
마오쩌둥
승리했다
##동자
##마라
##전동
노면
레나
차고
파면
cia
사후에
산맥의
인정을
자유와
채널을
##시키는데
##폴란드의
mult
공과대학
수행했다
연루되어
인기있는
"0000
국제적으로
프로그램인
##방어
##움이
##충은
##코파
##zer
nm
각성
남미
떼어
맡겨
모스
복장
색의
설문
중량
##기술을
##시내티
나간다
독립한
와이드
지구가
책으로
현실을
##music
등에서는
프린세스
활동했고
##룡의
##왕국
##저널
남인
쉽지
주일
지부
##마지막
##순위로
cho
공헌을
교수의
교회는
노선에
따르지
상주시
새끼를
수단을
왕에게
전제로
친구들
##되었음을
프리큐어
인터페이스를
##유예
##청춘
두뇌
봉황
뽑은
예편
포츠
##well
강하고
교황이
권유로
규모를
대표를
디나모
비정상
인물을
총리는
##stein
반대하여
사라지고
##라운드에서
winter
##기하
##분할
##시각
##전리
##짐에
##쳐스
각국
과시
광물
미세
##번이나
##카드를
set
교황은
구성은
시체를
아랍어
있는가
작업은
처벌을
bell
기념하는
대량으로
라이선스
영화감독
일찍부터
조지아의
##대학교에서
##ey
##yg
##민턴
##번길
구니
잔존
##시켜서
나무를
문자로
올리브
있으니
결승에서
덧붙였다
여겨졌다
##천초등학교
공개적으로
코스타리카
##공수
##매김
##사적
##아에
##열과
고찰
냉전
따돌
신곡
운명
##르트는
##삼국지
##세계의
##집에서
가리는
머물렀
비해서
사랑해
심리적
있듯이
충주시
##acter
상원의원
인상적인
##(0000~0000
##데자
##등기
##로쿠
##박을
##점인
##lev
db
기니
배의
일각
카피
팔꿈
##달라는
##시트콤
기사가
나카노
마스크
유니버
에너지는
유지했다
컴퓨터에
대한제국의
##거북
##년째
##mid
md
ze
격렬
발산
번은
변동
보자
제동
패킷
##동물의
경찰청
그래미
대량의
대학은
서울역
장악한
화재로
name
국가보안
사무총장
설치했다
연구에서
공개하였다
##오에
##테라
wr
과연
국사
별명
의류
칸의
##가락을
##가지로
##년마다
##즈에서
##파출소
##·000
den
win
고유한
마법을
보이기
사신을
서식지
엑스포
윤치호
인물의
일원이
입자의
자녀를
후반기
real
wall
유명하며
주변에서
주인공인
캐릭터로
##파라마운트
경기장으로
##변화
##팀에
##판례
##bra
yg
깊게
띄는
벤처
참수
키를
##달리기
끝나는
대나무
대표작
복수를
사태를
승격해
아내와
아이언
조화를
주의를
해운대
##이스라엘
##했음에도
버펄로스
사범학교
(00.0
수록예정자
##란한
##서쪽
##영동
##00′
##ctv
##hom
##mad
##ros
강진
공고
그란
꽃잎
백지
화약
##궐선거
##산업의
끝나면
달린다
방어를
지역구
강력하게
공간으로
프로축구
북아일랜드
알렉산드리아
뜬
##린과
##상품
##시브
##iko
##mph
대청
스몰
신익
위생
전봉
제리
##로그램
rem
squ
뒤늦게
자메이
자체에
홍콩의
##일부터는
##조판서를
가와사키
기념하기
사카모토
좋아하고
유로파리그
정치인으로
이화여자대학교
##료의
##리한
##망은
##액션
##폭스
고치
공양
공적
농부
마모
보름
앨리
오디
장병
지탱
친족
켈리
키드
태화
퇴직
그렇기
성립된
없어진
의원의
전역을
포항시
하려고
조직하여
final
force
paris
##ор
##복은
##와서
##중종
##즐리
몹시
바디
비준
새긴
실체
편안
##메이라
##상태에
##time
ghz
거두어
교통사
내세워
변한다
중학생
초부터
통하는
프린스
무산되었다
##cu
○
싹
##경인
##공공
##애플
##차관
##ila
어우
직책
##전에는
##thod
imf
공간은
구조에
다이노
사업이
시에라
이론적
주변을
탑재한
형식은
관계자는
순식간에
이해하는
크리에이
river
괌
##년엔
##료는
##창작
##타바
##표로
그랬
극한
비토
승낙
편이
하츠
##담당관
##lear
노래로
물체가
수요가
신뢰를
연설을
학교가
협회의
##바이러스
도입하여
동원하여
히틀러의
제시하였다
€
##농민
##물인
##요가
aa
목회
외환
월트
##레이루
##었다는
##자라는
bay
기준에
여부는
이름에
중거리
측면을
##0000,
당선되어
##robert
train
전반적으로
##ング
##기리
##판사
##uke
고창
노원
수인
아와
연립
오시
워커
원동
위조
일생
족의
타르
##디아의
드레스
세리이
신청을
학생의
##문화예술
남베트남
대비하여
절대적인
측정하는
smith
달성하였다
##gt
##더지
##문예
##삭스
##세상
##여진
국외
덕수
마유
무도
부풀
비둘
색상
유권
주저
튼튼
할인
구성을
대변인
대사를
메이커
방향에
슈트라
형제가
##overn
가운데에
설일체유부의
##간호
##만인
##상어
##big
극중
능동
도끼
맹활
묻혀
아데
유길
이형
펼친
향토
##타이어
def
mas
mur
시대는
아이템을
##결의
##머는
##무지
##베쓰
##순은
##오케
##)00
##0~0
##oni
겪게
공저
군함
급증
대좌
등단
렌더
장항
##캐릭터
##파운드
##plic
가정용
미즈키
부모가
서부에
아들은
앙상블
얼굴에
코믹스
call
확실하지
##心所
##심소
##임에
gb
대여
버터
병렬
연행
지오
단점이
언어가
예로는
학문적
ball
data
rail
도미니카
명령으로
못하였고
생물학적
소말리아
출전하지
other
seoul
통합되었다
##station
##날개
금정
달에
랜덤
레일
베오
저그
날개를
내용과
폭탄을
##클라호마
kiss
적용되는
제거하고
academ
standard
##gp
##기만
##남의
##뤘다
##벚꽃
##왕전
##del
궁중
바오
송정
쌍용
유수
유승
중생
##세군다
##iger
##ound
가격을
번호를
시부야
이루지
일주일
전기의
혈액형
##iform
건물이다
승리하여
never
프랑스군은
(0000~0000)
##文化
##포도
걸고
늘려
보행
비어
시중
재앙
최용
코린
##연대는
다닌다
단체가
동부에
동인도
외무부
우수상
##ories
벌어지는
인공지능
##eu
##ол
콕
##면허
##척이
mg
가든
마땅
부조
여당
장준
##ency
기반이
바다로
옆으로
유형의
충돌이
헤르만
##ville
인터뷰를
일일연속극
중국에서는
세인트루이스
헤르체고비나
줌
##全州
##구니
##올림
##월이
##택이
##tok
ok
감자
농경
목동
목욕
발해
상자
스윙
열두
적시
전학
정관
직계
퍼즐
##윈도우
멜버른
설명을
성매매
집합을
처리를
한계가
형제의
집안에서
프로젝트는
м
##菩薩
##부족
##탄은
##ves
근래
김미
민감
민씨
붕어
빨강
소라
주성
첩보
판의
##친일파
##회의원
bon
길이를
몸무게
반대를
방대한
브리지
여러번
찾아서
달라진다
등장하고
아시아의
연합군이
자신만의
공격하였다
들어서면서
일반적이다
브라질레이루
##간은
##들고
##찬성
##osp
거미
공국
내포
번창
시원
양지
정일
지침
포식
##드리게
##uter
군대와
논의가
달러에
동의를
리프트
모델의
방송사
배우자
분쟁이
신민당
아닌가
이해를
지나가
##들에게도
##필레이션
계속하여
무로마치
옮겨졌다
사운드트랙
예정이었다
corpor
richard
##멸의
##소나
##오이
##재와
##절의
##정조
##처의
##터치
동호
조의
좀더
죽일
켈트
갔다가
망원경
보기도
성직자
알제리
휴대폰
##월부터는
공간이다
분포하고
유래한다
일대에서
증권거래
하나로서
인정받았다
맬
##아로
##예방
##태가
당연
불신
상단
지팡
투신
##나르도
hal
강력히
부인은
장치는
증거는
청동기
펼쳐져
효력이
희망을
내놓았다
등장하여
부에노스
development
##cv
##사구
##toc
nb
내게
부추
좋고
촛불
##학교육
*::
ddr
같다고
브래드
체인지
통합을
확률이
후측면
방송으로
시즌에서
회사에서
동국대학교
체결하였다
##링의
##모음
##목사
##새를
##질라
##fly
끊어
농산
되살
애프
인테
자처
##도이다
bre
hor
sem
가능성
머물러
아브라
있어도
##스위스의
##iforn
국립중앙
이슬람교
종교개혁
초등학생
테스트를
개편되었다
낯
##녀는
##년차
##오세
##전철
##징어
광년
구금
리보
방과
선장
아다
찾지
##achy
jan
공장을
광대한
분쟁을
연락을
운명을
하나다
근거하여
##cyclop
과학자들은
롯
##두가
##쓰기
##평의
바와
이혜
정승
참의
통솔
페레
##교육과
##교육원
##다이스
hel
단체를
대종상
드래건
마을로
바닥에
방정식
사랑은
앤더슨
이보다
전반기
짝사랑
초신성
크기와
##field
실시한다
아들이며
없었다고
경기장이다
괄
##나루
##로라
##바를
##분해
##우체
##패스
##퍼는
##ria
기차
긴키
대소
리본
살짝
스톰
유상
정예
황색
##활동에
갈라져
게이오
결성한
고성군
대니얼
바람을
브리티
생산이
여부에
연안에
하기로
힘썼다
##브라더스
asia
돌아오는
##대구광역시
자발적으로
셜
##메데
##빛을
##연패
##일생
##지검
##쳐서
##ges
##mil
##osh
기해
놓아
마운
면도
소꿉
승하
이길
##ante
##come
##paul
lcd
거두고
기지를
다마스
생각은
암컷은
여성은
위험에
형제는
##white
거절했다
별명으로
장남으로
유지하였다
대통령비서실
collapse
##구멍
##로트
##선도
##젊은
##pap
##|00
ال
관음
대주
세토
##기관인
##대수장
##일본어
##협회의
ocn
권한이
마운트
명의로
비추어
선제후
장착한
플러그
행사가
내레이션
요하네스
##곡초등학교
##니언
##버터
##티를
##eld
##usa
같아
누리
단정
에픽
위그
육지
정혜
켄지
평탄
##해서는
가끔씩
병력은
빠르고
선조의
소재지
일부러
접어들
충성을
##슈타인의
이외에는
랄
##답게
##으러
##포칼
##oce
그럴
듀엣
박인
오일
피치
현과
##법이다
##으로만
##쿠스틱
미군이
야구를
##레네
##브러
##수석
##하야
배반
양천
타키
탱크
##버리는
##브리드
##트레이
det
map
방송은
배치된
불가피
살아가
상업적
엔진의
작가로
저지른
정권에
철학의
취하는
##해지면서
##ature
view
시민들이
이동하여
주연으로
##스코틀랜드계
더불어민주당
##가슴
##너와
##볼트
##이미
##aga
##lar
먼지
안기
##번호를
##제임스
등지에
믿는다
종류로
줄이기
지정한
태양이
학교는
해주는
행정부
##데자네이
test
식민지를
개인적으로
##스타크래프트
##(0000.0
우크라이나의
christian
##골드
##명칭
##아틀
##암이
##여대
##적한
개수
밝고
복식
살기
섞어
자위
질서
##기관을
##소리를
같지만
구조와
권리가
만화를
반응은
왕조가
튀어나
함대는
##적이라고
##class
##color
결정하고
그것이다
사회과학
야마시타
earth
##스코틀랜드의
##예술고등학교
##관제
##근은
##맨의
##암면
##염을
##윤리
##카메
##amb
##tor
광해
극락
돈이
등기
수지
신시
오게
장택
칼슘
##ming
##thor
무지개
사토시
상품을
소유의
스케줄
역할이
연대를
영역은
후보는
army
개시했다
시도했다
최우수상
회장으로
만들었으며
##án
##업자
##처는
##천왕
##후이
##ela
##esh
경무
동거
벤피
양양
윤영
이항
주니
투하
팔을
##마리의
##버스는
##사단의
##소설을
면적이
본부를
서포터
세이브
조사한
통과한
활주로
결승골을
구스타프
일본군이
고등학교에
생각하였다
##동국
##발트
##버섯
##이슬
##질과
##팅을
##tra
강구
너비
디에
불의
살며
색소
알기
의왕
캐롤
톈진
##때까지
##보이는
##연수원
**0
나트륨
도메인
시행된
의식이
종류에
핸드볼
혜택을
교황으로
기자회견
라틴어로
보호하고
위치하여
roman
##american
프톨레마이오스
##대응
##림은
##버의
##순천
##아미
##텍스
고의
국세
몰고
북경
출품
치르
##프로듀
겨울에
교육이
규정한
농어촌
달했다
범위가
볼로냐
분위기
자리는
조선을
케이트
배드민턴
성장했다
아들이자
추정하고
트랜스포
tokyo
현재까지도
##보전
##분류
##안면
##00-
##put
##she
경량
녹화
떠날
아뢰
아쉬
적발
정세
종말
형의
##쳤으나
머리는
밝혀져
운영에
책이다
그만두고
동안에는
말하기를
메소포타
발생하고
승강장을
항공사로
library
풋
##ック
##군도
##절에
##협약
과목
깨어
명륜
주창
쪽의
파주
하와
##마리아
##연패를
ltd
근거를
상대방
서부의
스퀘어
여론이
연기자
의석을
자라는
전국에
행해진
##헝가리의
##ichth
국가들은
아이들이
않았는데
연고지로
이야기의
합류하여
히로유키
champion
녀
##둘러
##추리
##타다
##테레
##플렉
##sur
깃발
눈의
데는
맥락
줄일
후방
개인용
거두며
따왔다
분노를
히타치
work
대중교통
마이니치
시작되는
실시하였다
제정되었다
확정되었다
성균관대학교
business
##?”
##버려
##양면
##주아
##iph
##khz
oh
남지
단속
대합
도읍
루비
색은
생길
서위
순례
증오
판명
##자유당
:::
lar
《''
말에서
상파울
쇠고기
유스케
인코딩
합하여
개발했다
공격한다
일제강점기
돗
##사나
##술이
##슨을
##duc
건륭
김치
얼룩
여주
입어
전위
코칭
통역
행해
##능력이
결승에
두꺼운
명예를
아니한
우주선
유지를
테네시
팬들이
여름에는
우승으로
증가하는
출신이며
크리스탈
플루토늄
소프트뱅크
##숙이
##천역
박희
배워
법제
수하
싣고
을사
익숙
줄을
총기
침체
편을
필연
##할머니
산업은
설계를
제목을
나가시마
사다하루
사용했던
시민들의
아랍에미
지배하에
review
##('
##렌스
##범의
##블린
##섬유
##숙의
##움에
##초와
##토프
##트워
##현상
##urs
기저
믿음
반장
복종
양평
여고
예일
자행
현직
##개이다
다문화
문화는
물체를
범위는
변하지
실권을
장관이
제공할
##부에서는
명목으로
살펴보면
연기했다
이상적인
판매량을
지역에서만
##高麗
##별의
##산로
##율로
##이씨
##충남
##페어
##los
가창
대에
동두
맑은
문의
사커
어항
염소
인제
줄곧
체력
코시
확충
##번지에
감독에
구멍을
데니스
동부의
박사는
버스를
블레이
정치학
편으로
개편으로
호소카와
##center
##기스
##높이
##링크
##범이
##삼촌
##전달
##주며
##dan
간파
매진
미칠
비아
순종
오와
와다
장대
한산
황폐
##원자력
##down
00–
단체는
데에는
법안을
사진이
오스카
카타르
##시내버스
russ
서비스가
자문위원
미드필더로
요청하였다
##?》
##단샤
##독의
##적과
##lag
과잉
나일
독살
레스
실증
열정
오정
평민
호기
휘두
##이라기
##중이던
box
cra
tak
경우의
그룹에
법률을
변경을
비정규
주식을
지방은
스케이트
인수하여
투표에서
피아노를
##주의자들은
00%;"
##구마
##받기
##예비
계룡
골짜
근위
상이
오우
테리
파직
##메이드
##원이다
##high
##phen
tre
vis
건강한
배트맨
시신은
유타카
조언을
화장품
##키가하라
간주된다
고향으로
지도자로
##korean
공헌하였다
volume
##비평
##어족
##파스
##mir
##tim
가다
고트
관점
김택
센서
요즘
제창
차차
추계
출자
화엄
##공사가
##세기경
##원들이
건전한
당국은
물질은
보였고
사랑이
순서로
오사무
왕조는
적에게
찬사를
문제점을
단국대학교
유래하였다
제작하였다
낡
##골이
##먼의
##신부
##탑을
권투
로컬
불릴
소통
양조
오자
유역
전리
현이
##(0),
김규식
깨닫고
너무나
마사카
복음서
살해한
쓰이지
얼굴은
원소가
이적한
자살을
cour
교회에서
중심지는
##oe
##개통
##라서
##장수
##죄의
##황은
##azz
##ief
##leg
늙은
박중
체스
한진
##인도의
국무총
대항해
만나고
문재인
벌이고
소나타
줄이고
(0):
결성하여
미스터리
발행하는
girls
대한민국에는
б
##셀러
##스태
##쓰카
##주도
##질환
##초는
##희를
ut
공리
기압
서강
일리
적당
방송에
수차례
우의정
전자는
제안한
좌의정
투자를
행성을
마사히로
성소수자
소속이다
중앙일보
거부하였다
한국방송공사
original
##손의
##중이
구가
꾸며
눌러
성폭
성행
아놀
안테
왕세
용맹
이서
청풍
##마이클
##ench
##text
sns
기초가
미만의
박사가
서울을
왕조를
포터블
##스트리트
##아름다운
대전에서
살아가는
루이지애나
증가하였다
스칸디나비아
##비어
##비츠
되게
발로
세가
에바
종묘
주며
해킹
##시키면
##야말로
##회사를
구멍이
소유자
요인이
이사벨
커플링
현대화
##한국방송
##under
##urity
cast
디자인이
보이기도
율리우스
자동차의
개시되었다
열린우리당
##엠카운트다운
korean
임명되었으며
##개편
##상사
##증과
##kia
생생
신영
이심
있은
장벽
할양
홍진
##irit
맥스웰
스테인
작곡을
타임스
회의에
##하기까지
극단적인
은퇴했다
organ
라이프치히
##관인
##교향
##궁에
##나베
##머가
듣는
불타
상에
전미
정정
키리
홍익
##하려던
##ques
대결을
돌아갈
바람의
바로크
설립자
침략을
향하여
도입했다
역으로서
이스탄불
##값이
##먹는
##메인
##바브
날을
다룰
신종
원본
진흙
통로
##기적인
건물에
남자는
신설된
오카다
질문을
철도를
첫사랑
해석을
##david
##-00-00
노력하였다
어려서부터
판매되었다
##lc
##메드
##옥의
##좌의
##집권
##한지
kh
고집
귀신
아지
일차
##부대를
##시간은
##inum
##ston
afr
ang
마스코
면모를
역할로
이마트
중공업
폭넓은
arts
list
개통으로
비교하면
역사학자
##ール
##레닌
##버전
##성리
##언이
##큰롤
##틀리
##eau
길로
바젤
반성
실장
점도
직속
최우
토호
휘발
##ouch
부정적
부천시
사라져
생계를
주제에
탄핵을
호흡을
회장은
##했으므로
증가했다
편입되어
할리우드
합류했다
샌디에이고
##사촌
##유통
cs
金氏
구획
김시
대방
아델
인위
천하
테살
##hard
##iful
결정할
기술에
도쿄의
미성년
복수의
영혼을
우위를
운동과
중이며
합의를
화면에
wood
공화국을
대학으로
종교적인
프로듀스
플레이를
있었으므로
thomas
서울특별시의
끄
님
닷
쏜
##랭크
##레벨
##스미
##우옌
##월을
##질서
##할린
##dle
ww
개로
도약
삼중
시트
하의
##장애인
inv
거뒀다
라오스
번이나
아이젠
천안시
근본번뇌
측에서는
happy
offic
시스템에서
쾨
##司馬
##如來
##교과
##너드
##분리
##촌면
기마
마니
마디
마비
받던
삼는
안토
인성
저상
창고
채굴
코이
힘은
##볼루션
##alis
개발자
능력과
불리던
재료를
분류하고
신성로마
연합하여
한국영화
##hf
##공군
##락은
##보증
##kin
것들
오만
유틸
정계
추석
크며
태안
pos
레코딩
바뀌는
북동부
이뤄진
겨울에는
스카우트
입단하여
참여하지
기자회견을
부다페스트
##소인
##없다
##팀과
과실
밀도
별세
월남
직경
##내버스
##차대전
bad
old
교과서
미소녀
바뀌게
반격을
사고의
사냥꾼
세력에
안정을
연달아
영토의
영화상
정의된
조건에
컴파일
탄압을
only
결혼식을
경제적인
내각총리
내려오는
보수적인
없었으나
임명했다
즉위하자
시스템으로
헤비웨이트
뭔
##李氏
##가구
##명령
##야에
##열린
##정사
##한데
##cop
글렌
대포
안겨
양수
은폐
콜드
평의
##바이에
##학으로
거쳤다
국왕이
되풀이
선거가
선거는
요소로
위주의
조직된
태양계
##itary
공화국은
초반에는
0000~00
##university
##댄스
##물리
##세조
##화합
##희와
것만
두터
박동
분수
여타
연중
직사
##보았다
##비시의
##스와의
##정부를
##화되고
ioc
pen
사정을
세계적
타일러
히카루
bank
flag
계속했다
선수였다
시외버스
아드리아
어려움이
인기가요
build
컴필레이션
direct
캅
##時代
##니크
##대조
##보상
##아침
##안정
##양력
##영역
덴쇼
무자
무찌
정현
출루
치뤄
퍼스
표출
피드
##단체인
##르게이
##성균관
##회사인
##anda
근거한
도마뱀
등장인
아키텐
외국의
촬영을
편성이
##년까지의
##페스티벌
##형문화재
##화하였다
간단하게
설명하기
인터넷을
현대적인
0000(
china
교체되었다
report
##레와
##손이
##스탠
##카페
##sta
낚시
매디
분단
왕인
일삼
집적
한데
확고
##운동은
그림이
기관을
조조가
트로트
한번도
혼란에
##''(''
개발하여
있어서도
종목에서
주인공의
##경연
##북한
구부
김한
믿을
변질
의자
주역
히토
##ivil
당하여
대다수
면적의
알프스
전설이
파주시
편찬한
##아버지는
00:0
come
노력했다
당하였다
발전했다
신분으로
아이들의
위치에서
이어지고
지배하고
개최하였다
austral
샴
##기금
##모닉
##쿠바
##후가
땅의
이우
죄수
지로
##분까지
##세데스
##유공자
##클리드
##spec
교통국
동작을
떠나는
전차를
정당이
총사령
행하여
회원이
boys
개정으로
마리아의
연구개발
움직이지
퍼포먼스
##중앙대학교
##ym
##냐고
##려한
##선형
##스탕
##월말
##트랜
교량
깨고
박기
버드
위배
투여
##fect
tbc
개막전
돌려보
떠나게
마그네
무리가
발견할
사야카
세례를
정의에
평안도
행사할
분위기가
일으키고
베이스타스
##(00,000
애니메이션의
##);
##kh
퉁
##書院
##가동
##공대
##레지
##루냐
##만주
##보며
##시즈
##차이
##’()
0∼
기금
로베
명중
밤의
악성
책이
##계획을
구체적
대학이
산으로
새천년
옥수수
정당의
지구로
참가해
카오루
크기로
팬들은
##전문대학
##rough
##south
마음으로
신노스케
안전하게
인정했다
추진하고
컴퓨터가
##(=
«
탔
##》《
##고용
##공포
##노총
##덕면
##라라
##르스
##아동
##안녕
##종에
##ote
걸프
변모
보류
비옥
샘플
세무
양은
오즈
키릴
##공으로
##선수로
##chan
부모는
선생의
수비를
수준이
얻었고
이같은
인정할
인프라
입장에
some
모양이다
입학했다
##sb
##고트
##규는
##근무
##링겐
##양에
##운용
##윽고
##지배
계략
고르
날의
리키
백업
양측
형을
회유
##문화를
##브랜드
cry
key
강렬한
기여한
스위치
아이즈
오리엔
체제는
훈장을
관장하는
내려졌다
반대했다
사정으로
세력으로
자리매김
존재했다
뢰
##府事
##년작
##문인
##스튜
##작업
거기
노드
다닐
도화
박세
올릴
정을
차로
##클래스
##arly
dfb
그러면
대군을
독일을
뜻하며
마법의
예수가
요르단
이주한
주기로
해설자
향했다
이마가와
일치한다
코믹스의
페르난도
표현한다
##.00.00)
00-000
##議政
##남매
##변수
##00°
물류
삶에
아디
외조
윤원
코로
높이기
말에는
신임을
예선을
임시로
재료로
지극히
학명은
발발하자
아이디어
조별리그
피해자의
##시킴으로써
플레이오프를
00000000.
##ев
딥
##교토
##네다
##목과
##빛이
##절이
##테오
대흥
둘의
마켓
모신
배터
윤종
자비
조석
지음
##스러워
다국적
뮌헨의
선정된
어디서
유능한
유용한
이윽고
전설에
주소를
컨텐츠
해리스
행사에
독일군이
방송통신
삼국시대
자리하고
코펜하겐
모스크바의
참석하였다
##다양
##렉트
##오키
##유고
##줌마
##참찬
##합을
##eee
가루
경순
딱딱
배재
사투
산책
석권
집의
초음
허영
흑백
##소송법
공민왕
드러내
무서운
반발을
부인이
아리스
요시쓰
집합의
가르시아
단체이다
도착하여
마음대로
부진으로
주전으로
페널티킥
폐지되고
##이용
##이화
##임과
##태조
##''》
##oud
mt
물결
세컨
엔젤
처칠
치유
카오
##개국이
##수욕장
기원을
법원의
북서부
스칼라
승부를
싱글은
의회를
인사를
##ender
gard
계속되고
나뉘었다
목록이다
반대하고
주장으로
지방으로
##charles
##계리
##교원
##승이
##심리
##콤한
강민
날은
도핑
소원
아쓰
코리
쿠하
타오
타지
페로
피살
흡혈
##부분은
##자니아
강에서
개선을
경계에
노트북
다시금
발생해
사업은
오늘에
차원의
천체의
어머니인
##공고
##선승
##위험
##혔고
갇혀
기점
단군
믿지
배기
비싸
산시
속초
원전
철강
##국유사
##노동자
##도르의
##리아스
##세포의
가볍게
귀국한
많은데
매니지
베이커
요리토
인생의
회사로
##ellow
무렵부터
식민지의
유니폼을
코트디부
peter
합류하였다
행정대학원
artist
christmas
■
뿜
켜
##규의
##라시
##루크
##무진
##최대
##탄병
##how
##oli
박현
병에
분파
자랐
흡사
힘에
##로스는
##청으로
##케이드
##face
동물을
바이어
사람인
살면서
오르게
원작의
##pseud
법적으로
취득하였다
martin
윔
##금강
##던트
##런은
##본명
##처장
##효소
강호
로트
비자
속편
스쿠
실정
엇갈
에그
엘라
왕래
유민
조만
혜성
흐르
##륜구동
##사업에
##사회적
##층에는
##jean
마사키
삼각형
연관이
집단이
특성이
포스코
##inger
고등교육
마쓰모토
사업으로
자랑하는
제시했다
평가받고
행동으로
국가대표로
시작되었으며
##00000000
μ
д
##경성
##라배
##빨리
##영양
##iva
##jan
구내
눈은
발리
완투
이만
조니
##레스는
##wind
its
불교를
아내를
함수는
인정되는
합병하여
아프리카계
지속되었다
채택되었다
##교장
##바오
##스쿨
##티보
##합성
##dro
거룩
만인
반월
속성
신천
실효
안무
후로
##대군의
##십자장
##절도사
##조지아
기도를
땅에서
번역한
별명은
사상이
적용된
전해져
진원사
처음엔
##리우스는
격파하고
다이노스
무라카미
보헤미아
연주하는
요청으로
플랫폼을
after
education
##들만
##만족
##사냥
##원주
##전지
##컵을
##키로
구두
날씨
도르
리튬
메일
잔디
천호
춘계
황보
황소
##기관에
##대회에
##림으로
##트트릭
고정된
구단이
도시와
모나코
사상에
연대는
영역의
이상인
전자가
타나카
헌법의
확장을
##뉴질랜드
##레타리아
남양주시
대중적인
슈퍼리그의
##eautiful
##남녀
##대영
##도마
##요는
##유정
##채는
##한성
단양
매표
복직
애드
완수
치환
##때부터
##odon
과거를
되돌려
인식을
피쳐링
히로부
##애니박스
town
로드리게
아우구스
연관되어
하였다고
george
인테르나치오
revolution
##ih
##リー
##김영
##레앙
##복한
##엔젤
##일라
##페인
##rel
//
ju
자궁
자와
잔여
##에게로
##진흥원
''(
ast
밝히는
설치할
정계에
펠릭스
ieee
선수로서
오디션을
이에야스
탈락하였다
000-000)
쑤
##람쥐
##손은
##파괴
가환
계양
도우
벤치
상고
수증
에페
타우
헤겔
##랭피크
##리오스
##비평가
##우주연
##하자고
가량의
감정이
걸린다
고성능
구분할
노무라
다이라
당시는
로마를
생물학
아이작
어드밴
전당에
해결을
무엇인가
진출한다
표기한다
해양수산
협력하여
##korail
model
영국에서는
일방적으로
process
##cf
##lu
끔
##네임
##도구
##스텝
##으리
##학기
##효율
##cin
:-
공시
규명
문성
복속
싸운
의성
저질
지그
처한
##ysis
논란의
대단한
부담을
비율로
역할도
직업을
쿠르드
해결할
관측된다
보고서를
소수민족
국가에서는
유래되었다
플레이어의
century
세종특별자치시
##dm
##py
##날을
##뮤얼
##텐셜
##esc
##won
거란
라울
멀어
물품
바쿠
소가
양정
의용
자존
폐선
황실
##민스터
##ough
oct
구간에
미군은
세웠고
여성과
연관된
##시키려는
##중학교로
싸움에서
의거하여
이리하여
얼라이언스
online
립
##건에
##노이
##본인
##자매
##혼의
노엘
대제
데쓰
무색
불려
태도
하로
현급
mos
내전이
드레이
사정이
생물의
오세아
편이며
피렌체
행정구
힘들다
기관으로
조사에서
##ifornia
발족하였으며
南
##달이
##디네
##라르
##록을
##브와
##신저
##화도
관성
롤링
변혁
볼드
삼은
양심
인피
종식
짧게
fly
없도록
온도를
요시아
제니퍼
진실을
폼페이
니콜라스
대중에게
유럽연합
출마하여
헤라클레
##캄페오나투
march
배치되었다
클라이언트
##관측
##방사
##버거
##열로
##arp
##bad
##esa
계의
내며
등지
생선
스바
효종
후생
##교회는
##학과에
##ites
가졌고
강으로
고도의
교육감
나무로
롬바르
비밀을
세력과
아테나
연구과
용산구
임금이
철도는
트랜지
폐지된
표면의
##ental
그라운드
있음에도
정의된다
정책으로
제작하는
차지하게
파시스트
피츠버그
호쿠리쿠
00/00
만들어지는
상황이었다
선고받았다
페르디난트
##시외버스터미널
탭
##라바
##레트
##발행
##봉이
##살을
##어사
##인증
##하신
과천
꽃을
무제
밀러
세바
심어
저는
직렬
충칭
행방
후세
##omet
##ynam
ven
가스가
붙잡혀
삼국지
스폰서
아들과
아침에
우에다
패스트
화학자
mass
볼티모어
출연한다
일반적으로는
##개념
##건물
##공병
##대기
##르카
##림에
##메탈
##상호
##인디
##지선
##티지
결핍
남송
버진
변한
조우
호른
##역까지
nbc
경기인
공적을
설계된
플라톤
##cript
설계되었다
의도적으로
조선로동당
spring
(00,000
쯔
##모드
##무덤
##주말
##호리
금요
낮추
대정
라면
발톱
안심
유포
이조
잃어
정우
정준
##위대한
##투스는
##호선은
##ette
gps
곧이어
백악기
시청자
앙드레
원숭이
화면을
##break
##seoul
가졌으며
인도에서
인식하고
한국철도공사
뺏
##기통
##상도
##생태
##언은
##케의
##lan
날로
내릴
데드
외야
유체
출국
편견
##뿐이다
것들은
방향의
이용이
찾아와
민주당의
유틸리티
필수적인
세키가하라
##!'
깁
##교환
##더와
##쓰키
##어류
##온과
##oge
과다
로키
만장
사교
삼진
쿠페
한씨
경부선
대상의
데이빗
만들게
문자가
속했다
안산시
제공한
제도와
증후군
질서를
태어날
당나라의
매킨토시
이데올로
러시아에서
engineering
##東京
##sar
겸직
법안
스베
신관
임실
취향
##amin
##real
tar
보냈고
불만이
생활의
성장한
수입을
연대기
측정할
행동의
후원을
히로미
##대학교의
드러냈다
바이마르
사람들도
실시하여
주변에는
추정되며
클레멘스
필요성이
##-0000.
이탈리아를
톡
##大学
##강남
##길동
##담의
##로만
##승은
##충의
##hem
던진
리히
무겁
미주
약사
우스
의논
집이
##가지가
##꽃차례
##노모토
##던지기
##든버러
##연승을
##thes
과정의
구단은
낙동강
다리는
소설은
이겼다
크기에
##맨체스터
gall
기록한다
사라진다
시작하게
최소한의
페르시아의
global
알렉산드로스
곶
##太子
##걸이
##남에
##중간
##키지
##티야
##합병
#0
낭독
물은
박승
배울
복위
사나
시체
신승
쌍성
정월
찍어
취해
##스트롱
##애니원
##체계를
##콘티넨
권력의
누구도
문명의
외조부
자료는
지적이
체포된
행정학
휴대용
시민권을
참가하지
필리핀의
비슷하지만
하이브리드
히데요시의
##xy
롭
##오다
##인력
##토바
##필름
##van
갈리
단발
루크
성리
손오
수다
순항
이근
자카
절도
중합
호가
##세인트
##티스트
##퍼시픽
대체할
보면서
생기게
세계는
않거나
음모를
재계약
픽쳐스
##적이라는
##house
four
link
국가지원
기관이다
시간대에
요구한다
이해하고
채택하고
0000~
##고대
##랜서
##분기
##수염
##있을
##팽이
##cul
##urt
공보
김순
들지
띠는
리바
봉헌
수만
예멘
이니
절약
진리
침범
##이닝을
##후기형
##ista
fed
개발도
노력이
노르웨
물러난
밑으로
붙이는
빼앗아
아이티
재구성
##민주당의
국왕으로
기술이다
어쿠스틱
이주하여
패배하여
media
생산되었다
##됐던
##루엔
##승강
##클래
##후는
##dec
##hip
말린
방공
심해
유스
정변
퇴위
특전
##캐스터
##cell
##font
*0.
fac
결혼식
문자는
발명가
세이지
수도는
앤서니
영향은
인생을
정교한
지켰다
코드는
태생의
판매량
산티아고
파견되어
발탁되었다
어디까지나
입학하였다
국가대표팀에서
##계동
##데오
##볼을
##쉬는
##잠수
##장면
##한글
##ocy
(《
pt
남겼
백석
부전
비는
천명
추서
풍습
##노마루
##덴마크
##편에서
lat
갤러리
국가인
마르셀
범죄를
스케치
스트로
아내인
알리고
영토는
일레븐
초전도
##프랑스계
idol
만들기도
신기록을
高
##비례
##스텐
##예의
##일인
##짐을
0–
고을
공덕
동형
박철
순정
앞둔
이학
조회
타도
##스트를
equ
가지를
기록과
기초한
내려와
단단한
던지는
도로의
사회는
시험에
양상을
요리를
지식인
##츠부르크
경우이다
러시아에
republic
##달을
##련을
##소라
##신한
##책이
##non
##pid
개개
결선
노사
다우
도하
박명
스님
에두
절감
점진
테란
휴양
##세에서
##크라테
##해준다
끌어올
다이쇼
대의원
돌아왔
몽골의
세계가
익산시
장관은
점으로
##인민회의
구간에서
데이터의
박물관에
비난했다
이것으로
championship
괘
##게도
##광역
##돼지
##인성
##인종
##cry
bb
rx
건네
관례
나바
배웠
서장
손수
수식
신구
온두
유생
이륜
잊지
전류
촉발
포니
##스파이
게임과
대상에
모양은
바탕을
붉은색
사업가
충돌을
한겨레
활용한
##아시아의
가능성은
거두었고
금지하는
바다에서
슈퍼스타
역임했고
증가한다
##간이역으로
설명하였다
인플레이션
philos
##fk
##大韓
##죄를
##천교
##ili
능가
당뇨
리즈
부제
시발
온라
전방
최윤
##구조를
##comm
##what
fbi
꼬리를
노르드
등록된
시대로
신분을
싶다는
아야카
장착된
전력이
조약은
포도주
현장에
홋스퍼
##우정출연
드라마로
드미트리
블루버드
올림픽을
파이터스
확실하게
갑작스럽게
국회의원을
대한민국이
활동하면서
엡
엣
##城君
##광은
##급은
##세무
##읍에
##키치
금동
내재
러시
샤이
신당
심상
쳐서
##급으로
##명에게
##ians
공국의
라이너
신앙의
염두에
임무는
정류장
하늘에
환경이
alex
기다리고
파라과이
창설되었다
취소되었다
corporation
##건과
##령과
##룡이
##북스
##션을
##수준
##야전
##어떤
##try
az
목재
민정
반항
변해
산청
수위
슬롯
요양
패망
황산
휘하
##가공의
##사업소
##타이의
##open
##trie
미트라
보통은
본래는
취득한
테마로
해안을
확인된
##박물관에
##프로이센
무함마드
뱀파이어
생산하고
요구하고
이용하면
코바야시
항공기를
혁명으로
guide
logos
##gg
##녀와
##블던
##삼존
##시미
##아요
##운은
##장미
##rat
wa
결여
매월
매트
슈트
촉매
커맨
화원
##리카와
##모양의
##습니까
##챔피언
근대적
기재된
눈으로
도구를
보고를
운동장
일체의
지방과
체제에
개발하는
그대로의
대표팀의
사실상의
연구소의
주민등록
하늘에서
field
나폴레옹의
캐나다에서
##눈에
##대항
##임금
거처
광무
넓혀
도도
맞물
샀다
앞뒤
언젠
음의
플리
후회
##쳤지만
##just
교육은
교회와
기온이
단어의
무인화
문하시
반기를
원주시
윤보선
이곳의
중상을
코끼리
국가들이
다르지만
명나라의
주도권을
중국으로
##가리
##패드
##헤르
##uff
금액
동사
상냥
선에
스펜
암모
양서
온실
유머
일당
잡기
진전
풀이
##라배마
##부분의
##올해의
##dren
##elle
갑신정
박사의
복귀한
생리학
집단을
태조의
핫식스
발달하여
변화하는
언어이다
연구하고
있었기에
정도이며
##ét
##값은
##곡과
##성적
##오노
##전환
##imo
##rem
거머
경산
경시
대림
루키
미르
보육
숙명
정박
츠카
카터
함정
##나무를
##병사한
##우스를
##자마자
광화문
누군가
능력에
등판해
브리튼
순천시
스튜어
영화화
학생을
##받았으나
주어지는
탑재하고
팬들에게
민주노동당
수행하였다
노스캐롤라이나
##ет
퀄
##고사
##내리
##랑의
##루프
##외곽
##tom
겪는
금상
로우
멘델
모빌
방울
셔틀
송준
왕정
용기
총통
##기간이
##토요일
got
브라더
세네갈
영어의
왔으나
장치의
전면에
##한나라당
##heart
갈릴레이
만드는데
비틀즈의
않는다면
엄청나게
요코스카
자연과학
지배권을
point
썰
##끄럽
##렌의
##부스
##상인
##신청
##암살
##통산
##dis
##ska
롤러
매번
목판
심왕
아흐
추밀
##는지에
##스와프
##플래닛
가설을
글래스
목적에
설명한
정책이
중심핵
초에는
탄생한
##센티미터
레버쿠젠
싱글이다
주인공은
표현하고
한반도의
##single
출간되었다
새정치민주연합
멧
##덩이
##동지
##라비
##진화
괴멸
구례
대본
설교
왔던
외관
추론
키즈
행선
##로서도
##미아의
##제도가
##girl
남학생
등급은
밀가루
선언한
아유미
열리고
요소는
유이치
이루게
자서전
정리를
피닉스
##정보통신
운동으로
의원으로
총사령관
코네티컷
해트트릭
슈투트가르트
쯤
##탄에
##erv
##rid
dp
hp
가변
근원
노론
도의
본존
사생
송환
실어
절충
##스럽고
감독인
개최한
미카와
발행한
불리한
서해안
시점에
아저씨
위안부
직위를
카오리
##ource
밴드이다
브리티시
소유권을
철저하게
현재에도
대통령에게
영화제에서
벅
##귀를
##깨비
##록의
##용인
##직이
##츠코
##팔로
##황자
##bow
대를
도라
매스
배타
비욘
서머
어지
이룰
효소
##라이프
mig
구원을
김정은
부총리
실수를
응우옌
입지를
저렴한
파리로
##지대학교
##ische
그때까지
기타큐슈
러시아가
메모리를
분류한다
설치하는
차량으로
##.(0000
##df
##事件
##길은
##술에
##여개
##원작
##월은
##쪽을
##토에
##통계
##현장
부회
여럿
중용
징집
##반으로
##방식을
##생활에
##타점을
##call
가슴에
기관은
단계의
문서는
배경이
선전포
순양함
스탠리
안티고
언어와
여왕의
이치로
종교는
증거로
타케시
필요에
하나에
형이상
##가요대상
경기장은
나타냈다
자료이다
지원하지
후손들이
##인천광역시
득점하였다
##.’
##rt
##교황
##런의
##몬의
##유소
##저가
니케
대진
소식
여흥
적재
정거
천장
청일
팔린
패럴
핵무
현무
##산드로
##시간의
##여개의
##duct
pot
급제자
남서부
대립이
막시밀
수행을
아가씨
중국이
참여해
켄터키
테레비
강수량은
들어서는
명나라에
승진했다
제작되어
조직으로
청나라에
활약하며
##일고등학교
blood
몬테네그로
오늘날까지
##山城
##김씨
##레슈
##모두
##보타
##행은
가모
교단
대목
버섯
벽에
시찰
유다
채색
케인
해시
##각형의
##간으로
##그레이
##아사히
##팀에서
강서구
공장이
관할로
몰도바
무늬가
오류를
이후는
인식이
죽이려
표시된
피오렌
하카타
대표되는
복귀하여
유명해졌다
이야기이다
제공하였다
프레임워크
##백이
##부여
##샤의
##flo
곡인
나기
루프
만루
몰랐
불변
블룸
삼림
서동
식의
신군
우메
제재
집전
##와이드
##캐피탈
##판례집
##ways
ess
sin
가수상
개업한
대승을
북한이
사회학
스나이
신석기
이준현
재정적
즐거운
지위가
##하자마자
다스리는
발견되며
시리즈로
이론에서
제거하는
참가하게
투니버스
안드로메다
오래전부터
사용되었으며
publishing
##몰로
##와카
##책의
##초대
##sun
가결
가우
납부
원효
전과
파업
허난
형벌
##인지는
##쳤는데
00/
양자가
주한미
처리할
형상을
가능하고
보여주며
인종차별
전문적인
추천으로
언급하였다
확대되었다
##우크라이나의
histor
##귀비
##녹색
##좌에
##중주
##해로
##cas
-0
격침
도산
리쿠
마무
브렌
숭실
억울
엔도
오딘
전적
중흥
지을
창을
학회
다이나
다행히
당신의
사무총
수준에
없다면
오현수
우간다
정으로
조병옥
펼쳐진
프라하
가족들은
뉴올리언
소련군의
요구되는
위스콘신
일본민법
작가이다
집중되어
컨트롤러
##battle
가능해졌다
사회적으로
자체적으로
체계적으로
추가적으로
##(0000-0000
##ün
푼
##결산
##길의
##레라
##별한
##사노
##입을
##acy
##jin
궁내
등등
배로
사비
심법
쓰일
제명
종점
주름
준장
학파
흉내
##버리고
##ains
##jtbc
공연이
김해시
세포가
싱글을
아키코
조각을
중부에
평했다
플랑크
해군이
후자의
##anced
stad
여자친구
공부하였다
##〉(0000
사회민주주의
민족문제연구소의
콧
팻
##누가
##모험
##ced
##nov
cv
sg
글루
농축
묘지
무르
인계
장쑤
태생
한족
##지방의
##평의회
xml
개인전
관리가
국가적
나무의
대법전
모습과
문서에
생각에
암호화
연료를
오른다
오세경
조정을
줄이는
지구는
컨디션
후대에
dest
공부했다
미래가치
신시내티
지나가는
지원했다
집합이다
포함되는
발표하면서
modern
발매되었으며
행정구역이다
express
〜
##블릿
##엔의
##연과
##율의
##ati
도호
마차
번씩
신씨
아킬
영미
오피
윌리
지킬
헤엄
##장로회
dog
단체로
설정이
영화와
재개발
차량에
카리스
넘어갔다
아오야마
이바라키
초기부터
핵심적인
##iences
sweet
기록했으며
법전출판사
조문판례집
투입되었다
##궁주
##무도
##선사
##cia
귀가
글이
리프
슬픈
신창
연화
현은
##대원군
##정부에
##anto
##free
hon
계열사
미생물
비행을
설정을
핵무기
##연예대상
##콜럼비아
##elect
공격적인
판단하여
death
years
간접적으로
##~(
랠
##레로
##열전
##타사
##ays
급여
동백
민선
중개
최규
취할
포뮬
휴가
##티나이
apr
갖가지
고기를
다수를
마포구
발전한
선거로
입자가
잭슨의
저스틴
타이의
퍼펙트
후보자
have
마을버스
무엇보다
바뀌었고
발표한다
사람들에
제기했다
취급하는
##ration
시상식에서
지구로부터
number
활동하였으며
##pp
##분경
##실천
##원정
##플릿
##피터
##필을
##hot
##iti
담보
묶여
수군
쌓고
외척
휘는
##교육의
##월드컵
##타스틱
##해져서
##mart
emp
개구리
고스트
기능에
뇌물을
마카오
미나토
새뮤얼
샘플링
시도가
시작을
에치고
창설된
향상된
##사범학교
당시부터
마츠모토
아이스크
연예대상
일어나기
추정되고
친구들과
##남초등학교
##action
브란덴부르크
콘스탄티누스
β
##날드
##이제
##절차
##져야
##지바
##테마
##티와
##해석
##협상
##umi
견훤
덕에
먹이
묻는
백혈
부리
쉽고
애인
책에
클루
토리
##바브웨
##세이브
##ober
##roll
공기가
다르며
당선된
반도에
신체적
장르를
장애를
클라리
프리킥
##시키기도
미래창조
서식하고
양식으로
##남아프리카
union
##직업
##태는
##히기
##'()
##dou
##uri
근교
기밀
루즈
배양
상설
옥천
적힌
칸타
##프리드
나누고
달성한
부모를
이때의
인정한
축구단
필요는
##경상북도
##해졌으며
dead
모두에게
민주통합
안드레아
자동차를
정의하고
##george
##uction
존재한다는
##공민
##란에
##시도
##영재
##전서
##rey
내기
방에
부자
슬럼
아편
양동
열릴
인질
채플
##꺼번에
##미나미
##시설이
##장치를
luc
결정이
관해서
무게를
문학상
반감을
인민군
전공을
전일본
주기도
##hemat
국가들의
사법시험
예정되어
오른쪽에
일렉트릭
합격하여
기아자동차
추진하였다
effect
리우데자네이
궐
툰
##기성
##래는
##레프
##바와
##아노
##어업
##영주
##지법
##콜롬
갖춰
견고
끼친
당내
로리
무쓰
성수
안팎
장자
적에
정순
쪽은
출혈
퇴출
호모
##경제부
##단체가
##리스가
##aker
wal
부의장
안동시
지식의
파충류
페미니
soft
급격하게
등판하여
악화되어
없어졌다
지방선거
exper
intro
활동했으며
000-000.
챈
##선교
##선인
##엔딩
mx
같고
넬슨
단결
등산
땅이
산과
서신
유방
잎이
정미
제르
직류
##격투기
##바도르
##지로서
##쳤다고
나와서
돌아간
못하면
위상을
자극을
타타르
페르미
##ished
##mania
발견되고
생각하지
통합진보
times
엘리베이터
탄생하였다
프톨레마이오
##구락
##밍엄
##발에
##오후
##차드
##코비
##ten
구명
동적
배향
빚을
시영
야채
자민
초의
타로
한복
후견
##강원도
##극장판
##사업의
##원들은
##apon
##oper
##rome
0),
ham
계급은
공항은
궤도에
돌아올
선수와
성격에
의무가
정치의
친구로
한하여
히브리
foot
plus
개최되는
물론이고
보수주의
불리었다
불안정한
이적하여
정체성을
제작했다
한꺼번에
완공되었다
secret
받아들여지지
т
##나잇
##달은
##랑은
##유전
##추가
##톱텐
갑오
둘을
드나
뜻에
라미
샤오
서광
완산
이연
장씨
지린
진언
첨부
취직
한영
##부인과
##하느냐
건강이
결정된
그나마
녹음을
무게는
버튼을
예정인
윤리적
직책을
##총영사관
보루시아
상징한다
제공하기
히틀러가
mount
모터사이클
점령하였다
##마음
##지향
##코트
##화상
##var
ah
강우
노다
대인
뒤덮
바늘
병과
부실
에인
이숙
정실
지뢰
크래
폐차
##나가와
##네이션
##스토크
##컨트리
##현재는
가면서
고고학
라스트
상세한
셀레우
영국을
있지는
참의원
파스칼
프로테
##국민회의
##체육대회
##(0.00
##azine
nato
위원으로
이해하기
인터넷에
retrie
시리즈에서는
systems
##pn
##돈을
##레토
##보좌
##새가
##위도
##제트
##티엄
군데
나면
단조
로런
반달
조장
최경
최승
키보
형이
##당하게
##열차가
##코스트
##fred
구분이
규정된
대학과
민중의
발전이
의약품
폭력을
합천군
황제에
##제국대학
나타나게
돌아간다
동성애자
병사들이
부여하는
즉위하였다
august
future
charles
일본국유철도의
##가며
##각과
##간지
##골의
##로맨
##산읍
##어드
##퍼트
##플랜
##sub
곡물
국공
무단
사영
새턴
착한
커넥
코호
콜럼
##끼리의
##리오는
##서이다
##bill
nam
바치는
방향이
어도비
의견도
타자로
파이프
하드웨
##iving
##orial
올라가는
자택에서
전선에서
조정에서
주장하여
캐릭터는
break
부파불교의
텔레비전의
communic
탬
##개성
##동방
##총사
##패션
##mot
끔찍
남기
내구
비를
사대
제반
체르
##는지를
##루수로
##작업을
##주니어
aud
gun
rap
서사시
수도가
썼으며
어깨를
지식과
초까지
트레일
##대학교를
근무하는
윤치호는
포유류의
필하모닉
결성되었다
##mu
엥
##규가
##럭스
##설과
##지동
##태의
곱셈
도장
산정
스스
외동
유씨
인치
자릿
##세기를
##정책과
##질적인
개발과
기능과
명백한
비하면
산하에
왕국과
음반에
저술한
전선을
조합상
중에도
증상을
지대한
펠로폰
필두로
함대의
##연구센터
##chest
##utsch
공간에서
마르세유
삼층석탑
주민센터
확보하고
고려시대의
##계승
##네와
##립의
##먼이
##설의
##전당
##카테
##테일
##'00
##aca
##god
##sil
강타
관상
교동
불균
소를
오면
용문
중상
페인
히가
히스
##건으로
##두더지
##오면서
가사는
까닭에
부대로
생태계
세계대
이후인
장난감
침입을
나타나며
볼셰비키
부분이다
시어머니
야마자키
인정받고
클러스터
##자유한국당
열대저기압
##남북
##이노
##자산
##타도
##bol
##oke
곁에
고압
기를
만을
목에
변속
숙박
요네
정민
케르
##브고로
##포르의
pri
거쳐서
버리는
수필가
장소가
출입문
arms
stat
결국에는
고바야시
상징으로
종사하는
주어졌다
판매하고
연구소에서
지금까지의
천연기념물
쵸
##레노
##사슴
##시사
##주면
##최종
##행렬
듣게
에일
열람
전폭
차르
털어
##가들이
##스타의
##크로스
고려에
국유화
다수가
댈러스
로마자
로타르
마사토
뮤티즌
시장은
위구르
종교를
준비가
파리에
##ments
##ropol
mpeg
거주한다
서비스의
스트레스
암스트롱
영역으로
자신들을
##국제영화제
##동국대학교
국가지원지방도
##력도
##렸기
##캥거
ny
감축
김문
데르
문리
미미
민요
배는
였다
우쓰
좋게
카에
콜론
파드
환관
##idea
pas
달리고
되었기
오늘의
적용할
조용히
총리의
학교로
허드슨
형태와
phys
true
레인저스
생성되는
원칙으로
천문단위
유럽에서는
인도네시아의
##kf
##判書
##구단
##녀로
##디와
##명도
##빈이
##악을
##인상
##피와
##합동
##/0)
gm
기욤
김익
미첼
보로
삶과
속을
신숙
신안
주선
해치
##기간을
##노세키
##사이버
##일부로
##andy
국민이
등에도
사망할
싱글인
어웨이
올라와
왕국에
인질로
지진이
체계가
케로로
파푸아
판매가
합쳐서
고전적인
클럽으로
지원하였다
transl
##cw
꼼
##慶州
##마인
##보급
##청과
##현리
##,''
##cho
##jul
길드
원유
임차
장은
진다
표절
##비우스
##열람실
높였다
달아나
메이드
불분명
선보인
폭넓게
한번에
히트를
##플로리다
##astic
모티브로
##michael
쏠
짚
##내용
##란과
##소서
##신성
##위생
##입자
##집과
##출신
과테
바덴
박선
세단
야수
정희
창씨
##청에서
##!!00
##chin
가늘고
귀여운
나라로
모자이
발행된
부진을
시바타
아내의
안된다
알아차
연결을
이동을
일부에
트럼펫
하려는
##시키려고
논문에서
들어가서
중반부터
지정하여
항공우주
##ws
##경사
##레에
##밤의
##부치
##사당
##처벌
##ali
단층
못말
산인
서열
설리
신재
애매
조계
##스크립
##스턴트
##조참의
##life
##pass
결합을
고쳤다
끝내고
나뉘며
모형을
부르봉
부부는
부족을
비용은
성인이
수컷은
시게루
오르고
이들과
형식이
##겠습니다
##시키거나
##하기에는
들어있는
위키백과
전시되어
아나키스트
참여하였고
프로이센의
0000.0.0
##新羅
##버가
##쓰는
##처음
##충이
##wan
lu
가니
가뭄
강해
경보
구도
김만
넘지
놓는
제가
홍대
##구의회
##냈으며
##mont
"''
hom
가혹한
공기를
김천시
내각이
신문에
열렬한
청량리
필름스
한때는
핵분열
뛰어나다
미식축구
분리하여
시청률을
쓰이기도
이미지가
자랑한다
표시하는
##ildren
루마니아의
부임하였다
아침드라마
##-00000-00-0
텅
##들레
##바둑
##부원
##사위
##이은
##eck
##map
가두
강북
농협
돌이
뛰는
문부
불문
서예
승단
여사
측량
킬러
##나라와
##작전을
##토리코
##gent
0×0
결합한
교리를
기체의
대상은
대우를
등급을
따랐다
머리와
바꿨다
선데이
순위가
쓰이며
양키스
이와테
제품은
조선이
지식이
헬싱키
환경의
##craft
대하여는
명칭이다
보편적인
시리즈가
어시스트
일치하는
재직했다
주축으로
지내다가
허용하는
알렉산드로
뜯
##만약
##총을
##gra
ul
라디
리코
많기
말려
별도
비리
산은
순찰
좌천
쳤다
카툰
##거리에
##관계는
##리어스
##부쿠로
##일자로
##제이다
극적인
레이크
블리자
없는데
영역이
작전이
줄리엣
지점을
코스트
피처링
행위로
후자는
##세기에서
vict
돌아온다
분포하는
서바이벌
saint
매니지먼트
00~000
boeing
и
##락에
##병기
##유적
##텔라
##bye
##iny
ef
gh
기분
낡은
모션
무거
벗겨
벚꽃
빈민
소행
에다
엔트
왕당
용해
우상
장동
키에
폭포
한민
횡령
##됐지만
##라스의
##바니아
sar
남성이
누르면
부부의
스테판
악기를
편의를
함부로
합니다
##세르비아
계획하고
달아났다
전국에서
중시하는
회원으로
##매사추세츠
##estern
##ei
##기억
##더블
##신사
##언의
##화해
반납
백두
초식
학장
혼잡
##rick
##unch
kar
고전적
멤버는
북부와
산업이
언급된
연합국
임의로
주제는
테크놀
파괴된
##great
등록되어
서비스는
제공했다
지도자가
총회에서
해결하는
강조하였다
인터콘티넨
트랜지스터
##-000000
메소포타미아
##교섭
##준혁
##icy
겨냥
길은
당수
대차
동향
변이
스킴
씨를
외모
장단
장승
파문
파파
피스
##호이다
##bell
pie
느낌이
문서의
문장을
보나파
비잔틴
알폰소
에리카
영광을
의심을
카드의
토오루
헌법은
내에서의
발생하지
사용해서
알베르트
일어나게
체결했다
표시한다
휴대전화
코퍼레이션
중앙아메리카
##가서
##검장
##담이
##모터
##소단
##카노
##탄과
##탱크
##평등
##oda
‘0
기공
김신
레몬
모서
목이
미워
발터
소대
앓고
적자
첫날
함선
행한
##르기스
##오거리
##화했다
갖추어
남편과
받으면
삼성전
소련에
쓰여져
압하지
예산을
유대교
일제히
찾아온
kill
몰아내고
바라보는
방정식을
변경되어
전설적인
주둔하고
water
받아들이고
##ée
##검을
##기생
##부아
##회복
낙랑
대도
루나
미완
발포
보정
우물
유서
은평
음주
초점
치우
핵탄
##기간은
가정을
나무가
반하여
송파구
식사를
왕자의
장점을
제천시
지붕은
하루히
개발되어
구성한다
미합중국
부정하는
비판하고
시민들은
여주인공
예로부터
평균자책
후손으로
자리잡았다
만들어졌으며
농림수산식품부
##но
##中樞
##국토
##워진
##터너
##펠러
ga
라벨
모란
벽을
잠을
헤센
##나에서
##작이다
##커뮤니
##행정동
##mond
psp
경복궁
나왔고
배경을
신경을
요금소
전에서
최강의
특성화
표기는
피해는
into
대항하기
육군참모
현상이다
처형되었다
govern
##japanese
##게르
##내각
##러블
##오빠
##해병
든다
악당
안톤
유화
이매
침례
캠벨
흔적
##까지를
##득점을
##르타뉴
##리오카
##방송의
los
만장일
많아서
상대가
셈이다
수록한
학생회
체계적인
프로토스
there
경부고속도로
부에노스아이
플레이오프에
##ка
##ライ
##극이
##도도
##연승
##옆면
##오염
##재능
##alb
나스
딸의
버퍼
어미
유족
저해
주황
쥐고
참배
타니
토로
하려
##도시로
0''
감리교
거두지
고타마
공연은
뒤집어
로베르
보상을
부문을
순위는
역할에
우주를
재판에
주최한
카드는
##페이지를
갑작스런
과정이다
아테네의
영국군은
참여하게
하코다테
알고리즘을
자동적으로
포스트시즌
##외국어대학교
##답을
##립을
##올리
##포구
##ois
cn
강인
거시
격자
교내
쓰네
지청
천상
캐치
틀어
하강
##리그에
##sson
경영학
국가들
보리스
사용은
세운다
임기를
직무를
차트에
크메르
패배로
##video
pers
want
공유하는
모차르트
생산되는
세르게이
월드컵의
받아들이는
성립되었다
소개되었다
family
덱
##대강
##솔로
##치다
##투명
"(
강하
골로
낮게
발송
약을
입당
중신
한의
해수
##전쟁이
경고를
국회에
나서는
다비드
스탠드
여긴다
음식은
인구를
재빨리
필요할
##부작으로
base
fish
노동자의
살해하고
수행하기
조선에서
차지했고
##대책위원회
사람이었다
france
##?'
붉
##골은
##근과
##약의
##여러
##육상
##크루
김응
날인
발광
발자
빠뜨
선인
소연
소작
큐브
픽셀
##하고도
##pect
막강한
복소수
부분일
부인의
부족의
선수상
양국의
영상이
영화인
못했으며
우리들의
이듬해에
전사했다
제한하는
표현했다
합리적인
에스페란토
이용되었다
00:00)
마이크로프로세
安
##결에
##공룡
##난의
##랄라
##리처
##암을
##주석
##짓는
##착륙
##트론
##틴은
##lim
+0
검열
결렬
마티
변성
스커
습윤
윤석
임종
직을
호화
##교육감
##나무는
##시키게
##학교가
##poly
ntv
견해도
공기업
남동부
대회로
더블린
발전된
방면의
방법과
사실과
소련과
시도는
신성한
앞바다
연구한
울트라
철수를
##자리에서
face
감독직을
아니냐는
재판에서
thumb
불가리아의
지명되었다
##wd
##감시
##소문
##수업
##여야
##오픈
##원리
##테가
고우
근사
베컴
슈고
친위
펭귄
##레인지
##바이스
##/00)
##ayer
##core
gsl
소재한
잘못을
전선에
찾는다
한국이
혁명가
회장의
히토미
##바이에른
make
겸임교수
대학교와
무승부를
종목이다
승진하였다
자유민주당
##:00000000
##들러
##상수
##식민
##얼굴
##탈출
##bsd
##cos
fx
알로
윤곽
코토
테헤
황자
##스크린
##long
##sche
공사로
공작의
기여할
나오며
대수적
사업자
야마노
의사의
절대로
제작사
차별을
##했습니다
##ading
구역으로
멤버들이
명확하지
보이는데
인정된다
장관으로
콘텐츠를
보컬리스트
사망하면서
지지하였다
클라이맥스
intern
째
##世界
##누이
##독재
##오브
##읍이
##장소
##함경
##bul
##ido
##rot
구세
굳이
규장
깜짝
료코
미인
분장
사민
섞인
아브
어둡
조차
풀백
흥덕
##노시타
##민들이
##정의당
##plat
관리자
남자와
누렸다
비교할
앨버트
이하로
자료로
프라임
해협을
##가요톱텐
##north
급속도로
북대서양
우주왕복
이후로도
제작하여
귀국하였다
근본적으로
대체적으로
##레즈
##에로
##예보
##현역
군림
나눔
뇌물
범람
사옥
승률
유즈
취역
카고
테베
팔려
홍씨
##것이다
##번째의
##ergy
같았다
경시청
교통이
끝에서
영토에
예부터
후쿠이
form
곳이었다
대중음악
뮤티즌송
정의하는
개시하였다
집중적으로
##림리
##유격
##품과
##휴게
ja
그도
바트
부두
서클
실사
약자
인체
집은
최단
컴포
팔작
헬기
##관계의
##band
bat
cin
mbn
sql
나오키
도지정
마을은
색으로
습격을
연구로
유효한
정착한
지니는
합쳐져
희귀한
##일본서기
세웠으며
스파이더
주최하는
형식이다
상하이에서
(0000~0000
白
##금고
##보레
##으론
격리
농성
대서
더한
반동
보트
아픔
옮겼
추운
탈레
토성
틈타
패퇴
화상
훔쳐
##공격을
##사회에
##생활의
가공의
개념의
건설에
도로는
리그가
설치를
신체의
오가와
임금을
look
감옥에서
규정되어
금지하고
시스템과
에이전트
인간에게
제작하고
판매고를
##ission
오클라호마
캐릭터이다
프로젝트에
최고인민회의
evolution
一
##무쌍
##숭아
##포장
##품에
##피해
##aaa
강습
고개
골라
군자
규합
노량
말소
멜론
면담
베드
선대
얕은
총애
출항
헤지
형편
##개구리
##iple
느리게
다시는
로이드
목록을
미야코
보아야
복귀를
본부는
산에서
세포는
어우러
주민이
##유산으로
나타내기
만들어서
부산에서
완전하게
최고위원
##레디비시의
0.0~0
psych
테러리스트
파견되었다
##000,000
windows
##기야
##중부
##편찬
##nav
결탁
맞닿
방한
본작
작게
장신
지성
##지역은
##홈런을
건설이
결정은
귀족의
문학과
믿음을
발전해
부분과
시키는
알베르
외삼촌
이동이
임기는
친위대
파악할
가입했다
대법원은
들어가지
사회적인
추가하여
패배했다
막시밀리안
북서쪽으로
̊
##곡인
##높은
##명사
##무트
##선발
ts
군위
궤간
그늘
남의
동탄
문이
배영
북벌
비긴
제물
주상
흥분
##카메라
##코스는
##plan
cop
다니고
동위원
몇몇의
별개로
보았을
부임한
시조로
신라에
우승과
인가를
치아키
통제를
트리오
트위터
파블로
##epend
데이터가
로베르토
명단에도
##노르웨이의
##루마니아의
대대적으로
소속기관이다
소프트웨어의
에피소드에서
##감리
##깊은
##밀양
##백가
##보게
##신고
##얼빈
##조례
##춘천
##팅겐
##혈압
##din
미켈
생원
섹스
소마
예종
용량
정윤
착취
폐색
##정도의
##판에는
##폴리탄
공개한
기념비
꼬리는
도망쳐
메디치
사냥을
설계한
시니어
앤드류
자신에
종업원
판소리
표준화
##대원방송
세계대전이
##다큐
##설비
##채가
##채의
##쿠보
##타석
##하동
##화수
##iki
ct
권영
꺼내
네가
성체
아레
장영
정태
책록
하류
##교수로
##부대의
##type
개발은
김정일
미친다
백성을
부사장
일행이
자사의
출간된
페드로
평의회
학문의
힘들어
##night
zone
거부하는
것으로는
경기장을
노력으로
사실이다
아이오와
장편소설
접근하는
정차한다
카스티야
한국은행
women
네트워크의
쑹
##太后
##끝에
##릿지
##십리
##티카
간을
개구
경건
넣을
능숙
베일
장정
증발
질소
한경
##보스턴
##브리어
##한국명
por
가했다
개편에
군사정
남편을
세번째
속하지
수상을
프로페
헌법이
확대를
##으면서도
##케라톱스
feel
공연에서
동치이다
로스앤젤
명예훼손
병원으로
소설이다
속에서도
일부이다
집행유예
함께하는
행정자치
확인하고
활동했던
크리에이티브
culture
sciences
엎
##광무
##모임
##쳤던
##키요
##펠트
##lad
##uda
객실
대문
바투
작화
줄임
코덱
##유대인
도로로
도시형
미토콘
살다가
아라이
원조를
크루즈
판단을
펜티엄
학생들
후보의
bill
chap
word
변경하여
아시리아
여기서는
운영한다
적용하여
조조에게
중단하고
풀려났다
하원의원
학자들이
헬리콥터
오늘날에도
이탈리아와
중심지이다
활동하였고
##iversary
machine
##坐像
##시어
##중은
##키리
##토요
##학동
##syn
가령
권익
로망
명과
문양
북송
불로
소켓
수역
스모
여유
오마
오코
위즈
집현
치킨
포섭
푸스
푸아
피가
##부분을
##사와라
adv
내지는
동료인
사장이
어디에
언어에
오류가
일식은
절친한
조건은
조직과
참가를
현상에
##대학에서
내에서도
미니앨범
사건에서
생산한다
외교통상
출연하는
개명하였다
무엇보다도
제안하였다
지적하였다
한국과학기술
인테르나치오날레
##dy
##겁게
##메디
##정규
##sat
구자
빅터
송광
쌍의
예의
우표
초계
총알
콘도
평형
##데렐라
##머리를
age
김성수
농산물
높이의
동물이
로마는
문헌에
손쉽게
순서를
실리콘
있기에
조정은
##개월만에
##삼국유사
##화에서는
##first
블레이드
서식지는
유사하게
헬레니즘
color
games
가능하도록
##cj
é
##근대
##렌은
##방영
##시행
##아목
##bot
##nat
李氏
걸맞
국산
림프
매슈
벨로
빛깔
서리
서상
어딘
왔고
유위
장경
출제
커져
포천
##수산물
##최우수
##프레이
##회까지
경덕왕
록히드
리베르
먹기도
명단의
미사키
부대에
쇼핑몰
연호를
올렸고
주둔지
중앙로
집안은
켄이치
퍼텐셜
##왕조실록
그리스는
도로구역
박정희의
이조판서
방문하였다
보도되었다
아틀레티코
증명하였다
##!〉
##격의
##년인
##말에
##미오
##술과
##요다
##음성
ae
기권
도나
로쿠
르완
성간
영락
외면
청문
쿄코
편제
한문
항생
##문과에
##예수교
##핀란드
##했기에
괴로워
교수와
나오기
논산시
놀라게
모으고
목사가
부사관
시나노
신약성
없거나
여자는
활동할
##dream
마사유키
스페인과
유라시아
제시하고
참가한다
알렉산데르
지방에서는
commun
벳
##경험
##역할
##총괄
##탈을
##프셔
##∼00
rh
객차
공상
공세
관문
넘은
모건
방호
삭감
왕씨
으뜸
접합
창덕
테일
해지
##국가의
##업무를
##이트의
##주의로
##척탄병
##ifol
##ilis
##serv
jun
기계를
기준은
나오미
나츠미
대장군
바로잡
반대의
부진에
시각을
앙골라
에스컬
연산군
연안의
유스티
전자를
제도로
파일의
##그래미상
##chart
##ronic
뉴멕시코
북쪽에서
성공하여
심각하게
축구선수
peace
대조적으로
알고리즘은
##순환고속도로
0-000-00000-0.
##무에
##분자
##빛의
##설치
##원동
##gor
고승
뒤셀
마돈
서점
이공
작중
정석
천마
호시
##갔으나
##만명을
##일간의
##jpeg
00'
객관적
고개를
기네스
닮았다
런던에
방침을
섬세한
의사표
일었다
지녔다
지위는
폭격기
##브래스카
가로질러
높아졌다
선출되어
이론이다
체제에서
사회민주당
△
뛴
##링이
##모자
##바우
##소형
##악산
##일동
##하얀
##eff
ym
다짐
버락
열도
올레
용수
존엄
토우
##되기에
##분에서
##클레스
감염된
배우기
변경된
숲에서
실력이
용기를
직원이
집어넣
징계를
함경도
허베이
구성되며
브르타뉴
인정되지
총칭이다
시스템이다
자이언츠의
참여했으며
county
##oa
뚝
##년여
##도덕
##신장
##위하
##익은
##팔렌
##elt
##kar
경합
김덕
명곡
소음
수구
스턴
신평
왕건
워즈
자객
증강
하스
혈통
휘트
##나라로
##스태프
##edom
atp
권력이
네바다
들어선
리그컵
모두의
알브레
유럽을
적절히
죽었고
지나고
지원에
직후인
출력을
치른다
포뮬러
다음날인
말하기도
무렵에는
알프레드
three
오세아니아
워크래프트
combin
씬
##국대
##그란
##단백
##바드
##새는
##타라
##파니
##포역
##호흡
##zen
구루
김철
댓글
도자
됐고
명동
몸과
소피
왕후
위축
임베
조시
좀비
지브
청도
칸은
포를
포에
화력
##류이다
##명이며
##억원의
##조약을
##ione
mob
rom
까마귀
동원해
리스본
문자의
영사관
작전의
지명이
클럽이
타율을
탈락한
특성에
함대가
card
full
sept
가까스로
연결하여
이동했다
작품들은
하세가와
이주하였다
청룡영화상
analysis
##ター
##고전
##기초
##도감
##병만
##커우
##틀을
##피어
##한자
##arm
##iod
대강
미러
사네
시우
아그
일과
입에
자켓
진위
파커
호노
히노
관할이
대교구
대전에
방문해
사과를
서명을
성당의
세련된
수학과
안경을
연기한
지시에
테이프
통신을
포르노
roll
고속버스
광장에서
문신이다
아래에는
전문학교
정규앨범
제공되는
추가되어
확보하기
##인도네시아
width
가장자리에
북동쪽으로
비롯되었다
승강장으로
##struction
##바겐
##상식
##준과
##처에
##축산
##투사
##ddr
비지
세울
식용
토쿠
편향
항속
후사
##록대부
##마저도
##메이커
##bund
##eton
0∼0
귀화한
높으며
단위의
대표이
도입을
못하며
사진은
세대의
예술적
클럽을
coll
main
기독교를
당초에는
물리적인
음악으로
전국적인
##광주광역시
##iaceae
조선인민군
모스크바에서
##én
##」「
##百濟
##급식
##기소
##내로
##링거
##미리
##애의
##직과
##찬의
##케는
##팀장
귀인
낙점
단면
마신
물가
싶지
운하
지에
천궁
##글로벌
##정책에
##행위가
김종필
깨끗한
논의를
사소한
산이다
업로드
오리건
이민을
인재를
진행한
컨설팅
##면사무소
##일리노이
##협동조합
##istic
국가이다
들어갔고
센티미터
스리랑카
스카이라
클라리넷
한국어로
0.00,
가입하였다
금환일식은
일렉트로닉
출생하였다
##계통
##구축
##모하
##백년
##수행
##슐리
##알렉
##잔디
##정차
##쿠의
##bre
기피
미적
바쳐
버클
상층
임성
종래
증원
##로에서
##운동과
##ache
거래를
미요시
발달해
사이는
사할린
선에서
악마의
액티브
왕세자
평택시
프레드
##atory
need
take
받아들인
유벤투스
펠로폰네
네덜란드는
##육군보병학교
##upright
멤
펩
##국악
##릇을
##법학
##안양
##출입
##치노
##00》
검을
면직
명제
미오
볼륨
슬퍼
양념
영위
이황
출격
터빈
파장
폴라
##국민당
그랜트
기구를
높이고
도와주
리그인
부당한
신부가
압력이
양산시
오가는
유일의
적용한
진화의
타원형
통합된
팔레르
패트리
페어리
히로키
노력하고
보였으나
선택하는
성리학자
영국군의
영유권을
저널리스트
##제일고등학교
security
##관한
##노비
##누아
##막에
##맨이
##벌리
##절제
##타키
##():
##aly
낳고
담양
마구
민원
박주
베를
생김
신발
음이
졌다
펜타
한라
##과학과
##왔다고
##last
jam
mic
공항을
기본적
사상과
선수인
인구밀
##기갑사단
국가안전
시직경이
제공된다
진출하게
참석했다
00·00
건국대학교
국내에서는
대표적이다
만들어내는
베를린에서
인정하였다
##니혼
##란타
##명씩
##여지
##재료
##점도
##dam
##mur
걸스
고층
국화
귀를
면에
미아
벵골
우의
윈터
##리아와
##주자사
##ader
건립된
경제가
달성군
대륙에
리그는
베테랑
사진집
승용차
신문사
초록색
##이었다가
게스트로
대학교로
사이트를
이것들은
이용되는
##교육대학교
근무하였다
프로그램과
필요하다는
memory
플레이오프에서
##ez
##일명
##장학
##철을
##퀴즈
##nic
거병
구강
굶주
밤을
본능
소중
수류
신명
잔인
종파
중고
집사
출사
테니
##리거나
##생물학
##beat
거치지
걸었다
규정은
기후는
남자를
내려온
동아리
마찰을
무기는
무장한
비서관
사상가
사하라
서기관
쓰러져
인류가
정했다
주세페
칠레의
코이치
통과할
파생된
패러다
하지메
흔적을
##스튜디오
##cular
개인정보
이주했다
장착되어
출연하며
평가하는
정치가이다
##lection
00~00%
sports
언더그라운드
##나며
##상한
##제리
##천에
곤살
불합
세탁
아워
압수
여긴
유독
이아
지게
##하이머
##ando
가수가
구실을
도자기
모조리
복무를
삽입곡
싸움이
액세스
양자역
오슬로
옮기고
윔블던
유전적
이적을
전년도
프랑코
##board
##count
00),
acid
here
가르치고
거절하고
구분하여
나오는데
정규시즌
한가운데
their
웨스트민스터
##rn
##속이
##영원
##움은
##유진
##점프
##혼을
##화동
##ecd
가온
곡에
국수
다방
뚜껑
시판
어쨌
좋을
텍사
##가지를
##갔다가
##고려의
##들이나
가담한
경제에
그들과
나주시
내려다
더하여
뒤부터
분류할
신기록
오우치
오일러
유카리
주교가
취했다
오카모토
오토바이
오프라인
취득했다
louis
tower
##펜실베이니아
##0000000
encyclop
캣
##자면
##장갑
##줄을
##oko
관립
군마
논설
레미
머릿
먹은
수급
저우
죽지
처해
크릭
톰슨
##네이터
##발전에
##심리학
##자료를
##회사에
cas
노리고
레스터
모여서
못하자
미즈노
볼프강
사고는
서구의
송시열
시켰다
아이누
입는다
전술을
표현된
프리즘
학문에
##교육지원
##적이었던
##grand
구성하여
구조이다
달성하기
마리아는
서대문구
선제골을
참여한다
카메라를
활동한다
magic
money
##공립국민학교
부분일식으로
council
##って
##スト
##극단
##드루
##우먼
##쿠데
##평이
##rus
가선
교제
뇌의
레퍼
소탕
쓰던
안개
역학
엿볼
오도
육박
중후
짧아
총격
향신
##부대가
##십시오
##이라서
##ours
개념에
꾸준한
메이어
무차별
보유자
선택을
아줌마
재학생
제기한
제품이
##리우스의
##스페이스
##요미우리
거짓말을
공화국과
나카지마
능력으로
드레스덴
스트리밍
제기되고
출전하는
파괴하는
royal
노부나가의
뉴질랜드의
사용자에게
크리스티나
function
##0/
헝
##太祖
##부전
##시지
##율과
건널
노골
다비
대광
박병
수서
승자
시성
예견
외과
육식
이구
지체
천지
학업
##문제에
##적십자
##tran
bul
ten
가문에
가정의
과학과
관계의
금강산
기호는
다이에
도구로
브리스
잡지에
주연의
출발한
포격을
표트르
활동가
##주머니쥐
국토해양
서울지방
위원장을
평가되고
항공기의
##한양대학교
##00,000
0000;
prote
이듬해에는
##tu
훙
##뚱한
##라오
##순을
##암사
##여년
##적일
##절도
##촉진
##.0(
##cla
결사
괴도
내면
띠며
멜라
성형
한참
##왕에게
raw
구약성
모습에
발전의
사회당
수사관
예문관
유적이
호감을
##스테이지
##istry
##ledge
가나자와
구별된다
베르사유
병사들을
보내졌다
신화에서
준비하고
어워드에서
profess
밍
##공급
##노예
##데를
##리마
##마블
##망원
##발레
##배구
##샤를
##역인
##유물
##텔로
##해운
ci
mu
김남
니콘
배리
쌍대
여대
추봉
편도
##버스로
##사운드
##이드의
##입구역
##차이즈
##플레잉
''"
가시광
개찰구
결국은
결합된
대법관
멸망한
분명한
수번뇌
시멘트
입구에
저지대
주인이
진단을
찾았다
체코의
출연자
한마디
확장팩
##사회에서
##타이완의
##thers
chem
삼성화재
수준이다
주도하는
중심지가
태풍정보
해전에서
##mx
西
##ット
##교인
##반과
##식당
##어느
##왕릉
##지라
##큐브
##bet
골은
대야
서류
세그
속씨
수은
이안
절을
커먼
포켓
합산
##남으로
##사쿠라
##이상의
기관지
노르트
노선과
대책을
대타로
데일리
업무는
열매를
올라온
제프리
집권한
클레오
토요타
fant
경쟁에서
소재지는
파악하고
##ла
г
##각에
##기즈
##남은
##영사
##픽셀
교대
남반
발상
방을
법과
부는
사돈
스택
이보
잇따
좁아
창사
치열
##국이다
##레이스
##alex
##lete
mam
걸렸다
둥지를
무릎을
반지름
버스가
소재를
스네이
에리코
이익이
지명은
호시노
혼란이
##경상남도
##터너티브
곳이기도
구분한다
유클리드
정당이다
조직하고
행성이다
표현하였다
##공예
##법적
##수성
##신화
##양리
##준호
##책은
구는
남이
도농
동면
마늘
매드
산탄
양손
원화
타겟
티저
하구
##법원은
##이슬람
aff
개통에
광역시
교사가
구조적
남부와
맡겼다
바실리
사나다
성분이
시위에
신부는
앵글로
외부에
자식을
전류가
전통에
조카인
지하에
캐스트
홋카이
##법에서는
conf
wild
내부에는
떨어지고
반발하여
생물학자
월드컵을
유지한다
인사들이
쿠데타로
팔레스타
##투아니아의
idolm
경영대학원
선거구에서
작품으로는
조선시대에
*******
##.;
##말이
##복과
곳도
러닝
물자
박민
법규
상한
숨은
쓰루
요셉
유관
전태
제지
피니
##에까지
##gold
##wang
las
sig
공군은
관점을
국내선
글리제
다카라
모임을
받았을
싶다고
종이다
지대에
클럽인
해군에
##물리학자
묘사된다
사용되기
상응하는
스탈린은
일으켰고
패배하고
라이베리아
반공주의자
사망하였고
살해당했다
애니메이션을
둠
뚱
##도쿠
##상무
##속은
##주차
ib
간판
개점
과제
뒤따
미로
분개
상계
소홀
않던
인솔
푸젠
##구청장
##들이는
##받기도
##city
간행된
김구는
노르만
뉴욕에
다리의
렌더링
방법의
법률의
사례로
사보이
안테나
열차로
자살한
쟈니즈
정당은
춘천시
친분이
특별법
next
두드러진
보궐선거
비판적인
자메이카
한국프로
회전하는
방글라데시
아우구스트
anniversary
##!”
땀
##난에
##누키
##담은
##시트
##폭격
##현감
##''0
##oon
고노
글씨
맺게
사산
삼한
에나
자르
코넬
혈관
##경제학
##누스가
bmw
계약에
군단의
군에서
기자로
다음달
돗토리
마시는
명성이
분노한
브라이
산맥을
실질적
안데스
예비군
일행을
재무부
정책과
철도로
케이크
한정된
확정된
##조사에서
cons
곳곳에서
이루어질
전해졌다
지원으로
집단으로
##분데스리가
사용자들이
홈구장으로
berlin
document
##난이
##너지
##년형
##늑대
##디를
##인자
##종인
##해결
##bir
대타
덕흥
비참
비하
상가
스칼
억류
엠블
윙어
장차
저가
한니
한지
##슈타트
##스타운
##슬레이
##정책의
##훈련을
##from
##ript
(0,
곡들을
기슭에
남동쪽
디에고
방식과
뽑혔다
양쪽에
조조의
좀처럼
하얀색
히데키
phot
게오르기
그레고리
그레이스
나타나기
묘사되어
방송하고
선출하는
유지되고
적용되어
준우승에
챔피언쉽
보통역으로
인물이었다
소프트웨어는
##곳에
##양동
##이토
##현정
가군
김전
단사
대용
마애
봤다
부관
스펙
오치
유실
재가
정여
줄이
헬렌
형님
##데스는
##제도는
##호선을
-00
sse
ton
다저스
독수리
몇가지
물었다
배경은
신정부
오미야
원자가
타이어
향하고
힌두교
##other
step
박테리아
아키모토
언급하고
이야기로
짐바브웨
표시된다
본질적으로
사령관으로
석방되었다
자연스러운
추증되었다
예정이었지만
##각본
##보성
##스톱
##푸드
구비
머니
믹스
박격
법상
북반
셀주
위태
조나
침착
퇴계
한수
##리아를
##조차도
mom
sor
동물로
문학적
부진한
분야로
손바닥
아니기
애플의
없애고
이념을
재능이
출판한
타입의
토지의
형태에
##annel
##icago
공공기관
병사들은
음반으로
마련하였다
발표하였고
엔터테인먼트의
##dd
##누계
##니히
##카제
##환과
##abc
##low
거인
결장
르노
백조
어스
옐로
지날
출정
친히
탈옥
탈피
홀리
##덕여왕
##도마뱀
##판타지
##회의의
결정한
경계가
계기를
고종은
고종이
군산시
꽃받침
나가지
동급생
법칙에
부산진
분야는
불과한
신들의
예수를
완주군
토크쇼
튀니지
하모니
##∼0000
0/00
고문으로
방문했다
선호하는
조성되어
지원하며
##리투아니아
##ension
그리스어로
edward
00-000-0000-0
##보아
##부도
##블라
##카도
##포인
##oom
##rum
xx
때로
라자
민자
수력
운임
원에
자명
조던
탑신
하층
##기능을
##바이오
##선이다
##순으로
##스타상
##케이스
##하세요
군주가
기리는
나눈다
독일로
드러난
마피아
부처의
선물로
세컨드
승정원
아르테
안쪽에
오르지
자원이
친구의
콘라트
팀이다
하루나
불렀으며
브루클린
표현으로
행해졌다
##경희대학교
안장되었다
월드시리즈
사용하였으며
애니메이션이다
##승리
##오밍
##타노
##iso
##lee
##lov
gp
ow
느슨
시해
약학
업계
왜성
초중
침대
플뢰
흡연
##투표를
##트리플
##mill
##this
lte
갖추게
데다가
바뀌고
법원에
베이컨
보컬을
어렵고
업무에
없다며
장례식
장소는
프로방
환자가
##시킨다는
##space
기술적인
데뷔하여
도쿠시마
상황이다
중앙집권
폭발적인
##차전에서는
유지되었다
교육과학기술부
##ел
##ни
벙
##강사
##근로
##레르
##려야
##볼로
##상승
##아빠
##양자
##칙을
##카자
##톤급
##핑크
##wal
ai
갔고
내성
만수
불쾌
술에
왔을
잊혀
장조
접어
착안
최순
최전
추후
학년
현수
##고려사
##리스의
##매니아
##세자의
##이스트
가문과
결정적
그곳의
내었다
논리적
번호가
브루크
사례는
수명이
양성을
엔진과
예수회
우수교
있다며
재외공
좌우로
지포스
팬클럽
하나도
##센터에서
개최하고
드라마를
멤버들은
받아들일
불렸으며
사람이나
임명하여
정해졌다
지시했다
코미디언
맞이하였다
분류하기도
bridge
마르크스주의
##님은
##인해
##투라
##.(0
경관
글래
미망
생포
엄정
제철
코모
태수
환산
후추
##경보다
##들였다
##총독부
##heim
ytn
늘어난
단위는
무너져
발발한
아산시
저조한
천체가
필립스
##파키스탄
##-000,
##radio
hero
동성결혼
디자인의
발각되어
선택하여
수여하는
일어났고
있었음을
줄기세포
착공하여
broad
study
오른쪽으로
文
##균은
##균의
##급행
##미시
##송을
##암과
##키오
pv
딸은
망가
수완
왕릉
은상
진성
찾은
파룬
펌프
헤아
##더불어
##자에서
교체로
날개가
독일계
북한은
에이즈
울주군
육군은
##노르웨이
##덴마크의
개발도상
남부에서
레인보우
소녀시대
아이들은
한국독립
simon
depart
쐐
##관일
##날이
##분투
##사범
##시니
##치젠
##통화
##히며
##aea
##dem
##sin
광동
납작
너의
동복
비의
아칸
정과
카리
키요
키우
파격
판본
폭은
해와
휴먼
##리스를
knn
개정된
계산할
바깥쪽
손자인
신학교
예산군
예전의
일제에
전설을
전조선
제목이
주권을
중세의
초이스
한자로
현실에
회의가
##inary
##print
강조하고
개설되어
개최했다
맞이했다
문하에서
보고했다
불필요한
에든버러
요시타카
패배하였다
##ulation
참여하였으며
룽
##平章
##광산
##녹음
##도면
##메네
##봉산
##삼아
##설로
##좌파
##헌의
##ucn
만이
먹어
모세
몰타
설화
섬세
소관
아모
장지
중사
차오
카다
카슈
팀내
##데스크
##모스크
##왔지만
##청년회
low
건강을
건설한
걸그룹
대비해
무게가
민족이
버스터
비판도
상반기
시즈카
연맹의
연습을
원했다
입각한
잭슨은
전사한
채택한
특허를
회담을
nbgi
stop
공급하는
기다리는
독립하여
만족하는
묘사하고
생명체가
세상에서
승부차기
여성들이
직전까지
##orning
남동쪽으로
세르비아의
스트라이크
실시간으로
프랑스군의
##유고슬라비아
computer
쿵
##侍郞
##데의
##분쟁
##불은
##중독
##처로
##초기
##충을
##혈액
##호프
##iae
##yer
0;
끼워
녀석
방안
서영
수주
에코
토양
통찰
##난으로
##시네마
##일만에
##치기도
see
그림의
기업을
달러로
랴오닝
마련해
물질로
북서쪽
수용소
스피어
시대와
옮기는
입후보
재편성
학업을
골든이글
드라마에
시아버지
유일하다
이끌었고
클럽이다
평양에서
행정부의
##......
시리즈이다
이르러서는
이전까지는
출전하였고
이루어졌으며
##ashington
애니메이션에서는
짠
##국내
##넌트
##노아
##니트
##다마
##모래
##블러
##에드
##요이
##우즈
##율에
##희망
##0),
##fta
##obe
간도
권의
브람
음양
저수
짧다
최동
함을
호로
힘과
##가요제
##공사를
##단계로
##더니즘
##마트라
##스프링
##완전한
##왔는데
##이스터
##했을때
##bour
##ress
##rict
##show
가사가
기술자
기하여
나치의
담배를
법조인
쇼치쿠
압록강
위협이
일종인
입출력
화살을
##iidae
##isode
경영대학
대응하기
소프라노
아사쿠라
오르기도
임베디드
자동변속
탄자니아
베이시스트
통과시켰다
##에레디비시의
##general
method
academy
stadium
샷
##관왕
##동사
##바꿈
##상주
##kim
ia
고영
광대
다윗
떠돌
민물
반민
번개
신현
쓰며
우마
질의
타라
팀장
##구사론
##을수록
##mnet
개교식
긴밀한
날아가
동맹의
무안군
설치해
수백만
실험에
재방송
정조의
제시카
페가수
##거리에서
##lease
계속되어
곳에서는
그리스와
망원경을
발달되어
부르주아
얻었으며
친구이자
남서쪽으로
유러피언컵
제기하였다
forever
##md
##디안
##루시
##만도
##음료
##조개
##호인
##fil
나혜
남도
내비
달인
묻자
백부
보어
본편
분쇄
생리
있겠
잡힌
재검
제비
제식
충정
퍼뜨
호엔
호전
휠체
##관찰사
##속도가
##우루과
##즐랜드
가로막
계급의
관찰사
내각을
단어로
돼지고
떠나고
마련한
막았다
무정부
문학을
밴드가
분류는
인원은
입장이
조직한
##포르티보
방송되고
아버지로
적합하지
혁신적인
0.0%,
코트디부아르
##남을
##대만
##더릭
##만세
##무와
##백은
##원지
##집론
*〈
군청
남는
마태
모에
미안
안락
에뮬
연일
옵티
완비
일면
임해
잎자
테너
해는
해머
후카
##니다드
##쿠레슈
고려해
내에는
디스코
리조트
사무관
스타트
아내는
운항을
자라고
정부인
줄기는
출범한
##적이거나
jean
중심부에
출생으로
태어났고
표현된다
한국예술
활약했던
이론적으로
전사하였다
사회과학대학
building
쥘
##키즈
##토라
국부
기린
답을
대고
로젠
리모
백남
북면
사미
실록
안방
유폐
치아
크지
타다
활을
##라스노
##르바초
##정에서
##코비치
##호에서
남편인
다카시
대왕의
붙이고
생제르
알리기
예비역
온화한
이유에
입단한
적으로
지상에
진행할
케이지
확인한
사라지게
임명하고
장면에서
정신적인
경상남도의
사용되었던
컴퓨터에서
spirit
wonder
##과와
##전통
##조원
##gif
##uma
->
공조
까다
대면
디펜
박규
반군
본교
승선
시제
염화
영수
용두
이두
인자
작위
조에
중첩
체첸
첼로
학창
##紳
##璜
##琪
##榜
##杰
##奕
##卦
##ლ
##म
##ذ
##옘
##륌
##麒
##閱
##跳
##覧
##蓬
##筋
##稠
##硬
##琛
##潔
##巧
##尖
##ぴ
##ễ
##욥
##鞠
##膜
##紺
##斉
##怠
##巾
##塩
##ᅩ
##ș
##0
##쾡
##竇
##療
##爀
##每
##楷
##晏
##據
##崩
##勲
##✻
##‰
##ิ
##̋
##蝶
##经
##緒
##箱
##瑾
##牡
##沔
##汚
##曦
##巢
##ả
##ย
##া
##햘
##넸
##飮
##飡
##詹
##藻
##糖
##祜
##楞
##拾
##惇
##幣
##崗
##寸
##乌
##⋅
##∈
##驅
##隸
##賁
##謠
##誘
##託
##蠶
##脣
##繡
##綺
##祇
##璘
##璃
##牒
##曙
##到
##倂
##‡
##қ
##웽
##쇳
##陝
##鎖
##胸
##畢
##璧
##液
##増
##ב
##퓸
##뺐
##鱗
##苻
##疇
##沮
##椒
##暦
##塑
##仮
##业
##♭
##ǒ
##퍄
##빳
##麤
##霖
##鄴
##辻
##裂
##竟
##確
##璟
##沂
##柯
##扇
##写
##兢
##临
##켁
##젋
##빕
##鞍
##醉
##遙
##転
##赵
##螺
##舎
##窩
##珥
##澗
##崙
##亦
##ŋ
##ĝ
##퉈
##잴
##깰
##雕
##謁
##誓
##莘
##舉
##臧
##胄
##縱
##礼
##泊
##椿
##撃
##廬
##쌩
##샅
##閉
##线
##稙
##歴
##嵩
##堪
##坑
##叱
##ի
##쫑
##쑈
##뵙
##顕
##針
##盈
##皓
##猪
##燧
##瀋
##无
##敷
##恚
##弱
##僚
##잤
##闕
##轍
##艾
##秩
##濁
##漸
##楓
##数
##慳
##嵌
##峡
##仔
##ส
##ص
##땋
##詠
##覚
##竺
##窮
##猶
##汶
##嫉
##न
##§
##뭍
##뗄
##頃
##霍
##观
##沛
##恂
##尤
##ぞ
##避
##貿
##褒
##腸
##紗
##寮
##声
##团
##叉
##卵
##値
##ɪ
##ő
##뒬
##韶
##闇
##邸
##璽
##瀛
##尸
##圍
##債
##ヌ
##ぜ
##↓
##솁
##肩
##聰
##聃
##祁
##燃
##滉
##昕
##弗
##嵐
##否
##危
##勸
##互
##义
##ั
##ـ
##꾹
##皐
##札
##悳
##恐
##婢
##埈
##ị
##雁
##鎰
##軛
##翟
##盆
##獲
##点
##櫓
##採
##劃
##児
##争
##ᄐ
##غ
##뻬
##鴨
##頤
##辯
##衿
##菱
##臥
##笛
##樑
##柄
##暉
##塞
##個
##ɛ
##œ
##묽
##넹
##陜
##諺
##菅
##績
##峙
##凌
##횬
##쬐
##쉔
##뉨
##閻
##踏
##票
##瑩
##曼
##屠
##妓
##奮
##垈
##咲
##凶
##丕
##ぽ
##づ
##ᄑ
##ψ
##û
##틋
##깽
##讚
##誤
##茅
##羌
##痛
##爐
##汀
##梓
##忿
##坦
##凱
##霧
##軾
##肇
##汪
##污
##斥
##圃
##勃
##兰
##0
##쳄
##짰
##耀
##競
##祉
##畠
##狄
##熾
##煙
##減
##栄
##杭
##擬
##怒
##ئ
##ל
##섐
##霊
##辦
##詮
##胜
##穂
##畏
##甸
##暎
##悪
##鋼
##訣
##玖
##杞
##垢
##რ
##อ
##씁
##뜀
##鑛
##菌
##翠
##禄
##炫
##歡
##憶
##循
##岑
##壞
##墩
##凝
##▶
##‏
##เ
##达
##輯
##溶
##湜
##斜
##掉
##寵
##ᄎ
##잽
##鈞
##遵
##瓚
##猿
##晃
##峻
##妹
##埠
##借
##ʿ
##텼
##静
##賤
##蘆
##纂
##稲
##疾
##灰
##棋
##曇
##捕
##拘
##刹
##兮
##ṣ
##隅
##趾
##貝
##装
##篤
##溟
##朋
##ᅡ
##遣
##遜
##篆
##看
##湛
##帽
##劑
##ĉ
##톳
##飾
##薄
##脩
##竜
##禾
##磐
##溥
##従
##廊
##叢
##ก
##챗
##냘
##盜
##拔
##왑
##왐
##얍
##갉
##瑶
##歐
##屛
##唄
##哥
##쎈
##鵬
##閤
##諱
##皆
##畜
##恨
##割
##冶
##与
##خ
##죤
##끽
##괵
##誕
##続
##狗
##漫
##渤
##栢
##杓
##„
##ს
##ե
##밉
##預
##銓
##適
##满
##温
##檜
##棟
##掛
##冕
##ม
##ŭ
##튈
##쪄
##뎐
##鳩
##驗
##车
##慰
##惛
##幾
##א
##T
##쿈
##駒
##璿
##琦
##旧
##厭
##倒
##ぃ
##✴
##솽
##갛
##邵
##礪
##狼
##渭
##斤
##懸
##妖
##哉
##串
##訟
##晟
##応
##幢
##帳
##훠
##껫
##閭
##郊
##视
##粹
##猫
##爆
##屈
##寇
##ệ
##ḥ
##ง
##ո
##팠
##툇
##뻤
##떳
##週
##観
##裴
##欣
##戎
##床
##ぬ
##ą
##뗏
##꼿
##鄒
##潛
##奧
##刘
##ざ
##[
##綿
##濱
##滋
##沒
##树
##架
##壓
##텨
##鑄
##逢
##綜
##継
##稽
##灘
##樊
##斎
##又
##ゼ
##쳉
##쫄
##늉
##諍
##綬
##瑛
##滩
##涉
##恪
##勉
##冲
##≤
##ạ
##ώ
##뎠
##響
##險
##遮
##譚
##糧
##灌
##澈
##弥
##쩨
##뷴
##닻
##髮
##铁
##圈
##似
##ط
##]
##0
##陈
##絃
##燁
##旦
##揆
##壺
##◆
##ż
##젭
##뻑
##繁
##熹
##游
##渓
##弁
##廻
##予
##ぱ
##ἀ
##ậ
##邕
##瓊
##招
##宁
##쟌
##쁠
##辺
##睡
##忌
##低
##펍
##뵐
##눙
##鐸
##裏
##罗
##窟
##猛
##独
##晦
##売
##図
##伎
##ِ
##샥
##겅
##襲
##綏
##測
##此
##寄
##什
##챘
##꿍
##零
##詔
##覇
##練
##済
##夕
##ầ
##ө
##﻿
##푈
##隣
##陟
##団
##偏
##馨
##璋
##昆
##徹
##冀
##苏
##獅
##姑
##吐
##햅
##맣
##눴
##频
##筒
##沿
##怡
##巻
##ṭ
##뗀
##渠
##歩
##樣
##楠
##免
##伺
##་
##õ
##龐
##蜜
##脚
##対
##卽
##ე
##쫒
##돤
##郵
##買
##筑
##当
##凰
##ה
##ė
##믐
##肥
##耽
##琉
##强
##嶽
##妄
##呪
##僖
##땔
##衝
##祈
##烽
##寿
##偉
##ն
##셍
##귓
##蔭
##杏
##揮
##愧
##्
##訥
##緯
##索
##铺
##蛇
##眉
##涼
##斬
##挺
##嫁
##乞
##韋
##祗
##炭
##洗
##僞
##傷
##亀
##콸
##뺑
##鉢
##膺
##筵
##宴
##券
##¡
##냑
##頌
##軸
##快
##숟
##費
##複
##核
##杖
##效
##慮
##彫
##凤
##ヘ
##껄
##駕
##穴
##悼
##諭
##燒
##曰
##参
##卜
##付
##쏭
##銃
##違
##絵
##浙
##旺
##旋
##戀
##勅
##円
##ى
##ǎ
##霞
##雀
##阜
##狂
##混
##拜
##憂
##悌
##彬
##垂
##ר
##힛
##쥴
##숑
##빤
##닳
##顧
##頓
##豐
##認
##芸
##瑜
##投
##凡
##்
##넜
##甁
##燦
##昔
##彈
##婚
##喬
##伸
##쿱
##絲
##礙
##甄
##抱
##塵
##ր
##þ
##팹
##챤
##酸
##湘
##様
##排
##慚
##ј
##ę
##W
##븀
##網
##琳
##ế
##뷜
##뵤
##긱
##郁
##謨
##虹
##租
##曜
##塾
##ᄒ
##ו
##箭
##冥
##ү
##ζ
##졀
##馮
##賣
##謀
##衙
##萱
##押
##怪
##尔
##र
##씰
##羲
##禦
##电
##換
##嫡
##亜
##น
##윷
##뺄
##急
##젱
##앴
##迪
##苑
##胞
##濃
##槐
##柏
##吹
##ヶ
##権
##庾
##側
##録
##被
##獸
##浅
##幀
##変
##丰
##ゅ
##ᄌ
##뎁
##蒼
##画
##按
##剌
##쏙
##겜
##舒
##肖
##緖
##満
##暗
##悅
##섣
##采
##詳
##穀
##奥
##倍
##乱
##ξ
##荀
##充
##仰
##ᅵ
##셧
##討
##整
##態
##悔
##卒
##党
##訴
##耕
##婁
##げ
##抄
##亡
##헉
##뉠
##聚
##涙
##幽
##堀
##랸
##遇
##胎
##幼
##崖
##負
##謹
##菴
##粉
##援
##探
##扈
##奭
##َ
##ř
##짬
##額
##阮
##禍
##瞻
##曉
##寛
##园
##乳
##ा
##폿
##탉
##옻
##벰
##犯
##殊
##往
##兆
##企
##除
##旌
##ː
##閑
##抗
##ğ
##辨
##翔
##災
##柔
##윕
##뭘
##뚤
##鹽
##盡
##沃
##冷
##탸
##숴
##珪
##渾
##沼
##戚
##姚
##蟲
##红
##突
##푀
##갬
##隋
##昊
##垣
##щ
##迷
##涅
##損
##只
##↑
##鄧
##薰
##擇
##已
##뎬
##溝
##戌
##ә
##忽
##彼
##岗
##욧
##笠
##幻
##굼
##遷
##墳
##堯
##函
##ぼ
##ᄇ
##ï
##莫
##朔
##昧
##註
##訪
##價
##供
##®
##鎌
##楼
##含
##갭
##賦
##覽
##淡
##桑
##卑
##儉
##ォ
##흄
##뻣
##駅
##荊
##総
##稿
##攻
##ᄏ
##ز
##켤
##귈
##犬
##槃
##呼
##及
##튤
##탯
##耆
##為
##悟
##펨
##癸
##席
##伴
##놋
##駐
##説
##晶
##息
##ᄉ
##ი
##荒
##忘
##鏞
##瓦
##敍
##尺
##輿
##荷
##待
##♂
##蒲
##纏
##築
##擊
##场
##消
##橫
##束
##庸
##你
##ヨ
##휜
##♡
##켠
##츤
##넙
##迎
##祀
##漆
##彝
##係
##ń
##趣
##研
##괭
##答
##発
##炯
##泗
##沟
##沖
##幡
##各
##ぎ
##遂
##蔚
##浜
##橘
##折
##י
##爵
##ユ
##줏
##궂
##賴
##蔣
##更
##⟪
##왠
##鷄
##萊
##帖
##⟫
##잰
##豪
##营
##范
##梧
##便
##짊
##볜
##댔
##藍
##丑
##横
##庙
##召
##¬
##算
##ˈ
##쌌
##꿋
##軌
##虞
##蕃
##冊
##뀜
##退
##停
##鷹
##燈
##浚
##汗
##媛
##匠
##余
##着
##愍
##찹
##齒
##飯
##傑
##볏
##彰
##勿
##億
##أ
##牌
##坤
##♥
##ᄆ
##얗
##蹟
##打
##ك
##示
##べ
##ò
##0
##앎
##輕
##毒
##꿩
##走
##湯
##杨
##韻
##张
##乐
##む
##貨
##就
##핥
##좇
##묄
##腹
##例
##輸
##寨
##枝
##收
##魂
##鬪
##跡
##戴
##头
##丈
##附
##砲
##短
##畿
##寒
##ᅳ
##쭤
##鍊
##氷
##ơ
##댜
##綾
##給
##낵
##阪
##航
##熟
##꼰
##賈
##恵
##ش
##ù
##춥
##遍
##裁
##祝
##救
##体
##ホ
##ご
##駿
##請
##括
##戊
##巳
##佑
##­
##稱
##占
##仕
##ё
##脈
##婦
##门
##融
##宙
##넝
##牟
##彭
##堡
##創
##쳇
##잿
##雍
##跋
##禎
##材
##接
##宏
##빴
##艦
##案
##陣
##諡
##裝
##瀬
##ē
##漁
##哈
##酉
##矢
##率
##桜
##尚
##去
##놨
##歲
##培
##뜩
##葬
##拉
##堤
##헷
##숱
##뷸
##巫
##其
##첵
##標
##升
##ぶ
##ύ
##컹
##蕭
##暴
##播
##帥
##喆
##ა
##ъ
##힝
##웡
##菜
##菊
##尋
##ぐ
##徵
##撫
##仇
##鄉
##岭
##綠
##砂
##텃
##썽
##땜
##默
##쟝
##长
##逆
##賊
##課
##衍
##婆
##喪
##黎
##早
##撰
##숯
##項
##審
##ق
##ف
##헹
##놔
##還
##般
##坝
##包
##蜀
##笑
##履
##ة
##쌔
##뤽
##油
##朗
##亥
##햐
##닙
##査
##챕
##눗
##넋
##頂
##縛
##桐
##攝
##乃
##ᄃ
##า
##홑
##鼻
##捨
##底
##广
##ᄋ
##濬
##柴
##텁
##뽐
##껌
##号
##篇
##敵
##妻
##卯
##云
##ゴ
##々
##£
##赫
##班
##拳
##ゲ
##ج
##밌
##讓
##肉
##寂
##헵
##덫
##悲
##ư
##稷
##淮
##必
##쩡
##牙
##澄
##湾
##旭
##稅
##番
##峯
##壯
##炎
##ザ
##ร
##랗
##郷
##薛
##差
##듦
##雷
##辭
##▲
##拓
##伐
##貫
##숄
##鎔
##讀
##経
##튿
##錢
##晴
##뢴
##爭
##導
##伝
##î
##配
##舟
##ی
##而
##症
##ヴ
##녘
##愚
##塚
##潘
##ᄂ
##黒
##歷
##幕
##び
##튕
##깼
##驪
##碧
##微
##华
##享
##杉
##ě
##찼
##맙
##됭
##移
##戱
##卓
##傅
##ᄅ
##ա
##뎃
##置
##睦
##強
##豆
##談
##脫
##幹
##륄
##符
##破
##唯
##気
##映
##鴻
##豫
##ح
##짤
##옙
##邱
##岸
##ポ
##폄
##춧
##ほ
##賞
##貢
##苗
##步
##構
##⇒
##듄
##磁
##唱
##H
##휼
##똘
##윳
##숏
##與
##揚
##授
##候
##젼
##箕
##壬
##双
##关
##ペ
##降
##蔵
##庚
##孤
##긁
##片
##模
##墨
##勤
##頼
##賓
##血
##紋
##梨
##決
##広
##깬
##哀
##ή
##楽
##ヒ
##展
##伽
##ć
##絶
##浮
##嗣
##芝
##냇
##齡
##沢
##繫
##潮
##廢
##ギ
##줍
##쇤
##鉄
##謝
##羊
##χ
##륀
##鼓
##卞
##董
##舌
##栗
##M
##쏴
##彩
##弓
##将
##釜
##覆
##紹
##禧
##檀
##ś
##솝
##障
##當
##引
##ì
##빡
##級
##俱
##操
##壁
##站
##宿
##了
##舜
##祚
##段
##限
##∞
##背
##曾
##巡
##쭈
##쨩
##ə
##存
##階
##桃
##刊
##ý
##ð
##鐘
##虛
##癡
##兄
##泥
##味
##獄
##弟
##優
##팁
##씹
##晩
##施
##뎌
##鳴
##照
##έ
##際
##惑
##告
##엷
##꺽
##評
##꽝
##須
##꽉
##邉
##終
##宝
##午
##웸
##他
##灣
##掌
##姫
##뻘
##넵
##序
##옅
##솅
##規
##巴
##屯
##堅
##ネ
##횃
##露
##ヤ
##갠
##伏
##ょ
##ふ
##盟
##琴
##壤
##佳
##病
##兴
##倫
##đ
##깍
##関
##鑑
##歸
##ず
##뀔
##是
##뛸
##칵
##떴
##鈴
##推
##ソ
##쎄
##뮴
##찜
##읊
##疏
##迦
##秘
##毘
##奏
##刻
##툭
##꿇
##∙
##좡
##씽
##潭
##楚
##株
##述
##疑
##央
##뽕
##뱉
##活
##娘
##얏
##─
##曆
##奴
##앳
##胤
##筆
##勒
##ф
##볕
##徽
##寫
##댑
##軒
##落
##陶
##專
##룀
##熊
##劍
##碩
##텡
##묀
##積
##庶
##杜
##쩐
##睿
##料
##址
##ね
##뺀
##銘
##裵
##来
##ю
##紙
##止
##吾
##万
##送
##追
##賜
##徒
##譯
##県
##冬
##ワ
##刺
##□
##웁
##設
##環
##実
##浪
##罪
##毅
##勞
##띈
##庭
##鼎
##輝
##勇
##ベ
##솥
##契
##ど
##몄
##震
##刀
##ع
##盤
##岐
##і
##米
##蓋
##旗
##點
##襄
##維
##納
##屬
##鹿
##超
##ž
##봅
##0
##찐
##됩
##힉
##蒙
##慢
##俗
##ᄀ
##쉼
##엌
##著
##失
##せ
##늠
##簿
##핌
##籍
##殺
##へ
##速
##뎅
##갸
##過
##耶
##翊
##題
##固
##續
##宅
##振
##害
##忍
##ō
##潤
##惟
##팸
##兪
##马
##革
##耳
##皮
##於
##뺨
##ë
##染
##匡
##〔
##ه
##財
##勢
##찻
##庫
##注
##梵
##才
##〕
##덥
##旅
##諫
##何
##ピ
##寬
##♪
##헴
##썹
##ş
##먀
##阳
##倭
##茶
##樓
##尼
##鎮
##征
##ケ
##퀵
##쐐
##難
##딛
##委
##教
##客
##멱
##袁
##硏
##扶
##ァ
##熱
##돛
##骨
##ū
##森
##宰
##則
##再
##샛
##φ
##誌
##甘
##欽
##س
##願
##芳
##욜
##織
##感
##策
##鬼
##兩
##程
##易
##切
##눕
##騎
##視
##昇
##戸
##ボ
##쨌
##燮
##懷
##妙
##̊
##顔
##奈
##也
##얌
##習
##퀀
##巨
##峴
##叔
##假
##э
##퍽
##略
##斯
##젬
##ゆ
##紫
##뛴
##땐
##藥
##曺
##폈
##漏
##ば
##翰
##童
##亞
##雜
##證
##技
##休
##泳
##ă
##食
##亮
##텟
##邦
##磨
##廉
##瞋
##摠
##ェ
##擧
##ت
##놉
##單
##쩍
##쌈
##諦
##ã
##詞
##指
##廷
##遼
##季
##훅
##쉘
##登
##甫
##影
##啓
##準
##雙
##汝
##殷
##丞
##쥘
##쑥
##짠
##干
##꽁
##慕
##塘
##製
##滿
##介
##層
##宜
##狀
##帶
##厚
##散
##팎
##ô
##왁
##逸
##祠
##坂
##警
##計
##繼
##問
##乾
##乘
##밈
##質
##桓
##△
##秉
##セ
##넴
##隱
##輪
##眠
##洲
##黄
##鎬
##爾
##卷
##健
##ツ
##땡
##銅
##要
##聯
##深
##坡
##ろ
##そ
##팥
##渡
##^
##補
##푹
##型
##ø
##遊
##酒
##⁄
##冠
##夷
##講
##譜
##細
##ß
##徳
##坊
##퓰
##콴
##쑹
##署
##【
##烏
##封
##】
##뵈
##孔
##껑
##雪
##寅
##凉
##쥔
##웜
##幸
##ひ
##뺏
##딤
##衡
##剛
##캥
##選
##蘊
##末
##鉉
##服
##뱌
##釋
##素
##́
##錦
##話
##醫
##藩
##簡
##恒
##辰
##最
##晋
##演
##亂
##餘
##墓
##캬
##藝
##兒
##格
##崎
##摩
##約
##威
##以
##υ
##땀
##麟
##姬
##至
##쏠
##칫
##쉰
##聞
##ό
##祐
##黑
##雅
##嶺
##獨
##僉
##条
##助
##留
##å
##裕
##魔
##壇
##蘭
##廟
##于
##敏
##改
##閣
##θ
##育
##檢
##珠
##己
##뇰
##敦
##岳
##防
##祿
##然
##嬪
##뎀
##깅
##±
##鏡
##ί
##域
##丸
##켐
##랠
##滅
##茂
##組
##龜
##祥
##刑
##ゃ
##端
##恋
##츨
##쏜
##뭔
##考
##炳
##尾
##轉
##量
##邪
##若
##梅
##亨
##엡
##兼
##슝
##射
##ά
##킵
##件
##綱
##庵
##낡
##鳥
##聲
##윽
##陀
##旨
##弼
##촐
##群
##胡
##離
##屋
##儒
##港
##펩
##밧
##č
##멩
##究
##翁
##‧
##ω
##ê
##촘
##飛
##丘
##ı
##ビ
##精
##ж
##꿉
##求
##列
##녜
##县
##や
##롄
##孟
##備
##둡
##依
##わ
##訓
##奎
##퀼
##텅
##煥
##잖
##둬
##廳
##職
##條
##望
##ц
##»
##볶
##葛
##編
##增
##僕
##ł
##樹
##丙
##괌
##眼
##췌
##«
##깡
##辛
##桥
##羽
##店
##ñ
##뜯
##욤
##紅
##ョ
##ب
##珍
##팻
##劇
##じ
##督
##爲
##板
##賀
##放
##€
##未
##僧
##禹
##養
##パ
##由
##衆
##座
##탔
##誠
##禁
##均
##ダ
##윔
##桂
##彌
##句
##變
##好
##딥
##布
##맬
##勳
##댕
##向
##臨
##穆
##め
##念
##깁
##씻
##洛
##比
##斷
##總
##蓮
##洙
##坐
##隊
##贈
##克
##꿰
##巖
##즙
##産
##持
##牛
##쿰
##낯
##營
##期
##浩
##쑨
##魯
##区
##靜
##盛
##圭
##貪
##希
##愼
##벙
##姓
##煩
##舊
##特
##允
##엎
##æ
##맴
##私
##ガ
##잼
##協
##릅
##ズ
##復
##モ
##郭
##댁
##东
##謙
##젯
##ノ
##種
##版
##回
##邑
##欲
##넉
##퓌
##쿵
##デ
##퀄
##那
##鶴
##洋
##뽀
##뮐
##普
##越
##썰
##굶
##š
##쪼
##船
##龙
##췄
##빽
##球
##会
##半
##꼼
##ī
##샴
##듐
##執
##핼
##菩
##慈
##岡
##★
##衣
##丹
##父
##뇽
##斗
##銀
##農
##똥
##캇
##哲
##戒
##夜
##輔
##可
##츰
##毛
##η
##プ
##局
##튠
##連
##쁨
##陰
##懿
##圓
##近
##清
##淨
##냅
##γ
##찢
##け
##雨
##青
##몹
##住
##꿨
##쿡
##範
##쾨
##젓
##發
##エ
##極
##律
##잣
##葉
##â
##え
##陸
##試
##溫
##交
##د
##벚
##邊
##樞
##黨
##象
##셴
##畵
##훙
##肅
##ハ
##룻
##薩
##夢
##博
##吏
##倉
##首
##電
##尊
##늪
##真
##支
##卿
##펭
##큘
##껏
##瑞
##■
##짖
##ュ
##具
##奇
##赤
##ú
##짚
##얕
##澤
##엥
##숍
##뮈
##뜰
##쥰
##共
##舍
##갚
##喜
##뭄
##魚
##惱
##莊
##宇
##仙
##淳
##足
##呂
##蘇
##載
##覺
##淵
##돗
##贊
##系
##碑
##و
##꽂
##今
##苦
##ム
##蔡
##角
##咸
##友
##궈
##牧
##썩
##뿜
##랬
##從
##報
##戶
##훤
##땃
##鄕
##表
##内
##惡
##庄
##メ
##렙
##翼
##ш
##靖
##數
##燕
##뾰
##入
##遺
##숀
##뜸
##π
##믈
##緣
##仲
##坪
##샀
##資
##術
##戦
##촛
##렝
##室
##境
##ブ
##챈
##낄
##齊
##機
##死
##虎
##싣
##結
##舞
##純
##귤
##隨
##尉
##β
##ウ
##男
##だ
##챠
##乙
##盧
##麻
##隆
##取
##チ
##つ
##ミ
##姜
##튬
##調
##能
##م
##提
##댈
##걀
##觸
##波
##ر
##よ
##샷
##管
##−
##딧
##久
##쩔
##柱
##쉴
##得
##崇
##샵
##慧
##엮
##싯
##類
##恩
##ィ
##房
##←
##齋
##す
##몫
##手
##峰
##團
##器
##鐵
##뫼
##草
##母
##サ
##富
##챙
##ç
##싹
##因
##꼈
##情
##핏
##헥
##탬
##嚴
##늙
##깜
##氣
##次
##獻
##俊
##秋
##目
##亭
##も
##ャ
##テ
##鍾
##겟
##故
##땄
##섀
##丁
##ニ
##볍
##容
##居
##쭉
##욘
##촨
##윅
##뤘
##х
##δ
##헛
##괜
##務
##ي
##넛
##貴
##ن
##商
##町
##領
##恭
##察
##岩
##力
##뭐
##靈
##始
##グ
##팰
##品
##顯
##印
##祭
##禪
##區
##非
##關
##致
##얽
##完
##랏
##香
##깎
##伯
##バ
##\
##샐
##員
##統
##池
##ナ
##頭
##팍
##뜬
##雄
##뒀
##눔
##晉
##運
##號
##嘉
##異
##앰
##果
##캣
##閔
##オ
##竹
##눠
##起
##泉
##쾰
##先
##塔
##씌
##益
##κ
##園
##귄
##反
##諸
##秦
##彦
##≪
##植
##フ
##≫
##캅
##샨
##榮
##場
##お
##σ
##車
##ч
##닦
##對
##탭
##à
##괘
##슛
##曲
##加
##뱃
##コ
##뭇
##뻐
##슭
##淑
##火
##台
##끗
##湖
##얹
##뻔
##あ
##옳
##少
##初
##웍
##儀
##烈
##紀
##み
##楊
##護
##깐
##곶
##線
##0
##密
##ち
##如
##벵
##鳳
##橋
##千
##遠
##ь
##藏
##伊
##낚
##詩
##엿
##處
##앓
##錄
##낫
##麗
##解
##玄
##驛
##錫
##찔
##浦
##勝
##を
##任
##意
##멧
##來
##惠
##右
##で
##用
##れ
##朱
##굵
##臺
##λ
##我
##許
##形
##씀
##魏
##沈
##댓
##τ
##맑
##熙
##七
##ε
##沙
##맏
##參
##팟
##奉
##뚱
##끓
##밋
##з
##갯
##갇
##キ
##썸
##言
##多
##唐
##造
##豊
##戰
##벅
##<
##딪
##進
##昭
##工
##延
##受
##甲
##캉
##잦
##位
##핍
##컸
##陳
##앱
##삐
##間
##슌
##津
##ρ
##式
##常
##텝
##さ
##}
##덟
##想
##쵸
##賢
##梁
##学
##っ
##찮
##佐
##令
##が
##第
##保
##志
##짙
##0
##붐
##○
##톈
##ロ
##鮮
##御
##徐
##🔗
##꽤
##タ
##く
##動
##픔
##出
##펫
##歌
##老
##在
##′
##省
##マ
##μ
##휩
##쩌
##說
##き
##얇
##郎
##實
##達
##옐
##秀
##寶
##ы
##햇
##è
##띤
##ま
##妃
##百
##レ
##ι
##ς
##土
##吳
##修
##館
##流
##等
##開
##殿
##副
##뀐
##語
##я
##ل
##節
##現
##こ
##젖
##밟
##ジ
##侯
##빔
##度
##カ
##횟
##夏
##ν
##꿔
##體
##쏟
##科
##슘
##돋
##觀
##흩
##外
##弘
##典
##왓
##륵
##靑
##萬
##申
##役
##傳
##は
##퐁
##썬
##別
##ド
##侍
##휠
##떡
##憲
##쑤
##껴
##敬
##뭉
##應
##〜
##팜
##꾀
##溪
##덱
##圖
##탤
##맘
##左
##識
##制
##낀
##얘
##空
##泰
##玉
##的
##셨
##国
##솟
##뚝
##風
##命
##濟
##う
##郞
##良
##ら
##衛
##$
##봤
##功
##利
##字
##렁
##音
##긋
##쯔
##솜
##井
##@
##者
##眞
##シ
##텀
##承
##像
##줘
##쁘
##п
##周
##壽
##†
##監
##身
##―
##•
##ā
##웬
##펌
##흠
##б
##阿
##分
##宣
##九
##智
##츄
##곁
##廣
##康
##兵
##章
##낱
##議
##옴
##藤
##줬
##줌
##曹
##直
##治
##思
##г
##쿤
##샹
##훔
##て
##福
##걱
##路
##퉁
##業
##宋
##景
##親
##陵
##ク
##り
##ο
##듈
##愛
##物
##雲
##尙
##쟈
##建
##눅
##基
##黃
##色
##界
##렷
##릎
##源
##헐
##ア
##댐
##툼
##に
##맵
##名
##根
##孫
##뚫
##멋
##샬
##잊
##쯤
##얄
##谷
##닿
##룽
##合
##春
##星
##內
##英
##ッ
##냄
##判
##걷
##C
##꿀
##ん
##柳
##順
##立
##붓
##禮
##華
##홉
##갓
##佛
##í
##ä
##쉐
##寧
##딴
##六
##굉
##옌
##뻗
##八
##か
##엉
##굽
##市
##重
##族
##鎭
##놈
##權
##컫
##엣
##自
##껍
##村
##벳
##野
##둠
##る
##ó
##花
##集
##美
##女
##貞
##닮
##삿
##劉
##챌
##洪
##堂
##吉
##턱
##겉
##淸
##ا
##し
##`
##た
##흙
##콧
##짱
##同
##콥
##論
##樂
##ö
##뇨
##守
##通
##と
##콕
##랴
##代
##у
##릇
##떼
##밸
##作
##칩
##リ
##木
##탓
##。
##將
##見
##ト
##☆
##셸
##師
##캡
##뮬
##빚
##後
##밭
##멈
##面
##뉜
##崔
##럿
##化
##羅
##닭
##之
##古
##쁜
##콰
##봐
##깝
##士
##京
##왈
##굳
##時
##孝
##킥
##쏘
##킷
##校
##굿
##派
##틈
##옵
##쌀
##祖
##훼
##푼
##性
##四
##갱
##二
##톡
##臣
##넨
##겁
##꼴
##敎
##{
##信
##社
##全
##м
##知
##張
##松
##方
##記
##뿔
##ラ
##맷
##첸
##慶
##定
##島
##月
##낌
##펑
##后
##な
##툰
##싫
##十
##民
##긍
##딱
##꺾
##д
##깥
##툴
##닷
##ル
##鄭
##돕
##馬
##朝
##핫
##녔
##팡
##띄
##趙
##昌
##理
##섹
##イ
##훌
##聖
##똑
##슐
##宮
##섞
##不
##눌
##셉
##有
##넌
##펀
##下
##녁
##핸
##經
##듭
##史
##겹
##漢
##●
##묶
##ス
##й
##륭
##α
##忠
##펴
##小
##善
##官
##힙
##江
##궐
##딜
##킴
##곰
##河
##ü
##前
##쥬
##빵
##á
##心
##윗
##싼
##五
##相
##빗
##뚜
##>
##늑
##洞
##永
##훗
##펄
##춰
##街
##白
##룰
##會
##딕
##※
##펙
##縣
##所
##렛
##풋
##쿼
##林
##퀸
##帝
##좁
##年
##司
##朴
##꼭
##政
##겔
##멍
##龍
##和
##뮌
##깃
##덧
##끈
##퀘
##훨
##門
##л
##갤
##都
##∼
##륨
##렘
##興
##윙
##흉
##룸
##꼽
##앉
##口
##둑
##皇
##삽
##韓
##탠
##뱀
##、
##生
##仁
##돔
##水
##넥
##夫
##使
##끔
##셈
##닫
##部
##늦
##렴
##늬
##尹
##т
##랩
##神
##꺼
##죠
##덩
##횡
##탱
##캄
##홋
##뼈
##武
##行
##い
##в
##깔
##덮
##뤼
##꾼
##쓸
##쫓
##光
##묻
##뤄
##北
##石
##郡
##陽
##렐
##벡
##밥
##世
##原
##앵
##뽑
##地
##無
##햄
##늄
##ᆞ
##本
##家
##샘
##떻
##씬
##찌
##德
##봇
##院
##웰
##寺
##西
##海
##섰
##첼
##캔
##長
##뿌
##主
##톰
##府
##튀
##팩
##—
##춤
##숫
##日
##넬
##成
##벼
##끊
##팽
##上
##슴
##쾌
##軍
##띠
##太
##義
##田
##괄
##낼
##맛
##짝
##흰
##里
##明
##숲
##앗
##좀
##샌
##新
##엇
##к
##ン
##엠
##뒷
##高
##팝
##川
##닐
##書
##묵
##正
##元
##一
##°
##녕
##р
##붉
##썼
##옆
##셋
##컷
##낳
##륜
##댄
##삶
##쌓
##룩
##얀
##혐
##딘
##е
##븐
##君
##밑
##잭
##벗
##퀴
##뉘
##事
##쿨
##흘
##폼
##겪
##랄
##뱅
##н
##듣
##옷
##法
##빼
##곱
##с
##봄
##픈
##켈
##읽
##랍
##平
##南
##첩
##톱
##낭
##냉
##宗
##젊
##헝
##틸
##學
##곽
##짧
##엑
##힐
##럴
##냥
##첨
##ー
##삭
##×
##싶
##롬
##캘
##돼
##믹
##왼
##安
##東
##三
##릿
##펼
##셰
##잎
##о
##덤
##뀌
##и
##쇠
##天
##멕
##公
##뷰
##끄
##城
##럭
##쓴
##웹
##랫
##잇
##꿈
##찍
##中
##콤
##州
##믿
##乡
##큼
##子
##짐
##↔
##밍
##섯
##펠
##엽
##人
##뜨
##닛
##셜
##깊
##빨
##の
##텍
##틱
##꼬
##멜
##맺
##國
##즐
##а
##é
##빅
##롱
##젝
##멀
##핑
##쉽
##옛
##文
##잃
##・
##켄
##궤
##숨
##랭
##짜
##씩
##값
##듯
##닥
##氏
##룬
##道
##흡
##납
##镇
##『
##』
##즘
##튼
##숭
##빙
##캠
##젠
##짓
##렵
##쇄
##튜
##웃
##촬
##됨
##릉
##넓
##뢰
##윌
##롭
##곧
##힌
##흔
##듬
##넣
##닉
##땅
##답
##쌍
##흑
##붕
##밤
##멘
##옮
##렬
##슷
##멤
##쉬
##깨
##헬
##젤
##옹
##놀
##랐
##킹
##0
##팬
##켓
##겐
##콩
##큐
##떤
##셔
##듀
##웅
##쥐
##융
##왜
##딩
##王
##덜
##山
##혔
##촉
##챔
##렀
##섭
##겠
##둔
##낮
##랙
##롤
##킬
##빛
##웠
##낙
##룡
##냐
##뇌
##겼
##펜
##밴
##_
##+
##닝
##→
##렇
##둥
##셀
##혈
##쳤
##톨
##텐
##金
##퓨
##탕
##뛰
##겸
##李
##헨
##톤
##멸
##꾸
##꽃
##탐
##륙
##앤
##컨
##홀
##돈
##솔
##녹
##밖
##욱
##몽
##팅
##틴
##윈
##털
##읍
##넷
##칠
##폰
##님
##잔
##략
##풀
##먹
##곤
##벽
##몸
##켜
##핀
##끌
##렉
##탁
##끼
##떨
##홈
##벤
##칙
##됐
##놓
##大
##춘
##탑
##낸
##&
##굴
##십
##딸
##켰
##척
##핵
##뿐
##휴
##잠
##죄
##=
##?
##싸
##흐
##떠
##둘
##쿄
##눈
##혀
##힘
##갑
##혜
##붙
##롯
##릴
##혹
##률
##액
##뮤
##「
##」
##컬
##찾
##룹
##욕
##덴
##컴
##q
##갔
##템
##맨
##푸
##뜻
##냈
##잉
##넘
##킨
##묘
##몇
##칼
##뷔
##샤
##므
##몰
##몬
##얻
##콜
##빠
##염
##맥
##균
##칸
##촌
##밝
##팔
##렌
##닌
##–
##맹
##”
##“
##괴
##빌
##갖
##억
##맡
##좋
##잘
##델
##빈
##휘
##슨
##앨
##객
##링
##옥
##콘
##궁
##써
##벨
##될
##얼
##율
##앞
##긴
##늘
##엄
##왔
##컵
##념
##흥
##층
##램
##숙
##찬
##턴
##쇼
##끝
##맞
##퇴
##혁
##줄
##익
##압
##섬
##렸
##즉
##폴
##엘
##릭
##좌
##헤
##먼
##느
##났
##%
##논
##택
##럼
##징
##싱
##걸
##득
##례
##틀
##훈
##큰
##졸
##응
##풍
##텔
##움
##잡
##폐
##높
##농
##착
##덕
##헌
##락
##쳐
##폭
##캐
##즌
##곳
##효
##검
##첫
##‘
##획
##갈
##침
##홍
##〉
##〈
##’
##볼
##럽
##허
##윤
##겨
##널
##웨
##뉴
##귀
##찰
##앙
##슬
##커
##암
##벌
##센
##슈
##험
##측
##누
##골
##엔
##픽
##밀
##혼
##칭
##뒤
##희
##런
##습
##접
##채
##죽
##블
##길
##못
##째
##씨
##z
##;
##담
##막
##봉
##협
##완
##취
##녀
##퍼
##책
##졌
##탄
##충
##견
##션
##련
##확
##께
##져
##손
##너
##날
##쟁
##탈
##!
##색
##랜
##망
##친
##패
##든
##규
##클
##극
##돌
##츠
##워
##범
##필
##새
##량
##머
##쓰
##삼
##글
##팀
##절
##순
##료
##플
##증
##백
##및
##|
##케
##쪽
##품
##애
##온
##많
##론
##환
##존
##x
##창
##림
##악
##족
##능
##름
##총
##질
##곡
##별
##근
##난
##철
###
##술
##육
##쿠
##향
##페
##/
##황
##령
##올
##울
##랑
##박
##따
##참
##같
##변
##활
##열
##살
##석
##복
##언
##준
##광
##급
##송
##추
##테
##린
##병
##집
##저
##알
##북
##란
##목
##평
##없
##람
##처
##른
##j
##특
##네
##았
##투
##항
##즈
##더
##말
##달
##심
##감
##립
##약
##판
##편
##브
##김
##받
##외
##·
##금
##격
##베
##또
##티
##록
##청
##않
##까
##왕
##매
##권
##예
##번
##피
##불
##w
##최
##합
##건
##천
##점
##직
##력
##래
##메
##축
##입
##각
##~
##초
##법
##버
##디
##독
##던
##승
##려
##배
##결
##표
##두
##함
##형
##히
##강
##업
##태
##루
##속
##설
##때
##물
##코
##할
##키
##토
##》
##《
##양
##종
##y
##실
##v
##임
##요
##야
##출
##현
##본
##반
##식
##체
##운
##음
##내
##호
##크
##포
##노
##바
##"
##행
##차
##안
##간
##생
##통
##파
##거
##데
##단
##k
##남
##재
##러
##레
##당
##방
##된
##작
##발
##산
##카
##군
##니
##f
##무
##민
##것
##용
##프
##타
##등
##터
##후
##진
##모
##면
##르
##관
##명
##개
##치
##계
##g
##연
##며
##b
##영
##회
##p
##문
##역
##비
##세
##였
##u
##h
##유
##중
##소
##오
##했
##만
##신
##조
##경
##d
##보
##화
##우
##드
##게
##미
##트
##위
##와
##공
##적
##마
##교
##학
##원
##여
##선
##류
##들
##m
##성
##었
##-
##상
##c
##동
##l
##월
##장
##구
##과
##되
##'
##해
##주
##분
##제
##그
##정
##있
##전
##국
##부
##나
##r
##t
##n
##라
##어
##o
##s
##자
##수
##아
##i
##일
##를
##인
##도
##으
##:
##a
##스
##시
##은
##e
##리
##대
##사
##기
##년
##서
##한
##고
##지
##)
##(
##*
##가
##을
##하
##로
##는
##,
##에
##의
##.
##다
##이
##0
##▁
0000000
!
@
[
\
]
^
_
}
ς
د
ī
ে
ী
##ी
е
ృ
ï
##ీ
ч
ً
ق
్
ৃ
##బ
”
è
##̣
נ
л
ُ
##శ
##ే
##ৎ
##े
##స
##డ
ш
ీ
##ת
##ఔ
##ম
ళ
ي
।
##נ
ت
؛
ğ
##ధ
ঁ
##ঝ
ే
े
##‐
##ౌ
##দ
ú
ί
##ঃ
##ע
ע
##ట
##।
##ٌ
َ
ά
ا
00000000000
ణ
া
ো
ð
ূ
##ష
N
،
##জ
##व
##گ
##ক
##এ
ن
ν
##ో
ò
##ఐ
ఁ
ٍ
ط
##آ
##ই
ρ
ר
ه
##ঠ
##చ
о
й
ఠ
の
##ঔ
##ঊ
ラ
ْ
ö
##গ
ã
##ً
ø
##ূ
я
ء
##ং
ر
##ై
##त
い
ం
##ద
ä
়
##ణ
ā
##্
ঙ
ز
′
##ৃ
##ধ
##ؤ
##খ
##ు
ై
##ש
ি
##ఉ
##ব
ی
ئ
н
##ঁ
##ত
##00000000000
##ث
ա
##ృ
ệ
ם
##ర
##আ
##ఇ
##অ
ৌ
ج
##ఈ
ో
х
##ি
##ళ
##ప
##ঞ
##ם
##ఝ
##क
⁄
##మ
イ
ř
٪
ń
##ఞ
##ఫ
ూ
##ఢ
##N
ৎ
##హ
##٪
##ছ
ă
##ঘ
##ా
##ঈ
ِ
ì
ñ
ン
##ٍ
##প
##ఛ
ؤ
ు
##ూ
ং
##়
ω
##ভ
न
­
ل
‐
##భ
##إ
ౌ
##ొ
ь
ّ
##ণ
ə
ః
##ఋ
##ঐ
##ো
а
ح
##ْ
##،
天
##য
ৈ
##ট
í
##ড
子
’
»
##ఱ
্
##؟
##स
ç
##স
##؛
##ে
ש
ి
##త
ス
ת
##ষ
؟
##ও
##ఏ
##پ
##య
##ু
▁
##వ
ό
ù
##ী
„
##ఓ
ণ
##থ
ü
्
##ৈ
ô
ৰ
ū
##ఙ
î
â
##ఖ
ê
##ె
ć
##ঢ
ٌ
##ল
ë
人
##ন
व
ى
ొ
ě
##৷
##ఎ
त
##థ
##ৰ
ō
ε
##ం
ी
ý
ि
##ّ
##উ
##ఁ
##ک
ش
ο
ك
##ঙ
ι
ы
ా
ル
́
##হ
##ి
##ء
ఱ
ó
ı
##్
ß
##র
##ض
##ఊ
س
र
##ظ
ঞ
##ڤ
##চ
##ঋ
##జ
##ఘ
##ఆ
##గ
##అ
ু
##ُ
##מ
у
##ల
##క
##ि
000000000
ē
##ః
##ఒ
##ఠ
##ৌ
ा
##న
##শ
ె
##ফ
̣
ъ
á
ة
ఞ
ー
р
