[PAD]
[unused0]
[unused1]
[unused2]
[unused3]
[unused4]
[unused5]
[unused6]
[unused7]
[unused8]
[unused9]
[unused10]
[unused11]
[unused12]
[unused13]
[unused14]
[unused15]
[unused16]
[unused17]
[unused18]
[unused19]
[unused20]
[unused21]
[unused22]
[unused23]
[unused24]
[unused25]
[unused26]
[unused27]
[unused28]
[unused29]
[unused30]
[unused31]
[unused32]
[unused33]
[unused34]
[unused35]
[unused36]
[unused37]
[unused38]
[unused39]
[unused40]
[unused41]
[unused42]
[unused43]
[unused44]
[unused45]
[unused46]
[unused47]
[unused48]
[unused49]
[unused50]
[unused51]
[unused52]
[unused53]
[unused54]
[unused55]
[unused56]
[unused57]
[unused58]
[unused59]
[unused60]
[unused61]
[unused62]
[unused63]
[unused64]
[unused65]
[unused66]
[unused67]
[unused68]
[unused69]
[unused70]
[unused71]
[unused72]
[unused73]
[unused74]
[unused75]
[unused76]
[unused77]
[unused78]
[unused79]
[unused80]
[unused81]
[unused82]
[unused83]
[unused84]
[unused85]
[unused86]
[unused87]
[unused88]
[unused89]
[unused90]
[unused91]
[unused92]
[unused93]
[unused94]
[unused95]
[unused96]
[unused97]
[unused98]
[unused99]
[UNK]
[CLS]
[SEP]
[MASK]
в
##00
п
с
##ст
##ко
##на
##ра
##ни
##го
##но
##ро
и
о
##ре
##ка
00
##ри
##то
##ли
##те
##ле
##ль
д
по
##ны
м
##ва
##та
б
##не
##ла
на
##ки
##ло
##да
##во
а
0000
##ве
##че
##за
го
##ско
##ти
(
ко
##ме
##де
—
у
##ми
к
г
ка
*
##ди
##ру
со
##ви
##ер
##ся
##ци
##же
ра
##ски
##ма
«
за
##ля
ф
##по
##''
##ет
во
##ния
##ча
про
##бо
##до
не
##си
##ду
##ние
##ста
э
##сти
##хо
##ен
##чи
##мо
##ной
от
бы
0
при
об
е
##ть
до
##се
из
##сто
##ры
##со
т
ма
##0000
##па
ре
##нны
##ного
##са
##лу
года
##рия
##га
се
##пи
##ги
##ши
вы
##ской
##вы
мо
де
##ского
##тель
##зо
##ше
##ку
пре
##жи
##сь
##ря
##ский
пе
##ту
ме
ро
##пе
кате
катего
##ще
##ну
та
категория
бо
те
то
##му
##зи
че
##ных
##ня
''
##ты
но
##щи
##сть
ч
году
##ный
##сле
000
ста
я
##ска
##стве
па
х
##це
з
##ции
##нии
##би
##ные
ми
##ке
са
##).
##ная
##гра
##нов
##ство
кото
##лю
ве
##ков
ле
ш
раз
##мы
##жа
под
##пу
##сси
ли
##er
##ров
##ется
пере
(0000
##ном
##вер
##ют
##спо
##ба
##фи
был
##),
##су
ба
##ды
##зы
си
что
##вля
##мен
##рова
##ца
##ву
##лся
кон
##in
это
бе
##ских
##сте
##an
##ор
для
##ша
##бе
##она
##ха
пер
да
##тра
так
сво
##ур
##вле
##мя
##ное
ни
ин
его
же
##ства
##гу
фи
##род
после
##ская
s
##кт
##on
##».
ц
##ран
ви
ча
ар
му
как
##он
##ний
пред
##тив
##»,
##ге
су
##ман
##ходи
од
ди
##ar
ру
##ск
он
##ным
##тов
##en
##вой
##ствен
##ром
##рии
пра
ос
##лы
##ности
ав
##th
соста
##нд
вре
##ность
##or
##вя
##нь
##вет
ю
##—0000
росси
##ском
c
##ющи
все
##бы
которы
i
##ев
##сту
ки
ку
##зова
ком
##пра
##ща
##нный
##бря
ор
ге
##нных
воз
ва
m
рабо
##ник
хо
##ские
рай
##al
##зу
##es
##000
##зе
##рь
также
d
жи
##кра
##аль
##пре
##нные
##фе
##лей
##тор
##об
##ную
##рой
p
##хи
##мер
##ком
##ция
обла
##вши
##про
фа
##стра
име
##тся
рас
га
##стоя
##руп
вой
обра
b
##дар
##ён
нача
##нием
пу
##вич
##тер
дру
ст
##лись
##лек
##нию
##том
пи
ис
##нова
прои
##зна
##ент
##тиче
##at
##нг
##мпи
полу
##бли
##лен
##кой
##ден
0-
##ей
##лов
##ника
вер
##лась
##вод
##дер
уча
##ем
##дов
время
была
##лав
боль
были
бу
испо
##зда
мар
кра
##нима
##пы
сре
##ней
гра
##is
##сс
##стро
##лё
##лове
##стви
##ское
было
##кон
##ic
##цы
##ления
##дова
##жде
##логи
чи
##рев
##ан
сто
##re
или
a
l
##ября
f
свя
ла
горо
коман
##ются
##ложе
##лько
явля
исто
##гда
##вые
##лось
##пер
00-
##ср
##вых
челове
им
##зва
##вый
пол
0000.
##каза
##ёр
##бу
t
ха
##ход
##лее
#
##,0
##ro
ти
##гла
##el
##кан
ок
##ться
зна
##фа
##ству
тре
##спе
лю
##судар
##бер
##дин
##сты
##зыва
##us
меж
вла
области
ию
н
##рен
слу
##ники
##ским
##the
o
##фор
государ
g
##ными
##кры
пар
лет
##оне
би
##вого
россии
ев
км
тер
x
##рон
0000,
насе
##it
(0000—0000
0000—0000
ги
иг
ло
груп
##ch
между
совет
стра
лу
##бор
сс
ж
##ление
ан
h
год
##нской
##ol
пла
##мии
##ствова
##ску
##00.
w
##нным
##нее
##при
фран
##три
(0000)
##веде
кар
её
чемпи
исполь
##il
0000)
авто
дол
##пера
фе
n
##ёл
##сы
назва
их
произ
ри
##дь
##ональ
##вест
уни
##сло
##сов
**
##as
##нского
други
##писа
##зя
##чё
##рт
##тия
ссср
аль
v
коро
объ
вели
алек
##бра
##un
##нский
##телей
##ников
предста
##ниче
созда
##клю
орга
обще
одна
##стре
нау
##кто
сте
вто
р
распо
спо
##циаль
само
оста
0:
гу
##теля
получи
##води
##юще
россий
ду
##вая
##зд
работа
##ra
##чно
фу
фор
пло
##лан
##дом
гер
бра
ак
где
сер
##пол
##правле
кла
##жда
##рий
поли
це
##нера
##шо
сель
который
##вое
##нк
##рито
филь
##цо
the
эк
##лем
является
##сса
##тели
##лом
##мени
обо
##ём
%
##ссо
##.,
##ion
рус
##мь
укра
воен
более
окру
##скую
##вар
войны
##мери
сы
ху
(00
дерев
город
##тери
том
##ходит
сло
##um
##от
()
##лли
##цу
сред
##le
##жно
##верси
извест
##рей
##цию
##бур
##ень
##-0
##ссе
ту
##таль
##лия
сле
##дей
##лле
##вым
##обра
сша
пос
человек
##вета
ша
0000-
глав
находи
##лии
язы
стал
##тур
##жения
кор
города
##'',
e
##and
##pg
(0
посе
образова
##No
шко
ад
отно
спе
-
террито
##jpg
##ur
она
##чен
##станов
##публи
цен
однако
/
##ин
сов
систе
основ
##сно
свои
##мини
##рта
##тельно
состоя
##ческой
##ких
составля
##рез
универси
##фо
органи
##нения
##вше
##дель
##гро
##чения
##тя
##ек
тра
##am
университе
of
ян
##мина
##ственной
высо
No
только
против
кре
дей
побе
дж
##om
##соб
дву
##чной
##циональ
они
неско
00.
##санд
##ri
##кий
##чение
##дии
##кова
##рои
in
##льно
##сков
##той
цер
##кого
прави
##циа
##йл
окт
##стан
##ing
##тан
##кла
:
##ью
##цев
##жива
##еди
кри
0:0
##сли
евро
##рого
того
##нер
##тера
игра
##тро
(0000—0000)
##ят
дека
тех
нико
##слу
амери
выпу
##et
состав
##ств
расположе
##хов
##ститу
района
ал
сент
##следова
музы
роди
ши
чемпиона
александ
зо
эти
высту
место
##льта
##лий
занима
##них
##чных
##рио
авгу
запа
##st
##стер
над
##сла
тру
основа
когда
##вед
века
##ктор
##торы
ii
##ством
##ях
вме
эле
которые
реки
##графи
сбор
##ческих
##рабо
клу
##льной
##ческого
##ющий
k
##ent
украи
##коло
##вор
часть
##ван
##дера
окон
районе
части
теле
##цио
##щё
##цион
##тбо
##кре
откры
янва
##вом
три
вос
тур
использова
##ций
дея
центра
##ках
##тре
помо
##''.
ря
##хра
поль
##лез
##жение
ули
тем
этого
##льного
файл
##визи
0,
##жет
##нт
руко
##щен
##рая
два
стан
##тем
##ed
компа
моск
##бре
мно
зем
##зульта
##коно
жиз
дви
##ющих
##шая
этом
суще
генера
##кси
апре
мат
цент
ше
неко
##ac
##ческий
приня
##лин
кни
##вил
##льный
##тий
##мов
##вший
##дол
сан
0.
##туры
пес
восто
результа
через
бри
##кс
среди
##ющие
##стов
##ёт
один
##нем
##ii
##каде
националь
##ар
разви
оте
j
поя
изда
##-00
участи
худо
оче
шта
##лет
##ному
##спубли
поз
##евра
##ья
##народ
##ностью
архи
##чита
послед
##емы
##нен
##ками
ты
сезо
##рё
сою
республи
##id
st
##ших
февра
##бри
затем
##ую
##тии
##нин
институ
площа
##телем
##лага
##ig
##грам
годах
##ший
поло
сти
анг
##ним
##бой
мира
гла
куль
много
##вал
##жен
##шения
севе
составе
мая
##стру
##преде
##ad
деятель
жен
вклю
хи
офи
##зом
##вин
мини
кро
##риа
,
##министра
##йн
##тин
истори
федера
##вен
учи
семь
##дела
следу
коми
##тирова
согла
акаде
которых
около
без
уже
##игро
декабря
участ
чтобы
##шен
##зации
##скому
ещё
север
##мой
альбо
0,0
территории
оли
##нови
##честве
##ждения
перио
##льных
##рак
поч
##нами
##игроки
числе
##em
января
##вра
##над
##льные
##ье
##ственный
прези
##нение
##вшие
поэ
00,
##мир
никола
##ственного
августа
заме
моло
влади
испол
несколько
##кие
мест
##мент
##лаго
##него
##ia
москов
##урна
##ремен
теа
ско
октября
##зяй
фо
американ
марта
##щая
##вает
##ница
##ступ
##сона
##ником
профе
футбо
июля
двух
##нача
сентября
писа
##бург
##ческие
##личи
каза
администра
##ot
##держа
##слав
дли
дивизи
##цен
ци
##рое
сторо
.
##нной
луч
июня
##евич
обе
##того
годы
##00.0000
##виа
##мей
круп
долж
##ag
##дия
международ
деревня
сра
апреля
продол
второй
может
##лла
находится
право
00,0
вместе
ана
(''
наи
##шин
##кло
##тей
##os
##смо
##его
##ким
##рд
##ляр
получил
которой
стре
возмо
армии
##вали
называ
хра
##из
##стей
##кус
##шей
муж
первый
##iv
##твер
##чные
действи
##ut
r
пет
стар
памя
спи
##шие
##эн
##тен
чер
журна
##форма
бере
000-
большо
ноября
##ципа
##пло
##мента
л
##хе
##ян
российской
ры
##куль
##скими
режи
кол
некоторы
кино
##личе
##ступи
других
назна
тор
олимпи
##гов
исследова
##доро
крас
##писи
благо
re
de
встре
##мец
##шение
##чный
##чил
доро
##ген
##ху
##чь
них
програм
всего
составляет
##тру
фина
строи
гре
сту
кан
##кви
элект
кур
ему
##сом
которая
своей
##жд
##ul
"
опера
самы
название
##кономи
бер
уче
реги
проис
##ir
##йских
##вания
женщи
многи
приме
группы
##:00
чу
##бя
гор
счита
##рус
##ter
##вать
комп
(0000).
##ниципа
##пла
##боль
февраля
##лев
район
##нах
##im
заня
вну
##-0000
##сер
##шёл
чле
кня
разли
##ходя
орде
##дж
использу
##след
село
##бле
совета
защи
эта
меда
##тно
##тие
##дра
##ie
губер
искус
##дно
уда
##тора
миха
населения
##вших
ца
опреде
сере
жа
постро
этот
управле
случа
##ору
##шки
бело
пя
##тки
##град
##гре
выступа
качестве
юж
##.''
ново
вс
всех
##нными
##op
(«
##зер
##тами
##дина
дво
##ред
тран
конце
фк
##вления
##восто
##ведения
ива
##филь
бли
род
##рёх
##тельства
and
желез
##стя
уе
участие
успе
кры
##логии
авиа
соот
смер
##строй
производ
матери
виде
##рок
##нец
##чного
##нове
мона
немец
установ
##ственно
гру
##зии
##0.
##став
имени
##дой
вне
народ
перед
президен
##жды
которого
университета
(000
##ation
мет
##лист
францу
##od
уби
##пози
##джа
есть
##седа
соб
##тура
акт
##ow
##чу
муниципа
##цией
воло
##мирова
##мия
##няя
##дет
комму
##тар
##хва
##ган
##вается
литера
вра
одно
переда
(0000),
герма
##..
ост
голо
is
##чина
##жил
сим
годов
актив
миро
смо
разрабо
население
##мом
отече
истории
##тных
административ
##);
экономи
тан
##ствует
зда
настоя
свою
ради
четы
##цер
##мет
юго
##прия
##вую
запад
##тельство
первой
##роне
входит
гг
##лья
времени
представи
городе
вол
гражда
жизни
##мон
##сон
##ствии
##шь
быть
##кая
##px
отде
##лок
##щения
себя
имеет
дже
##la
этой
день
соответ
##тах
##ске
##тный
##зов
##матиче
##ню
кана
##пар
##umb
##воз
##ат
пара
работал
обы
##ht
##виси
##льная
##шим
импера
##щих
дома
япо
направле
##нного
##бро
анд
##ницы
##чает
реа
=
##нная
диа
площадь
музе
##кро
##тики
зе
значи
человека
украины
##чей
кора
данным
церков
вз
мор
##сут
##ec
##писко
##тон
##виде
гри
бое
родился
##казыва
##эй
француз
##раз
пор
служ
чем
работы
мы
сла
сооб
проек
проце
##ряд
##шла
участвова
##тай
слова
##пада
##рами
##ктив
можно
коло
своего
##ers
##гер
##мыш
##циали
худож
северо
представля
отме
испа
част
награ
кли
##пени
##чин
выпол
##мар
##шли
##ix
дости
##поли
начале
фло
##бира
##лко
выше
##щее
арти
ch
сам
импе
республики
относи
##кта
##лл
фрон
написа
музыка
харак
поддер
призна
ино
##пример
возра
свой
количе
##og
##бора
##нитель
отечественной
##-000
помощ
кроме
нео
##дий
союза
связи
эн
##art
##зан
буду
период
верну
сол
сохра
##город
золо
##фу
##волю
официаль
xv
##ябре
даль
позво
##каз
##thumb
франции
церкви
##труд
гео
##.:
##ктора
##рю
##тая
если
##ток
совер
##ard
инте
упо
##щий
специаль
##кар
##вори
##ющего
изобра
водо
стала
турни
##лены
##бов
тео
зи
другие
васи
кру
возмож
степени
распро
##ющей
##дели
##тет
##запа
принима
дет
две
дра
##чки
изме
##пода
##рье
##нович
##ov
впер
выс
корпу
##мор
##тал
стали
y
0000/
##поль
европе
##стана
друго
##шего
верси
##ктиче
##тиво
##вшего
дела
ну
оконча
него
##нью
##фика
войска
объя
##пас
##рин
лишь
ке
тя
##дро
согласно
##нирова
##петер
генерал
подо
##йор
код
великой
фильм
одним
##ющим
##'')
одной
##ссии
ран
вод
##тому
//
##ческая
неза
##моби
##более
##зма
режисс
велико
роль
##тник
##льное
бассе
сце
очень
часто
интер
осу
##ist
##тый
##вание
##нта
группа
##кам
федерации
##слови
ору
нор
##хода
организа
##»)
наук
политиче
##пута
меди
un
разме
##.)
##жении
компози
–
команди
академии
собой
живо
ней
там
##гии
##мест
##собен
##дви
##ord
##прави
фон
##мости
впервые
##жё
физи
##шую
al
##ственных
могу
прин
##тил
древ
##кции
##ил
##онов
##мира
##oc
##зь
округа
театра
изу
председа
отдель
(;
олимпийских
##пара
##ap
пов
александр
уров
##bn
собра
##им
улица
##ныне
##ждён
##ун
##кти
дире
появи
##вале
результате
котором
игро
##вей
член
еди
показа
поселения
##цов
электро
##йо
##рию
широ
00.00.0000
##вобо
образом
сборной
центр
##чная
##чёт
##год
##тета
больше
##нев
своих
0,00
советский
зве
##пен
санкт
##роди
обеспе
##est
обу
ог
##ay
архите
##вода
##qu
вопро
##нина
зада
наиболее
##ce
капи
профессо
информа
заклю
серге
##верх
оказа
вен
ио
##кин
##вление
сотруд
руковод
##льным
##нет
треть
##тельной
системы
ro
аб
##правля
##мин
рей
подго
##десь
англий
попу
##зем
##пере
##ит
образования
##щение
страны
##кор
началь
современ
##ново
##ющая
куб
##лью
дом
уве
хозяй
##трен
##лиза
прожива
вид
лей
##ствие
спу
##стри
предпо
бар
##кое
осо
##ниц
игры
тыся
сме
isbn
##тельных
пунк
способ
##рения
германии
сын
начала
окончил
оборо
;
##ристи
(,
смерти
##цей
здесь
кам
провин
##тые
победи
сдела
##тельный
фило
xx
##жу
##ou
##зирова
коллек
##вшиеся
##...
##нок
клуб
##гово
##ant
верхов
##iii
##бай
хотя
приз
##нка
орден
даже
зая
заслу
##что
##дри
##сен
автор
партии
особен
шо
##стран
монасты
##ева
##рец
позд
##лён
европы
верх
##ab
проводи
свобо
##ess
##лена
сельского
аф
могут
учё
##тых
##ждение
##тной
##рович
мето
начал
продолжа
публи
##ill
##грал
##шу
стать
деб
воору
утвер
гвар
трёх
##лой
течение
##дя
комплек
начина
##ph
##там
поме
семей
##зм
объеди
##ффе
##вести
чего
##вича
ир
руководи
автомоби
включа
функ
облада
##тельного
ген
##пуск
имя
ниж
мя
алексе
область
существова
империи
##чка
##мана
противо
неболь
закон
##нению
##пов
##ft
команды
##—000
радио
отличи
пари
объек
пле
##ell
тради
##кур
аре
необ
##ндо
стату
распростра
например
##числе
анти
красно
перво
000,
сельсо
выи
пря
''«
места
альбом
мл
мировой
аэ
ат
ита
един
ордена
##вшей
похо
##тря
##лого
##пли
##вов
позже
##тена
расска
##0,
деся
иск
назначен
кораб
будет
материа
ленин
рим
поста
культуры
##надле
##бар
z
##жной
##вид
##хозяй
##брита
##ана
##дения
##щие
завер
стороны
внутрен
##ступил
##сф
##чается
##лга
связа
большин
##стом
прода
##ub
принадле
являются
некоторые
##чер
владимир
королев
##нару
осуще
возвра
##тр
револю
##щего
рав
игр
еписко
факуль
эпи
услови
необходи
##жит
##стья
глу
влия
взя
спор
настоящее
пы
##фильмы
##ект
##ланд
##скоре
##гли
##доста
##менно
поги
тро
май
переписи
##ступа
##лад
##риан
##вшая
бассей
мон
##сок
спа
художе
##выми
компании
##спи
командова
этих
##мах
описа
##ум
##нда
промыш
##ak
##|000
одного
##льский
##послед
церковь
##if
экс
тю
фото
##фави
захва
играх
тот
советского
##рах
##чным
содержа
жителей
iii
уч
##оте
##ствия
берегу
##вают
(0000—0000),
##тные
##тчи
алфави
возду
школы
управления
##мию
проте
освобо
##рук
доку
##лых
борь
чемпионата
##тельные
##ud
постоя
чемпион
женщин
проду
соеди
несколь
наро
##нам
число
##av
##ниях
входи
менее
##стой
ката
количество
великобрита
##тина
хоро
##никами
честь
оп
всё
зако
##брь
каж
0000),
уз
удо
меся
##ологи
тек
##мость
пози
института
персона
поле
##еха
тогда
##тика
мир
геро
кара
дми
00:00
съ
скоро
##рина
российский
##блю
##жных
кали
реда
кафе
иде
выра
рели
первым
губернии
организации
##all
умер
##йти
##рую
многие
серии
##ез
##даря
остро
почти
##менова
##ок
##бран
первого
большой
##рес
типа
to
лё
граф
##джи
селе
мм
##дор
##вари
пода
##цами
вскоре
нью
ск
ап
ата
возгла
##влен
посвя
брига
##щей
професси
##нодоро
##пле
права
##гры
секре
титу
участвовал
##ine
занимает
##эр
дере
##тка
##up
учре
самолё
##лка
##стр
мен
отли
станции
констан
##рва
##ис
зву
0:00
##реме
##ge
контро
##нес
##лова
депута
тай
находя
##новь
работ
##графии
источ
военно
обнару
класси
своё
библи
гар
##тить
меха
макси
доста
000.
экспе
ред
##смотря
сня
сю
##ходят
##шка
препода
пси
ль
таким
отра
ска
##лина
месте
xix
концер
техно
##выпуск
##ik
шу
села
##шло
общества
##пись
##шта
предприя
фили
##дат
##нки
социаль
##ционной
людей
##ав
##гель
сезона
нем
несмотря
##парта
транспо
поддерж
##мена
допол
институт
см
вновь
исклю
герой
семье
##ревнова
##сад
медици
др
детей
премии
власти
маши
москве
##мая
##кет
клуба
00,00
##ктически
##лые
##телями
0000/00
огра
контра
независи
##росси
карье
новый
##вили
##вёл
казах
положе
##чное
##ческое
фер
##клад
##риаль
##выпускники
соревнова
общи
0000).
##вёр
осущест
##дже
клад
инже
##нская
джон
##последствии
##—00
##ne
##ственные
##ae
бого
ходе
##публикова
le
благодаря
##нно
##ip
##сма
##нное
популяр
##пор
поэтому
святого
располага
джа
##ктором
##тех
стрелко
##лог
команду
учили
##лях
##жество
медаль
дивизии
железнодоро
собы
##гру
##чном
##ian
озе
замести
учеб
момент
##льд
##оны
различных
000)
линии
сохрани
##лый
##рского
которое
позволя
земли
##):
чёр
##хан
геор
##рис
##реа
ори
##док
полка
сп
##чески
войск
острова
##тного
оде
##руг
##вала
восста
филосо
река
##лки
чел
##вии
опубликова
##менталь
сай
языке
двига
##запад
##емых
000—000
##нё
##няется
##гна
обя
алфавиту
носи
форма
мак
симво
##»).
мастер
##вался
##писы
уро
основном
##йского
жан
ним
премь
##бом
##муще
##гия
отсут
##нском
четыре
##se
##исто
кубка
##ber
##нос
##обре
развития
##дё
уничто
киев
частности
брон
фильма
чемпионате
##мого
твор
##зен
станови
студен
москва
##част
##рует
школа
##еры
ара
непо
##ct
впоследствии
##ябрь
православ
производи
ne
##bo
##начально
пен
метров
первые
##йской
##io
пав
сопро
##оз
близ
##петербург
##ствуют
##шил
грани
рф
разде
##формирова
##листы
##лами
герцо
ряд
##дах
работу
дер
артилле
многих
роли
финан
##вел
расстоя
полови
##сам
кладби
##нских
роман
профессиональ
свет
своим
прекра
ито
расположен
##жный
##пыта
говори
ву
совмест
нескольких
император
энер
sp
моря
песни
##льского
##кке
тысяч
гро
италь
джо
##туа
образование
##ментов
ar
бога
промышлен
гон
##ссы
##ich
##мати
бит
##вели
ам
##раи
союз
for
государственной
николай
##кими
com
пора
пробле
##туре
##льном
округ
##езд
компания
канди
##льку
##луч
##даго
северной
вет
##сан
верховного
##шее
##шем
тыс
брази
мужчин
вое
an
##тию
населё
##жо
##und
великобритании
##ran
##ческим
пример
отец
знамени
еже
«''
государствен
##пархи
университет
##sk
##дами
проходи
рам
##вшись
)
##рский
##фици
государственный
сезоне
##образова
бал
жизнь
##рав
##тона
##сной
серебря
края
(0000,
##тором
прибы
##мс
##кую
##ющее
##образ
произо
таких
##нией
##дю
король
именно
подписа
##лье
##щую
расте
##ёлок
рода
мощ
##лении
наблю
стало
##йский
священ
пяти
##лам
##пет
##чением
полностью
середи
случае
ау
##te
##менты
министер
##эм
переи
бю
ранее
дальней
##бил
констру
отноше
млн
колле
регу
сей
##ковой
обычно
внеш
полк
##ver
названием
(),
построен
список
эффе
##рово
пись
##гом
##лирова
струк
##тья
##ведение
нового
веду
мате
тол
##воль
кажды
сцена
альбома
##цкий
безо
##ственным
должность
нас
мину
погиб
система
аг
китай
выпуска
бро
музей
спортив
новой
##риса
закры
воро
##мень
себе
##торов
летних
##эль
столи
первая
##вли
уг
уго
##rig
библиоте
пересе
деятельности
##лением
авст
порт
мало
##end
участник
посёлок
&
длина
присо
##тельное
##ческом
помощью
уста
##чай
баш
упомина
„
возрасте
##скольку
матче
обозна
образ
некоторых
##реж
био
бор
баталь
станция
выда
языка
кило
особенно
чет
важ
th
##ведён
италии
сил
ман
московской
срав
принял
##нений
##:0
указа
край
##един
другой
южной
##ково
вок
брита
##персона
дебю
членом
ra
русской
жена
почто
уи
построе
полков
##кса
ниже
завод
неу
австра
техниче
##лян
лондо
поскольку
вышел
брат
##тво
##щён
оби
успеш
государства
##нил
##женный
шах
##чества
уси
дмитри
деревни
пехо
основе
##нении
##ust
потом
##тым
команд
рома
русский
##вшим
профессор
милли
поки
стро
00-00
григо
##нику
веке
команда
протя
мэ
организова
решение
режиссёр
оружи
##man
##жей
##вались
движения
войне
##сток
кладбище
попа
постанов
тон
##чик
##гина
##ьё
получила
эр
имеют
проект
сериа
писатель
язык
относится
специали
конкур
такие
кп
ленинград
реше
##строи
##ile
##сфср
израи
##!!
##юр
инстру
##кал
##тная
андре
##цент
##катери
первых
##льт
млад
##доль
низ
син
иван
##ack
бой
##надца
##тана
гвардей
##ционного
##ременно
прис
##сериа
##нены
встреча
##ok
вариан
##ваются
sh
(0000—0000).
стран
##вляется
##ландии
##кает
однов
рсфср
##руется
люби
социали
##our
##гну
патри
характер
выде
форму
позднее
00000000
завое
вернулся
бом
ответ
##сматри
песня
бур
##лер
торго
вар
гидро
эми
##граф
##байджа
дэ
которую
чемпионат
##зербайджа
болга
##лая
христи
##стоит
##това
епархи
##вё
проя
##фф
##ens
фри
##гам
##ind
##тировал
##ционных
доктор
on
действия
##раба
##заи
сове
све
##нике
нет
##ight
михай
университете
##лович
главный
выступал
кавале
sc
сергей
американский
мед
тома
##»),
поверх
con
представле
педаго
версии
конца
##кция
убий
##ast
##лож
##лах
ныне
корпуса
присоеди
##стью
дороги
архитек
##толи
происхо
самых
##груп
аэро
президент
здание
##носи
дня
эпизо
##тельная
##под
##пру
мин
##казом
##сия
крупней
искусства
совреме
расши
последова
выпуск
газ
александра
##рос
цар
уезда
##ry
причи
мета
##чную
мень
##нить
##дино
нару
посёл
весь
##льской
##тара
##тисти
##бин
подготов
пыта
##00.00.0000
iv
наде
главным
0000:
микро
##ложи
полно
ул
pro
##мокра
духов
академи
##рист
используется
темпера
##тт
##сми
##ea
##дан
##ума
##гото
##ity
мол
синг
##вить
президента
##хом
ей
москвы
***
иногда
дней
ие
лау
присут
##ain
московского
азербайджа
литератур
история
##серва
происходит
противника
безопас
актёр
##берт
##бина
бан
джей
##тик
видов
культур
мире
отношения
##шев
правитель
##метра
удалось
##кли
##логия
##они
расположена
принадлежа
книги
возможно
##футбо
департа
поте
la
екатери
##зия
нём
возник
am
либо
##говор
примерно
четырёх
заве
цвет
самым
##сср
забо
##рован
##льную
афри
##стива
пользова
##ферен
отказа
целью
гим
##дам
##чем
правительства
##чении
##ort
сср
михаил
##right
архие
##ёра
##чены
##сред
##нили
повы
##жением
выну
перево
неиз
требо
##ue
руководством
ассо
каме
##рко
молодё
спорта
##сою
одновременно
премия
##бля
##ственное
матча
##роят
номина
разре
награждён
mar
деятельность
##жай
##пом
бен
большинство
##берг
состоит
дочь
двор
крепо
##ass
корот
##били
##емый
остров
кафед
представляет
##iz
сум
##эк
пригла
бло
компью
провёл
ленина
##сова
окончания
рабочи
##нс
##eg
##вила
##гар
заво
музыкан
##персоналии
##слов
##»''
().
разру
##тации
зависи
марш
трудо
короля
национальной
##бурге
pr
##ect
внима
отря
##ковского
##рги
##оном
##мых
неф
фла
деле
##рудова
став
фильме
обеспечи
испании
попы
провинции
звание
возможность
предложе
устрой
##тической
квар
##няет
##мат
##сур
##суль
##ment
море
im
фё
спорт
пути
##гор
генри
подоб
городского
которым
психо
##пления
выпущен
свер
##ционный
просто
##ос
домаш
поселение
##порт
##их
##чал
##езда
##тории
##жные
##бир
долго
школе
##ck
стандар
##ib
должен
художник
##тельным
записа
класса
печа
степ
сни
##ссу
исследования
труда
##чался
##тины
област
суб
руб
##стров
сказа
становится
##читы
другими
производства
##de
##ческую
##age
пти
##нико
##чет
школу
управля
формирова
##жная
##цкого
сна
прав
кто
неё
напо
##шед
вызва
##чо
##-0.
##кана
хан
памят
##лон
##гля
футболист
выступи
имел
службу
##фли
##сей
рядом
начало
##теле
этим
новых
силы
эпо
00000
поля
парла
##ob
фронта
карьеру
петер
рамках
сочи
спра
книга
второго
##емые
религи
ото
первую
первое
##ями
василь
воспи
##разде
секрета
##рыв
##ies
ай
отправи
поми
##ang
меня
##печа
##циях
клю
всей
##бок
##col
##строе
строительство
##фина
реко
озна
пост
##дца
##зне
##жений
числен
преступ
другим
##члены
соору
##тива
##сирова
прото
##имуще
##тили
главного
доче
##родившиеся
неа
##ссажи
##чего
##ug
владе
##щена
путе
памятник
##ive
часов
практически
образу
rec
красной
##цикло
##чными
поддержива
охра
фин
пять
комитета
пове
##жден
покину
##доров
##чена
инди
двумя
фами
##сед
св
спустя
запре
удар
празд
японии
улицы
##зин
##вшийся
выбо
##рай
жу
##ond
##ётся
хе
пожа
##ковский
##мель
##тино
##рирова
новые
потре
##золо
иванович
цвета
анто
##пря
##.).
аппара
лег
поня
упра
первом
частью
деревне
маршру
перешёл
избран
##воен
дело
бес
существует
##мок
##цем
##кты
##чности
##—0
##свя
пье
мер
##шает
порту
##вшихся
##нни
##кл
суд
##гло
bl
епископ
##близи
##кер
христиан
сезон
опы
социалисти
службы
коле
сторон
отличие
зу
плат
##ate
##ведений
##циона
##мера
моги
массо
##ma
##нюю
##лета
##точно
##чению
героя
сразу
##sp
старо
долла
##нена
нов
##жного
яро
газе
##щу
председатель
or
филип
работе
крым
данных
восстанов
пока
преимуще
воды
приобре
##рик
развитие
##бурга
свиде
##.),
ограниче
##рение
воздуш
обви
##ющими
разо
##ченко
русского
##циклопе
отца
##жён
тому
##рит
вместо
швей
вв
реали
##ющем
титул
семьи
##голь
плот
плане
пои
британ
вене
##ственная
центром
##туру
коре
##стры
bo
бронзо
ван
свобод
обороны
##валось
приро
##луа
##зды
муниципали
простран
##ваться
##дил
хол
характери
##sh
##стями
видео
помощи
зим
выстав
стади
##ал
%,
##щается
шве
подразде
доба
храм
средне
##тке
люди
эту
судь
##фикации
перееха
##пой
англии
оно
каждый
переименова
советской
##ясь
находился
поро
##ад
##щим
0000-0000
предоста
центре
##боро
най
##ковых
основной
пово
пассажи
летом
статус
сен
поряд
##ёры
возглавля
(00.00.0000
еврей
he
инженер
многочисле
мать
военного
##эт
реаль
харь
бук
друг
четвёр
покры
речной
##фон
##нился
##музы
виль
национального
флота
##лк
законо
##рет
последний
дополнитель
заслуженный
кг
старший
очере
разных
медали
##реги
кост
операции
лиги
сви
##жида
нидер
##ung
##декс
ракет
футболу
земле
юри
проекта
##тельности
##прав
поко
революции
пала
ини
##»;
произведения
##ционе
боя
##рест
##щик
ассоциа
некото
быстро
должности
хими
вероят
##sch
##вень
##вай
интере
оле
считается
оборудова
##лит
##цом
гимна
ура
тренер
служил
бай
оцен
научно
##пуска
снова
##ith
##участ
рее
училище
##ica
дел
##мое
женщины
продю
президи
марте
доступ
программы
армия
газет
избира
кле
хар
бел
##фран
создания
##час
определя
орденом
премьер
be
маль
петро
орке
белорус
метро
иностра
##чины
##ссия
бель
сентябре
проходит
##ire
поступил
дивизия
сара
##ус
помимо
##ex
хокке
##''),
играл
u
сыграл
истре
зам
включая
##дон
джи
западной
##фан
##май
командир
##гни
##ru
скуль
чар
дне
большая
##рем
##нар
деву
красного
дебютировал
сообще
скульп
искусств
##ай
##ish
##ностей
##вок
време
середине
небольшо
##начала
учился
##мые
площади
##one
армя
удосто
моно
##вского
посо
##ff
добро
##способ
record
большое
##сами
агент
швейца
граждан
##ённых
at
ресур
реши
##чено
занял
en
этому
оказыва
мага
оке
центральной
цве
подчи
##тём
россия
##ссер
гол
наблюда
голов
##нял
территория
евге
##00,
##нден
науки
тяжё
+
украин
оз
##купа
мае
##коми
ed
pl
подвер
максима
средства
джор
##тенант
##rom
##ure
##заимо
эд
гран
князь
рез
анато
коне
фир
участок
должны
эки
##ционные
##стьян
преды
##гани
##годня
али
призёр
##йорк
##стера
сет
последу
##деб
##зей
##летия
дю
##тали
лес
январе
предпри
свое
относя
оль
потеря
##ly
##тике
завода
безопасности
##неры
известен
дина
##сель
предполага
митро
военной
привле
ma
числа
коммуна
##ждении
получа
ил
##лект
еги
оригина
выигра
отве
ника
волости
xviii
##son
##нять
досто
пункты
взаимо
##щены
коль
##щает
песен
col
георги
артиллерий
ближай
августе
cl
сначала
транспорт
астро
известный
##валась
октябре
театр
##rid
##вно
0000;
здания
##лений
контракт
##или
des
состава
подгото
##лло
протяжении
герои
муниципального
корпус
широко
##графия
##жить
##пусти
экспеди
сли
декабре
собира
(00)
предыду
##фии
выпусти
##лень
перевод
суда
самой
##ктов
##na
##жает
##лению
##шко
штат
##нном
ситуа
мю
##жем
собствен
доме
##'').
##жского
международного
водного
скон
##рк
дис
осуществля
религиоз
принимал
лучший
внутри
сельсовета
##вшее
отда
энциклопе
##тое
алексей
йо
комплекс
##дёт
всегда
окра
##тием
усть
долларов
##техниче
##ствовал
запо
##чек
##тических
журнала
##вольно
укре
##чков
каз
##мато
преобразова
кандида
##все
музыки
присвое
##падает
0-0
##нкт
сокра
экспо
рассматри
азии
одном
##ep
партия
##ron
брю
##вец
дипло
первоначально
приходи
мнению
португа
##жать
разно
непосред
сельское
убе
##горо
узна
жер
стране
##дого
чув
жела
правительство
множество
технологи
сына
совместно
##лено
сыгра
уезд
##союз
new
статисти
##рэ
##леко
превра
##дови
вышла
##гами
румы
охо
##рам
жил
штата
##жества
графи
уилья
##рому
##барди
##хороне
президиума
00—00
яр
высоко
##ятся
андрей
##плуа
управление
дворя
##мби
##чён
директор
восточной
вин
mus
городской
спортс
лёг
##ристо
своём
##lin
##умер
известно
##назна
кисло
##ври
игре
соответствии
##вказ
хорошо
одино
##сах
супер
par
##гает
сформирова
механи
##ost
неизвест
##кут
конститу
железной
болез
солдат
друга
начи
совершен
##вла
уме
губерна
тела
экипа
аресто
регуляр
выя
сборную
##ровки
маги
##амери
июле
путеше
##тацию
указом
##ier
##емой
самого
номер
##сил
боевых
преподава
хро
##станции
лат
##жены
##ксу
архе
коммуни
такой
##ниями
работает
позиции
модели
##="
принци
##хар
правило
##тельность
фестива
очередь
##компа
сельсовет
фра
мари
истреби
##мед
##зон
##ющихся
##ign
##ющиеся
##несе
##нау
##ld
гражданской
##стях
штур
der
систем
чере
герман
##ровка
бассейна
##тические
##виду
эска
преду
иоан
членов
супру
подтвер
движение
новая
финансо
различные
##ical
вокруг
ква
file
любов
коммуны
##новой
й
парти
##зиден
##кторов
недоста
##перь
смолен
военный
боях
##лями
me
##лай
пило
границы
конфли
пото
апо
##констру
records
автоном
главе
вру
святой
броне
пита
стоя
партий
пру
##сем
находятся
предназна
шот
веще
сми
##чета
##тку
базе
самостоя
теории
италья
обяза
формы
##ert
иль
##участники
мекси
##ённые
##фер
создан
##вский
гово
und
##лева
июне
литературы
утвержда
##щении
программ
##000.
##тным
экспери
##степен
##ork
##тиру
##стрирова
##жской
заму
америки
недо
апреле
факультет
производство
категории
консерва
конферен
значение
##пред
мария
##бен
##az
точки
победы
0/
увеличи
водохозяй
ph
сем
уровня
написал
содер
сильно
наслед
военных
изгото
заместитель
##oh
##)''
молоды
##жности
тяже
##ям
получили
##дит
информации
##вол
##так
события
##форм
##чемпи
##пля
герцог
(0)
колхо
##метров
эль
одну
##кина
ноябре
являлся
##ev
огром
побереж
сопрово
семи
полё
##дить
##for
достаточно
выбора
##риста
серия
изо
##les
##цам
забил
##дио
##лию
позволяет
##никам
##ory
внимание
##спомина
архиеписко
белору
октябрь
зри
инициа
##произ
##коман
последние
ex
изменения
сегодня
позволи
владимира
актриса
##iss
вес
вся
иванов
действу
##сев
строительства
норве
эксплуа
демокра
##скет
есте
условиях
иго
занимался
влияние
опер
деревя
приве
матч
райо
##ссов
неактив
общей
##ear
##тни
##olog
насчиты
работать
наза
вя
использовать
войсками
##фильм
большого
##лод
пункт
оце
стары
##ern
##фы
##сни
исполнитель
понима
##pt
требу
упразд
французский
начиная
##евна
буд
##кали
##нья
административно
##све
##ющую
телефо
бомбарди
##yst
##шел
##тического
доби
##хам
региона
##шими
мог
0000/0000
основные
средней
турнира
##ёв
наличи
##мм
диссер
итоге
наступ
правления
имели
применя
##тори
феврале
испыта
##фицирова
евре
практи
соответству
##бус
пале
победу
звё
группе
похоро
журнал
метал
католи
##кино
кпсс
стани
##ёром
##:0000
хозяйства
##рас
выход
##зывает
ада
теперь
паро
##пр
##падения
великого
активно
промышленности
включает
джу
кампа
артист
десяти
модель
##ial
##чество
##дру
штаба
##американ
##ys
##ьёз
пенси
пору
протекает
##ien
реке
владими
отделения
всю
##либо
регионе
комиссии
оса
переме
славы
##бель
el
системе
проведе
##ческими
изд
##пан
тепло
рок
министерства
##фра
пан
##слава
##тельную
##ремо
вице
предме
матчей
следует
группу
изображение
степень
улице
странах
##кле
##нером
арген
начальник
##влено
##син
##строен
0-0000
##зор
##ера
зали
дмитрий
##бек
которому
неодно
пушки
##евский
крей
исполни
##land
##формы
##ённый
##ляции
организация
##вд
певи
##веден
польши
пласти
князя
версия
цк
электри
##ong
анали
путь
православной
зрения
##ссив
именем
отстав
периода
офице
##чая
##ros
##чить
##ложил
##най
##вало
##нением
##тыми
##доб
немецкий
##шер
лит
основан
##дка
##тное
факультета
исследований
особо
##емого
сопер
значительно
мел
названия
##ta
сиби
девя
##me
сена
бела
##ata
капитан
вось
##бассе
##co
фигу
неда
севере
вале
следующие
##щем
лин
объяс
память
sch
##похороне
патриар
##умершие
начали
##футболисты
литов
##рика
татар
##ult
фре
педагоги
состоянию
региональ
путём
##язы
скло
шоу
##рг
##слова
виктор
##коль
квали
боро
музея
вида
косми
as
##см
случай
сторону
##гах
##лине
##мани
созыва
счё
##ace
городов
храма
средний
императора
xvii
престо
коме
умень
юриди
новгород
##похороненные
нако
компьютер
##ровский
силь
##зья
оба
расстояние
##станавли
составляло
ряда
демон
одноим
лучших
##вка
vi
##ick
зад
##реат
спб
рождения
указыва
inter
некоторое
происхождения
композитор
##рица
значения
##шек
##ровского
михаи
первен
et
##анд
шести
будучи
телевиде
##бло
книге
востоке
юге
##per
##isch
co
состоялся
##кен
сау
##ah
леген
приводи
относительно
##жан
##ivers
династи
##",
официально
власть
программа
полковник
##тился
##тского
##чность
эсто
марии
эффектив
кэ
швед
состоялась
##крас
юрий
##рской
##щено
##ach
законода
развед
расположено
угро
##бет
вооружё
выиграл
лауреат
##мую
##ждена
вои
армию
##гон
##кка
шар
книг
отлича
##зю
обита
округе
прежде
парк
василий
сама
серьёз
бывший
историю
предприятия
средств
ах
институте
дважды
общество
слово
госпо
##центра
члены
##телям
сосед
##лым
##худо
прямо
##туаль
записи
своими
месяцев
##-00000
писал
война
сейчас
##ющийся
монастыря
##служива
призва
позна
##he
должно
научных
##берта
установлен
большую
##али
игрок
марки
крити
семейства
дебют
##тиви
русских
карл
##скетбо
довольно
##одо
главной
##йские
резер
і
оши
отдела
##никах
зелё
стороне
победитель
##ont
знак
длиной
продолжи
предлага
##кора
##грани
малень
эм
##защи
проспе
дене
00:00,
озера
it
##ряду
самый
##-00,
предела
крестьян
##ice
бре
кир
##que
нидерлан
соответственно
##скохозяй
догово
обязан
##куп
твер
##ватели
0—0
николая
дальнейшем
##бассейн
##ковые
национальный
##orld
вслед
следующий
##ллер
дочери
венг
крестья
us
снима
обладатель
##новский
inc
животных
счёт
далее
##ina
финлян
##обще
товари
норма
верши
##фом
фильмы
##мым
##оли
##:000
сопроти
##смотре
##гран
сро
##йская
кита
экра
##вляет
жерт
##стики
четвер
сами
всем
глубо
команде
австрий
##вос
добы
##влением
луи
сельскохозяй
##тский
##диа
##тивы
процесс
##динамо
представителей
##руса
раза
гале
решения
##клады
##емая
##нено
##стами
оа
##aw
гото
##ational
имеется
потому
##рыва
коммер
##например
словам
лабора
турнире
##тую
представители
##мона
##ул
звезда
##евского
острове
улуч
турнир
##зве
действий
##коро
председателя
##ждений
##жал
ad
##бан
циф
индекс
подро
начальника
поэт
##вании
могли
сос
стиле
##террито
произведений
##pr
петра
##чку
##ровской
##вия
впло
##нную
пользу
реб
##нор
##терна
штаб
##возмо
##км
заведу
тюрь
##-0,
третий
вален
растений
##кома
закончи
казахстана
'
##эта
обслужива
арми
##гин
##жена
фабри
бригады
постепен
итальян
сфе
##ng
преимущественно
##мского
митрополи
проблемы
##тел
газеты
сети
ними
##гой
эфи
хорва
##кри
пого
##чий
xvi
положи
защиты
##истори
численность
памяти
air
##кол
##кратно
##".
показыва
эй
##зал
##логической
транс
00000.
##нице
смы
новое
звезды
той
основных
by
техники
фар
##чика
австралии
мель
монастырь
##полков
##ётр
заверши
использования
000—000.
глава
смог
труд
голу
спекта
силу
провод
##лес
щи
собор
борьбе
николаевич
ники
игру
тка
##стройки
международных
уровень
иностранных
создание
частей
##mar
##uc
бед
##рования
павел
##препода
муниципалитет
##льными
##ek
избра
старше
##твор
гло
##гур
сигна
##тический
копи
издание
марк
телекана
строитель
000,0
турец
самом
черно
##держива
распреде
целом
расположены
будут
##ними
кубок
вороне
''(
##ъя
занимал
современной
родилась
приш
##тью
man
лав
высота
описы
##ционная
##rop
положение
заявил
данный
заста
##право
народов
напря
камен
заслуги
зер
интерес
дворов
собо
данные
##чке
##стром
##шир
##майор
мемо
##ноше
встречается
крупных
общего
компанией
зависимости
графа
раун
крае
международной
##мый
!!
втором
##сибир
высшей
##нио
помощь
##нке
дорога
тихо
наме
##'';
##бий
vol
##ствовать
мере
##жению
##ide
париж
##нские
половине
времен
форме
уса
вторая
##ore
уровне
минут
вступил
округу
уо
российская
##тила
##др
##old
парт
варша
°
зака
кот
##0)
плотность
вклад
##вью
опас
##com
уровнем
выбра
языков
неуда
рубе
употре
паралле
##жер
##.-
командира
пят
##дение
должна
##щиков
ликви
философ
звания
выбор
##новы
страте
измени
##территориаль
##рат
##зре
выделя
##ms
##нирования
##лау
##бера
ды
номе
чита
no
##сных
возраста
офицер
аналоги
пропа
##ленной
##льти
раск
##группы
##ood
флаг
бразилии
присвоено
##rit
##рым
фильмов
##ward
##бал
сухо
##,00
##лада
##руют
##севдо
бори
александрович
реконстру
##нист
##товой
пау
tim
вдоль
чехо
##жду
##ниям
##жники
вплоть
космо
режиссёра
возможности
##фей
цели
лен
##ницей
лагер
##тере
##спонден
лиде
war
##рабаты
отделение
официальный
##элект
##кп
сборник
##тье
публика
семья
##вшейся
говорит
борьбы
##вому
кири
солн
##пти
##pl
природ
##режи
легко
народного
теоре
##ходе
##ленных
##ll
гвардии
ира
##история
изначально
##ано
конгре
##we
##хии
государственном
яков
начинается
сотрудниче
почтовый
тело
сва
##тс
##»:
дон
всемир
сда
арме
##ксо
направлении
шесть
трам
почё
##вской
##влены
лиге
осень
славя
спосо
##bl
##рья
мужчины
шири
проб
прош
##ьет
##тьев
выборах
постоянно
нам
##дию
председателем
районного
##физи
араб
ще
рублей
##гие
скры
##фри
международный
услу
##био
пётр
золотой
яко
министр
##началь
жители
##мён
подви
##-00.
депутатов
трав
дал
##''»
концеп
##cl
##преподаватели
##вив
##int
министра
царь
вошли
##стар
##нему
##тков
использование
##хай
рича
русско
анна
каре
##стен
wh
роберт
лица
инду
##yn
##ors
шоссе
советских
париже
набра
фронт
тип
известных
поддержа
белоруссии
0)
##кторы
comp
дети
##тю
окружа
известные
никогда
##ште
##рией
наиболь
план
бата
##шет
##сю
##респонден
театре
лейб
апосто
##лд
поверхности
##ционно
кано
##amp
##ary
произошло
##пление
сул
функции
народа
корабль
скончался
##ke
##метри
скорость
ассоциации
проведения
##бит
держа
калифор
результат
%.
почёт
российского
групп
##кии
ресурсов
участников
##тек
генерала
стихи
следова
открыт
fl
выхода
##музыка
диза
##au
##сел
##новить
стои
выходи
индии
молда
ростов
фила
##телю
сад
появля
кен
епархии
бассейн
##ict
песню
##шком
##рип
торгов
уэ
озеро
чемпионом
используются
мост
превы
##насе
похоронен
эли
##нье
западе
приблизи
##форд
from
##пора
you
посёлка
назад
0000-00
univers
world
леони
##лец
диск
представитель
мг
##стые
действие
проживало
##.»
оружия
суме
##генера
началась
очков
рису
ази
##груз
земля
сведения
насле
подвод
масса
исче
##бах
напада
##востоке
##щихся
фридри
##ics
вокал
одноимён
##довой
вече
лы
трех
шан
##тическая
васильевич
##тинг
начинает
##спорт
судеб
тём
0.0
бою
##зация
временем
вопрос
воск
##нис
средняя
##зами
происходи
повре
##чит
войну
трои
##фов
##сии
студии
##влена
называют
##вшегося
мисси
##тельном
весьма
командованием
след
соревнования
внутренних
вероятно
преж
##новка
##are
бас
000-0
премию
началось
зару
0,000
самоу
особы
современного
окрест
отряд
##--
линия
каби
свидетель
появилась
грузо
##стал
содержит
##юри
##тинен
каждой
##ows
появились
среднего
##uss
появился
банк
сделать
##ium
выста
принято
##чне
кине
колу
ус
ярослав
##кового
доказа
единственный
борис
владель
кн
исключи
упоминается
эко
входят
обрабо
вынужден
##зой
джона
мусуль
##ницу
##сят
##вшими
##нета
получить
экономики
бюро
##мп
##чемпионы
древне
второе
английский
##мян
##ove
##щал
рэ
соло
круг
мульт
постепенно
решил
0000—0000)
предпринима
евгений
полуо
южно
##рея
американской
##шке
горы
##жным
боло
##комо
псевдо
чрез
##ve
##нга
тира
жёл
запи
департамент
строе
расстоянии
говоря
взгля
упа
устье
народный
##.;
нему
думы
взаимодей
бей
увиде
##кну
век
семина
##стон
входил
машин
рабочих
островов
кандидат
##листов
##ходов
ими
##твори
меро
##сена
сде
##рона
архан
основным
ap
##цкой
своему
##как
##вока
##уго
сопровожда
мас
кв
##шал
миллионов
отношении
se
училища
искусство
гори
нес
ночь
романа
хай
сталин
##бии
потен
успешно
баскетбо
всеросси
поддержку
##гри
аку
арен
размер
can
возро
рек
работали
систему
линей
##гал
состоял
вино
so
##чать
участия
телефонный
ваго
проз
необходимо
книгу
##тео
средневе
гали
группой
русском
плен
бывшего
грамо
белару
##ура
главных
ориен
##анг
сингл
прошёл
полномо
##дки
##ордина
оси
итогам
одержа
подня
анны
распростран
##ложения
художников
корабля
рекорд
##ath
##жили
сборная
##тивной
##виль
сё
каса
дири
##нде
объекта
##ьер
##нское
кай
возглавил
##днев
фактически
##лос
##лённые
ум
##альбо
##дли
##долго
михайлович
##испо
называется
распоря
##стых
отправля
##жки
подбассейн
##вина
телесериа
##рот
##порта
##left
отправле
тар
кораблей
канад
дре
##фия
викто
##ash
вступи
##ствовали
церемо
сделал
столк
wind
преда
##gra
звёзд
##чев
##льда
швеции
визан
##шена
##леку
##дзи
ожида
брата
плани
##orn
удостоен
следующем
гита
петербург
##ere
магни
библиотека
##дный
##чник
##цева
философии
вошёл
новую
утра
##нён
комисса
назван
разработа
домо
##дие
##ite
(0000);
неоднократно
местности
##опера
солне
руководитель
законом
жили
##ложение
башки
дани
меньше
новым
чаще
населённых
кристи
событий
##моск
перегово
##/00
раство
оказался
политики
противопо
виды
причё
окончании
равно
возраст
любо
##шать
афи
лиц
выдви
##режисс
##рее
серий
моди
термин
##страи
выступает
директора
желе
батальон
выступил
квадра
##стойчи
поче
##»''.
##купи
тури
собрания
##шается
##лег
гала
большим
##кцию
##органи
выступления
##града
домов
оао
##тта
##летний
ур
##ous
глуби
##ченных
планирова
##реки
интервью
продюсер
##бю
государств
иб
лето
##ловский
per
види
##чёр
##зона
##эс
##ction
результатам
##ьев
горь
составил
индо
pol
иллю
создании
исполня
##циями
английском
##вило
##нической
секретарь
художника
собора
устанавли
##вард
##исследова
car
доход
имела
большие
##стической
##комп
момента
наступа
топли
поезд
переехал
##нических
температура
создана
##пя
появляется
асси
мероприя
счётом
администрации
##шён
маке
##кас
##рью
##щер
доктора
##idae
окончи
##дора
ссы
##совой
местных
##ждены
##ина
##сид
##завод
находились
кей
началом
вильгель
причина
каждого
донец
##лик
сино
##мета
напа
терро
греции
стрелковой
##мур
##лизова
небольшой
press
пришлось
учёный
00.00.
установлены
уез
располагается
##ark
тоже
болгарии
##ровать
переу
слов
карь
югосла
##влении
компо
##веды
##яр
республикан
..
##ann
осенью
редко
##новского
сельский
подписал
историк
соба
драма
состоянии
советская
##be
обеспечения
экспер
##ведены
вариант
лично
гей
крест
##низации
люб
##вленные
автодоро
%).
местного
общая
дан
##восток
осе
стрель
комбина
среднем
##выше
общины
москву
ввс
создал
##щими
##ise
##рун
##спор
##чие
##стане
работала
with
##тран
##солю
построена
##игры
##уз
мур
##нический
километра
профессора
зло
магази
империя
##логических
##ведена
индивиду
##бей
найти
##ale
##петербурге
гера
сне
еще
##хими
гне
обучения
символи
играть
табли
посла
##order
сообщи
наряду
##авто
вести
##вшую
районов
qu
сюжет
президентом
французской
смеша
##ka
зимних
двой
морской
пунктов
award
директором
территорию
##тения
остальные
основания
##тле
##джер
##сомо
del
##метр
пок
##ym
муниципальное
реестра
##возгла
##ровал
карла
означает
газо
##тивные
##png
встречаются
астроно
выска
результаты
матчах
основы
стр
основании
##ак
причём
полуфина
принадлежит
высоте
куда
попал
объектов
##сай
украине
сочета
текст
гости
кад
психи
ser
украинский
##ition
##семь
##чью
##ild
капита
втор
здоров
правом
солда
##sc
фай
оккупа
австрии
##новому
##мами
выборов
##unt
этно
##ловской
канады
основана
ава
##менте
порта
ядер
карте
великий
приняли
стоит
##тивных
замок
михаила
##мова
ани
##ленные
##знес
##пис
времена
речи
##шах
лондоне
##мате
##сий
##сант
мака
ала
##пресси
##ковая
стихо
##вленной
константин
we
хозяйств
##mer
издатель
срок
##экономи
0000/00,
секу
рекла
степа
проходил
составляла
издания
fran
гитара
наименова
оон
возника
##нического
батальона
##тория
центрального
##памя
##ze
магистра
продви
беспо
егип
депутат
##att
современных
образован
попада
другом
архитектуры
##укра
##хин
парламент
##совет
синте
органов
хре
эду
##enter
статьи
мото
##облада
монго
русские
##ево
##энер
##ствием
венгер
хле
населённые
вест
материалов
##гене
граница
московский
заболе
впадения
конта
##новения
##реаты
опере
изобре
##фана
игорь
интернет
династии
юг
энциклопедия
уголов
неве
журналист
расс
##льская
дороге
нарко
непосредственно
##западе
##граде
куп
вследствие
−
рекомен
##воло
ничего
картины
руководство
##con
##ковым
воспомина
китая
связь
##ченные
##вшаяся
##эл
воин
предо
##сили
##0-
##ленд
##реза
месяца
заседа
клет
финляндии
документаль
невозмо
##ott
российских
моз
##хара
получает
art
телевизи
индий
карти
##шению
относятся
##ходы
##ubl
##oph
смени
дево
заводе
полити
мело
совершил
харьков
##надцати
хло
ля
опу
зал
республике
##жное
эпохи
организаций
живу
объё
технологии
доли
отдельных
весной
замени
##шина
процесса
##чений
проблем
дар
te
третьего
сверд
##зиру
километров
меч
##вшем
студий
машины
авиации
жид
иска
расстре
##канчи
млрд
автоматиче
##андже
осве
переход
абсолю
##ори
боб
##москов
прито
концу
серб
драматиче
ибн
политической
напомина
передачи
отвер
лучшим
вооружённых
##село
сайте
получения
0000);
чай
##зок
материалы
орби
сюже
##бели
##гей
финале
приблизительно
грузи
найде
##пп
##пии
имеются
##''».
объединения
кер
##вис
лётчи
раско
очеред
модер
##нат
закре
##iel
##aj
##fl
##лега
уника
##ам
##жский
##годно
руки
адмира
##чают
##ius
югу
стрелкового
ико
(0):
клубе
паль
неактивными
конференции
ивана
битве
украинской
##цвет
восстания
любовь
##матики
##востоку
мгу
##кций
##пси
направлен
дворец
веков
##лланд
##поля
##чнее
вызыва
запу
##ux
##сения
самолёт
определён
##жено
бассейновому
##шены
договор
бир
свободы
вопросам
такого
британской
##депута
американского
##жка
ого
tra
##ca
газета
воздей
елиза
подготовки
##стям
тонн
##вере
##ans
hist
послу
водных
розы
отрица
получив
##комму
моду
##щики
служа
иоси
консу
##крови
географи
новосибир
заняла
разработан
##gl
отправился
гиль
приказа
бума
отряда
львов
##реди
##поле
това
ом
частично
гене
сериала
надпись
бригада
писателей
эва
валь
##вери
##дел
##женные
зао
(0000-0000
бота
##мара
##ёров
##терпе
##тация
##рование
##монт
колумби
windows
##вычай
музее
оружие
##цеп
младший
##нав
поражение
|
##дили
решением
изде
##кратный
лейтенант
лос
разби
##мас
существуют
##нским
американская
du
зарубе
gam
константи
##сив
арестован
реку
##./
##ственную
готов
ер
##гитара
слишком
##новых
достижения
##метал
командовал
##mat
начальником
асср
##ственными
местах
##дзе
олимпиа
стари
##мос
дни
аэропорт
##шинг
генерального
фанта
##дал
конку
рыб
эдуар
городах
##мам
форте
бараба
##ксуаль
министров
шер
покинул
остался
женился
##лём
вторым
входила
неде
индивидуаль
##ковый
##хранили
##редо
##рополь
тенни
бизнес
##товых
царя
##вит
петрович
ансам
премьера
рожде
op
преследова
командиром
##жом
сар
##кля
вока
##восточной
##охра
gen
##альбомы
осна
спортсме
съём
гипо
##москва
вошла
документа
высокой
лоша
исторических
##чих
игроков
экзем
##ологии
выходит
сравнению
##ъек
сказал
##два
находилась
предше
##ань
деньги
серебряный
иркут
##сп
##хро
контроль
оо
евреев
краси
безу
процессе
ge
бру
моро
##кру
мили
##ричне
случаях
дании
замуж
##ленный
древней
##шить
ано
мне
месторо
##пто
чинов
немного
археологи
карьеры
родо
соревнованиях
больших
количества
карто
##депутаты
##новил
ов
симфо
##тской
провозгла
существу
хор
координа
традиции
##лово
##кте
сих
##западу
станов
##тную
минера
предложил
##ходом
масте
расти
преподавал
определи
слове
братья
pla
сообщения
электрон
республика
##тивного
gro
лев
##пят
##ственном
анатолий
порядка
сержа
##сё
направления
##тника
северная
##скар
моне
база
венгрии
марок
gr
gu
##данные
пулем
национа
##чами
изображения
##alem
армении
##color
герб
землю
(00:00
крупные
ребён
##акт
музыку
востока
талан
последнего
комплекса
##жность
##зоб
ох
##тренеры
наконец
такое
##бл
заниматься
##ченный
##информа
0:0.
избе
##ментом
рейтин
чрезвычай
кал
играет
##тном
архитектур
гай
##ловского
бле
иметь
##to
##ock
всесоюз
ab
##ogra
отношений
##шку
глаза
кафедра
набе
чехослова
##тельными
крепости
исключением
my
##own
##лейтенант
##еве
##пин
##петербурга
start
##щика
##президен
##ист
успех
stud
автором
di
саратов
звуко
##дне
возглавлял
медалью
##чье
нынеш
катастро
имуще
соав
европей
##мович
##сторон
финал
элементов
схе
принят
любой
восток
##бка
папа
като
...
##кавале
курс
##ката
##рьевич
воспита
костю
##подоб
ac
уильям
##ican
транспорта
народной
дро
назначения
##русали
корпора
государственных
семё
претен
##дных
топо
##стого
##gre
согласи
редактор
##льском
комитет
этапе
большей
жо
увели
обсу
##вик
восьми
специально
природы
двадца
диалек
вопросы
##лауреаты
исследователь
##ai
осад
0-00
приводит
спро
##единён
заместителем
##фикация
джеймс
элемента
##архи
##стивале
##нём
##сках
фоне
кардина
##ара
##act
##дт
статей
государство
леса
политический
##тип
##льф
пр
орудия
##квар
французского
ужа
конец
известна
##печат
##лыми
силами
дели
##чики
жены
связано
##националь
ежегодно
##ждению
##ждая
обучение
турции
##нуть
##градской
##-0000-0
метод
##моло
оформ
фронте
франция
америке
##national
северного
гли
главы
группи
прогре
##ger
##рео
атлан
любви
архангель
##нит
##чиков
##полковник
вьет
##чом
свыше
сцене
элементы
женщина
##шении
блю
гам
дисци
рассе
городом
##ther
кафедры
типо
0000—0000.
##виков
полиции
посад
vii
incre
привело
парка
снаря
наполе
отставку
##стин
израиля
##ton
созна
##дре
верхне
##гий
устройства
##денти
госпи
##влека
подъ
состояние
##корто
ver
нер
##художники
композиции
продолжил
здании
##дут
предвари
##ала
##ристы
##луб
пусты
реша
исчез
джек
##сный
тимо
конкурса
одо
запись
научной
командой
опо
##ance
ворота
руководил
петров
вышед
##хен
##лс
языках
портре
единственным
времён
кё
##работа
##ньше
сотрудни
марка
диссертацию
лицен
##рхи
архиепископ
##логов
##уса
##0000)
железнодорожная
##xv
##виш
зато
данной
скан
вдо
возле
##шель
писателя
возоб
##рская
предприятий
0/0
крупнейших
##лиру
##никова
хер
студентов
мене
##листа
00:
опа
балтий
спец
##нул
##пс
##моно
экспедиции
разные
##куда
каль
иса
cd
автома
канала
журнале
сыном
домашних
##душ
##yl
music
требования
mon
уво
##нгви
используют
леги
##лёв
стреми
гет
издательство
голосов
ирландии
##гали
##ровая
высокого
all
операция
наказа
##рда
##турой
##ner
нужно
посред
зареги
##кости
##логического
##лана
сооружения
ежегод
причиной
ряза
кантона
яй
масшта
усадь
политических
света
англи
лучше
:*
##ient
эт
заби
биологи
последних
сравни
##бки
##лога
холод
##дные
кинемато
известны
наступление
##женных
географии
слобо
познакоми
##листи
стру
израиль
ag
доб
длин
##00000000
сом
##vel
судо
обнов
##реи
::
языки
африки
##рил
her
##риф
сор
активности
##ствовала
##ровой
родствен
##олимпи
представлен
increment
##гун
кварти
белого
##демокра
метрополи
боевой
офицеров
##сные
отказался
непре
эл
моде
##джо
особенности
mo
оппози
##летов
лета
##сит
scalem
препара
рыца
##линд
##беки
участием
выполня
фортепи
раньше
##щать
черни
прось
##тете
продолжал
закончил
кризи
кинофе
многочисленные
отличается
стихотво
прису
верхней
середины
##русские
##фило
med
оре
мора
сверх
миру
создать
00,0%
##ффи
##емым
немецких
жив
окончательно
совершенно
##ёй
##iet
##ink
пон
##uk
##тными
мемориаль
потери
федеральным
континен
волго
формирования
фамилия
свято
##рована
##хождения
мусульман
##совер
иерусали
тренером
башкорто
энерге
пытается
сеть
битвы
xiv
сражения
сестра
##чкой
бара
агре
##ландия
принце
основу
image
первонача
швейцарии
литературе
расследова
##pe
мюн
##cy
азербайджана
##емое
глаз
приходится
какой
прошли
комна
дя
лени
##мино
пры
учреждения
всему
уль
проку
военные
насто
немецкой
кавалерий
водохранили
эваку
##мно
##баты
##дис
##логический
академию
убит
##сор
##морского
кубке
##кович
кавказ
die
лати
вни
словарь
дель
xii
##тли
причинам
стратеги
##револю
кампании
опро
##нёс
##ропе
алма
смерть
##низирова
##000,
николаев
##синг
заканчи
##йдя
##исследователь
завоевал
##ственности
##водство
номинации
комсомо
кло
игроком
огне
##леты
динами
пишет
##sv
##!»
##рома
представлены
судов
лео
игрока
основал
энергии
псков
##сец
километрах
финала
стол
челя
##бр
поступи
пребы
архитектор
отды
хэ
##ностях
##городской
чеш
юби
плей
просве
гвардейской
георгия
##матических
go
европейских
##стая
*''
скорости
##ческому
подразделения
гос
##нисты
воду
короле
##рели
ильи
делега
горно
класс
##кове
тара
##для
данного
university
##шено
##жается
канал
##зме
##ars
другу
пограни
grid
##гана
усили
лесо
герба
существования
оцени
связыва
проекту
грузии
епископа
единица
але
посвящён
парламента
##бль
##льди
##ленно
##rist
дата
германия
проф
проигра
детский
предположи
##вана
##щина
##ank
##вами
украинского
##bur
##кому
##ence
самолёта
молодой
охва
преоблада
##совершен
##сим
устья
качества
##тиве
##плений
фонда
##way
##товар
##бия
##офи
##воро
флот
##пос
северу
успеха
##itt
##теров
«00
##берга
##нились
лице
елена
отдел
##без
огонь
cor
##гона
молодых
ключе
высшего
британский
##фре
##нести
обязанности
армией
латвии
прида
зоны
арка
##»'',
музыкальный
болезни
конкре
жё
достига
##водства
осман
знаком
бронзовый
районах
прика
составила
##res
функцио
##кавалеры
##новича
чемпионов
фраг
пола
отсутствие
##пита
педагог
gridcolor
исключительно
##змом
##цист
##алек
##трия
альтерна
##сить
женат
югославии
делает
крови
##no
##чан
##вига
самолётов
##дорович
##тес
##езде
реформы
##дума
##let
00%
немецкого
корабли
ri
##зию
##хта
условия
непри
объявил
третьей
##лое
баку
земель
оперы
половины
списке
мяг
##пуль
ооо
##надцать
поражения
характеризу
##провод
##зму
000000000000
##ъю
элли
##коме
достиг
##неров
собрание
военную
##хл
наличие
художественный
центральный
##ana
##спарта
компаний
##фек
аген
периоди
сева
стадион
едино
крайне
татья
живописи
молеку
австралий
##лас
строй
##мари
экземпля
слабо
выигры
волость
уд
##компании
##ife
нель
##ньи
народных
разработки
следующим
принимает
плав
##кови
##бат
amer
##льва
владения
полага
основная
(0,0
##ome
контр
ут
ber
здра
крем
франк
нефте
итальянский
регистра
руси
полузащи
##писатели
воздуха
георгий
##уэ
##чили
##тение
героев
лидер
последней
##музыкальные
входили
##ап
крат
##жном
программе
предприятие
##бами
восточно
хк
герцога
голланд
процессо
установлена
орен
гимназии
##лился
войско
ричард
египет
##чеб
консерватории
зоне
сержант
вообще
##ohn
##вела
побережье
проме
##гера
фонд
декора
превос
##стую
##ьи
##гно
шахма
незна
олег
украина
попытки
газа
паци
польше
муниципальных
лан
жесто
освобождения
социальной
##кость
своем
клубом
бос
sol
##board
независимости
gre
считает
аэрод
##рачи
опубликовал
составляют
##служа
состоялось
er
стены
##рских
автономного
известность
ун
##между
ланд
##рим
использует
известного
бои
разработчи
разря
территориаль
верто
обстоя
ману
активных
сэ
xiii
пределах
берега
##нне
##ax
проживали
персонажей
ранен
друж
одес
блока
самые
##рена
хиру
этапа
банка
опыт
редак
##глав
##сера
##лера
##метро
македо
кузне
подроб
##товарная
посёлке
##горит
посту
##сля
##циан
##ждает
##грации
##ple
гарни
штате
зданий
##ир
##ings
##жную
##ложен
мухам
##вера
##ps
ent
##испол
##тников
##gro
(0-
нар
##уголь
королевства
принять
впадает
сообщества
##бая
##зеф
идеи
узбеки
поступа
пропаган
числи
представляют
дэвид
каро
основатель
вашинг
сосредо
взял
em
##шением
атакова
переименован
урав
##вики
птиц
назвал
агентством
объём
растения
справо
чарль
джордж
департамента
интен
border
##золотая
##чия
женой
##струк
участники
##циал
дистанции
##0-000
друзья
саха
восемь
осуществляется
константино
армей
исход
расположенный
##нан
последнее
перу
прибыл
##шист
продукции
##тивный
товарище
##дце
использованием
польского
##ренко
существование
york
##тарь
свойства
уеха
гора
##ционер
пей
##ведли
перспе
##ничи
автора
иденти
пери
статистики
gra
убийства
горя
штра
делам
открыта
погибли
##рока
участвовала
love
##цкая
##грирова
государственная
мани
##теб
##ули
фоль
обли
##ari
применения
соединения
закона
покло
тура
##my
произведён
марга
майкл
теория
##центр
политик
##дми
возвы
##ане
брай
##люби
григорий
охраны
культура
##режиссёр
пары
продукт
среды
ind
совме
поп
спаса
##ini
##ox
призван
##адмира
картина
тренера
##систе
византий
нидерландов
дизай
##фло
наталь
ски
(00:00,
##дной
исти
границе
недалеко
командование
##org
зимой
##ционное
##дея
двора
гумани
орудий
отдельные
номером
##пова
поддержке
##лежа
##aster
##щины
##няются
вышли
пой
металли
самая
##лейбо
иоанна
поддержки
##фт
конструкции
александров
##кия
##торе
дисципли
##сро
самар
постра
##тров
воспитан
##йорке
левом
трудоспособ
физико
##уна
прошла
районы
кы
##север
##дации
##тивно
плана
стоимость
gl
технику
марша
##лке
музыканты
алле
met
калу
##нические
курсы
карта
##der
00)
конкурен
внутренний
ислам
поедин
идёт
взрос
южная
##хоро
##полне
крепость
подверга
##ler
приеха
##пки
##лизация
открытия
берлин
шай
корне
бала
##сра
##корреспонден
##меха
нижней
самое
письмо
описание
тё
##сере
##нцев
##мад
соли
провинцию
стиль
##зар
днев
португалии
рост
##ткой
viii
av
автобу
защитил
хозя
##энь
##деми
##гай
одина
спас
разрабаты
нижне
##ллин
mod
гастро
дума
вертика
##.00
термина
боле
##щением
изгна
гитле
потреб
погре
##чко
##кни
отобра
##зил
алгорит
##стных
нака
##хова
обратно
нк
даге
леон
кирпи
##uch
##против
##гвар
##ктики
sk
кавалер
зай
епархия
демо
заказ
сража
##ваясь
господ
ркка
##ba
приток
фунда
исторический
##ющаяся
людови
парижа
##тари
cont
##католи
##тед
sm
домохозяй
##стерои
эксперименталь
креста
орденами
торговли
индей
##верса
угле
моста
нена
английского
устойчи
##0"
##сна
мече
престол
попыта
##лизации
обозначения
моби
безрабо
задачи
противостоя
##цова
##нтов
##исты
##нна
пожи
тремя
небе
всеми
фигур
##ствования
китае
сибири
##акаде
##ade
обладает
##льское
грам
раскры
##00.000
##ствий
необы
comm
положения
##ations
уступи
пли
резиден
листья
военнослужа
казахстан
которыми
##нгер
сче
севера
##муниципа
наси
социо
##цах
аристо
духовной
рау
атле
снаб
полный
оборудования
технологий
##ченности
##тером
враже
##номо
академик
логи
##пира
усср
мотива
##штейн
россию
двое
полез
##стной
##ани
торже
продо
##оке
хутор
##логом
насеко
приказ
##части
войн
областного
##ут
генрих
результатом
текста
мастера
##гр
##снова
бразильский
##гео
сфере
зарегистрирова
красный
открытие
фильмах
тысячи
службе
цель
mag
publ
##нейших
##золотой
##говой
вблизи
научный
##воды
раунде
##летию
вкп
рассказыва
сосредото
##нями
оказывается
названа
распространение
составляли
лай
коллективы
певица
##прин
##вида
##рэн
##rat
звуча
дорог
автомобиль
подряд
куро
месяц
ден
киеве
установки
другого
компонен
климат
гвардейского
##ins
##пок
##неф
##раста
##хт
брак
вернуться
##оборо
римской
##рый
иоган
колхоз
старто
выборы
##чук
опти
инвести
генеральный
##vd
##влению
специальности
концерт
##ллей
писатели
фестиваля
автомобилей
##ren
##стить
дивизиона
юноше
отре
считают
пункта
учитель
мей
высотой
##ванием
кап
хво
каждая
##ас
гоме
##льному
##жая
вспо
использовались
##ski
историко
востоку
дивизион
эс
##пур
##тяну
классов
##af
##дона
##ral
##тники
машино
крыма
таш
павла
бря
лока
блок
выдели
##ключения
##кара
реестре
val
применение
томас
##go
##россия
фельд
столь
авторов
екатерин
лам
актри
ува
либера
северный
артиллерии
##тти
international
англо
специализирова
атаку
шотланд
командования
##жали
##du
ирланд
участии
столицы
питер
##новая
святых
доброволь
ауди
впечат
недели
попро
оставался
южного
подготовленной
неожида
районирования
таджи
награды
конфе
##рядок
румынии
##ванию
мино
##летнего
мульти
крыла
употребля
##электро
фрак
федерального
третье
визи
##хокке
##illboard
##сет
##мак
mic
##майо
##журна
новом
наука
##правил
do
шев
бельгии
сход
учиты
фео
оркестра
побережья
##ждено
es
оки
оставил
вот
подру
##звез
сотрудник
##ystem
танков
рот
посоль
занимается
активи
профессором
##дес
soc
океана
коли
обшир
богороди
норвегии
долгое
входя
##'':
резко
методы
зрителей
киевского
этап
адре
геоинформа
холо
драматур
##ize
еван
излу
фотографи
##ющейся
тэ
эпизод
top
отсутствует
##bert
зале
типи
причине
##сбор
##вшему
изучал
##bc
общее
заго
мыш
золото
валерий
калинин
##изда
диапа
водном
проходят
национальных
ближайшие
##стного
труп
инфра
лучшую
кратер
михайлов
третья
боевые
##ловой
стаби
необходимости
##yd
деления
музыкальной
почётный
практиче
##кай
##теро
творчества
00-00.
начались
штурмо
##евка
металлу
дворян
##фанта
мифо
##ссен
##ездов
переулок
##теран
персонаж
железнодорожной
футбольный
промежу
повстан
обеспечение
##берна
роты
вода
##мба
капитана
##зий
структура
von
##="0"
выстре
абду
bro
##статисти
##матические
двигателя
##out
ход
##лови
##рева
##жила
##ционным
информацию
библиотеки
населённый
поход
даёт
минима
оператор
хозяйство
##мертно
##ряз
##дного
воде
пище
##стор
улиц
порядке
бух
##кона
душу
благотвори
##дает
концентра
приняла
монта
ширина
газете
королём
большинства
проходили
##ology
влиянием
ix
испы
тера
действует
##валь
отдельный
##ковской
конкурсе
зуб
куба
##ллы
##щают
##семей
камер
бази
вещества
идея
0-000
зара
достоин
##гс
известным
##полу
пенсионе
писто
коз
##лэ
увеличе
0),
записы
восстание
##ograph
сложности
прибли
##пау
##igh
такими
##ману
контроля
##зель
постройки
##вален
аспи
специ
одному
потерпе
приё
##живо
бран
кем
братьев
##найтед
##any
##бие
партию
севасто
ранга
xi
тему
000000000
арте
наград
состояния
победил
##лую
чин
шотландии
персонажа
местные
##нового
различи
анге
##компью
методи
упразднён
общественного
##кки
музыкальных
##команду
##циалист
##enn
горе
преодо
##стора
##00000000000
чуть
##это
консуль
голова
связан
обоих
школ
спектак
автобус
преподаватель
любы
овла
##ленного
доми
##мбу
##веду
масси
##скопа
##обо
прозви
пом
установи
проли
преступления
поезда
изучения
полта
##air
##тони
характеристи
американских
##уро
sup
rev
абу
составлял
европейской
развитию
##коне
остаётся
представлена
откуда
##туро
астра
преем
##следу
поднима
прошло
mc
нев
эволю
бах
##ris
брака
проектов
серию
ленинградской
владимирович
##несли
##рных
фини
##вились
освя
источников
##деля
индоне
оказались
пев
back
витеб
отдыха
общественный
##рита
воспри
отношение
атом
весе
носит
скорее
dis
шей
##ённым
##тическое
##мий
0-00000-000
полицей
рассказывает
гви
##рить
pp
очи
материаль
московском
##ряет
##ret
уто
##вуд
встречи
вза
буква
##графа
местом
октябрьской
чува
карьере
подзем
##мум
сало
родители
двигатель
беларусь
перевоз
##чали
##ions
рыба
##рс
##red
партиза
будущего
польский
распространён
##офф
##лат
позволило
множе
конституции
символ
##редко
оккупи
саксо
выполнение
##жёр
##тис
ситуации
##ненных
побед
голосо
вступ
рит
бокс
потребо
адвока
мужество
похи
жел
##гант
ган
##yle
математи
такая
включён
##новым
##тиков
хью
следующих
ага
крупный
волны
наследия
##приме
инспе
##веро
русская
##плом
атаки
параллельно
сербии
боли
объекты
хоккей
##ci
западу
участвовали
человеком
##жев
победа
сериале
поколения
сражении
коммента
сообщение
##ream
ведом
##програм
картин
fil
популя
##няли
вита
##западной
поводу
могла
00.00.00.000
коп
ольга
берег
старей
отношению
res
автори
высоты
po
шпи
обсерва
устройство
обер
align
##евича
##несен
физики
экипажа
фортепиано
##тились
лебе
христо
концов
удовле
##строва
##муля
чернигов
императри
большинстве
##ha
##види
архив
направление
использовался
##мому
##теат
##бота
приём
изученности
(00,0
андрея
##зелё
гидрологической
берлине
разнообраз
технических
целях
независимость
пехоты
##благо
предложение
##деся
повто
смоленской
##хана
хреб
дворца
##ake
кров
старшего
##новей
##мф
международном
мра
мэри
дворе
жёст
##ura
оренбург
##стка
ближ
письма
алба
сергея
партизан
##щиком
##ставра
##песни
ряде
##por
кирги
##pro
##icht
турк
победителем
засе
содей
порядок
##меди
дуб
племян
розыгры
регион
содержание
седь
лондон
деятельностью
специалистов
##шний
эста
вд
##хой
поэта
ремонт
рассмотре
начался
воскре
##oft
заведующий
ама
информация
##ссон
##шан
леонид
##gc
экипаж
##вки
иран
##svg
орган
##суще
##fer
выступать
луны
достигну
императорского
##торами
оказалась
живёт
тут
горизон
телевидения
##класс
общественных
хали
общий
регулярно
##ater
майор
соревнований
##-0»
сайт
##дьми
границ
неделю
противоре
##заслу
трудно
йе
фестиваль
соглашение
##менной
примы
санта
запоро
##вился
пассажиров
дай
##вости
##ственность
люк
случаев
bar
структур
br
корей
советов
ударные
форм
##зовые
структуры
соверши
##ena
cent
сериал
троллей
программу
##группа
##дэ
##министр
##тинский
##тивов
хит
бла
распа
стен
##жье
западно
##able
вып
мысли
работой
##кту
just
##lo
##новый
##сой
палаты
авиационного
##ату
малой
ликвиди
##дении
волейбо
вяче
##ствовало
вай
гау
иу
##дая
сумел
приход
приказом
##строения
генна
##лённых
клавиш
рабоче
##цена
##высо
##двор
образований
дона
##чалась
##ппе
##няют
опе
красную
##литера
##ley
озву
церк
годом
##само
туре
недель
каждом
вооружение
италия
братом
##00)
##0000.
##джет
прямой
последним
##рки
рос
##государ
социально
анализа
физической
##петербургского
жить
стара
однажды
##ису
красо
самостоятельно
платформы
транспор
нега
%)
##мога
пациен
прикры
совхо
инициативе
стер
##тности
развитии
реализова
##вшееся
алтай
##.000
ато
cell
риме
##нут
больница
##вшимся
барон
сыновей
##вах
##ционную
солнца
фридрих
##уи
##its
правил
0-000-00000
##ons
##вто
##щиеся
##был
сказ
##wh
письме
проводится
зача
патриарха
чисто
пропо
трени
##ss
режим
богда
сердце
чемпионатов
раздели
ограничи
имена
##новые
tr
лицо
строительстве
расформирова
похода
##сного
специальный
персид
жанре
стадии
##вость
сценарий
##мса
##народные
министерство
##люб
княжества
аспиран
рассказ
режиссёром
отзы
коллектив
лаза
трое
переводе
возвращается
лечения
##станция
используя
##губерна
решает
mac
##мульт
##рованы
##графический
здраво
##штей
многочисленных
колони
базы
общественной
##тору
вход
##гих
началу
надо
провед
представления
##товые
##жоу
неприя
парке
фёдор
##mo
южнее
участке
построено
##тропо
(0:00
отцом
операций
##манов
матчи
##слом
врач
экз
##зовы
кален
руд
происхождение
направля
учениками
брен
статья
радо
памятника
алексеевич
печати
##фар
трибу
применяется
постав
август
##спа
конфи
учебных
##шоу
римский
вертолё
критики
запла
повтор
##логические
граничит
гипоте
нередко
бизне
документов
вологод
профи
вело
описанные
##телесериа
африкан
##bs
эстонии
белый
теку
вёл
##зить
руководителем
##сражения
экономически
главно
твёр
кресто
##кварти
башни
##ленная
марти
мощность
##po
##челове
подверг
выгля
##уни
xxi
мило
##чиком
##мили
##гора
##da
остальных
мала
##гау
##ющегося
сценарист
##шкин
##пия
##щание
принц
предыдущего
##жают
##мский
четверть
##зина
привлека
кафедрой
метра
ао
зависит
##раздо
сложи
анализ
статье
##хим
##фаль
смогли
льво
иностран
удоб
единиц
речь
##лку
##зав
хва
##жела
посвящен
##щаются
##рка
##ренно
##менён
выпущена
##русский
студентами
проектирова
форми
авторы
режима
уил
пространства
##тоне
##ведено
домой
академия
задач
промы
##ino
ушёл
ране
##менту
духо
ство
чехии
десять
считал
земе
андер
клубы
##твра
основного
куй
##довая
останов
заря
##щаться
сочинения
ремон
##тово
fe
##плы
сохранились
определения
реализации
признан
pe
защитник
станислава
откло
mer
хен
эри
##бон
адап
##руются
##шеб
##коп
##пей
здравоохра
повышен
посвящё
##тенанта
##свет
схо
креди
ракеты
##дали
специалист
открыто
##гим
беспла
0000—0000,
использовал
краснодар
добра
рецен
северном
палести
дорого
заповед
гур
гибели
##стым
морских
переизда
пожар
денег
##компьютер
божи
##правления
абра
##нулся
гомо
купи
яку
финансирова
предотвра
##сл
губерния
сцены
хочет
##)»
разработке
тере
##.0
хотел
ким
##льи
##маном
сотрудников
##ij
полное
водой
исследование
советник
##лио
##довых
мартин
выиграла
##вляют
популярность
##ase
латви
губернатор
уол
созданы
гораздо
##суа
выяс
фёдорович
франко
юсти
губернатора
##поэ
резерв
##левич
военачаль
пытался
hot
##ллек
##около
отказыва
тверской
уай
таври
##ree
открыл
##дать
свадь
мои
путей
научного
слева
##постанов
##мыми
мужа
астерои
id
зени
заболевания
##дек
трамвай
прока
отметить
##amb
##нора
головы
##сар
городских
таун
##недель
дете
условий
старшим
ску
group
вал
веру
оско
численности
##iew
##rag
лучшая
бомбардиров
##ять
королевской
##тировать
##ниться
договора
роста
номера
##вена
екатерина
существенно
выпустил
спортсмен
int
##тарём
##голо
##жными
(00-00
девушка
##ждением
задача
автомобиля
каждые
ev
выступала
##ссель
eu
соответствует
мадри
балета
##гард
мид
присоединился
##nal
мнение
##эф
химии
##вре
факт
##ages
##стические
материал
чо
утверждён
дзю
постановлением
##пропет
nor
##ür
переведён
цы
разгро
##mus
объект
##anc
системой
##рьи
##гию
поо
задержа
современные
саму
##матери
разы
покрови
коммуника
сбо
##che
##тыш
продолжает
##неди
##тивная
исполнении
провел
##ненко
последующие
вторую
обоснова
сты
соборе
зона
##сме
никто
##mon
##ital
##шему
собственной
главная
процессов
##зала
разнови
хей
##кавказ
поверхность
нашей
нефтя
маг
черного
##port
опла
блоки
##шков
##дила
выставки
западном
##ric
##ower
снят
бол
вполне
##фера
ведёт
приходилось
балет
оценки
прошлом
##рские
##сша
дья
взрыв
##жин
гипер
питания
##ющему
##дович
выставка
выйти
##рад
##показа
##пес
тропи
##ждается
фирмы
har
эпоху
##ловка
чика
ведущих
участка
площад
анима
переговоры
##меся
ant
мвд
стиля
##мата
system
паре
##мейстер
##ид
трудового
сопротивления
part
##ведыва
мяте
##ground
рег
реставра
мёр
##петербургской
переехала
ленинградского
часа
проявленные
##рованные
считать
исполнение
сексуаль
тока
главные
туда
усилия
##li
##города
##церков
чили
##вокал
##вленный
возбу
up
pet
теха
окрестностях
корре
литература
ас
релье
пришёл
раке
соединение
приговор
интеллек
##цин
##щенко
греб
упомя
class
мексикан
##ision
пап
объединение
южном
окончила
схва
##делы
##tv
ведь
чемпионка
активными
целей
правительством
##net
режиме
депутатом
зво
центральная
людьми
напротив
говорят
образует
##ouse
татьяна
марке
сала
##by
разделя
всеоб
##лор
культуре
##англ
годам
нквд
приез
привод
построй
нападающий
управлением
молит
##za
башня
энд
подпо
свето
ночью
##gray
услов
убийство
##числи
материала
##цик
руках
цикл
##святой
национальная
людви
##бс
соавтор
pri
##форму
субъек
##стные
##примеча
##лис
лука
##тельств
##веты
ощу
dvd
##ганской
##pa
##ara
наши
улья
##ёд
никаких
гонке
##ровская
юнайтед
местной
хода
стю
мыс
активное
ук
##стье
оказалось
##кио
пля
##лённый
##вичем
##летней
кази
намест
певицы
##ald
буда
обре
работают
типов
фестивале
##of
предусматри
##пев
карты
романов
##циям
лингви
связанных
общем
заняли
колоколь
##тельностью
аму
выбира
##бое
документы
отва
называли
сид
тей
брод
##-000.
точно
равен
памятников
чемпионы
возвращения
бэк
проводит
правление
касти
##шествия
военным
клубов
аван
конкурс
проспект
wid
##казах
##вающих
заключения
поса
группо
##согла
составили
правила
учеников
##?)
средизем
бывшей
q
умерла
монастыре
##дону
##ios
действительно
глад
каждо
молодёжи
вир
##щему
##бере
другое
##atur
##grey
лекар
правда
ребёнка
арт
отправлен
необходимость
##носит
хаба
подра
белые
##лика
##мало
устраи
остались
военное
организовал
капе
полной
пределами
##пала
фолькло
универса
##чаются
ина
молоде
крон
##новение
колледж
произведение
##довал
##тилась
течению
достигает
нельзя
##ean
позицию
##гита
феодо
##бла
призёры
прихода
западного
вулка
разу
##здо
преобра
строго
основными
вдох
построены
эффект
##мэ
продуктов
непро
устрои
высшее
##живает
терми
##чёв
##споль
годами
услуг
императорской
awards
##гена
территорий
##новен
таи
внутренней
экспози
музыкального
метрополитена
деятели
000000
##стических
портрет
##теры
выпустила
оран
последняя
завершения
королевского
##car
фотографии
наименование
(0:0
доска
песча
языком
певец
миллиона
лучшие
главой
юбилей
подготовке
кристал
шириной
грана
буря
математиче
tran
христа
##ваний
иллюстра
right
##несён
##кола
##мене
##ньо
затра
изменений
научные
предупре
##сельские
пик
##тывает
min
британского
дио
паки
##ondon
замка
немцев
являлась
##лучший
##люс
примеча
##япо
##кент
##pse
##ющимся
полку
воль
##пари
эскадри
гиб
окраи
##сиби
залива
строя
##драмы
##академи
##era
друзей
проводились
поэзии
##змы
понятие
интенсив
тормо
семейство
##муниципальные
##шкой
аргентины
публикова
##ts
редактором
юга
лаборатории
##хард
известная
black
квалифика
иоанн
смир
son
чёт
##шева
храни
различными
##чел
''00
длину
au
методов
кинофестива
##ченной
личности
нижний
провести
лежа
плоско
данном
##чья
##/0000
мара
веществ
пато
собственно
родину
длины
древе
##lag
##ническая
верхняя
##стый
провер
помещения
направи
платформа
##кала
бесс
филипп
афана
цикла
выпла
##ute
препят
руководства
страну
занятия
john
unit
настолько
суво
высших
областей
фамилии
игна
##тв
площадью
гарри
старый
##ить
##прочем
скрип
основано
музыкант
##жья
сал
##йском
объявлено
0000—0000:
княже
справедли
##ille
уефа
наших
причин
политика
##мора
##ny
коали
борту
авиационный
родов
альбомов
##после
сопротивление
##змов
тяжело
##швили
бак
созданию
непрерыв
##брю
афгани
##александ
небольшие
итого
уди
другая
##зап
выращи
##ame
богослов
оборонитель
равни
##честер
температуры
максимальная
находилось
кратера
патро
rad
##поста
##ковском
мезо
##тальный
здоровья
##ement
##шений
подве
кала
ep
клиен
созвез
способности
слуша
несколькими
шли
##жеб
##ида
монте
полузащитник
##культур
европейского
повести
##гать
страхо
маршрут
родителей
заместителя
##дольф
ске
%),
канале
абха
семе
##аку
номини
##gr
появление
внешней
депо
архитектора
съезда
василия
белых
трой
норман
наталья
слия
will
воссо
проживает
##шё
##ковская
справа
осадков
уор
##также
мотивам
павлов
киевской
обществе
##фур
рынке
##iam
небольших
иису
сели
незначи
балла
тракта
комиссия
краснозна
##водитель
##щался
##inal
##спартак
уэль
##ёс
##хэ
планеты
lin
##ринг
##ensis
каче
цилинд
облож
огнём
работников
высоких
##вичи
##ристов
##ique
древних
кости
способность
##местно
стивен
социальных
известной
показал
гю
##миль
криста
##газ
предложи
##zy
польской
адрес
##худ
галакти
конфликт
советские
пушкина
##лизма
левому
жителя
принимали
студийный
бака
еванге
сообщил
павлович
##маш
эксплуатации
эмо
рота
представлял
результатов
берёт
##морской
##ene
##вита
ков
cap
лагерь
##ave
южный
общим
хоккею
труды
оборону
вечер
##ционном
##интере
гроз
##городе
первенстве
диплом
специального
экономической
мали
гаран
##пав
битва
##населённые
совсем
решили
##жок
##жь
##ровых
##par
##щений
сур
полёта
##сками
вади
стэн
(0:00)
##ваи
##нди
предшествен
##br
нейро
##океан
браун
разрушен
##дена
гармо
епископом
набор
##жке
храме
##ведении
ранних
мой
кандидата
пана
рога
днепропет
##чок
звании
временно
00.00.0000)
процеду
акций
городу
насчитывалось
##ваемых
сцен
церемонии
среде
комисси
##шно
##жская
агро
органы
кван
уско
##вающий
гуманитар
специальных
канаде
russ
иеро
##хождение
##fe
требует
главнокоманду
запада
##дией
rock
семью
##лайн
заведения
использовали
вей
лидеров
погибших
сф
##эмми
ярко
оборудование
помочь
##тическим
белой
окружающей
разработка
##побе
связана
##щийся
##рода
##нцы
ё
##показатель
конфедера
##utsch
разведыва
##генерал
борьбу
мону
рынка
0;
##щению
выбран
делать
шту
флага
литвы
plot
##ane
нефти
##xx
##фельд
##ие
##титься
пригото
##hr
da
распространения
куйбы
sim
обеих
австро
##стки
уруг
правах
аба
экземпляров
##ходу
разведки
синд
монаше
старого
##числен
советско
нидерланд
похожи
посредством
счет
подозре
медве
##щались
##ницкий
##рском
##''»,
использоваться
функциональ
##жется
принимать
коротко
стадионе
sur
бег
служит
ste
наблюдения
##ystation
##дала
##рота
демонстра
полковника
one
сергеевич
неактивных
ставрополь
##rad
##ces
областной
сторона
богородицы
00°
##гота
кварта
лёгкой
невозможно
##футбольные
##сыла
##воздуш
##зки
хх
астраха
лига
##|''
##alt
торпе
воспроиз
черты
##дс
заха
сосу
влияния
pa
темы
границу
##нель
смит
##ровали
##промыш
магазин
##тирован
курса
прошед
кузь
издал
##стическая
станислав
##арт
назем
связанные
води
##ele
нагруз
целе
морского
проводятся
андреевич
плац
роберта
обык
распада
рынок
##мут
зла
style
гага
успехом
##влений
некоторым
##сол
##гности
высокие
огня
основное
религии
##теа
гдр
связаны
характера
оккупации
##европе
действиях
##пец
главную
бабу
bi
любитель
появляются
переводи
топлива
захватчи
испанский
помощником
мероприятия
семинарии
формирование
##авиа
аэропорта
##технического
калмы
##транспорт
допуска
##турец
впрочем
пенсионерами
##ального
горького
джен
кари
браке
экономического
сыграла
рабочего
##команди
источники
бэ
##фферен
лидера
золотая
мощностью
##зовая
исторического
аэропор
##ose
##ution
конфликта
национальном
монар
расчё
##сила
виду
##ведением
проживал
##ella
зоо
##рико
эква
противополож
##-000,
количестве
натура
##wo
##тило
фрей
программирова
##лков
защиту
населён
мурав
##чками
отто
##сис
пермского
выво
##нева
##пина
##стического
оболо
not
(000—000
находит
##ett
##муа
берли
крю
антропо
##стах
##вь
чёрный
почита
##нус
##переда
колонии
ходи
##анджеле
##мской
основой
медицины
тв
лаге
учёных
взять
дать
rem
0—00
аниме
##од
состояла
выро
##эля
столице
частных
##!!00
##таки
цик
уволен
micros
##ктом
приходит
##ste
##ффа
линию
##техно
монеты
выполнения
##бова
##ллу
##джу
вспомина
0:0,
su
##сово
плохо
голову
создано
ввиду
##эле
традиционно
фронтах
функций
##ery
западная
##гая
уна
классификации
роз
радика
служба
##мб
width
григорьевич
аспе
камень
ежеднев
запро
остатки
##компьютерные
алкого
черепа
игровой
##чень
делу
##хау
танка
калифорния
##дорф
дав
(00.00.0000)
печата
разряде
##тэ
##арти
здравоохранения
обстанов
##ify
машина
форсирова
источниках
отличился
##сент
##рений
##леп
0000000000.
плато
немед
##ls
проник
##лете
испытания
белорусского
##els
запас
адмирал
перехода
##зах
##герман
правому
кин
##тивное
##день
##0,0
##стический
##торию
веб
попол
##ual
авиационной
##eum
##тит
мужчина
##фин
жар
борьба
детства
##форми
дальше
##ora
рабочий
подполковник
учреди
сина
реакции
##российская
лед
древнего
полуострова
##add
тема
алексея
##жив
history
##чева
##center
##дям
вспомога
определяется
##валовой
аппарата
##рованных
протестан
сег
миссии
принимала
величи
членами
юни
ноги
великобритания
дали
##gen
обстре
красноар
##кского
первыми
живут
покупа
монет
##нон
тони
##gin
сердца
отметил
хорватии
##бери
инфраструк
плодо
точка
бывших
##графы
##говори
##дай
съёмки
##une
##откры
асса
страна
##стный
вильгельм
кристо
появления
художественной
митрополит
пво
рио
0,0%
##тически
##нях
геральди
коллектива
##эпи
##сфер
молодёжной
##вится
##vi
##ime
##ношения
развер
княжество
##ія
практике
inst
mot
##бления
беско
саунд
перебра
генриха
уте
внимания
##ом
##евская
высокий
фрэн
птицы
принца
##inc
передан
илья
мозга
paris
##няк
##даль
ирина
##лона
сити
##вной
воинов
##ндр
футбольной
##награ
##аз
##берто
тенден
##музыкан
пони
##ische
взро
соедин
##дского
знако
высказыва
столетия
предлагает
тамбов
исполнения
рыбо
приказу
спасти
перевода
##колов
севернее
##ajor
устра
##ази
шле
##интер
продажи
тридца
##новья
дерево
выставке
домини
композиция
работник
##sa
важным
##вель
телевизио
энерго
scalemajor
##регу
af
##метром
судно
перешла
##ровку
перерабо
показывает
небо
китайской
учреждений
реалов
левый
критиков
прибо
нарушения
##вленных
юно
##жник
чёрного
##зву
##зде
давления
##комедии
##плика
королевство
специфи
##военные
##мане
детстве
плацдар
поставил
##форме
деревню
##лаг
вика
азиат
бог
открытый
человеческого
##китай
дивизионе
реконструкции
островах
классе
включены
указывает
##байка
факультете
##мали
##ата
начинают
##телесериалы
##вклю
##женного
властей
танковой
оты
пространство
валю
дирижёр
дистан
коллекции
##row
идей
серде
sec
##льси
##ben
##ull
##эффици
обработки
сражение
##нген
##ures
##марки
эксплуатацию
творчество
султан
##сне
именова
участвует
##председа
##коричне
##esch
зеле
недостато
life
виш
смысле
выступление
##бби
##бара
##нете
пригово
##глу
большом
диска
осла
телевизион
современный
пионе
##родю
повесть
##sm
гр
кустар
интерпре
##серебря
ора
##щания
преподоб
отличия
заинтере
##нян
шам
мах
африке
штатов
чудо
отборо
##статистический
##тто
##ga
щу
награду
медицинских
продюсе
якобы
мелких
потерял
музыке
примеру
вро
ере
left
сици
термо
специальные
кве
инструментов
##влять
##силь
обнаружены
live
##зам
##дания
##шают
живых
грей
красноя
реоргани
бл
реме
сток
флорен
крейсер
матри
ее
##бас
##капи
##стаи
tri
##шенко
карт
десант
нижняя
зави
заим
потенциа
##ническое
##box
гмина
массы
участвовать
малая
чём
исторической
sl
##...»
сек
серти
##станской
интерфей
пояс
##ровую
##заме
пресс
празднова
сила
прочих
##yr
грин
##чались
playstation
london
регионов
приложе
##частли
фаль
собственные
##ertain
округов
максим
первенства
заключи
выступлений
озёр
созданный
##гала
обеспечивает
##))
съё
линий
соблю
##ble
водохранилища
##филд
##berg
говорил
##бело
юли
##-000000
реформа
вста
тбили
##ровском
##нду
глоба
компанию
вручением
провинция
сценария
горизонталь
клеток
партнё
визу
начать
кислоты
вопло
старой
главное
внезап
перешли
третьем
крово
##дана
префек
налого
напеча
пригород
клетки
##филосо
нижнем
населением
##где
проиграл
четвёртый
кама
жюри
##вят
деви
технология
напи
политике
маха
упро
праздник
частях
##тическую
осталось
00.00
##нимом
среднюю
сочинений
поддержка
втори
становятся
случи
star
##нео
пензен
экономических
##die
час
##менко
000,000
цу
танк
##стика
лопа
##лиги
ветви
##рный
японской
##/000
##атри
джим
траге
альбоме
пейза
мюзи
##графической
##тает
посмертно
##рёл
написана
##лекопита
значительное
вызывает
помог
министром
публикации
рейн
мексики
вступа
внес
имея
киносту
убить
рассказы
левой
нейтра
мирового
лоу
##животные
лауреа
организацию
##блей
богослу
забро
##фикси
растение
кожи
областях
##гови
##тинского
гава
##чностью
##тировала
венесу
секретаря
##дев
##ound
##чала
анаста
колё
##знец
гэс
##va
народная
корреспонден
##суда
##ксов
проведение
##радио
рэй
иконы
покинуть
##бокс
долине
000-000
медалей
массив
собственности
стой
##локомо
##нялись
реабили
##ten
полосы
присутствует
##проект
##рной
вузов
##ko
les
##польского
##ator
источник
боги
пьесы
##ватель
##цком
официальным
##burg
##нков
восточного
супруга
царства
##изо
уничтожил
##ничества
##ьем
##sl
##рьев
умира
##ляет
сово
римского
##бить
изучение
меры
##фта
корни
высоту
##несла
росто
##ney
египта
неожиданно
##тине
математики
нижегородской
замы
немцы
вала
justify
нападения
особ
работах
четвертьфина
лест
командующий
труб
челяби
могила
##льность
##динг
вмс
галерея
приклад
основателей
##аб
##лита
аристокра
##сара
##туда
##желез
молдавии
day
фреде
##новской
лежит
##нты
консо
сыновья
сож
фаса
новому
##мол
ид
##атуу
коатуу
коэффици
производится
##ster
члена
судна
передал
царство
находясь
##rum
бет
лигу
восполь
##вающие
оркестр
новгородской
##писей
##христи
памятники
одержал
##металлу
врага
финансов
##пущен
##скрип
дальнего
боепри
поступ
япония
прибыли
псковской
##шов
призёром
night
силой
##пон
##верс
буха
приказал
собственных
установлено
особого
увидеть
##игра
зарабо
##сина
##дере
борисо
куби
грод
появилось
королевы
##брон
множества
##хина
возвышен
##ike
подготовку
##театр
##сити
##олимпийские
##фото
american
получило
автодороге
костром
назначил
будди
правый
pre
изя
##ллера
ари
##сье
##белев
##ляция
международным
предпочита
é
футбола
художеств
накло
(0,00
допусти
##work
##тового
##кос
спортивной
****
производстве
дифферен
базо
скри
трижды
сельских
отличаются
сх
посетил
екатерины
эсте
носители
пат
##зирует
заключё
##карпа
##aft
##леб
помощник
##чжоу
##министры
исторические
утром
учителем
##свобо
##alk
ухода
решено
##рийский
многом
кольцо
люксем
польша
производству
конечно
классической
францию
усовершен
попе
##няться
завоевала
молодо
лекции
ориентирова
садо
ока
боёв
социал
боже
смогла
##логию
горных
кафедре
спект
##ool
##клу
##пром
##сыпа
ass
статусом
познакомился
осуществи
microsoft
0''
##гром
##ops
железная
сезонов
ака
прести
##сио
##ровке
дебютный
##рые
деревьев
##:''
служи
виктора
малых
##вий
голос
сделан
безработных
бюджет
кова
технического
##проду
защите
воспиты
отделом
стихов
кав
проведён
##ano
зак
предпоч
##вающей
заданий
##тико
сестры
##будь
вооружения
сотни
сообщает
алекса
000,00
шевченко
вселенной
##жском
океа
##листом
фёдоров
комите
муче
##.0.
##соном
рука
воспользова
(000)
добле
призы
версию
##пци
размеры
выса
людям
зачастую
получают
пулемё
##юль
##form
атмо
макс
обусло
(0000—0000,
==
станций
##ровича
всероссийской
##вес
##шой
кого
королева
нба
опор
психологии
##ira
чехословакии
микрорай
погло
соперник
ель
волы
дмитриевич
запуска
вера
масло
значительной
фильму
наступления
лого
положении
##рых
освое
критик
улицей
пребывания
золота
##горе
леона
минуте
##кера
##влял
вернуть
хам
миссионе
флан
атмос
вспы
00).
углу
##рийского
проходя
бориса
лидером
##gu
зала
christ
рук
франсуа
минск
планы
франци
пулемёт
средние
оправ
##гат
чемпионатах
##выс
##хор
рецеп
спон
предназначен
##шт
company
##ific
завершил
японский
использовании
восточном
гола
вмф
заболева
##ряется
совокуп
краснояр
попытка
рима
##щали
##сал
насекомых
взвода
квалификации
неизвестно
промышленность
колеба
red
останови
##ola
конвен
боеприпа
##настоя
жилых
свободу
out
##льских
##ja
##ницкого
sw
фору
продоволь
open
содержи
##oy
рю
ефи
мла
##ournal
дополнительные
kn
церквей
экономико
##жур
##жертво
филиал
медицинской
тво
глаго
исследователи
хосе
ветера
##еты
участником
##моро
##ertainment
побы
копий
##outh
вычисли
ол
волшеб
правой
исполнял
лод
забы
писать
дмитрия
курской
размера
вернулась
оча
##видные
замену
потреби
священник
##ват
образована
организацией
мелкие
медицинского
##oss
##стое
мура
ведущий
переданы
комедии
образе
##ец
стрелковая
музыкантов
##фашист
пресвятой
топ
##chen
##дная
##мандри
мина
далеко
принцип
кинг
##метры
являлись
##тим
##начале
придвор
пеще
средних
##бую
течёт
##транс
латин
гигант
днепр
##кэ
##ita
содержания
данная
##ъютан
переводчик
aut
полотни
третьим
зафикси
your
##ala
хиро
письмен
##линей
##fa
##бление
веках
вере
горах
фели
кау
phil
дубли
##ада
нии
почёта
ситуация
романе
##див
сведениям
ленинграде
##ford
прими
трансли
будущем
нан
слы
##маль
мощности
##славя
флори
ирак
разво
##магни
иконо
привели
государственные
политику
независимо
##преж
замужем
двигателей
##ury
##сек
##ьми
сень
просла
##зади
политические
##гг
##шали
кандидатов
##рении
уехал
##мид
##“,
сумму
юрис
нхл
##аппара
соглашения
##ино
##левой
услуги
char
лагеря
осталась
##лянд
реже
тель
##ждённые
героизм
родной
измерения
французских
станцию
случайно
людми
сумма
##тическом
зеландии
##tra
нра
цари
границах
малый
колхоза
##таря
воскрес
состоят
##iter
эскад
истока
уступа
приста
компакт
##00000
унаследова
##лёк
лар
##цвета
старых
##оста
богат
переста
решению
гражданин
##кский
дета
гэ
гал
хранения
амстер
крупным
попадает
прину
разновид
таврической
##стрелко
изменение
проби
##зян
##зацию
orient
компен
поклон
band
числу
вверх
##женной
##парк
репер
дат
дерева
композитора
##чна
заг
рукопо
billboard
##динами
закрепи
вела
##ki
призыва
разве
называлась
падения
политического
##оп
##шевского
##ada
выполнен
утверждает
шиф
энциклопеди
души
следующего
(0000-0000)
##чны
районом
обмен
##inae
командующего
диску
богу
уделя
немно
##вт
##зво
поединке
культурного
рене
редакции
эрик
эвакуи
##ствующих
##–0000
секунд
##ровано
##чле
диагности
##юрод
объединён
##фен
##ленин
саундтре
##ита
оку
карло
английской
антон
гусе
вмеша
##юре
##зора
##изме
армий
керами
высокая
установить
##omb
реж
дими
конь
нм
дизайн
достато
##роман
вырос
бёр
сана
метео
клин
##хер
кольца
вывод
советское
видом
мужской
reg
реклам
гражданского
дзюдо
законов
ходу
сно
запол
сверху
##ham
або
девять
моделей
##лизм
попере
отсутствия
##тека
##ктивных
медалями
постоянного
(0),
секретарём
##неи
##light
робо
сайта
треуголь
поляр
сухопу
##оле
##эмп
##дился
##титель
судей
##сным
община
спарта
##eral
склад
##емую
mil
майо
астрономи
##тику
чарльз
##жников
льва
благодар
коричне
##нила
##рджи
тата
##вс
edition
международная
##гура
##ленко
граждане
доля
принятия
исполняет
немецкие
пришли
соединений
евгения
художественного
полного
##виса
восточная
0.00
sa
национальную
русским
##ridge
суперку
пару
эфир
разрешение
юр
тренеры
собственного
крымской
##дений
спокой
госпита
##люми
берё
полёт
фердина
тел
##альной
выпущенный
конструктор
##нр
погру
давид
конечном
##руя
elect
рестора
##гиб
##ьёв
super
военном
наход
движении
наибольшее
##хово
могло
архипе
заключается
##фона
балан
восстановления
##упо
##inter
повышения
улицу
одежды
добился
##хоккеисты
яна
дочерью
сооружений
##территориального
##тками
##которы
будапе
опять
приоб
мем
софи
##трах
лодки
замеча
проблема
рекор
##лировать
самоубий
##ico
сати
казани
медиа
пал
америка
католиче
молодого
##кинокомедии
учреждение
свердловской
##si
разъ
##нулись
сибир
неофи
ископа
солнце
послан
##анджелес
##men
##гова
time
решений
французском
деревень
##анти
сравнительно
таган
матерью
многими
солдаты
##кр
испания
##рог
##экс
кёр
##фель
изделий
сингла
изданий
##яна
спла
инструмента
взрослых
00:0
ter
легендар
##льности
англича
##?»
дор
ухуд
женского
##зли
проводил
поддерживает
тёмно
ликвидации
городи
##aint
токио
##кау
сельсове
прибре
##tr
colle
##вне
##зур
бюдже
телевидении
##рян
##оскар
служеб
##чному
гря
минимум
включают
мане
##sf
song
фено
хмель
дворце
прися
казаков
##име
таком
ломоно
распространены
##шала
бон
чуваш
диаметр
##пресс
примени
##христиан
обстоятельства
пиа
уезде
##elle
tour
мони
импер
крыль
юрия
требуется
корабле
ландша
башкортостан
000-00
тексты
эдуард
##мура
называет
важную
непода
каких
остана
образуют
отмечает
##новская
рабочей
##профе
ревизи
ирана
##дья
дружбы
высочай
сентябрь
аргу
##mann
вят
аш
##сение
мультфиль
справочник
общеобразова
прибал
девушки
##тент
алжи
##ode
##план
преодоле
увле
##пел
##ненные
основанные
кух
собственный
последующих
ряды
таджики
количеству
##сная
днк
##ната
проекты
узбекистана
##гуа
жало
сегодняшний
##була
hol
##дика
book
##красно
##gel
##линг
##русской
##неве
##готавли
определение
##ero
##здат
товаров
официальных
шла
добиться
##чув
##греб
вниз
количеством
##шна
##шино
запущен
##min
##ствование
навод
аки
##оборот
еврейской
белая
голли
служить
##педаго
символом
##корреспондент
собственное
станет
крайней
набо
удержа
background
вьетна
прокуро
##летие
entertainment
##лица
гаври
миль
pal
разработку
##каме
светло
##opter
##ischen
установка
матве
ядра
аппарат
учителя
##цве
##ющееся
##дский
фрун
##нилась
провела
промежуто
отверсти
##орга
контакт
быстры
антонио
скульптор
рубежом
лево
изображением
душ
снг
##исполни
декабрь
эдвард
обучался
деятелей
##красный
##цина
сирии
изобрази
##вист
кори
##мето
##видно
расположение
##пович
##компания
кю
формулы
своеобраз
центральном
взаим
##chn
таба
итальянской
канада
пространстве
красная
кадет
удовлетво
##гт
милиции
##секре
##президент
##нскую
ночи
##рмо
использовалась
киева
еврейского
отдельной
источником
признание
публику
помогает
##бол
##стам
желу
кури
диаметром
хорео
##альный
привы
возникла
обеспечить
самоуправления
##мала
##ловича
колледже
взлё
##ty
##звё
характеристики
упоминание
союзников
казни
##иска
первич
личного
особое
##учи
##альных
скор
образовано
указ
взрыва
цветов
##жига
художники
возвращении
0,0—0
греко
крестьянской
alb
поспо
золотые
##лирования
турниров
соавторстве
##льц
##чар
аги
артистка
##don
отправляется
прод
berlin
ужасов
архангельской
uk
наш
нижнего
возобнов
ога
инженера
возрождения
адам
буль
пройти
(00-
##рьер
насы
останавли
##окт
сд
шекс
издан
актёра
эстра
рассказов
лью
##плён
успен
недавно
суток
вопросов
00:00).
британских
##лока
##/0
настоящий
воспринима
симфе
стрем
совете
процен
вьетнам
##рку
##гори
##прежнему
##служ
europ
##вз
вокзал
пород
##чёте
мурман
##енко
ближе
оружием
султана
крылья
протяжён
##тау
мяч
##штейна
##стил
##зости
##ляется
яи
вернувшись
площадка
синода
невского
cal
вышло
шасси
##тируется
католической
драго
внешне
пожертво
мэй
переходит
общин
игроки
мифологии
передач
##osa
описан
##монд
охла
серы
##баш
турнирах
взаимодействия
##нко
вечером
отдельно
очередной
##лиге
попала
надписью
ca
##вье
##образи
расположенная
всём
центров
элиза
архео
предстоя
колон
проводить
въ
##lapse
##деш
юстиции
древнегре
##ронто
занималась
османской
##льников
видит
##пц
голоса
белорусский
мсти
##риал
элемент
чисел
##боксёры
подобные
##вшуюся
склады
ворон
значительные
собственную
круга
перспекти
--
ткани
##зас
самолёты
##дётся
играли
##ula
кому
константина
##сви
тюрьме
##уд
азо
пас
вячеслав
винтов
вынуждены
размно
спортивные
майк
изучению
малого
избежать
bu
проезд
сап
дыха
##фро
хвосто
сэй
телеканала
##ченного
повлия
вагонов
##проек
##reet
##ottom
##бого
сера
играла
заба
популярных
##вку
##лицы
март
железных
##med
выдающиеся
сотрудничества
##метрии
зерка
кореи
женской
##кине
захватил
##ква
##емости
##стройка
##франци
высоким
агра
медведе
кадров
металла
изготавли
иза
взры
##iod
кмет
##менного
тренирова
разрешения
синтеза
руководителя
барабан
предметов
тысяче
трудов
выру
уильяма
##новок
способом
джер
##низация
шка
##матический
обладателем
##вица
##емость
вперёд
предметы
дени
спортсменов
##польский
иначе
##емыми
балтийского
##включая
отряды
просвещения
зме
мужского
принципа
другую
сменил
##och
кули
##ненный
государственную
##дак
##нибудь
нова
коди
##ническим
##бру
немецком
одноимённого
юнио
эпизодов
наций
испыты
##заслуженные
дальне
архимандри
неофициаль
0).
##вилл
оттуда
воздушной
военная
сталина
##вляя
вас
малай
банков
##—00.
##ренной
##рар
отдельного
сон
извести
референ
##компози
поселений
белорусской
##нялся
крупнейший
диапазо
##емом
декла
##тизма
##дового
религиозных
англия
##анали
какие
блестя
манда
компьютерных
знаки
масштаб
разработал
переименована
##летий
успехи
данное
веры
##вр
брэ
##ами
экстра
sing
van
сча
притоков
многолет
обращения
созвездии
социального
воспоминания
##зуме
ноябрь
ростовской
##ровок
поведение
изделия
импуль
позволяют
мемориальная
##ложена
устройств
пропусти
затруд
##штат
##ats
##ладель
вершины
сюда
западных
##киев
племени
азербайджанской
0.0.
##альбом
сахар
точек
жителями
любит
##дека
##иску
входило
##гара
практику
важней
оже
##градского
посполи
водоро
##цла
зав
##риат
акции
##рные
сма
колумбии
##матического
##ланда
комен
запланирова
докла
широкое
##ндра
тамо
обсерватории
прозвище
##эро
проходила
немецкими
##зви
произошёл
щит
путешествие
##мания
течения
качество
немецко
##восточнее
местность
баллов
клавишные
ленинграда
незадолго
отсутствуют
хру
##new
венециан
вырази
переселен
##ling
фей
девяти
показали
расстрой
##шар
подклю
фридриха
государством
танки
определить
##0000,
эпизоде
##слей
##дец
ната
##oria
##женная
роза
явления
##демон
джефф
превышает
муниципалитета
июнь
national
сав
##гут
чему
mart
ролей
чикаго
личный
лири
мячей
фарма
##целя
цвето
##если
##ченным
построил
##строена
научным
учения
##чим
опол
гвардейский
##совых
священника
##инже
кура
представление
##меда
солов
вологодской
демоби
##политики
германию
гитлеров
ярославской
изба
##ношение
батареи
##вяза
детьми
кеме
идеологи
##торпе
##сило
##тать
лекси
##эла
литовского
хлеб
кля
васильев
0-00000-000-0
мели
аренду
последовательно
эссе
аббат
заканчивается
##чника
эстафе
тр
##атло
обь
почему
детских
среднее
хана
ябло
##рское
смертью
творчестве
фундаменталь
##вилась
барсело
вызвало
подрост
больницы
верховный
##виле
ниге
возникает
произошла
называемый
аква
обру
рыбы
##права
драмы
тюрьмы
воспитанник
контек
назначение
каш
автомати
сказать
отношениях
вещи
чече
космонав
заказа
списка
##ily
ультра
бесконе
посол
официальной
##года
##сюда
##ленным
молодые
давно
имело
функция
природе
итальянского
##ау
процессы
фана
черте
лейпци
гонки
отзывы
передви
шёл
придержива
испытаний
##лево
силе
петербурге
числом
аран
##тирует
располагался
задачей
##eck
концепции
##сского
федерация
).
##ёнок
оранже
эв
gir
катало
##sky
##ates
бойцов
бежал
понятия
##ні
00,000
единицы
внед
##летря
##треть
##нома
кантон
крупного
подобных
каба
##line
##ации
зага
##000,00
залив
##illa
##ренного
раннего
сохранилось
оркестром
отступи
участки
подразделение
вио
##кья
##патри
##ванни
установил
интересов
тим
живопи
ворот
дорогу
планировалось
##скры
##atus
обря
основанный
саратовской
##сул
сколько
##йс
##мультфильмы
##ровался
##ехал
##ровым
nov
массовой
продолжение
##ied
аро
##ально
потенциаль
собрал
нобелев
городском
достовер
описывает
жила
##джон
подразделений
посети
сторонников
рафа
телефон
кардинал
полноцен
##пка
##нейро
лесу
##левский
##ничество
вначале
##чатые
фикси
агентства
tur
##bar
##вающая
больных
воздушных
выступила
связей
властью
##мать
описания
управлении
родине
сохранить
cr
соро
##ters
конгресса
##знак
бат
##ole
постановление
##vent
sam
словами
дэн
доступа
включена
##русская
отвагу
фельдшер
неправи
артур
##коммер
открытого
сбе
очка
механизм
совмести
последнем
ладо
говорить
##лкома
владение
##ject
обвинения
##пато
храбро
александром
построить
произошед
федо
deutsch
эрн
пьер
##vert
императором
закрыт
расту
учёные
планируется
##сипе
кнр
туристи
dav
надё
коллегии
глубина
принцесса
tel
##думы
восточных
плу
местном
супруги
звез
##ставки
приписы
лётчик
##рованный
мастеров
arch
граду
##фора
западный
сэм
французская
##бека
текстов
авиакомпании
примор
##эффе
давление
изобрета
best
бежен
коста
млекопита
мином
геннадий
обслуживания
na
##сторо
удержива
месторождения
сило
облег
храня
##ргии
захоро
спортивная
##je
##скон
властями
исполнил
занимались
невы
металлурги
художником
гара
##францу
немедленно
цело
апрель
встрече
сферы
тираж
важных
хора
филармо
мик
##ковое
руководителей
##штад
мех
предполагалось
##зел
жилой
позиций
псевдонимом
июль
жанра
опубликован
ir
##чётные
fre
федеральной
выступали
свободного
проко
принадлежал
бассейны
деми
##ho
услы
штраф
##бад
выдержа
беларуси
цеп
просит
обратился
##еписко
##литератур
предска
рассказа
имму
предполагается
sun
##вская
that
капиту
увеличение
##психо
уа
##комплек
наблюдается
расположенных
##рены
повторя
##варда
иосиф
хищ
##библи
гроб
раунд
провели
небольшая
современное
всемирного
##гвардей
0.00.0000
##лией
ансамбль
net
поисках
коопера
представителями
скоростью
евра
проведена
принадлежат
##риата
миниат
##тинской
таунши
##западнее
##зив
женскую
принята
##извест
##рием
выпущено
хуан
врача
ферна
британская
борт
объявила
##press
содержат
spec
фур
обоб
джонс
беремен
докторскую
синга
национальным
демократической
любого
рев
симо
предложения
корона
структуру
оставив
##педагоги
зон
раунда
финиши
##рих
представляли
##кель
верхний
греческого
фау
жертв
раб
иных
мэн
##архите
##жие
съезд
0,00%
слабы
единственной
глубине
прилега
##санкт
сете
##тельством
mix
отказ
двоюрод
джорджа
эмигрирова
##чников
виталий
луна
##первый
образца
организован
размеров
цска
##asa
нато
миллиар
ташкент
герце
tv
полит
фрг
ущер
##здания
предыдущих
##ксе
отличием
мёрт
##новна
появившиеся
##немец
бывшая
князей
перенесе
этими
##зё
##мбле
##историки
##метражный
морфо
тулу
значительную
##совый
бава
длине
##класси
##лея
вл
##рованной
фос
##неско
##служи
железо
живопис
удаётся
перекры
половина
узбек
россией
статусе
современном
сада
поведения
одноимённой
##ün
##ird
проле
диалект
кримина
привести
##мил
спортивных
бизнеса
напоминает
##met
##dr
##тность
##постановщик
осозна
прямоуго
##любов
следующее
уходит
вопросу
администрация
ставший
бельги
отправил
рейх
##ктра
коллекция
губ
признал
листо
швар
vers
породы
##ционеры
промышленных
воевал
правительстве
умере
военачальник
##нительно
потенциала
##ama
предъя
германией
##тури
museum
литературный
##ield
классу
##тивным
##сана
##нитар
раст
княги
буквы
##церковь
##несо
имми
##vas
##гас
минуты
духовен
##венг
размере
музыкальные
##ese
##циден
металлов
##xis
тихоокеан
землетря
##хей
женская
январь
домохозяйств
##льевич
##фрикан
##логическая
внук
фро
##перевод
метода
##ush
звук
##ционными
##фред
##ume
булга
угол
локомо
назывался
развитием
выве
артиллерийского
пше
младшего
восточный
##хами
группировки
деревья
##новопо
статуса
брест
специальной
техника
похороне
ячей
чувства
гром
обращение
постоянной
mor
##ревич
##центри
репресси
украинская
##cc
часовня
##нуне
пришла
путешествен
##типа
сотрудничество
##жина
лиши
континенталь
корея
формат
эмигран
ею
играют
##over
комедий
престола
чан
издательства
театральный
don
ибра
альпи
нашего
старые
соединя
числилось
##линский
екатеринбург
##oo
ur
релиз
достопримеча
##словия
монахи
продолжали
просмо
базирова
военнослужащих
занять
митрополита
off
ами
лесах
навы
times
золотую
академика
##тыся
мероприятий
атмосфе
##ram
подчин
##адмирал
выходил
##цких
конструкция
рё
эмиграции
ke
представителем
юар
скотт
обна
##inn
считали
стокголь
елизавета
захватчиками
восстановление
основопо
рейтинге
##ила
столицей
претенден
атлетике
##мё
##дара
трон
кос
##lines
##водов
винов
индуст
японского
фунтов
dem
##совместно
крейсера
ps
тяжёлой
афро
##ega
##ковом
##поло
##wa
##дене
леви
границей
почётного
##гидро
иной
##зинь
баро
одиночном
mich
##сюр
тюрем
##лям
##турецкой
scien
немецкая
##rich
форт
передана
юлия
преобразован
греческой
правительству
(0.
судьба
je
рязанской
инвали
юниоров
##товский
(0000—
##рины
алюми
давы
уничтожить
##доку
0-000-00000-0
крис
##ames
##освобо
забайка
##ющимися
упомяну
действуют
0»
раду
##графические
##чках
знает
cat
травмы
прошлого
##пал
оценку
глубоко
вашингтон
00;
открытом
land
песней
заметно
владимирской
##уме
талантли
grand
армянской
церковью
##ks
мс
обл
city
становился
педагогического
##lay
сжа
ассистен
##als
0000—00
##африкан
сделали
петр
наследова
управлению
выбро
##говых
##кня
##экра
эски
##rie
##oe
повышение
покуп
проспекта
##лучшая
нашли
опубликована
##пило
##синглы
освобождён
мужем
олимпиаде
игу
##перед
долины
подход
##товым
##цовое
дама
##arch
увлека
мал
идею
воронежской
den
##льским
старая
формально
ответственность
лесной
выступили
##номи
клей
пече
песне
##мовой
##ism
##хло
##вара
##рике
проживают
##француз
построенный
элизабет
ger
лечеб
оставить
##ровые
заре
##тович
тетра
знания
кристаллы
##довые
исследователей
фигуры
##ена
##новском
##хая
тща
##лились
звукоза
моменту
преподавателем
дове
##носцев
высокую
##inor
##роме
##анджелесе
папы
полномочия
занимают
весовой
столицу
альбомом
чрезвычайно
port
велосипе
сел
двадцать
захватили
крестьянских
квт
##искус
нано
ассоциация
соль
##евской
западнее
##млад
гвардейская
найдены
определяет
едва
мюнхен
защита
апол
сыну
##ковыми
награда
опыта
галь
происшествия
происходя
значительный
мн
##муж
##uz
гва
единственная
перепи
кабе
найден
вку
эсмин
очки
bre
римско
почвы
бакалав
##две
##альные
арно
карьера
страница
##нённые
лицом
вычисле
восстановлен
левого
##франция
джеймса
достигла
регионального
san
тюрьму
кома
мотор
ein
##ьян
номинация
калифорнии
##ловская
##анна
##гем
##дую
обладают
зре
листь
##нино
##согласно
os
озвучи
регионах
десятков
украинских
счастли
подчиняется
башкортостана
##нив
лорен
укрепления
##гают
фактиче
##льфа
краевед
club
квин
##польской
##лип
настав
покой
еженедель
транзи
директоров
till
журналистов
##полномо
южных
##человек
##ристом
бразилия
solid
эндрю
польских
казанского
##цево
##шной
обозначение
существовало
характеризуется
##лёва
прице
##цет
предусмотре
габри
приспособ
sub
пожало
вестник
##кевич
делению
освобождение
составлен
##жели
инциден
0-0000-0000-0
##ака
0-0,
нацист
божией
##городского
##ven
кавказа
стефа
##стная
ток
##----
##товая
гражданских
филиппа
изобража
водя
tom
«0
##ival
танцева
шля
останки
изготовления
##pol
заняв
обороне
приобрёл
ошиб
возвращение
##тос
адриа
дух
самки
отступ
искусстве
настоящего
##матика
journal
электронной
##бари
##музыканты
накануне
частями
##рного
поездов
##-0000.
крыму
влады
стиму
##западного
##евым
художественных
прием
голосования
яковлевич
базу
аудио
##-00)
##ческо
##зависи
исполнителей
прослу
ник
##ховского
гип
камы
берегов
законы
мнения
перено
вокзала
попов
полиция
отрасли
##дум
##ni
получивший
##низма
широкий
##рокко
##жиз
посполитой
особой
##тизации
##шкина
sil
срока
фракции
считался
предприниматель
интересы
прокура
спектра
двер
забра
тимофе
дубо
выйдя
иннова
рейтинг
освобождении
##поч
целый
столица
знал
мери
стоял
##ato
##гава
##ester
коно
захватить
##зной
ширины
проигры
убивает
механизирова
##жному
флоти
югослав
съе
клип
элементами
бернар
средневеков
##unk
окс
dream
имущества
##франциско
##поя
кок
##ваны
капитаном
функциони
##ссом
0000—0000),
сосе
патрио
премий
хроно
схема
##osc
значит
стамбу
##ring
полю
шведский
##проце
фрунзе
валентин
титула
расширения
##мит
северных
экви
секции
##теру
фэн
games
дивизий
##банк
воздухе
##eing
вводи
вооружён
##//
укры
правя
методом
некро
турне
полоса
техас
пьесе
publish
родном
фабрика
литературного
##ube
открытым
пострада
##ature
международные
хоккеист
##тист
детали
##рьмя
интеллектуаль
##штадт
лошадей
трудоспособного
##жна
вильгельма
##один
вырабо
петрозавод
подготовка
##майора
##международные
##ччи
креп
##itz
фона
иоганн
##ated
##вляли
сбора
##льские
##метре
##нея
##физики
##сексуаль
угла
отмечается
##ida
траги
##слева
сути
дипломат
людовика
сохранения
ся
частиц
берлина
варианты
##графических
##ser
##ах
наоборот
драматург
олимпиады
государственным
ука
eng
трек
##мастер
расста
электроэнер
опубликованы
##кура
period
поиска
хребта
##ностями
дополнение
заведующим
##вказе
наса
словакии
существовала
парном
прогно
game
0/00
объектом
дополнительных
фара
##матической
мань
каким
суворова
спектакль
лодка
рассчиты
##вяз
исте
##dark
семьёй
считая
жана
##oll
##ложены
князем
##русского
попытался
русское
##трибу
##смер
мит
##регион
тайва
версий
узнав
стрелковый
лист
подобно
создали
назвать
валентина
обнаружил
живопись
знаний
##бэ
восточнее
##бел
##деть
учебного
перехва
scaleminor
иисуса
леополь
создавать
носил
поэты
городок
переза
рад
означа
особый
агентство
##so
##берге
нови
вышедший
союзе
реми
формате
уйти
*0000
дуэ
##area
##ксен
окна
кр
##лама
орле
меньшей
##лёт
##стыми
теме
махара
скульптуры
##цкое
взят
патру
течении
##мото
игрой
пропор
нарушение
противотан
пай
дэй
##стике
брайан
красноярского
0-0.
харьковского
li
##трин
##ml
##ya
##вшемся
баль
торговых
##+0
имеющих
внутреннего
перевозки
обсужда
мастерские
edit
флей
серебро
политическая
концертов
сотрудничал
ngc
пуга
лечение
дано
цеза
чёрной
внесе
##тизм
mat
##вме
ям
##мита
##оса
ze
присутствуют
подчер
##видимому
чувстви
четырьмя
дебютировала
dr
пользователей
грун
сельском
нидерланды
##мунд
науке
пределы
000).
группами
имену
жест
улу
альян
оппозиции
рождествен
була
теорию
эпизода
благород
депутаты
+00
двадцати
равна
рабочие
##десят
##ugh
##чники
мати
размером
освободи
##функ
##артилле
филиппи
войскам
##ио
##радо
##сериал
мечами
ib
святые
яросла
рс
европу
##але
##ктивные
##bre
щер
##den
месту
парази
альфон
шпа
съезде
детской
airlines
объедин
австралия
томах
##менской
акционер
практики
##ниса
вымыш
разным
выдвину
лодок
пруссии
индонезии
повреждения
ез
bra
спортивный
ознаменова
##нге
##ждённый
яйца
выполнять
американским
bur
##декса
images
##кцией
взяли
##шне
##-00-0
критике
##тна
документах
матро
походе
утверждал
заседании
действительный
«000
всемирной
##целе
гель
часы
##гэ
масс
##акушер
##чьего
московская
##xt
##влади
bottom
ведо
пятый
##ona
архиепархи
костромской
андреа
профсою
рано
##duction
000-0-0000
симпа
заболеваний
крейсе
сюжета
film
каноэ
##лизацию
виктория
ели
прорабо
radio
некоторыми
разработана
brit
высе
небольшое
построенные
диско
подводных
нала
руку
##ych
реформ
аренды
эквивален
длинные
купо
##технический
##социали
джованни
height
захвата
сектора
фаши
##шенный
индия
кишин
восстанавли
mad
##ichte
##виться
разруши
##католической
mem
##шками
параметры
##iety
##сенко
обме
основную
намного
финалист
происходил
молодым
образованием
параш
советом
##щалось
врагов
рака
благове
##eng
##лил
раздел
##джей
##тыша
суде
пирами
публицист
картине
высад
недоволь
act
кризиса
заведений
(0000—0000);
##adding
композиторов
пане
попали
журналов
курга
##локомотив
##дное
лейтенанта
мав
киностудии
обмена
образованию
располагаются
##дем
шри
вернулись
почтовых
еф
##бь
##региона
##евой
краю
куку
отказаться
##ъём
##рск
##хоз
##октябрь
бежать
наказания
),
купе
видел
верхнего
##ript
включи
##лить
##сферы
передача
##знания
##зун
##дист
грузов
превосход
##нды
описал
поддерживал
##исполнители
переговоров
##зера
##сскую
##почётные
##автомоби
океан
незакон
##портрет
желание
his
сот
олимпийский
погибло
принимают
космических
использованы
##бона
##“»
ear
студия
двигателем
##таясь
учёбы
немецким
пакет
переве
##ховский
созы
00000,
цин
читал
биографии
##пк
##ón
сидя
##культура
##мал
##ones
пересека
представителя
kar
##йорка
госте
##ota
ошибо
различным
##orm
##нджер
крупной
выступая
зарубежных
##gy
##шенных
интегра
увен
воскресен
heart
обыгра
организма
##погиб
ист
дала
ясно
##жек
осуществляет
lu
парово
концерты
архиепископа
наре
##другие
регла
ть
надежда
наци
успел
картину
##чьи
сотрудничестве
##сян
##чак
записан
странами
##.);
начинал
свободно
##йским
великая
существовали
(00.
опухо
##юк
##совета
мюнхе
святи
имеющие
##ива
фотоаппара
десятилетия
монголии
излучения
##rol
vir
##ales
показан
написаны
бр
родом
казань
школах
##td
стрельбы
мила
экстре
природных
##тёр
##товый
робин
монархи
восстанови
##нялась
gold
пире
евреи
конгресс
скульптур
заро
##пеней
мелко
##стона
##фье
##соны
king
убил
экспорт
новоросси
изъя
tex
(00),
мясо
презен
особенностью
##ips
дизе
репута
спуска
киевский
##тская
вилен
бау
дикта
##olf
наличии
##ковка
сотрудником
сведений
##bus
кула
##тиза
##year
##ины
примером
##поэты
российские
городское
##дир
снял
широкой
японских
##ранее
##приятия
произраста
угля
##iana
землях
продукты
населённого
##нек
rel
##шевский
поставлен
медицинский
00),
идет
рады
называться
##нич
пусто
опасности
беля
##большой
чтения
церковно
чарте
##видение
вах
анне
эмбле
око
энерги
##тельному
cre
наве
кузнецов
фельдшерско
илли
смысл
узлов
##носец
бывает
происходят
софия
учётом
##ware
симпто
автомобили
orientation
##льник
пиво
пилот
тибет
##эд
##вице
пир
воевода
ес
буэ
видеть
трапе
артиллерийский
сможет
событиях
повер
вильню
набира
пытались
хельси
##вилось
образовании
##садо
устав
попытку
колледжа
вадим
низко
символов
##ondo
веро
подда
антар
чешу
сквоз
официальном
донецкой
##ццо
(00;
заключил
##пами
тесно
рисо
юниор
увеличения
инженером
донского
##хол
владислав
##шённые
живой
компьютера
##asc
людмила
больнице
##оборудова
##ая
##сотруд
##гражда
прохождения
##гского
усадьба
подсемей
##ждь
##стным
##шенные
относят
«...
тюрк
созданные
##зрение
##испыта
##водом
##gh
англию
навига
##ити
##линского
##токи
священной
располагались
##рек
варшаве
##тках
##хия
альбомы
меньшин
##зри
##основа
ведут
##цк
##фил
загряз
маркси
приступи
##бюро
##app
year
прохо
кольце
привела
ослож
поку
броса
князья
деля
вампи
будущее
взо
ово
палом
##ходить
поворо
воздействия
##рики
##ниж
##adem
##обы
лор
кровь
участков
lo
какое
совету
прочие
##ждённых
##десант
шлю
следовательно
##нск
железнодорожный
ученик
инструменты
ной
##звёзд
дзер
иду
комиссар
популярной
государственное
страда
персонажи
вершине
последствия
скла
##евском
боксёр
расстреля
si
“
##рут
«»
##рийской
рельеф
встроен
кавалерии
сборных
##зовой
спут
##производи
##вика
контролем
##лени
короткие
тебя
лейбле
брук
pan
введение
##рять
##жёл
(0,
##ленное
пехотный
новей
причины
сотрудники
продаж
сложных
официального
куту
горный
применяются
демонстри
лондона
февраль
##cd
##время
записал
протоие
ште
друже
женский
##padding
##вляются
созданная
##стно
##нас
##рие
общую
##тологии
составило
##мбо
входа
проекте
мысль
раздела
##зефа
городская
жито
груди
объединены
##мысле
кафедру
малы
##тельству
##товского
каталог
полуостро
заводов
кристиан
челябин
временного
саудов
##ционеров
##пень
##ллиан
толщи
эскадрильи
марина
получен
##ів
повтори
системах
активность
##ander
разго
##конг
##десяти
роджер
##дире
одни
окраине
способен
продемон
##(0
##pet
##format
большими
правого
упор
##собы
набрал
высшую
стадиона
лесов
аранжи
актрисы
сохранилась
date
градо
реакция
зачёте
восстановить
боевого
полномочий
цита
новосибирской
задачу
?
north
принципи
считаются
##уа
##контро
ha
мк
##щейся
нагру
иртыша
знакоми
образуется
##кисло
прио
отказались
##ьях
##чёва
различия
гил
сост
американские
канцеля
##стю
##ровала
ответственности
очевидно
актуаль
изящ
пира
заболо
младен
торговле
театрального
##премь
##ждённая
сущ
##памятник
просьбой
общественно
скота
монографи
расшире
юрисди
##носца
приключения
лорд
##aa
расы
отвечает
подписан
диссертации
уверен
дистри
##lich
leg
уфа
рока
##новское
plotarea
##луи
обкома
дают
введён
деревянная
##рино
королю
оптими
брау
очевид
ног
##фк
##тры
imagesize
понимает
наполеона
##гги
##star
боснии
названы
##приток
##крестья
пехотной
оне
очерки
музыкальная
благоприя
##красная
органа
приехал
гитарист
##гка
вариантов
блан
дед
соседних
отделении
##bra
судьи
послевоен
назвали
für
сёла
машину
троллейбус
##художе
продукция
рекоменду
##алы
fer
построек
##mi
fir
##мария
рона
великих
установлении
оро
судья
цветки
уступив
убы
автономной
мальчик
луис
##атле
силах
кода
##тированы
великому
##ненной
remix
онлайн
посвящена
символизирует
нужда
проведены
##сино
буты
каспи
тбилиси
##снаб
удара
бедности
крестьяне
сью
чёрная
##голу
##образных
подразуме
timea
##куба
high
журналах
timeaxis
суббо
##торпедо
присутствии
идут
##amer
##пл
##довое
туристов
проведении
галактика
fam
легиона
сборника
##остров
подал
снялась
основанная
мечеть
футбол
владелец
антио
кно
пуль
приори
##olution
##зовый
вики
center
##cer
водоё
видеок
lib
экономике
миг
##ствующие
эмир
##ваемый
озере
стекло
образа
##марка
##tt
##жах
стефан
##пети
молекуляр
выле
голь
консультан
аля
противников
##руко
значительная
##мерного
ассамбле
байдар
леди
##эпизо
марко
##book
рези
techn
ивановна
##дным
популярности
бенеди
стихотворения
##украин
новыми
##-0000-0.
xbox
приписа
попасть
золотых
петропав
##мело
##милли
получение
##швей
православная
##ody
камеры
технике
полном
моисе
##ior
палео
разгром
простой
эры
италию
основание
##ствуя
##хах
завоева
рисунок
противник
реконструкция
##vo
пур
вошед
разворачи
##ray
##лар
##тум
передать
моя
параг
посольства
##шок
гекта
ивановича
##говая
поселе
официальное
##жих
располагалась
факторов
оставшиеся
воронеж
непол
павиль
##лировал
##ць
##cle
борисов
давлением
уайт
камня
отдал
кирилл
литературной
аз
сильным
приклю
толстого
гв
прогрессив
оренбургской
вам
жак
банг
##летняя
композиций
ограничения
степан
уфи
##not
##обря
аварий
вытес
##__
феода
офицера
способны
расширение
таин
##пура
макро
ова
закавказ
##стили
отцу
мастерской
##велико
заявление
регистрации
pat
зелёный
разными
поиск
корпусе
литературо
волги
##гнут
mark
планет
##гата
##нинского
возможных
региональных
##корей
учебное
центральных
##баев
##рель
обнаружива
опаса
продюсером
руководя
паде
выпущены
следствие
дур
стюарт
выиграть
полуфинале
##сима
usd
палу
фабрики
отрядов
селения
жуков
видами
пожара
актёров
сильный
снай
α
##лости
птице
##su
bel
##телях
калибра
книгах
##her
##лины
##бридж
проро
##прессии
короткий
##ваемые
##жаются
##ночных
отсюда
катастрофы
##мада
закону
кризис
##менского
##ogle
остаются
распространено
альберт
перейти
##ковы
сената
слияния
путешествия
##слове
##денбург
##вержен
##щегося
##сполкома
городские
##никола
англ
##началу
звука
пианист
кинофестиваля
полки
##тус
##хон
##трактор
заимствова
sn
алла
съёмок
шахмати
написанная
космического
##астро
dig
lang
##рядо
кировской
мировых
##цким
вит
##ненно
merc
##чалось
##0.0
##-000-0
скандина
##топ
##лонче
вовсе
##маны
еле
комби
набере
будущий
гомель
минской
крупнейшим
перебро
развивается
соединённых
источника
00.00.0000);
гонкон
прихо
джексон
сознания
верхо
##раб
библио
несу
причем
мега
##-00»
центру
##казахстанской
турке
томаса
центры
взгляд
бабо
public
разобра
огромное
##жала
французским
##ненного
##endo
сигнал
fr
##чьих
##urch
##таны
кво
прове
##санта
##капитан
##ртах
наше
экзо
водосбор
##терии
двум
##тун
общих
лучшей
перечисле
##всегда
младше
могуще
gal
библиотеке
##har
аза
##зской
откро
снятый
документальный
головой
следующей
каждое
##зиа
аса
ками
пояса
##ведению
супруже
передней
##иск
вооруженных
##live
росс
вытяну
бронзовую
сохранился
предприня
робер
##ловском
иркутской
дает
могилё
обособ
встречает
серебряную
##кобе
продли
госпиталь
вольф
крова
случаи
франкфур
##риге
стив
яйце
##вои
барона
квалифицирова
виногра
мотострелко
##чор
are
пнев
00/00
воеводства
que
орла
ошибки
графство
футбольного
##вам
мемуа
учёбу
единой
##mm
иор
триум
лим
подполков
функционирова
хал
блэк
организатор
просуще
увидел
известными
солист
ряду
ключ
##нулась
самцов
house
великим
##ative
##реда
0000»
статью
##тюр
##убий
mit
инженеров
действовал
уголовного
гл
##cra
птица
швеция
выходят
##томо
sal
##костью
##летнем
строения
императрицы
pop
##жны
дисло
уполномо
трофи
яв
худ
сутки
посвятил
авиационная
##кской
ип
##ровск
банди
бавар
##пенга
детям
##hist
программного
##war
##бита
обитает
поступила
согласился
##нинг
охране
греческий
000000000.
знаменитый
товар
курсов
исчеза
##лино
челю
##стёр
бага
пензенской
литературных
себа
сделано
поездки
##акушерский
##дун
мисс
внесён
остается
##кир
##ular
##верхняя
советника
жор
##герцо
слегка
григория
##рили
##чусет
##лять
называются
австрийский
гё
духа
конго
темно
общину
шестой
##театра
барокко
##ua
действовать
hd
##нову
блу
обнаружен
##ндро
##девич
варва
поначалу
переведен
##индекс
заказу
прозаи
городами
##earch
##празд
участниками
вторжения
00.0
исходя
##bars
##скова
кавер
##градская
##шины
переез
зачислен
##льде
##oid
скре
post
заключён
самим
##ломе
европейский
##двига
##плане
##вшимися
варьи
исток
драгоцен
могиле
создатель
редактора
структуре
германской
##пад
##сот
буквально
##гвардии
street
составная
храбрость
##mp
впада
##территориальная
##тилось
лап
привет
уничтожения
##рёв
уступил
генеральным
##sz
нами
00:0,
деление
училась
linux
##ционирова
##веда
кавказе
испанской
эги
фирма
##can
##блу
скром
вступления
##yp
ума
укло
резона
инструменталь
досро
мадрид
офицеры
трибуна
переправи
ut
редакция
сик
угрозой
писательница
автомобильной
нашёл
жену
решила
##lav
принципы
снижение
##(0000
делают
общие
степанович
современная
рах
учебно
сельские
##слави
pict
##комые
наследие
##тропи
джоном
##мину
болель
спр
##ринга
##скопи
##востока
разгра
##ствию
разговор
##четы
оло
пуле
продолжается
горного
полным
произведен
днём
рубеже
василье
##бинского
розен
##пель
источникам
##носится
чудотвор
половину
##штаб
чайковского
##нёр
##зена
##стное
неот
пика
химических
##ava
загру
израиле
##низм
парали
химической
##yy
ведения
разгово
##сист
букв
местами
##хат
владел
уильямс
may
называемые
поток
процент
вратарь
представляла
адресу
лошади
получал
листьев
ричарда
приговорён
##тяги
фрэ
введена
говорится
##носцы
такую
##несения
четырех
##риев
##колам
убиты
##листики
введения
китайский
красноармей
има
park
рождества
ив
виртуаль
близко
##клуб
одессе
храмов
приняло
чертой
отсе
викон
симферополь
издана
сбро
кабар
##нент
задей
буэнос
##rh
являлось
alignbars
##шево
мама
спло
крыло
поэтов
##спу
##рующих
орловской
детского
пациентов
##косми
напол
instit
канадский
ситуацию
fri
побо
операцию
средство
вооружении
экспедиция
выходе
лютеран
техникум
was
кирова
верховной
модификации
dom
сбли
чугу
обозре
пгт
горба
аэродром
финансовых
архитектором
разногла
нали
сербской
стэнли
бек
холм
высокое
надписи
aust
высказа
частной
состоящий
мгц
дугла
ранние
перепра
губернатором
west
гибри
экономика
##харак
line
софии
внешний
##тском
dateformat
верхнем
стоян
##апо
победой
детская
як
нагре
телеканале
состоялись
кинорежиссёр
##драма
##правление
поддержкой
автоно
##щалась
небольшим
революция
##иды
пробу
свойств
написан
кажется
засу
ордина
плем
мартина
выпускает
троллейбу
mal
##лык
свидетельствует
##ning
врачей
особых
электропо
волгоградской
##тком
концепция
избирателей
гильдии
##лёку
выходя
юрист
видимо
##гю
внутренние
объявлен
фех
##сован
харьковской
##пры
константинович
шарло
окраска
представил
##сский
явление
выполнил
спорту
узнаёт
свидетельства
##кторами
verlag
перерыва
##нса
собирается
##эна
##скара
##тром
билли
алан
##asy
##жий
##строение
музыкальное
гле
эстафете
отозва
списки
##сбург
введен
boeing
##чато
нина
северную
##алов
##назва
воздух
высшие
привед
закончился
оу
##тину
автодороги
музыкой
масла
нея
историки
##тированные
тульской
примыкает
##священ
##щами
##аном
серафи
приобрела
##хий
road
помощника
лэ
##ael
загово
пенсию
открыты
получать
##развед
##азиат
lim
##кей
являясь
алге
спер
какого
ферма
быстре
##eschichte
вызвал
обитают
роде
##исторические
проектом
существовал
цепи
##ister
столкновения
гено
отбы
##ents
corpor
надежды
стандарт
tro
второ
талли
доминика
приглашён
лер
учение
будто
##техники
советским
отс
##монта
привиле
##ji
занялся
сигнала
возникновения
end
##западном
террористи
##чился
##концер
литур
корпорации
четвёртого
##ques
грена
лёгких
направлений
идти
бк
юнеско
сельской
хара
никакого
акку
##oci
пена
автобио
действием
разрушения
##носить
##ova
уша
золотого
##ns
кожа
событие
комиксов
достижение
эро
снялся
формой
остаться
стене
отступа
консульта
недолго
действующей
мухаммад
##gn
##насекомые
махараджа
##ону
0000—0000-
испанского
рент
##кат
личных
лазер
##скоп
шен
особенностей
двери
ожесто
пережива
##ideo
самок
следы
девушек
патриарх
##ию
точке
##пленных
ролях
лагере
ансамбля
000-0-00000
местный
туризма
воздушного
##мю
##зией
##менная
афроамерикан
упраж
двигатели
мок
william
колла
проез
##зра
кб
хвост
подчёр
пропове
ip
афанась
фильмом
собрании
##муд
мау
эше
путя
paul
##фицирован
республикой
шум
##нят
доцент
(0.00.0000
##торий
маршруты
вариа
семён
франц
##нку
возведён
калужской
редакцией
впечатление
##apan
хоть
высший
спира
кладбища
конференция
популярным
##ues
##wood
национальные
парус
равнове
##!».
недостаточно
вилья
ручей
вокали
school
предмет
деталей
##хие
ранения
джан
плоскости
машинострои
периодически
tw
##кову
охраня
создаёт
##ёнными
роману
животно
пытаясь
##больше
изображён
присоединения
золотом
проника
эмоциональ
##меров
привёл
резерва
##ange
выясни
провинций
##тских
светлана
установления
##lex
болезнь
джейн
камча
il
дрез
выиграв
молодежи
##:0,
##седнев
механики
модифика
##евро
##много
serv
выделяют
алексеев
спортсмены
исторически
##тене
советском
##комарки
ребёнком
радиа
##чатый
dark
роду
агло
даты
сби
##стере
издании
двукратный
##ой
дорогой
встретился
gi
##довым
компенса
##сью
берна
##флора
обязательно
дополнительно
##пах
##менский
виолонче
##стина
рейс
##тирования
средствами
##ъем
##дится
арби
району
проводился
##маха
##жинского
столько
##железнодоро
##ема
ремонта
открытых
танкового
московских
департаменте
##верху
##квартира
рыболов
##ember
знака
##щала
##атлеты
телеканал
##симов
00—00.
институтом
##яро
##береж
деталь
##ken
##маты
##.0000
долина
автоматически
bas
сальва
0000–0000
##жанейро
самоход
work
чж
оценка
сун
покинули
##зовского
женских
##ственному
единого
##cz
##хико
церковной
залож
четыр
марокко
beat
вороб
американском
##ническом
зону
резо
##тическими
паке
##украина
оборот
деклара
планета
учёного
орна
трево
носили
провинциаль
исполнительного
##ison
##пися
нерв
андро
пилота
полком
критику
прессе
##isc
десятки
##кроме
david
хлебо
##зания
south
##континен
сторонники
##боли
мерт
бывшие
совхоза
##попу
краснодарского
отста
##доктор
##дило
##никс
##паулу
штор
ветра
посещал
##ёк
##ony
продолжить
млекопитающих
##таго
##женным
судьбы
здоровье
аэропорту
##крё
дворцо
сильные
##elt
##ссию
boy
анри
##льо
графства
##дерс
дино
пароход
петру
такси
дау
фред
содру
прозра
##ппи
##лие
величины
##ani
портреты
полуострове
собак
##звезда
оставалась
рукописи
##пали
опира
семёнович
николаевна
православный
##ёрами
попытке
инструмент
##берку
марты
##довский
отдельная
##сталь
##легко
разум
крупными
организаторов
взгляды
неподалёку
уще
пошёл
крыльев
олимпийские
##eu
берегах
рассчита
##нско
дожд
спря
##ология
##ider
##хотя
беге
низкой
##погибшие
животные
##путе
протеста
pc
касается
эфио
македонии
штатах
##сце
##ровна
оценке
кинофестивале
##пкс
##vertical
водосборного
яну
берн
##ровское
ребёнок
египте
##баскетбо
##бак
##лярный
гросс
##авгу
##хран
серви
##nik
##няка
##влёк
нач
ассоции
командном
play
ненави
##восточного
##става
fest
##нецкого
достой
##off
##кторе
стоимости
подкре
##нигс
##лятор
##обряд
##back
est
прости
оригинальной
ru
down
крупно
кви
контракта
##erson
##старо
ведётся
##манчестер
правилам
челябинской
##зит
##зоре
жене
жизнью
##нида
##ссор
вел
крупная
древности
остановить
сэйю
##rib
##луй
power
гетто
организу
соф
игроку
содержится
сооружение
однои
физике
реализу
концерта
пин
безы
value
подно
выбы
google
мишель
албании
латинской
##ксон
биатло
алгоритм
##ky
знаков
##“.
##говые
понять
серебряные
соу
менедж
случаю
стипен
старому
##fc
энтони
внезапно
документ
чёрные
травя
избирался
вокалист
физических
камеру
основополож
пользовался
лом
пищи
##движи
спроек
##версия
высшая
##ловая
##деев
энн
пьеса
трассы
просьбе
##кис
##выбор
орлов
поселился
##юго
крипто
православных
bank
жидкости
удостои
перечень
пэ
иные
железа
умеренно
якут
постановка
глобус
цивили
##стером
ров
осмо
интелли
легенда
серьёзно
вул
##кото
kra
разное
волга
считалось
реконструи
широкую
##доу
##интерна
ени
комедия
ветеранов
возможным
всероссийского
слав
отчёт
##тоном
france
напрямую
публикаций
закрытия
##ited
имущество
обнаружено
реду
##современ
хирурги
##ады
владений
противником
самыми
##зировать
массачусет
пригласил
##ппа
величай
водохранилище
##ti
##сное
дрей
температуре
келли
##винского
археологии
##urus
бесе
count
потерпел
##ану
усы
селек
нераз
сцену
##фери
нелега
иванова
распоряжение
переул
повседнев
##монов
##правки
радиостанции
blue
поиски
поколение
правителя
удель
передаче
лиф
##германия
медленно
##ów
современников
##alog
light
ремесле
##|«
замке
энгель
произво
##видео
лонг
мяча
африка
протека
00.00.00
австрия
рассматривается
##джерси
##awa
токси
aus
невер
дэвида
возможностей
находят
хранится
эфире
##логическое
разда
society
принадлежала
##бала
обитания
уволь
казанской
специалисты
дам
----
##финской
##поро
##тетов
плюс
немало
любом
##жор
самбо
явно
геометри
работами
##архитекторы
липе
торговля
посвящены
##результа
##устрой
вермах
проход
профессиона
##ровкой
калифорний
##лённым
вмести
серебра
##добы
ректор
творче
ландшаф
воссозда
эст
гого
называть
##дза
##руа
##рским
canvas
кун
реш
раджа
римля
учебные
##ee
##вино
митин
подъём
доклад
##трий
насо
отчасти
чине
(00,00
убежи
(?
ингу
##-0000,
воскресень
народные
cry
эффективность
##крестьян
учиться
ритм
очерк
опровер
биологии
окончив
сильное
убийстве
племён
собственным
##музей
гнез
армян
живописец
##катастро
церемония
опи
мальчика
лаборатория
краснознамён
сформирован
##лёй
забе
традиционной
way
библей
##сотрудники
рекой
роско
встретил
##готов
балкан
сказки
владеет
ведущим
городке
##itch
елизаветы
напряжения
искать
успехов
изменить
получали
обыкновен
артиллерийской
вина
##юра
##национа
внешних
бомбардирово
преследования
##чинки
##optera
отмечен
позволили
железнодорожных
##иса
относилась
##нули
задней
уровней
доступны
сапо
пошли
бь
##реаль
банки
выполняет
##tur
##матов
fm
санти
союзом
санк
##zer
красные
##бокса
гимназию
вражеских
##рога
вирги
кгб
герцоги
конвер
##гол
##льп
##состоя
дивизию
записей
местным
застройки
##ronic
скульптура
джозеф
##динского
ответил
занято
агломера
cellpadding
##лики
champ
одобре
основателем
##стрит
иерусалим
ломоносова
##мией
(0).
девы
терра
дочер
отмечал
темати
##зный
кне
сму
принёс
луки
отмени
байдарках
hum
нове
командующим
00-000
##mes
##led
##дос
сене
отрядом
медицине
любителей
##vers
ltd
##нистов
##торией
болезней
александру
##aria
pra
новости
друзьями
независимых
кирил
отцов
выражение
типу
сетей
александровна
огромный
##ima
##ленда
соперника
##сию
fire
мячом
##фос
шир
всесоюзной
##тко
васса
погиба
практика
казахской
тал
hand
##гне
##ross
замкну
##международ
политическим
##гб
находящихся
защитника
расположи
латы
кабинет
соверша
аэс
активную
##cap
близлежа
##хих
tem
национальности
##ренс
##хель
долю
экране
безуспе
проблемам
выигрывает
расположенные
транспортных
##uck
уточ
##пт
венеции
личной
##язви
sound
знаменитого
##дым
селу
парижской
организовать
сестрой
степенью
##тчики
show
бале
страш
вор
видно
заливе
тихого
королевский
реальности
##мерно
осени
миннесо
домашнего
национальное
##геля
связя
0000/00.
состояли
##yth
адмирала
трудом
герцегови
примыка
сокрови
типы
обрабаты
##лук
##кок
анон
популяри
учеником
мэр
чьи
попечи
двенадцати
##ady
##тивную
древние
недвижи
показать
танковая
##alis
окта
ступени
проводят
станцией
вороши
названий
пластинки
##плин
сэр
всево
лучшее
объёма
маленький
нари
тауншипа
коллеги
мексике
обычных
влю
дагестан
inf
##продю
##colors
##металлург
##цкие
отка
слой
обыча
величине
абба
титрах
викторович
##динский
телесериале
##omen
##никовые
ём
пеше
георг
этаже
начальной
композицию
cy
улучшения
corporation
тен
мозаи
оценкам
южную
четверти
прикре
выдающийся
мвт
строительству
эффективности
##nd
##рид
##anth
##жизнь
атрибу
##ньц
переклю
оставались
##тировали
наимень
написано
расстояния
##iction
признания
казахстане
чарли
##пик
##дама
задания
##земе
выжи
##авторы
бунде
партией
торговый
воеводство
финансовой
##победи
каналов
##hi
##мисс
сиро
менедже
первенство
div
венти
закрыта
##серебряные
правителем
gall
фамилию
выиграли
сельским
солнечной
000),
##ée
физик
##образие
коалиции
посмо
##металли
джесси
##ungen
ревизии
четверо
##нкер
намере
работая
индустри
обвинению
согласия
математик
щ
харт
стациона
серебряным
%;
джонни
целиком
подхода
плену
##бронзовые
приложения
##wik
житель
пут
рядах
продажу
ox
##реал
культурно
##-0)
житомир
производством
##эпизод
голове
вступила
цифровой
##чах
##щаяся
нрав
##первые
свердлов
расследование
##йте
##серы
образцов
заменил
плю
экраны
##инди
##белые
помещении
поселении
##тян
##кано
жилищ
коменда
чья
##цизма
##числя
действовали
арене
трудя
##онный
погребе
##черно
органами
();
судом
участках
##ходили
телесериала
безопасность
##intendo
почты
фрэнк
сроком
сотен
записки
дальнейшего
славян
варианте
поу
орудие
стремя
мезорегиона
заново
капу
культурных
##зис
бад
стерео
##(0.
луга
##лейтенанта
действова
предметом
##ллинг
##стской
свободной
пособие
родителями
внёс
графом
традиционных
компи
##тального
активной
аа
соч
образцы
нидерландах
##язычных
##ниа
формула
##lightgrey
новодевич
##обе
аварии
банкно
лейбл
делится
##gi
забив
охран
выполнял
ой
футболиста
##sw
##обскому
мультсериа
##шенной
простых
##ете
##вающего
ритуа
##зили
дисквали
смоленск
санд
поверхно
##“».
##появились
русскими
##лль
##земля
копенга
поощ
album
курорт
таблице
театральной
##ipp
отражает
пао
##вальд
температур
территориях
изы
глю
борисович
трансформа
гуд
##тивом
тиражом
эволюции
аппаратов
##шников
собственность
##кратная
пехотного
повстанцев
запрет
прибалтий
оттен
столкнове
уэй
кату
гонча
вражде
смотри
##гент
##грузки
храмы
сражался
##нита
охваты
##освободи
##дово
мужчи
ствола
##тема
пищу
крестом
сибирского
##ude
проведя
sport
(0000;
племена
постоянным
##mal
вали
нага
увеличить
##теты
##стент
молодая
достоинства
экономический
галина
заявила
анастасия
эдуарда
беспоряд
##манн
человеку
##icus
##part
##куро
##пье
нера
звучит
барнау
психиатри
дожде
##зовский
покон
воздви
##академические
канта
клубу
любое
яма
##слежива
джонсон
сложно
##лирует
трети
партийный
##лоу
##украи
хельсинки
юридического
решёт
подходя
уменьши
екатерино
площадки
информационных
ню
##ляют
ввод
хоте
галли
эмира
насчитывается
##cal
##дага
кандидатскую
lat
коче
оскор
##кате
франси
##do
ins
ганд
извле
##градский
верху
сформирована
##жку
##size
тибе
##дольфа
добычи
узел
денис
гидра
научная
защищать
дочерей
прошел
племя
ущерб
##дура
уроки
комбинат
##sfondo
праге
личные
разбира
гидроуз
энциклопедии
##attle
войной
учителей
алтайского
иа
##вленная
созданием
показывают
естественных
соответствующих
dou
histor
##гено
##жами
веса
##зрения
бесса
пота
настаи
суперкубка
тамбовской
##пользова
##слой
включал
бакте
франческо
корее
популяции
социальные
драматического
##пта
квадратных
глазами
поддержал
компонентов
##sen
физ
самарской
##sg
##val
весен
санитар
политическую
тром
запусти
технической
декре
ранней
##днестров
##крестьянской
жени
##рового
снего
консоли
французские
##oot
драматический
абсолютно
##зируется
##семи
##книга
##ницкой
media
##космо
противодей
ири
чехова
general
##тетом
##ступен
##комбина
бакалавра
##ington
studios
##кула
0,0—0,0
фан
вошло
лисса
точку
(0000–
варианта
татарстан
##ходил
студенты
##тты
быстрее
##энди
рель
##когда
доходов
##darkgrey
предполагает
пытаются
##рующий
изданиях
популярностью
показано
##река
ежедневно
демобилизова
##ткин
никита
ak
избы
волков
roll
управлять
называемой
##медици
размещения
игоря
##шань
баскетболист
dc
ях
чте
##образные
возникли
##тонов
вращения
детектив
благополу
мюнхене
##orum
##йд
##las
##есте
маркграф
подмосков
##совые
херсо
##станций
дохода
мировую
##рованного
микрорегион
ядро
##ктами
шаг
свин
бюджета
областью
##тирована
реставрации
##ious
орёл
объединя
австрийской
ады
энди
племе
полтора
поступает
##мья
чей
людвиг
народы
инженерно
иезу
посвящённый
##водит
внут
начато
прорва
вынуждена
000-000.
##кузнец
эндеми
раствори
задер
##ets
##mas
apple
##евское
показатель
bbc
объявили
эскадры
плавания
##дур
##дской
нормы
выпустили
##восточная
iso
кабинета
капитали
##хиру
зар
главными
отечестве
университетов
##щённый
дальнейшее
мультиплика
юридических
##довского
колхозе
партнёр
усадьбы
освобождена
архиепископом
##ханов
##станский
series
захвачен
вероятность
братьями
финляндия
йохан
святителя
федеральный
##фай
ен
##строены
отличался
##0.0000
пересечении
стри
полная
плотности
сохранение
бсср
(0:0).
тяжёлых
квартире
перм
##нинский
гарнизо
люксембург
небольшого
захоронения
казна
горной
занимала
выглядит
разделён
шест
##словно
марсе
##yal
завоё
астронав
##зовых
000;
желая
переворота
российским
master
big
обзор
строительных
##сколько
эксперимента
##рующие
подавля
харькове
пользователь
ксе
##aceae
##атлан
современным
сб
свете
трю
понра
функцию
##рф
sel
fa
графстве
тридцати
0000—0000).
фирмой
тонне
километр
юридический
родила
under
набережной
##жера
##дуб
лов
папой
двухэта
указано
##.0,
судя
##ничный
схемы
##тьевич
месторождений
строений
всесоюзного
изображений
важные
мастером
отставке
##-000-00000
мек
металло
мрамор
философия
историческая
over
нерав
нур
авторитет
##дд
##пил
собрать
##лаз
учитывая
##ксм
гот
мун
кель
терапии
домом
тоболь
−00
##шинского
черны
изабе
расовый
воли
hel
имение
использован
##точных
заложен
людовик
маргарита
преподобного
##зеро
##часто
канц
метрах
##сала
fox
исполнила
##ever
патрик
критика
выполнены
##aker
##жины
##японской
##eta
стана
доброво
##ньон
лега
##женщины
звёзды
подчинения
американцев
насчитывает
##зеля
прой
романы
тексти
пересекает
soft
мировая
компьютерной
иосифа
неорга
резолю
##совский
музыкальном
##ляцию
переми
присво
историо
##поп
##баль
wil
##нином
колы
лейтена
##ама
важное
прекратил
малые
турок
##ör
бэй
кандидатом
перебрался
корруп
полную
движением
преобразования
##чжу
овце
поэмы
куз
##арсена
america
фашист
каменный
истребительный
000-0-000-00000
##ope
майкла
наполеонов
оф
##рожде
конфигура
владельцем
##еврей
схеме
массовых
##доктора
довери
театров
##графического
возникло
##социаль
серебряной
противопоста
преследу
китайского
краса
гонках
трассе
гвардия
архиерей
дальность
физического
##аса
вг
каждую
названные
пит
родного
колумбия
протяжённость
бюст
##особен
самому
продолжала
##щённых
звезд
десятин
английским
##лиса
поддерживать
##ковед
##billboard
магазинов
long
##северо
узко
потомки
##пить
roman
свино
##ittle
##ландию
##сейчас
образец
##карт
##чести
сожа
##ёма
##точной
повол
цеха
госуда
##аф
плате
посыла
растёт
##морфи
##нется
выяснилось
отложе
личность
ann
##ловых
библии
вак
сроки
торговые
сертифика
артисты
конфедерации
##шского
лишения
воздушно
бассейнового
##ship
##словие
##туи
сибирь
старообряд
соответствующие
##és
##аре
мембра
маршала
##полии
##экранизации
##ias
##воин
##peg
наём
отстра
барба
уин
##колле
##жённые
успешным
предводитель
##bor
строки
яковлев
действующий
##tre
впа
мэра
##несены
##zen
##реб
кибер
ветери
гостей
кондра
общественности
неблаго
спутник
##коммуника
франциска
##ллс
япон
##события
включен
операциях
##горь
пистолет
##ette
полей
открыть
возобнови
возглавляет
яд
##никой
саль
латино
гагарина
экспозиции
диф
одесса
прототи
##hel
##водных
размести
##электри
##сб
сочинение
запасы
скрипа
французов
адмиралтей
##хал
рой
орбиты
религиозной
##энд
##плат
выго
любые
почтовой
требований
вторг
гидроузла
выводу
тести
выступающий
##архе
##тези
##форда
фамилий
башен
показатели
вцик
##ленную
суммар
венесуэ
##сень
кит
взаимоот
##белый
заключённых
отсутствием
##inus
этапов
##xviii
богов
губерний
шведской
распределение
##новое
истребительного
лота
пиани
репертуа
предоставляет
предположение
раздра
царицы
орденов
иди
джимми
повторно
глин
сорта
лейблом
голливуд
местными
министерстве
облик
врачом
фигура
придума
педагогический
знамя
западное
фрагменты
утверждения
сумме
окружения
##tor
важнейших
##александр
строение
собраны
##линской
замены
##fran
lab
##фович
this
подс
тяжёлые
##флек
##прано
ресурсы
интернете
набереж
прогу
служат
сталки
агрессив
##район
афинах
##минг
##ктору
обез
саду
смешанных
хромо
открытые
##альная
ячейки
##зацией
##инстру
носят
тогдаш
грав
исма
полуша
маршрута
смену
потока
##харь
##гарда
оконе
мужская
великолеп
характерно
mel
серо
##одна
водах
##arm
синхро
заранее
сопоста
арабского
независимой
mid
заключение
##штра
##сфаль
дуна
развёр
#0
обществ
##ссой
танца
цикло
балка
флотом
календа
##св
гун
сприн
охватывает
максимально
##скульп
колонны
экспона
немногих
арханге
##00).
внешнего
##day
спасения
00.00.0000,
младшим
прочего
риск
достичь
российском
##послы
лихо
разработанный
##учё
##spac
подчёрки
##морф
выражения
хоккейной
черногории
##sn
лету
мори
буржу
pap
##химик
##авиационные
установили
расположения
волна
иро
вечера
представлено
##чила
баба
сыграв
открытии
хотели
греческих
gar
грэ
oper
корабе
разделена
##святые
участвуют
##гоф
##ally
##пана
прапор
произошли
##трои
историков
республик
завоевания
##атлет
дядя
площадке
древеси
обнаружения
автомобильная
##лейтена
сектор
кариб
ханты
сильней
маршрутов
##ляются
##партий
разработанная
кожу
джули
pgc
индейцев
съем
олимпийского
кэр
гарнизон
##ello
особей
отби
##ложить
пушка
значительных
регби
инфраструктуры
движу
##лирование
комбината
##кы
##сказ
тау
гоно
алекс
короны
механизма
ін
днепра
##улица
##зского
движений
хард
украинском
ветвь
филатели
четвёртой
евдо
конди
церковных
аспирантуру
##edes
спаси
океане
контролиру
000-00-0000-0
##ненное
##урал
##тские
враждеб
концертах
разработаны
аве
пья
овер
##ненная
##ковское
шт
##геро
##король
ударов
градусов
страницы
шриф
частные
00/
смирнов
проверки
##эко
образцовое
##сцена
всад
детство
синглом
узнал
##невский
nintendo
агрега
хутора
##версии
икона
некра
обнаружили
шлях
рейсы
00000)
маршал
племянник
черноморского
эндо
народно
##нгу
ареал
исправи
условиям
обнаруживает
##инженер
##cus
пересечения
бене
корпусом
эвакуации
##ped
##справа
отрас
sum
##ждают
захват
армянский
##нц
преступлений
cult
клав
##англий
ленты
##производ
сыграли
грузинской
актёром
имеющий
##стандар
наказание
zw
##майоры
унаследовал
##юры
азиа
##губернатор
городским
юности
##суди
улан
дивизией
выполнении
''-
заключении
счету
трудовой
gn
синаго
лива
технический
link
##тинская
карлос
духовного
##aya
томской
опубликовано
производителей
##объ
##скур
трей
##лоне
##телен
science
многочисленными
vo
адъютан
##мерной
нун
наивыс
беженцев
мультфильм
##лкой
перку
открытой
##номы
##чинский
бухгал
кёрлин
энергия
каждому
китайских
квартиры
несовершен
##mel
прыж
девочка
посчита
псевдоним
##bel
кёль
слухи
языку
филадель
благовещен
черниговской
##нисти
турбо
##бино
##волы
серье
рабочим
развива
ходатай
##yt
''0
ben
неопреде
английских
##цлав
панк
##графию
скот
##цилинд
##йское
джорджи
фотографий
пересы
итальянских
человечества
муха
атака
тёп
##правители
полученных
##возвра
биологических
##ument
приборов
набрав
ведущие
tre
##хоккей
сканда
##гиба
сессии
##персонажи
##карта
ледо
заводы
##кинс
0,0000
var
юпи
##зский
требованиям
массой
вещей
кирово
поздней
приобрете
маса
каска
близости
great
вопроса
коренных
##жало
bon
уругвая
##графическая
##ista
##гоне
языками
##iat
##вместе
навсегда
##ресе
перешел
##марк
труба
священного
состави
манги
выдающихся
оставаться
помещение
моей
стефана
оставшихся
##mic
снять
америку
традиций
нападение
билл
ибо
продаже
##;"
берг
##щённые
галереи
заведение
сообщений
параметров
##татар
000–
лепе
позиция
соколов
совпада
преимущество
##wn
ял
связ
первому
отклады
##urt
das
##нэ
##пут
кале
электромагни
преподавателей
##хуа
bea
развле
объясняется
##ловым
##логическом
##шни
молочно
##строил
казаки
уравнения
новосибирск
##гистра
знать
еврейских
находиться
машиностроения
пиро
этапах
кук
петербургского
уж
трубо
циви
красных
степеней
##uel
##жим
расстрелян
орто
##женский
тканей
учащихся
##брасы
направлению
новгороде
mach
борец
магазина
гонка
киноакт
##зового
землёй
красным
созданной
бронзовым
произведениях
праве
##хоп
##cess
dan
баки
добыча
расследования
оза
офис
технические
разработчиков
##кнул
вэй
чувство
открылся
обществом
##hol
очереди
второстепен
отдельным
применением
дало
проры
##военная
доступен
единственное
важно
публици
##cher
hor
листа
##вир
ast
потерь
организовы
##бэй
гав
(00—00
существа
##нёв
рис
бывшим
оч
заметил
##серий
sony
линд
##рисы
##лак
шайбой
морские
дворянства
называемых
##xix
хоу
мимо
шуль
альбре
швейцария
посетителей
кофе
промышленного
##zo
##ющуюся
фасад
другому
необходимые
ham
судоход
##ведо
любых
осады
выставо
хань
служили
американцы
##жило
##гнуть
поэте
музыканта
##скоро
здоро
концерте
делал
##действи
священно
##гало
слава
пекине
короб
##инду
max
венгрия
постоянный
##фь
хри
слобода
яиц
поселен
береговой
bard
##встре
укреп
личным
расчёт
##фами
подлин
положительные
##литов
кларк
пилотов
good
строить
карту
органом
завершить
специализиру
##рным
##топо
font
##морских
длинный
выступают
опасность
последнюю
god
открыли
вё
##ссет
##pc
##ye
пало
формулой
экономист
##ковую
невысо
##тарио
самих
постоянное
mtv
##основ
рассказал
гражданство
zur
dire
перми
платино
свар
##грамма
##ker
проработал
##цци
##cent
news
мечети
минске
корпусов
подробно
московское
альбер
психиат
ближайшей
награждена
архитектура
(0000-
фю
##только
порно
меняется
##делия
виру
##ваемой
занимали
педро
туберку
##италия
примере
торонто
отказывается
выделить
##таций
##щет
высшем
##pos
##роу
##площа
шара
ведомства
уха
хун
кампанию
##вском
брюссе
владельца
постановке
прекратить
##тио
##чат
##автор
сборнике
воспитания
переведены
ставропольского
##изма
кл
суммы
сделаны
let
дно
пузы
##jo
массу
задание
спортивного
##денса
##чатая
урал
обога
чечен
подтвердил
приготовления
урочи
ареста
голода
##ska
##кот
инве
присваи
##даме
литовский
тени
недав
ленинградский
прим
адольф
будущей
пророка
##urs
частоты
территорией
##мака
вошел
болгария
##перво
духе
тяго
джерри
крымского
мио
##шинский
##вропе
доль
шлема
деревянный
##водо
##спорта
редких
сильнее
атмосфер
arm
турция
##гень
##ждал
##саха
буддий
px
##ambridge
защитить
ob
авра
убеди
группах
почётным
навар
пенальти
##ione
каролина
производит
лондонского
падает
##orge
00»
бургун
умирает
половиной
##хво
страниц
дженни
вовле
милан
##дением
##sup
vis
##ответ
волн
бронзовые
##дием
##ниста
бессмер
##бец
возму
полученные
нобелевской
договору
fin
направил
отмечены
коэффициен
вскры
##ничной
попросил
оккупирована
строительством
##ras
##крылья
европа
жанр
взяла
##ila
##шало
весны
сформу
допро
чёрных
##чера
##ковича
миром
симметри
прива
##spacing
поляков
##rock
трофе
участница
##мяг
##чьей
имелись
историка
##шн
##сора
##вну
##манский
##сегодня
словом
естественно
##.'',
liv
trans
промо
методо
привержен
чеченской
##флаг
сложные
поставлена
религиозные
графиня
##мэр
##рная
##томи
лента
календар
финский
цивилизации
агента
планта
##московский
появлением
тих
##ровый
вылета
голицы
рациональ
предоставля
##én
##типи
stone
заговор
расширя
катастрофа
##еву
##эндеми
лип
похож
ракета
##деры
##пенко
значений
##точные
работо
девушку
победила
торговой
##collapse
попыток
инфе
доцен
преди
иниции
*:
rich
дэвис
##точного
соревнование
абстра
примеры
##гации
безымя
##офицер
внизу
цветом
главном
кристалли
учреждена
дополнительный
одесской
полуфинал
участника
действующих
халифа
##преки
венгерский
0-00-000000
звездой
сборные
компьютеров
рекомендации
революционных
взаимодействие
почта
носить
достигли
заявления
спектакля
объем
садов
историей
пл
послал
культурной
имён
colors
кызы
##шкам
цилиндри
классифика
##ковод
карпа
дизайна
последствий
##вестник
контей
традиция
находящийся
##cis
роб
разоча
##поче
дуэт
мировом
стрельбе
##няков
оскар
двусторон
##оде
зиг
любли
постановки
христианства
родственников
обознача
##ленном
майя
mcg
постоянных
задействова
построения
цены
запрещено
сделала
укрепление
представить
##нула
британские
центрально
##зай
удиви
литовской
cellspacing
возвышенности
##ссий
близких
происходило
##edia
признаки
##льск
##пуше
трио
приступил
##utt
##чевский
обыкнове
марий
##чённые
соиска
##ническую
сним
выпуске
полуостров
реаги
стабили
fall
пусть
применяют
продолжать
модернизации
##ари
tor
##xvii
внутрь
общественные
флоте
харри
##тока
грен
манга
тифли
землев
гонконг
##вленного
##косно
смеси
бумаги
волосы
минуту
лётчиков
республиканской
графов
поиско
баскетболу
палате
склонах
##легкоатлеты
##бывший
анархи
отражение
##ликов
эрне
убили
старшина
стратегии
##жело
населенных
питание
суша
version
сенатор
регулиру
камбо
##довать
исполнительный
##каса
большевиков
##льят
зима
основателя
жю
купа
принципу
владимиром
миссия
лицензии
##see
омской
клау
почве
концентрации
модернизирова
##чинок
душа
##первая
непло
преемником
ba
##фили
##stein
##дз
##воя
##позд
##большая
ваку
оказал
особые
селение
трудности
##dom
##аэро
##етта
посты
указывают
##шту
процвета
оформление
##фрон
шахты
спутника
завершился
##ways
island
дагестана
изучением
ворва
черкас
##зло
##ндж
##анто
желтова
аккумуля
##курс
##ional
экран
##православ
##ванс
валерия
##чатых
важной
киргизии
##ол
##мощ
##ведя
грамота
двойной
японская
оптима
литературу
коко
бульва
chart
молот
ценности
георгиевич
##wer
##древ
свободное
вооружённые
снарядов
большее
машинно
чаше
насилия
нокау
запуск
боеприпасов
подлежа
вступили
тона
гамиль
раннем
называл
##фак
girl
читать
владивосток
пропуска
всея
многим
##гуны
hal
греков
фотография
лиси
тайно
словении
волоколам
##hal
цюри
султа
нэ
старт
разделены
hy
##ренная
балли
принуди
##under
введены
седьмой
комбинирова
расписа
##тчик
файлов
серьёзные
трудоспособном
##gar
зод
мерку
цзинь
##нур
bab
телевизионных
##гос
сулей
помещений
успешных
пушек
елены
выделяется
сувере
родослов
коры
платформе
##ксы
##рум
мела
##тируются
трагедии
##политические
thom
теми
трубы
учебный
упоминает
##нсь
##принг
баре
теря
узнать
##vol
##сау
##ранда
##лённой
павло
лауреатом
разновидность
##аму
##банка
выполнить
##песня
ведет
застре
##искусство
поднялся
латиноамерикан
принесла
lou
сква
##чкин
обследова
dj
##шова
кинофиль
##наука
эллип
продолжения
архитекторов
стартовал
журналиста
дюй
космос
network
research
построили
неизвестна
##наи
ед
отказалась
выходить
молодости
марио
общения
вроде
штаты
надгро
выбрать
монументаль
##няла
гавай
никак
написания
препаратов
mk
##ченная
латвийской
фонтан
солнечного
##объек
##velop
евразии
##винов
нович
##винский
эффекты
юмо
мобили
галерее
коэффициент
посадку
эш
цито
##употре
передачу
распределения
нике
цена
актива
##запада
video
карелии
признать
##переводчики
джин
##бана
амстердам
императору
отдан
некоммер
##чж
мана
обуча
##дву
разыгры
хребет
мемориал
питаются
маго
городка
посадки
небольшими
программное
писем
игровых
проживания
нагор
профила
культуру
##roid
##читься
##динской
конструкций
плоды
семена
хет
бывают
лучшего
названный
подавления
##городский
электронных
западную
позволил
наследство
##00.00
##литься
верфи
ошибок
##хтен
##ental
весом
поэма
единый
интеллиген
##гион
женщиной
##дрп
легенде
##центрирова
новгорода
христианской
##рида
аби
либре
благослове
##дво
hall
сознание
закончилась
##фте
философи
хранятся
фёдора
характерны
вокза
##владимир
##тол
издательством
##—0000)
покрова
больницу
азербайджан
зависимость
found
майора
пенсиль
смертной
историческое
ford
##провин
холодной
##мово
##метрия
постри
давида
##епископы
fant
##ргы
товары
экзаме
бригаду
##дивизи
брату
гессен
dec
aud
##эндемики
новодевичьем
ваг
реген
рассея
вюр
экза
питера
трасса
советником
сообщество
классического
##единок
розыгрыш
армянского
перспектив
черт
##актёры
случая
рен
alex
выте
переводы
##ставка
intel
певца
##оператор
батарей
историческом
##беля
martin
манифе
фрагмент
##динга
выкупи
кантри
кампания
танковый
посольство
численностью
сары
first
проблему
христианство
стихотворений
##тич
кисе
чёрно
титулом
сине
associ
ученых
влюб
иртыш
##мк
существовавшая
студию
реального
отсутствии
##)».
angel
потря
ювели
журналы
философских
##баха
обязанностей
рк
дин
ill
оппо
казар
оценивается
инфан
упал
праву
##!»,
собаки
ссылки
изолирова
национально
##совского
цензу
признана
транскрип
древний
духовную
парламентских
##люк
##oung
проводя
переведена
пробе
обратной
воздействие
телевидение
##мпа
демонстрирова
концла
пятого
крымских
##бот
##читан
нужд
печо
death
##родился
широкого
юсу
атак
00:00);
действовала
секунды
пуэр
споры
компар
листов
раненых
страной
##восточный
воссоеди
предпринял
католический
##bb
##тот
крав
##религи
прежнее
##командиры
знакомится
orig
таблицы
экск
травму
комплексов
валли
присутствие
anim
танец
камней
маршруту
предложили
потеряли
соединён
оператора
гражданская
железы
диапазоне
существовать
##демократической
рубеж
лотарин
средневековья
##дди
##щенный
project
проголо
принцессы
иси
почет
шекспира
##йе
активным
написала
dist
стилю
тейлор
##лел
##апре
дальнем
красоты
проявил
##ét
расходы
муд
##логами
обезья
партийной
хозяйстве
величества
берегам
британии
вектор
использовалось
##ора
##видной
##щенных
миномёт
нехва
аравии
воле
окси
пишу
туман
##''-
моца
оказывает
пользователя
##roll
##макси
аргентина
побывал
добраться
##дело
##каре
несчаст
византии
батальонов
коммунистов
дифференциаль
муста
##премьер
старшей
##передачи
снижения
снимался
##пале
сражениях
##зино
##ттер
##живая
круге
встреч
аудитории
полотнище
пользовались
#*
бона
греция
cast
поселением
##вию
##лив
цирку
чешский
##ago
##тиса
царе
смесь
продолжают
##пове
хоп
##лилась
дирижё
угрозы
апостольский
##дау
##токси
пассажирских
носителей
мика
тебе
миллер
рпц
рама
делами
эффекта
памятником
ару
нема
продан
##ствующий
уездного
приложений
##плении
статуя
азербайджанский
кузова
уэльса
оставалось
##you
талант
##чемпиона
сиги
секретарем
рассматривать
##болга
кеннеди
появляться
анга
касса
константинополь
##закон
лаврен
рудольф
демократии
выясняется
переводится
синглов
названию
##бры
савой
выжива
сухопутных
##туар
disc
sign
##сового
человеческой
rh
##гино
##цово
выгод
##сочета
курган
исследу
серебряная
##особенно
приняты
витебской
настоятель
##младший
почётное
сочетании
ta
кормо
трудовую
урала
научное
возможностью
##нность
ветер
манев
космической
##дению
dead
вопреки
астероид
обращается
##гребцы
стекла
##министром
определённых
##цко
оди
ежемеся
отмечено
организациями
консул
##-0,0
преобладают
##тоу
##рана
елизаве
##бук
показ
причаст
чиновников
арма
выходили
модификация
##cht
##ople
экономические
михайловича
делах
изображены
00.00.0000.
##iro
эдди
##репресси
выполнена
кейт
предель
родоначаль
постановления
bell
арсена
##ваемого
##медиа
одесского
правителей
##oney
занимаются
атомной
разработкой
принадлежности
анну
mov
гуса
сообра
##ants
снизу
голубой
##ченными
увеличивается
00.0000
асфаль
##!''
соко
бомбы
состя
толстой
присоединились
чебокса
химического
##фет
##тини
максимили
кой
эрнст
передано
##лв
##rest
##чатой
##бургского
##cast
щита
##венгер
заменён
продано
виноград
реактив
##реса
художественная
##диан
отделением
##use
##чив
кону
написанные
ташкен
творческой
альпы
сняты
##шай
##лето
отро
##шествие
##роль
##борцы
караган
остановки
стандарта
подготовил
##ense
##тузиа
##ростов
##чука
клер
плён
##ленными
robert
флотилии
уит
фрай
расположенной
климата
перекрё
ирландия
йорк
условно
упоминания
гауби
гродне
крупное
супружеские
общ
проезда
традиционные
небольшую
буй
шва
miss
дэви
pictures
вспоминал
поражений
гомосексуаль
уй
оксфорд
заменить
турецкий
командного
направлениях
специальная
##sol
pres
нежели
филиала
эди
##лярных
одежду
возникают
##ув
утро
white
торгового
шон
пришед
стихотворение
свидетельствуют
##соеди
набора
красное
полтавской
богослужения
маски
компьютерная
##data
осетии
вдохнов
прилага
##щимся
сквозь
bardata
кинокри
поворачи
уничтожение
##западный
занятий
квадратный
разделения
##стик
щерба
посещения
##бам
##слы
индийского
##шор
##ness
##нялось
##энерго
артистов
духовенства
федеральных
squ
колес
объёмом
говорили
##репрессированные
##мотор
луган
вершин
имелось
глазах
латыш
##иван
ростом
выведен
называемая
печени
сыграть
величина
##псон
ави
##нуться
касте
маври
длится
спектакле
музыкальную
героем
##независи
дополнительного
##доступ
саундтрек
##актив
##графом
engine
юношей
номеров
органах
толкова
мельница
##head
самцы
утверждение
электроэнергии
japan
ислама
парламенте
##оль
##шит
ильин
крите
##publ
##вымыш
##тному
камера
##республи
словаря
космический
##лили
колю
прибе
иностранные
нева
построенная
анте
##характери
##00-
камни
ближнего
деревянные
президентских
вагоны
адвокат
##bu
##ешь
##тельских
мексика
##прессиони
гк
театральных
принадлежали
сёл
жиль
мариу
массовые
приднестров
сокращение
##венно
##левых
роды
полотнища
артиллерийских
##нх
##нося
жилые
перси
андреев
пунктом
городище
##pan
##галь
##вязыва
##совреме
отделе
##терн
лас
люд
##black
##ender
моложе
атмосферы
открылась
##сской
saint
актов
выставок
материалам
квалификацию
##осе
##life
спецслуж
убра
повят
##программ
конькобе
##зеппе
фланд
машине
окрестности
грибов
детские
##онной
стилем
видимости
лиди
охотни
эмигранты
##сва
рик
кратеров
##!!00!!00
губернского
##oire
особым
доблесть
реорганизова
##цки
##хайм
турецкой
##нув
любил
процентов
##шкова
снизи
##тельстве
взглядов
сходство
##водя
##ссау
aug
(00:0,
рукопись
##play
mont
##летних
отража
##аван
##жённых
##химии
аста
овра
##тельны
обычной
могилёвской
##är
кише
расход
вещество
team
герме
полосе
небольшом
##риха
синта
черта
массового
##знание
##time
фредерик
телесериал
проповед
танковых
##одно
румыния
уничтожены
географического
стенах
родились
##толе
##тчиков
работники
##зная
мостов
контексте
побу
белым
прямого
сравнитель
островского
дефе
##лочной
0000''
экскур
издательстве
бассейне
шти
западные
короткое
##zi
##серия
##ничные
эгидой
энергетики
сдви
##спекта
докт
извер
троицы
показана
##отече
баха
диспет
евгень
карлом
проведен
архипелага
мощи
потребовал
##mag
##поте
##ссср
##сторан
бонда
ископаемых
противоречи
верди
##награждённые
##фюр
гуго
арабских
##зак
криво
рассу
сады
сделана
совместной
##уда
##кало
вирджи
доказательства
отъ
тексто
##гле
##ллах
брей
мотори
маркса
юрьевич
монографий
севастополь
лоб
##vis
##канди
фирме
вермахта
бомбардиром
белое
проявления
проживающих
##oscow
продукта
гуан
подполь
##ria
##зные
зубов
##бинский
точкой
интерье
энергию
инсу
выборг
решить
##стоне
простые
пожалован
совершили
мил
шор
победе
украину
sky
выросла
находки
нынешнего
рако
протоко
##iff
##пай
рем
##последний
включала
поединок
поздних
телеведу
##кило
приуро
##опа
абдул
весё
оригинальный
##логически
промышленной
##тьяго
утверждают
##боло
стоят
спродю
падение
старших
##теи
головной
потенциал
средневековой
por
бок
подар
списку
заявили
##заслуженный
##!!0
старшин
исключения
напряжение
##вене
трофей
условии
ая
веге
##рирует
гитар
белыми
теплово
##советская
кх
хвой
##заде
##теоре
##альное
заграни
природного
ленинградском
мехико
##ball
фле
фолк
dance
рсдрп
ассистентом
##вон
##вро
jan
полгода
индустрии
севастополя
аст
фавори
ханства
основали
##тень
русь
альфред
ударной
критикова
следствием
использована
сгоре
##работать
публики
выделяются
финансирования
##ллас
ult
##притоки
франков
арабо
помогал
##мить
##шках
роя
##ладеш
взамен
позади
##совая
собором
специальное
выделен
лоба
выбрал
дефици
приёма
ивановской
##сэ
выходом
ключевых
приложение
вуд
уязви
созданного
свобода
сохранил
##впоследствии
##математических
##bat
##ines
головного
##,''
дому
##универси
ниц
пермь
некогда
перенос
президенте
нево
##ренный
позднего
застройка
polit
лидеры
##ориен
широкие
андерсон
подобного
##чни
князю
соцве
контакты
миннесота
ранение
установок
башкирской
присутствовал
##западная
епископов
техническим
##лейк
гарвард
механизмов
положительно
##сья
бейс
мадага
проиграла
##шили
номинирован
футболистов
сырья
comics
физика
покидает
##kar
green
##геор
почетный
исследованиях
отры
пету
старшая
самка
commun
##моги
горю
хилл
лорда
францией
приморского
алё
молдавской
##плен
каменная
львове
приняв
нож
заку
богословия
сосно
develop
водоизме
##сын
##меном
должностях
##orth
соколо
войсках
украшения
##cel
##ремонт
свадьбы
искусству
##osh
немцами
естество
трудящихся
##pp
куд
носила
##дете
sant
моче
научную
олега
множеством
осуществления
##лига
общине
телеви
маргарет
ka
сенат
углом
отзыва
папу
##мёр
турки
татары
приглашение
##ерс
калли
пожалова
судебной
##модель
старое
##фрид
неба
oxford
таджикистана
мам
##ренное
##pre
пк
##никовых
легенды
орды
шарль
избрания
##рову
балло
захороне
##каль
digital
устроен
продолжением
##люди
сделав
ввёл
иллиной
простира
болгарский
##ront
никакой
пьес
чжан
происхождении
налогов
артиллерия
протоиерей
советскими
академического
##ror
##плением
абхазии
раздель
договори
почтовые
происходили
bus
предков
видам
близок
мирного
хорошие
брянской
транспорти
признаков
кодекса
аук
багда
##миха
##граммы
усиления
##элл
##тиву
thumb
шведского
##тией
def
##стаби
марку
славу
гры
вывода
##поз
##тится
огайо
прокля
графики
прессы
приезжает
##вымышленные
вилла
танцов
##меец
##ронной
победить
заведовал
фли
вавило
орбиту
завершении
дошёл
переходе
кемеровской
центральным
##rim
##нту
##ням
вьетнама
турецкого
концертный
##)'',
перевозок
##дают
##зенит
совеща
подписали
##oto
##аде
##анский
полевой
охоты
сильнейших
##чино
жем
манипу
порой
победив
недовольство
министерством
##ждать
мосту
озёра
явлений
##-0»,
газов
турби
иоганна
нигерии
активный
победители
##тава
газету
##професси
переоборудова
##эми
нере
риге
пасту
##городская
астероидов
but
разряд
##надцатый
свободных
подсемейства
сопровождении
##пг
борта
воево
заглав
способствует
##яй
##conom
langu
мигра
невероят
##шные
серги
латинского
##бани
##дева
##испа
перешло
станицы
кристофер
отечеством
##oth
шел
##нному
вымер
данными
частицы
отмечают
##виц
атаковать
артура
провали
состояло
специальным
совокупность
##тьева
продолжалась
##ami
##борг
хари
классы
##конферен
##)''.
народное
подходит
способствовало
##герб
габс
профессии
обладал
вознесен
фру
вдова
##ological
существующих
шампа
изыска
высоком
ик
гоф
усадеб
##женность
пропаганды
преимущества
##фир
общежи
монголь
ожи
magaz
горнолы
##щине
кава
##сности
лекций
дверь
##aph
##шись
дань
советы
единства
автобусов
##дома
каи
генералом
необходимых
авиакомпания
##вут
##зио
##гуна
##круг
голландии
выступавший
университетах
ever
штабе
##жностью
тщательно
##грантов
удовлетвори
ит
##хоза
хэй
##энерге
сухой
(:
##щица
вызвала
##eld
##дерев
символиче
результата
конституция
месторождение
##йт
ведение
карелия
production
московским
ане
оказали
рига
отпеча
альфонсо
##mb
саран
##ices
мастерство
##крестьянскую
##подо
начальная
праздника
ценностей
руке
теряет
рада
узла
ty
боксу
##ждаются
топлив
бангладеш
командиров
государстве
##организации
##нак
volume
##-,
plan
сепара
ванку
варшавского
##славский
армения
##ническими
энтомо
энтузиа
содружества
земной
льюис
периоду
насколько
характеристик
заявку
оформи
записала
соотношение
анатольевич
руководители
пролив
верхние
записана
яз
##старе
##шский
актёры
гетеро
интерфейс
##март
##мены
##праведли
объясняет
способствовал
##ason
##мемо
##щеры
##цирова
кремля
крупнейшие
##ante
эдин
слеса
режиссу
##gan
баден
##провода
бароне
кэтрин
признаны
##меры
«0000
астрономии
##фраг
блоков
##eth
##рга
ju
спортсмена
##зако
##рков
зас
мистер
ядерной
районный
стремление
##мага
настоятелем
##ві
##охо
нумера
тексте
автобусы
категори
потеряла
чудотворца
##музе
##skie
хип
кром
##сели
##петро
джейм
короткой
phys
##жскому
##тирование
видах
сорока
царской
##ави
французы
координаты
монастырей
скончалась
фил
магазины
##bro
ула
вкус
интересно
длительное
архива
festival
программи
полномочный
##отец
##штур
гнездо
девочки
##председатель
дмит
судьбе
выделены
##char
##щиками
изданы
делятся
пленных
bet
драгу
колокольня
##логе
##ехать
##линском
отклю
флаго
осуждён
значительным
##',
дик
делом
##адмирала
разделение
##шон
##системы
опуска
##bi
##cor
погибшим
утили
баварии
принципов
##номина
указу
способы
##технической
##тинген
рязан
шварц
вылетов
##000)
толе
##шенная
молока
##канд
##шных
телом
домашние
кинематографи
syn
йор
##композиторы
yy
лобо
факты
jul
сервис
эмману
боевиков
направлены
куйбышевского
##правда
молча
угрозу
##тани
##нефте
парф
официальные
планов
урожен
заводом
##лёг
дун
##совался
почтовая
bad
##ссона
похоже
старейших
кады
интереса
преданию
районами
обращении
##ктах
##лером
##жаться
чарльза
туркмени
встретить
муниципальный
чека
шатт
послом
##восточном
ital
##цейских
стояли
голосова
персонала
работающих
снабжения
##ллю
отправляются
транспортные
казачьего
подво
смены
леонида
журналистики
королей
слоя
пуско
(''«
##тацией
круго
лермон
захваты
отнести
животного
##хилл
##ography
##любовь
квартал
капитала
менде
вольной
выставках
(0000–0000)
беспре
газетах
наличия
##hl
head
белка
удары
прямым
относился
архитектуре
real
морозов
сложной
##pal
mill
##дились
знаме
пуэрто
##приз
подобное
ветеринар
принадлежность
##ado
##йск
##графов
серве
##nes
кубы
встречу
##правитель
##гел
##масштаб
комсомола
сторонником
##кари
бульвар
пешеход
ср
мечта
эпизоди
##craft
stand
таганрог
коммерческих
##ites
##df
##pha
##писки
получается
штабс
ильич
росту
диплома
пустыни
##оти
##рол
организована
##0;
##нито
hms
##биологи
стилисти
социологии
становились
отправилась
толщиной
##fi
##рдо
#00
##полис
##делие
измен
фехтова
протокол
выезд
устаре
иерусалиме
бронирова
ленинского
##екто
изучать
большеви
##»);
##ткам
##апосто
##малень
маска
селом
##философы
##нп
marvel
советники
##зово
загра
личном
бин
доп
гари
проч
горные
младших
развали
##ania
##стави
бороться
##пус
прозва
народным
развлека
нахождения
##рила
мужскую
исландии
волейболу
регулярные
##порту
вожд
мичи
высшим
отправились
##less
##onia
кевин
виктории
показаны
освободить
акта
##тированный
германских
##шма
лову
рукой
bm
мяса
state
сзади
тоска
##тивными
британским
открывается
петербургской
##саки
рого
свод
джузеппе
уот
##учёные
русло
александро
##thers
##сперан
нагрузки
полётов
альберта
клиентов
##рею
now
жизне
присвоен
канцелярии
самую
champion
известное
центральную
##синте
мыса
среду
##барсело
нижних
##деи
бха
станица
исполкома
##eter
##жское
действиями
##ey
##храни
убитых
диаметре
##инте
разница
создателей
##варь
##блоки
рыно
books
жемчу
георга
прибор
академической
наделении
заведующего
оружей
релиза
century
бельгия
##эли
враща
##бис
dra
##печор
мике
магнито
противополо
##зим
##довы
приступа
победо
покрыты
ермо
##грэмми
бенга
луганской
кёнигс
грави
старом
дворами
дания
совершить
дог
печать
##вио
##кота
классификация
##шня
##граниче
nav
##нецкий
two
гряз
ишим
написать
##изм
колом
белков
стороже
глен
пче
открывает
пользоваться
moon
симе
график
призем
торгово
rail
гранд
английская
вызвать
воинской
##аки
верующих
songs
магну
поселок
осуществлять
##дых
##фила
отожде
полковод
##kl
review
##британия
отставки
позволила
продолжая
автомобильных
вт
##адъютан
кристина
##энс
sym
льда
региональной
дум
литературовед
ядерного
финансовые
##.):
los
кронштад
##нокен
аноним
густав
военными
достигают
охарактери
производить
риф
пруд
сталинская
содержанием
распоряжении
альма
логотип
##журналисты
премией
успешной
gt
##ндес
like
пришло
кислорода
афганистане
jo
mi
##тано
грудь
петроград
юбилейная
обозначает
саудовской
##безо
завоевать
хмельницкого
##летки
даниэль
комнате
авторами
субре
жертвы
проститу
финальный
красноармеец
муса
##ничных
беларус
комфор
онтарио
приглашению
##хад
луне
таги
чудови
четвёртое
железного
свободный
uss
##логон
ирака
##тинга
hill
домами
спутников
многократно
##рион
огла
опозна
арбитра
##несена
##love
##ference
барабаны
воспоминаниям
##ident
yyyy
##водные
const
##религиоз
консерваторию
свети
крести
##oma
чжу
карфа
прожил
операционной
##ump
kon
пригод
воскресенье
нара
комиссию
европейские
dev
определённой
рати
влксм
##которые
претерпе
ценность
награждения
ввода
эконо
##тлер
апел
плану
подводной
0000/0000,
десятилетий
бруно
##чее
толка
пушкин
краснова
крейсеров
russia
гордон
отстаи
сигналов
##sel
##вович
##книги
вирус
##ранта
##сонов
линией
одессы
классических
##спб
##распо
рождении
образуются
различного
##йскую
така
##менкла
гомельской
вещание
символы
##коста
отыграл
солдата
##гиз
cam
баз
лоя
##денко
мавзо
физиологии
ширину
аркадий
##án
выпадает
знаменитой
##фонов
иуда
долгору
пиренеи
делегации
компоненты
соглашается
##диен
##техника
кабине
периоды
курфюр
исправле
общепри
входящих
кутузова
крестьянина
синий
удоволь
охарактеризова
##lant
##борье
заповедника
верстах
ассистент
продюсера
учёта
особую
наблюдений
демонстрации
формировании
plat
пела
##противо
магда
терно
учредил
забастов
##товка
студентом
изна
##который
черномор
президенты
эмигрировал
##бром
econom
прочита
составом
ориентации
патриархата
##хэм
знание
##посмертно
новообразова
прерва
отступить
##ик
##парла
этажа
шереме
закончила
##фабри
кэмп
базой
стена
привлечь
подачи
##ботаники
##mit
##una
##льм
интегрирова
##водстве
соотноше
соперников
кавалерийской
##di
давал
пожиз
прямые
институтов
camp
##лярной
экологии
##ляли
кадра
богаты
месяцы
ударом
##боры
modern
##-0».
музыкально
##iano
free
адама
отправиться
glob
польшу
госпитале
проектирования
анго
##джоники
истребительной
##жия
00–
вена
##тельница
flo
купца
жертву
ресторан
##иногда
иране
бриллиан
##мега
симон
хирургии
##pel
сеу
тенниси
##тировался
правоохра
##круп
##лёты
удачно
цо
защит
кубков
эмигра
польском
##сибирского
маркиз
magazine
кандидатуру
##фальц
ското
##воинские
##world
сали
жёлтый
местное
принятие
подчинение
##ждённой
##мейстера
особенность
международное
невро
нукле
##ссета
волок
ограничений
##альным
суть
брок
наста
проживающие
##опер
монт
вперед
поручено
##0+
who
##памятной
японские
легкоатлет
ижев
рыча
руками
воинское
паралимпи
тэц
вагон
##документаль
академический
постановлению
гитлера
регистр
управляет
##ктива
заряд
воспитание
расположенного
упла
##неся
##ament
различной
##esc
men
железобе
томов
##::
##än
кастилия
##веню
##ссури
##премия
ведущей
мельбур
##hard
спири
##вицы
комнаты
составу
##способности
##uld
наполеоновских
звуки
##тальной
прослуши
##ensch
прошлое
описывается
купил
##влялись
затво
ольги
революционного
направлена
plotdata
жозе
наго
моллю
патен
ошибочно
опытный
реальных
достоинство
хау
попадают
коллекцию
уравнений
лили
льду
##мастера
модуль
оппонен
##созда
нахи
низмен
временное
михайловна
применении
##тихо
заса
academ
0-000000
франсиско
##лием
doc
повсе
превращается
треуго
##конец
народу
##строитель
микрорайон
расстройства
ставит
сочетание
##бве
цыган
подписы
##uv
##тинском
##рено
гарнизона
культурные
##ці
##брал
епархию
альфа
германского
николаевской
фэнтези
николаем
принесли
vict
prof
again
гонса
уилсон
cambridge
воронежского
##uter
conc
посеща
доказыва
европейском
##дзу
##педы
##степ
находящиеся
справедливости
##ér
ркп
нежела
кислота
##agen
##чёта
austral
посёлки
филологических
цепо
дальнейшей
##кун
великие
отрыв
ведении
деятеля
рт
лем
страницах
##")
эу
##джор
##...».
##точный
##итов
##наро
диони
степи
перкуссия
поставить
продолжалось
##терро
акты
терак
артефа
представлять
коню
приба
гибель
неподви
белгородской
##цке
ребя
морем
##просве
лицам
прокат
зы
путин
декабри
апостола
российское
##лингви
букси
эпиде
dog
уга
спущен
полицейских
отсы
частота
неудачно
##get
рту
##мерных
чудес
развиваться
##педия
##outube
natur
столе
поселка
наличием
знаменитых
московскую
##жева
писала
##жане
уральского
##бес
##учеб
фрук
сказано
##обычно
актер
искрен
тюменской
шло
присутствовали
##даты
cir
обели
войнах
теоретической
решают
##ага
##разви
липец
изящных
домашней
звучание
соискание
##бела
полях
траекто
##фантастические
монтаж
синдром
значении
разработчики
##ядер
ровно
##align
казалось
воспоминаний
противоположном
##всего
##мелья
колонна
##ely
афины
поколений
studio
преобразована
("
православного
распространена
окружён
самолетов
##цизм
дяди
нации
череп
выреза
кодекс
##рета
вель
пролетар
применять
продвижение
управляющий
аме
##ньский
монета
##дье
##зеле
home
электрово
предотвратить
##vest
##опреде
##летнюю
богом
руины
прибыль
тыл
0000000
пропорциональ
свидетельству
##ds
туа
перес
старта
##женными
иерогли
монографии
##бич
##марке
frank
вызов
трубе
##чевского
ученики
номенкла
сравнения
##рер
##эти
аде
ось
важный
индика
##ционному
##iger
##ездом
аман
брюс
оставили
правозащи
основанием
утверждено
горожан
грант
гласит
##левые
скле
англичан
молодёжных
000/000
завершено
прикладной
отом
траве
сильных
образы
mercedes
герцеговины
##мье
##вторы
пали
склоне
либретто
##eder
нюр
##osoph
##актрисы
домашнее
##сея
кипр
подвергся
различают
collection
прию
расположенное
разры
босний
справи
##тракторные
жре
##ragon
мотивы
изображена
##великобритания
##гунд
сотрудника
##зного
гитары
саксен
ставки
размещены
вашингтоне
##американский
тракто
доступна
##vii
линколь
вместимость
##гы
dri
##родинами
династия
усовершенствова
роу
менеджер
ug
##ible
малое
##цветные
покров
покрытия
использованию
##aut
господня
сильного
##ema
убор
##второй
муром
##ровании
иннокен
##чере
orch
хлоп
уцеле
разделе
исполнилось
стекля
прай
костро
петровна
командами
вызван
настроен
##строительный
##ёру
встал
флорида
ibm
амино
петрова
финансового
##бба
german
express
##.»,
##онто
водорода
oct
диагона
амфи
шума
##dition
восхи
правам
испанию
российско
сокращения
ol
##миро
могилы
уэст
иного
обнаружена
подписания
добровольно
изобретатель
##xii
скрипки
достижений
web
пользуется
марса
всеволо
решении
##национальный
соединенных
##лость
изли
цифры
владели
алюминие
управлял
проявляется
рату
названии
церковного
##рата
покинула
соседние
##архитек
##водится
давать
заменив
карбо
франца
ушли
##хла
нил
товарищества
художественном
##сович
энцы
олимпийской
##cycl
сигизму
кавказской
##zh
##юсь
##спортивные
##католические
##.—
дави
##арта
##фоне
телекоммуника
биографический
##лингов
рости
сатири
учебник
профсоюз
русскоязы
##ori
##чком
вяз
заморо
##невского
кришна
либерта
военнопленных
##хун
егор
заложе
восточную
называемого
поду
##янка
копии
геологии
child
полос
растя
##сак
##ганов
пятью
натрия
(0000):
призра
##отечествен
заинтересова
коммуникации
кинематографа
фоку
книго
полевая
##логическим
загадо
делали
дуглас
указания
созданных
венгерской
относились
##паль
##бха
##скин
отче
ерева
осаде
феликс
проиграв
армейского
повышенной
##ours
##женец
девочек
##мурт
##рвать
##союза
реальной
переезжает
тольят
студией
длительного
##unter
##редка
вступает
заменены
##blue
##гиби
##редине
донской
снималась
##лун
##финан
выби
пис
внутренняя
узбекистан
собственному
##лопа
cas
##супер
аллен
красном
##дание
руба
(00).
титулы
##чинского
полупровод
##гет
играя
васильевна
##стия
##сообраз
publishing
музеев
переиз
##трак
аце
##левского
анонсирова
##sil
##esis
объединяет
##шень
лито
##библиоте
##бью
отчая
оставлен
субтропи
выступить
бегу
отбор
ночной
##матическое
патрон
состоящая
муниципальном
old
потомков
точности
свойствами
##гот
##анского
локали
##манского
окружении
разнообразные
##бк
##тав
last
кндр
сравнении
благодарность
##ённой
##тиками
кукуру
многое
сарко
##ллис
одобри
дипломатические
##кё
скар
берез
кыргы
башкирского
длиннее
зданием
геральдический
дале
касси
земской
##лёта
жда
существовании
rob
##гория
##динов
сильной
маленьких
##позже
##переди
святей
проблемами
лиза
##стеров
велась
книгой
террори
гонок
##жинский
ереван
гравита
планете
##русское
герцогом
##нетт
##нину
ня
##раясь
##xvi
##удар
коже
терри
liter
russian
nasa
иерар
обвиня
берлинской
сирий
##чемпион
репутацию
прекратила
устанавливается
меклен
возрождение
##ologie
''0000
##имбл
##мус
##энси
белом
полов
прибытия
большинством
левых
неизбе
империей
читателей
##зных
колоний
гитлеровскими
##key
mu
иера
прямых
останово
видо
урегу
##морские
##хэт
##дется
графика
##што
бета
##гимна
##сными
липецкой
независимого
клубах
фрэнсис
чрезвычайный
##анс
ü
макса
united
актрисой
короткометра
##докса
батарея
##грамм
приостанов
конструкцию
луиза
проведено
##совым
сапёр
создала
формата
кембридж
финишировал
mün
##тизирова
правоохранитель
верность
##щаясь
story
гребле
автомобиле
##бревиа
компро
богатых
приводят
##тивном
smith
##рировать
линейных
финальной
kr
##ённая
##жённый
муравьёв
фердинанд
нидерландский
кавалерийского
##гский
##шаются
весна
##ллеры
экспертов
##райо
гуля
##чивания
требуют
##field
##логией
палла
огромные
##vir
##тир
##февра
собе
реакцию
рак
##наружи
похоронена
наступательной
образуя
##000.000,00
##уш
именами
удостоена
встретились
притока
продвига
##льники
рекомендова
studies
доказать
сохраняется
показала
реализация
последовали
транспортного
брони
конрад
случилось
##обла
чжа
princ
метеоро
соотечествен
боге
ганг
выходила
##music
конно
кхл
травяни
лиш
автомагистра
##роиспо
проре
##стрирован
сантьяго
совершает
древнейших
предыдущей
родриге
##прото
зерна
полом
созре
ответа
##станского
проводили
публикация
выпускались
тёр
хат
радиолока
распу
##ьетро
норвеж
футбольных
##кль
оценил
##ince
фрид
##пий
##шахтёр
british
доктором
обслуживание
флоренции
магистрали
недостаток
##отех
##тище
трэ
лукья
зей
захо
упразднена
##тира
сколь
ga
##aven
кира
##ченика
семьей
однозна
петербурга
00.00.0000),
ниль
одер
полагают
##хем
серпу
целост
распозна
##нуло
##скрё
##сений
волос
карма
перо
youtube
эксперти
канадской
##яку
африканских
##icz
способов
бэт
вестер
включения
##лома
кислот
мощный
##ika
полезных
##соль
##шера
##inger
литве
уступила
англичане
##надо
##паша
гоголя
##нево
motor
драко
кинофестиваль
##atch
##чевой
peter
радзи
товарищеском
00:00.
##xi
##носа
##pri
##басс
##шивает
парков
разбой
датский
вероиспо
фармацев
##ловые
шахт
улицах
пулемёта
прекрасно
hard
вагона
прорыва
безуспешно
васильевича
характерные
взяв
пойти
##buch
тунне
глубину
вдвое
пехотная
приобретает
андор
рейха
внедре
отправили
дисциплины
##председатели
моделью
львовской
секретари
истребителей
думу
развод
репети
указан
завершилась
##реми
##емому
##менто
##мести
хранили
единственного
пел
знати
коммерческого
##
парень
основаны
##oda
сестре
подпись
азербайджане
спродюсирова
##наза
##чкова
пробо
хвоста
##региональ
образовы
##лебе
статуи
сборников
##пак
фоно
цифр
одежда
сортов
найдено
венесуэлы
быта
гренадер
разворачивается
коротких
начальное
коу
урожай
systems
##нань
space
000''.
##нир
клана
каждым
beatles
выразил
оказываются
естественной
исполнительной
летний
сперва
ценных
проволо
##программы
окно
долгов
прототип
согласие
jack
jean
##август
боевое
пластин
конвенции
плацдарма
домохозяйства
политбюро
проблемой
чувашской
штурмовой
##колей
джаз
(000-
модуля
наполеон
##anna
##ливер
вискон
будущих
убитыми
офицером
служащих
инвестиций
железнодорожные
шты
##(0.0)
##менов
национали
##индий
конне
домашнем
пятой
новостей
(0000-0000),
сотрудниками
столб
золотым
гостиница
атлантического
##john
яще
##зеланд
преры
улицами
формули
##результат
связывают
составной
физиологи
##ois
##теста
пройдя
звукозаписы
императрица
##голос
##приход
michael
коронова
алфавита
##night
##sonic
норм
раскопки
инспектор
пострадал
##ots
прозаик
максимальной
##волга
(«''
курсах
отвеча
##официаль
монахов
возвратился
мелки
расходов
отличались
археологические
коса
попо
домах
прият
восходя
ретро
написанный
##eme
##sport
##думан
вьетнаме
утвердил
##хаба
##мекси
имении
апа
##тисты
масон
software
врата
##юг
##stand
##черкас
аспекты
ямай
медведь
приведены
туберкулё
east
престаре
параметра
продолгова
спар
##славль
адреса
убийств
аргентине
наследником
##жди
якоб
барри
летней
железные
обычного
##цовой
поза
акцен
азия
вилли
пещеры
стояла
недостатки
королевских
##баскетболисты
восстановлена
##rys
равнины
монастыри
##ides
поде
черня
долгие
написание
субрегион
двенадцать
##лини
hom
френ
счетом
дистрибу
##христианские
категорий
far
портал
употребление
mob
##ходила
глубины
молодёжном
архимандрит
##сны
##париж
авторских
переформирова
бобби
двинско
государству
##вна
куин
малайзии
совпадает
курганской
плаву
разрыв
сергия
##xiii
##буду
hell
гору
погибает
##микро
акро
генов
размыш
##снабжения
соответствуют
географических
##льщик
говоров
мастерства
определённые
паст
поже
израильский
утверждению
сузда
##ays
##крест
видели
героиня
личинки
анатолия
зерно
роспи
финальном
александровича
hen
##спект
ногу
воеводы
квартиру
лаби
пахо
сицилии
##начальники
механизмы
прекращения
bal
мятеж
##ждённым
исследовании
мё
какую
штурм
##лийский
присла
герцогство
филармонии
осторо
##дования
##ственностью
иллюстрирова
христианских
уничтожено
##американской
##ban
##губ
зажи
куко
норт
активного
недово
подпору
веку
##чёрный
##скі
ану
нервной
президенту
продолжались
##вола
##рующей
употребляется
обозрение
##дети
лок
прие
убийцы
снк
##тради
депутата
республику
уолтер
предводи
##йя
звена
радиус
восьмой
изредка
репертуар
используемых
##рением
войти
##невской
забира
##зла
000°
вершина
писателем
победительница
##тенко
спорте
публично
вага
ливо
пакистана
отдельными
тысячелетия
расформирован
автоматизирова
пуа
##пости
##щенные
хлеба
конденса
неоднозна
совместного
##леген
##родных
изуча
##атлетико
ядерных
листьями
афганистана
упоминаются
центральное
осен
##ствующей
реальном
заседания
запру
драфте
вызвали
##джем
ариф
деду
##рьевна
##ходятся
личное
христиа
##дины
##сную
##завров
гектаров
деревянных
обозначена
бана
##тируют
несом
японию
##тельского
быстрого
социальная
сталинской
##ими
cur
шоссей
эрмита
португаль
производитель
ливии
мошен
##бках
гостиницы
представляется
рекламы
создает
##мовский
строится
инициатором
финансирование
смарт
ликвида
ростове
выпустить
##well
коров
укреплений
##кава
брош
зиму
сестёр
суль
ареала
родины
(000—000)
модифицирова
##ston
fra
интри
выпусков
одержала
##бога
копы
вступить
плацдарм
дев
ложи
гандбо
зарабаты
резонанс
ленте
изобрете
употребления
яго
войском
##стическую
орджоники
последовал
0-00000-000-0.
##пит
##кратным
мариан
компаниями
##заря
face
тяга
костюм
рын
национальностей
##jan
##повед
напар
##матическая
##unes
клави
покрыта
русскую
национал
существи
##клапеды
нарком
диалектов
(0000-0000).
археологических
арена
##yc
леп
спонсо
включил
##нго
spe
сжи
##онного
##schaft
зарпла
содержать
##досто
##оно
##турн
морю
трамвая
фантастики
##петербургский
исследованию
фазы
пожела
арм
душе
соля
##лыжники
мелкими
собраний
##веща
тали
##чского
пермской
прос
диапазон
мирный
массива
синтакси
оперативной
интернациона
принадлежало
телевизионный
##вни
##берн
##брио
заключению
подполковника
дэние
исчезну
замечает
генералов
чемпионкой
кончины
зелёного
библиотеку
um
##методи
походов
мэт
шанс
##керс
##связи
веща
##женского
##sim
##риями
отправить
программой
how
генеральной
ангел
нейтро
встречался
возглавлявшие
гум
сюр
капо
вакан
##способность
##ku
##гге
бапти
эрика
прямое
рефлек
вопросами
итальянском
транспортной
растор
##american
выпущенная
##win
бежа
##ковичи
сорат
возлюб
местона
священником
обсерватория
оглы
мариа
##ati
##округ
арта
белки
душев
дизайнер
энцыклапеды
происхождению
##cr
##дим
##исла
сук
резь
##чиками
мотоцик
выделения
заповедник
##брига
лучей
инвесто
кинотеатр
конгрессе
##cept
##речье
java
клод
прозы
шми
фёдо
отбро
хотят
##ховская
рисунки
бронетан
sab
ключа
church
затраги
гаврии
групповой
рид
##метровой
препарата
англоязы
четвёртым
тропических
озер
little
отправ
огнестре
отождест
русскому
облисполкома
вообра
открытое
##cul
##тяжё
##ering
##систем
охота
варшава
(0000-00
маркой
финского
institute
калининградской
кривой
оплаты
##лизацией
разнообра
##fs
дана
понома
священников
##лз
##mod
художественное
журав
ядови
##лёнными
наследника
рекомендуется
##екатери
послужило
##ьен
рисун
средиземно
##ённого
вечерин
роберто
итальянская
##носят
созывов
договоры
##нимы
говорилось
шотландский
мкс
религия
ступень
##zig
##зором
##споко
сэра
тама
##ронного
боковые
компартии
cons
шаро
лицей
комплексы
злоупотре
пропустил
набережная
##фау
##тону
##беков
##чнике
коля
багра
эмили
отдать
##хоккейные
сербский
китайская
эйн
##»'')
##super
##itable
особи
аи
##феля
нава
торо
несовершенно
кат
##вилла
хака
##ложили
командных
спектакли
датируется
##пенди
видны
жереб
жалова
николаевича
священнослужи
ko
##креди
direct
антоний
аэродинами
присоединён
sex
зная
защищал
литературно
техническое
##оче
##база
##лейн
##терапии
централизова
##hms
##хино
##жание
manag
social
зрителя
судебных
превосходя
##ровались
изменил
беларусі
духовных
школьников
##тистов
00,00%
козлов
короной
платформ
показателей
обеспечивают
бросил
благочи
сну
руби
арктиче
рукописей
торжественно
##шской
футов
богдана
колония
хозяина
меща
приговори
венгерского
##iae
##ito
врачи
рабов
истоков
молодёжную
побли
альфре
дзержинского
диагно
трактор
коммерческий
##пив
##вающим
регулирования
массе
снаружи
##ection
бундесли
каменные
иерусалима
перемещения
исчезновения
пассив
##ствующего
библиотек
болгарской
##tri
wal
маленькие
грузовых
поместье
некоторой
ess
##криста
##нинской
восходит
игрового
защитников
являющийся
посвящённая
кпк
простым
винтовки
kl
доходы
отрази
(00.00.0000);
принес
собака
0,0-
взор
##водить
якова
призвал
обсуждения
одноимённый
анту
явился
впереди
##президентом
sep
слад
##импера
кругу
##культуры
половой
бранденбург
беременности
художественно
##смолен
лесных
пакистан
ускоре
##лі
##нефть
либе
##ischer
прово
низких
собран
##кад
нс
вены
##лярные
##ренных
испан
удмур
хороший
##юн
##рене
##ктика
лабораторией
##ченное
ахмед
##код
##моя
##сиа
боев
колец
кузьми
кио
тылу
цепь
тайный
норвегия
оболочки
##ili
##lor
##itar
##стои
воины
ввести
##дад
run
шеф
рест
вывел
жителям
##top
преу
ушла
счёте
##сексу
ленно
тяж
упло
жертво
открыла
комиссара
серебряных
регулярного
добровольцев
оперативного
комментарии
предложено
проведённых
предприятиях
text
этаж
##бляется
уровню
филолог
йозеф
политическое
умно
гербе
пости
инженерных
перспективы
композитором
##деву
бату
встречались
##пять
лишён
притя
письменности
##0,00
##вариан
паром
суффи
заклад
##фори
##герои
чёрном
наступает
##троп
мад
хим
##подъём
##тельской
лазарев
учебников
эстонской
гёте
унтер
первомай
японском
##морфо
000:
##исполь
##политической
blood
##безопас
##рованием
##технических
исследовал
##ланде
##плению
##венгрии
никара
##дени
долга
информационно
##benz
##линская
объяснить
##блении
##славия
борода
разработанные
##isa
зат
папи
лавры
природные
резиденция
эффективно
телесериалы
##кел
##воря
str
сия
антония
продал
младшая
паровоз
передвига
##pi
##ids
kö
маргари
исключён
обработка
двигателями
##мэн
##хма
##этно
кпрф
депор
базиру
сделки
золотыми
арестованы
экспериментов
языко
спектр
эксклю
дракона
субъектов
избирательного
велись
алфавит
##house
деко
откли
поэзия
образовательных
##дными
ближайший
празднования
прорыв
сумели
единогла
швейцарский
упорядо
захватив
zwg
тана
бантом
стремился
##революционной
##мори
пое
отмены
рейтинга
индийский
концепцию
летописи
распла
фюзеля
вознагра
известия
продолжила
wwe
импро
indust
коммен
сольный
мухаммед
определяют
дополнительное
режиссёров
эо
юань
палата
описании
советскую
предварительно
секторе
урочище
0-000-00000-0.
##awn
лицами
патент
ho
элементом
##rift
jah
arts
признали
перенесён
развиваются
##часть
повя
##сакова
скульптора
обстоятельств
янг
##iness
##тельна
посвящённых
птоле
##позднее
поликли
съёмках
подростков
исследованиям
##нджа
ритуаль
##-0-
желудо
однокласс
разделить
##зание
royal
грузин
властям
sega
стрелок
наблюдать
cra
иконоста
семинарию
землетрясения
планах
особняк
эфиопии
компе
служб
превратился
изготовление
разнообразных
##фат
выче
##канский
чартах
##сие
##кале
потра
медико
kir
удмурт
поклонников
##down
metal
разыгра
авиационных
сави
индивидуальной
##west
##философ
михаилом
царствования
##деров
песо
human
танцы
женщину
капитал
удостоился
##rod
##таи
шахматам
##ничная
пуска
##комсомо
митрополитом
sem
популярный
спине
обработке
считались
0-0000-0000-0.
варшавы
харькова
##тны
james
бобру
##эффектив
##идов
##нности
редколле
применяться
##fr
ang
атмосферу
полуфинала
##суд
кёрлингу
od
##летним
экрана
##тировано
##зум
геноци
сопровождал
##дик
##борн
##римина
разговари
уменьшения
никифо
методами
аналогично
композиторы
##рази
boys
young
римским
собираются
##aga
##администра
короче
потребления
копия
##iner
обычные
польская
древнегреческой
##коле
##хаус
аксе
инфек
татарстана
##шный
лягу
базируется
##нджерс
испанских
##гир
нары
лидия
костей
милосер
георгиев
мобильных
возрастной
0—
##oman
##бору
амурской
крупнейшей
бирю
удлин
верхних
природа
создают
энцыклапедыя
##сентябрь
парашют
древесины
##шив
щите
знали
карли
путина
цзя
сергеем
георгиевский
литературная
вестибю
сборники
сомнения
##вшемуся
природный
##строительного
##форт
##славом
оставляет
подготови
выполняется
рич
##жестве
измери
##+00
выдер
##несение
финлянд
репрессий
пользуются
профсоюзов
использовала
разбил
студент
математике
португалия
##bol
альби
денежных
процессор
автодорога
##маков
station
молодёжного
##рау
мао
##тское
покрытием
коммуникаций
##гк
##ela
ve
атаковали
соответствующей
##cp
##серп
бод
этю
##itter
третью
чтение
ven
##стовой
занят
скалы
##iden
земледелия
окружности
постоянные
каком
ренесса
рецензии
##стрем
деда
райан
четвёртом
промышленные
рнк
иммуно
дюссель
mé
мико
взорва
заявив
низкая
футболе
немецкое
суверени
обстоятельствах
измай
населению
##мони
##скор
сохран
валенти
взросло
грозного
##лейтенанты
prot
лечении
резиденции
##mark
тита
морская
целого
геометрии
стандартов
##эсте
fun
вил
сбы
учебной
ежегодный
компонент
мальчиков
nr
царю
перри
вегета
гонконга
##.».
##русских
##ппо
мише
доски
сфера
темой
разбит
разбиты
эскадре
нефтяной
показания
новозеланд
доказательств
##even
снег
отель
ралли
австралийский
##mac
##ober
платы
конфликтов
соответствие
предотвращения
##bes
нечто
хвата
союзных
атаке
треков
топливо
новокузнец
литературные
мужских
##иде
коб
gard
химик
карача
владельцев
##посадо
##дном
бам
мудро
хорошим
начинаются
управляющим
##ves
##вичей
революционной
##chi
##шиф
ball
москвой
гитаре
фернандо
##oni
рог
пообе
ильича
сообщили
внедрение
лаборатор
сона
изнача
сегодняш
##минь
плов
##щимися
бесплатно
ввп
купить
проходить
демобилизован
##нимами
пекин
куйбышев
ассамблеи
att
художественные
##ношений
опасаясь
лужи
публике
стороной
освещения
обязательства
##0).
sz
cle
battle
##рованная
используемый
спен
боевая
бригадой
поставки
размерами
##дьба
уезду
приобрет
астраханской
##гарт
яру
##северная
людвига
нефтега
##view
##пери
##стай
mur
клар
жандар
желанию
подчинении
eth
гемо
лежат
пищевой
медведев
дополнения
альт
владимировна
##комен
брать
##ложении
термино
##советский
неблагоприя
мусульмане
общественная
##посе
великом
типография
фиоле
замена
массовое
получены
брауншвей
стремится
отте
опусто
записаны
периодом
еврейский
##пир
##нити
more
кругло
степной
плавание
взвод
нацистской
реформирова
##доне
##пехо
рыцарь
восточные
chem
клиент
евровидение
##иль
кона
вспых
##картины
##ривер
южные
переулка
выпускать
функционирует
##phy
##тас
ss
##нберг
##риков
##зелёные
##система
иваном
бактери
попадания
насиль
кишинёв
##славие
описаны
достижением
чести
горизо
алгебра
боковых
мито
убийца
##возможно
монреа
полеми
экспор
учреждён
парижского
официальная
##минск
warsz
вывести
иерархи
уничтожен
##цием
##крылых
чехов
задние
испано
противнику
##прии
pass
вечно
сельская
проводилась
win
дов
исследованиями
##июнь
##русь
##тита
##школа
##щённой
чуваши
успешного
##гея
бирже
цветы
пневмо
вторично
станциями
максимальный
##roc
взятие
обратил
древнее
полутора
автономии
азиатских
##azz
##като
сгора
райцентра
указывается
##sche
бомб
мотоци
одними
руководству
##дань
##коммуни
попова
гражданина
vs
кэй
вдруг
полицией
выпускник
следующая
электронная
##цка
##жков
##талки
вави
артиста
вулкана
##смы
##сипи
буш
полузащитника
бары
отрез
фрега
земледель
способностью
mas
##лярная
журналисты
##ере
раска
контак
одних
ульянов
изданием
понимание
архиепархии
миллион
приборы
##мост
выпускников
##виан
ола
аббревиа
организмов
капитуляции
посте
визита
ученые
завоевали
хуже
кишинё
широком
работавший
перестре
##хера
##oseph
##через
запися
охлаждения
##каче
сиони
отреза
##--------
зеландия
регули
женском
стрелков
конструктив
gh
алта
диего
отбора
кинофильм
смена
##смен
##вленным
тридцать
применялись
##map
##iser
##ocal
огпу
крыше
понял
сквер
регент
любовью
муниципальные
драй
двоих
восприя
##рине
бургунд
наступи
округом
0000-0000.
статистически
##сному
##ностям
джека
проявля
эсперан
влияет
парашю
гипотеза
сторонам
идеологии
##планет
экспозиция
покровитель
##дость
жилья
спасе
сезонах
организатором
##ропо
вязем
доспе
внесены
местопо
эксперименты
##mid
предназначенный
томми
каменных
рассчитан
львова
##iga
##иллю
cit
##сновы
разного
эскадро
побеждает
soul
##пилоты
обычный
эффектов
каменного
##вающее
велось
виконт
указаны
##памятники
возникнове
поддерживают
##жам
##лля
тарту
альберто
основанной
сельсовете
государствами
##нило
йен
банды
санск
миниатюр
кадетского
##ссией
##ваемая
##низдат
##воздушных
прокурора
##ends
##камер
бойцы
поздно
православные
съёмо
таран
##сийского
##тва
жидко
##движение
наименования
мохам
разъя
испове
державы
kun
уви
фактор
первома
эпизодах
монах
обеща
русла
00-00,
пришел
историческим
обрам
взятии
герцогства
насчитывала
##боя
##телли
факторы
юридической
##ule
голд
##роваться
счастье
гимназия
разрешено
средством
общественное
персидского
##кю
##шти
##свер
##стря
очко
development
##прода
томи
##гинский
предан
полости
объединённых
бето
емелья
олицет
заверша
лебедев
считалась
деревянной
##место
правильно
##ils
##rot
luc
отдельную
рекоменда
##функциональ
аналогичные
классический
революционер
##киды
дисков
монархии
плодотвор
симфонического
соответствующим
##фла
гми
ивано
##темберг
пригороде
присоединиться
##тала
##thing
передне
фабрике
григорье
контролирова
hero
коше
##ровалась
присвоением
квартале
##mor
##юби
##воде
law
заседание
##-00.00.0000
##италь
штан
квебек
##название
пунктах
существо
изменён
##ilis
##наде
рон
##боров
прия
видеокли
ректором
adv
ранг
зелёная
попробо
соединяет
get
суп
убедить
регулярных
чемпионский
традиционного
##архан
везде
слизи
прибыла
частный
астроном
##rem
ms
##ради
##туна
##линга
писали
##зоры
##подро
##товал
пробы
философию
##сезо
##шира
груз
##библио
майами
судьбу
##элли
рядов
катанию
означало
патронов
располагалось
##дзю
чен
сражений
планирует
положением
хозяйством
##ссора
дева
ивану
иорда
супругов
тир
##тившись
кузнец
свадьба
##сум
##сун
bul
цех
заставляет
##hu
##оба
##оре
дью
полицейский
представлений
увидев
тайвань
прихожан
агломерации
зари
##медики
подземных
сохранившихся
басти
авиация
введено
барселоне
стилизова
##фиоле
сноу
петром
вызывают
препараты
системами
художественным
##никово
уимбл
единство
молекулы
предстоит
шотландия
ярославль
##cs
##боре
обители
всеволод
болельщиков
##харда
##коллек
несёт
сказала
магнитого
требование
полосу
родина
##мута
улы
гражданский
традиционный
##варман
##минера
бригад
android
ледя
##гинского
вторжение
стокгольме
сед
вязь
руды
##черномо
мемориа
##los
##kin
##первых
ингиби
предписа
квота
geschichte
нашла
покрытие
##хаузен
##институ
простей
взрослые
уверенно
определённого
##del
##говый
игно
штурма
сообщила
##сика
соломо
шахматист
##нун
##ural
main
мыше
косте
##извести
существ
иллюстрации
планирования
##лённая
аргентинский
некий
учёным
метрополитен
сотрудничает
##heim
кросс
пропуск
квантовой
музыкальным
##urg
##баева
##wikitable
системати
необходимым
##erv
##маршал
миссис
преподавания
сыр
облом
пересыха
исполнять
английские
##аны
##оки
##чур
##atic
шери
##вавший
имения
поднял
школой
саксонии
позволяло
объявления
искусственного
disney
включили
##чатки
##cyclop
сюжету
хорошей
переворот
доблестный
низкий
рентге
##настоящее
григорьев
списа
выдвига
воинских
##кко
##маз
##мея
мацу
культурный
преодолеть
wo
риска
##военный
закарпа
подруга
римских
##археологи
грузинский
##сеев
суве
анома
освещение
приоритет
формируется
##шам
##симметри
колорадо
##гипет
##циони
низкого
природу
##gold
синь
стажи
снайпер
##зоров
информацией
бронзу
прогресс
bud
корней
следующими
##tern
##ппер
##главный
совхоз
деревней
мастерская
##дине
тяжёлого
экспедицию
##жника
mass
арха
гвинеи
славянских
вон
апте
##доровича
##тев
##мань
dol
##норма
возме
кудря
сделало
долгосро
развивать
поражением
##железнодорожные
##ague
гази
##бергом
броси
изучении
##тея
окисле
продукцию
нос
госу
##менным
черка
теодор
ракетных
христова
поддержания
##гав
белок
аэродро
полотна
преступление
##жак
поздние
рекордов
человеческих
gun
иркутск
##ruct
##мели
линь
##носили
##рировал
rac
упадок
треугольника
week
пункте
свидетельство
bay
поселко
странам
окончание
рассматривает
отыгра
святым
туркме
праздники
##панов
высокими
реорганизации
лейпциг
месо
поспе
ботаник
лёгкого
##женко
егер
аквита
##исторический
бая
правед
католическая
кача
подле
конечной
##рился
декан
тамара
движению
##шами
##донна
казнь
telev
приобрел
наследник
предложению
##ленде
ларри
усилий
самолет
поставили
дискримина
##июль
уэльс
##хле
##сева
банкрот
ведущая
зимы
штук
запаса
джейсон
прогресси
insee
долину
##числения
водомерного
##образу
дворянского
##ройт
арест
антаркти
углерода
религиозного
рисова
иваново
##hom
##тикой
изви
манхэт
призыв
##провинция
##математики
учреждениях
##зору
know
созва
узнает
вальтер
экономии
фигурному
##0),
special
##onna
##тоны
кет
атлас
линко
усики
##des
##глеб
большевист
назывались
association
##сону
чка
##броне
##полка
допу
сказка
комнату
салли
механика
утвержден
##рями
##ories
##мышлен
##ель
нога
лихтен
глубокой
##коммунисты
##owski
барто
корин
коренные
корпорация
##брай
валу
холме
##ною
саа
##umbia
##jpeg
упражнения
нтв
зубы
апостолов
дату
брати
advent
процедуры
##кину
укруп
##площадь
нынешней
##луис
хин
выез
мыши
china
пьетро
осуществить
##leg
##ries
киров
ребен
содействии
##математического
биг
частным
режиссёры
собирался
##пион
готовы
незако
памятная
временной
пластинка
достоевского
верхнеобскому
atp
##сборник
длинных
эла
иско
##прогре
бокам
расче
обложке
частного
приглашен
судебного
уникальный
преподавателя
##pu
##ябрю
звер
мисти
мультфильма
нападающего
прага
точное
геолого
связывает
образованы
##пьер
##цитов
кадро
вручения
обнаружить
пассажирские
западноевропе
toy
зоопар
комитетов
экранизация
контролировать
первоначальное
##апрель
мальчи
розыгрыше
муниципальной
##бума
##...''
нахо
warner
charles
##казнённые
пунктами
предприятием
##раж
##чими
мкм
bros
петровича
последующей
##трёх
царей
боливии
коммуне
лучшему
##ницкая
номиналом
солё
координат
максимум
приходом
фотограф
возрастом
примечательно
##(''
антони
финской
способна
кузнецова
австрийского
bib
неудо
макдона
реакций
абстракт
##губернатора
повествует
усло
кирилла
партнер
отмечена
крупнейшая
call
гонку
достигло
##чам
##исче
ветвей
казнён
формах
##специаль
##режиссёры
collapse
##lad
##винг
##стными
профиль
распредели
лон
##перио
продать
досрочно
##зове
лук
авер
чекан
##enc
##цель
##-0000»
морей
##заповед
прямом
внешним
##iforn
дизель
археолог
белорусском
##низацию
завеща
нижние
низким
переехали
волостного
фармако
000—000,
британском
преступников
##роза
##-000)
##несло
просил
сербов
одновремен
рукоположен
##rian
кузьмин
театром
исполнители
мирных
дальний
индивидуальных
##сном
##логий
природо
спасает
золоти
вмешательства
клипа
поворот
правовой
мультсериала
гост
взяты
любую
проспекте
математика
творческий
##чёл
##диться
вырабаты
вги
##спира
бону
##ницами
смеши
##арсенал
синтез
остановка
царём
##истории
голливу
творчеству
##gm
рут
##шкино
поры
##ссовета
##ouch
решет
голубы
держав
будущим
медведи
оперный
широким
препарат
эксперимент
летние
великое
добилась
документальных
лома
##чённых
0000—
получено
##лда
##лео
спир
##кинский
оспари
продовольствия
черке
размеру
интеграции
моторизова
##юрер
слю
тула
##портре
people
молекул
om
цру
europe
зажига
fut
##проте
альянс
томского
настоящим
##».''
доу
##танки
видя
##text
хэн
##декабрь
марией
сервер
вершину
тяжёлый
контрата
00.00.0000).
ушел
ветеран
назначается
кадры
##терс
##цера
кага
фифа
##зируют
фишер
присоединяется
акулы
горная
отделений
величайших
используемые
##gb
##шевич
what
##ханова
поводом
сниматься
изменениями
##0:
##пуре
окб
##должи
арестова
закономер
##cha
##революционеры
##корреспонденты
##фис
0000,0
местному
##hen
##гма
широкая
авангард
северные
представила
##левый
путёв
махачка
ознаменование
pur
##орден
тупи
бонус
перестал
педагогических
##крат
##путь
##ховой
наша
лёгкий
стивена
калинина
баскетбольной
##солне
двина
сорок
возникновение
##with
##тироваться
завершена
начав
родственники
катор
##ization
бейсбо
собирались
определяются
##ого
##одино
родным
погреба
pac
симфония
уголовное
берлинского
##bon
##aris
##лодо
інш
##родной
гнё
##ктиви
##ничестве
саксония
политикой
харьковский
##фолк
сит
##видная
задних
наибольшую
совершения
##меня
роже
00—000
богатой
аэродрома
##000-
##банов
народом
тест
расчёта
передали
материалом
ww
##почто
отвле
отчет
хроника
большего
достигать
подписала
##-00-0.
ланка
антона
диаспо
перевести
##бию
##гит
сосла
заметить
комплексе
вран
заблу
меняет
приведён
воениздат
включающий
плена
клавиа
влиятельных
лева
выкуп
барабанщик
поверхностью
##дап
сига
пошла
##надцатого
историографии
тесто
версией
продержа
##нтом
dur
kill
поселке
односторон
перестроен
моды
трилогии
##нона
##ьева
##гости
надея
00.000
розыгрыша
произведено
##блан
log
##зовка
##сантов
ремей
##констан
норвежский
разновидности
##фик
##ikon
##предприятия
провозгласил
##ола
##imate
##фьева
диоце
спасо
умерли
мировоз
нанести
комиссаров
##=0
##вело
##море
арде
штам
ключи
среднегодовая
деше
миномё
николаю
конкурсов
кипра
##-000-0.
приносит
электронный
##зно
семян
продав
##гового
##рующего
гранди
гетмана
интересу
оформления
архитекторы
разнообразие
richard
совершила
написанных
иври
даниил
стандартной
акти
изоби
образов
предоставить
##дези
##швед
масля
десятку
перевёл
минского
поддержали
юных
салты
браком
белгород
промысла
комбинации
минска
##рованным
philosoph
комиссией
отношением
разногласия
амур
однопо
организм
португальский
долл
ливер
наркотиков
##gs
акул
##красные
молитвы
вариантах
обстановке
юй
внешние
содержащий
##всё
юн
##ливо
хозяин
женские
авиакатастро
пело
ордену
красногвардей
##двой
##леры
ампли
сопут
приобрести
(00.00.0000,
##rt
пиг
фиц
руса
одиноких
совместное
хабаровского
проектирование
дежур
бабушка
присутствия
##бау
##брод
глюко
речки
электрической
страх
поездку
планировал
осво
вреза
индию
урана
ходить
##sal
##монда
##плина
днеп
##тифика
ираке
семан
бронзы
высадки
тяжёлая
##штаба
pers
рыбин
хитом
thomas
востор
пастби
переднего
свободным
##мода
##зовым
simon
изменении
установление
маз
##белая
сомали
##тельский
фильтра
##ены
##цевой
вещания
отомстить
проиграли
неизвестны
заи
полито
лесного
братства
последователей
сталинградской
wild
реестр
сосудов
культиви
дебютного
стартовом
неорганическое
##ful
##белл
##указа
дубль
лесом
гуманитарных
несо
галактики
окружного
##вее
##пам
эмиль
панели
жертвой
екатеринослав
##вп
andre
синго
амнисти
монумент
реальность
##лим
##ists
##пино
las
греки
победителя
антен
ускори
##мз
kh
design
fantasy
святили
турками
сожалению
выпускался
##посад
##форде
черво
шашкам
кирпича
пехотин
собирать
пролета
освобожден
уезжает
восстановлению
троих
понимания
##phal
wall
хитро
защища
заключить
звукозаписи
продвижения
some
разрушена
диссертация
музыкантами
кругах
country
запомина
молодёжный
##вёз
##манд
гоген
драме
купец
охрана
сеньор
##рити
осло
пыль
филли
##пат
##жкой
чон
курт
foundation
гродненской
lp
ot
щё
#000
благочести
восем
шанха
продюсеры
ны
mind
лагерей
добавлены
##чикаго
испанском
##гис
джуль
сейма
римлян
##старосты
польские
##uf
рб
смяг
азота
нестаби
направлением
грамотности
начата
периоде
пистолета
попытались
##nia
##юань
##ненным
высла
колеса
строчку
огромную
массачусетс
##зуб
##газпром
##королев
хуторе
##президента
объектами
поддержать
вручную
участию
киевском
характерна
воздействием
##viii
башне
николас
органических
##nie
##блется
спектро
терапев
увекове
формуле
заменена
назначением
азию
изогну
перифе
зелёной
afr
мос
##плено
электрод
предприятии
##ges
##квали
сообщается
бут
непод
окружающих
обслуживает
мач
сбил
жанна
вольно
гитлер
заявляет
выстрелов
информационной
##pire
##тиком
бордо
ведущего
джексона
готовности
##шот
частям
обычным
польско
согласо
##ленинград
пилотиру
беатри
подножия
изменилась
собственном
##ффен
abc
чувств
service
дневник
передних
взаимоотношения
мосты
интера
##фашистскими
планировка
разрушение
##твы
##менее
антвер
##конструктор
пассажирский
##усом
гриб
конту
взятия
американскими
драматическом
##fre
##риго
спортом
ударных
колеблется
содержатся
международную
амби
тяжести
##vin
##уль
великую
гражданские
bd
##товое
панси
##качестве
##зуется
##неса
лариса
металл
автогон
авиакомпа
предыдущие
##сове
##добро
удавалось
##кве
эре
##парад
сдержа
героини
жёлтого
погибла
переезда
хель
боевую
месяце
деформа
колебаний
##исполнитель
науч
митрополии
продюсирова
##stra
##четыре
гетман
театрах
федоров
викариат
течением
соответствующий
##ici
##городок
сиднее
простого
пещер
убежище
пограничных
екатеринбурге
##oli
##шав
##кинг
мейер
давали
волк
тепла
племен
землями
кораблях
ві
делается
евангель
##bout
##дями
##glish
##лийского
способами
университетом
выехал
картах
календарь
ограничение
религиозный
электрического
##товыми
кузов
правну
##чую
##рань
лез
равных
окла
объёме
символа
умерших
позволит
работало
солнечных
распоряжению
пох
китайские
мастерских
охрану
пфальц
ущелье
костюмы
моряков
автономный
##hs
##дюй
age
неми
##ринский
близким
футболом
нарушений
мемориальный
##реев
быков
спектаклей
ила
плит
##журнал
guide
мюзикл
духовное
событием
*#
##ммер
коммун
##биографии
великобританию
##orf
##фун
##эра
##рёва
cup
ела
ефре
карна
фраза
грузия
городам
отпуска
рабочая
##тированных
##das
##пса
##elli
культ
велика
добавил
ставшая
##king
анжу
преобразованы
райт
сопря
гамбург
направо
филологии
поднимается
##ws
##ниси
вов
пресви
назначена
сторонниками
эве
##израи
model
густо
хасан
просмотра
ёси
##преобра
отвечал
румынский
потребности
##мовым
долг
алиса
ванда
винни
##вленное
картер
сюжеты
типографии
электронов
этнографии
##рыми
навер
потеряв
0—0-
##точная
каналы
треста
появлению
первоначальный
іл
##пассажи
заклина
организациях
арифме
павлом
огромной
сава
дошко
дошли
маленькая
воспользоваться
##шат
##пулем
virgin
древнем
регионы
евгеньевич
классицизма
##роса
rain
##тарной
гигие
лошадь
диалекта
усиление
посы
отправлены
ce
ссо
звон
грозный
животное
самолета
биография
##лои
икс
##слово
##ффорд
азов
подъёма
##max
покро
погибшего
##бата
мурманской
увеличилось
##льна
вулкан
журналом
поддерживается
усу
вкла
gener
капсу
муссо
среда
гербов
видеоклип
earth
other
запорожье
комитетом
способствовали
##ёлки
online
кнессета
екатеринбурга
##чака
##angel
болота
##пяти
голы
сось
бенджа
прекращении
##дером
after
##ничного
следствия
конкуренции
##itan
белград
категориях
##дорес
##единая
просё
##басса
удли
высот
цвету
держит
коллин
хорошее
опубликовала
##линия
луций
мелоди
удается
атаковал
ходом
вничью
таиланд
##pen
##стрё
янь
рубин
аквари
данную
синего
народном
поблизости
электрических
восстановлении
##челси
уменьшается
политехнический
критикой
пыталась
критиками
церковный
электроники
##бори
##рада
экзар
прозву
питается
##тован
дирижи
уши
##донец
##ваемым
флагом
секунду
передние
пропаганди
драм
версиях
гир
кел
##allen
химия
холма
дорабо
серова
хотела
бры
##ложено
##мысли
##ллером
family
гватема
княгини
считаться
переименовано
специальность
кукол
разведку
##rus
##annel
##щееся
посу
psych
энрике
названо
напряжён
устю
шелко
бессара
отмечали
казанский
экономическим
##трк
фбр
##anger
атомов
повели
познания
оригинальных
штут
*****
разгрома
##шны
кас
##матри
урон
коллег
##mc
##тё
##затор
луиджи
ближайших
петрограде
византийской
интеллигенции
##mos
ni
##пили
civ
марсель
0.000,00
хранение
##%)
##зти
##гале
##ровне
##дьевич
чёрное
неравно
пятна
интересах
архимандрита
ub
истребитель
муже
привя
растут
эдварда
полнометра
anal
code
expl
кончи
белова
чернобы
доставки
миграции
приключен
повреждений
окрестностей
предположить
##ате
ямало
десанта
##wind
##ггер
##ograf
абор
любая
шагом
морган
будапешт
##odes
##орди
##ствиях
читает
разобла
совершать
пм
бессо
верховным
##ives
меже
чуде
##мульти
редкие
богатства
заболевание
рассмотрение
##»(
della
пограничной
##mad
##ндон
эра
##дук
кили
##руемых
привол
возможна
прекращено
смита
пещера
победили
подчерки
проголосо
связанный
исключение
робертом
петь
боролся
супругой
вспоминает
оригинального
рассматриваются
хаджи
##язычные
##распреде
активные
кабинете
##oper
чуко
##тальных
путешественник
##слер
риги
##жались
гриффи
тренирово
психология
тренировал
##kh
##васи
##ьёва
точностью
аминокисло
передвижения
инвен
кисти
пьера
строились
объединить
##ракет
##среди
суши
нечёт
секция
lar
пий
##факто
обязаны
занявшие
##yb
##орен
##шкар
have
кито
track
филиппин
корейской
индиана
барт
нила
опеку
##ховской
завета
оставаясь
амстердаме
последующим
##йдет
ежи
аналог
грамоты
содержал
столкнулся
zu
##рево
##харт
kom
хаза
##менных
зальц
пятое
окружение
фольклора
поставлены
##ес
##лял
##скре
catalog
воеводой
дженнифер
событиями
устройстве
##orial
вати
далё
заняты
атмосфере
свидетелей
выпускается
##корд
томск
theory
старым
германа
хроники
местечке
##cu
заняться
география
##наме
теп
##шедший
новиков
фрагмента
##."
flor
белэн
музеи
генералы
петрозаводск
##кг
диске
##cat
river
трост
##стского
блокады
постройку
противостоять
##валов
дабы
дождь
монако
значимых
ö
##ський
аналого
высотах
маккарт
##гане
dar
##менный
вызова
вылетел
патрона
aer
сего
##льскую
заслуг
уездов
пациента
футбольную
##edy
##мие
##цзы
##певцы
rena
##шкевич
уругва
пова
маркиза
термины
диалекты
палеонто
##тове
sea
##госпо
целое
##морская
##астрономы
заслуженная
##друж
##парт
[...]
