[PAD]
[unused0]
[unused1]
[unused2]
[unused3]
[unused4]
[unused5]
[unused6]
[unused7]
[unused8]
[unused9]
[unused10]
[unused11]
[unused12]
[unused13]
[unused14]
[unused15]
[unused16]
[unused17]
[unused18]
[unused19]
[unused20]
[unused21]
[unused22]
[unused23]
[unused24]
[unused25]
[unused26]
[unused27]
[unused28]
[unused29]
[unused30]
[unused31]
[unused32]
[unused33]
[unused34]
[unused35]
[unused36]
[unused37]
[unused38]
[unused39]
[unused40]
[unused41]
[unused42]
[unused43]
[unused44]
[unused45]
[unused46]
[unused47]
[unused48]
[unused49]
[unused50]
[unused51]
[unused52]
[unused53]
[unused54]
[unused55]
[unused56]
[unused57]
[unused58]
[unused59]
[unused60]
[unused61]
[unused62]
[unused63]
[unused64]
[unused65]
[unused66]
[unused67]
[unused68]
[unused69]
[unused70]
[unused71]
[unused72]
[unused73]
[unused74]
[unused75]
[unused76]
[unused77]
[unused78]
[unused79]
[unused80]
[unused81]
[unused82]
[unused83]
[unused84]
[unused85]
[unused86]
[unused87]
[unused88]
[unused89]
[unused90]
[unused91]
[unused92]
[unused93]
[unused94]
[unused95]
[unused96]
[unused97]
[unused98]
[unused99]
[UNK]
[CLS]
[SEP]
[MASK]
##wa
k
m
##na
##ya
##li
wa
##ka
ya
##ha
##00
##ni
ku
a
##ti
na
##ta
##ng
ka
##la
##hi
##ba
##ri
ma
ki
u
##za
i
##nd
##ma
s
00
##zi
##ji
##ra
##si
##to
##ki
##en
##hu
*
##ku
##le
kwa
p
kati
c
##tu
##di
##sa
n
##yo
##he
katika
##mi
##te
##re
0000
##''
##fa
v
##ja
##bi
##da
la
za
ha
(
##ye
ni
##ke
##fu
##ko
##mu
##we
##sha
##mba
##bu
##me
##pa
##lo
##on
mwa
##lu
mi
hu
vi
##ro
hi
##mo
ali
##ngi
##wi
##ru
ba
##shi
##ho
##ne
ta
##ndi
##gha
##bo
##zo
##an
d
ili
cha
##be
##po
lu
##nda
##chi
g
o
sa
##pi
##enye
''
j
##ngu
##kuwa
##nga
lugha
mwaka
##fi
pa
##se
e
mu
ina
##wenye
0
##no
kuto
kama
zi
##ngo
kuwa
##cha
nchi
t
ja
##su
pi
##000
##nde
waka
##yi
-
##pe
li
wali
##nia
amba
##ga
kutoka
se
##gu
##nge
##go
##ge
si
##mbo
kwenye
"
##0000
##nza
wana
##ene
##lia
##ria
##or
ju
au
ji
##vi
mo
000
f
##idi
watu
##sh
##je
##rika
##do
mji
wi
##vu
tu
##er
##fan
b
bi
##zu
da
nchini
##st
##mia
##moja
##ndo
the
yake
##bwa
baa
##vyo
##kana
me
##zwa
##ngine
zaidi
##so
##mii
0000,
##liwa
ra
##gi
##fua
##,000
##che
vya
##ua
jamii
##th
##riki
##shwa
##du
##sia
of
we
pia
0000.
maka
uli
##sto
##ca
iliyo
##kuu
(0000
##ze
to
##de
##dha
##mani
baada
in
##yu
wakati
fi
##).
inayo
##mbu
##pu
##kini
nyi
##kani
ana
##pata
##cho
ime
maa
de
##weza
w
kia
##ter
##husu
##fuata
##mbe
mwi
pe
##co
##ce
una
lakini
##laya
ko
##ju
##nu
##eneo
##dhi
##ndani
##chu
##is
##ch
co
##ve
##sho
##one
mare
af
te
fa
##ini
ida
du
##sema
hadi
##ran
##sta
wake
zina
pamoja
##kiwa
##kia
al
##jia
ndani
##zungu
kuhusu
uta
mara
yo
idadi
##kwa
ca
bo
mia
ro
##va
##pg
hii
##jpg
kwanza
re
marekani
he
mko
##shaji
##),
##the
no
chi
##ano
le
ua
jina
juu
##'',
kundi
alikuwa
wakazi
##bali
be
moja
and
ilikuwa
##ll
##tumi
##nzania
##hemu
##twa
##ry
##kea
##hari
kusi
miaka
##tre
##ende
##fanya
##lamu
hata
zili
##thi
kata
sana
##ci
bu
ne
ho
##lio
di
sehemu
tanzania
##tion
#
mwana
walio
ai
##babu
##lac
##rt
##biwa
##yika
##anzi
maji
##kubwa
##log
su
hasa
##semaji
kuna
##ndu
##sti
##mbi
##in
iko
kufuata
wasemaji
ye
##zungum
##ongo
##sili
aka
mta
##reza
##tto
##lea
##tia
##kri
po
##hesa
mkoa
kila
hivyo
##ifa
kima
ti
##kati
(0000)
makala
##ishi
##ngereza
##lti
jo
##ska
mna
nyingi
eneo
##rd
kufuatana
##gh
##ty
##ona
##hesabiwa
##ingereza
##nya
##ida
ga
mbali
hali
glo
##eno
kusini
masha
mkuu
upa
kwamba
so
##ele
##tree
ambayo
##ribi
kuu
##us
##zungumzwa
afrika
##tumia
wilaya
dunia
##ck
kuli
##pya
##zaji
mnamo
##inishaji
multi
shi
uainishaji
**
hiyo
sen
olac
multitree
##fanyika
yali
##ttolog
glottolog
lo
##nzi
ame
do
##uti
huu
lili
inayozungumzwa
fu
mbi
##ribu
vile
##ss
##siwa
chu
kubwa
##zaliwa
imehesabiwa
kazi
picha
sensa
vita
00,000
chini
je
kili
##ani
wo
–
kita
##enya
##mbali
##dogo
##dili
sababu
##ngwa
##anza
##waida
mata
0000)
aki
yana
##nisa
mfa
##ban
kawaida
##mb
siku
##bel
##saba
##zini
is
##wala
##rehe
##jwa
##man
yao
wengi
wapata
kina
##men
##rne
##itwa
wapatao
tuzo
##-00
##ver
##nolo
##skazini
mtu
##ld
iliyofanyika
##mwa
lina
##hali
kuta
mbalimbali
##gon
##jeru
kua
##isha
##ted
huko
##lme
##:00
ndi
##shindi
kenya
msi
kuji
##she
kupi
##gue
ar
ri
00.
##ziki
##toto
kanisa
##-0
kaskazini
hai
upande
##jerumani
tarehe
aliye
##husi
##fe
wenye
njia
ambao
asili
bahari
ke
huo
##sababi
##lewa
##ts
shu
nyu
wanao
an
mwe
##fauti
kui
##nsi
##kristo
mashariki
karibu
mfu
##-0000
wata
##katifu
nobel
##endelea
ufa
usa
jimbo
gu
##gharibi
aina
##hidi
##jili
kutokana
##rs
sha
##gonjwa
0.
##mini
ru
mpya
##shara
##jibu
##qu
##badili
bara
eth
##land
tangu
##kua
##juli
##nologue
ethnologue
mpa
##''.
she
##fo
mjini
##dhaa
pro
y
##shu
##al
mungu
##thu
zilizo
##rikali
fe
ge
kabi
##mea
##ia
##rk
muda
##onye
##chagu
lake
##ly
##mla
##pati
kiwa
filamu
##lle
waki
##nada
serikali
##son
uingereza
zinazo
kuo
karne
##nzo
new
tofauti
wao
##ndishi
go
ulio
waa
mwenye
##jo
wengine
##shiriki
##wili
##lla
mshindi
##ngani
##mili
000,000
kika
zo
##un
mujibu
##julikana
##es
wote
##bia
##sko
##for
##limu
##ransa
0,000
nyingine
##el
nafa
##swa
tena
kum
man
kisa
kiu
##bamu
uni
yenye
##ght
##himu
##dia
kuanzi
##refu
magharibi
##px
##thumb
##les
0:00
baadaye
l
mbili
maisha
##rea
hawa
##bla
##kee
ngu
mwisho
histo
##lima
##onekana
##sababisha
nafasi
papa
##leo
##patikana
hili
file
mmoja
##ur
maeneo
chuo
##ngia
alipo
ume
uwe
kipi
##rufu
##tokea
##ny
000.
##ine
nya
##mpu
##tro
huwa
awa
##rg
##ndwa
##kuta
##gra
pili
at
##tumika
ambapo
##ari
kute
##pungu
##bn
##milia
##huri
ulaya
r
##kio
##".
##rusi
##kata
yote
##wana
##pia
ita
nu
sasa
dhidi
kabisa
##nua
ajili
kikuu
hivi
##enzi
kiko
kadhaa
hizi
##ngan
##onyesha
tatu
mita
kisiwa
##bari
##liki
muhimu
rais
mafu
albamu
duniani
##nti
pu
zake
##lai
msa
##toa
zote
kale
yaliyo
mfano
##pri
um
##yari
##keo
##mp
pre
bila
wimbo
leo
pekee
nje
mkubwa
##ongozi
##ar
ujerumani
mto
##lojia
##ton
yaani
kutumia
sta
kabla
ndo
shule
##weka
muziki
mar
damu
wame
##onesia
,
kitu
che
##rudi
kiba
##lioni
##ol
##walio
##nadamu
##jiji
(00
##taji
##hn
akiwa
gi
mtakatifu
##ngene
##wani
haku
##tho
on
##ster
##tiona
##nyama
##lli
isbn
##ste
baadhi
bia
ima
##kto
##kula
for
##ph
##|000
h
kipa
##toliki
##nja
##zuri
dha
nde
##tt
##zima
mau
##wo
mbe
walikuwa
nye
##rati
watoto
##spa
##ssi
##ger
##hindi
kwe
usi
kiasi
familia
##hili
##rabu
##fsi
fran
mazi
##can
##loni
##tini
haya
##xi
##kili
##andi
##ris
(0
vina
##faa
kufi
##shinda
##tha
kuliko
roma
##ngawa
biashara
ch
##ngana
*🔗
##mpuni
mada
##-000
kuanzia
unao
##vo
##islamu
##tumizi
uko
habari
##raka
km
yeye
##biti
kufanya
.
##siasa
hapo
ingawa
kipindi
asi
##lani
##pita
##'')
ugonjwa
##cu
yanayo
nyumba
##mwe
##kwe
maana
##hudi
##stra
##tizo
##",
##yansi
sheria
chama
##cor
kiwango
mfalme
##ent
elimu
ii
##ita
ambazo
##ngeze
##chungu
##mua
shirika
by
mpaka
spi
yesu
bora
##enki
##tolewa
mwili
utu
hilo
humo
ambaye
##baki
matumizi
##pte
takri
vili
##ghu
##hitaji
##saidi
jam
haki
##fiti
binadamu
chake
dawa
john
##tumiwa
ikiwa
##taifa
wakristo
:
##ana
##tional
msingi
##anzishwa
##toka
kupata
mfumo
ufaransa
maarufu
milioni
##sisi
##bra
##dio
##pele
air
kija
isi
##eli
mcha
“
mwandishi
mengine
kimataifa
##ono
##ssa
##bara
##mbia
##kundi
##rie
##riwa
kufu
historia
##ns
##madu
con
##que
nguvu
##kama
##inea
kupa
##gizaji
fulani
image
inaweza
kupitia
wanyama
janua
neno
hayo
##right
hatari
dini
viwa
jamhuri
iki
##dri
##tua
00,
mahali
##lama
##chukua
##maduni
##huru
fo
##mbuki
00,000.
##taka
##um
uka
mapa
ndege
##cal
machi
upo
##ksi
##mpa
##ghuli
januari
##kumbu
zao
##mes
mbu
##chaguzi
ago
ika
##yote
mashi
awali
##smi
##fiki
asilimia
wazi
takriban
kiingereza
pau
coun
##ktoba
italia
utawala
##giriki
##pewa
mengi
##gemea
oktoba
##mali
ute
##weze
##skofu
##semba
##kra
gha
nove
##au
##ame
mwanzo
##ment
mwezi
agosti
uwezo
##tokana
jumla
dola
tiba
wasi
&
##hara
##rn
rangi
wanaoishi
taifa
juni
##cheza
##chumi
##spania
imani
mawa
inter
##tra
umoja
desemba
##am
##od
##maa
muu
huku
matu
kini
##versi
##geria
ndogo
mama
##dini
##ina
##kta
apri
kifo
novemba
mwingine
##hami
##bru
septe
##saidia
##nyo
julai
waishi
kampuni
zamani
maja
uhuru
kilo
##pende
##fia
mei
##nyu
##sri
kitabu
##kubali
kuka
sala
##sse
##rio
baba
##nii
aprili
mato
##ganda
lililo
##ngira
waishio
chakula
##iri
jinsi
##str
##my
##frika
wiki
maalu
namba
##ren
##wn
rasmi
##zazi
septemba
umri
##res
visiwa
ule
##unga
hala
mambo
kiau
##sis
usawa
san
##mizi
##wapo
##muziki
mpi
press
##tibabu
##keza
##usi
jeshi
##mna
zime
kuele
0.0
bib
##ok
kibi
pwani
##mon
kai
uchaguzi
##tanga
cho
##fana
##chezaji
nyimbo
ste
afri
spishi
bado
##ds
##zuia
ngo
##nk
mtoto
##bantu
hakuna
##lili
##kundu
hizo
maba
'
gra
wil
##lm
gre
kifa
universi
##nne
hati
mka
##zikia
##waliozaliwa
utafiti
kio
##et
sawa
##ada
york
en
mataifa
(0000).
you
##bli
##wake
##bar
##jeshi
##ngeza
(''
mazingira
##fani
##ven
mapi
nor
##risto
##fariki
##fadhi
##pua
##ywa
mdogo
kutoa
febru
##rom
##hamia
z
nyo
##shika
##dai
0000:
ci
##kodi
miko
ndiyo
kibantu
mba
##dala
mali
mti
halafu
bunge
##dan
##swahili
##ndugu
##00.
taa
hapa
##cy
##tes
ed
kutu
ulikuwa
ambako
##tambu
##upe
##yahudi
county
##misha
##leta
##stan
##dy
nigeria
februari
uju
##tengene
vijiji
##ron
kuvu
ambalo
ufu
##amezaliwa
##per
##bert
##jenga
uhindi
##funzi
##tegemea
katoliki
micha
wanawake
guinea
wale
##nyi
ile
##ler
##zidi
miji
##rus
##tri
wor
kongo
austra
dalili
##mas
##mita
mala
makubwa
##mar
##zea
##alamu
##stronesia
upi
##fika
##line
##firi
##pokea
##ratibu
mrefu
(0000-0000
##dumu
kiaustronesia
##miwa
kusa
##mahali
matatizo
dar
ziwa
kike
kidogo
##chama
##soma
mwigizaji
university
sy
tar
##ut
##tions
##fanana
##husika
wala
kilicho
##endeleo
##ley
##tus
va
##husiano
##hisi
timu
##duma
nusu
misri
##badiliko
es
nne
##rani
wako
kisi
##ff
maso
ardhi
matibabu
/
##mbaji
stu
##ngano
yu
ubo
namna
##pro
mvu
##tani
bra
##lan
##red
##pora
linalo
##ms
ndugu
kali
kupungu
kwenda
##uri
##sheni
maendeleo
##ngezeka
##den
asia
##tor
tha
000,000.
mabadiliko
amerika
##histo
##chezo
maneno
##0.
benki
##national
##iro
##chwa
kii
##ber
moyo
hiki
vitu
x
##ingia
seli
kie
##ham
kuku
##sco
##gawa
viu
##ed
##gano
australia
joto
huduma
##leza
vitabu
mal
##il
##lin
##ndari
##fau
0,
##ali
kisha
am
##tiki
##masha
zile
##nganisha
##port
upe
##tawala
uki
anaye
maria
##tic
##thio
ele
##sv
##nafsi
##-00000
mbele
##tz
car
##radi
##china
##ongoza
##olojia
kumi
utamaduni
askofu
##kazi
##ndano
cu
##kongo
##andikwa
##lizi
kla
mwenyewe
maga
makao
##tta
##zito
tara
hua
##ad
##oni
mlima
##nder
##watu
biblia
shughuli
kanu
##futa
alim
wadogo
##chaguliwa
##anzisha
##ezi
##pha
mbinu
as
wenyewe
##rou
kk
sita
matokeo
##svg
##ther
kim
##ndonesia
##wahi
##sua
##ndon
##llo
kufikia
##lizo
from
kemia
##.,
bar
##zama
##raeli
##jumu
##gwa
uha
bali
##zeti
##pokuwa
##pote
ver
##fanywa
lime
##kte
##mer
pla
##mpi
##enea
uwa
##rodha
kadi
urusi
ac
bro
vipi
el
anga
tabia
##vile
geor
##:0
##fornia
us
##ili
##nal
##safa
cali
##enda
##ft
hatua
kuandi
fizikia
##ire
hazi
##tin
##biri
##nzani
kitaifa
kura
ama
##bila
hewa
huru
kile
kusababisha
mate
indonesia
##ford
kiro
mw
edi
##zali
ale
kuzi
lenye
pri
kanda
kulingana
##kano
kiniger
kilatini
##ruki
ura
##pani
##sla
##jua
##sisko
##shindwa
uganda
kinacho
vo
lilikuwa
##sihi
usha
ng
kinga
##historia
##niki
kiswahili
##ridi
##wepo
hau
makuu
mifu
kucha
##gen
##tal
##nchi
##sari
kimo
pale
##jana
sauti
##lulizo
kiongozi
##..
##cro
##use
##nduzi
##jaribu
sou
kristo
ex
##kari
misi
international
hao
##nywa
##penda
##ps
saba
##maye
miongo
##ngle
mgo
papua
haraka
maambuki
##iko
##san
##zee
(0000),
##mwengu
##unda
bri
kiarabu
##enza
ber
vilevile
ea
jack
kime
##thiopia
waislamu
alizaliwa
##dge
california
##ume
basi
mapo
wasa
##lis
aliji
##yan
tuna
majimbo
##ral
indi
akawa
ndio
kuishi
##rini
##fikia
kibo
##kaa
kide
##jini
00%
yame
##kutano
orodha
kikubwa
waziri
kote
kara
ukristo
##lly
##lack
cor
willia
hispania
##ble
kite
masomo
mfululizo
or
tra
hatimaye
com
wanafunzi
##kika
##wezi
##deo
tho
##badilisha
##cus
##piga
mipa
milima
##mokra
st
uba
kule
ufalme
kisiasa
kigiriki
##lau
kilimo
yoha
ad
##beti
per
high
china
##dhibiti
kuzuia
vilivyo
ab
nga
kito
maha
##kataba
bidhaa
kiji
uhusiano
vol
##tiwa
uchumi
vijijini
##."
ata
##van
##asa
##mokrasia
##reno
##irobi
##jeni
##ys
maambukizi
##sima
chati
##kiti
miti
umbo
##ngua
salaam
ulimwengu
##nis
(0000-0000)
##mbea
fasihi
mad
##stani
unaweza
halisi
mafuta
##kwi
##dudu
afya
amani
des
kiku
##kadi
kumbu
##cia
urefu
kadiri
##it
alia
##chunguza
barabara
##phy
mkono
publi
##corpora
london
vizuri
##ngs
huitwa
##ima
har
moto
##sion
##xa
##lika
##siana
##burg
kisasa
reli
wawili
##guu
##ture
wacha
kanuni
vijana
##by
##.''
##geni
tano
##corporated
##rua
##ondo
jua
kituo
##biashara
##ls
badala
mwanasiasa
kifu
kwake
0000-0000
##waliofariki
##kosa
sifa
vifaa
##-0.
nyuma
##gia
##kali
alama
##nam
##jengwa
mpira
##ens
ilivyo
##nt
history
vingine
##gumu
##mlaka
##maani
nyota
##fari
kijiji
ethiopia
##kh
##con
##rey
bwana
yohane
nairobi
kisu
ve
##ndaji
kibu
##moni
*''
zenye
ubongo
vinavyo
kumbukumbu
##andika
klabu
##phi
fre
wama
kweli
##")
##nye
##wekwa
king
##via
mt
##ction
##nganishwa
mwanamuziki
##kusa
##mbuzi
char
with
kamili
##ct
mamlaka
lazima
##goro
##ribio
##ngea
##der
##chuku
viwango
=
ambacho
michael
##maanisha
nyumbani
kijerumani
##gan
##tangaza
chri
##husisha
my
roho
miongoni
kiru
##ser
et
kuti
naye
kuingia
##menti
##sayansi
mojawapo
##rum
##zia
maje
##kteria
siasa
##ker
##nus
wataalamu
##jiri
##uawa
##knolo
cheo
kula
james
jambo
viongozi
##des
zinaweza
##raba
msha
msimu
kabila
mbunge
##ndao
paulo
##lus
##nganyi
sudan
ange
tran
magonjwa
##ea
00.000
katikati
mon
##pedia
peter
eu
tele
kando
kiso
isiyo
kupunguza
##knolojia
wafanya
##int
##vuti
##husiana
uchungu
sto
q
kuja
kuki
athari
##dae
##jumuisha
##nzibar
kichwa
karibuni
##undwa
##thiri
soko
wanaweza
video
world
taasisi
##takiwa
chanzo
walipo
mchezaji
davi
##rama
##raha
mape
akili
##siliano
##cc
##ten
##hite
mechi
mapokeo
##lsafa
masi
##maliza
kijamii
kilomita
kutengene
##kira
(000
mimea
##ngele
##mwi
##sini
virusi
##ndua
lao
##mamizi
maalumu
##paswa
kulikuwa
uwanja
##tis
##raji
***
alivyo
*0000
kurudi
##nisi
anti
kise
yoyote
##sale
##liana
mapinduzi
##uli
##ring
hicho
tayari
makabila
##ard
##sey
##hehe
##maji
umeme
mawasiliano
##nasi
sara
sayansi
poli
##raja
uso
mpango
|
##nce
##net
##kuja
miezi
wayahudi
mashu
ngozi
wasio
kuondo
maalum
##magharibi
kifaransa
bank
airport
##ence
##ensis
##rekani
african
##hola
ato
##stari
matukio
##car
##amini
meli
safari
mil
vyo
toleo
jumu
##stanti
kikristo
##muni
bendi
##geu
kaisari
shiriki
##ndiko
kivu
ce
wakiwa
##ir
kida
mkataba
##mivu
den
zanzibar
##berg
wafa
00:00
##kilishi
binafsi
fedha
mafundi
##fano
koloni
kushinda
##mke
ny
##kala
##fuasi
##penzi
##thibiti
jer
sho
kinyu
##pp
##tan
uswi
muundo
bakteria
##png
love
kiafrika
west
alianza
william
scho
majina
##habu
vipa
moro
##holanzi
##kimu
ucha
jackson
mte
##kutana
##tti
##lishi
kufa
##reas
ser
##mashariki
teknolojia
umma
watumwa
##jaa
kon
##benki
michezo
##shima
sila
##rusale
israeli
##lf
yako
petro
pombe
##sababishwa
pembe
mwendo
zingine
kidemokrasia
##ngaji
utaratibu
jose
##han
##jemi
##risha
recor
##lipi
maumivu
hip
##kebi
miu
ndiye
il
##buni
lengo
shirikisho
yale
mingi
##fanikio
##tali
ben
hara
kufua
##tengenezwa
##muzi
george
kushiriki
0000).
kuongeza
##zaa
##kisha
##karibi
##ndisha
##guso
kiti
##dharia
mwalimu
zilikuwa
##haribi
kujenga
##run
##chana
uweze
un
##tter
africa
##jenzi
kimu
mafanikio
male
##misi
##kataa
##bii
##rican
mapema
mwanamke
uchunguzi
##tea
wai
##heshi
##zunguka
robert
##hispania
makundi
0,000,000
##cto
##cti
##mbua
mkutano
pengine
mwanzoni
##zimi
kure
macho
##sy
##par
vyu
##kufa
kuru
baridi
##ner
##ding
aliyekuwa
ila
kasi
mona
miguu
mke
van
##stria
##ingi
uchina
##hamu
cla
huyo
mafundisho
##ngli
##tuzo
##ktari
waingereza
##id
##mbwa
kutokea
##cis
##faulu
##shing
kame
##com
##nji
mawili
##miza
kupiga
mtindo
##tte
##fran
##laba
kirumi
wadudu
mado
waku
mvua
vingi
del
mwimbaji
##hama
maua
kijeshi
kuelekea
kuanzisha
##toni
asilia
##badilika
uturuki
##mpe
##ries
uja
pande
mimba
sanaa
pp
paul
ze
vime
##-000-00000
##chard
gazeti
kutumika
##pen
##lisha
##rithi
chache
##bai
##bri
kar
##hehebu
ukubwa
uwezekano
##ppe
city
hutokea
makanisa
cen
mas
padri
##arifa
single
##hy
##uni
##vie
##fisi
##uliwa
yalikuwa
##min
##suku
wastani
##las
##rch
saa
zisi
##sheria
##shughuli
hifadhi
it
wanaume
##wemo
00.0
##hifadhi
upendo
usimamizi
kira
kutaja
oli
kwani
highli
##wor
##tera
##ongozwa
muungano
wananchi
##at
her
iba
##fanyi
msaada
viwanda
fransisko
tam
rekodi
hutumika
##tajwa
kanada
##rufi
##tina
united
##nes
##roni
hen
kuende
##nganyiko
##lt
##rti
kiuchumi
##cial
##ward
##stawi
book
david
milki
mtandao
##chukuliwa
up
kipe
wenyeji
##gaji
uvu
##funga
viumbe
##rwa
aja
##yai
##ngwe
wafuasi
nao
mbio
qu
##mbamba
makazi
msanii
televi
##hada
wenza
##rusalemu
kutengeneza
##len
mc
##rida
##board
##lanti
progra
##beba
##mina
000,
hadithi
##ning
ramani
dhahabu
##logy
##kato
##dhara
##–0000
heshima
yerusalemu
thi
vyombo
kilikuwa
mashindano
##ogra
##ston
uku
taarifa
##king
##sefu
kigo
mno
ufi
agano
vyote
alipata
##thro
barua
##sai
##etnam
##cer
##dhu
##pishwa
aliyo
award
india
##lic
aliwa
maele
mikoa
##med
injili
japani
yanaweza
war
upya
##000.
nadharia
tarakimu
##stern
juma
kiga
kuba
##ws
sama
maziwa
ambavyo
##ple
##onari
##lipino
kucheza
waarabu
iii
ter
kigu
miwili
uongozi
haja
usiku
christi
kuzaliwa
can
hop
majaribio
##kara
##lenga
ujenzi
##skari
mawe
##elekea
kushika
der
##hamika
anaweza
##bore
alio
school
##giza
jersey
kuendelea
##kuru
##naki
##simu
##kumu
##choro
pasi
yasi
bikira
kuanza
##kuba
richard
##jito
silaha
##ing
##anga
ligi
maandishi
##pole
##yuta
##wezekana
mtaguso
isipokuwa
##iti
##colm
##uzi
mikono
studio
nyekundu
iliyokuwa
##.)
jirani
kufika
##fiadini
##nger
##taja
kiya
##tayari
hutumia
##spita
life
##mpyuta
malcolm
##)''
flo
huyu
lika
##misionari
wakatoliki
kombe
mbaya
ngazi
ishara
uislamu
##.0
##ges
##poti
##set
por
##nikizo
ghana
##lie
lou
##shia
kik
nia
zisizo
##husishwa
##cke
ibada
##gle
##sen
kido
sura
##stro
bur
##pakana
##ndera
upinzani
kuona
##ngezeko
mashuhuri
wanachama
kihistoria
##eld
faida
vietnam
##gre
##ile
medi
##vin
##mber
ara
00-00
bandari
##dd
##pti
kuonyesha
##suala
kibe
##gundua
##tiza
mbo
##pwa
##thrie
kiislamu
ilianzishwa
cro
##shambu
kiroho
##luma
ofisi
waliokuwa
##wanasayansi
##ek
##fsiri
kuunda
guthrie
masuala
askari
kuandikwa
kompyuta
pesa
jipya
mfupi
madhehebu
##waya
vipimo
charles
hospita
ukoloni
shinikizo
##fahamika
mchanganyiko
##bwe
##guzi
hote
baina
##sudi
umu
##af
zu
##hani
##hihi
##thern
##nan
mabi
katiba
imekuwa
##bon
##hiti
##rusha
jiji
kiki
##wezesha
mtume
##nganyika
##phe
uk
0-0
masa
##fungwa
ongezeko
##cs
xi
wingi
mwishoni
##clo
##dro
##rasi
fla
mashirika
sco
##-00).
gesi
mshairi
wagonjwa
mwanachama
inayoandikwa
##gua
##sus
##kele
kinyume
kutolewa
##mka
##mano
mli
##lango
##-000-0
##guinea
##miliki
austria
##dra
##tiana
chan
shaba
mwamba
umbali
ushahidi
##rty
##riti
mag
daraja
##eleza
kikundi
##mvi
##iya
##fla
##lii
##kweli
uzito
mapafu
mstari
kuongezeka
##zao
##amba
##bini
##tawa
msu
wak
litu
nakala
riwaya
tatizo
tovuti
##ney
##taa
##vya
##gizo
##tain
par
##pungua
barani
yenyewe
##kuli
vyama
##mad
##doma
mdo
nzuri
uzazi
joseph
televisheni
kicha
wakuu
bre
##patia
sera
jenasi
gharama
kuonekana
##cra
tri
mradi
##karibia
##ky
sul
##changia
##amua
''(
##poli
alifanya
kisiwani
kutoweka
##mbizi
seko
simu
nisha
##pelekea
aliandika
##lar
##bora
##ndaa
##lugha
kaha
wate
##ruhusu
##lam
##dina
ikawa
watawala
##ul
##vana
art
wapa
##chagua
saint
nyeupe
ujumla
kamerun
##shirikisha
##mati
bei
neva
##kutoka
martin
kalenda
##gri
areas
##liza
##romo
madogo
wajerumani
kno
##ghted
vikundi
##.000
##cher
ada
majengo
records
##gar
kivuka
mahakama
national
ushiriki
incorporated
##ces
##italia
##peleka
mbeya
paris
mgongo
usafiri
##gori
ndoa
mwanzi
##mus
##rder
kuchukua
bk
hula
nane
yetu
##shirika
##):
*"
##mino
##aniki
ziki
##ikolojia
##lor
##ngatia
mwanga
atlanti
francis
highlighted
kiose
mayai
kioseaniki
##lls
##wali
mor
##ortho
mito
kadha
injini
kuweka
madawa
thomas
mashamba
##tume
tisa
wachache
##as
##albamu
sayari
wasanii
##eu
##black
##tambua
maadili
mipango
wafanyakazi
##kar
iv
##mark
kesi
asidi
##kadiriwa
##wer
##doksi
heri
jeni
##fanikiwa
hospitali
alichunguza
#"
mzi
wazazi
ak
homa
kuko
tumbo
barafu
herufi
##tangazwa
ilianza
##dani
##gara
##rasa
##teri
##nyika
toka
ilipo
samaki
##gani
bonde
kudumu
##fer
##rew
im
majani
mtunzi
##fautiana
msalaba
##ller
##mana
##rere
mix
spe
kucho
yasiyo
wakubwa
kuandika
##nds
que
##xford
kuhu
musi
massa
##nor
##pla
##mbaa
von
kwao
##bro
##rgi
##zamo
via
##ridge
buru
mole
haiku
##maarufu
angani
kutafuta
##funza
mbegu
iliyopita
##mai
viba
vipe
moshi
baraza
waafrika
##ones
mana
dodoma
##dhimisha
##gal
##lei
##pre
("
##tisha
kimoja
kujiunga
##pus
##kezwa
mexi
juhudi
ushindi
##”.
##baka
##kalu
##rica
gari
tanga
protini
##spi
##cri
##haki
##shipa
mile
mraba
kuwepo
mifano
nishati
alfa
##riadha
viungo
##ongezeka
kufuatia
##nifu
##mbara
##mbukizwa
0-000-00000
##enedi
vido
##saka
pana
##tafuta
kiume
sekondari
bru
eri
tro
mifumo
mirefu
kisayansi
##masi
##ville
wamo
##fisa
rasi
mwanzilishi
##musi
maju
mari
##poteza
hindi
madhara
*00
die
##manja
##nguja
##jiunga
tamthi
bendera
wanajeshi
##enne
kuya
chenye
##,"
##tzer
##katika
kusoma
kusaidia
##koa
phi
gene
hawaku
ukweli
##qua
##turi
kan
##tangu
maelezo
uholanzi
##badilishwa
##hai
##ibu
##mmy
##nin
##wood
tex
##brania
black
##hitajika
##ans
##ombe
pen
##kuaji
##steri
matunda
##taza
ori
##field
mawazo
##unganisha
;
##mara
amri
tukio
umuhimu
pra
##stitu
chombo
kifupi
pole
soci
mapigano
pan
##wanda
kupu
vifo
south
tanganyika
##nc
##don
kipo
posta
##orthodoksi
##meni
udo
##nduliwa
wafalme
##kin
th
##kuwepo
0000-00
##zalishaji
##sea
##sou
hea
nzima
##manjaro
vipindi
##lian
mako
mizi
##kistan
##ksa
##spe
kit
sch
##bc
##luu
##hadi
##lezi
##ming
##riko
kipimo
ulinzi
kupokea
kutosha
kifi
mauaji
takatifu
kubadilisha
##cre
##wele
0000),
hutumiwa
husababisha
vye
##rei
##ves
##lva
##wai
##mann
##roma
wikipedia
##="
##udi
##ttle
##shiki
nuru
ukuaji
##ifu
bill
##kwenda
##takatifu
##uza
programu
##zz
##har
##kaji
tre
kiini
kitovu
unguja
##zui
##tana
sua
usio
alipokuwa
##kan
##lay
ear
##ae
##ons
##belgi
##singi
sugu
##tibeti
mazao
##thiriwa
0-0000
kidini
##mzi
##sar
tawi
vikuu
harakati
kutambua
kiebrania
wakimbizi
##mor
##waa
##jano
0:0
uswidi
morogoro
##joto
shida
homoni
kilimanjaro
##.:
##gwe
##bati
##ling
##mpiki
nyama
kisino
mafunzo
##pal
ban
misitu
usalama
##shirikiana
##bani
##buri
##stri
##sikia
##idizi
##tazama
kihindi
##nna
hisa
##ngilio
white
arusha
ugiriki
maaskofu
mahitaji
##tofautiana
##kima
##suli
kiha
ndipo
udongo
##ori
##pan
park
mitume
##em
korea
##belgiji
##tofauti
ilitolewa
ger
wal
000-0
##zunguko
kume
star
jangwa
kamati
jumuiya
sikukuu
elementi
monasteri
vu
oksi
##cation
penye
##heshimiwa
walianza
##dui
ow
##bill
##sabu
east
rahisi
mashine
version
umaarufu
##dor
##wei
##wia
##prote
##setts
mchezo
##chusetts
##pendekeza
hy
kumu
##chezea
wenzake
vipengele
—
theo
##kwisha
hesabu
oxford
kupatikana
sh
##geme
vyuo
colle
nyeusi
ujumbe
##pac
##seme
##litzer
##pelekwa
huenda
##nunua
brazi
compa
macha
vituo
falsafa
taratibu
##logi
##menia
##mikali
##ngalia
##boresha
##cyclo
jean
##fransisko
‘
visa
##milifu
##yarishaji
ureno
kuleta
olimpiki
##lines
gold
uajemi
ushirikiano
##gg
##ppi
##weke
##jitokeza
pulitzer
nayo
##kabi
##toweka
huweza
inavyo
massachusetts
##lue
uti
##maini
##gna
##way
und
kidu
idara
ujuzi
chembe
church
polepole
##tur
##damu
##zara
mac
uzalishaji
##hen
##mix
all
##ngola
unin
daktari
sherehe
##shambulia
mchakato
atlantiki
##tch
hoteli
vidogo
##tayarishwa
##ting
alisema
##kaskazini
unincorporated
dis
wau
##stina
data
##pungufu
majira
wazungu
epi
liki
kusima
kisheria
fer
rock
hekalu
bin
##nyiko
00:0
##safiri
ukuta
mashairi
##bs
##rc
kulevya
##kovu
##wote
abo
val
##baini
##tembe
mzee
green
##rin
##imba
mkia
henry
dhambi
mitatu
000-000
##bda
##ule
kilu
dhana
##zalisha
kumaliza
mazo
gregori
makampuni
##rst
##boni
##reje
mary
produ
upana
dakika
000.000
##isi
##pho
##funi
one
##pigwa
##pinga
mabo
raia
##haribifu
##)"
##ded
##ses
os
sun
muham
kusema
tabora
##nea
##gera
##sasi
lee
way
kondo
##changan
##teuliwa
mwingi
##fundisha
utambuzi
##mma
cd
##zulu
0)
##chin
ini
rus
uis
wapi
##visiwa
kukua
magari
wokovu
##miti
sene
malaria
wakifuata
##,''
##wan
##staa
##elewa
##potea
000–
minne
edition
kupo
00000
music
redio
madaraka
##protestanti
##gn
alexa
kuuza
chumvi
mipaka
##pra
are
smi
##panda
tanu
ndefu
suala
(0.000
##reji
##fya
kodi
kumbe
mapato
kimsingi
##nta
##kita
##sika
bea
##kemia
##theri
polisi
ukosefu
##chapishwa
kukubali
kaka
##keleza
##pangwa
kudhibiti
pea
yaki
chuma
jengo
kinaga
kuenea
##kubaliwa
##del
##val
##chen
los
jike
madu
frank
sahara
mingine
kibiashara
##los
##white
wabu
fungu
hisia
manya
##munisti
aleksa
kuingi
kupanda
mikubwa
airlines
##kina
isa
mili
##tholic
##israeli
baharini
saratani
##-00000-000-0
##pera
goo
benedi
sahihi
##ivo
##kiu
##shoto
ukoo
kuacha
##...
##qui
##ndisi
lote
msimbo
rwanda
##mko
##ony
##dies
uwi
##dhani
##kwimu
##nguka
gani
know
##nglish
binti
##choraji
metali
desturi
##tambuliwa
##unganishwa
kibinadamu
mao
##wishi
mawi
##rekebi
alitu
mzunguko
##ghe
##gio
##vye
siri
kilele
##semekana
zinabaki
##enti
##menta
kibao
uishe
madola
malkia
poland
zambia
mwilini
upungufu
##ks
..
##tuni
njo
kavu
misa
##haribu
##mbridge
kupita
mbingu
wowote
##onyeshwa
shahada
ufilipino
kujitawala
##suaji
peke
mishipa
alishinda
hupatikana
##bio
##ema
ira
##fadha
##fereji
vyake
##punguza
russia
##tengeneza
##nn
##py
##sed
##ving
##kusini
mdomo
##julikani
matendo
tafsiri
alfabeti
kutumiwa
euro
##ivoire
##wilaya
angola
langua
oksijeni
alijiunga
##wu
iri
tai
##troni
meno
wawa
maskini
##pt
##llah
##inter
louis
simba
##hamiaji
##%)
)
##ety
colo
nami
edward
kiroma
mwongo
mapenzi
##let
##diki
##ziri
manu
##kilisha
island
sultani
kemikali
##new
##haja
mapya
trans
mtawala
vyakula
huadhimisha
##sm
##tics
##vamia
viwili
transla
muhammad
##ara
##rdi
##ros
lt
##nuzi
usu
##round
ishi
lile
books
mlango
aliweza
uharibifu
##ال
##arch
##yenye
nguo
house
##fizikia
miundo
##nie
##paa
##mamo
##mbiji
##chorwa
##sisitiza
dr
##hati
##klia
##lana
0-00
kimi
wahu
kampa
##lingana
##thibitisha
0000–0000
##tuba
##vita
don
##ngaza
##vyeti
##falsafa
wazima
##lk
##mond
kunako
##tures
maku
ncha
##chester
kikosi
##ang
##fre
##rod
ala
viko
##000000
##rekodi
lindi
ilhali
##pendekezwa
inajulikana
##ac
##bank
mchu
kushindwa
watakatifu
##ré
tv
##male
##kuzwa
akam
##ngaria
hutoa
michi
micro
##sababishi
pakistan
utendaji
##plo
cra
emi
ham
##mbana
nini
para
seco
takwimu
kibinafsi
##nka
##lius
##llow
kid
##ndria
##mbabwe
marufu
watawa
##kumbusho
##yer
##rian
web
best
fupi
kiar
yeyote
institu
maandiko
##lga
koo
##rujia
kukaa
wazee
vipande
##ira
##row
##meta
##miaji
##kimbia
imara
ngoma
north
american
##ret
##kuza
aga
ltd
mer
augu
dani
kijana
malay
smith
alipewa
maradhi
tarakilishi
##rson
##beria
yule
mzuri
nafsi
thelu
encyclo
alipokea
##vuma
##mbasa
kidi
make
musa
mkali
kuongea
mtazamo
msumbiji
aliendelea
blo
out
qua
migo
radio
berlin
brazil
lahaja
nyerere
thamani
waamini
ishirini
magazeti
##mbile
mila
vite
##nyanga
mkusa
##shington
kiasili
ubelgiji
kuendeleza
##num
##ctor
##kenya
##yaani
back
free
stra
viti
ziko
kaimu
kifua
##-0000-0
marufuku
cambridge
abu
uga
##pitia
##shiria
##simama
0.000
kuongoza
##);
mume
utawa
##onyesho
chanjo
mateso
##cta
##ide
safu
sumu
##fuatwa
labda
waandishi
##uk
##cle
##lezo
##lina
kipama
milele
kiyahudi
watumiaji
##ast
##lop
##kezo
bao
party
halijoto
upasuaji
alianzisha
0-000-00000-0
##pse
##nuka
##tasi
mja
muse
syria
miradi
mchanga
nyakati
##omba
kin
##kamili
##mishwa
##yana
##pisha
mika
kutibu
##wachezaji
##ers
##ness
##nsia
##seni
madini
online
kuondoa
kuboresha
mpangilio
##kai
ui
##naji
##wevu
gir
domo
state
mabaki
catholic
imekaribia
cri
##genzi
alii
##hitimu
##ndikwa
daima
mbuga
tishu
risasi
##life
****
##ngezwa
ajabu
mzima
liturujia
anajulikana
##hea
##rra
ari
dia
gua
0.00
##tungwa
sanamu
##zungumza
denmark
society
kutawala
anafahamika
ulianzishwa
##day
##vaa
cy
##huba
##rahi
##sher
##tilia
iwapo
matatu
mnyama
sigara
udhibiti
##ot
##bre
##mic
##sso
##|''
##kufu
##eneza
kuso
haina
mwele
##kamatwa
##nyungan
mchoro
##lde
##view
apo
##ssion
mbwa
uene
kuzaa
jukumu
makamu
##tangulia
angeles
wakulima
##jum
##ambo
##hiri
##mala
ire
iti
sci
##elezea
ngumu
kagera
kigoma
malaysia
mfiadini
##gawi
##keno
##ters
##trea
##yoya
##itwayo
kiele
licha
antoni
hakika
burundi
urahisi
kisovyeti
ty
##beli
##range
athi
pius
kujua
iringa
madaga
molekuli
##watakatifu
##lon
aji
##mwaka
sekta
maanda
christian
##cen
##ila
ly
##biki
##cene
##jani
##tisi
day
wood
mtawa
##mbazaji
jumuia
kigeni
urithi
vyenye
walimu
mombasa
wachezaji
##lee
##mal
##nuo
##zimio
elek
that
##kiasia
##nuliwa
watatu
english
kimarekani
##cm
##bird
##cade
##reat
cote
niko
walu
waso
aidha
##endesha
hawana
kuweza
##bin
##zio
##anda
##iled
uvi
river
##kusanya
kuimba
ripoti
##marekani
mahusiano
chad
kimba
madai
phili
upepo
jijini
kusudi
vigumu
waisraeli
##shughulikia
mwenyekiti
##sch
##try
ix
##tania
##halifa
##mation
##ografia
nywele
iliyozungumzwa
##lwa
##oney
argen
hufanya
pasifiki
kujitegemea
##tar
##cent
owl
hasi
uhami
wajibu
kufunga
inaonekana
inawezekana
##ura
##war
##puko
##wari
cul
carl
mauzo
walivyo
kutegemea
washington
##epu
##kha
##tio
##mple
##tria
jumba
maoni
company
kuelewa
##mji
##win
##rali
##sali
##thai
inge
ghuba
ukiwa
kinilo
kujiua
##haribika
alicheza
shindano
waorthodoksi
##bal
##zani
suma
##sukuma
ufanisi
ulimwenguni
##piki
sti
##0000.
wavu
zika
kuitwa
angalau
alichaguliwa
##koo
##nai
##pes
##rial
##rodhe
kukabi
##hakikisha
é
##hat
##yon
ae
##ddle
##keti
iso
##panga
asso
kulia
##you
uu
##beth
00)
##mishi
wazo
alizo
brown
##ndishwa
kupewa
mazoezi
mwekundu
zimbabwe
##os
##rdo
#0
##chea
##hewa
##liya
town
vati
##pamoja
mkojo
times
yangu
makosa
ukimwi
wageni
##stantino
uhusika
kupungua
##bul
##swi
ال
abi
anam
jadi
0000;
kamusi
kijani
kijivu
mapata
##gawanyika
teolojia
wanaishi
billboard
##ndro
red
xii
##liano
##nywaji
##mbuliwa
wasiwa
kichina
wamisionari
##ccm
##cks
hot
about
buluu
inapo
ireland
mashambu
##die
##pili
hal
inc
dogo
##tumishi
hakuwa
uliopo
##zy
##hoo
ph
##chia
##ngen
##dhabu
##fisha
##ondoka
##onesha
profe
ubora
ziada
kuondoka
mawaziri
kadhalika
##ras
##lozi
boy
clu
gar
law
##jumbe
##ondoa
##roidi
jazz
##sabati
kumwa
changa
rafiki
masharti
wanamuziki
wafanyabiashara
##aki
##gin
##swe
taji
##gawiwa
kansa
kupanga
mapatano
wasiwasi
inaonyesha
0-00000-000-0
##lled
##stru
##mpeni
mtaa
uhai
awamu
jones
kikwa
mapadri
tamaduni
kihispania
mwanafunzi
##bur
##ments
##tolea
deve
atomi
mitaa
husika
kirusi
mabaya
kushoto
##gy
##mir
##roup
##monaki
##tahidi
gitaa
santa
singi
##duction
uswisi
wareno
##kes
##chini
visi
##graphy
##lazimi
##inishwa
karibi
mtaalamu
kuunganisha
##gus
##pon
ah
##bibu
##tish
##tten
##tuma
mai
##tailed
berna
##tionary
alihamia
funguvisiwa
encyclopedia
##'';
##hau
##sts
##tun
00–
##ghani
kinu
matawi
mweusi
##0"
##zer
##bler
##mika
##rifa
##than
ubi
hill
mani
wafu
kizazi
misuli
mkondo
uamuzi
msimamo
shabaha
argentina
##gga
##lou
##sio
##sun
##enta
##inali
##shuka
demo
kuvi
masaa
gavana
sukari
##shindani
iitwayo
##hasa
##lini
##tari
waba
jamai
nabii
adhabu
malawi
uhamisho
shinyanga
mtayarishaji
##.00
##psi
##kulu
spa
tru
whi
##sburg
offi
##athiri
remix
unene
alitoa
mabawa
misingi
kikoloni
inayoitwa
manchester
##eni
##rai
##deri
##roro
##rudia
inta
##fanuzi
heart
athira
utumwa
maarifa
karatasi
majeraha
+
##ways
alo
kipu
mmea
news
##hariri
##nyimbo
chumba
##tawaliwa
##uchaguzi
mgonjwa
mwelekeo
mwanafizikia
er
##rtho
##tler
##chezwa
##vamizi
nasaba
##shikilia
kipapua
kikamilifu
##aa
##tai
##tak
ec
##fuko
sea
##anzia
##urnal
##zanti
soma
ajali
asiye
inapatikana
##ice
##''),
mso
##fungu
enzi
##husiwa
##thmini
##thropo
cross
baadae
shamba
kifalme
publishing
##xx
##ise
##face
##jina
##sana
##taga
##tory
vii
cape
elfu
hana
kudu
ubao
nepal
georgia
malengo
kuzingatia
##ben
##far
##dali
##pesi
##tenga
long
time
##ctoria
##kanisa
patri
##cations
##simulia
fainali
meditera
wagiriki
##cht
##huo
##mou
##tum
##'').
gor
lea
000)
frie
koro
sisi
##aminika
nyuklia
##kao
uo
##tara
##vuta
##yeyu
bon
vio
stan
libra
ngono
##-000000
##kiulaya
##zealand
wizara
vinaweza
##.),
##ches
god
iwe
##landi
##samba
solo
haija
maswa
njano
00000.
aliyem
kukosa
makali
(0000–0000
##acha
##book
##labu
udha
anapo
##kumbuka
border
katibu
mexiko
mkoani
kuanzishwa
##rami
##sson
##volu
dhu
##senal
walo
wewe
bongo
alirudi
associa
zealand
##love
##stre
##tatu
pho
mago
text
archi
senti
##mshindi
kaboni
ilipata
kimwili
waliweza
##fin
##xas
##chel
##rius
rap
##dhuria
brook
group
iliyopo
singida
##hifadhiwa
mbinguni
0:
##rner
##sela
##ship
##nisia
mene
tendo
mabingwa
michigan
##im
*0
##kasi
##ndia
ccm
dna
ipo
##dinali
carey
kitai
alifunga
konstantino
##mat
##rki
##ople
kri
uma
havi
kuua
tume
wetu
##kamata
##ration
kinya
hewani
inaitwa
kenyatta
##ikh
##ndra
##rgen
##hanne
good
##hesabu
##pendwa
##rajiwa
utoto
eritrea
kuhamia
ulianza
kurekodi
##").
##pto
##nuru
##dumia
##mbuli
mchana
##pendelea
namibia
senegal
imepakana
##bus
##uba
##lote
##uzwa
glu
sio
##chote
##mwili
##ngali
##stein
huji
viji
##gombea
hadhi
proje
lenyewe
hujulikana
##yal
##cola
##guru
##llen
##tive
abdu
kihi
falme
urais
wakaa
kusafiri
##hr
##mw
##rael
kig
mha
sur
##/0000
mark
zama
uwepo
kiafya
uvimbe
waroma
##cts
##ndy
##mavu
neu
swi
##kunde
waja
mkuru
neema
daniel
kupima
norwei
somalia
iliyotolewa
##kilinganishwa
ic
##cker
##well
uto
film
mati
safi
##hubiri
coast
##ctionary
##endeleza
mahindi
##formation
tamthilia
##ef
##poke
vvu
##donia
duni
tete
##tishwa
acade
aliona
haikuwa
kampeni
##gunduliwa
##din
##kka
##bika
gri
pie
##fafan
caro
ushu
laini
##nisipaa
kahawia
mbadala
alitumia
publishe
manisipaa
##bum
##dis
##por
##sin
##zza
##left
##ques
swe
##cture
##ndika
##uzulu
ilio
##sahara
##ungana
kibaki
kuamua
aliamua
petroli
volkeno
maonyesho
mmojawapo
##dom
##kie
##sca
##mari
##mawa
##moto
oda
volu
##ndukia
daudi
##tumiaji
awards
kiwanda
kupumua
chochote
kandanda
kujifunza
aleksandria
##sser
##publi
##shire
##tende
opera
tajiri
mwandiko
williams
##cio
##dam
##ena
##gos
##boli
##gene
aba
mit
swa
##chele
panya
wangu
jinsia
maduka
masoko
america
mikutano
alexander
walitumia
##%).
##unt
##very
##ziwa
##tetea
kiju
lisi
sada
mvuke
mifupa
arsenal
western
marafiki
##tsi
-)
gö
##pean
awe
mku
moi
dada
waha
##mfanya
usafi
##mbukiza
##pelelezi
studies
huonekana
ufafanuzi
kupindukia
##ln
##ngla
##toaji
00.00
ganda
texas
weusi
ambamo
kukuza
##tembelea
takribani
kutekeleza
mediteranea
his
rho
otto
tawa
will
child
##maskini
ghafla
huohuo
salama
##ghanistan
##thibitishwa
makumbusho
##ela
##hus
##kur
##mvu
ani
dutu
robo
wito
intro
museum
develop
mfereji
0,000,000.
kuchunguza
mkurugenzi
##gne
##roa
##erre
##teka
##zari
lin
map
rea
##monia
##thirika
kureje
mifugo
tabaka
##nglikana
alisoma
kilometa
##mme
##thy
##lala
karl
christ
ufunuo
jaribio
umaskini
victoria
mwanakemia
##ffe
##uka
##elfu
big
fra
kifaa
tumba
##stahili
huishi
nyanda
maafisa
##tambulika
##ez
##vii
##tuko
##tura
pop
##laika
##mbano
magi
##fungua
jarida
kurasa
vyanzo
##milikiwa
mitindo
kupoteza
institute
kuzunguka
wapinzani
##-00.
##soft
bal
##bwana
cent
hoja
kihu
##enendo
##ingiza
miungu
ruvuma
##zingatia
wahusika
##wanamuziki
kimatibabu
##ken
##uts
##asia
##ngre
##site
##vazi
asu
dona
karo
wapo
##lation
amino
bamba
kambi
virgi
google
israel
sheikh
vikubwa
linaweza
##mto
##kizo
##sara
##west
dou
wae
##mbozi
##thers
kolo
mimi
##diliano
0,000.
luther
njombe
prince
##mshirikisha
##cat
##lum
##mis
##shua
0-0.
alba
cell
jene
kaso
unga
makaa
##zimisha
kichin
medali
amekuwa
manabii
wahamiaji
mkusanyiko
usambazaji
##%),
##dox
##jan
kip
was
mwenza
##tarajiwa
bilioni
mgombea
kukamili
afghanistan
inayojulikana
##tland
vene
waya
eliza
kimala
kiumbe
kuhama
utalii
vibaya
lingine
uvamizi
0%
##dari
##hawa
##long
##ssan
##blast
##mizwa
##sanya
##vunja
chao
##fanyiwa
##rudisha
johanne
kutunza
ubaguzi
anatokea
majadiliano
(0000-0000),
py
bio
##ktaba
##tural
club
togo
kinye
ortho
##hamisha
lolote
##jumlisha
british
kiowevu
knowles
kulinda
tumaini
utengene
kuzalisha
##vs
##ars
##ddha
##mbwe
##nica
cli
ice
sar
tay
ande
bush
00.0%
first
*0000:
domini
kahawa
kuwapa
vikali
wanapo
kutunga
ushirika
hutegemea
iliendelea
tamthiliya
development
mwanafalsafa
##uta
##nese
uji
##ridhi
meta
mabao
nadra
vocal
furaha
oblast
kuendesha
dictionary
{
##="0"
##desh
##hazi
##undi
##wila
dan
mah
##parte
hamu
kige
pala
peru
upili
kiungo
kukata
litera
zikiwa
aliwahi
kitengo
demokrasia
kufundisha
association
haijulikani
kushirikiana
##ón
##kle
##lyn
##dney
##lson
##ramu
##rest
blue
ford
part
union
##familia
julius
mazuri
kipekee
tambara
benedikto
##té
fc
ur
##vuka
bay
ibn
##imbwa
##twara
huli
unyo
##yanmar
(00.0
punda
upanuzi
msaidizi
wahispania
##of
##glo
#00
bis
fur
sty
uke
##kteta
##rough
abra
kana
liko
mitano
shingo
manufaa
hungaria
sambamba
madagaska
alishiriki
iliyofuata
zilizokuwa
##ath
##mtu
##here
##msha
##kweta
##njika
##rence
gotho
milia
babeli
basili
moroko
##ory
##rad
ue
##ripo
##teni
sam
##ndary
##risho
dume
feli
##tengwa
##tswana
uwiano
##silimali
##tazamiwa
kusamba
palestina
kifilipino
##ou
##bian
##taki
...
han
win
##dhihi
##ental
##uliza
fani
maho
benin
manga
manne
nyuzi
young
maelfu
yakobo
science
urekebi
##waigizaji
kiitalia
utengenezaji
kra
thu
##fanyia
##strono
ataka
pemba
unapo
azimio
farasi
pasaka
dhuluma
jamaika
khalifa
maswali
gothoburg
wafaransa
kuhakikisha
##',
##xe
##kins
##tero
may
hero
njaa
delta
dubai
mpiga
albert
makadi
kununua
maktaba
profesa
mchoraji
0-0000-0000-0
bwe
gio
gla
jac
old
##tunza
vyao
justi
shimo
##logical
##ngamano
commer
hotuba
mfanya
ufundi
ukanda
kimbari
library
ukurasa
utajiri
##ambukizwa
##blo
##ugh
##buhi
ado
kle
nda
##fedha
limi
meni
nile
radi
ajira
mwake
niger
servi
##kelezwa
mababu
ustawi
##athiriwa
##ruhusiwa
kukimbia
##bea
##bis
##cum
##gopa
##ides
##loso
##mume
##posi
##rant
##resa
##tury
dua
##crati
0.0%
nili
kipya
missi
shaka
##mentary
pasipo
sanifu
antibio
maungano
kingamwili
rasilimali
##mfu
##ore
nk
##mira
##twaa
alf
kib
kre
max
hima
##billed
kuima
ngano
night
hazina
tafiti
utumbo
##kelezaji
aliishi
myanmar
kichadiki
kukusanya
tambarare
##ii
##wk
°
†
##bou
##john
##wadi
colu
uasi
kiada
moder
kunywa
##tanzania
matanga
taaluma
uhakika
michache
##/0
##aga
##nas
##nald
##rtha
##vian
ugo
##nduki
bodi
divi
##gemezi
eagle
sadaka
asubuhi
kutetea
sekunde
hisabati
kutungwa
mtanzania
##fuu
##ith
##mie
##kila
##stle
##ying
gho
key
##ngeli
aliu
kuni
made
mano
pali
yaka
##elezwa
##ongeza
ziara
ikweta
mtwara
nafaka
armenia
wamebaki
##kt
„
##org
##pta
##kaya
##rice
##vard
bob
fox
kih
ula
over
kimalay
hatarini
waliendelea
##atu
##pur
##hata
##zika
sal
tou
use
##nguin
lita
gabon
##fuatazo
engine
kubeba
##endeshwa
journal
mkristo
kutangaza
ikilinganishwa
##dt
##nyota
##jeruhi
##zamaji
chile
lishe
##heshimu
bahati
kuvuta
mahara
malipo
##ripotiwa
kunaweza
viwandani
lilianzishwa
##kro
##non
##gion
##zushi
soka
##himili
marga
kuzidi
waliji
malaika
kupambana
##op
##ça
##dad
##mero
##more
##muru
##some
##tafu
##tran
mpu
mvi
##lling
##tunga
paka
rose
somo
tago
your
##injili
atomu
origi
ulipo
utume
##kampuni
huruma
mwanza
wilson
country
kiaryan
elektroni
matangazo
publications
##mah
##usa
##vis
##enna
##nici
who
sain
##cratic
uzima
viatu
vyema
andrew
huanza
marefu
middle
people
bunduki
iliyoko
hawakuwa
##hur
##ram
##lton
##sian
##ties
jay
mio
##mpuli
##tosha
##zuizi
##russia
hiari
madoa
ukali
congre
wenzao
mawimbi
mistari
jumapili
walowezi
alimfuata
microsoft
secondary
zifuatazo
antibiotiki
utekelezaji
##kso
##tos
##wis
##cago
##pper
##ruba
cur
ray
##cepha
##geuka
huya
kosa
mora
song
##bahari
media
swala
##african
##fuatayo
##ography
##shikama
kirefu
kipande
msichana
kuangalia
mkatoliki
##gs
##cla
##kor
##ror
##rre
##vol
##cked
##livu
##rich
##rike
##rosa
ken
kwi
tom
uda
##menyu
jiti
mina
##himiza
##lgaria
tundu
jahazi
vimelea
##alizaliwa
marehemu
kipengele
languages
##oli
##soa
##stu
##gusa
##pota
##zoea
une
vie
##nding
band
##headed
kuche
hekima
kutaka
kingine
waliona
wafiadini
wasichana
##enu
##fra
##twe
##-00;
##lity
##rina
eli
##ishia
##stone
##search
##tembea
##untain
peace
simon
ugumu
ukawa
##simamia
kibali
kuuawa
vikosi
##rodheshwa
alifariki
makadirio
$
##/00
##mos
ap
dé
od
##borg
##kiri
##wawa
##wing
dre
sau
samu
##furahi
ikulu
walim
jeraha
##volution
kuwekwa
##oa
##cci
##ked
##zoe
##budu
##cula
##fiwa
##ghts
##mama
##sani
lar
##haria
##miati
##rical
kiche
tamaa
kulala
wateja
##southern
ardhini
penguin
##waandishi
jitihada
uliokuwa
walipata
wamekuwa
akaendelea
saikolojia
##ai
##ep
gal
mat
##linda
##kanaji
##minifu
##tokeza
kilwa
kuepu
kumpa
sakra
wakfu
marais
mavazi
##shawishi
mikataba
westlife
wanatokea
«
##bury
##ngga
##yota
##geuza
##rongo
babu
bibi
mini
##mbilia
ahadi
chris
earth
mboga
nembo
uvuvi
##funikwa
golden
miamba
burkina
kupinga
##funguliwa
kufanywa
majukumu
mwanamume
##ab
##cky
##dal
##dre
##llin
##shwe
cal
##katwa
tuki
uche
zima
akaji
great
##milioni
##pishaji
##tumikia
ikiwemo
manyara
mchango
mhusika
mkononi
sampuli
##stronomia
##kon
dj
##pher
gro
jibu
this
asizi
grand
##kabidhi
gereza
algeria
kitendo
website
kuathiri
northern
kardinali
kuhifadhi
##ah
🔗
##all
##khi
##sam
##vai
dc
##feta
cou
mlo
##mburg
##nisha
##skoti
figo
inde
mguu
biblio
founda
wakawa
kusikia
visivyo
wanadamu
kuchaguliwa
wawakilishi
##flo
##gas
##hop
##tel
##fara
##rura
bou
not
ubu
##light
fami
hofu
lati
live
post
rapa
said
sing
aitwa
early
hauku
madhu
study
hupata
magumu
torati
##fadhaiko
frederi
limited
mlipuko
kisukari
vilikuwa
kuhusiana
urekebisho
##ue
##yd
##dar
##ime
##mur
##sal
mm
jan
girl
kiza
nani
schu
##wasili
geita
kamwe
miili
series
##haribiwa
maabara
mpakani
uhandisi
kutofauti
mchungaji
nyembamba
kitamaduni
sakramenti
kuambukizwa
konstantinopoli
##ud
##cco
##nci
##sma
cm
##achi
##phen
##scow
##tezi
##banco
maxi
again
wanam
##fsiriwa
hitler
queens
yosefu
academy
aliuawa
mamalia
mitambo
usaidizi
uchambuzi
kuimarisha
0-00-000000
##gea
##gno
##gro
##jeo
bw
##maha
jor
lei
msh
##vement
##angalia
hasara
kuruka
likiwa
utoaji
##hamishwa
##harakati
ilihesabiwa
zinapatikana
##mpo
##rat
##lawe
##sawa
dor
sand
toba
wami
##tazamwa
kusisi
majini
nywila
##rekodiwa
college
kuandaa
kuundwa
tumbaku
mikononi
mwenzake
linatokana
waprotestanti
##if
##chy
##var
##back
##ccle
##hard
##ndio
##neti
##part
edu
joe
##colla
##mwana
shina
steve
kaburi
mizizi
utenda
##gawanywa
inaanza
kisanii
maamuzi
wamonaki
waturuki
hutofautiana
##fai
##tam
##wen
##ream
##rifu
##work
cer
cre
fal
hou
##njano
##tamka
hans
kigi
vinc
wasu
mgawa
swali
upati
utata
bangla
france
grammy
kubuni
malezi
shakur
taylor
alitaka
kueleza
theluji
##mfadhaiko
kuhubiri
kutazama
makoloni
tawahudi
##ced
##her
##pot
##say
##vel
##wal
##ywe
''"
cru
##gambo
bure
chap
##ground
kenne
ulevi
maadui
johnson
kuchagua
kuwasaidia
##bbe
##bya
##ddy
ei
##lism
##town
fri
##thini
kino
waza
kudai
wayne
##elekeza
atomia
karama
kidole
uenezi
ulioko
misaada
tamasha
kugundua
hujumuisha
mwanahistoria
##ος
##”,
##dwi
##jor
##kno
##msi
##adhi
##llis
##mito
hel
##kanda
##mesha
##picha
auto
bron
game
iraq
kete
koti
##afrika
##ctions
##dokeza
##kiliza
akina
jamaa
japan
villa
##siliana
kitawa
kujali
wanaji
manyasi
mlimani
msikiti
sindano
wabunge
000–000.
alitangaza
kumaanisha
mwanariadha
##cas
##dua
##dus
##rer
##fupi
##kuti
##shop
cle
pon
##hemia
##ngazi
hatu
kiho
madi
##halifu
kunyo
niaba
stree
terri
lisilo
mexico
christo
kikemia
manyoya
##partement
kinaweza
mapambano
kikomunisti
wanasayansi
##hip
##sex
##una
sp
##cape
##ffer
##lles
##bakia
##thony
##tikio
gala
##lawesi
hawezi
moscow
semina
ukumbi
communi
kifedha
uyahudi
vidonda
vitendo
##wakilisha
mafuriko
aliongoza
kudumisha
kurudisha
mjerumani
viumbehai
##lali
##llan
lau
rhi
sla
##baada
##kinga
##lanta
##ngoni
##nting
ulia
##dubini
##endele
windo
##ndamizi
abiria
kireno
kulipa
makini
modern
##mashauri
chicago
ufukara
orthodox
uandishi
imetoweka
lililokuwa
mwongozaji
zinazoendelea
##dii
##ful
##gbo
##vor
##ball
##lena
##stic
fly
mui
plo
##fanye
##mouth
digi
giza
kusu
yata
##rakano
##shauri
##ubangi
kelly
msitu
syste
##fukuzwa
classi
walter
kutembea
iliyoitwa
maandamano
alitangazwa
kijiografia
upatikanaji
introduction
##amo
##bad
##dou
##lid
##lim
##buru
##cted
##lied
##pori
##shio
##side
##stry
##tima
sub
yor
##tumwa
horn
tech
kiuta
nzito
right
style
tembo
ubuni
vicha
##hudumia
##njitisi
##pendeza
century
ushauri
congress
kujaribu
kurekebi
mitandao
kiadamawa
kielelezo
aliteuliwa
inayopatikana
##ale
##cil
oa
##lova
pun
sil
tor
wan
##lands
buko
jela
stri
##kaliwa
afisa
artic
henri
mnuru
sikio
uzani
##sukumwa
edited
vocals
volume
marekebi
mtumishi
producer
research
foundation
amechaguliwa
##mt
##bor
##pie
##sty
##nail
##teua
dhi
mii
odi
wri
##shiwa
##vutia
faso
##grafia
vibao
##ngazaji
##orienta
alicho
hassan
##kamilika
##staarabu
wajumbe
huyataga
mashabiki
0000-0000.
0000000000
translation
##'.
##nh
##und
##-00)
##nati
##para
ija
##ksiko
##mbele
sere
##fahamu
##ngolia
##wakati
hidro
maiti
tupac
uthai
center
living
meneja
waliwa
wasomi
akaanza
florida
itakuwa
ubatizo
wahindi
watalii
waumini
kuruhusu
language
manowari
vatikano
marekebisho
##rr
##abu
##ffa
##nei
##sau
##cing
##grey
##mine
##ndau
cae
##gizwa
boma
meso
##sehemu
ndilo
super
ileile
mabara
inahusu
liberia
shuleni
##fanyikazi
wachanga
elizabeth
##om
##kum
##map
##sul
##tle
jr
##meli
##mong
##nani
##roka
uzi
##penyo
##rangi
kine
kozi
mang
mike
mono
##chembe
##staafu
jioni
kuchi
lewis
nguzo
story
there
uongo
##ingizwa
##ngulizi
##zungukwa
(000-000
botswana
ukombozi
kujipatia
limetokana
halmashauri
kisaikolojia
##and
##gir
##ved
##dhoo
##lona
##mato
eng
##hamed
##hindu
jaco
luka
mema
refu
wase
##nganya
##nyesha
balti
roman
saints
wapiga
##chapisha
manjano
prussia
waliuawa
kuchangia
mwingereza
utendakazi
dawamfadhaiko
##";
##.).
##bet
##fal
##yeo
##zon
##chuo
##dang
##erra
##gili
##saji
##tano
##tele
##tifi
les
pua
##ctive
##koste
##pumzi
baby
rain
wawe
##inisha
##kijani
fumbo
leone
matha
##saidiwa
donald
vipaji
aitwaye
kuvunja
000-000.
angahewa
ilishinda
huhesabiwa
mnururisho
inasemekana
kisababishi
##sk
##mit
(+
mr
nj
##keli
##lasi
##mary
##noni
##sing
kho
##gelea
##liaji
##nduku
##uzito
edit
jiwe
kate
album
econo
mageu
metho
nafuu
tunda
##eleweka
##ngeweza
chanya
(0000):
anthony
kimungu
warbler
alitunga
##lazimishwa
francisco
kikatoliki
##sc
##ür
##key
##sir
##zhu
##coln
dai
leu
oba
##beshi
##ndela
clai
rufi
simi
provi
##fuatiwa
babake
haziku
street
uskoti
kinyesi
kueneza
##anzilishi
biolojia
maumbile
theluthi
bangladesh
##ex
##hra
##low
##jali
##kuna
##mosi
##njwa
bbc
gui
top
##dhiri
##ishwa
husu
inte
paro
spri
tani
aliko
chaji
duara
ekari
leona
salva
stars
viini
##dhaniwa
hukumu
kikapu
mizigo
sarafu
##hudhuria
alikufa
patrick
umekuwa
##thumbnail
wafungwa
meninjitisi
##mf
##cou
##iki
##kal
##tem
io
##chri
##fini
##koni
dio
wag
##karne
bona
cole
illi
iran
kich
kivi
kiwe
mira
more
pepe
tana
uzoe
yapo
ladha
other
darasa
kubaki
000–000
philoso
ubunifu
ufahamu
madaktari
département
##lvi
##tie
##kiza
##okoa
##rity
##rung
##somu
##ssen
##tail
app
aro
docu
soul
##yellow
akiba
enter
ndoto
wanya
dhaifu
mweupe
nyanja
standa
##asiatiki
itikadi
ufugaji
upigaji
kiaustro
kuharibu
kuifanya
kutokuwa
alichukua
inayoweza
ustaarabu
##mio
##ola
##pin
##sum
##vil
##kezi
##lano
##mbui
##nika
##tika
fin
##asili
anna
hong
miche
ngome
roger
shamu
thela
wanne
arthur
vyumba
##zungumzo
iliweza
michoro
milango
ulemavu
##billboard
majirani
mwenendo
alijaribu
alikubali
watumishi
kiutamaduni
mashambulizi
##gli
ub
##moyo
##ndhi
##nged
##letwa
##ringo
##stino
(0.0
down
fron
kong
kumw
nico
uefa
##dilifu
##rabuni
anaji
scott
vanua
(0000,
kufiki
##american
mmonaki
kijapani
wakoloni
hupunguza
mwanadamu
kubadilika
kutofautisha
sm
##gula
##kayo
##ndoa
coo
now
nta
pat
laos
regi
tata
antio
mikuu
ulivyo
maagizo
husaidia
inaendelea
thelathini
yaliyokuwa
##-000-00000-0
##vy
##ata
##bei
##rau
##tii
##vey
om
##nden
##nyoo
its
##ptera
##rejea
code
gali
kani
kiwo
nina
unye
##choche
##tation
spiri
philip
theodo
yakiwa
zawadi
##chungaji
kuigiza
nimonia
utotoni
yordani
##fundishwa
kukutana
ujauzito
utakatifu
utegemezi
unaonyesha
##qa
##ão
##cca
##gni
##hya
##moa
##nae
##rel
##ric
##llas
##nner
##onya
##sasa
##unti
kor
tur
##0000)
##logia
adui
kiye
pres
ross
waga
waji
##shikwa
royal
##cclesia
beseni
canada
kuomba
##fetamini
##fuatavyo
akarudi
bustani
kutembe
project
##tekelezwa
kuanguka
kufanana
##shughulisha
mmisionari
information
##’’
•
##eds
##nar
##ssy
##tru
##xii
##mera
##mshi
##phia
ath
bas
mle
##brown
##dhini
##kwazo
##ngoji
##night
##stris
##tical
akim
fuvu
hafi
##zhuang
guide
women
##mitindo
baraka
hawaja
kuvuka
uzoefu
vidole
vitatu
##andaliwa
##jeruhiwa
##zalishwa
engineer
huongeza
kujengwa
kuungana
##nut
##yya
##ania
##kevu
##nois
##sadi
bor
plu
yai
##house
##thing
##winda
anne
hall
home
khan
mase
tour
##romoko
digri
kimbu
kutia
aktiki
alidai
vienna
waraka
aliitwa
bizanti
eastern
haiwezi
meksiko
kuelezea
kupeleka
msamiati
##shambuliwa
kiholanzi
mmarekani
walifanya
##thropolojia
ilionekana
kukabiliana
visababishi
##ned
##ree
##ckoo
##jene
##mata
##rang
##siri
##vera
clo
our
##ledge
##mbezi
##somea
##tensi
00).
mont
vito
yuda
##jiriwa
##zation
kujia
natal
nyasi
robin
testa
uhaba
water
##chungwa
nyongo
uleule
##kumbukwa
00,000,
airways
burudani
hutolewa
imekwisha
background
##"),
##apo
##kyo
::
ou
##bata
##fuka
##helm
##idae
##rome
sin
uru
##baila
##bisha
##rison
##sisha
##zuela
camp
kung
main
nazo
zita
##sambaa
##single
alimu
bible
chifu
gimba
kimaa
under
wales
##germani
family
halali
review
kaizari
kiajemi
pembeni
vincent
kufungwa
mwongozo
inatumika
wanatumia
wafransisko
ç
##dit
##rax
##ufa
qa
##kizi
##kuyu
##muri
##rneo
##rugu
ami
men
net
twi
##dings
##venti
duka
kiyo
poly
##dhaiko
##hakiki
##ririko
mkate
##ngamizi
geneva
german
mariah
mpunga
organi
serbia
antonio
kitenzi
kukataa
makambi
matoleo
program
mwishowe
##tambulisha
kujitolea
ushindani
waswahili
walianzisha
chembechembe
##cul
##jam
##pik
==
##ropa
##soni
##sten
##voni
mwo
res
rou
##dding
##thera
chui
inaa
vari
wafi
zipo
##fakari
anato
dansi
dhati
mbuzi
monte
##potamia
kidari
kusali
lincoln
ujapani
##zungumzia
aliingia
margaret
wengineo
mazungumzo
(0000–0000)
ilisababisha
##lya
##mdo
##off
(=
##bisi
##chus
##indi
##seli
##sifu
##thus
##tube
bee
gia
##green
##lendo
##ploma
##ssian
##takri
##union
##minika
##nyenye
##vamiwa
(0:00
dengi
shrew
anavyo
kondoo
kuteka
unavyo
watano
kupigwa
mohamed
udhaifu
alifaulu
alikataa
ekaristi
kituruki
official
kupelekea
washiriki
zinazoweza
mwanasheria
bibliography
kiorthodoksi
kulinganisha
##sé
##bit
##ota
##uer
##zwe
##fort
##mega
##nema
bir
img
##nders
##shuhu
##vanni
baga
hupa
mwao
vika
wolf
##tunzwa
janet
power
##llywood
gambia
kasoro
ndivyo
peters
##kubalika
kuvutia
wanavyo
kubadili
majimaji
##tofautisha
historical
kuambukiza
kuharibika
publishers
wafanyikazi
##pf
##von
##ceae
##lami
##onal
##ssie
kha
mse
##amotu
##dhili
''00
show
some
zana
##mulizi
##ripoti
##rushwa
bidii
bruce
inclu
##aminiwa
digrii
howard
madara
maudhu
orange
teresa
##pitishwa
amepata
barbara
hufuata
vanuatu
iliundwa
kuingiza
mtendaji
uarabuni
waliishi
huonyesha
collection
ilivyokuwa
wamarekani
##ux
##amu
##dea
##fic
##luo
##yes
ky
##dema
##ladi
##lori
##moro
##papa
##snia
##sulu
##tiri
##urce
bel
cir
##iliyo
##mwagi
##shasa
assi
duck
##kezaji
##liniki
##miniwa
##romoka
death
rhode
utatu
##zingira
little
steven
kiakili
mwambao
hawawezi
movement
kusimamia
mfadhaiko
kundinyota
##án
##ía
##gat
##gun
##isa
##ous
##sci
##ère
ag
kö
##lder
eva
far
sai
see
ska
##chora
fifa
fujo
indu
sele
tony
viru
xiii
##banque
##buniwa
##jibika
mende
naibu
##reasted
odinga
anasema
upimaji
##chunguzwa
arobaini
machache
migogoro
washindi
##wanariadha
ilitoweka
territory
wanasiasa
kuondolewa
walijaribu
kushambulia
waanzilishi
husababishwa
##vd
##fon
##lda
(*
##gasy
##ruga
cap
mga
##misho
##ninga
alze
fara
hiro
japo
maki
plan
seti
sina
site
ukra
upeo
##ambayo
##common
##lvania
beach
corps
libya
ndizi
nyuki
##lovakia
fahamu
zipata
##ondolewa
##tekeleza
##teolojia
culture
kondomu
kupotea
masista
maudhui
stephen
ecclesia
nyongeza
biography
madarakani
nusufamilia
##hl
%
##get
##goo
##lah
ob
##bidi
##mcha
##miji
##rofa
##wapa
(0)
sca
##kulia
##nusha
jane
viki
##ndhari
nguru
stock
mother
mumewe
tawala
utando
central
huongea
kacheza
maswala
illinois
mwenyeji
walifika
frederick
mamilioni
anaheshimiwa
##ant
##bas
##cin
##fly
##uwa
##geon
##jabu
##peri
##sama
##spaa
##star
##stor
##waka
age
boo
hor
paa
sma
##scope
0.0.
brea
eire
kian
land
lord
mbao
niki
unya
##maeneo
##menian
##thiopi
deuts
hedhi
maili
uanga
ugawa
walia
wamea
##menyuko
000000
midogo
uchafu
wasifu
##breasted
##malizika
##nunuliwa
dharura
kutayari
democratic
linafanana
maandalizi
christopher
##ala
##ped
##rek
##zar
##blue
##inti
##ndoo
00°
hud
ten
##-00-0
##ficha
##mpton
##ngura
##rates
ucho
viii
##funika
##ndauso
:0000
##hisisha
himaya
alzeima
vikwazo
##shikamana
hutokana
jangwani
kusimama
standard
0000-0000,
kujulikana
ulifanyika
##0,
##io
##wy
##mil
##sel
##xis
##jiza
##kosi
##sche
##tham
##tiba
##tual
##wazi
jen
##hodha
##kalia
##ndoka
##vutwa
cana
cool
mash
tupu
##rative
##swende
*****
aweze
hippo
lagos
##slavoni
cuckoo
katuni
mijini
simiyu
vilabu
##germanik
ushairi
ilitokea
jenerali
wakaanza
wavulana
highlight
yafuatayo
kurekebisha
hutengenezwa
##mé
##'':
##ffi
##nsy
##sei
##ping
##saha
##sius
gil
got
##aliye
##drich
##jiano
##nguzi
##toria
ende
fili
rome
wabo
wado
wema
00–00
congo
diego
gamba
saini
ukame
uraia
viazi
wapya
##western
distri
kukuba
letter
waliyo
##shuhudia
kisicho
nambari
pangani
vidonge
gerezani
hufanywa
##changanywe
##kiingereza
huchangia
ushawishi
kipandauso
kiserikali
kuchapishwa
kutambuliwa
mesopotamia
walishindwa
##lc
##hol
##kei
##law
##ray
id
##char
##euro
##lake
##mbra
##nice
##nywe
##pped
##rita
mel
##cient
##fundi
##maria
bata
jozi
like
mavu
peri
rama
ruhu
stor
##ngezea
##somaji
anawa
klara
mouse
nyati
pumzi
queen
trini
wanaa
##aturing
##catcher
##resheni
kuanga
shairi
sierra
##romosomu
england
kipenyo
manispaa
mountain
scotland
visiwani
walikufa
zipatazo
kufanyika
mashambulio
kuthibitisha
zinazofanana
iliyoanzishwa
##bb
##ün
##bes
##gur
##led
##neo
##baba
##crip
##test
##vent
##wiki
"''
abe
ang
bad
bai
ein
kis
xvi
##ngizi
##rious
akia
baru
clau
come
gard
huzu
last
lipo
siyo
tezi
##fishwa
(00%)
fueli
fursa
kocha
umati
inatoa
masafa
search
yoshua
##mbulisho
##shtakiwa
##takriban
hamsini
kutenda
mgogoro
mhariri
tropiki
##tafsiriwa
kaswende
mwenyezi
uenezaji
venezuela
watazamaji
##bat
##cau
##flu
##gge
##kau
##kos
##nks
##-0).
##chie
##fron
##gold
##jivu
##stin
fon
##berto
##jumaa
##mungu
##saint
##sheli
##world
chai
letu
memo
nazi
tuli
##fukuza
##kisiwa
jicho
mzigo
uliyo
##sanyika
bukoba
nelson
nomino
states
sydney
vurugu
##imarisha
article
kupanua
africana
intaneti
zilizopo
##orodheshwa
kutembelea
zilizoendelea
##ap
##jui
##oza
##tex
##uma
##ated
##meko
##rado
##rimu
eve
ram
##mpson
endo
kizi
vena
##frenia
##nyumba
mpito
ndizo
nyasa
uzuri
vikto
##bellied
haramu
hayaku
nature
social
uteuzi
misheni
akifanya
columbia
lilianza
matajiri
uigizaji
waimbaji
walipewa
zilianza
##kizofrenia
##shughulika
aliyeitwa
mtiririko
astronomia
uliofanywa
(0000-0000).
##ama
##gho
##kol
kh
{|
##bili
##gere
##kitu
##koma
##less
##mori
##nami
##sona
##tino
##vidi
bab
has
hui
sir
##ngiwa
##nguru
##pande
##tatis
##tenda
##tinum
kaya
kore
##london
##spishi
antak
mpana
##bianchi
##puchini
0:00).
depart
kutuma
mpenzi
njiani
unesco
##fikiriwa
##shindana
##tinental
anaitwa
corpora
harvard
intanet
maigizo
milenia
service
utukufu
##jumuishwa
internet
kikabila
kromosomu
michakato
testament
queensland
##guo
##kyu
##lag
##rem
##sil
##blin
##mada
##maho
##mont
##reli
##sala
##wish
nzi
##ibuka
##media
##ngili
##pimwa
##ronto
##stine
holy
kabo
taka
uchi
vema
##kusudi
##lakini
##yeyuka
conne
hatia
jukwa
mkewe
stone
##fafanua
##mwambia
alfred
maumbo
mwanae
nyanza
paradi
majeshi
marejeo
hornbill
kuhitimu
upangaji
##changanywa
uliofuata
kushindana
kuzungumza
inajumuisha
alivyochorwa
##ket
##nel
##rui
##chae
##home
##jadi
##live
##mbus
##thon
klo
mla
odm
##press
##south
##stiki
adam
guru
mahe
mkwa
alpha
greek
ludwi
still
carlos
claire
kibayo
sumaku
tazama
waliom
wapare
00-0000
nahodha
republi
ugawaji
kutimiza
mmenyuko
waliamua
watafiti
alikwenda
sentimita
walutheri
alionekana
hospitalini
inayotumika
##are
##asi
##ere
##gel
##kla
##lma
##sie
ir
##dura
##faka
##fali
##huku
##lung
##maga
##tabi
##teau
amb
rei
##daiwa
##inayo
##kando
acta
geno
lady
nyaya
singa
ufini
balozi
kuuzwa
lindwa
maombi
penici
vitani
##simamiwa
kizungu
masikio
wilhelm
written
##nsylvania
##nyenyekevu
walihamia
commercial
yanayohusiana
##df
##kr
##gma
##nic
##rgy
##zan
##kota
##kusu
##maua
##pika
##pini
##riri
##time
##zewa
##zote
aya
fle
##cheke
erne
face
kris
rena
stre
##mental
##rosisi
##teborg
criti
gabri
jesus
kitaa
mtemi
pamba
sulei
yemen
##fikisha
nakuru
nation
osmani
##sambazwa
kustawi
solomon
stanley
thabiti
##liandikwa
##wanasiasa
bagamoyo
kuwasili
mandhari
uliendelea
##eus
##hua
##mys
##sas
##wao
##bell
##bera
##fore
##kozi
##pend
##thia
adi
sim
##-000.
##ndina
##ngumi
##tting
00.)
impe
##fuatia
##ngazwa
##pigana
##rmenia
abati
grego
mzazi
tradi
chaguo
kitivo
kampasi
siberia
singles
wamasai
kizhuang
matamshi
kusafisha
mahojiano
isichanganywe
mfanyabiashara
##bey
##ose
az
wy
##dong
##hogo
##math
##mboa
##ndri
##yiri
def
ian
say
sno
##banon
##burgh
##chemi
##jimbo
##ksidi
##songa
alan
kolu
mabe
##enyeji
##rested
adolf
allen
chiba
divai
marie
njema
seven
wanga
##therine
bishop
kikali
ruhusa
samuel
shambu
toyota
##biolojia
nadhiri
tunisia
giovanni
jumamosi
mitazamo
mpinzani
alikutana
tabianchi
inaaminika
masimulizi
wanafanana
##ec
##bie
##mau
##pel
##sii
##too
##uro
##anus
##kewa
##mang
##matu
##tete
##what
##wick
get
##sters
abda
have
real
##austra
istan
kigur
moham
vladi
aristo
gandhi
patria
##tainment
atakaye
iliitwa
##kubaliana
##tengenezo
anafanya
bulgaria
istanbul
simulizi
stesheni
waitalia
kupelekwa
matumaini
walipaswa
commentary
kufuatilia
skizofrenia
wakapuchini
ulisababisha
akishirikiana
##cur
##ece
##fur
##hir
##ute
##come
##furi
##kono
##pine
##pold
##shid
##tubi
hei
ker
row
##nguis
##patwa
##rioli
buni
dire
hawk
ilim
ombi
##stolic
abdul
bomba
guita
kauli
kidra
kisal
mkazo
mtama
nyani
pente
walla
works
anwani
boston
comple
upweke
wakaao
##fuatilia
##throated
kuvamia
youtube
göteborg
huathiri
kienyeji
kupigana
mtumiaji
uaminifu
utumiaji
wanasema
kidravidi
uchapishaji
##cos
##alth
##gang
##tena
##zuka
gon
##zinga
anto
inve
thai
tkuu
vipo
what
##mbarau
colla
davis
movie
nukta
nyoka
polio
sands
##pitisha
dennis
hafifu
ludwig
nikola
pigeon
digital
kampala
malindi
japokuwa
maishani
makaburu
sulawesi
vitamini
0:00-00).
kujiuzulu
kusambaza
translated
inakadiriwa
inamaanisha
00-0000-000-0
kushughulikia
0-000-00000-0.
##bib
##njo
kw
ll
##aeda
##lmer
##mmer
##tton
##yuni
##zine
eti
ope
##mwezi
##toshe
boli
fomu
grea
head
kire
lava
moza
mwai
vyeo
##undaji
commi
hotel
kiing
photo
pindi
##batizwa
##ference
hasira
jordan
ronald
sweden
ucheki
##kimbilia
kurudia
mashimo
nations
sungura
urafiki
uvutaji
0-000000
produced
uhamiaji
akajiunga
kitaalamu
kiutawala
alishindwa
kukamilisha
kuwasiliana
matengenezo
unajulikana
pennsylvania
##0)
##mr
##lao
##tya
ss
##holm
##jiwa
##mapa
##puri
##tors
##wang
ing
kaa
##buluu
##mbili
##tikia
hard
kash
port
##celona
##safara
##tibiwa
bonny
johan
pages
usoni
weupe
##gunduzi
capita
disney
ijumaa
likawa
matope
taiwan
ushuru
bungeni
kliniki
uhalifu
walinzi
klementi
kufungua
makaburi
nyangumi
original
uchoraji
wakiwemo
kupigania
uwekezaji
wanaamini
kufanikiwa
nyinginezo
kubadilishwa
##.”
##bwi
##put
##roo
##yoh
##east
##from
##kane
##pari
##puka
pic
rat
##chiro
##letea
##lungu
##maana
bomu
gram
ilia
road
##siness
dance
franz
fundi
huria
iliwa
kikwe
latin
mamia
ndovu
prote
##onekani
##tafsiri
bergen
ghasia
migodi
system
akaenda
mandela
tangazo
makubali
misafara
education
madhumuni
mpelelezi
huhusishwa
mwandamizi
philosophy
##==
##tr
##jin
##vid
##bana
##boro
##enzo
##gala
##isen
##lipa
##rena
##robo
##wers
ash
dra
nur
qui
##umoja
##urces
amin
dogg
lamu
mage
nova
pete
tree
year
##hudumu
##roatia
della
gusta
kimau
##vunjika
kugawa
mchele
second
##collapse
##kusanywa
akapata
bernard
kufafan
kuishia
mapende
pakubwa
windows
antiokia
britania
bunilizi
##saikolojia
ulitolewa
00:00-00).
kandokando
kuchukuliwa
makubaliano
johannesburg
tofautitofauti
##km
##cru
##fwa
##met
##see
ut
##bula
##cana
##inua
##reva
avi
pha
pol
uza
##ensia
daru
geni
jomo
jona
lead
mafi
omar
##fikiwa
##winged
human
kishu
mathe
mgeni
treni
uende
yalio
badili
centre
ilitoa
kilabu
atakuwa
kuepuka
mathayo
primary
wapenzi
farakano
kichwani
rhodesia
waigizaji
##continental
000-0-0000
kujumuisha
revolution
entertainment
##|0
##ins
##mei
##rhi
##wed
tr
##dent
##dium
##lies
##pala
kal
mus
oce
pur
tal
##smani
boys
fede
kupe
quin
sare
squa
waru
##vutiwa
banda
kaska
kipau
##padding
majibu
mapapa
unyevu
akisema
kutatua
magimba
mtihani
nyepesi
parokia
romania
shayiri
ufufuko
vitengo
##changanya
carolina
tathmini
hidrojeni
kampaundi
kuwezesha
anaonekana
changamoto
mwakilishi
cellpadding
kutengenezwa
linapatikana
##ır
##"''
##big
##hta
##msa
##roe
##uku
ay
##beck
##embe
##luku
##nobo
##rona
##ruka
##soli
##suka
##tica
##wski
*0.
bli
fru
mir
sky
##fuate
##listi
##slahi
##tress
beta
hisi
into
kioo
kuwe
meru
milo
palm
pori
seve
thea
##fikiri
akaja
hauja
kibwa
mnara
mwema
nicho
rhine
uropa
wange
years
europe
maguru
matiti
milano
ndicho
panama
sabini
songea
##boreshwa
##rudishwa
houston
kutisha
mabamba
nehemia
network
stefano
kumekuwa
kumfanya
mhandisi
wahudumu
amfetamini
kilichokuwa
universitatis
##jar
##tts
‘’
##maku
##rald
##siti
##teli
dho
für
six
two
udi
##gosla
##mbufu
##remia
##worth
desi
hori
name
wato
##mbodia
ateri
chart
elezo
makka
mgumu
tamko
their
##fadhali
##linesia
##tropiki
brooks
uzushi
##cephalus
##jitahidi
##kataliwa
##ongozaji
00:00).
nyaraka
##uingereza
00:00-00
children
johannes
usingizi
viktoria
waliingia
walijenga
walioishi
franciscan
kujitokeza
inayotumiwa
kiprotestanti
zinazohusiana
##ghi
##iwa
##kho
##kit
ré
##butu
##furt
##haba
##mona
##mund
##nold
##siku
##ssor
##tary
dei
joy
rio
wea
##larus
##lying
##meira
##rench
##stant
##tario
##tizwa
chel
fore
mabu
same
##change
##ramani
##tabiri
islam
jouni
kitha
kuiga
mamba
zinaa
##chochea
mavuno
misimu
yabisi
zinapo
##lazimika
##wezekani
aliacha
kupatwa
russian
basilika
mifereji
##orientalia
inatumiwa
unaendelea
alimtangaza
kubadilishana
##up
##iga
##leu
##rab
wu
##beri
##jing
##kisa
##sita
##sota
##tial
##viti
kau
mki
upu
##amuzi
##faidi
##mpire
##ngere
##ngeti
##nzaji
arti
clin
dave
lyon
naku
revi
rich
saka
unge
zetu
##fisher
##ksirei
##maisha
brian
costa
estro
girls
kufaa
light
##kadiria
bingwa
gordon
kifini
kiraia
kisima
league
miller
tarafa
##chukulia
maslahi
yalivyo
##klerosisi
huchukua
makusudi
mfaransa
amezaliwa
ifuatavyo
imetolewa
ilianzisha
maporomoko
corporation
kilianzishwa
inavyoonekana
gothoburgensia
gothoburgensis
##edi
##olo
##ugu
##xon
##zzo
kg
##baya
##colo
##enos
##hero
##isbn
##mans
##namu
##rett
##rizi
##tupa
##vers
##wart
end
how
kol
las
mur
ndu
##jukuu
##ngala
##tekwa
flag
hart
neli
ujio
wada
work
##meirah
daily
kusha
order
upofu
##nyororo
aliyoi
kuhara
marudi
sinema
##goslavia
anaishi
kulenga
kushuka
nguruwe
kiborneo
sentensi
virginia
##dhihirisha
barcelona
community
huendelea
ilichukua
kupitisha
department
aliyezaliwa
##bow
##its
##ppo
dy
##chal
##dish
##gina
##hozi
##kole
##maka
##mate
##nene
##xing
##yoko
##yoni
dru
fan
nae
rob
zoo
##anity
##choma
##elewe
##micro
##shuru
heli
hufu
line
pato
##milima
benja
broad
felix
jinai
kitor
pauli
utaka
wakam
walau
##ongezwa
##ridhika
00-00.
dublin
franco
mabomu
mshipa
popote
somali
valley
vizazi
##standing
chelsea
kuvimba
utabiri
utulivu
000.000.
abrahamu
inatokea
inatumia
vinywaji
alimaliza
inategemea
kibiolojia
kukubaliwa
kibayolojia
##rü
ş
##cel
##had
##kel
##rba
##vus
0–
##bour
##buka
##fous
##mene
##mson
##roko
##tage
##wich
hol
mme
mua
sie
tsa
##lingi
##radio
##sting
(00)
fiji
only
pumu
spar
wall
##ksonia
##lelewa
##liwahi
##nunuzi
##panuka
belie
jongo
kichu
kidha
lilio
wimbi
##chestra
august
karolo
kikiwa
report
silabi
aliweka
kisepik
kulipwa
kurejea
majumba
toronto
alipaswa
cultural
mohammed
vladimir
kilichopo
yalitokea
barabarani
ukomunisti
unyenyekevu
0-00-000000-0
zinazopatikana
##lé
##,00
##dah
##hou
##ong
##ryn
##vio
ep
ol
##anya
##basi
##city
##erto
##gers
##glas
##mboo
##nich
##pore
##vern
##zakh
0''
ere
##llins
##ltani
ibra
kiyi
kiyu
popu
sale
sino
wago
wamu
##mbuiza
##mchoro
after
cassi
fikra
front
isaac
kumua
laden
thoma
##history
##kolojia
##twaliwa
00–00.
busara
chungu
guitar
harufu
hawaii
huzuni
indian
kibete
kimari
lemuri
leseni
mamake
minyoo
upadri
##nganishi
iliwahi
sunbird
ulipata
waindio
zinavyo
armenian
kuachana
mashtaka
mviringo
platinum
wafugaji
friedrich
hollywood
published
alionyesha
kingfisher
kipaumbele
magurudumu
wanaotumia
yugoslavia
##=0
##ör
##gie
##woa
##won
##nuko
##pale
##pers
##rawa
##sumu
##tius
##tudo
##uaji
mre
rua
##pikwa
##tisti
albi
elia
matt
semi
wavi
##habari
##kataza
##poleon
##wakazi
autho
chief
kanga
mauti
raila
sinai
tokyo
##fikiria
##steroni
##troniki
kuhani
kuwait
porini
rutuba
dhahiri
gluteni
kaskazi
kikombe
kingono
kuchora
wamisri
000,000,
darubini
palikuwa
yalianza
kuashiria
waanglikana
zinaonyesha
##xy
##cep
##cte
##fyo
##ndt
##pea
##rya
##tty
nd
##gard
##lara
##lawa
##rene
##vale
##vina
00:
dun
mza
pas
##dhamu
##issan
##meski
##rajio
##stadt
##stian
##thout
##ungwa
##wanga
:000
chur
dama
kiaw
lege
lost
nime
rosa
##backed
actor
ghali
medie
michu
tokeo
vumbi
female
global
nathan
perami
public
upanga
vilima
warusi
eksirei
lebanon
maanani
marudio
wallace
abdallah
alieleza
mkusanyo
plastiki
ilijengwa
inahitaji
polinesia
inayoonyesha
##?"
##ig
##né
##ami
##klo
##kus
ia
##cles
##domo
##doni
##head
##hiyo
##mkia
##mora
##phus
##risi
##self
##thin
mmo
nge
##akiwa
##chell
##igiza
dopa
fire
gull
want
##lishwa
##mantan
##nukiwa
##potted
##tegeme
bwawa
mauri
mteja
obiti
walei
##fuatana
##spacing
ernest
kuhisi
pierre
ugomvi
##kusudiwa
alifika
alikuja
anataka
ancient
arrange
baltiki
general
ghorofa
itakayo
mapambo
uumbaji
(000,000
milimita
peramiho
steroidi
utumishi
kukomesha
machungwa
maelekezo
matarajio
kutafakari
matakatifu
penicillin
sklerosisi
vinginevyo
zinazotumika
##eb
##dja
##fle
##mel
##nak
##pit
##tik
##chte
##lang
##rili
##trel
##kiing
##kucha
##ladel
##mbers
##serva
##stnut
arts
chem
grey
laur
mwin
sher
##geuzwa
##merika
bweha
faith
heron
kingo
metro
njozi
punde
##jamhuri
##logramu
##sterdam
common
hazija
huleta
kikati
lilipo
marcus
##patikani
akaunti
mshtuko
usanisi
vizuizi
##jihusisha
huhitaji
kiinjili
kolombia
tunaweza
##wafransisko
kimalagasy
kusisitiza
cellspacing
##,0
##aka
##das
##gta
##hyn
##ung
av
ib
##aina
##baby
##elea
##laka
##leba
##mako
##mous
##nini
##onzi
##sses
##topi
##viii
##with
imo
ore
sri
##miaka
##phili
##shano
##tamba
deni
fisi
hemo
rela
reso
sili
week
##bariki
##boards
##chomwa
##mwisho
fumba
gogur
haswa
longi
sound
wakia
##0000000
(0:00)
kilima
perfor
unabii
univer
koreshi
mwanawe
nidhamu
ubingwa
viwanja
akitumia
european
mwangaza
napoleon
usultani
yaliyomo
kuhamisha
orchestra
kuchapisha
mashambani
mwanamitindo
##eri
##hii
##mli
##nch
##ppa
##ski
##who
aj
##bala
##cate
##coun
##dian
##mela
sol
##dhulu
##fuati
##mbinu
##mfano
##ngiki
##olewa
bran
elec
eric
four
fuko
gang
huja
icrc
kice
kuza
need
nene
##kitabu
##tovuti
##zerbai
flavi
kimya
kuchu
kushi
marko
mfuko
russe
utosi
##furahia
##nganifu
##tempora
bandia
kingwi
kisasi
kuokoa
kutawa
##-0000-0.
dameski
hamburg
linguis
##kabidhiwa
anderson
goguryeo
kijijini
kinshasa
krismasi
kuhesabu
politics
suleiman
zimekuwa
##-00000-000
##fafanuliwa
##mwagiliaji
##tengenezaji
msongamano
walichukua
wanyamapori
##international
iliyoandikwa
##;"
##dr
##dee
##epi
##nje
##zen
##buti
##crow
##drid
##free
##lisi
##manu
##mbai
##mimi
##reti
##rock
##zoro
ino
lan
mjo
mri
psy
ria
édi
##senti
##shiri
##zikwa
baha
juan
leba
most
ngao
seal
tari
##kabili
##kijivu
##muliwa
##rabati
##ssippi
##zamani
alilo
bantu
goose
lanka
leuco
milli
obama
piano
##rusalem
0,000,
junior
tisini
ujamaa
undani
##position
##rodhesha
aliyoya
council
kiwanja
kutambu
mabonde
ukraine
##dhihirika
##kiswahili
kuvunjika
linafuata
pembetatu
unategemea
literatures
mwanaharakati
##)|
##ak
##cb
##lı
##mm
##tv
##juu
##rma
##twi
##umu
##yak
##bayo
##demo
##nari
##pate
##when
ano
blu
fol
hum
oga
poe
tan
##canis
##flame
##gonga
##kadai
anda
bapa
cata
dami
haba
mwis
sero
ware
yupo
##benedi
##bergen
##liance
##shairi
allah
hills
secre
valen
woman
##monyoko
##rejelea
kipaji
kisumu
kukadi
ndanda
warren
aliunda
ilitoka
mshauri
runinga
special
benjamin
business
emirates
kiangazi
limekuwa
mwafrika
mwitikio
saksonia
uhabeshi
wameanza
aliondoka
mabaharia
wakitumia
00,000,000
iliyoundwa
patakatifu
television
unapatikana
##dos
##dur
##hel
##lal
##pei
##uki
##zed
ww
##gate
##gezo
##miri
##mkoa
##nago
##nzwa
##schi
##sula
##zuru
cnn
dur
fat
fro
ren
tsu
##itwao
##piter
##water
foot
hand
java
schi
thro
tren
wabi
wagu
wild
##subiri
ahmed
flava
kairo
saudi
utani
##crested
##endelee
##pigania
bridge
instru
kivita
mahari
qurani
uuzaji
wakili
walizo
iceland
kijumla
kizuizi
kupumzi
matakwa
mazishi
sanduku
starehe
stewart
uundaji
##endelezwa
##lazimisha
jonathan
marathon
mwanaume
southern
virutubi
0000/0000
christmas
hufanyika
kumsaidia
middlesex
ilitangaza
ilijulikana
##cut
##his
##hoa
##ika
##iva
##jah
##kid
##pet
##tsu
bh
##bomo
##gari
##kaza
##lley
##meri
##nded
##ngal
##nunu
##reau
##wasa
##yeye
das
ich
mpo
taj
##falme
##mulia
##qaeda
##shule
....
acce
agri
akaa
beau
days
haro
hits
jeff
kiva
mzio
nalo
stru
wawi
##graphi
##margin
##tamani
##tizaji
adams
disco
jimmy
kishi
kuwaa
##andikia
arabia
hodari
johann
kidato
komori
sharti
##chekundu
##european
##ndinavia
##ngelenge
buganda
dhoruba
jacques
kennedy
kupenda
mdomoni
myahudi
ontario
umonaki
usanifu
wachina
colorado
hadubini
kukaribi
kuogelea
salvador
uthibiti
walitaka
districts
kislavoni
kalimantan
kukamilika
yanayoweza
usafirishaji
##xo
##est
##kut
##mbs
##zbe
##feso
##mbwi
##pres
##ssex
##subi
##turn
##wati
##zimu
##zoni
egy
mtv
nep
wam
wei
##cific
##grass
##krani
##laiti
##mwitu
##pithe
##swira
##zesha
avia
boni
dove
fort
hugo
igna
inno
mayo
ring
ryan
sean
##golden
##miniko
break
haile
influ
kibai
mfupa
point
premi
raisi
swift
waasi
writi
##ichezea
##rongoro
hupewa
jewish
kufuzu
kutwaa
theory
##northern
##punguzwa
against
ilifika
interna
uimbaji
watutsi
fumbatio
kinataja
kuchimba
lawrence
location
magavana
milimani
udaktari
ugunduzi
zikiwemo
anglikana
msimamizi
muigizaji
walipokea
zinatokea
##shirikishwa
kuhudhuria
mwanajeshi
uprotestanti
##dg
##ço
##ка
##dzi
##gmy
##him
##how
##nos
##rak
##yid
##zwi
--
br
##burn
##ffin
##file
##masa
##muda
##onea
##scar
##tney
##trie
mid
wis
##mbani
##phone
##rumah
##soaji
##wimbo
gran
icon
mpwa
pake
uana
were
##yosisi
kamba
omani
tangi
##issance
contro
frança
inafaa
kufuta
kulima
kuliwa
kumwua
marsha
mjumbe
ngamia
norway
pijini
ualimu
wavuti
waweze
zabibu
##athirika
##dhimisho
##simuliwa
00.000.
express
iliamua
inasema
kuchoma
kutokwa
radidia
wakenya
##kamilisha
000-0000
0000-00,
campbell
hakuweza
kupanuka
maazimio
unaoitwa
wasomaji
zinaitwa
kufikiria
patriarki
##tayarishaji
mtangazaji
inayotokana
kuchanganya
mapendekezo
mississippi
μ
##clu
##hio
##kii
##ome
##rds
fm
##cipa
##feli
##jose
##levu
##tine
##tori
##tuna
aru
cat
fda
hat
mfi
off
tau
var
##bhara
##great
##kauka
##manne
##ndali
##ndoni
##reign
##tokaa
##tween
adri
beth
brad
buil
fair
late
miwa
mode
mshu
raha
vija
##sukumo
000.0
analy
index
jenni
kiara
kikao
moore
short
sumba
track
trade
##htasari
##tionale
##utledge
kivuli
riadha
rushwa
zaburi
clinton
inapata
kubaini
tumboni
##ladelphia
##zerbaijan
agostino
franklin
kiharusi
kingston
kutabiri
mgawanyo
mikakati
philippi
uvumbuzi
uwindaji
waosmani
yamekuwa
##tenganisha
kilogramu
mbatizaji
wanapaswa
contempora
kuhusishwa
uhamishoni
umwagiliaji
wakomunisti
anayejulikana
##cr
##mc
##cea
##doa
##dun
##nwa
##psy
##rta
##uld
##yed
#*
##chlo
##faki
##grea
##kivu
##lahi
##laki
##madi
##ngka
##phin
##ssee
##tare
##wiya
bul
mye
nbc
phy
##banwa
##pisho
##stini
##tulia
##video
bati
choo
futi
nasi
page
scha
view
##0000),
##ecesis
##jaliwa
##ramidi
aires
anayo
falls
kadri
kwaya
nisea
pango
pengi
three
wenzi
##ngezewa
##watunzi
0.000.
change
ilikua
jukwaa
kartha
kinywa
kiunzi
madume
mahaka
mapigo
mfuasi
munich
palmer
rashid
wanami
zozote
##sajiliwa
##tholojia
bolivia
gregory
motokaa
mvulana
usahihi
aliigiza
brothers
kirahisi
magazine
moravian
shilingi
udikteta
##wasilishwa
akiolojia
catherine
inafanana
kufukuzwa
kufungana
shambulio
walifaulu
flycatcher
hubadilika
mgawanyiko
uendeshaji
haiwezekani
iliongezeka
kurahisisha
mwingiliano
christianity
ilichukuliwa
zilizotolewa
##akimshirikisha
##ée
##00,
##:''
##bic
##dth
##ech
##eva
##fri
##hri
##kou
##rot
##vic
##homa
##iner
##lewe
##luwi
##ngwi
##teki
ann
pin
ras
rhy
sep
vul
##bebwa
##cilla
##faced
##karia
##kwepa
##loidi
##ndogo
##ongea
##panua
0-0,
asha
illu
jema
lako
lori
luis
sate
suez
##cidura
##ktadha
##pecker
andre
galle
hilde
money
rouge
sykes
wasia
##ndaliwa
##rostris
##ventura
alikaa
andrea
kondoa
master
rights
saudia
shujaa
##jadiliwa
##pokelewa
gabriel
leopold
liturgi
maurice
msamaha
nkrumah
uangavu
umiliki
waajemi
walitoa
##ujerumani
##wafiadini
kinywaji
konventi
medieval
##interscope
aligundua
inaruhusu
msalabani
serengeti
kigermanik
kimaumbile
kinatakiwa
mahakamani
walikutana
zilizofuata
organization
unaojulikana
##qi
##aba
##fah
##fli
##gor
##hud
##jue
##mta
##ntu
##roi
##sur
##anas
##anti
##chem
##huda
##nate
##rico
##rine
##shan
##sino
##thri
0).
00;
ade
boe
lil
mae
neo
own
son
##cilia
##gious
##jeupe
##mbazi
##state
cele
emma
ever
fina
full
hiti
kala
mine
pour
rico
walt
##terina
chote
dream
kuvaa
twiga
uliwa
bukini
darfur
french
hutoka
krioli
kumeza
office
uelewa
vigezo
virgin
wenger
##hungaria
##iangalia
##sikiliza
##ufaransa
kihmong
kitambo
mageuzi
mission
mitaani
protoni
waklara
wanaona
##crocidura
##meandikwa
(00.0%).
antijeni
badiliko
cambodia
dopamini
ilifanya
kuhitaji
mahubiri
province
religion
shukrani
##flamesheni
##shindikana
greenland
jerusalem
kupumzika
alikamatwa
zinazotumia
linamaanisha
##(0
##ato
##pol
##uru
##zig
aa
##jusi
##kiba
##kiko
##njia
##pasa
##pool
##rong
##stal
##tolo
##umba
##zana
00-
eco
eds
kat
tea
wel
zur
##eleji
##fford
##futwa
##komaa
##ngelo
##toshi
##track
##zione
00),
bima
jino
kele
maca
magu
wabe
##ambiwa
##ingawa
##manini
##panese
##patani
##sadiki
##tracks
asali
haiti
isimu
kinza
mango
mdudu
mikro
misha
solid
ugali
wakon
alisha
bennet
double
kikara
marley
moyoni
sitini
tishio
yaweza
##kilishwa
##ndikisha
##zakhstan
dikteta
fathers
huamini
kimande
miujiza
zilivyo
##fanikisha
iliingia
kusukuma
michuano
aliyewahi
augustino
huhusisha
iwezekana
kitaaluma
kuingilia
mabishano
inayofuata
(0000000000
ilitengenezwa
##kö
##coc
##lik
##llu
##lph
##nze
##tas
ms
##body
##cine
##colu
##gali
##kiki
##lari
##ndes
##paul
##stad
##theo
##this
##ught
##vier
##yama
##yang
cry
dvd
jon
nja
spo
xiv
##color
##gredi
##hrain
##husia
##llers
##longo
##marck
##pogon
##theid
cara
feri
josé
khar
meza
shay
timo
tufe
##fuliwa
##kishwa
##little
##shamba
##tafiti
0:0-0
chuki
georg
gramu
hauna
hydro
inatu
isaya
khmer
lilia
mzizi
storm
tanda
##bharata
##kiarabu
##nganika
##ographi
##onekano
##tenberg
feleji
hayaja
hudson
kiagta
kuachi
kuunga
kuwahi
madrid
matano
puerto
rufiji
usimbi
wright
##bainisha
##hukumiwa
##kumbusha
##partheid
dhehebu
itifaki
kiaramu
kusonga
msafara
msemaji
raymond
utumizi
warangi
endelevu
ingekuwa
kimanobo
kutibiwa
mongolia
piramidi
jiografia
kukielewa
kuzidisha
themanini
waliobaki
huongezeka
unaonekana
huchukuliwa
huzungumzwa
ilikadiriwa
imekadiriwa
yalisababisha
##dj
##alo
##dji
##kov
##kun
##nem
##rna
op
##guay
##kilo
##koro
##lica
##ndan
##ndei
##nguu
##rana
##rnst
##rosi
##rous
##shen
##teen
##tesa
0,0
bun
jim
kye
mak
mpe
ube
##gramu
##ngoma
afro
aste
dark
irak
kiwi
kono
pope
##mwenye
##nology
##sifiwa
##vachel
diski
efeso
ghost
lives
mount
ngeli
padre
panda
repri
sokwe
tribu
volta
##jitenga
##jitolea
##pumziko
##tafutia
empire
hariri
harris
hepati
hubeba
huliwa
huzuia
kiitwa
mazoea
melano
mzingo
napoli
presen
romano
sifuri
utiifu
wanaki
yanapo
diploma
herbert
hutajwa
kukinga
mabwana
mwafaka
sparrow
tuamotu
tunavyo
##hatarisha
##makampuni
##vachellia
kiufundi
madaraja
featuring
kufafanua
kuhudumia
minnesota
waliopewa
mmomonyoko
(0000000000).
##dé
##ui
##gai
##lak
##mti
##nio
##tit
##udo
),
##diwa
##gale
##glia
##goni
##kers
##meka
##meme
##nusu
##veni
##visi
##wale
ane
auf
rai
sey
##dhifa
##dunia
##ining
##renze
##stica
##tuali
##vutio
also
arab
beyo
dead
kabu
look
miri
rule
saru
stro
##filamu
##hakuna
##kanjia
##kataka
##pokezi
addis
alili
ameji
jacob
mafua
marty
mzito
notes
texte
##eastern
##jekundu
##thuania
buenos
harper
kazini
kimani
kukiwa
mafupi
rungwe
upishi
douglas
hermann
ilileta
jumanne
mafumbo
##benedikto
##rekebisha
inafanya
kimuziki
matabaka
republic
(000-000)
inatokana
kitongoji
wazalendo
kimojawapo
kutathmini
sentigredi
kifransisko
kimazingira
usimbishaji
mwanasayansi
##0;
##br
à
##arl
##bot
##gla
##kti
##mol
##pio
##pis
##ure
##vet
fr
##bela
##ched
##cide
##cies
##data
##dine
##gana
##lich
##mens
##rate
##riam
##ruma
##size
##veli
##waza
azi
kee
mie
rna
sao
##deuts
##goria
##ikiwa
##polis
##stown
##varia
here
lami
open
visu
##karibu
##malaya
aksum
bauer
every
hukua
jolie
kevin
kingu
athens
bayana
britan
caesar
jibuti
majuma
mtumwa
oliver
perspe
philli
princi
sakafu
spring
vimeng
##italiano
akapewa
beijing
chapman
hufikia
islands
jingine
kenneth
kisomwe
kuganda
mauriti
ubalozi
waamuzi
watakao
##dhibitiwa
##hitimisha
anatolia
kuitumia
mmojawao
thailand
alisafiri
apostolic
kibwagizo
kiitwacho
maharagwe
wafinisia
ngorongoro
wapiganaji
utambulisho
##-00000-000-0.
contemporary
iwezekanavyo
yanayotokana
0-000000-00-0
##'"
##ία
α
##''(
##bec
##bir
##cka
##dya
##fao
##lxx
##ncé
##oko
##pop
##rah
##rez
##zie
ip
mg
##albi
##bele
##cius
##dden
##goma
##heim
##kifa
##kuku
##leni
##lope
##main
##nial
##nnel
##undo
##zona
ati
bat
bla
jed
vor
##gamba
##mbuko
##mnamo
##music
##sotho
##umbwa
agha
essa
kikh
kona
left
tuta
##dinand
##endana
##female
##shrike
barna
combs
delhi
isaka
josef
langu
march
meupe
prefe
proce
santo
sekai
ujana
##bendera
##wafanya
almasi
bosnia
dallas
kuwaua
muleba
mwenzi
retrie
warner
yellow
amewahi
angalia
capital
huwekwa
karagwe
machifu
matumbo
plateau
sumatra
theatre
akahamia
churches
florence
kilianza
kujadili
lebanoni
mwislamu
seminari
wanaitwa
alitawala
amsterdam
antaktiki
kukumbuka
mapumziko
routledge
azerbaijan
inasimulia
kushikilia
kutangazwa
maangamizi
mfransisko
ulionyesha
kuwasilisha
inasababisha
linalofanana
philadelphia
utayarishaji
##?''
##boa
##ffy
##igi
##jio
##kim
ez
##dale
##fasi
##futi
##heli
##ines
##kipa
##koto
##llie
##mapi
##rten
##toum
##vich
##xiii
##yano
ava
kix
mos
nas
sel
##graph
##misri
##nover
##remix
##sauti
##vyote
arap
comp
depo
inam
leon
pepo
rise
sufu
sulu
ukuu
usta
yuko
##fields
##ifanya
##indian
##ndunia
##rudiwa
accra
clark
dhiki
geoff
hukaa
janga
kibia
mahdi
makwa
mwitu
ogani
pacha
pampu
rupia
timor
vinne
##chelewa
##nguliwa
chokaa
filipo
kibofu
mlinzi
pointi
practi
vipawa
##mwekundu
##universi
archive
atlanta
democra
dhamira
kielimu
letters
mawingu
without
##tayarisha
complete
dayosisi
gandunia
hiyohiyo
karthago
kutapika
wagombea
kuchochea
kuwafanya
akaanzisha
huiangalia
literature
woodpecker
kutegemeana
livingstone
aliyeanzisha
walihesabiwa
##gt
##vt
##wd
с
م
##cap
##cli
##god
##nik
##rop
##smo
##sue
##teo
##como
##dufu
##gram
##llar
##same
##tibu
##tili
##tyto
##vate
##yale
era
flu
giu
oly
ure
##-00),
##intro
##logne
##muaji
##ndege
##ponya
aure
bond
boyz
chlo
enda
evan
many
ohio
seba
taya
trea
wadi
wayi
##dendro
##kokasi
##lengwa
##mpatia
##timiza
atlas
ernst
harry
ijayo
malta
mlezi
nyayo
samwe
tungo
width
##ndikizo
kelele
kumuua
matini
morgan
sahili
sarufi
staili
viunzi
wahehe
##nganyifu
actress
diamond
finland
graviti
kufaulu
kurithi
russell
waliopo
##jitegemea
##zinduliwa
alliance
jumeirah
kukamata
kumfuata
lililopo
metaboli
mitaguso
starling
takataka
utunzaji
waliunda
kukamatwa
kazakhstan
nususpishi
alisisitiza
aliyemfuata
kujihusisha
inflamesheni
mwanateolojia
##))
##lp
##şe
π
##cae
##gei
##rke
##yen
0;
if
sé
##brea
##fili
##geor
##hutu
##kong
##ndor
##ngao
##rney
##rugi
##sert
nze
rey
voi
wat
##dhuru
##finch
##saini
gaza
kiat
koli
shar
##mbishi
##patana
##sanamu
##stonia
##uchumi
##uwanja
ababa
agizo
gospe
kiban
manii
maono
mtoni
which
##mapadri
0000''
canter
concer
haliku
harold
kasoko
kujaza
mkwawa
shauri
upende
venice
##kilizaji
akaamua
between
haukuwa
inataja
kijiyai
kikaren
neuroni
taswira
unaitwa
utakuwa
##dioecesis
##pinduliwa
amecheza
economic
harrison
independ
inosenti
kitambaa
kugombea
udhamini
wanaunda
alitambua
kimapenzi
makabaila
mwembamba
princeton
inahusisha
wanamgambo
kusababishwa
wanapatikana
##pd
##uo
##era
##ggy
##jer
##lve
##mac
##utu
dk
gy
vä
xx
##bron
##cara
##ceus
##down
##gged
##lehe
##nell
##nggu
##rand
##shna
##take
##text
##ttan
##vari
##warf
cia
gen
gib
kel
ngi
sex
ulu
##ahidi
##dence
##islam
##keley
##limwa
##mbidi
##mingo
##nesia
##trans
angu
asse
bell
cala
hono
isti
kiri
muga
narc
syna
##donald
##kutaka
##necked
##serbia
##temala
##tinamu
##toroka
alipa
censu
drama
kambo
mbara
mbozi
pende
pengo
tsavo
upote
walii
##ashiria
##crowned
##lantiki
##ricelli
##saidizi
000.00
baruti
kabaka
sahani
shaykh
source
wakali
##asilimia
##bomolewa
##chestnut
abraham
ameanza
brazili
bunting
inazidi
kinanda
mmiliki
shetani
watunzi
aliamini
kijinsia
kikatiba
makuhani
marshall
tetemeko
uadilifu
ferdinand
ilitumiwa
kuhusisha
muhtasari
retrieved
uhispania
ukumbusho
wanariadha
kutayarisha
miundombinu
zinaonekana
inayoonekana
wanaojulikana
zinazojulikana
##geo
##lof
##peo
##rut
ax
gü
sr
##cken
##cole
##enyi
##geza
##kile
##meno
##nted
##pzig
##rier
##riya
##riza
##tism
##word
anc
kil
llo
non
##chara
##sahau
##ssala
##swidi
aibu
ally
kial
unit
vols
waje
##bridge
##hatika
##millan
##mweusi
blood
confe
kimbo
kinda
kushu
maovu
mario
mbulu
milan
nyuro
paper
##ngekuwa
##verpool
forest
hakimu
kamera
kashfa
kujibu
kuvuja
michel
nyanya
nyenzo
psycho
saruji
songwe
talaka
utunzi
wakina
##jenetiki
kuamini
kuwinda
maajabu
mjadala
msukumo
tunaona
wahindu
abdullah
afadhali
chansela
jumatatu
kiitikio
kitahiti
kolumbus
muktadha
nicholas
statisti
vipokezi
kilutheri
kufikisha
mauritius
religious
waliowahi
kuathiriwa
pentekoste
waliondoka
kuwakilisha
wanahistoria
mwanabiolojia
##intercontinental
##ов
κ
##now
##tja
##vas
ns
nv
##besi
##fina
##ggae
##hasi
##juma
##kaha
##kome
##pima
##shwi
##soko
##ssed
col
dee
est
eze
fau
had
udu
www
##:0000
##mento
##ogopa
##penya
##rique
##salia
##toleo
font
hein
masu
mjao
##guliwa
##katili
##pindua
##pingwa
##rishwa
##ticola
canon
chupa
lemur
meani
miiba
proto
rukwa
sheli
##chocheo
##kuwanga
##mbatana
babati
champi
friend
kupona
madeni
proble
wakala
##nyekundu
aliyeji
ilikuja
inakuwa
kibanda
kuabudu
kukatwa
leonard
mikondo
mnasaba
mshambu
msituni
##0000000).
##dhinishwa
##kusanyika
##tembelewa
anatumia
censuses
hufanana
kifodini
konokono
vidubini
wachagga
wasafiri
##simamishwa
apartheid
kinyuklia
kufanyiwa
washirika
ameonekana
liturgical
tetekuwanga
alipendekeza
kitorricelli
umegawanyika
zinazotumiwa
(00000000000).
##ee
##ic
##rö
`
ö
##hia
##rap
##tou
ee
##fuzu
##hala
##mble
##meke
##mosa
##ngai
##onyo
##rara
##rush
##sons
##thed
##ungo
##weno
ave
ene
ven
vir
##ambao
##cking
##jamii
##ndale
##ndiki
##north
##rumba
##ssein
##womba
aero
albu
gary
kiai
kuga
list
mafa
maya
mbwe
mshi
pier
side
spra
zaha
##chimba
##lesser
##mwanzo
##nyanzi
##orodha
##street
(000)
akiji
brevi
kikai
maada
manda
mipya
mvuto
oscar
presi
punje
rufaa
sarah
##ndolewa
00:00;
alijua
iliona
imesha
kahama
majike
sokoni
uchovu
##angaliwa
##vernment
britain
hupenda
indiana
lilivyo
mawindo
mkakati
onyesho
samweli
ubuddha
unywaji
usajili
yeremia
alipenda
brooklyn
dioksidi
inafuata
kanisani
kuhusika
milipuko
miongozo
slovakia
stanford
ufunguzi
waliwahi
wanataka
wapagani
wilayani
##adhimishwa
frankfurt
kusisimua
singapore
ubinadamu
waarmenia
aleksander
linatumika
mfanyakazi
shelisheli
skandinavia
yaliyotokea
anthropolojia
##ei
##iv
##ggi
##iba
##meo
##ole
##plu
##rik
##tom
##yin
##zua
##ôte
0-
:*
ul
##chua
##dius
##fred
##heza
##jaza
##just
##kite
##liwe
##mura
##nant
##suko
##tong
##vere
##vski
''0
gan
nar
ski
vil
##album
##ences
##kwama
##mburu
##micha
##swada
00%.
bass
dare
edin
lima
lind
myth
raga
wati
##ambaye
##changa
##dalena
##heroes
##itikia
##jangwa
##oxford
##rintho
##rufous
##taboli
##vunjwa
arabu
barne
fimbo
force
globe
grant
kiaka
kicho
kwetu
lambo
makai
siena
useja
vipya
waber
##kusudia
##kuumeme
##tafutwa
alaska
harusi
idhini
kasulu
katavi
number
pomboo
vipele
##shalisti
##ventuali
akasema
freedom
hujenga
imeanza
inapita
kiturki
kugeuka
mageuko
picture
swahili
umakini
##hamishiwa
##karibisha
amefanya
atlantic
kuratibu
upwekeni
00:0-00).
asteroidi
chemchemi
estrojeni
including
kinondoni
ukamilifu
(0000-00).
inaaminiwa
kuporomoka
madagascar
umisionari
unaotokana
walipokuwa
inayosababisha
##ach
##boy
##els
##eth
##gis
##jab
##mpy
##mte
##seo
##ufo
##zma
##bles
##ctus
##form
##frie
##hang
##kanu
##kisi
##laha
##rino
##çois
aku
eno
fil
teo
##alexa
##ckett
##dundo
##logna
##ngers
##nicus
##pendi
##rabad
##riana
##shona
##talia
(0),
beat
bros
care
cher
fred
gama
indo
joan
kugu
levi
meya
mino
miss
octo
rapi
secu
tern
tria
vifu
##ffield
##gement
##kansas
##lebiki
##mfalme
##mweupe
##scopus
##sikika
arena
banks
edgar
hadha
iliji
kinyi
kupaa
msomi
nicht
pygmy
shane
small
ulimi
yalia
##albizia
##fadhili
##lestina
##republi
hayana
inadai
invest
justin
kibara
kutaza
matone
mtaani
norman
sabato
umbile
vichwa
##barabara
fadhili
huingia
ilipewa
ulienea
anapaswa
exchange
geoffrey
greatest
hekaluni
kibodish
kuchezea
kufurahi
kumiliki
makerere
michango
uhifadhi
utaalamu
constanti
kifupisho
stockholm
britannica
changamano
kicelebiki
operesheni
wanaokalia
programming
renaissance
uliofanyika
yanapatikana
##":
##wl
##00)
##loo
##mid
##ort
ry
tb
##hana
##hand
##hura
##idea
##jack
##jeti
##komo
##miao
##mons
##nazo
##nzia
##paji
##paka
##rais
##rale
##reta
##sive
##stes
##that
##thew
##tivi
0/0
dri
gru
haw
hay
met
nan
ron
roy
run
são
tas
##chura
##doret
##ffalo
##llard
##mbata
##tiago
##tinus
agen
cano
dell
dome
faru
kaba
nore
rail
reed
resi
tusi
vent
word
##sababu
##sekana
000).
anasa
apple
brewe
compu
grass
honey
kilio
kisii
kiuno
masai
mboya
never
njama
snoop
tenne
upara
uwazi
vivyo
##chadema
##chelewe
##denmark
##encyclo
##malizia
##mingham
##nigeria
##sambaza
##sherehe
##spotted
##vention
##zuiliwa
0000);
bradha
chroni
claude
experi
herode
husema
joshua
kimara
kipawa
kudhoo
mataji
mazito
mionzi
sancti
sultan
taarab
temple
tiketi
uitwao
wanayo
yalipo
##fication
##philippi
##pithecus
aliomba
byzanti
jimboni
kibatak
kuolewa
lesotho
0000-00.
inapaswa
kirafiki
kuchomwa
kufunika
kutoroka
mikahawa
mnyororo
nururifu
theology
vatikani
wamiliki
alilelewa
anahitaji
huandikwa
kujitenga
masedonia
mashahidi
pendekezo
september
waholanzi
wanafanya
##grassfields
kiitaliano
kusikiliza
kuwajibika
shindikizo
technology
traduction
kiatlantiki
##cn
##oe
##pr
##ان
##cir
##gee
##ggs
##nao
##ril
##uss
##wol
##)''.
##clef
##ense
##jong
##kipi
##kito
##koti
##kura
##rgan
##ssau
##tang
##xico
adu
iku
ilu
lis
obi
##ceros
##ghafi
##ghdad
##gunga
##hadha
##mania
##nyima
alex
appe
cuba
gumu
hunt
hyde
kihe
mchi
play
robe
scri
sela
ujao
vyoo
##chukia
##entali
##kamusi
##kelewa
##komboa
##mwamba
##rensis
##united
##wekewa
000),
alaba
bweni
chemi
derby
ferna
huona
julia
mafia
miami
nachi
nondo
qatar
ujiji
vizio
zilia
##cussion
##dumisha
##globini
##journal
##lovenia
##minster
(0,000
angela
contra
foster
health
johnny
kigezo
mzinga
vitano
zilipo
##elimisha
##mbopogon
##nganisho
albatro
bahrain
biskuti
bologna
isotopi
italian
jedwali
kugeuza
kukanda
miocene
mkongwe
tunduru
aliyefia
aviation
haziwezi
kufariki
kuyeyuka
leonardo
uliopita
ilitumika
kiarmenia
kukabidhi
kuongozwa
political
tennessee
imeendelea
ndogondogo
prefecture
alipofariki
sumakuumeme
uthibitisho
yaliendelea
wakonventuali
0-0000-0000-0.
linalomaanisha
unaosababishwa
##!"
##fr
##mk
##gae
##ism
##kom
##mph
##pru
##tne
##une
##vra
##vre
##zei
gt
mp
ok
xa
xv
##)'',
##cali
##cano
##cchi
##duna
##gart
##ging
##hula
##juni
##mbre
##quez
##redi
##rola
##shed
##soul
##sure
##trix
##waki
ery
guy
ora
rab
##andaa
##cebus
##gongo
##kadir
##lotte
##mbura
##msitu
##somwa
##tuart
##wekea
##wongo
addi
alle
amem
body
cour
crea
fall
gian
ibis
karu
kias
libe
tapo
they
vale
##bourne
##pandwa
##uganda
explo
field
kikar
kunya
mkopo
msisi
mtini
mwako
parti
ramia
verse
wanai
##ndamana
butler
fuwele
guyana
karamu
kiboko
kilosa
kipato
kongwe
minane
mozart
ogania
uhindu
unyofu
usangu
utashi
wavuvi
##elekezwa
bavaria
genital
ibrahim
imepata
kanaani
kifungo
ukutani
##hamasisha
alisomea
istilahi
khartoum
latitudo
majarida
mitchell
mwinjili
services
shambani
vyovyote
anajaribu
anayeitwa
breweries
democracy
evolution
guatemala
gutenberg
kimaadili
ulioimbwa
walikataa
waliotaka
anaendelea
hutazamiwa
kukimbilia
kusambazwa
management
mtangulizi
wamongolia
wanaofanya
alijulikana
inayofanana
kutambulika
malengelenge
##"/
##ık
##cry
##gui
##jon
##mun
##yah
gé
##bach
##born
##ctri
##gira
##inji
##jike
##kasa
##liti
##ngol
##onjo
##pana
##ryso
##soci
##vene
aza
dcc
kap
niu
pal
raw
tim
why
##alama
##david
##desco
##logue
##ngwea
##phant
**''
aber
blan
brie
cube
ezra
fish
gate
gray
kalo
kano
kiwu
lilo
sevi
true
uoto
##africa
##anguka
##apweke
##cheusi
##kifupi
##kumbwa
##ngusha
##orange
##servan
##stance
0000-
bangi
gates
kibon
kindo
komba
pasha
pepti
songs
susan
texts
tochi
unaji
##dhahabu
bajeti
graham
hendri
hilali
kukuta
kuzama
mabasi
morisi
muheza
phoeni
plover
senati
transi
trogon
wamora
washia
##emberiza
##mwezesha
alienda
believe
firenze
kitabia
mabinti
mhubiri
million
profile
revised
stories
thought
unaanza
yanavyo
aghalabu
bismarck
colombia
kupangwa
matofali
mgongoni
misikiti
paradise
robinson
wakiishi
walisema
walitoka
alipopata
aliyeishi
aristotle
edinburgh
hadharani
interview
kuelekeza
malighafi
michirizi
kinilotiki
kurudishwa
umeonyesha
wapelelezi
zilizopita
##kilinganisha
alijitahidi
kufanikisha
0-00-000000-0.
lililoanzishwa
##dh
##jk
##bay
##bha
##erd
##ese
##hui
##ipa
##ite
##khu
##ogo
##ppy
##wel
##yta
mé
##cina
##cket
##cock
##guvu
##homo
##hood
##kuki
##lino
##lous
##mics
##nday
##nuri
##real
##runi
##zeli
0),
ain
alt
asd
aus
eye
lai
loo
##ctory
##fugwa
##jeria
##never
##ology
##pindu
##ports
##stola
##tribu
cari
marx
mass
mega
miki
miso
pigo
popo
quar
rudo
tako
uchu
wiss
##anthus
##cision
##hususi
##kondoo
##mwanga
##nishwa
##sikiti
##strong
##sulini
##themis
##zeshwa
align
alizi
baini
baker
banka
blogu
chapa
cheti
class
diana
ellio
enugu
excer
kesho
kimai
kinyo
kuipa
leeds
lucas
major
marco
mbuni
pipit
place
waliu
##kahawia
##onyeshi
##stocene
##tarajia
00-000
curtis
garden
kieneo
kitume
kuisha
kuumwa
madina
majivu
mapana
mashua
temeke
##ziolojia
(00.0%)
albania
hupitia
kroatia
kulungu
kumweka
makinda
motisha
unapita
utetezi
##dhimishwa
(00-00).
collapse
insulini
isitoshe
katerina
monmouth
theodore
ulioitwa
wolfgang
ijapokuwa
kishiriki
kitropiki
kutafsiri
machafuko
partridge
upendeleo
alipofikia
ikaendelea
iliandikwa
kinadharia
maambukizo
nachingwea
watanzania
kuheshimiwa
udanganyifu
wanamigambo
##akishirikiana
kiteknolojia
zinazoonekana
wanasaikolojia
##jö
##yn
##ın
ü
##!''
##fen
##kis
##lot
##nau
##nun
##oke
##peg
##poe
##qia
##top
##yle
##base
##ceps
##gent
##hapo
##jibi
##llon
##lock
##mien
##neli
##pain
##pali
##rick
##rism
##rose
##rove
##tate
##tere
##urus
but
ist
jou
min
pot
sor
##etrus
##ghana
##kunja
##nging
##nyaji
##pente
##stiny
##wayne
##zuiwa
##şehir
auch
bala
beni
dece
esta
hela
june
kari
kasa
kuoa
mnya
muti
nita
oman
shah
soli
tali
wano
when
wind
zuri
##gation
##matics
##meroon
adamu
aende
ahmad
akafa
banco
chase
chura
inawa
kwako
mwali
nyara
perpe
where
##chimbwa
##eleweki
adrian
afyuni
aliaga
aliita
alimpa
arnold
brunei
gospel
kikomo
kurani
kuugua
mbinga
minara
petrel
prophe
riziki
tanakh
wapate
##entalium
##mwimbaji
foreign
galaksi
kipanya
kunguru
mzaliwa
tawimto
ubadili
viowevu
walidai
walioji
alitumwa
angeweza
critical
ilifikia
jennifer
kukabili
kulazimi
kusubiri
kutuliza
makaveli
mlolongo
uchafuzi
vichache
writings
##linganisha
ameandika
keyboards
kutumikia
liverpool
walivamia
commission
government
investment
kupunguzwa
sumbawanga
wachungaji
wanaofuata
kusimamisha
wakaendelea
wakiongozwa
wanaendelea
wanafalsafa
ziliendelea
walioambukizwa
##0.0
##ero
##hor
##neu
##oka
##rka
##saa
##thm
##-00,
##acci
##aron
##beau
##chap
##fera
##film
##folk
##gadi
##gini
##lair
##msho
##niko
##pona
##quis
##rewe
##seri
##sund
##wabu
alu
cup
khu
slo
squ
uyo
##brazi
##elimu
##mbegu
##mwita
##virus
##yumba
0.0,
case
glas
haji
ikia
isla
jeno
juba
juli
kubo
minu
noah
papo
prof
riaa
tome
##cticut
##hukumu
##kirusi
##ngilia
00/00
bruno
court
festi
igizo
ilala
jasho
keith
kiutu
krapf
prose
rodri
stein
sunni
tibet
tower
urani
urban
voice
zoezi
##dhamini
##english
##liocene
##michael
##nairobi
##nganuzi
##sonanti
##xemburg
around
bulbul
chemba
gallia
kibari
kikala
kilolo
kupika
kwisha
method
silika
sister
utaifa
vipofu
warumi
wyclef
##barikiwa
##chunguzi
##tiririka
anapata
arizona
baghdad
frances
kidonda
kuibuka
kulisha
machine
takadir
ukatili
uliweza
vibanda
village
wabantu
wakaazi
##safirisha
(+0000),
alijenga
arranged
automati
benedict
imperial
innocent
kikainji
mahususi
mienendo
muhusika
pictures
serotoni
upumuaji
usumbufu
walibaki
alikimbia
benedicti
ilipofika
kueleweka
kuingizwa
kuongezwa
madhubuti
watendaji
wawindaji
hujitokeza
humaanisha
inayotumia
petersburg
ilipatikana
kinachoitwa
walikamatwa
0-00000-000-0.
zilizoanzishwa
iliyotengenezwa
##bt
##mn
##на
##cao
##gow
##rtz
##ske
//
tw
##alam
##ckin
##dori
##dova
##gian
##hiji
##lidi
##llia
##mpus
##nguo
##rawe
##rubu
##sper
##stia
##unao
anu
cin
cis
ela
mda
oak
sac
tel
vel
##bbean
##cated
##chika
##cidae
##girmi
##jengo
##mance
##mlima
##mpiga
##mwona
##peter
##santa
##thani
(0).
aloi
came
cine
dans
guin
hami
iden
mitu
mizo
moon
sche
sime
vidu
##apolis
##fasihi
##fyonza
##guvugu
##halisi
##ssouri
adili
angel
barba
chang
cormo
dhabi
eisen
hande
ivory
kimbi
kofia
loren
nitro
pearl
trust
ubore
waluo
wanna
##langelo
(00:00
00:0).
dereva
differ
fahari
future
kichaa
kipofu
kuhari
ladies
legend
panapo
tohara
trento
verlag
victor
##bahatika
##zungusha
anaanza
ashanti
buffalo
bumbuli
cologne
eldoret
kikayan
kimanda
kujitoa
kutajwa
machafu
mashapo
morocco
station
##chungulia
##dhaminiwa
akicheza
alishika
arkansas
building
commerce
football
kikohozi
santiago
watetezi
##safirishwa
aliporudi
kujitetea
kukaribia
mengineyo
unatokana
waliouawa
wanapenda
konsonanti
kupitishwa
lililoitwa
mauritania
unaoendelea
walifukuzwa
alitengeneza
akimshirikisha
##.;
##pé
##wh
!
##dow
##gly
##mak
##oce
##rok
##rov
##sek
##uko
##uwe
##vir
##wes
##wit
pr
##deen
##dume
##hema
##kaka
##mile
##mulo
##nayo
##rano
##rray
##sare
##xton
ase
fou
hit
opa
wie
##chaft
##corax
##eared
##felis
##leans
##lizwa
##ngara
##ngika
##pwani
##scher
##sensa
##tanda
berg
besi
call
cook
hamp
hema
homo
joel
lang
mind
near
tasa
ukiu
unde
##ambapo
##dharau
##isiana
##majani
##shtaki
##valiwa
akamu
allan
egypt
fidia
kiapo
kindu
kingi
kuita
maafa
macro
magho
meusi
mjane
navyo
promo
raven
sauli
space
ufuko
##alikuwa
##borough
##ingilia
##therapi
(00%),
carson
hutaga
knight
kuinua
kutiwa
mabata
magadi
majuzi
matiba
mjomba
mkundu
mrithi
quincy
reggae
ruwaza
summer
timber
tulivu
ubunge
wahutu
weaver
##tabiriwa
(+0000)
hussein
kifungu
kirangi
polandi
rundiko
wanadai
##changanyi
aliagiza
anacheza
ifuatayo
ilinunua
interpre
kimaluku
kusambaa
latokana
mahekalu
mashauri
mitihani
ushuhuda
alielezea
alipoanza
anatakiwa
inatakiwa
kuongezea
kurejelea
mabandari
wanafuata
alijifunza
serikalini
ulinganifu
waethiopia
walikuwepo
walishinda
0000-00-00.
reformation
kuunganishwa
##,_
##hs
ب
##bye
##jou
##lka
##nox
##pez
##rae
##sky
##toc
##ufu
##été
0"
sc
sz
yi
##bral
##dewa
##dien
##feld
##gazi
##gogo
##ibui
##ngha
##nian
##nsen
##pedi
##podi
##shtu
##sola
##tula
##yoka
##zeri
amo
arm
aug
bet
bhu
gau
hun
let
rut
sli
wax
##court
##creen
##hisho
##homey
##honey
##kesha
##londo
##murut
##nghai
##pigia
##sarea
##tarii
##tebbe
##tidae
army
blac
chin
civi
hell
hope
hypo
just
kiua
nawe
nika
suri
tamu
teal
toni
uzee
yenu
##egemea
##enezwa
##fikapo
##geukia
##ghetti
##ilable
##ndromu
##nyunyi
##ondoko
##ongoka
##pukizi
##tragus
##zuiaji
00.0.
accor
faili
farao
insha
irabu
mixed
mseto
nzega
starr
terry
zosta
##fuatano
##kithiri
##michezo
##rington
00.00.
agency
ametoa
divine
fitina
gustav
haidro
hudumu
kizuri
kuenda
magoli
making
motion
mtambo
palipo
patter
plazma
quebec
sabuni
sayyid
unyogo
wakaja
wonder
##rgentina
(00,000
0000/00
alabama
anakuwa
atanasi
collins
gallery
hususan
jamaica
kibikol
kigaidi
kingdom
kolkata
kukwepa
kusomea
magamba
misioni
present
simpson
uendele
ukaguzi
##accipiter
aliolewa
analysis
bernardo
facebook
gurudumu
himalaya
inaeleza
jotoridi
missouri
vuguvugu
##cymbopogon
##democratic
alihitimu
cormorant
doubleday
francesco
hyderabad
kaledonia
kulitokea
matamasha
tradition
umetaboli
alimshinda
ilifanyika
ilishindwa
kuharibiwa
serotonini
bonaventura
haujulikani
huchaguliwa
inahesabiwa
kiafrikaans
kulazimisha
##anthropolojia
kutayarishwa
tarakilishikuu
##bl
##oh
##ли
##ار
##''"
##ash
##bba
##ear
##gou
##lax
##oué
##tet
".
ey
ft
sk
##abua
##cens
##cino
##dere
##faru
##gata
##glau
##gray
##hera
##hosa
##hozo
##lulu
##mula
##ngel
##puto
##seka
##sera
##sufu
##toro
##tson
##yers
cau
ent
ero
fos
ibm
ito
mma
sia
ted
tit
##hagen
##idadi
##kyusa
##laxis
##manga
##mwaga
##rting
##tains
##ticus
##young
(0:0
barn
baya
drea
frei
himo
kiam
kunu
lebo
mcho
nash
salo
than
wani
wizi
##church
##milivu
##prince
##pterus
bapti
dwarf
helen
kanzu
larry
makto
mashe
mwene
njiwa
plato
silve
spice
ufupi
washa
zaire
##sultani
##tengana
bremen
carter
darwin
flight
halija
hilton
miraba
mpanda
newton
sinodi
stuart
survey
tunayo
utakao
uwanda
vikiwa
visima
zikawa
ziwani
##ambatana
##thiopian
##thropodi
##zanzibar
bartolo
certifi
january
kaukazi
kidunia
kufaidi
mchuano
mpwapwa
mwokozi
pacific
pontifi
shemasi
through
usumaku
uzuiaji
chenyewe
heinrich
hukutana
hususani
jemadari
kanieneo
kufikiwa
kuonesha
madarasa
maryland
pretoria
sawasawa
sciences
wanapata
yakiwemo
alisaidia
aliyokuwa
kituamotu
kubatizwa
macmillan
walitokea
wasiozidi
##tofautishwa
kuonyeshwa
kutawaliwa
lilijengwa
recordings
walipofika
zilitolewa
zinafanana
zinazoitwa
0000-0000''
ecclesiarum
kupendekeza
ubadilishaji
ulioanzishwa
##cp
##ín
##ert
##eti
##gif
##has
##hes
##mlo
##mut
##nju
##noi
##out
##phu
##ydn
).
*†
ek
##boko
##brew
##ctes
##didi
##dola
##dora
##enyo
##giwa
##good
##hill
##keni
##kolo
##llet
##mail
##mere
##miki
##onwa
##peli
##rone
##ruku
##saki
##sele
##simo
##teza
##tier
##toli
##tres
##tung
any
dub
icp
pig
|''
##bwawa
##chefu
##culet
##dents
##dette
##imara
##krini
##landa
##lando
##macro
##matic
##mtoto
##piper
##thias
bach
emil
five
huta
impa
maro
pass
peni
phil
polo
reja
ship
tunu
turk
voya
wava
wima
yawe
zako
##always
##elekeo
##itwalo
##jadili
##jikita
##jumuia
##meneja
##sabeth
##tishia
##wazito
00°00
andes
cairo
clara
cobra
edwin
haifa
kiedo
kison
kizio
kuoza
lloyd
minor
monta
mosai
paolo
poems
price
rombo
siria
varia
vasco
words
yange
##000000.
##amerika
##fronted
##gawanya
##gongana
##hudhuri
##minated
##paganda
##pasavyo
##vumilia
00-00%
admini
akaona
basque
binamu
fikira
heaven
hector
helena
kiamba
kibera
kwangu
makaka
makavu
matete
musoma
ratiba
shrike
ugaidi
wakuru
walawi
werner
##hisabati
##maaskofu
(0000.)
alipoji
chapter
deutsch
glukosi
hupokea
ilibaki
kitanda
korongo
kulazwa
mabichi
mabomba
maktoum
mhimili
piculet
rainbow
santana
sociali
ulitoka
utabibu
uzamili
##struction
ilitumia
inalenga
kufahamu
kufanyia
mafukara
michelle
mshtarii
perpetua
triangle
ukinzani
ulitokea
kukadiria
kuvumilia
magdalena
makaisari
satelaiti
ulichezwa
unahitaji
vitongoji
waliokufa
wasaidizi
alexandria
alijiuzulu
ilionyesha
kijenetiki
kubainisha
lilitokana
wajawazito
walikimbia
walikubali
zinatumika
ilitawaliwa
inayotolewa
kutekelezwa
performance
perspective
##watayarishaji
ilifunguliwa
iliyoendelea
kutengenezea
kutofautiana
alithibitisha
iliyotangulia
ukilinganisha
##gm
##hm
##ية
##ace
##aux
##cah
##dap
##gba
##hei
##pas
##rts
##som
##|00
dü
ef
iz
vs
##bins
##bita
##bius
##boma
##ckey
##cora
##cory
##dell
##fied
##foro
##frey
##gger
##gino
##kapo
##liga
##lvia
##mers
##nium
##rent
##sura
##tein
##velt
##weto
##yesu
##yiki
##zeka
abd
aqu
eme
exi
fun
gsm
him
len
mzo
mün
pnu
rom
sof
syn
twe
whe
##ambia
##falco
##lemko
##makao
##mbiko
##ngezi
##pamba
##pembe
##queen
##ranja
##semwa
##tuagi
area
boti
buck
cruz
equi
ilii
jaji
koso
logi
mipi
paji
scar
ukia
vivu
well
yaku
##agizwa
##cteria
##husiwi
##itumia
##jengea
##kuwemo
##maasai
##miiana
##ngisha
##saloni
##torial
##upande
##useppe
00%;"
funda
jingi
kimon
kumla
kumwo
mills
mioyo
mpevu
patho
thing
third
utemi
vanga
vyura
##chongwa
##etruski
##formati
##kuanzia
##kubalia
##nganywa
##osevelt
##politan
##shahada
##taasisi
angavu
calvin
choice
duncan
garang
gerald
isabel
jenomu
kiawyu
kiburi
kuziba
mihogo
newman
rapids
raundi
schutz
shauku
tanuri
tarime
turner
##kabiliwa
##phylaxis
huanzia
karanga
kibichi
kikushi
kikwete
kupamba
kutamka
matthew
orleans
tedesco
ufisadi
whitney
##kifaransa
##koozeshwa
##simamisha
aliwekwa
barafuto
berkeley
constitu
dominiko
fundisho
hayakuwa
huelekea
illustra
ingawaje
kotisoli
kupatana
kutoweza
ministry
miondoko
nikotini
wahubiri
available
hulijenga
imepungua
inapakana
liliundwa
nyotamkia
resources
uchimbaji
walifuata
waliofika
canterbury
imeonekana
kibulgaria
walitawala
alifanikiwa
connecticut
elektroniki
iliyojengwa
outstanding
unaoonekana
kuthibitishwa
yanayopatikana
##gr
##"/"
##air
##bua
##but
##dza
##hwh
##may
##muo
##rda
##taz
##ths
##til
##tsa
##whi
##xxx
ct
##deni
##dios
##ener
##fect
##gees
##goti
##kipo
##ledi
##lone
##mvua
##nism
##odor
##pane
##pica
##plan
##quus
##shau
##slav
##tore
##tsky
##viet
aca
cel
fea
kur
nov
ofm
†''
##cause
##ching
##chris
##defao
##falia
##fulde
##pidae
##ranga
##rissa
##spani
##suiti
##terna
##teswa
##viron
##zeeka
arch
base
been
bhrt
bles
bone
chen
chip
dozi
fund
glen
kiok
mann
mela
mich
mise
naza
pari
uume
vali
viua
wanu
wape
wete
##biblia
##bility
##hattan
##mizaji
##ssions
##tiliwa
##ttgart
andré
barry
bombo
calli
evans
grace
haydn
kikru
kinde
kinor
kujaa
kusta
magma
manus
neuro
popes
randy
schrö
ugavi
##bainika
##fuchefu
##kushoto
##lighten
##mbukizi
##pambana
##pokeaji
##pumzika
##strepto
##zidisha
altare
anajua
austin
boeing
chachu
kasino
kimawa
lauryn
mahala
mugabe
mzungu
pakiti
prayer
simone
stalin
syriac
thames
tracks
##catholic
##chekesho
##collared
##penhagen
##saidiana
##thriller
##waimbaji
##washindi
alitoka
alizozi
anapiga
andreas
babbler
bainifu
ifikapo
ilienea
karibia
kibongo
kidonge
kimelea
klorini
kurusha
latifah
liturgy
mbarali
meaning
medical
reading
ruangwa
trinity
vitisho
anapenda
champion
dominika
festival
hakukuwa
halikuwa
hospital
hupungua
ipasavyo
kikanisa
mtelemko
unaoweza
unyogovu
uzinduzi
walikuja
walirudi
zambarau
##kamilishwa
##waongozaji
0.000.000
armstrong
iliyotoka
kikalinga
kujikinga
kusitisha
birmingham
ikifuatiwa
kuwafukuza
utangulizi
arithropodi
benedictine
mahabharata
mathematics
kushirikisha
wanajulikana
aliyejulikana
linalojulikana
##cd
##ht
##tü
##ów
##got
##nah
##rii
##roy
##yos
##zzi
mx
{0
##:000
##bino
##ción
##hane
##kiku
##leri
##mayo
##medi
##mila
##nata
##ndwe
##park
##susi
##thra
##veta
##viri
abc
box
gun
nak
rif
roo
sko
smo
too
##0000,
##amani
##bapti
##berta
##capri
##cross
##dator
##findi
##hivyo
##lazwa
##mfumo
##mouse
##phael
##phaga
##phila
##rasia
##sella
##shine
##siamu
##stoni
##strix
00%,
atta
côte
naga
nasa
nick
stop
turn
##govina
##joseph
##madogo
##nation
##patiwa
##ppella
##rumped
##thatch
adimu
alfon
blues
brief
civil
educa
haipo
inaji
kishe
mtaji
mundu
musta
naili
ndiko
scale
shari
sweet
verde
vileo
wande
##erdmans
##hynchus
##mbrandt
##msaidia
##ndikaji
##punguka
##volkeno
alitia
barack
buibui
fukara
ground
kianda
kijadi
kiwili
marian
mirihi
morris
palace
portra
salamu
savana
ukingo
violin
##chochezi
##kigiriki
##ridhisha
0000000
alberto
alibaki
dahomey
destiny
hopkins
inatoka
justice
kidusun
kihisia
leipzig
maxwell
misombo
mpigaji
unatoka
wasangu
##alexander
##argentina
##ingiliano
##zingatiwa
0:00-00;
ametumia
contains
elephant
françois
hapakuwa
hazikuwa
inaingia
kumpenda
kwingine
mbingusi
nyutroni
rodrigue
selassie
seminary
watakuwa
##shirikisho
##zungumzaji
akafariki
assistant
charlotte
hampshire
huzalisha
kuepukana
kujiondoa
louisiana
mkaapweke
wikimedia
zinafuata
##aliyezaliwa
##lightenment
kimalayiki
kumtangaza
linaloitwa
mafarakano
statistics
uboreshaji
waliofanya
##shughulikiwa
0000–0000''
alihudhuria
kilichoitwa
kuadhimisha
virutubisho
wakurugenzi
waliozaliwa
kichefuchefu
translations
wasikilizaji
iliyopatikana
kilichoandikwa
##dl
##yx
##ès
##ary
##bac
##cze
##eng
##ery
##eye
##hon
##hut
##jac
##mul
##myo
##oda
##tok
ao
em
##anze
##badi
##delo
##fish
##flag
##four
##gidi
##hito
##jpeg
##lege
##lile
##mota
##ngaa
##ngue
##nipe
##reja
##reka
##rnis
##ttee
##wama
##wita
##yuma
##zuku
dol
exe
gwa
nat
sna
uno
##agano
##bamba
##banen
##jenge
##konde
##lermo
##lidae
##midia
##ngoza
##pteni
##swazi
##ughty
##vidua
##zaidi
acco
amos
arte
cate
dira
duke
ecua
gaze
hija
lena
nine
noti
posi
tene
tsar
vera
##border
##formes
##lution
##people
##rahisi
##teenth
##wizara
alone
carlo
essex
jogoo
khali
kindi
lomba
maska
mkazi
mongo
salum
sardi
thumb
viele
wille
##faidika
##husiani
##julisha
##kiwango
##kodisha
##ngerous
##shehere
##thedral
chunya
eminem
falcon
faraja
father
kibaha
kiburu
kikani
kikoro
kilipo
mabaka
mabavu
malazi
matter
miziki
mjukuu
mtemvu
murray
mwende
period
porter
record
sokoto
sudani
umungu
weekly
winter
##bakteria
##japanese
##mountain
##tunukiwa
##unganika
akiimba
alizidi
damasko
excerpt
ilizidi
kimunda
kipalau
kuagiza
kufunza
makisio
october
orienta
private
reunion
sources
surinam
tribune
ukarimu
ununuzi
upotevu
walicho
zambezi
##shikamano
academic
alifuata
genocide
hayawezi
heritage
kipokezi
septuagi
sindromu
slovenia
wakikuyu
wanamaji
washauri
akafuatwa
authority
ilipungua
knowledge
lithuania
recording
sandpiper
sheffield
spaghetti
ulifanywa
upelelezi
wakifanya
ikionyesha
inaandikwa
kutokuwepo
kutumbuiza
timberlake
ventrikali
000000-0000
alitembelea
ilitangazwa
iliyotumika
independent
kuhamasisha
kuhifadhiwa
kusafirisha
inayoendelea
linajulikana
zinajulikana
##|0-000-00000-0
watayarishaji
inayosababishwa
###0
##--
##én
##ío
##ра
##ст
##’,
##’.
в
##/0}
##bee
##gum
##jen
##lil
##rit
##rol
##sig
##ual
##uve
##vul
##was
##wur
##zel
ça
##(0),
##ande
##chni
##cian
##cidi
##gine
##guel
##inst
##kuri
##lafu
##list
##meza
##nach
##play
##popo
##ptic
##rard
##rcle
##rior
##rite
##shea
##ssel
##tole
##vati
##yaka
agu
bah
bha
idi
kam
nai
ofi
##achwa
##asian
##bania
##bisau
##bosch
##chero
##hanga
##hofia
##james
##labda
##laumu
##marie
##mboni
##mount
##mwino
##nskri
##panya
##shtra
##sogea
##ssing
anno
bird
buju
capi
funk
hufa
hugh
nord
noto
owen
pras
read
rick
vioo
wigo
##brachy
##brazil
##capped
##dinger
##endela
##gascar
##kwanza
##lehemu
##lindwa
##master
##ratika
##tumiki
##ulizwa
##utiful
0000/
aaron
aliya
atawa
craig
fremu
ghala
italy
kigha
kizui
kupro
pweza
supre
tungu
udogo
ujazo
ukata
upele
wanyo
##braltar
##elezewa
##greater
##ndulika
##ngalifu
##sailles
##ssalaam
alikua
buddha
hayati
kikuku
kosovo
kugusa
kujadi
matamu
mikopo
mixing
murphy
muumba
prison
spirit
tunapo
utenzi
wanaga
watubu
##perative
##salonike
##zzaville
alizeti
channel
critics
ecuador
glasgow
imeenea
kusogea
maganda
mantiki
martini
mfungwa
msanifu
mwarabu
natural
roberts
ufukoni
wajaluo
waliowa
##isipokuwa
##pendelewa
##servation
fernando
includes
industry
kakamega
kangaroo
kimekuwa
kinaitwa
kustaafu
kutengwa
kuufanya
liitwalo
mashujaa
pliocene
utofauti
vitambaa
yaliyopo
##fuatiliaji
##madagascar
alipofika
committee
française
hemoroidi
ilivamiwa
inaelekea
influenza
kiumbehai
kupunguka
kuteuliwa
luxemburg
machotara
reference
roosevelt
umepakana
waliamini
conference
kirukanjia
kiwiliwili
lilitolewa
versailles
waandamizi
kugunduliwa
wabenedikto
imesababisha
kulazimishwa
ilibadilishwa
iliyojulikana
inayomilikiwa
kulisababisha
watengenezaji
aliyechaguliwa
##xt
##ла
##ре
σ
##ave
##gad
##gbe
##nki
##pae
##rho
##tim
##tsk
##tue
##two
##ulu
##wot
##ène
iu
mü
##bane
##bubo
##cala
##cism
##fast
##ghes
##gota
##hein
##kuzi
##lers
##mbal
##meda
##ndel
##rane
##rche
##reme
##romu
##semi
##sene
##shai
##stus
##vsky
##yali
##zing
:''
ako
cum
kea
kya
lat
rub
taz
ves
##bendi
##konge
##kumba
##lezwa
##maine
##mmoja
##mpala
##ndall
##njari
##nners
##nyuzi
##river
##ssels
##zzard
*†''
aura
aven
baye
ethi
hoff
iowa
kapa
kudo
laki
mose
orio
plei
roll
till
wodi
yang
##(0000)
##cheupe
##consin
##hamisi
##jadala
##lenjin
##misitu
##ngulia
##prunus
##rasian
##stella
##tended
0:0).
amina
appro
bundi
conta
found
fruit
kigun
kiman
kiqia
nungu
recon
serie
silva
sivyo
ulezi
washi
##bagirmi
##columba
##kanusha
##laumiwa
##mwalimu
##onekane
##subishi
##thology
##venture
##wasanii
00:0-0
adrena
anasta
banque
chuoni
essays
grande
henrik
kansas
kidani
kimina
kipapa
kizito
kukiri
kulipi
mganga
midomo
miriam
mobutu
mumbai
myself
rodney
seneta
sergio
sports
techni
teleka
travis
utomvu
uwongo
vifaru
vijiti
virefu
watemi
zitaka
zuhura
##kiolojia
##ndupindu
##ruhusiwi
##zegovina
aliyewa
charlie
danieli
kumwaga
kupooza
manyoni
mariana
mufindi
nyororo
penyewe
popular
rafadha
thomson
thrombo
tsunami
utakaso
vichaka
zenyewe
##featuring
##kusanyaji
##trithemis
##utamaduni
##zbekistan
february
giuseppe
hujaribu
ingeweza
kuhimiza
kumpatia
misimamo
mshiriki
nguchiro
nuthatch
stranger
ulishika
vilianza
##philippine
##rekebishwa
elizabeti
kongamano
kumshinda
kupendeza
manhattan
mwaminifu
professor
ulitungwa
unachukua
universal
wabelgiji
wakosoaji
wangeweza
wisconsin
##tenganishwa
alivyokuwa
bethlehemu
kujifungua
utangazaji
wadominiko
walijiunga
inayoongoza
kuchanganyi
kukandamiza
kunyonyesha
linguistics
akachaguliwa
kishirikishi
umekoozeshwa
wanaharakati
yalianzishwa
yanayoendelea
##__
##dn
##hg
##iz
##sp
##zh
##dol
##jau
##kot
##nix
##rex
##rme
##rup
##xix
cf
##-0-0
##deus
##ency
##fare
##gong
##goto
##hart
##hene
##hind
##hini
##jame
##jera
##kida
##leti
##lize
##maya
##mbel
##mbio
##mpli
##nazi
##ndom
##nuel
##ples
##ppen
##pple
##samu
##tala
##tanu
##tata
##tidi
##zole
ace
ine
mou
ner
olu
sad
sig
wen
yam
##congo
##eater
##guano
##jiita
##kituo
##kombe
##mambo
##minal
##nyuki
##penye
##pping
##pyros
##smith
##style
##super
##tauri
##tered
##tware
##urdes
##versa
##voice
(0):
akai
anse
bluu
born
devo
effe
equa
goti
jens
khoi
krai
marc
napo
nisi
pila
rica
savi
##daraja
##enegro
##fichwa
##hatari
##ishara
##lanius
##mifano
##psycho
##rwanda
##sajili
##solewa
##specta
##tamkwa
adult
alice
aliou
billy
board
cardi
ignas
karen
kibla
lenin
magni
maure
mmeng
nyeri
sacra
seram
usaha
wakai
watoa
##ciparum
##jumuiya
##rdinali
##tendeka
##thamini
ajenti
akatoa
amesha
ashiki
bureau
challe
eugene
flying
fraser
humani
leiden
mkanda
muhogo
pahali
pieter
policy
sabata
sunday
tutuko
utapia
uwingi
##ainishwa
##haramulo
##llington
##plomasia
##stafrika
0:0-00;
akiwemo
aliwapa
ambrosi
dirisha
erythro
katanga
kikanda
kinyama
kupimwa
kusahau
malisho
menelik
mkulima
origins
pradesh
prosesa
scienti
tonight
uliitwa
vipanya
wamesha
alikulia
arubaini
classics
guinness
kunakili
wasukuma
yaliyofu
##kijerumani
##republican
aleksanda
ameshinda
anayeweza
christina
ilitokana
iliyobaki
inasaidia
kumchagua
kurejesha
ukafanywa
upadrisho
alizocheza
experience
iliongozwa
inalingana
inayotokea
kuhesabiwa
kujamiiana
lamaanisha
vichekesho
waliotumia
wanahitaji
alifundisha
anaphylaxis
imepatikana
inaainishwa
kushikamana
theological
westminster
yanaonyesha
(0000–0000),
alibadilisha
zinazotolewa
enlightenment
lilisababisha
##'-
##az
##oi
י
##col
##cty
##ged
##nen
##pat
##sat
##tay
##tek
##tol
##yam
kü
ld
##eder
##fsia
##hren
##jazo
##ject
##kela
##kere
##kimo
##knob
##maru
##mifu
##nova
##nsky
##nusi
##poly
##sang
##sibu
##tusi
##ugua
bil
doa
dsm
exa
geo
hiv
hon
kul
rid
sos
wit
##bongo
##caria
##ctors
##eleka
##guswa
##india
##jumba
##kazia
##mauri
##mbero
##mwele
##nyaga
##simba
##thodi
##verty
ages
ball
bang
bene
benz
cove
dong
dubu
eine
hipo
kapi
kurt
lama
lini
maru
mcca
muri
naka
piki
riba
shaw
ward
##cidium
##coccus
##ctures
##enoufo
##fuatao
##gaster
##grinya
##humiwa
##instru
##kizaji
##kumeni
##lophus
##lubiwa
##mansla
##sterre
##tockus
##tumike
##watoto
anima
chaka
dupri
ellen
ezeki
fimbi
kalou
kioro
letto
licen
malia
messa
mkufu
musso
nixon
noeli
nyika
ocean
passi
porto
ralph
reser
saleh
samoa
satya
sengi
shore
stadi
sugar
table
tauni
tradu
vista
wayao
woods
##against
##british
##charles
##fanyike
##jiandaa
##kaushwa
##mington
(00%).
00-00,
anacho
antili
bingen
castle
dizeli
drongo
edmund
hakina
iliuza
jackie
karani
kigali
kizulu
kufuni
latera
liliwa
mabati
mvinyo
neptun
pietro
resort
rhodes
rogers
uaguzi
utendi
wanawa
##matumizi
##mografia
''00''.
aliimba
bohemia
cassidy
chinese
classic
dhamiri
georges
hadhara
janeiro
kupikia
linavyo
masalia
mizinga
pingili
premier
ufasaha
unyanya
volumes
wajukuu
wakaona
##manslagna
##salimisha
##tawanyika
akafanya
alphabet
augsburg
cameroon
chamwino
chimbuko
december
division
flamingo
ilipaswa
ilishika
kimadang
kimonaki
kurushwa
kutegeme
missiona
uwanjani
vijidudu
wissmann
ziliweza
zilizoko
zilizomo
aligombea
aliongeza
baltimore
ilikubali
iliyoanza
kivolkeno
kuaminika
mussolini
stuttgart
uchungaji
##wamisionari
additional
hepatitisi
kuhamishwa
kumalizika
lilitumika
mipangilio
mutilation
anakumbukwa
inamilikiwa
kufunguliwa
pleistocene
ufuatiliaji
iliyoongozwa
kipindupindu
lililojengwa
linalotumika
zilizoandikwa
internationale
kilichoanzishwa
##.-
##ay
##ml
##rl
##zı
##aca
##bos
##chs
##duo
##fro
##juk
##lat
##nov
##old
##saw
##wat
##–00
cé
mn
rh
##/000
##augu
##caly
##cera
##chan
##chee
##cury
##fair
##isse
##jari
##kibu
##leji
##maca
##maki
##milo
##ndji
##nong
##rell
##roba
##roll
##roti
##rums
##sode
##ssey
##stel
##thal
##tubu
##unua
##vant
deu
fli
kru
liu
mea
phd
qur
##(0000
##biria
##bweni
##chuma
##colle
##first
##galli
##guson
##hydro
##jesus
##jiang
##laise
##louis
##mbeta
##paris
##ranto
##riani
##rilla
##thano
##there
##ulaya
##zonas
##ürich
andy
assa
bega
crow
fame
food
ioni
kare
kijo
köni
lear
liwe
misu
mola
oran
ques
spen
ster
viol
wadu
wagi
ziwe
##-00-0.
##baadhi
##chloro
##ckland
##hiriwa
##kutiko
##lamiko
##mexico
##morrow
##nyeupe
##sifika
##tendea
##tibank
bibli
bichi
codex
conti
flora
forum
grebe
gumba
kiawa
kibha
kichi
kimbe
kione
kwame
large
lopez
micah
ndama
ninyi
nsdap
pedro
reali
unter
usher
wakar
weber
##dhulumu
##yeyusha
''0000
archae
artist
barnes
circum
coucal
desert
dharau
iliyom
imeuza
iramba
jibini
kasiba
kasisi
kiayta
kikana
kikazi
kitoto
kuiita
likizo
linapo
ludewa
maboga
mahiri
makete
market
muongo
outlaw
portal
respon
vilele
yatima
yohana
##lization
##mination
##nisation
##sadikiwa
##therland
anatoka
beyoncé
edwards
elektro
inayowa
karachi
kukomaa
kutupwa
madonda
mapacha
methodi
moravia
mtetezi
sanders
venezia
wazushi
winston
##dhulumiwa
##wasilisha
accessed
alimteua
breviari
carlsson
galilaya
ilimbidi
lilelile
mielekeo
solomoni
tawimito
ufumbuzi
ulifikia
wamaasai
wataalam
##australian
##university
chansella
gibraltar
hushiriki
inachukua
kategoria
lilitokea
mikindani
ramadhani
utapiamlo
vichocheo
hupendelea
kalifornia
kibakteria
kihimalaya
kikemikali
mheshimiwa
montenegro
richardson
wagermanik
walipatana
wanakijiji
washindani
daressalaam
ilifanikiwa
imejulikana
kujitafutia
maadhimisho
minneapolis
uendelezaji
unaoonyesha
wanashirika
zinaendelea
hupendekezwa
ilitambuliwa
projesteroni
unaopatikana
zilianzishwa
zinazotokana
inatofautiana
michanganyiko
zilitengenezwa
kinachojulikana
##fs
##kw
##lx
##ко
##bao
##fus
##kuo
##mno
##nni
##not
##pos
##upa
##wea
##weo
##xiv
##yem
!!
"0
##bald
##beta
##beyo
##bola
##ctic
##desi
##ethe
##filo
##gens
##haus
##jela
##jiro
##leng
##mbee
##misa
##mixi
##moza
##naga
##naja
##nawi
##neno
##pard
##rain
##reng
##sayo
##suni
##tneg
##tufe
##unge
##yani
##zori
##zuki
ant
bus
kay
lie
mol
ogi
pet
##chari
##cinna
##cript
##equus
##jeusi
##jumla
##kyuli
##lbert
##mandi
##moshi
##pleni
##ptian
##sitta
##sunni
##surre
##tebra
##wahid
ambo
bert
edua
hutu
july
kica
kiev
koko
link
lumu
mche
mohi
moss
muru
odds
pena
pica
rika
tabu
tone
umea
utah
viva
##baridi
##bikira
##bradha
##contra
##couver
##middle
##morpha
##nusson
##pokewa
##veland
(00:0
ambae
anglo
booth
burma
campa
chafu
expla
finch
gluta
haipa
haito
haute
hours
iweze
jason
jumbe
kikan
kimwa
kings
kiphu
kirch
kisia
kutua
magic
miles
mkapa
olive
pluto
radhi
rutba
sembe
tenzi
truth
ulaji
uvumi
##central
##chinese
##hadhari
##komesha
##llersen
##mchanga
##ningrad
##shuhudi
##wurrung
alipom
anatoa
circle
endapo
garcia
kibina
kigumu
kikawa
kikham
kikuyu
kiraka
lettow
mijusi
mtanda
mwasho
olympi
secret
sharia
viboko
vision
##histoire
##lonchura
##servanti
##trologia
##wekezaji
00,000;
broadca
dolphin
estonia
forever
garrett
hadhira
kapteni
kihindu
kiitneg
kimondo
kitimor
kutenga
kuzikwa
maghofu
mhudumu
midundo
naughty
ofisini
passion
penteco
raphael
ukulima
ulifika
wafanye
zimesha
##kiarmenia
##shikiliwa
##wanachama
computer
hamilton
hupandwa
ilipigwa
laterano
mabalozi
madiwani
mijadala
mtawalia
recorded
unatokea
usambara
wabondei
wamepata
##idhinishwa
aliyepata
aliyeuawa
classical
documents
gellersen
inayohusu
kikurumba
kisubanen
kuelewana
kufurahia
kutazamwa
kutofanya
magnusson
viambishi
alikusanya
inahusiana
inayofanya
kristoforo
malalamiko
mshikamano
oparesheni
uzbekistan
walikwenda
##rosaikolojia
aliyeongoza
documentary
educational
huchapishwa
iliyotumiwa
makardinali
vinavyoweza
##badilishanaji
(0000–0000).
inayozunguka
lilijulikana
iliyochapishwa
lilibadilishwa
waliochaguliwa
zinazosababisha
##')
##_-
##ag
##pc
##rm
##–0
á
##cai
##irs
##iso
##jet
##joe
##ktu
##lap
##ldi
##mri
##pwe
##rdu
##reo
##sef
##spo
##suf
##web
##yui
##zin
##zor
"(
0°
lé
pt
##anzo
##bono
##bria
##ccio
##duro
##hoek
##hong
##kous
##make
##nara
##nski
##onja
##peru
##ramo
##rero
##rife
##tude
##uzia
##viki
##zano
##zhou
cut
dvt
jet
pio
rad
sum
twa
yar
##hisar
##kabla
##kiana
##kiuli
##kwell
##latin
##leigh
##maili
##miana
##rance
##short
##stery
##troit
##tucky
##where
##wingi
##zodia
alli
anao
ante
avon
beck
clay
dist
emmy
geji
goli
guer
humu
huvu
ivan
kada
kamu
kreu
laza
mbua
nach
role
rush
ruth
siha
sper
waal
##christ
##cional
##collis
##geschi
##itisha
##manuel
##nanthe
##onotus
##onyaji
##passer
##pornis
##tarehe
##virusi
##willia
abbey
apate
clare
drums
hayes
kigbe
kuiba
messi
nubia
reich
sankt
shati
sinte
snipe
sofia
thera
today
tours
ugeni
upole
upper
vegas
wings
##elewana
##gadishu
##rithiwa
##sedonia
##temberg
##tumaini
(0.0%)
abasia
action
alimua
bailey
burton
castro
defini
diwani
halina
hebrew
hupita
igunga
images
kikoko
kisama
kithai
kiwala
martha
masasi
mwamko
rehema
rudolf
screen
simple
ulanga
ustadi
walker
waters
wazawa
##katikati
##shindano
0:00:00
andishi
chaguzi
entebbe
eremita
finance
galileo
gilbert
kiswidi
kuficha
kukauka
kukulia
mabwawa
mashaka
mayotte
musical
mwinuko
outlawz
palermo
shahawa
theodor
tochigi
uaskofu
ulikuja
ulileta
uruguay
wagtail
warrior
wasunni
##heshimika
##mapinduzi
##sumbuliwa
alipinga
anatajwa
evangeli
ferguson
hitilafu
kishungi
kupindua
kuvuruga
mabradha
msuguano
pikipiki
rejareja
software
township
uponyaji
uswahili
waashuru
##andikishwa
##chelewesha
##glaucidium
##kandamizwa
##pentekoste
according
akaongoza
alichagua
chembeuzi
hildegard
kwasababu
mizunguko
notorious
patterson
penginepo
uanachama
walipinga
##badilishana
australian
biharamulo
huzungumza
kukubalika
kuongezewa
kurekodiwa
kuwashinda
propaganda
tajikistan
theodosius
yanayoitwa
hutengeneza
kuwawezesha
walionyesha
wapalestina
huadhimishwa
iliyosababisha
##kk
##ug
##ña
##ño
##öl
##ön
š
τ
##eko
##emo
##hid
##ino
##kat
##kre
##mag
##mao
##sna
##ürt
()
##acro
##bate
##bone
##bush
##ders
##gnon
##heri
##hina
##hivi
##huko
##inde
##jean
##kifo
##kine
##kuwe
##lela
##llus
##lore
##malo
##mare
##mony
##mpur
##muno
##ndai
##ndal
##ndin
##ndja
##nouk
##pent
##race
##rden
##remy
##show
##tony
##tora
##tric
##wide
act
apa
bit
bol
cam
hoo
ilo
lim
low
maz
med
oka
tin
wha
wwe
##blood
##cular
##frank
##ggins
##ghara
##graha
##grand
##llars
##machi
##mbari
##mpaka
##ngati
##ngels
##nyang
##raton
##riadi
##table
##zalia
alpi
anni
bais
bayo
beri
budi
coua
dick
done
drum
evra
gone
hila
hull
huzi
kami
kive
lane
majo
orga
pafu
rabi
soya
suda
todd
tomé
ulim
wade
wivu
##/0000)
##banded
##cester
##chrift
##double
##futaji
##gongwa
##gsberg
##jarida
##kinson
##kuliwa
##mensis
##nyungu
##paedia
##ririka
##walimu
among
anime
baden
breki
busta
comes
corte
denis
galli
giant
hesse
hukia
huzaa
inchi
jesse
kimar
kivie
kiwor
kungu
kware
luigi
mason
meatu
mtaro
peaks
pitts
primi
relea
sahel
saito
sista
tembe
teule
ubeti
ukaja
vyuma
wanyi
wingu
##baadaye
##katazwa
##mweleza
##provera
00.00%
000-00
anders
assisi
beirut
chapel
doctri
graphi
ilunga
karume
kateki
kellog
kifuko
kijusi
masiya
mbolea
motown
pascal
uswazi
waweza
zijazo
zürich
##angamiza
##ethiopia
##hirishwa
##jitawala
##rudishia
alimwoa
belarus
chungwa
friends
germany
jeffrey
kamanda
kijicho
kivutio
kriketi
kujiita
kulipia
lourdes
mchumba
mkabala
nicolas
rowland
studios
ukuzaji
various
waliita
walioko
##kabiliana
##llenbosch
0:0-00).
alirejea
alitajwa
alituzwa
basilica
darasani
database
deutsche
eerdmans
huruhusu
ilihamia
ilipokea
kentucky
kimbunga
kisemiti
korintho
kufuatwa
linaitwa
mohinder
mshahara
nikolasi
syriaque
trinidad
ubinafsi
uliingia
uliundwa
waberber
waliacha
##california
##chekeshaji
##kosteroidi
##stosteroni
##ürttemberg
adhimisho
alipokufa
caribbean
hupelekea
kuheshimu
kujiandaa
maliasili
mtandaoni
president
ulipungua
wajesuiti
waliopata
administra
aliichezea
imeongozwa
mitishamba
wanatakiwa
himoglobini
kiliandikwa
kutafsiriwa
mwanakondoo
productions
uchanganuzi
ulijulikana
wanaofanana
kifinisterre
yaliyotolewa
0000-00-000-0
alilazimishwa
alishirikiana
isiyojulikana
ulitayarishwa
zinatofautiana
##"-
##cw
##ob
##vä
##ρι
##στ
##ро
##duk
##eny
##hom
##hot
##joa
##lae
##lua
##naa
##rim
##tuo
##vat
##wee
##wig
%)
sö
##....
##.00)
##best
##inte
##jaji
##kuto
##lean
##lico
##liot
##lopa
##mawe
##mena
##mewa
##mish
##mour
##pizi
##resh
##sant
##sena
##somo
##song
##stag
##tawi
##tsch
##usha
##uswi
00"
amu
bow
cun
emp
hij
mis
mru
nju
obo
och
ran
rev
##bango
##chner
##chuka
##cious
##fifia
##ginal
##hamad
##ksoni
##ktoni
##laiki
##llini
##mbiza
##mbora
##mbria
##monte
##nette
##nidae
##ombea
##pical
##rkana
##rouse
##shoga
##smita
##swala
##tengo
##typus
##zburg
##zioni
##zisha
0,00
000;
axum
bern
biko
bili
biti
cale
como
cyli
euse
iaaf
info
kirk
lynn
octa
oslo
pare
pars
pota
raja
reve
safa
scro
supu
unam
walk
wane
watt
wayo
wing
yhwh
zamu
##alikwa
##biriwa
##brecht
##churia
##corvus
##nicene
##nyanya
##pierre
##watawa
audio
balla
dknob
fashi
frida
games
gombe
indio
jerry
kigre
kikra
kulea
kumbi
langa
luthe
nanga
nesto
nkomo
penin
rasta
sales
schwa
skuli
spika
summa
uanzi
youth
zimea
##deloupe
##maradhi
##pendeke
##pingana
##shikana
##ugonjwa
##zodiaze
angels
chryso
conrad
durban
elisha
europa
hetero
hughes
huunda
intera
kibima
kielek
kiramu
kizima
miguel
misemo
monica
morton
mrembo
mwinyi
nyungu
parasi
prinia
rotter
rubani
ruther
schola
seneti
server
silver
soweto
tergat
ulikua
utungi
yataka
zohali
##giligili
##menistan
##ndenburg
##oenanthe
0,000.0
00:0-00
akiishi
alipiga
antoine
hukuzwa
ikaitwa
investi
kilindi
kitonga
korogwe
kreuger
kukidhi
kutekwa
kuwasha
kuzinga
lumumba
macaque
muswada
quality
springs
sufuria
ubepari
ujasiri
ukolezi
utaridi
uterasi
waislam
##fadhiliwa
##karibiana
##zorotypus
(00.0%),
alhamisi
aliokuwa
alipoona
amazonas
biblical
cappella
hutafuta
hutibiwa
ilifuata
kifahari
kimaisha
kufufuka
kusahihi
maharage
mkombozi
muimbaji
mwitalia
tomorrow
uchezaji
waliteka
wanaanga
wapagazi
##geschichte
alexandra
alirekodi
cathedral
divisheni
ilifanywa
iliyowahi
inaelezea
kufuatiwa
kufunikwa
kumtafuta
libraries
mogadishu
molekiuli
molekyuli
mwambaoni
mwonekano
sintetiki
wahandisi
walioitwa
wasiokuwa
##jiandikisha
bernadette
convention
hawakuweza
kufahamika
kustawisha
waligundua
zilizowahi
imeongezeka
inahitajika
kuingiliana
liliendelea
motherboard
schrödinger
ulifanikiwa
walishiriki
inayohusiana
kutenganisha
metropolitan
walioanzisha
0000000000000
walishambulia
wanaastronomia
##dp
##ни
##ane
##bob
##cid
##fou
##gay
##ian
##loa
##oul
##sov
##yar
##ziz
##zze
cc
kr
##debe
##djan
##feni
##fire
##kibi
##kuma
##lava
##neal
##ngam
##ngio
##nier
##nius
##onna
##orra
##pepe
##phra
##post
##ruru
##tery
##tona
##tone
##vadi
dog
gli
hey
hof
ipi
lyo
maj
mun
mzu
sud
tip
##arifu
##bilis
##cheri
##chten
##crazy
##drius
##hilde
##irrel
##karta
##khita
##leoni
##liche
##logie
##lvini
##petro
##prise
##punda
##ridae
##shawk
##sinki
##space
##viary
##vidae
arma
armé
blog
buse
cura
deep
geti
gior
holi
hood
inao
kant
kent
kije
lone
meri
mikr
mill
mkwe
okla
pano
pata
poto
rada
self
sira
taba
trip
uovu
wars
##castle
##george
##german
##gether
##jenasi
##kaboni
##kunywa
##leswig
##milian
##mwanam
##ngozwa
##pashwa
##sering
##sumbua
##ufalme
affai
april
bosco
brand
bryan
compi
donge
eliya
estra
fresh
guang
hafla
hamas
hanse
ikaja
ikata
kibar
kidhu
kyela
mabuu
mlevi
museo
nacho
ngugi
osama
perry
pungu
since
stima
sylar
touré
usemi
vinci
wamua
édité
##atlanti
##kufanya
##rations
##rground
##verside
##wilisho
0000-0
aliowa
anadai
anaona
arabic
avenue
chiari
disser
flores
humber
identi
jackal
karoli
kigong
kisamo
kuwaka
makumi
matrix
mbichi
miendo
miliki
mirror
miwani
region
sacred
shakwe
shanga
tasnia
tigray
vifupi
vokali
wamaka
zucker
##cultural
##eurasian
##peleleza
##pendezwa
##sholojia
amekufa
balkani
chamber
clement
elliott
fischer
goshawk
intelli
kikwazo
kilivyo
kipunan
korosho
machoni
majanga
monarch
mstaafu
mvutano
penalti
samueli
sisilia
spencer
systems
talanta
##fananisha
##furahisha
abushiri
baiskeli
centauri
critique
ekolojia
emmanuel
imeundwa
kifaduro
kiyunani
kuitikia
kuvunjwa
lilipata
mpokeaji
mshirika
november
nusutufe
oklahoma
sardinia
ufadhili
vijasumu
##charadrius
antaktika
bantustan
chipukizi
ikitumika
ilitawala
kifalsafa
kifungoni
kilombero
kufaidika
kumwambia
kusimulia
nitrojeni
schleswig
tunapaswa
0000–0000.
akiendelea
alipelekwa
benzodiaze
imeandikwa
kuelimisha
kujeruhiwa
kununuliwa
mikronesia
psychology
sutherland
uliotungwa
waliohamia
walitambua
alijitokeza
alishtakiwa
aliyeandika
kudhaminiwa
kuzingatiwa
vilivyokuwa
walipelekwa
wanaonekana
iligunduliwa
imegawanyika
kisoshalisti
kushambuliwa
yanayofanana
zilipatikana
yaliyofungana
ubadilishanaji
##?”
##fé
##jj
##tä
##és
##ρα
##بي
##لا
##bak
##caa
##cce
##cie
##ckr
##cse
##dei
##doo
##dum
##hit
##kas
##mlu
##mum
##nom
##our
##ryl
##sor
##tma
##vik
##wum
##zka
nm
##"'')
##brie
##chet
##cini
##etta
##gasi
##gher
##haid
##hawk
##hing
##hold
##kora
##lady
##lane
##leon
##limo
##lmes
##masu
##memo
##meru
##miss
##ndez
##nity
##nung
##onel
##plas
##riku
##seng
##sham
##shma
##sias
##ssim
##thar
##umbe
##vara
##wasi
##year
##zile
-00
als
dow
edo
goa
kut
ldp
lip
ole
pru
tem
wol
##ardhi
##berry
##brook
##choka
##culus
##khuwa
##lanau
##luthi
##mbiti
##mbusi
##mtaja
##muita
##nduli
##ngeni
##print
##ramba
##shana
##siria
##tasha
##thala
##thman
##tupwa
##valia
##zeera
##zembe
(00%
ache
algi
alma
aspi
chat
crew
delu
does
duma
duru
erik
este
grae
hare
jitu
kamp
katu
koch
lega
marl
moor
neil
next
ovyo
pote
rita
ruge
shia
soda
sony
tate
zito
über
##centro
##franco
##fufuka
##letter
##lfulde
##maneno
##martin
##metria
##ngwana
##ongofu
##stegia
##suliwa
##zorota
0-00.
00:0;
aleli
baisi
bonus
clima
condu
danny
edith
faini
gilga
gonza
herrn
hyper
imamu
joyce
kekeo
kidja
kiira
kilia
kiomo
kisur
kutii
mwetu
nandi
negus
ngara
ngong
nzige
ovari
padua
piran
plain
plane
schul
tiger
tokea
tyler
udugu
vikao
vyeti
zebra
##because
##chapman
##chinjwa
##deutsch
##hadithi
##hurungi
##karyota
##lingani
##lington
##onyeshe
##ssaloni
##tebrata
##through
##thubutu
##tishaji
##tterfly
(00-00
(000).
andalu
aquina
assemb
benton
bhutan
confli
diseli
editor
fatima
julian
kimaba
kimeng
kimila
kuadhi
kushau
louise
luteni
magpie
mchawi
melani
mizani
mpishi
nevada
onesho
oranje
oriole
pierce
roboti
tazara
thesis
wafran
wagner
wagogo
walevi
wasuba
wazulu
zaweza
##mchezaji
##safishwa
##ttingham
0:0-0).
akitaka
bermuda
bombomu
compani
dhamana
godfrey
greater
ikiitwa
inaleta
kamboja
kiasmat
kielezo
kuimbwa
kukohoa
kupeana
kusaini
kutanga
macbeth
mikaeli
msafiri
nothing
orlando
scholar
soukous
strings
ucheshi
ukahaba
unajimu
usikivu
wakunta
wasafwa
éthiopi
##bainishwa
##dhoofisha
##imarishwa
##rahisisha
##vumbuliwa
breviary
inayofaa
jermaine
kaisarea
kijumuia
kinyunga
kufukuza
kusawazi
malipizi
mameneja
mcdonald
oriental
squirrel
thompson
utumwani
wahariri
walipiga
##karibishwa
(000,000)
00:00-00;
akashinda
albatross
alichezea
baisikeli
kisanskri
kuchelewa
kumalizia
melbourne
reprinted
ulijengwa
umwilisho
utungisho
waamerika
wanaokula
(000-000),
akamwambia
alichangia
anaichezea
kumtumikia
mitholojia
urambazaji
uswahilini
uwakilishi
wamoravian
zinatumiwa
##brachystegia
iliyopangwa
kimaandishi
maingiliano
unahitajika
virutubishi
yalifanyika
zimeonyesha
zinazotokea
kuwafundisha
000-0000000000
kotikosteroidi
##)-
##eg
##ev
##ış
##لي
##“)
##bok
##fas
##hre
##hwa
##max
##mye
##ody
##pdf
##rsy
##sac
##sim
##tee
##wie
##
gr
oy
pg
##.00.
##anna
##blan
##cari
##divi
##duck
##ensi
##ente
##geno
##glai
##guna
##heit
##high
##kale
##kutu
##litz
##lowe
##ltic
##mazi
##mbie
##mesh
##nang
##ndar
##newa
##nime
##orum
##pano
##rens
##rias
##roho
##rows
##schu
##shin
##sine
##timu
##tosa
##ulio
##urna
##witz
##zili
##ères
ayu
dau
daw
dec
dro
fai
ide
kyo
lay
log
mhe
ske
vau
##anser
##babar
##enoch
##frini
##gence
##gitaa
##hanna
##kespe
##lacro
##mbuga
##mondo
##mrefu
##mzito
##rejeo
##sante
##thili
##timia
##ttled
##tuzwa
ambu
amen
anta
ario
bada
chal
clee
coca
earl
espa
eyes
faba
fati
howe
husi
jame
msho
nero
onyo
peak
save
sear
ssri
wara
xvii
zimo
##boliki
##enenda
##ivasha
##nyonga
##peanwa
##ternal
##truppe
afana
asian
bobby
boris
carol
corne
daddy
dolar
finyu
fritz
haita
haven
kiabu
kiber
kikon
lands
merri
mrusi
omari
physi
samba
schwe
serra
siman
spora
suppo
tommy
upesi
utovu
wachu
watch
wells
zangu
##amuliwa
##century
##cephala
##culture
##ilikuwa
##mbarage
##ndikiza
##shukuru
##transla
0000):
00:00,
alimwa
amevaa
barton
compre
concor
corona
edvard
emilia
fisher
fredri
hulala
jihadi
kanali
kigogo
kimali
kipare
kuhuku
kutaga
malori
manuel
marapa
mfungo
mizimu
mizoga
montre
msongo
mtaari
mteule
mwanda
rifles
ruzuku
serena
synthe
tufani
uchawi
veroni
wanazi
##cription
##kandanda
##shauriwa
##washairi
##zimbabwe
account
alfonso
alibuni
alituma
apostle
bariadi
buzzard
control
environ
heights
ilisema
ilitaka
islamic
kipenzi
kontena
kumezwa
kumwagi
kutolea
kutumwa
makwati
mishale
morning
peptidi
traduit
upatani
##agapornis
##kandamiza
##kusanyiko
##motacilla
articles
conflict
editions
eropleni
harcourt
ilifaulu
inapokea
kibarito
kimbilio
korogoto
kulipiza
kuwaweka
lituanya
mgongano
museveni
naivasha
piransha
practice
timotheo
ukiukaji
waliitwa
waviking
alitabiri
cleveland
controver
ethiopian
greenwich
ilipokuwa
ilitungwa
imechukua
inapungua
jenetikia
kusukumwa
kwaresima
masultani
matembezi
mshindani
simanjiro
utafutaji
uvumilivu
vivumishi
wavandali
yorkshire
(000,000),
aliajiriwa
iliyotokea
katekisimu
kuboreshwa
königsberg
rutherford
ulionekana
ushirikina
wamakabayo
zinazohusu
anahesabiwa
ikijumuisha
kiindonesia
mchekeshaji
underground
zilizowekwa
zinazofuata
0-000-00000-
ilivyoelezwa
kinapatikana
madogomadogo
michelangelo
mtengenezaji
stellenbosch
kinachotumika
benzodiazepini
inayounganisha
yanayojulikana
##::
##ao
##cv
##cz
##jn
##jø
##λο
##ки
##را
س
##alt
##ann
##box
##eze
##hof
##sos
##tae
##tut
##yat
oc
##bile
##buch
##cruz
##culo
##dena
##dier
##disi
##dore
##etus
##fate
##funa
##ggio
##gner
##gone
##hizi
##holi
##kesi
##kido
##kiru
##kiss
##kuni
##kupe
##lias
##lost
##luan
##miko
##ndre
##nili
##poto
##prus
##ptes
##rean
##sina
##swan
##udad
##vaal
##yong
#0)
coa
cos
dem
ful
icd
kif
mcc
nei
oko
##celli
##craft
##dhana
##ekwon
##fania
##frons
##ganja
##giant
##hower
##kkale
##kopta
##llian
##magne
##meupe
##ndorf
##ngule
##pokeo
##pumua
##stock
##sylvi
##thyno
##tishi
##tudes
##ursus
##utive
##verly
##wengi
*000
bart
bing
cava
fabo
frog
gaga
golf
gome
gore
hemi
iata
inka
jana
kemo
kids
krak
lisa
neri
nola
pain
pico
prae
prui
tcha
tole
viet
wapu
zege
##-0000-
##-0000.
##forest
##goland
##kanoni
##lewski
##nyimwa
##rolamo
##thomas
##titlan
##vidogo
##wadudu
amiri
birth
brill
bunda
crane
damas
floor
hasan
kiari
kisho
lango
later
links
munia
ngumi
noble
perse
philo
pitta
rufus
savan
skeli
spain
szcze
uuaji
wimpy
xxiii
zacha
##dhalika
##imarika
##kupitia
##marejeo
##matunda
##mekundu
##ngaliwa
##rikiana
##sheviki
##spierre
##telemko
##zoeleka
******
airbus
ankara
atolli
bengal
bronzi
canons
concep
eugeni
fomula
huamua
hukosa
huweka
huzidi
jeremy
jeromu
kigugu
kimang
kinapo
kinisu
kukati
kwanta
liwali
marcel
matata
mkenya
monroe
mtaala
nether
newspa
nursia
papers
rohoni
simbel
uamsho
unyama
vitivo
wagugu
wazuri
wepesi
willis
##kinshasa
##mashairi
##mwanamke
##ratibiwa
##thampton
##tokanayo
##yeyushwa
(0000);
aquinas
chandra
chapati
forodha
freeman
granada
habeshi
ikapata
iliunda
imebaki
jekundu
kitharu
kumuona
kupasua
license
mekundu
nanyuki
numbers
roberto
réunion
severus
strange
timothy
umeenea
wakamba
##australia
##criptions
##diospyros
##gundulika
##muonyesha
##pandishwa
##transmita
anaamini
capensis
distribu
hakutaka
hannover
inashika
inayotoa
kisonono
maradufu
mawakala
memorial
mjamzito
mongoose
mtungaji
predator
presents
samawati
ulifanya
wabuddha
walikosa
wavamizi
zitakazo
##lacrocorax
##pendekezwi
##sherehekea
##terokanoni
akachukua
alielekea
alitafuta
blackwell
bonaparte
byzantine
challenge
electroni
kuchemsha
kuharisha
kupanusha
kuwapatia
kuzaliana
mitelemko
msulubiwa
uangalifu
unafanywa
uvukizaji
wanaongea
zinatumia
eisenhower
hudhurungi
inayolenga
kuendeshwa
kuhukumiwa
kujitahidi
supporting
waliandika
wawekezaji
yalijengwa
yanayohusu
zinahitaji
zinatokana
##instrumental
cooperative
herzegovina
inayopakana
mtaarishaji
robespierre
septuaginta
walionekana
yanaendelea
inayohusisha
kujiendeleza
walioendelea
yaliyofanywa
asiyejulikana
kulinganishwa
unasababishwa
automatisering
##0-
##cl
##nj
##pn
##än
##ει
و
##0).
##adi
##bau
##egy
##fti
##hna
##hum
##iyo
##kna
##kpa
##lpa
##mey
##nee
##ord
##poa
##vua
##wey
##zal
bc
cs
mh
oe
ox
##aloe
##bawa
##dawa
##dham
##ffel
##foni
##golo
##haya
##hman
##jika
##keep
##kete
##kibo
##kilu
##kleo
##koku
##kwet
##lear
##lesi
##lion
##lugu
##mehe
##mide
##mkuu
##mmel
##moon
##mpan
##mumu
##ngee
##orio
##oted
##pied
##pula
##ross
##shaw
##ssic
##tati
##vice
##wild
##wini
##zaki
##zawa
aje
amp
bak
bry
ghe
gol
lua
nam
ola
pse
sei
set
tao
tus
twp
vit
xan
##cauda
##dance
##disha
##dream
##dubai
##fikie
##flops
##fufua
##gonja
##louse
##mberg
##mbuka
##munks
##ndava
##ngamo
##ninox
##njabi
##njaji
##oples
##pelia
##plant
##quila
##romeo
##royal
##singa
##stles
0:0;
admi
bear
brow
casa
emba
fine
fitz
glia
greg
hide
holo
kiel
knox
kuda
köln
lark
maps
monu
nato
novo
occi
pisa
plus
rice
sind
take
tina
woga
yoga
zuma
##00000.
##berian
##bishop
##chukue
##cumnus
##itwazo
##merops
##ngukia
##nywani
##saidie
##seille
##thoven
##vuruga
##waziri
0.0%,
abbas
alive
amana
andro
anthe
anton
begin
capri
ceuta
choir
close
cohen
cover
disea
fonda
glaci
hanna
humph
jembe
johns
kasti
kithu
laura
limfu
linda
migne
moses
ndevu
obote
palli
rosen
ruaha
soksi
stani
title
tumia
wanau
wiley
##cheeked
##halisia
##molojia
##ndawazi
##ngerema
##ometria
##sheleza
##station
##thabiti
##wenzori
better
course
during
fransi
giotto
hakiku
hanang
haviku
hopper
jerome
kaliua
kiambu
kifaru
kiteke
konrad
kukoma
latina
liwale
mafigo
mezani
milton
norton
passiv
repres
simoni
strong
videos
waende
watson
##farisayo
##jibikaji
##kutokana
##tafitiwa
(0.0%),
abidjan
affairs
alijibu
andorra
episode
halaiki
hawkins
hulimwa
kabonia
kashmir
khoisan
kiazeri
kiulaya
kuachwa
kuajiri
madison
mariamu
muawiya
münchen
ottoman
phoenix
reserve
silinda
swallow
turkana
ugenini
ushujaa
utawani
vivutio
wajenzi
walikaa
wanacho
zinafaa
##mwandishi
##shuhudiwa
akishika
alilenga
chiarini
district
dormouse
helsinki
herrnhut
hujengwa
imepokea
jukwaani
kipoland
kufikiri
lutheran
majaribu
morrison
motomoto
nagasaki
printing
romanovs
thuluthi
ukhalifa
valencia
wakapata
waliweka
zilipata
ziliwahi
africanus
akakubali
anayeishi
australis
bujumbura
huaminika
iligawiwa
kambarage
kiwandani
kujifanya
kusaidiwa
mashitaka
misamiati
msisitizo
rotterdam
spiritual
ugiligili
waslavoni
zinazotoa
##enochtitlan
##wanafalsafa
0000-0000)
akashindwa
falciparum
haionekani
inayoingia
kilitolewa
kuathirika
kugawanywa
kuhamahama
kukosekana
linaloweza
somaliland
stashahada
ukusanyaji
unaotumika
waathirika
waliofuata
walipoanza
##acrocephalus
hubadilisha
inayosaidia
institution
kivietinamu
kudhibitiwa
kuendelezwa
kupandishwa
kustahimili
mshambulizi
nusutropiki
philippines
uliongezeka
ulirekodiwa
waoservanti
yanayotokea
aliwaandikia
turkmenistan
vidogovidogo
vinapatikana
inapendekezwa
yaliyoandikwa
linalopatikana
vinavyopatikana
##fc
##|(
##ér
##”)
##00"
##baa
##bbc
##buk
##dau
##ddi
##dir
##eco
##end
##fuo
##goi
##kam
##kil
##lem
##mik
##oth
##pau
##rhy
##tau
##tep
##tka
##uak
##vit
##band
##bang
##ckle
##fuga
##fuli
##fyon
##holo
##jeka
##kian
##kise
##limi
##mius
##mizo
##muse
##nama
##nard
##ndum
##ners
##nico
##nosa
##nula
##open
##pest
##rato
##reus
##runa
##sere
##shir
##simi
##tant
##tech
##thya
##ware
##yola
"0"
'',
atu
dam
dwi
ifa
kic
meh
odd
won
##anaye
##barua
##bebea
##bindo
##carbo
##cklen
##croco
##cting
##grafi
##kassa
##kleri
##knoti
##kodia
##kutoa
##manda
##mpata
##ngiti
##ngula
##niani
##nyoka
##opera
##ornis
##pasio
##pitta
##point
##rdino
##sieff
##silia
##strel
##sudan
##tenno
##trice
##tumii
##xaire
00,0
000%
000:
ashi
boas
cabo
cami
dion
edge
ense
epic
goes
gott
kind
ligu
limo
lion
lucy
mars
melo
muja
nate
omba
pied
race
rous
sati
sine
titi
used
vane
vine
whea
witu
zulu
##boston
##browed
##cupine
##dougou
##finksi
##kanika
##koleti
##malkia
##manjia
##nellus
##nganyo
##pigiwa
##pseudo
##rities
##robert
##roslav
0.00.
0:00;
abuja
achie
alban
alimo
anatu
arudi
cauca
chawa
cliff
compo
cordo
finan
fried
fungi
hosea
kiana
kikau
kimwe
kirai
klaus
kuota
kupoa
libre
mache
mhozo
miito
mjoho
mkasi
nigri
refor
saidi
sawia
schmi
seine
seoul
stand
sucre
symbo
wanor
wemba
##chelles
##gharimu
##graphic
##kistani
##ningham
##silisha
##tabiria
##tensive
##ventris
##vidence
activi
actors
advent
borneo
chlori
damian
herman
ilidai
kaduna
kibunu
kikada
kimeta
kiteto
kultur
kuosha
litaka
magofu
matago
mifupi
mikate
mkongo
muslim
parrot
recent
religi
return
roketi
shield
square
upungu
vinara
vitamu
wanted
warudi
ziliwa
##ambukiza
##fikishwa
##panuliwa
##sikitika
##ventures
akaweza
aliachi
alikosa
bondeni
bungoma
charity
faragha
gerhard
hauwezi
hulenga
ilipita
kachero
kichaka
kikopti
kumpata
kupenya
machozi
mbeleni
muhamad
mwepesi
nikolai
norfolk
perfect
quarter
serpent
sikonge
species
tourism
uliamua
utegili
vipepeo
worship
zakaria
##cklenburg
##fungamana
##mtakatifu
##mwonyesha
##sahauliwa
##westfalia
benknoti
brussels
einstein
eremitae
ezekieli
français
freiburg
ililenga
inaishia
kameruni
kikabari
kikirili
kuchanga
kusikiti
linatoka
medicine
nazareti
portland
safarini
sanasana
shanghai
varisela
walileta
yanahusu
zahanati
ziitwazo
##julikanayo
##tanganyika
(0000-00)
andalusia
augustine
chipmunks
elisabeth
gilgamesh
helikopta
huongezwa
ilijiunga
iliyoenea
inaongoza
kikawaida
madirisha
makedonia
mhispania
mwadilifu
nashville
peninsula
synaxaire
ulitumika
vipapasio
walishika
wanajimbo
abdulwahid
afanasieff
aliyefanya
haihusiani
huonyeshwa
ilichangia
kitakatifu
kitanzania
kukadiriwa
kusaidiana
kusimamiwa
kuwapeleka
mafarisayo
mauretania
nusumaisha
resistance
uanzishaji
ukaendelea
walisimama
wanajaribu
yalitolewa
yanatokana
zilizobaki
alifahamika
amechunguza
constantine
haipatikani
ilimaanisha
iliyofanywa
illustrated
kinachoweza
kupungukiwa
kusahihisha
kusawazisha
photography
yanaonekana
##-000-00000-0.
0000–0000''.
ilipendekeza
kilichotokea
kingamaradhi
kurekebishwa
nyungunyungu
inayomaanisha
kielektroniki
aliyeambukizwa
walilazimishwa
yaliyopatikana
zinazozalishwa
##.(
##?)
##ás
##ан
##ри
##ون
##aaa
##awa
##cei
##cki
##cko
##dic
##eke
##eux
##evo
##hoe
##hos
##kok
##mee
##mgo
##niz
##pul
##pun
##ска
(„
jö
pé
##000,
##:00;
##apri
##bodi
##crae
##dane
##deme
##demp
##dera
##dovi
##ento
##feat
##gama
##ghan
##hibi
##ight
##illa
##kort
##kuji
##lada
##laro
##lluk
##loli
##lumu
##mbay
##mbiu
##nubi
##poda
##rata
##rned
##sand
##scho
##tear
##thic
##tium
##tumu
##viwa
##waha
##weni
##xari
##xeno
##yuan
##zela
##{/0}
amy
bau
ctu
duo
etc
gré
idd
itu
kom
kou
luv
mvo
nin
plc
sab
sku
tod
uhu
الم
##achim
##banca
##bourg
##canus
##cassi
##cover
##dicru
##fried
##gorod
##inuka
##jalia
##kizwa
##lfrie
##liamu
##llary
##mahdi
##marek
##massa
##mbako
##mbeni
##medes
##mphis
##muona
##naldo
##nella
##nulia
##ppert
##remko
##richo
##salis
##sonal
##stead
##swaki
00#0
achi
anai
bour
clan
falk
gide
géné
igle
jopo
kici
kife
kiol
kofi
locu
luci
lulu
ming
minh
mkao
mlia
mnyo
nuhu
past
rené
sant
sava
shan
swan
tafa
topi
ural
vazi
wezi
zone
##achana
##fungia
##kijiji
##kuador
##kwenye
##mlinzi
##mother
##nnauri
##palace
##phylla
##samaki
##skopia
##somali
##turnix
##xarion
##zaramo
##zinazo
0:00,
arusi
athle
bangu
blake
circu
cleef
cyril
dimen
diony
dogma
duffy
eddie
elgon
epide
fiche
final
gamma
gigan
glory
heili
hiace
ileje
indus
infra
karia
kimal
lakhi
linna
mbovu
mchwa
mzozo
panzi
pinde
praha
prima
rhino
salim
sleji
spani
squad
tanza
tetra
thorn
wamor
washu
##itishwa
##kumbuke
##lasinga
##layalam
##ongezea
##société
##tambuli
##termina
(000),
(0000;
asmara
chiefs
clarke
coming
dakota
design
dunant
gastro
harvey
impact
jakaya
jalidi
jeffer
kanari
kifafa
kiwewe
leader
legacy
lionel
manila
mhanga
mshigi
nicola
oasisi
oginga
rhythm
sixtus
tailor
urambo
vyembe
waliko
welisi
##chagulia
##dicrurus
##kespeare
##nusurika
##oriental
##schichte
##sinofili
##spaniola
##wezeshwa
amesema
anakuja
atakapo
bastola
detroit
dollars
galilei
heroini
ilibidi
inabeba
jazeera
kibondo
kicheki
kuuliza
kwazulu
lorenzo
matumba
mfufuka
musyoka
norbert
persona
pistoni
reprint
seville
simmons
sinapsi
umepata
unahusu
wanaoji
##adhimisha
##centropus
##itschrift
##mentation
##nyonyesha
000-000)
alipanga
alitokea
canadian
chumbani
hatuwezi
ilianzia
ilikataa
iliwekwa
jenetiki
kaburini
kiishara
kuchemka
kupasuka
kupendwa
kutafiti
latumiwa
mahoteli
marijani
material
military
mteremko
neutroni
nilikuwa
nyadhifa
phillips
sheraton
tawasifu
uchapaji
unapaswa
utengano
wajapani
wasambaa
yaleyale
zilezile
##fananishwa
##hakikishia
alihusika
aliyefika
anagundua
chemistry
ikitumiwa
imetumika
kifinisia
kizuizini
kujificha
majambazi
porcupine
sebastian
singapuri
suluhisho
vancouver
waadilifu
wanaoweza
zilitumia
éthiopien
christians
guadeloupe
huchunguza
hukadiriwa
ilipelekea
interscope
kifulfulde
kudhoofika
kugandisha
kuruhusiwa
kushtakiwa
production
satyagraha
upitishaji
vifuatavyo
walipoteza
walitafuta
wanachezea
zilitumika
##shindanishwa
alichapisha
alipozaliwa
alivyofanya
aliyetawala
iliyotokana
inahusishwa
inaongezeka
inatarajiwa
kuhatarisha
kujiendesha
kuwarudisha
orientalium
unajumuisha
uwajibikaji
walitangaza
##changanyikana
000-0-000000
ilibadilisha
organisation
schutztruppe
tenochtitlan
waliruhusiwa
wanateolojia
yanajulikana
inayojumuisha
walivyochorwa
wanaheshimiwa
ilithibitishwa
kujishughulisha
##,,
##fm
##fy
##ie
##ik
##»,
##ár
##øy
##ük
##ον
##ري
å
##_-_
##aan
##art
##bhu
##bil
##cuf
##cyc
##hab
##hal
##ius
##lov
##mam
##mek
##muu
##nou
##oty
##raz
##rsk
##sui
##sya
##wam
##yun
##zai
ud
##aaaa
##caro
##chat
##code
##cyon
##dada
##doro
##gean
##gogi
##halo
##higa
##horn
##hudu
##iang
##ibua
##imat
##impe
##ined
##jewa
##kulo
##mafu
##muna
##muua
##ndis
##nett
##phan
##pius
##posa
##sabi
##suba
##temp
##teus
##voca
##wall
##wata
##will
##xter
cuf
dae
gly
gnu
guz
hin
kcb
kiz
mee
ogo
pdf
pwo
ree
tia
tol
uae
wer
wey
woo
wur
##books
##borne
##cchio
##chsen
##credi
##henry
##llite
##mycin
##nyara
##panek
##peana
##profe
##sagwa
##shere
##tador
##taria
##tries
##ttern
##urusi
##views
##virgi
##wards
##wiana
##yombe
amor
anae
anau
athe
aziz
bian
boca
bonn
coli
daim
dccc
dono
easy
exec
fufu
gale
hier
hodg
issu
juda
juzi
kawa
mart
math
mmhg
mois
molo
ndui
path
peli
rene
rota
sang
sega
sons
taha
talk
temp
uyui
vida
voda
##aaaaaa
##braska
##enberg
##fulani
##furika
##gazeti
##japani
##kichin
##koloni
##kwerba
##langua
##macaca
##majoto
##mbieni
##mbique
##mbuktu
##mbulia
##museum
##ordina
##pambwa
##rorran
##stical
##sylvia
##takiwi
##tamthi
##tuliwa
##versus
##vincia
##vulpes
(00),
0.0%.
abesi
ameri
arabe
asasi
bello
berry
biscu
block
busia
chain
coali
fanya
guild
gundi
hunga
iraki
jeusi
kasha
khome
kiazi
kikha
kimur
kirgi
kufya
kumta
lucia
magne
mgomo
molly
motto
nawaa
niels
panga
portu
ramon
score
snake
stras
think
volga
wairi
wakim
wakwa
wanda
yosia
##000-0-0
##austria
##delberg
##fichika
##kawaida
##lfriend
##muamini
##pangiwa
##richard
##safisha
##tations
##telemka
anayem
anselm
arméni
atiria
before
belize
beteri
domeni
dreams
dwight
enrico
format
hataki
hatuna
herald
hubaki
huimba
hunter
jikoni
khalid
kibena
kilifi
kimiao
kitama
kuteua
kutupa
latvia
lazaro
mabano
makeba
margin
marina
muunga
parker
patron
plains
planet
sakiti
sirili
stevie
thousa
transa
unyeti
waigbo
wakiji
yakawa
##citibank
##kubaliki
##wanawake
andaman
another
cardiff
chochea
compton
cordoba
gorilla
grammar
grenada
griffin
hupimwa
inabaki
journey
kixhosa
kufutwa
kumzuia
lushoto
madonna
mashavu
mbaraka
mchache
oakland
philipp
phillip
problem
raekwon
sicilia
uhalali
uinjili
ulizidi
unasema
vikombe
wadhifa
waluhya
wauzaji
##chafuliwa
##sisitizwa
akaingia
alipigwa
alisikia
alitetea
ameigiza
ameolewa
fabaceae
harambee
hugawiwa
iglesias
imewekwa
inafikia
inatajwa
kibontok
kiedoidi
kinywani
kirchner
kisomali
kongosho
kubuniwa
kudungwa
kuripoti
kuwaokoa
learning
makasisi
makutano
miandiko
ombaomba
palepale
pilipili
portrait
principe
richards
tenerife
ukosoaji
uthabiti
wakarudi
waliokaa
##rahisishwa
##tengenezea
akiandika
alipoteza
aliyekufa
anamiliki
blackburn
chartered
coalition
different
executive
extensive
huhusiana
ilijaribu
kifamilia
kipaimara
kiromania
kisenoufo
kuichezea
makhalifa
manchuria
marseille
mishahara
nationale
quarterly
rodriguez
thrombosi
transvaal
uangalizi
ukarabati
unaelekea
wakarmeli
waliokuja
##württemberg
cunningham
kuachiliwa
kuangaliwa
kuingiliwa
kutegemewa
maximilian
population
shambulizi
synaxarion
szczepanek
thessaloni
unahusisha
usindikaji
wakitafuta
walitakiwa
000,000,000
aliendeleza
brandenburg
hutambuliwa
ilibadilika
iliyotawala
kimagharibi
kimisionari
kiworrorran
mecklenburg
netherlands
uliokithiri
wanategemea
wazalishaji
zinazofanya
zinazostawi
broadcasting
inawakilisha
kitambulisho
likimaanisha
linajumuisha
mshambuliaji
wazungumzaji
yaliyotokana
zinazohusika
deuterokanoni
ilitayarishwa
kuchanganyikiwa
##_(
##dc
##pm
##rh
##wm
##är
##اد
##حم
د
ر
##?",
##anu
##cue
##glu
##hle
##ill
##jal
##kob
##lux
##nag
##ove
##rks
##ruu
##stä
##tah
##vsk
##wla
##”).
(“
cr
lk
ot
ug
##bble
##bene
##cans
##cham
##cott
##coua
##daba
##dome
##enas
##fimu
##game
##ghai
##heng
##idha
##ints
##koha
##kowe
##loti
##lula
##meng
##most
##mudu
##musa
##ngie
##ngon
##page
##pang
##pela
##phon
##rdia
##regi
##tune
##ungu
##upri
afa
daz
dea
dir
dkt
fas
imf
jun
mwu
ody
pou
tnt
##antio
##bweha
##calid
##carey
##enter
##every
##ghing
##harma
##kisia
##laani
##liber
##liona
##melea
##miche
##ndler
##ngewa
##phora
##quail
##runga
##spiza
##stoli
##tumie
##öping
alla
dana
dass
doro
dyna
empe
ethe
feel
huza
ilya
jews
kuma
lali
mlio
muhi
muli
namu
pino
pitt
prie
puto
sema
swot
tito
tuwe
umba
wies
yona
zuwa
##acacia
##achiwa
##carthy
##chroni
##durman
##epusha
##hututi
##inaina
##inisho
##kivale
##kuhusu
##legged
##lipuka
##living
##mababu
##mojong
##ndarua
##nduras
##nswick
##onesho
##phyllo
##prinia
##purple
##shukia
##smania
##stings
##strano
##strial
##thedra
##ukimwi
##wealth
##zilizo
(00,0
0.00%
amewa
anazo
asipo
athro
avila
ayoni
banga
based
basse
being
blind
brock
campi
carto
chato
chuck
cnewa
cuban
diale
durch
elias
extra
fabri
glenn
hedge
hijra
homer
kampu
kimok
kitag
kuasi
lyons
mauja
mkoko
model
msemo
oliva
parra
paton
pendo
ports
quest
sheep
slave
stage
söder
tunis
unuru
utamu
vigae
vivax
wachi
yamea
zinki
##ahidiwa
##angazia
##ditkort
##francis
##general
##himizwa
##hubiria
##lembata
##lishaji
##majimbo
##manyoya
##masters
##menyuka
##mwamini
##nganiko
##oriolus
##penyeza
##peranto
##ploceus
##rumbeta
##shiriwa
##unuliwa
00(0),
akitoa
anguko
azteki
behind
blaise
brachy
bristo
buabua
campus
chasez
chopin
copper
cortez
ethano
gaulle
haifai
hajafa
harare
huuzwa
ikungi
ilikaa
initia
kafara
kalisi
kidugu
kigoro
kikota
kisema
kiumbu
kiurdu
kufuga
kutele
kuvuna
lisbon
marino
mendel
mhindi
minene
mipira
mofimu
mwenge
oyster
photos
pilato
pruitt
rufous
southe
travel
tukufu
urembo
uuguzi
waliou
wasaba
willem
##calidris
##fetamine
##fupishwa
##kleotidi
##magazeti
##serikali
##tafakari
afrique
akasoma
anaamua
anaimba
anarudi
bakhita
chadema
concert
desmond
dhabiti
fleming
handeni
hillary
hupanda
hupikwa
ilirudi
imetoka
keyshia
kikongo
kishapu
kiurali
masinde
materia
mvomero
mwanafi
pearson
pinzani
seattle
shorobo
taliban
tambuzi
uambuki
uchanga
wahanga
wakurya
wamalay
wangoni
wongofu
##cambridge
##dangerous
##ingiliana
##jamestown
##kadhalika
(0.000),
alipanda
amiloidi
inaundwa
japanese
kimakosa
kolumbia
kutunzwa
kuvumbua
magellan
mahututi
mawaidha
mkimbizi
montreal
mtolondo
nightjar
timbuktu
utegemea
utungaji
walemavu
zinahusu
##historical
##mashindano
##nganishaji
##washington
alipouawa
aliyetaka
chronicle
eukaryota
hitimisho
ilitakiwa
isiyokuwa
kaulimbiu
kibelgiji
kimapokeo
kuainisha
kujinyima
programme
socialism
ulitokana
waaminifu
wairienyi
waliotoka
walioweza
walipenda
wanaotaka
anamwambia
anayetajwa
archimedes
kichungaji
kinatumika
kuangamiza
kufikiriwa
kujiingiza
kutunukiwa
machapisho
nottingham
uliotolewa
wanahabari
alipomaliza
iliripotiwa
inabadilika
kianglikana
kiunganishi
kujadiliana
kushauriana
lililoundwa
mwanahabari
unaohusiana
usanisinuru
circumcision
inaunganisha
linalotumiwa
mlangobahari
walipendelea
zinahitajika
zinajumuisha
walioathirika
wanaopatikana
zilizotangulia
##ip
##λι
##ет
γ
##)".
##acp
##bab
##dem
##det
##dik
##fyu
##gul
##hog
##jea
##loi
##meh
##mwo
##nil
##nur
##oro
##vyi
##yom
##zoa
jc
rö
tü
##anyi
##beit
##bete
##chai
##chez
##chla
##core
##dare
##dino
##dith
##ezra
##fall
##feti
##fila
##ghul
##guli
##hall
##huma
##jara
##kawa
##lyde
##maxi
##mpro
##ndus
##nile
##nina
##pato
##peto
##pias
##pino
##quin
##ried
##rios
##rium
##rnet
##sono
##stis
##tela
##tell
##vili
##waji
##wald
##wano
0%.
::*
cow
dat
kiv
mik
neh
odo
oro
paz
ple
wes
yaa
##.0000
##alika
##asidi
##bumba
##capra
##child
##choni
##clays
##dusky
##ering
##folia
##gezwa
##gulus
##jazwa
##kinya
##kumbi
##kwino
##lipwa
##lland
##maika
##mbiwa
##mbulu
##mpung
##nende
##onale
##patri
##phine
##pinus
##produ
##pweke
##rango
##ranta
##rhino
##scana
##stral
##tembo
##tuita
##werri
##women
##works
##zteki
abel
acha
ando
arra
aspe
atti
bahi
bela
both
brom
brun
bull
cena
clou
dale
dean
dida
enti
foli
heat
jani
jung
kapu
keki
kien
kiia
kuzu
mack
mbwi
otta
pate
ribo
siti
tang
wave
whit
##-0000)
##ambalo
##cherry
##credit
##dungwa
##funzwa
##gereka
##grammy
##gusano
##kulari
##kuweko
##lamasi
##milies
##mtumbo
##pitiwa
##pretty
##ritime
##salaam
##shwaji
##ssenyi
##ssible
##stiano
##trogon
##ustria
##windwa
bache
basic
colin
commu
count
creek
eliot
farsy
gegen
hindu
hongo
hudai
jeupe
katka
kiaru
kigwa
kikur
killa
kipho
kumba
kwale
level
litur
loved
lumen
maine
mainz
miale
mrija
pablo
plata
pompe
quail
resto
siagi
tales
tenno
toure
uadui
ueire
ukoma
unity
##bitisho
##cariate
##ciation
##girango
##institu
##karagua
##llinger
##malayan
##ngezaji
##niarius
##okolewa
##pacific
##ssandra
##tegemee
##zkazini
andrei
anthem
bamako
bayern
benito
biafra
branch
bundes
chekos
comedy
cooper
corpus
cyprus
develo
elijah
episco
galoni
hakuta
hatima
holmes
hutaja
indigo
irving
ismail
katani
kibinu
kijeni
kikare
kikina
kikisi
kilalo
kiluwi
kusaga
kuzimu
kyerwa
libert
makwao
meridi
migawa
mikuki
modeli
motoni
mwashi
oksidi
oregon
stempu
usanii
uvuvio
vibali
wakaji
walezi
wameji
wisdom
##00000000
##andamana
##haririwa
##hesabika
##llennium
##nakiliwa
##ological
##picumnus
##tathmini
##thodisti
0000'',
0000''.
0:00-00
akipata
algiers
alikali
augusto
bahamas
blessed
brother
burrows
cushing
evening
fredrik
hucheza
hunting
ikaanza
imeweza
juliasi
kanumba
kigondi
kimambi
kimanga
kudhuru
kudondo
kufifia
kumbuka
kupikwa
kutende
magnifi
makleri
methali
mfugaji
miinuko
mkahawa
mwituni
nishani
njegere
peoples
perugia
prophet
resurre
section
slavery
spanish
trafiki
ubakaji
ubikira
unazidi
voyager
wailers
wakopti
wametoa
yanafaa
édition
##siriamali
anthropo
barbados
edizioni
encyclop
girolamo
hastings
hukamata
hukubali
identity
khomeini
kilipata
kugawiwa
linnaeus
manukato
matayari
mvumbuzi
namtumbo
nebraska
norepine
omdurman
paraguay
password
position
somethin
sunshine
tasmania
tegemezi
together
vimekuwa
wakitaka
walihama
walizidi
waserbia
washairi
##dharauliwa
##orientales
##rudiarudia
##wakilishwa
akiongoza
americana
archibald
brunswick
comprehen
haijawahi
hakupenda
hawapendi
inaonesha
kietruski
kikarniki
kiomotiki
kuajiriwa
kuchambua
mashemasi
mountains
mwananchi
napoleoni
planktoni
relations
santander
sengerema
shirikani
tafadhali
unururifu
vicariate
waliogopa
wamormoni
##tambulishwa
endometria
huzalishwa
ikiongozwa
iliyowekwa
imepelekea
inaongozwa
inapunguza
kijiolojia
kisulawesi
kuchekesha
kushangaza
kwingineko
percussion
tomografia
unaotumiwa
utegemeaji
waathiriwa
wagugunaji
wanyakyusa
##introduction
ilikubaliwa
shakespeare
thesalonike
unaongezeka
wakaanzisha
yanayofuata
zinategemea
championship
ilizinduliwa
motherboards
wachapishaji
walikimbilia
chekoslovakia
mwanakandanda
yaliyoendelea
yaliyofanyika
##eo
##lv
##mg
##oo
##ев
##ен
##وم
а
ح
##aza
##azi
##bed
##bol
##fii
##fts
##hin
##kya
##lug
##nyl
##opo
##oré
##rar
##rym
##rys
##urs
##xen
md
rü
ts
##..."
##ampi
##anon
##buck
##chis
##cile
##cled
##ctos
##doli
##dove
##fica
##gado
##gary
##gema
##gesi
##gris
##guar
##hapa
##hena
##khan
##kiro
##leaf
##loba
##lude
##maro
##mbya
##mtaa
##nawa
##news
##ngum
##nove
##pesa
##pura
##rage
##razi
##seco
##taba
##talo
##tuta
##type
##türk
##vali
##vine
##yard
##yule
##zuma
##–000
:00
aha
asa
bud
khi
lae
lib
mes
mul
nau
pue
quo
reg
reu
rod
rwd
til
vas
wad
wah
yet
##archi
##awali
##chozi
##ckers
##copha
##cyano
##diamu
##disco
##dokia
##econo
##endea
##fidhi
##gidae
##ishui
##javan
##lizia
##lumni
##meter
##mitra
##natal
##natus
##ndiyo
##nywea
##ptero
##reich
##roman
##sanjo
##skali
##tozwa
##átima
##–0:00
000°
agne
aloy
arms
assy
audi
berk
brat
copy
diji
duns
echo
emin
emir
feno
hajj
hype
ikio
jiko
kizu
labo
lipi
logo
muwa
nama
nana
noch
reco
ruga
ruta
shqi
siwa
spea
spek
suba
team
wald
wish
##avelli
##coming
##culata
##haraka
##huduma
##hyncho
##kotozi
##kraine
##mariah
##nsenti
##potewa
##riwaya
##teseka
##vation
##ventus
##vumbua
##zambia
##zindua
amman
angli
balbu
color
dario
hakua
heine
horse
ibara
kesha
kiala
kikim
kimin
kinge
kiton
kiuri
kiwan
klose
kunde
kuoko
mandi
meyer
migra
mnazi
norwe
parma
pinki
rally
saulo
shoro
stork
titan
train
trave
uingi
upapa
upata
uyoga
vilio
whist
willy
zinge
##ancient
##bishana
##bwagizo
##christi
##chukuwa
##dicated
##fontein
##lymouth
##onology
##shangaa
##upright
albums
ambuya
anania
asante
ashuru
chacha
chance
crista
hawata
hotels
ingine
intere
issues
killah
kisher
kraków
kumudu
kutoku
lonely
loyola
luanda
lusaka
mbwigu
monako
mosaic
mosque
mwembe
origin
owerri
polisa
rachel
reader
revolu
richie
scotus
uigaji
ukungu
uswizi
wajita
wamara
zebaki
##changiwa
##greatest
##kasirika
##lalamika
##tumbuiza
##wasemaji
akubali
bahasha
bovidae
chotara
coleman
economy
ekuador
emirati
epistle
gustave
hanover
harrier
hatujui
jakarta
kigrebo
kikanum
kimathi
kipanga
kisaami
kongoni
kugonga
kukojoa
kumpiga
kuogopa
kuponya
kutulia
kuzuiwa
lecture
looking
mabweni
mahatma
marmara
martino
matundu
message
nathani
nijeria
oceania
patrice
poverty
ravenna
spotted
thunder
toscana
tripoli
tunajua
uhariri
utatuzi
valenti
vatican
wachawi
wafuate
wakleri
walijua
wanaowa
wauguzi
wekundu
##.000-000.
##biography
##mazingira
##ngokokasi
##ngolstadt
##ostafrika
##wanafunzi
akafaulu
alfajiri
aliamuru
aurelius
babuloni
baseball
boniface
chapisho
columbus
detailed
faustina
greenbul
hakupata
honduras
ikitokea
kangaruu
kimashan
kinorwei
kipashai
kitamang
kubalehe
kuchipua
kuchonga
kuhimili
kuongoka
kutakuwa
kuvamiwa
kuwazuia
lalibela
laurence
magufuli
missenyi
montfort
norplant
pensheni
spiritua
thousand
umeimbwa
unaopita
wasiweze
wheatear
##-00-000000
##kihispania
##ographical
akaondoka
alifungwa
beethoven
haikuweza
hutazamwa
huwezesha
imetokana
inatolewa
kapadokia
kazkazini
kihuishui
kimelanau
kipunjabi
kumwamini
kunatokea
kuyeyusha
lombardia
maharamia
mfinyanzi
miligramu
minyororo
muonekano
newcastle
nikaragua
pathojeni
pembezoni
platinamu
polynesia
tahadhari
uliotokea
ulitumiwa
umechukua
unaotokea
unyonyaji
viashiria
wafadhili
wamehamia
wanaopata
##linganishwa
alifukuzwa
discussion
fiziolojia
hatimiliki
huzingatia
kikinnauri
kushawishi
kuwaongoza
martinique
mitsubishi
piranshahr
pittsburgh
tailorbird
uliojengwa
wasimamizi
yasiyokuwa
yatokanayo
##encyclopedia
##mtayarishaji
alihukumiwa
alipojiunga
iliyokwenda
inafikiriwa
instruction
kukabidhiwa
kupinduliwa
machiavelli
matayarisho
ulipatikana
zilizotajwa
##imetayarishwa
akiwakilisha
aliunganisha
ilichaguliwa
ilivyochorwa
unasababisha
walipatikana
wanaoendelea
ziliongezeka
imependekezwa
kujiandikisha
kushirikishwa
mwanahisabati
unaosababisha
wameambukizwa
yanayoonekana
##,.
##aw
##oc
##ww
##zü
##ís
##ān
##μα
ε
##ago
##any
##apa
##bah
##cet
##dda
##edu
##fik
##fta
##gaa
##hlo
##ich
##ign
##jee
##ldt
##lit
##luk
##nsk
##nux
##orf
##pso
##raa
##rev
##rug
##rva
##sem
##sol
##syn
##tec
##tui
##wau
##wri
##wua
(†
ig
##),''
##bers
##bira
##camp
##date
##dzor
##ello
##ever
##fiji
##foot
##gela
##ggle
##gues
##hita
##hout
##inae
##jiki
##josé
##juzi
##karo
##kidi
##kiga
##kola
##lopi
##lord
##mash
##mawi
##mele
##ndit
##nyin
##onis
##only
##pavu
##pink
##pium
##reke
##rela
##rgyz
##said
##shar
##shoe
##siki
##suri
##thes
##they
##tile
##toke
##ulia
##ulus
##unit
##vija
##wada
##weri
##wewe
##wind
%),
(0"
api
ark
awo
bed
ble
cdx
cmx
cox
dcx
fee
hus
khe
kir
kro
pit
##:00).
##aling
##baden
##banga
##bidhi
##bonde
##cairo
##ciali
##cobar
##ctari
##dunga
##faika
##funua
##gawia
##grave
##gupta
##hania
##hondo
##ideae
##kampa
##kendi
##kiita
##laziz
##leopa
##liaki
##lilia
##maris
##mente
##mezwa
##mhusu
##miani
##mings
##minia
##nabii
##ngini
##ngusi
##nisti
##phere
##pinda
##power
##sabit
##seman
##tated
##torio
##ttish
##uwezo
##verse
##villa
##vivor
##washa
##washi
##zanne
acth
arno
avec
baro
bawa
beti
dari
date
find
give
hayu
isha
kiss
kony
kopi
lavi
magh
mahu
mena
moen
ober
opio
penh
penn
plat
poet
punt
rami
rebe
reno
roth
seva
snow
sven
toma
umar
upon
ushi
wahi
waro
whar
wino
##bingen
##bissau
##enteri
##father
##hoteli
##kichwa
##lemuri
##makala
##mbiaji
##mulgus
##muundo
##mélies
##ngamia
##nyingi
##philus
##phoeni
##salimu
##shtuko
##staara
##strict
##tagena
##therow
##ttista
##vision
##zinger
agnes
akade
annan
aswan
ayubu
bacon
campo
cecil
confu
conse
dover
entry
genet
hauta
heshi
imeji
issue
jihad
kenny
kibib
kipeo
kitts
konde
linge
manmo
moyen
mwiko
ngapi
ninga
novel
nyigu
ofisa
omnes
paste
ptole
range
sanda
septi
succe
tamba
tears
teddy
wambu
wanji
wurde
##calypse
##fyonzwa
##haragwe
##hnariki
##jackson
##jacques
##lesheni
##lofsson
##mbolezo
##meshaji
##msikiti
##nghagha
##thusser
##triarki
##uturuki
0,000)
aegean
affair
batman
forbes
galago
giulia
gorkum
hekaya
ibadan
ilimpa
iliopo
imetoa
joyner
kaizer
kibada
kipoza
kuamka
kuhiji
kukawa
kurefu
leslie
louvre
lowell
mabega
marche
medici
mgando
muuaji
mwangu
nyundo
premio
publié
purple
relief
sandra
siddha
sidney
skrini
sophia
sounds
storch
tabibu
teachi
terror
things
towers
ufufuo
wamala
wanane
wanawe
winnie
within
##armenian
##danganya
##jumeirah
##kimbiaji
##kodishwa
##komeshwa
##stawisha
##suambegu
##takikana
##vilevile
akaishi
akaitwa
alijiua
alikuta
alumini
ameweza
biomasi
canonum
chennai
chunusi
current
densiti
disemba
huwinda
judaism
kalonzo
keebler
kifundo
kikorea
kimombo
krishna
kuamsha
kukuzwa
kumtaja
kumwona
kupasha
kwakuwa
longman
madeira
malkoha
matamko
mbunifu
missing
mtaalam
niagara
organic
reynold
savings
seviksi
teofilo
uhakiki
uhasibu
ukaribu
ukraina
ulibaki
unyonge
uongofu
uwekaji
wakidai
wakinga
wakiona
##enteritis
##esperanto
##mashirika
##middlesex
##provincia
akafunga
aliahidi
broadway
calabria
cylinder
extended
frederic
gegereka
hedgehog
hupoteza
hutembea
kamilifu
kariakoo
kirgizia
kisahani
kisarawe
kishujaa
klamidia
kuchezwa
kufyonza
kuitisha
kujihami
kusikika
lililoko
maonesho
mccarthy
miracles
mkufunzi
mkuranga
mshangao
pasipoti
plymouth
princess
resource
roberson
selected
shangazi
shingoni
solution
toulouse
unatumia
usiokuwa
wahalifu
wakaamua
wakaunda
wakisema
zinaanza
##sheherekea
(00/0000)
akijaribu
alifanywa
alihimiza
aliyeweza
anampenda
clitherow
financial
fransiska
helgoland
ikipakana
ilipoanza
imejengwa
inajaribu
kimaninka
kugawanya
kujiamini
kutofaulu
kuwaondoa
kuzitumia
mathemati
mpiganaji
mtazamaji
theolojia
ufinyanzi
ulichukua
umakinifu
walioanza
zilifanya
zilitokea
##caprimulgus
anayefanya
breviarium
containing
federation
haieleweki
heidelberg
inaashiria
kujumlisha
limepakana
missionary
pundamilia
shirikishi
utandawazi
vishawishi
vitakatifu
wakalenjin
walihitaji
wanyamwezi
yanahitaji
0000000000.
alilazimika
archaeology
ilinunuliwa
imegawanywa
inasisitiza
inayohusika
kibahnariki
kuangamizwa
kuchunguzwa
linaonekana
neuropsycho
philippians
waliotawala
##fanyibiashara
##phalacrocorax
dissertation
inapendekeza
inayolingana
instrumental
ukandamizaji
walivyofanya
zilizofanywa
comprehensive
halikadhalika
zilisababisha
0-000000-00-0.
administration
yaliyoanzishwa
zinazohusishwa
000-0-00-000000
####
##:-
##hé
##lä
##lü
и
##-0)
##.):
##ava
##cef
##dim
##fil
##fir
##gic
##gil
##kpe
##kui
##köy
##lew
##lix
##lms
##neh
##pic
##rac
##reb
##rla
##sme
##why
##zha
(#
('
(?
bd
dn
ht
hä
ie
ih
lü
mö
og
sø
##ashy
##baum
##buda
##bulo
##feri
##fted
##geju
##hova
##humu
##kung
##lski
##made
##mbon
##midi
##mise
##ndou
##osha
##pasi
##rugo
##send
##shel
##stok
##tale
##tian
##tien
##toba
##ttom
##upol
##uria
##vill
##vuna
##wika
##yogo
0%,
ape
ass
azu
bho
bwa
cpp
dui
gse
hue
ill
jin
kiw
kue
lap
mfo
mlu
mne
ode
oke
olo
oti
pac
pay
pod
rex
río
tum
vin
vis
zum
##after
##banda
##bandi
##bouti
##bukad
##ckley
##duara
##early
##float
##fthan
##grafu
##hamis
##human
##italy
##kuona
##lagos
##lamba
##leman
##likwa
##lings
##llier
##llium
##lopho
##masia
##multi
##ncipe
##ndong
##ngozi
##nikin
##pathi
##patie
##pazar
##phinx
##puted
##pygia
##rales
##ready
##reira
##ribus
##rosso
##rrell
##rtney
##slavi
##spoti
##starr
##sturi
##sweet
##taura
##thane
##tique
##topus
##tunda
##under
##vinje
"...
0.0)
00''
aden
atha
baka
bari
bean
brah
bres
bris
cabi
citi
derg
diet
eyez
foni
form
gili
guja
hute
insi
kane
klau
kwaa
lars
lyle
migi
modi
mota
ncaa
pako
reme
room
sapi
shag
shot
sich
tura
vizi
wien
##-00-00
##arboro
##blanca
##capita
##center
##connor
##ctives
##domini
##entina
##france
##gawati
##ghting
##heimer
##hingya
##hooded
##jeledi
##kakati
##llahan
##lletin
##marais
##meshwa
##mwende
##nafsia
##narivo
##ndarin
##ngazia
##nyeusi
##pathia
##prison
##ranean
##rating
##sandro
##sanywa
##series
##silver
##spalax
##sterna
##sweden
##thrura
(0.00
adowa
advan
alvin
anazi
basel
bella
belle
blige
campe
casta
comma
degli
faroe
glavu
hanoi
kaini
kiaya
kiluo
kulio
kumtu
kupwa
longo
madha
marke
mathi
mecha
mishi
mussa
mwizi
names
nundu
owlet
paula
petre
phnom
rabat
roots
rossi
rubin
scene
scrip
sheri
solar
spidi
thala
thika
tunes
twain
ubavu
ukeni
upoto
wacho
wahau
walsh
zodia
##beyoncé
##chakula
##chukuzi
##fthansa
##johanne
##kumbana
##nectari
##nyweleo
##science
##tendaji
##twaters
##vorbeck
''00''
00.0%,
ahmadi
akampa
amhara
angelo
anuwai
burger
charle
charts
clawed
crisis
enough
expedi
flower
gizani
gloria
goethe
guilla
helmut
huwezi
indica
jabari
kalori
kijito
kikono
kilema
kinili
kisiri
kitaga
kiwaka
kuwaza
kuzuka
leakey
lenana
levski
locust
makofi
malaya
marvin
masika
mawese
mbweha
mfiduo
milian
mitete
mvilio
nasser
ogooué
random
reagan
roland
romani
samani
stella
string
sussex
syrian
thrush
tobago
trevor
ukambi
umesha
ungamo
vijito
vilema
wabaya
wallah
wameru
wester
##bumbashi
##dhoofika
##haidreti
##kilatini
##kiongozi
##ondoshwa
##original
##silishwa
##wamonaki
akabaki
akipiga
akisoma
amepewa
asiweze
backing
banking
barnaba
beverly
cameron
chester
cropped
disease
dominic
hammond
iliyomo
itilima
kadirio
kikenya
kikurdi
kisanaa
kubakia
kuchoka
kumteua
kuungwa
kuwatia
magaidi
majilio
mapango
memphis
msajili
msomaji
mungiki
muujiza
mwakani
nguvuni
nusuoda
nyusika
pambano
pungufu
rihanna
seasons
seraphi
shahidi
shangwe
siliaki
skyline
subject
tendaji
utakapo
wamalwa
writing
##terranean
##tosheleza
0000/00.
00:0-0).
akazikwa
aliandaa
alifikia
alimtuma
alisaini
amepokea
applying
arranger
augustus
chechele
colonial
contribu
haitoshi
histoire
hupangwa
huzaliwa
ibrahimu
kiyoruba
kuelezwa
kugawana
kukaliwa
kuvutiwa
mangrove
matabibu
nacional
nazianzo
nikolaus
novgorod
obasanjo
personal
relation
reynolds
sikuhizi
sikusare
springer
tafakuri
trafford
unafuata
variable
vikiwemo
yatakayo
zelewski
##microcebus
##nectarinia
anachukua
beginning
ghostface
hawakujua
hufunikwa
huzunguka
iliyopata
imegawiwa
imepangwa
inayoanza
kalasinga
kiambishi
kidikteta
kiinitete
kumpeleka
mkimbiaji
wakafaulu
##arborophila
##dhibitishwa
##orientalium
amfetamine
bundesliga
changamani
copenhagen
fundamenta
hispaniola
huainishwa
husambazwa
ilihusisha
kitigrinya
kreditkort
kuainishwa
kupeleleza
kutiririka
maombolezo
revelation
ukomeshaji
walipeleka
wanauchumi
wasekulari
watersyari
akisisitiza
controversy
hutambulika
ikijulikana
ilisemekana
interactive
kuwahudumia
linaendelea
ulijitokeza
viwakilishi
waliokimbia
waliomfuata
zilionyesha
zilizostawi
fulanifulani
hufafanuliwa
intelligence
kuchanganywa
yalipatikana
zimepatikana
inaadhimishwa
lilichapishwa
norepinefrini
uliosababisha
nyurotransmita
gastroenteritis
##js
##lö
##md
##nz
##wb
##».
##ày
##ël
##σι
ä
##bag
##cam
##ctu
##daw
##gem
##gom
##iii
##jun
##jus
##kır
##lex
##muk
##ora
##pix
##rdf
##sub
##tze
##ult
##vyu
##wyn
##zuu
##zzy
kt
mk
qr
##''".
##aban
##alfa
##beat
##bori
##cane
##choe
##dear
##dhan
##dung
##eler
##fati
##ffen
##girl
##gree
##iana
##ichi
##inve
##iona
##isho
##ishu
##jang
##kang
##kede
##kent
##kuno
##kupa
##laga
##loma
##meti
##moko
##mphu
##nava
##nike
##pols
##pone
##ppin
##raga
##reba
##rima
##rops
##ruwa
##siro
##spra
##ssar
##vila
##visa
##wiji
buk
cai
dal
dji
eke
fbi
gat
gwe
hur
iyo
jai
lep
luc
obe
oil
pul
rha
saw
sup
umo
xix
yoh
##,000)
##barak
##cardo
##chant
##cinto
##clear
##death
##deshi
##dhami
##droma
##fibia
##fonia
##forth
##ganon
##gerie
##gnore
##guide
##iling
##ituni
##jouan
##kland
##koidi
##madoa
##matik
##mboga
##mford
##minne
##moder
##monds
##ngeri
##ngulu
##ntiki
##nyani
##nyevu
##pauri
##pesha
##pitwa
##qaida
##rctic
##revan
##ridis
##rugwa
##rushi
##sanaa
##shaba
##spira
##sweta
##terre
##tokos
##valen
##wanao
##witwi
##zquez
aali
ales
alie
aqua
atam
bark
begi
bera
bubu
buhi
burn
cash
dame
deli
dies
disa
dolo
dres
duha
favo
holt
iman
issa
khal
kiad
krim
mach
mall
malu
miza
mone
nako
nice
novi
peta
plea
rege
rojo
ruto
ruvu
sahi
sans
takr
tell
tepu
tiva
very
vivi
##ambazo
##anorum
##askofu
##bsburg
##budiwa
##bulini
##cillin
##counts
##crates
##enyaji
##flying
##footed
##forums
##gawana
##grouse
##kidnon
##kodiwa
##krates
##lornis
##mboldt
##mbuaji
##ogooué
##pasuka
##pitika
##rasmus
##ritisi
##samehe
##silini
##sukuku
##tarian
00.0,
0–00.
abdel
appia
blair
cause
centu
cepha
chako
cheke
civic
cluny
donda
drive
epine
farra
gantt
gupta
hagia
heath
heavy
huita
jules
kaspi
kibra
kipra
kisor
kitui
kivya
lenzi
leoni
logan
lucky
marsh
massi
miali
mikha
mpole
mzaha
namib
nancy
nanyi
ngele
niuro
novae
nyeti
nyuso
otter
paren
pasto
perth
rings
saada
sanga
scher
shiva
sites
swazi
taabu
tenga
thuri
trimu
uliye
unawa
vitae
waira
wakwe
yahya
yusuf
##coustic
##ecobank
##georgia
##holland
##husishi
##kilizwa
##lestero
##malaika
##mumunyo
##ndishia
##rolojia
##striped
##tambuzi
##thebiti
##tuachia
##tuitari
##xenopus
0000/0
00:00)
afanye
akidai
anemia
battle
celtic
cherry
coptic
duiker
falaki
femini
hakija
harbor
herder
hidden
hisani
hubert
iberia
jointi
kagame
kalala
kassim
kiasia
kibamu
kibiri
kikula
kimoro
kipara
kuibua
kukaza
kumtii
kuoana
kupoza
kuumba
kwingi
lauren
lawama
mackin
mcheza
medani
memory
mickey
mitini
monaco
mrengo
musuli
mwanam
native
nemato
papacy
presha
progre
pseudo
punjab
rhymes
rubens
salome
santos
scotia
simiti
soviet
spider
swichi
tuhuma
uganga
unafaa
unatoa
upinde
uthman
vihiga
violwa
vionjo
walioa
warsha
xavier
##dhinisha
##hamishia
##holstein
##independ
##kituruki
##kosekana
##makabila
##tegemewa
##tenstein
##thynomus
##tzerland
##uholanzi
##vanellus
##victoria
00-00).
0:00.00
akauawa
aliloli
anaenda
antigua
archite
baptist
brosnan
chapeli
columba
economi
fashion
flowers
gazelle
ilipiga
inarudi
kibabar
kifuani
kimasai
kimisri
kipaman
kishazi
kisiria
kitunda
kivinje
kumsifu
kusomwa
kuvukia
kuwaona
liberty
longido
mabenki
malambo
mapadre
miracle
nduguye
nestori
plutoni
refugee
seymour
shomoro
simeoni
stanton
strongy
unakuwa
vitanda
vitenzi
wakurdi
wanatoa
wanging
washika
waxbill
zekaria
zindiko
##julikanao
##jumlishwa
##laniarius
##machungwa
##orodhesha
##rembrandt
(0000-00
akajenga
akiingia
alichora
alipokaa
alivunja
animated
battista
biscuits
dijitali
director
doctrine
eusebius
fortress
giligili
goldberg
générale
hakuwahi
humphrey
jumatano
juventus
kapilari
kibepari
kudokeza
kukataza
kukomboa
kulindwa
kumpokea
kuzorota
madondoo
madukani
makavazi
mamboleo
mannikin
maongezi
mengistu
petrelli
plotinus
romantik
sinagogi
students
tahakiki
tunakuta
tunapata
ulifuata
veronica
visukuku
waazteki
wafranki
wafuatao
wakazidi
waliimba
walikuta
wanakuwa
wanatoka
wanazidi
yalileta
yalizidi
##anzishwaji
##staarabika
##teknolojia
alipoishi
alisimama
arlington
beautiful
cartagena
countries
ecclesias
economics
iliongeza
ilisaidia
kikaukazi
kikroatia
kitungusi
kujieleza
kukodisha
kumchukua
kumkamata
kumkubali
kumuabudu
maelewano
matambiko
mwashinga
tarumbeta
uingizaji
ulikuwepo
unafanana
vilitokea
wakitokea
wamefanya
worldwide
zinapaswa
##twatersrand
0,000,000,
adventures
alijipatia
bernardino
generation
geschichte
inaendesha
inawezesha
ingolstadt
kihungaria
kiluwiluwi
kipimajoto
kuhitajika
kuzungusha
liberation
linatumiwa
muongozaji
orientalis
patrologia
philosophi
sandgrouse
scientific
soundtrack
unaofanana
upatanisho
wachunguzi
wakinamama
wanaopenda
anashikilia
ijulikanayo
inajumlisha
kimalayalam
kiwakilishi
kugawanyika
kupatanisha
kutangamana
sparrowhawk
traditional
unyanyasaji
wanaohitaji
watangazaji
zinahusiana
0000–0000'',
conservation
kilichofuata
kuchelewesha
kusafirishwa
kusimamishwa
linalotokana
sammanslagna
testosteroni
yanayotumika
zilizojengwa
imewasilishwa
kutofautishwa
kuwalazimisha
linalozunguka
prescriptions
understanding
interpretation
mwanafiziolojia
##,”
##0/
##bw
##dm
##lb
##ås
##αρ
##اب
##رب
â
ø
##)",
##.0,
##abo
##bst
##dul
##fez
##gol
##hay
##hem
##mex
##mne
##mot
##moz
##noo
##raf
##ref
##são
##ula
##uso
##uya
##zoo
##èse
cl
kı
oo
##).''
##=000
##adua
##amin
##amka
##arab
##bado
##capi
##card
##casa
##cela
##cell
##cess
##chad
##chor
##dark
##ddin
##elle
##gain
##gome
##grad
##guan
##gura
##halt
##hiki
##hisa
##hoji
##indo
##jojo
##kame
##kate
##kiek
##kiha
##kisu
##kiya
##koya
##liba
##liwi
##malu
##mane
##niwa
##ntil
##offi
##peti
##pile
##ruti
##safi
##sity
##solo
##tapa
##thug
##tled
##toko
##umwa
##wara
##wazo
##xley
afc
bag
bey
bhi
cbs
dom
fac
few
hie
job
kep
kna
lyn
mrs
muh
ndp
sus
upp
uss
yan
zee
zem
##.000)
##akili
##billy
##boidi
##bomoa
##break
##brian
##chase
##chmia
##ctica
##diana
##dunda
##eline
##fanta
##found
##gesti
##hoopi
##khali
##leghe
##linus
##lunya
##marne
##olive
##pakwa
##paswi
##pelle
##pepti
##ppers
##rdian
##redio
##ronne
##rubai
##shehe
##skaya
##sorex
##ssica
##steve
##swati
##syste
##talis
##taran
##teaux
##tendo
##tomus
##tonio
##treni
##turdo
##uhuru
##vango
##vence
##wanna
##zekia
##örter
acci
aegy
albo
alva
amas
amei
bana
cucu
daly
dash
deal
deco
dube
even
femi
filo
fupa
gent
glau
halo
haut
ilyo
inyo
iron
josh
kiky
kubu
less
mans
mean
miga
miku
mori
mosk
myna
nano
newa
ouko
palu
pedi
rift
ruby
rupe
rusu
sali
sola
sono
teki
them
troy
vipu
waad
wang
wayu
wele
wide
yuri
zara
##/0000.
##barred
##berger
##cillus
##cumeni
##eneaji
##hodari
##jewish
##kersee
##kupeku
##lawano
##llanes
##maziwa
##mensyo
##mishmi
##mpagne
##mtunzi
##nagogi
##nasius
##nchini
##ngelea
##ngizio
##onyeza
##penici
##ramogi
##rosadi
##safari
##sahihi
##stable
##teresa
##tivity
##twater
##yohane
##íncipe
0-0-0
0000–
afyon
akimu
alois
alter
clyde
conci
coper
crime
custo
cyclo
dhima
euler
gonna
hands
hitti
jakob
kiata
kidya
kiede
kigow
kinne
kipar
kiwar
kuvua
legal
locke
mande
maría
mbavu
meteo
mlele
momba
msiba
mtete
nanda
nicky
njugu
omnia
palau
ponto
rabin
requi
ridge
riley
sabah
sandy
singh
spoti
stria
talib
uweza
vampi
verna
wallo
waovu
waume
xviii
zinze
##000-000
##biarusi
##christo
##ctorate
##genesis
##gorilla
##kiajemi
##mbaland
##nashara
##nderson
##ngamiza
##oneshwa
##plazimu
##plectes
##ssional
##ugiriki
##william
0,000;
00°00'
akwino
apollo
author
bakuli
bering
button
chloro
ciudad
forget
fourth
fumbwe
hamasa
hamira
havija
heroes
hunywa
huonwa
hususa
ichiro
ilkuwa
kaunti
kilala
kimada
kuelea
kupaka
kupepe
kusafi
ludovi
maasai
magoti
mareje
martyr
maruma
mateka
merere
mianzi
mikoko
mining
mwanao
mzushi
player
powell
prague
sifaka
tagged
tofali
toledo
tradui
tusker
umbria
unicef
upekee
uvinza
verona
vidudu
wanazo
yaliwa
##himilivu
##hitajiki
##hudumiwa
##kosolewa
##mabikira
##nadharia
##ographic
##panthera
##poromoko
##tajirika
(0.0%).
akazidi
akiitwa
alipita
artists
bittern
bokassa
climate
damiano
delgado
federal
gardens
hackett
haikuta
holiday
huundwa
iliuzwa
jerkins
keating
kibunge
kigbaya
kigelao
kigweno
kiisimu
kijamaa
kinyang
kisangu
kitubio
kiwambo
kuletwa
kupigia
kwanzia
lapwing
mafungo
mahsusi
mapitio
mercury
miguuni
mitende
mkalama
monsuni
mozaiki
msururu
mtafiti
mtukufu
muuzaji
mwaliko
nilivyo
olympic
panther
planets
sherman
sprache
summary
supreme
turubai
utekaji
vilindi
vulture
waalimu
wakisii
wamanda
wanjiru
willard
yungali
zinatoa
##hudhuriwa
##kulingana
##orientale
##turdoides
##tuwezesha
ametajwa
atkinson
auckland
cummings
eastwood
egyptian
estradio
evidence
huchagua
ilivamia
imefanya
jennings
jiolojia
kasinoma
kibakati
kikaboni
kipagani
kisarufi
kuhariri
kujikimu
kunyonya
kusajili
kusamehe
kuteleza
kwaajili
litakuwa
madoadoa
marianne
maujanja
mayatima
mholanzi
miungano
mshubiri
msisimko
problems
question
refugees
struggle
sudaniki
training
ufuatano
uhalisia
ulioanza
vinsenti
vitunguu
wainaina
wameacha
wameweza
wanandoa
wasabato
yaliyoko
yanaanza
##maambukizi
##mlazimisha
##zungumziwa
akaandika
akaelekea
akishinda
alitolewa
alivutiwa
anaandika
anaelezea
annotated
bangalore
centuries
chokoleti
dimenshia
duaradufu
frumensyo
heinemann
ilikwisha
ilipangwa
imeshinda
inafanywa
inahusika
jefferson
kampuchea
kifizikia
kiingilio
korobindo
kuimarika
kumwondoa
kusainiwa
kuzuiliwa
lavigerie
lilifanya
mythology
nyasaland
polisario
rembrandt
satellite
stevenson
structure
ukokotozi
uligundua
umejengwa
unatumika
vielelezo
ziliundwa
zinafanya
##changanyika
0000–0000,
akishiriki
alifafanua
alishawahi
ameshiriki
anastahili
aristoteli
changarawe
everything
huathiriwa
inadhaniwa
inazunguka
kinyumbani
kipimanjia
kuchanyika
kuridhisha
kushuhudia
kuwaruhusu
linguistic
mifululizo
mmojammoja
nyuzilandi
portsmouth
programmed
sosholojia
umeonekana
unalingana
upunguzaji
wakorintho
walielekea
wanakutana
wanasheria
yanatumika
zimetumika
zinzendorf
zuckerberg
alipatikana
brazzaville
collections
comparative
imeanzishwa
kudhoofisha
kufundishwa
kuharakisha
kumshawishi
kutosheleza
likaendelea
lilipelekea
publication
switzerland
uanzishwaji
waliohitimu
waliokuwepo
wanaisraeli
wanaohusika
wanaotafuta
wareformati
watangulizi
ziliandikwa
zimeandikwa
kidiplomasia
kizunguzungu
kufafanuliwa
lililotolewa
mwanamichezo
urekebishaji
walijulikana
yanayotumiwa
##akishirikishwa
inatengenezwa
inayohusishwa
meningokokasi
oystercatcher
vilisababisha
witwatersrand
0-000-00000-0,
zilizokusanywa
zilizopatikana
kinachopatikana
mwanasaikolojia
yanayosababisha
##0:
##bh
##bé
##gé
##mü
##rä
##vá
##zv
##να
##-0-
##.0.
##bly
##cey
##cyx
##fat
##hak
##ipo
##jim
##jwi
##kip
##mtv
##odm
##ors
##rhe
##rid
##rro
##stó
##uch
##vum
##woo
##yum
##γία
##ρος
##حمد
(:
0'
bé
bü
cx
ff
oh
vy
بن
##alaa
##apis
##auto
##bear
##beni
##beru
##buyu
##care
##cept
##club
##dade
##dano
##digi
##dona
##dubu
##dula
##enen
##falo
##fomu
##fujo
##garh
##geri
##hilo
##indu
##juna
##kera
##lene
##like
##lisa
##llii
##lolo
##luhi
##lxxx
##mian
##mike
##miwe
##molo
##muli
##mwua
##nnen
##nnon
##nona
##nuia
##pete
##quar
##quer
##reth
##rimi
##rora
##réné
##sano
##savi
##seau
##sers
##shie
##sifa
##siyo
##skar
##sohn
##somi
##ssam
##tesi
##tise
##tola
##tosí
##tour
##towa
##turu
##tymo
##umbo
##velo
##vena
##vère
##winy
'00
ans
aux
chr
cpu
dsc
ena
fid
gtc
ibe
iwa
kei
kun
kır
län
nah
ova
pyo
svd
tlc
yun
zen
##00.00
##agiza
##belle
##campe
##cator
##chati
##cheka
##culum
##dacty
##eagle
##fudhi
##garda
##glifi
##heart
##hidia
##hinga
##holla
##imari
##jinsi
##korea
##kosea
##kutwa
##kweni
##laide
##lesia
##mandy
##mburi
##metho
##metro
##mnara
##morus
##mpira
##munyi
##musta
##naped
##pagos
##physi
##ponda
##quest
##quino
##rakan
##ralis
##relea
##rkesa
##rossi
##scape
##shore
##sioni
##small
##ssano
##swift
##syria
##ttgen
##tundu
##veria
##vimba
##vista
##vitie
##vonne
##vunwa
##yeong
##yingi
0–00
abba
alha
aron
athu
atoe
axel
belt
buda
cold
coot
debe
elie
gogh
gulf
hear
huka
imei
jada
jahr
jezi
jive
joey
kang
kovu
kush
laws
lock
luke
mero
much
note
oder
omni
prio
reti
rijn
sese
shel
topo
tuva
ufyo
uruk
uzao
vigo
voca
voli
yves
##/0000,
##andean
##batiza
##biblio
##brador
##buabua
##chanan
##chanya
##chapel
##chinja
##cially
##densis
##desert
##gerald
##jeraha
##jiliwa
##kamati
##kanuni
##kelezi
##kireno
##limali
##lipili
##majina
##mtindo
##mwacha
##mwagwa
##ndaaji
##ndrome
##nywewa
##ombezi
##phyrio
##shisti
##shusha
##steato
##stries
##studio
##uswisi
##verein
##vitabu
##viungo
(00).
adeno
adria
aliia
alioa
ambon
anamw
anaya
angle
annua
asije
aston
beati
byrne
essay
etymo
ezana
fight
filan
focus
frati
genti
grimm
guest
hamna
kanye
karua
keita
kiadi
kibol
kibwi
kiida
kipha
kochi
kuzua
lange
laozi
macau
masta
mateo
matsu
mbeki
mgodi
mieli
mlalo
monro
moran
mpigo
mtiti
mysti
naacp
ngagi
omega
osaka
parva
penny
prize
qaeda
rabbi
ricky
sadat
saumu
spear
talmu
tambi
tambo
tamil
tando
tempe
tonga
tracy
tufaa
tyuma
umeng
unayo
vwawa
wache
wahan
##abudiwa
##chested
##chicago
##erythro
##gularis
##kaisari
##kaizari
##kunishi
##kunoidi
##ndikizi
##ngiliwa
##nyongwa
##nzibari
##ondolea
##profesa
##rdofani
##somalia
##ttenham
##utawala
##waambia
##zeituni
0:00-0
achebe
akzoni
always
andiko
aureus
baruku
brière
bronze
called
entero
flickr
fununu
haruni
hepesi
huxley
kalamu
kepler
khamis
kibiti
kibuyu
kijava
kikuru
kitara
kiwaru
kiyaka
kufeli
kumasi
kumuoa
kumzaa
kuonja
lecrae
maboma
maboti
mahaba
majaji
maliki
manase
mapili
maquis
mariam
maskat
mbochi
mikufu
moskva
mswaki
mtoaji
müller
naweza
nicole
nissan
progno
reform
rununu
season
steato
stefan
strath
torino
truman
ukaidi
vilipo
waasia
walipa
wamiao
wattle
wazimu
weimar
yapata
yoweri
zenawi
##achishwa
##chemraba
##katoliki
##kiandika
##matatizo
##selassie
##shangaza
##tangazia
airline
alberta
alitiwa
allison
amfibia
anauawa
andrews
barnard
bengali
bukombe
caprivi
carling
carroll
claudia
complex
continu
cortona
crested
daimler
enrique
eugenio
everest
everett
flavius
formula
founder
huhamia
ilidumu
imepewa
integra
itakapo
kabinda
kibamba
kielezi
kikinga
kitalii
kufufua
kufugwa
kusagwa
kuwekea
malenga
maskani
masokwe
mexican
mnunuzi
muumini
pasteur
pelican
presley
robbins
seventh
sfinksi
showing
sisters
theater
tulivyo
ueneaji
uhamaji
umeanza
ushungi
wagweno
wakelti
wanakaa
wanyika
##butterfly
##christian
##cumenical
##euplectes
##pungukiwa
##tamthilia
##ternative
00000000
000–000,
akifuata
albrecht
anaeleza
angelico
approach
archives
bacteria
caroline
chunguzi
cultures
features
gabrieli
guardian
halihewa
handbook
holdings
honorius
huhusika
hukohuko
ikolojia
keyboard
kiberber
kigadaba
kunyimwa
kunyunyi
kupingwa
kurudiwa
kushikwa
kusifiwa
liliitwa
mabehewa
magereza
maombezi
mariupol
marsabit
marumaru
masikini
matthias
melanini
mfuatano
mmumunyo
ndembezi
response
richmond
scholars
thornton
uchukuzi
uliowahi
uliwekwa
unaingia
veracruz
vidukari
vipashio
wainjili
wakongwe
wakosefu
waliodai
watumizi
yanaitwa
##dictionary
##spectacled
##tananarivo
##translated
akichukua
alihudumu
alimfanya
alipokuja
alitakiwa
althusser
anaongoza
bibiarusi
clarendon
companion
hiroshima
imefungwa
imetumiwa
inayotoka
kimakhuwa
kimarkesa
kimkakati
kufupisha
kulifanya
kumpindua
kunyongwa
kuridhika
kurithiwa
kutengana
kuwalinda
longitudo
mccartney
mwamerika
mwingilio
newspaper
nusungeli
pingamizi
swaziland
tandawala
telegraph
ukatoliki
ulikwisha
wadhamini
waendelee
wakajenga
walifunga
wiesbaden
worcester
yanatokea
##brazzaville
##dhihirishwa
##mahabharata
aliposikia
bathynomus
electronic
fungunyota
huchukulia
hutiririka
indigobird
kalsedonia
kumtegemea
kumwagilia
kuombaomba
lilitumiwa
magallanes
manuscript
mozambique
sacramento
strasbourg
unafanyika
vichochezi
wakaapweke
wakifuatwa
waliopinga
aliruhusiwa
anasemekana
athroskopia
hukiangalia
iliondolewa
iliyochorwa
inafahamika
inayohitaji
kemotherapi
kijukunoidi
kikordofani
kukubaliana
kusikitisha
likiongozwa
nyukleotidi
springfield
vinavyoitwa
walitegemea
yalionyesha
yaliyotajwa
yaliyowekwa
zilionekana
alipinduliwa
imegunduliwa
kabohaidreti
kushughulika
umesababisha
ustahimilivu
waliainishwa
wamethodisti
wapentekoste
imetengenezwa
kusambaratika
kuwashambulia
kuwaunganisha
vinavyotumika
waliojeruhiwa
walitengeneza
zinazoonyesha
zinazozunguka
alipochaguliwa
walishirikiana
hujishughulisha
iliyounganishwa
nyurosaikolojia
##0}
##av
##pv
##rz
##tà
##çe
##èn
##öy
##şı
##ос
##arp
##ati
##bom
##bpd
##eme
##fit
##gru
##gwi
##hcr
##hey
##kse
##nay
##rku
##rte
##tse
##usu
##xia
##zou
##zya
##éta
-0
aw
eo
fé
lö
##."''
##:0).
##alba
##anne
##asai
##baji
##bano
##berd
##bite
##biwi
##bris
##buff
##came
##cani
##chwe
##cias
##diya
##esec
##eyed
##faza
##ffra
##fute
##galo
##gash
##gevu
##giri
##gium
##goli
##gono
##gore
##gret
##guin
##guta
##jawa
##jero
##jona
##kiwe
##kker
##kobo
##kova
##last
##late
##lati
##liae
##lito
##mias
##mpho
##namo
##ngin
##ngoa
##nist
##nite
##oslo
##pare
##peta
##pion
##piri
##plus
##ppes
##pseu
##pter
##rabi
##rade
##rgis
##shes
##shii
##shot
##snow
##then
##tico
##toed
##tzen
##upto
##vall
##vity
##vuja
##vyuo
##yasu
##yler
##zeni
##zone
00(
aby
ake
ast
aud
ehr
hae
hio
ife
iss
jee
lxx
nzo
rau
sax
suf
tae
tak
tek
vid
vun
xzi
##achia
##anywa
##asali
##berna
##chang
##chers
##chile
##cocci
##daily
##dated
##deaux
##diria
##eliza
##ender
##ensya
##entia
##jambo
##janua
##karya
##kosoa
##kwale
##lagus
##laire
##large
##ldayo
##mbika
##mbing
##mboli
##mbula
##mjini
##mwani
##ndone
##ngalu
##ngoti
##nguvu
##ongoa
##plane
##pyrus
##ranki
##respo
##rgizi
##saiti
##saray
##sells
##sheba
##ships
##sholm
##slava
##sound
##ssier
##stars
##stoma
##strea
##tabia
##tholi
##three
##tione
##tomia
##ushwa
##uteng
##vegni
##yange
##zarro
##zbeki
0:0,
adol
ajax
alme
ameu
aspa
atro
bafu
bild
bloo
bohr
burj
crop
dawn
dete
elli
embu
erie
escu
fast
fres
gebr
icao
igor
imam
kapo
keys
kiak
kicu
kior
kize
lago
león
mbiu
mesa
monk
mous
move
must
muta
muzi
niwe
nubi
opus
qing
rein
ruiz
sabi
sima
sote
stei
tewa
tope
ubia
uele
waan
wari
wash
wife
zero
##_0000.
##basili
##berlin
##bishwa
##bolewa
##caster
##cercus
##coccyx
##commer
##demetz
##doctor
##fulica
##google
##heimat
##kanada
##kikosi
##kinder
##laware
##malawi
##mikopo
##momela
##moniae
##mwanzi
##nclair
##neider
##nguaji
##nische
##phrine
##querel
##rugika
##shanti
##shtuka
##takasa
##thrush
##tikisa
##uhindi
##upendo
##uptown
##urundi
000''
adabu
batis
betha
ceres
chadi
conwy
could
curie
césar
dakar
delle
devil
dirty
elvis
feast
fidel
frost
fungo
gairo
gibbs
gredi
grove
hagai
hanni
horst
hulka
huvaa
impor
jonas
jorge
kiamb
kibru
kihmo
kiina
kikui
kipro
kiuma
krebs
lance
lazio
lithi
lover
maran
mbari
mckin
metal
mreno
mwovu
named
ndiwe
nkuru
nuwas
plant
plies
prime
proge
qaida
rajab
refle
reign
repor
santi
shell
start
steel
these
tombo
value
viola
wrest
yanga
##afrique
##america
##andaman
##arabian
##armenia
##bandari
##bolivia
##entieth
##forever
##funguka
##geleaji
##genetta
##gonjeka
##haramia
##jengeka
##matukio
##mombasa
##ongokea
##patrick
##pengine
##riensis
##shemasi
##sogezwa
##somesha
##spitali
##tanishi
##ttering
##versity
0:0-0;
aiesec
alumni
appiah
azania
bamboo
beyond
brooke
bunton
credit
detail
dragon
eduard
escape
factor
fellow
fonimu
freina
fugees
funguo
fátima
gabrie
garner
gerard
gibson
griffi
gunung
hazito
higher
homini
hufika
hupiga
imenti
jacobs
jawabu
journa
kibaga
kidude
kifali
kikuni
kimber
kingad
kubana
kumeng
kunene
kunusa
labour
larter
likaja
maroko
matupu
mchuzi
mikebe
monkey
nchani
nyumbu
obinna
paundi
poetry
potosí
powers
radebe
rasimu
rooney
sancta
schaff
singer
sodium
spears
sévère
talbot
tatata
titani
tuliyo
uliowa
undugu
uondoa
vikapu
vizuia
wabena
walili
wanaom
warsaw
wasiwe
##atlantic
##fungulia
##funuliwa
##gharamia
##hibition
##hudhurio
##language
##strephus
##tatuliwa
##waathiri
##winyguan
##zingatie
000–00.
aaliyah
akafika
akaomba
akawapa
alivyom
anapewa
anasoma
atatürk
barbari
bennett
bolivar
bristol
burning
captain
cassini
charter
cranach
dorothy
duhalde
hezekia
iliisha
inaenea
inafika
intelle
karmeli
kathari
kibalti
kidinka
kihausa
kimaria
kinyiha
kipihom
kisafwa
kisotho
kubebwa
kubomoa
kuinuka
kutilia
kuzeeka
lafudhi
legends
marilyn
mashoga
members
mpendwa
mustafa
mwangwi
mwatuko
mwezini
nationa
occiden
opioidi
saidizi
sankara
strepto
sulfuri
tumbusi
ugolino
uhodari
ukataji
ukerewe
urasimu
vilkano
virtual
vodacom
working
yerevan
zilizon
##beautiful
##fuatiliwa
##jiografia
##ratislava
(00,000)
aliombwa
ametunga
analojia
apostles
beaufort
brisbane
cathedra
chestnut
chlorine
dominica
elofsson
francois
habsburg
haviwezi
hilohilo
huelezea
hutambua
ikitumia
iliimbwa
ilishuka
imefikia
inapanda
inatunza
kichagga
kikatili
kilekile
kimaasai
kimariki
kiserbia
kishairi
kuenezwa
kugeuzwa
kuwavuta
lilipewa
liturgia
majeruhi
makohozi
malekula
masekela
mudavadi
muhammed
nyengine
paradiso
pigmenti
planning
regional
rousseau
salzburg
security
sprachen
syndrome
synthesi
tunguska
uliimbwa
ulilenga
universe
vinaitwa
vyenyewe
wakipata
walengwa
walizoea
wanakufa
wanunuzi
waziwazi
yalienea
yatakuwa
zilifika
zinazidi
##jaainishwa
##mpilesheni
##ttgenstein
alifuatwa
alipoamua
anaelekea
anatembea
beaumaris
dedicated
huashiria
ikielekea
ilimfanya
iliyoweza
inayopita
josephine
kiberawan
kiliundwa
kipolandi
kiunzikuu
kivinjari
kivumishi
kutwaliwa
methodist
mwanaanga
ndegeputo
northwest
paperback
raslimali
rochester
scrovegni
sentimeta
siddharta
suleimani
tottenham
unaruhusu
wachoraji
waetruski
walifikia
waliozoea
wamuawiya
wanaoitwa
yaonyesha
zilifuata
zinazofaa
(000-000).
akitangaza
alipoingia
associated
christiaan
connection
expedition
hakukubali
huandaliwa
imefikisha
kihisabati
kihmongiki
kimakusudi
kinafanana
kinaganaga
kisanskrit
kiutendaji
kuchamsitu
kukataliwa
kumheshimu
kupokelewa
kuwakamata
majirajoto
menginevyo
penisilini
uhamishaji
vertebrata
wakimbiaji
wanakubali
waongozaji
yalitokana
##phylloscopus
amejulikana
buttonquail
certificate
huambukizwa
ilitazamiwa
ilivyotokea
iliyofuatia
inayoelekea
kaliningrad
kiesperanto
kinaonyesha
kipalestina
kufundishia
magnificent
nawaambieni
parrotfinch
pentecostal
unaotegemea
walichangia
walivyokuwa
wanafamilia
zilizoundwa
zinalingana
0-0000-0000-
aliheshimiwa
commonwealth
cuckooshrike
freinademetz
huchanganywa
imechukuliwa
kinajulikana
kudhibitisha
senegalensis
trackmasters
christianorum
iliyoandaliwa
iliyopitishwa
inashirikisha
kigunwinyguan
kinachotumiwa
unaounganisha
walioandaliwa
walioathiriwa
waliohudhuria
yanatofautiana
zilizojulikana
zinazohitajika
linalochapishwa
##.'
##.`
##bk
##fj
##fl
##ix
##tl
##yt
##yy
##|"
##ğı
##ρο
##ер
##си
ي
##)).
##aby
##ade
##ain
##aly
##ats
##bho
##bop
##byo
##cit
##dho
##dsm
##ego
##etz
##eve
##evu
##exi
##fol
##fun
##gau
##huu
##ike
##jos
##joy
##kik
##lbe
##lur
##msu
##mui
##ndé
##nig
##nsu
##pou
##rib
##rig
##uto
##vpu
##wak
##yev
##zes
##zli
##ône
0}
ağ
eb
fk
gh
hö
mv
mä
pc
xl
ре
##''",
##...)
##00.0
##also
##blev
##bott
##carl
##case
##choa
##cinc
##cion
##clay
##codi
##cone
##cree
##dara
##docu
##ents
##enus
##full
##geta
##ghty
##glio
##graw
##heel
##hira
##houn
##hoya
##iraq
##jita
##juan
##jung
##kelo
##kizu
##kose
##lien
##lita
##llop
##loki
##mbec
##melo
##mily
##monu
##muha
##mzee
##nasa
##ndya
##nera
##ngus
##nish
##oana
##oure
##pero
##reni
##resi
##rigi
##rken
##road
##rojo
##saxi
##seti
##sset
##ssow
##stos
##stur
##suto
##tach
##tamu
##tene
##tern
##thyl
##triz
##trum
##uawe
##voro
##yugh
##ınar
acu
ate
bwi
daf
deo
epp
fré
gum
hcv
hut
kni
liz
loc
mck
msn
nim
nun
nuo
pub
rhe
sec
sms
##_0000
##ardea
##batis
##binti
##bruck
##chino
##choli
##colou
##compa
##croft
##denis
##dhila
##didae
##epuka
##ganga
##ghter
##haema
##ingie
##iyang
##jenti
##klabu
##ksini
##kwaju
##mbeya
##ndora
##nembo
##ngale
##ngoka
##niger
##phrem
##proce
##rella
##secre
##segun
##shari
##shoni
##skara
##spare
##stand
##still
##sunda
##tenti
##throw
##tunji
##umiza
##vpubs
##wassa
##ygens
##yombo
('':
*00.
0-0)
abdi
abha
acts
aids
aire
alco
arne
azza
baek
baja
bizi
cork
cost
deck
devi
doha
ecli
egan
ella
feat
galv
gill
graf
grow
hale
half
html
hupo
iddi
idol
igbo
jake
jojo
kath
kizo
koca
koka
lamb
lobe
luca
luku
lund
meja
mobb
msta
muna
nilo
omer
pati
poda
reng
scra
sena
sint
sito
tama
ther
trab
tutu
vani
veto
wawo
waye
yeni
zapu
##adhibu
##albert
##before
##biteri
##canada
##chryso
##ciones
##daniel
##fanani
##fariji
##fisema
##graphs
##herufi
##kaburi
##kumene
##lasian
##madawa
##magari
##metali
##msingi
##mvutia
##mwendo
##ndalia
##ndheim
##ndikia
##phagus
##plasmo
##redith
##ribiwa
##sayari
##second
##shumaa
##standa
##sticus
##summer
##tensis
##terior
##termes
##trevor
##ungama
##verage
##waukee
##zishwa
00,00
afisi
aishi
aliki
alope
amaru
annie
aondo
aweza
baali
betty
billi
bunny
caeru
carbo
casti
chozi
clini
condi
crazy
damon
daugh
derek
diane
donna
egidi
erwin
follo
gould
hague
harun
ibaga
icono
ideas
idris
iliku
inver
irish
isiwe
kandi
katia
kemal
kiava
kigad
kikat
kimoi
kiota
kisaa
kisam
kitày
kuaga
kuoga
liech
ligue
limao
limau
limfo
limpo
linux
lodge
logic
mikia
milio
mkuki
mrema
myers
negro
nelly
nevis
offer
passa
penta
print
rhein
roche
rumba
saiko
shaha
shame
shoka
sisto
songo
spine
stark
swamp
tendi
tomas
total
tribe
wende
would
yahoo
yoshi
zheng
zilim
##capital
##choerus
##collins
##colonia
##curbita
##fishaji
##freedom
##johnson
##kinanda
##korongo
##lotelli
##manabii
##mapenzi
##muachia
##niambia
##pinduzi
##ppement
##reketwa
##romagna
##rukombe
##stinian
##stralia
##tauraco
##utafiti
##versary
##without
(00.00
00-00)
abyssi
akiona
antena
audrey
bolton
boriti
bossow
chiang
cosmas
crater
critic
davies
doctor
dondoo
episte
equity
finali
friday
genova
havina
hitaji
huwepo
immuno
inakua
inayom
jungle
kakake
khaled
kiatta
kibiao
kibodo
kicham
kihuon
kiigbo
kijita
kikaba
kikata
kikoda
kikoia
kikoli
kilaka
kilawa
kilewo
kimono
kimuji
kimuyu
kinamo
kipana
kitale
kitamu
kiyali
kuiper
kunawa
kuzima
kuzipa
langen
lingua
lumpur
mariga
metamo
mikali
mizuki
moreno
muhula
natali
padova
pakomi
palmas
police
polska
radama
rahman
regent
retina
rivers
sergei
sharpe
shrine
statue
stepha
tamale
throat
tucker
tukuyu
tundra
ubwana
ulitoa
uraisi
vifusi
wangwa
wasuni
wilder
zemlya
##baptiste
##chochewa
##coloured
##deutsche
##fufuliwa
##jaribiwa
##jembamba
##kuzaliwa
##maanishi
##mapigano
##muungano
##peration
##rejelewa
##rejeshwa
##saxicola
##sulawesi
aljeria
amekuja
amerigo
anazidi
anjouan
aspects
baringo
bonaire
boobook
bradley
brepols
bustard
camping
cartoon
cecilia
changed
chantal
circuit
colonel
crocodi
daniels
everton
filimbi
gardner
garland
giacomo
govpubs
gujarat
hapendi
hufugwa
hugeuka
ifakara
ikapewa
inabidi
inayoji
introdu
jeshini
joachim
kalambo
katumbi
kendall
kiangal
kibosho
kiganja
kikucha
kikumba
kimnong
kimuria
kipenan
kiphowa
kirasmi
kiwatut
konstan
kujiona
kukosea
kushona
kuteswa
kutoboa
larossi
luckett
mahenge
manfred
maredio
martyrs
mashule
mielini
mikhail
moldova
monduli
montana
mshumaa
mwamuzi
natasha
nebukad
nyachae
odyssey
paskali
pizarro
reality
related
saadani
saitoti
samburu
santuri
sapiens
schmidt
shupavu
tanzani
uchache
ukomavu
urukaji
vampire
viranja
viridis
virunga
wahunni
waitwao
wanajua
##cisticola
##iliyokuwa
##kardinali
##porphyrio
##rudishaji
##tangamana
##tanguliwa
##wikipedia
(000–000
000,000)
aendelee
aliibuka
alipatwa
aliuliza
alivyoji
anakataa
antibodi
bernhard
buchanan
budapest
claudius
dialogue
earthqua
ethanoli
gliadini
heiligen
homélies
imetokea
immanuel
inatosha
jaramogi
kibareli
kibuyang
kidukari
kimahaba
kimasela
kipahari
kiroglai
kisambal
kiujumla
kiyangum
kubariki
kugusana
kulelewa
kulipuka
kumuomba
kutakasa
kutishia
kuwashwa
maelekeo
mamajusi
marakwet
masomoni
megawati
missions
mwindaji
philippe
príncipe
teaching
theologi
ukimbizi
ulioenea
uondoaji
upandaji
voliboli
wahitimu
wakiruka
wamaroni
wanaanza
wanapewa
yanayowa
zimeanza
zinatoka
##girlfriend
##sellschaft
##usambazaji
akakutana
aliachana
alifungua
alijaliwa
aliyepewa
aliyopewa
amefariki
androjeni
balotelli
brunhilde
collected
cornelius
dillinger
episcopus
geography
haitumiki
hulingana
iliyopewa
katherine
kidesturi
kiguiyang
kikadazan
kilitokea
kinicobar
kipalaung
kujisikia
kurekodia
kuyafanya
linaundwa
mbelewele
mchemraba
milwaukee
mnyampala
pakistani
pituitari
riverside
thuringia
timbaland
transport
ulimfanya
unaotumia
waadventi
waberberi
wametumia
wamoravia
wanajamii
wasioweza
##cephalophus
##konstantino
0000–0000)
akionyesha
alessandro
aliapishwa
alijitolea
alimwambia
alipofanya
ecumenical
enterprise
geographic
ikiendelea
ilishiriki
iliyoganda
imefunikwa
inakaribia
kikallahan
kipalawano
kiqiandong
kitagbanwa
kujiepusha
kumwezesha
kupanuliwa
kupasuliwa
lubumbashi
mahudhurio
mapendeleo
matetemeko
nyuzinyuzi
protection
silvestris
walimfuata
waliopaswa
waliowekwa
yalifanywa
yaliyopita
zilifanywa
zilijengwa
zilikuwepo
zimepangwa
agriculture
alirudishwa
alishindana
ilijumuisha
iliyochezwa
iliyotungwa
inajitokeza
kujumuishwa
lilifanyika
lilishindwa
linaonyesha
mchapishaji
viliandikwa
wakashindwa
yalionekana
##inayojulikana
alihitimisha
civilization
hazipatikani
hubadilishwa
ilichapishwa
kulturverein
kumlazimisha
spirituality
unaohitajika
yanayoathiri
zilizopangwa
zilizotumiwa
##phyllastrephus
documentation
ilivyoonekana
iliyokubaliwa
inasababishwa
liechtenstein
lililofanyika
unatofautiana
walibadilisha
wamegawanyika
yanayozunguka
zinazotegemea
likabadilishwa
reconstruction
vilivyoandikwa
kinachohitajika
neuropsychology
yaliyosababisha
##"(
##%,
##fk
##gö
##hd
##rā
##wr
##ım
##λα
##та
##ام
##ين
##00'
##bap
##boo
##cak
##dhe
##eda
##fax
##fea
##fel
##git
##hao
##het
##hgi
##hmi
##ivi
##lek
##lez
##luc
##mem
##mya
##niu
##nte
##och
##orn
##pam
##puo
##rir
##rub
##sap
##sce
##sle
##sli
##ucb
##vle
##vue
##wny
##www
##ège
((
mb
nt
uh
zy
##acán
##addi
##afro
##allo
##apus
##boto
##burt
##cava
##cero
##copa
##cuin
##egre
##fael
##fala
##fuzi
##gaya
##gery
##gile
##gory
##greg
##grus
##java
##jesi
##kemo
##kigu
##kiso
##kswa
##kwea
##leod
##lexi
##loss
##matt
##miya
##mpia
##msah
##mung
##naro
##ndet
##neme
##nuba
##over
##pesh
##piti
##pose
##ptia
##rala
##rals
##rans
##rari
##rito
##roux
##rtle
##rway
##saya
##scus
##soka
##sole
##tega
##teng
##thea
##thor
##titi
##toma
##tupi
##ulde
##usen
##vani
##wave
##weru
##wiri
##wler
##xiko
##yona
##yoro
##yula
##zeru
##zung
##лика
00'
atp
avo
bec
bjø
bop
cua
cze
due
fen
gin
gle
gut
gör
hoi
ibu
ins
moe
nka
ono
rpm
sek
sem
tad
wow
الس
الل
##alpha
##bunge
##burne
##conne
##crest
##curus
##drian
##déric
##evara
##fikii
##fongo
##front
##fuaji
##gemeo
##ghton
##gmata
##imani
##jalie
##juani
##kichi
##kwaru
##lakes
##laris
##lengo
##lianz
##lipia
##marga
##mbavu
##mbera
##mbley
##mbour
##mmler
##monta
##mwali
##ndaki
##nesha
##ngoja
##nguni
##nziza
##paper
##rgent
##rikia
##sanzu
##senga
##sions
##sosto
##ssler
##telli
##thang
##theni
##tuari
##vious
##wford
##xerus
##yandi
##yovin
##λογία
(0,0
akiu
akon
arca
aviv
azma
bald
beha
boot
bren
buka
chré
cori
dadu
enki
eski
espe
evil
expe
fact
fate
fene
fern
fide
fila
fill
fora
futa
gibb
gobi
gofu
hivo
huna
kier
kola
kole
kool
kuin
lugo
lusa
mahi
mane
mite
moti
movi
muha
nati
nino
nure
occa
pere
pink
pons
puff
reje
rite
rudi
sani
saul
seif
spla
spot
sufi
tave
teil
thin
tres
trio
tuka
utao
utta
xavi
yamo
zanu
zenu
محمد
##arusha
##aythya
##badala
##banian
##banken
##boreka
##caisse
##cartes
##chichi
##chonge
##circus
##comple
##cornis
##cripts
##daland
##dalene
##dalili
##dallas
##deater
##derick
##edward
##faisha
##fanywe
##global
##hojiwa
##jarati
##jordan
##kadiri
##komeza
##metrio
##modern
##nataka
##ongoze
##refuka
##ringen
##rornis
##salaba
##saliti
##social
##sogeza
##sthene
##taurus
##thorax
##tibika
##tumiwi
##twalia
##ufanya
##uvelle
##verlag
##wenzer
##yevski
##ázquez
(0,00
000,0
aidan
amosi
anony
astro
ayman
benut
bloch
bragg
brain
burns
catha
crown
cyano
cypri
dante
dengu
diddy
eight
essen
estri
eusta
flash
fukwe
galla
gemma
gille
grave
grise
gross
hafez
hekta
hondo
hovyo
huang
jinja
juisi
julio
kiiba
kikam
kikol
kisom
kitri
klein
kumwe
kyrka
lilim
linam
mabli
maini
mbale
mhuri
mioto
mitte
mkato
motor
myeyu
mziki
nehru
nigra
notre
nwapa
ombwe
orion
penzi
pizza
purpu
rough
sylve
taita
teksi
theme
tigri
touch
touri
trout
trump
tuber
ukulu
utasa
vijay
vinyl
wagon
yalim
##chiriku
##chuliwa
##country
##cycline
##didimia
##egretta
##faranga
##gangsta
##gioenas
##ketezwa
##losofia
##ltimate
##majengo
##mission
##mpanzee
##muagiza
##mwagika
##ngushwa
##pindika
##rejesha
##shikiza
##shushwa
##sidered
##sindano
##sisimua
##ssement
##thornis
##tufikia
##vincent
##xington
00.0%.
0000..
access
admins
albino
amazon
amonia
anjela
barbie
brandi
briggs
camera
cannon
canoni
claver
cristo
debora
enkidu
famous
giulio
graeca
guerre
hapana
havana
hayupo
hearts
hermit
huacha
inakaa
indies
jammeh
jensen
kiango
kidaga
kidiri
kidong
kihara
kihere
kijara
kikele
kikung
kisuba
kitime
kiwara
kokeni
kuumia
kuweko
kuzoea
kwenya
lesser
maggio
maingu
manane
masifu
mgonja
mshale
munici
muungo
nelion
origen
raisin
reason
ridhaa
stereo
stores
sylvia
trekta
uliona
upanzi
vinapo
vitovu
voices
voyage
wakana
wakoma
walion
walizi
wamaya
xzibit
yemeni
yeriko
##adversus
##antioche
##chemshwa
##columbia
##enschaft
##giovanni
##muhafaza
##mwonesha
##plotinus
##rgyzstan
##samehewa
##tationes
##zambarau
000-00.
akaacha
alasiri
alifuta
alifuzu
alikata
bangili
banguko
bargash
batista
battuta
beatles
brendan
capitol
colombo
cornell
ecology
electro
emperor
ernesto
eurasia
goodbye
guevara
hampton
hawajui
hektari
hutunza
iliweka
kabambe
kabumbu
karafuu
kenyoro
kestrel
kialtai
kinavyo
kisongo
kisumba
kukosoa
kutamba
kuvutwa
kuwacha
laetoli
lilikua
limpopo
lowassa
manaibu
mandugu
mapendo
marimba
mashina
migomba
msaliti
murillo
mvurugo
mwaridi
neville
ngelela
railway
rolling
romanov
secrets
shaaban
shikizi
sodiamu
student
suzanne
tasnifu
therapi
uhalisi
ukabila
unataka
uwasili
wakatoa
wapenda
wikendi
yasinta
##alifariki
##aliyekuwa
##gallinago
##himalayan
##nominated
##steatomys
0000-000
ajentina
akafikia
akapokea
akifunga
akipokea
alimuita
aliogopa
alirudia
alizikwa
anaingia
anglican
antelope
arménien
bachelor
bordeaux
bronkasi
bulletin
chambers
chisholm
chumapua
commenta
delaware
directed
domenico
flaviano
gesijoto
ikaingia
ilipotea
iliyojaa
katakata
kifuniko
kikanuri
kimarind
kimawazo
kingbaka
kisehemu
konstanz
kuadhibu
kufichua
kutafuna
lilikuja
liliwahi
litakalo
machakos
magamaga
mahakimu
mahesabu
majangwa
matamvua
matanuri
meredith
mfungaji
minajili
minerali
misalaba
mishumaa
misituni
mizabibu
monarchs
mzalendo
parafujo
railways
rawlings
readings
scofield
tübingen
ufanyike
ukambani
utengule
versions
vijiumbe
walienda
walivuka
wallonia
wanakula
wanayoya
wasomali
watapata
wembamba
yalipata
yuleyule
zimepata
zitakuwa
##mabadiliko
##shawishiwa
(00:0-0).
akifuatwa
albatrosi
alimwomba
alistaafu
aliyetoka
animation
bandarini
cisticola
confessor
esinofili
fairfield
giganteus
guillaume
hiroglifi
huangalia
husimamia
ilihitaji
ilikuwepo
ilikwenda
inamiliki
inaongeza
kilingala
kimantiki
kuchangan
kushikana
kuwaachia
lufthansa
madagasca
magdalene
makambako
mapungufu
margarita
matumbawe
migawanyo
monastery
mwanamama
palestine
publisher
religions
seedeater
twentieth
uchongaji
ukielekea
unatakiwa
vifaranga
waliosema
washabiki
yanayotoa
ziliwekwa
##patagioenas
##sheherekewa
*0000-0000
0000-00-00
akajiuzulu
akashiriki
akawaambia
akisaidiwa
aliboresha
alielekeza
aliyetumia
aliyetumwa
copernicus
fitzgerald
haionyeshi
hawakubali
honeyguide
huchapisha
hufundisha
iliyopigwa
inazalisha
kilimwengu
kizambarau
kopenhagen
kubomolewa
kuhaririwa
kuhifadhia
kuhubiriwa
[...]
