[PAD]
[unused0]
[unused1]
[unused2]
[unused3]
[unused4]
[unused5]
[unused6]
[unused7]
[unused8]
[unused9]
[unused10]
[unused11]
[unused12]
[unused13]
[unused14]
[unused15]
[unused16]
[unused17]
[unused18]
[unused19]
[unused20]
[unused21]
[unused22]
[unused23]
[unused24]
[unused25]
[unused26]
[unused27]
[unused28]
[unused29]
[unused30]
[unused31]
[unused32]
[unused33]
[unused34]
[unused35]
[unused36]
[unused37]
[unused38]
[unused39]
[unused40]
[unused41]
[unused42]
[unused43]
[unused44]
[unused45]
[unused46]
[unused47]
[unused48]
[unused49]
[unused50]
[unused51]
[unused52]
[unused53]
[unused54]
[unused55]
[unused56]
[unused57]
[unused58]
[unused59]
[unused60]
[unused61]
[unused62]
[unused63]
[unused64]
[unused65]
[unused66]
[unused67]
[unused68]
[unused69]
[unused70]
[unused71]
[unused72]
[unused73]
[unused74]
[unused75]
[unused76]
[unused77]
[unused78]
[unused79]
[unused80]
[unused81]
[unused82]
[unused83]
[unused84]
[unused85]
[unused86]
[unused87]
[unused88]
[unused89]
[unused90]
[unused91]
[unused92]
[unused93]
[unused94]
[unused95]
[unused96]
[unused97]
[unused98]
[unused99]
[UNK]
[CLS]
[SEP]
[MASK]
##్ర
ప
##ర్
##00
##ని
వ
స
క
మ
##న్
##లో
##లు
##ార
అ
##స్
##ంద
##్య
##రి
00
##క్
##ాల
చ
##ంచ
##ను
##గా
##కు
ప్ర
##ల్
త
##ంది
ర
ఉ
##డు
గ
ఆ
##నా
##ట్
##రు
##డి
ద
జ
##త్
##టి
##ారు
##కి
##తి
*
వి
##ము
బ
##యి
##తు
0000
##లి
##యు
న
ఇ
##ించ
##న్న
(
##ండ
##త్ర
##ామ
##ంలో
సం
##ార్
##ది
శ
##వి
##లా
##ద్
##ంత
##ంట
స్
భ
##పు
మరి
##వా
##ిన
ఈ
##ంగ
##ంగా
##ప్
మరియు
చే
ని
ల
##ాని
ఎ
##రా
##ష్
##డ్
0
##వు
##''
##న్ని
##క్క
##ాలు
ఒ
000
##గు
##ిక
##ాన
##ైన
-
##నే
##టు
##సి
రా
హ
##యా
##స్త
##దు
గ్ర
##ేశ
##్యా
##చ్
##మా
ఒక
a
##క్ష
t
##సు
##ానికి
##in
య
##తో
##స్తు
##ారి
కొ
##్వ
##చ్చ
##ిల్
చె
##త్త
##ాయి
##మ్
##ండి
##దా
ను
##ాడు
##ందు
##న్నా
లో
##గి
##కా
##యం
పు
##్రీ
గ్రామ
సా
##0000
##మీ
##er
##ంచి
##డా
పా
##గం
##ెం
##ఖ్య
కా
##000
##మి
s
మొ
##ూర్
##భా
నా
ము
ఫ
లే
గు
##మైన
చి
##యో
##్రా
##an
##బ్
##త్య
##on
##he
##ప్ప
తె
వర్
ఏ
##లను
##ద్ధ
##ట్ట
వా
##ళ్
##రం
##ారం
సి
##ారా
##ంధ
''
##రణ
నిర్
ఉంది
##పా
##ంగ్
##ొక్క
పరి
##వే
పె
##ాల్
o
##స్థ
##ar
##ద్య
ప్రా
c
##్రి
కూ
యొక్క
##ుల
ఉన్న
కో
##at
భా
##ంప
##టీ
p
##ద్ద
##చి
##తీ
వే
##al
మా
"
##ల్ల
##en
#
##తా
సంఖ్య
##త్స
##మె
##is
ట
అనే
జిల్
##హి
b
the
m
##గ్
##కో
##న్నాయి
కు
వె
కి
వర్గం
##ధ్య
##ంటి
##బడి
జిల్లా
##ష్ట
##తం
##ేవ
##డం
##ాలను
కూడా
##es
నుండి
##ప్ర
##సా
వ్య
##సం
##or
##జ్
##టర్
##దేశ
##కొ
##లుగు
f
##,000
##లలో
వీ
##ేష
##గ్ర
స్థ
##it
##లకు
కలి
##యన
పే
##రీ
##పో
శ్రీ
పో
##ూరు
##ులు
ఉంట
##0000)
##వం
##ందిన
##పి
డ
##చే
##మ్మ
సమ
##బా
##ళ్ళ
##నీ
రాజ
##ాలలో
##ించి
ఇది
పొ
##చు
దీ
##వర్
శా
##క్కు
##రో
##లే
##ed
of
##నం
##ఫ్
భార
ఉప
మండ
##లం
##ించిన
##నికి
##ంద్ర
##ప్పు
##య్య
##ంతో
w
సు
##సిన
d
##లోని
బా
##జీ
గా
in
##ic
##ర్శ
##నాభా
##రించ
ఉన్నాయి
n
అను
r
##కీ
##లీ
##ారణ
##ండ్
తీ
##హా
##ల్లి
##ాలి
కార్
##వాత
##ట్టి
##జా
(0000)
మార్
చెందిన
##రకు
##్రమ
##స్తుంది
##స్త్ర
పి
రో
##తుంది
##వత్స
##ధి
##am
లేదా
అవ
మొద
ప్రాంత
##ష్ణ
##ించారు
జా
##le
ఉండ
ప్రక
చేయ
కే
విశ
##జు
స్వ
an
తన
##ధిక
##ెస్
##ట్టు
0,000
##as
##న్నారు
##్యూ
వై
##ధాన
##యన్
నీ
అయి
##భి
##చ్చు
ద్వ
మి
##ూప
##మే
తి
##జి
మూ
##ంబ
అని
##స్క
చిత్ర
కాల
##ణి
##ur
ధ
##తీయ
తెలుగు
##డానికి
##ion
ఇత
##ెక్
00000
##..
వచ్చ
యు
##స్తారు
రచ
h
##వహ
##యోగ
##న్స్
##ంక
వ్యా
##క్కువ
##ంటే
జీ
వారి
##పే
##ుంది
##షి
##క్తి
ప్రతి
మీ
##us
000.
అత
ది
;
##గిన
##ెడ్
##రే
సంవత్స
##కం
సాధ
:
శి
##ing
##కాల
మొత్త
##పై
##ష్ట్ర
##ెట్
##శా
స్ట
##తే
##రుష
##ణా
g
డి
నుంచి
##కర్
##రుగు
దేశ
##స్ట
తరు
##ాలా
##మీప
జనాభా
##బంధ
##ర్థ
##త్తి
##ీల
క్
##న్య
##దే
దీని
అంత
##భు
ఖ
ఆయన
l
##హ్
##ద్ర
##ల్లో
##డే
నే
పురుష
జరి
గో
##ర్మ
ద్వారా
భారత
##డ్డ
##శాల
##రించి
##ృహ
##ామి
భూ
##సే
##వచ్చు
##లన
పేరు
సె
##ro
##బి
##ణం
సిని
మె
##ద్ధి
##యంలో
and
##తులు
తరువాత
##ూర
##ంధ్ర
##పె
రై
పద
##ృష్ణ
##un
మొత్తం
##వరి
రాష్ట్ర
##),
మధ్య
స్త్ర
##త్వ
##ీత
##సుకు
##ర్తి
##్యం
##ాలకు
##ad
##el
ఓ
##il
నగ
##ప్పుడు
##ండా
కలిగి
సంస్థ
##ములు
పని
##బడింది
0000,
v
##ించే
విజ
ఉంటుంది
ఉత్త
కళ
##లతో
హై
##ందుకు
జన
కార్య
అధిక
ఆధ
##ెండు
పూర్
సమీప
##ట్లు
నిర్వహ
##ర్ప
దా
##గ్రామ
##కులు
##త్రి
##వీ
##th
మే
కొన్ని
సామ
ప్రధాన
##శ్
రామ
##బు
##ప్పటి
వంటి
##టం
##కూ
ష
అభి
##వ్
ప్రభు
కేంద్ర
పురుషుల
to
రి
గృహ
చూ
రెండు
##క్షి
##కే
##ేషన్
##ముఖ
##ent
##వులు
##ol
##వల
ఐ
లా
##ములో
కథ
##ించాడు
ప్రత్య
e
##ంలోని
ఆమె
##ంజ
విద్య
##ుడు
పార్
చాలా
##ంటారు
రె
బి
##భ్య
##నూ
సాహి
0.
##re
##క్స్
##ac
##క్కడ
పై
k
##టో
##మో
ఆఫ్
##దర్శ
హి
సై
##ాల్లో
తా
##పంచ
##బడు
సమా
ఎక్కువ
##త్వం
సూ
##్రో
సంబంధ
వ్యవ
ఆల
##దీ
##రాల
##వారి
ప్రకారం
##టా
వరకు
##ించింది
సినిమా
##బడిన
##om
##-00
##ేక
##పూర్
##ార్థ
##త్తు
##నాలు
##వృ
.
##స్వ
##గొ
ప్రారం
ప్రజ
##సీ
పెద్ద
భాష
ఇతర
ఉపయోగ
##గే
నె
##క్షణ
##టర్ల
పరిశ
తర
గ్రామంలో
ముఖ్య
##రావు
పర్
##పాల
##ోర్
అన
##ెల్
##విత
##ంపు
##ందులో
ప్రారంభ
వాటి
గుర్తి
విధ
భాగ
##లై
కిలో
శాస్త్ర
##స్తూ
##ానం
అనేక
రంగ
##ెన్
దాని
##తన
ప్రముఖ
##క్రమ
చెప్ప
తొ
ఆర్
##త్మ
మొదటి
ఆంధ్ర
##బరు
##లైన
స్త్రీల
##im
##ంచు
##కుండా
గ్రామము
ప్రపంచ
లేదు
##ాన్ని
##వాస
##id
విశ్వ
మంది
##గో
##ag
దేవ
##పల్లి
##ించు
##ీక
దూర
##టక
is
సంగ
##ోధ
##స్తున్న
మండలా
##ేశ్వ
రూప
'
##ారణంగా
కిలోమీ
ప్రదేశ
వారు
##నాడు
##త్రం
చేసి
సాహిత్య
##ంచిన
##బ్బ
##ul
##ెర్
కల
##ట్ల
##రిత్ర
##కుడు
##రాలు
లోని
కళా
మహ
పాఠ
మో
##ెడ్డి
##క్ర
##మై
కోసం
##త్రిక
##ండు
##స్య
చేసిన
వు
అత్య
##తంగా
##et
##iv
తో
ఉండే
##దరా
00.
##um
చిన్న
##ir
**
##గ్గ
విస్త
చేశ
##ారులు
పట్ట
##వ్య
##ation
##ాప
సర్
th
##ాన్
##స్ట్
అయిన
##మెరి
రే
కిలోమీటర్ల
##పాటు
##ec
పాటు
000.000
##క్ష్
దు
##న్నాడు
##్రే
##వేశ
##మాణ
##కోవ
సౌ
##ానీ
లి
తయ
కృష్ణ
##ay
##తె
సో
వద్ద
తర్
అన్న
చరిత్ర
##వృద్ధి
అర్
##ారీ
##దరాబా
##హ్మ
కె
ఘ
##ెంట్
మీద
విష
##పర
నిర్మ
##కాశ
##ap
##బర్
##త్ప
##em
##ut
దర్శ
లె
విజయ
##jp
##ంథ
##నో
##జనాభా
##బ్ద
పూ
##ig
ఉంటాయి
##వర
యా
సంద
అతి
అమ
హైదరాబా
##ృతి
##ాలయ
##బ్ర
##).
##హం
##os
##jpg
క్రీ
##యణ
ఇందులో
##శి
##-0
##ాలయం
ప్రత్యేక
అంది
బు
మండలానికి
##క్త
##ch
##తాయి
##న్మ
బ్యా
##యిత
క్రి
##తున్న
అమెరి
##ల్లె
##లె
జూ
తే
క్ర
##ంశ
గొ
##ింది
##స్సు
అభివృద్ధి
సహ
మండలం
##లుగా
తెలి
##డిన
##జ్ఞ
##స్తాయి
నటి
##వన
##tr
##తుల
##వుల
బ్ర
##పతి
వలన
##ుని
##యర్
##వ్వ
##ia
##లువ
తర్వాత
సర
##ర్భ
ఇక్కడ
ఫి
ఏర్ప
ఊ
క్ష
సీ
##పురం
పాత్ర
##మార్
##మారు
పాల
యూ
##తూ
భారతదేశ
##సర
##కర
రెండ
##క్కల
##న్నిక
##బడ్డ
గృహాల
##ల్వే
##ంచారు
##ల్ప
##ak
##ot
##ైనా
రచయిత
మరణ
మన
##ద్దు
##న్ను
##యే
##ర్య
##ంతి
##తారు
##ృత
కని
##మిక
##హు
##and
పూర్తి
##విధ
##ంటు
##ట్స్
పలు
సంవత్సర
దక్షి
బె
ముందు
వర
నీటి
వృ
ఉత్ప
##కాలు
అది
సరి
##వాడ
##ంటర్
ప్రచు
##న్యా
##ప్పటికీ
గ్రంథ
##గ్రామంలో
పర
=
తమ
##స్తున్నారు
##న్యూ
##దల
##ెంక
##ష్టి
అతని
ఇం
##రిగి
అందు
##వై
##విద్య
##పూ
అనేది
శతా
##ప్రా
వీటి
పుర
ప్రదర్శ
మహా
##ళ్ళు
రైల్వే
ప్రస్తు
అయితే
##లంగా
##మం
##వరణ
పనిచే
or
##డీ
##నలు
##గల
అస
పార్టీ
##శాస్త్ర
ఎన్నిక
మహి
మాత్ర
నగర
గురించి
##ారాయణ
##...
##ంచే
##ers
మాన
##య్
గ్రామానికి
##av
##ీర్
సంఘ
j
యుద్ధ
##బ్లి
ఉద్య
మండల
ఒకటి
##పోయి
##ab
జాతీయ
సభ్య
మై
##పాద
ఆధార
##ముల
దీనిని
సంస్క
##ూర్పు
వ్యవస్థ
##నకు
for
అలా
##వాద
##మూ
##కరణ
##నల్
కంప
##ందని
కానీ
##టానికి
హా
##రువు
##మతి
కాని
00,
##ాలని
పాఠశాల
--
సహా
##నె
సమయంలో
##టుంబ
మహిళ
చు
##ార్డు
అన్ని
దూరంలో
##కార
వెంక
అంద
##ేశ్వర
##వారు
##సై
##రియా
విని
జరిగిన
జన్మ
సము
##ంటూరు
##ాలతో
కవి
##పాడు
మాత్రమే
##గర్
ప్రభా
గ్రామం
##షన్
st
దక్షిణ
చేసే
మూడు
ఛ
##ిల్ల
పాట
##ఎస్
##్లా
##ంగ్ర
గల
ఎస్
బొ
##చ్చి
##కుల
##ళ్ల
##డ్డు
##ేవారు
##యోజ
తిరు
##ొక
వ్యక్తి
##బడుతుంది
##ీయ
##గింది
కార్యక్రమ
ప్రభుత్వ
##ith
##ల్డ్
పొంద
##all
##రామ
##మని
##ండ్రి
##కల
కొరకు
సంగీత
జీవిత
##ర్ర
విడు
(0
##ద్యా
బాల
భూమి
సేవ
##లోకి
##ఆర్
వ్యాప
వైద్య
అంతర్
తక్కువ
ప్రే
దే
రోజు
##ృష్టి
జిల్లాలోని
##భార
అండ్
as
నీరు
##వంత
డా
##రాజు
అతను
విశ్వవిద్య
బ్రి
##సె
##త్మక
కుటుంబ
పేర్
##కృష్ణ
ప్రసి
అధ్య
పరిధి
##కొని
పరిశోధ
కర్
హైదరాబాదు
##ow
గుంటూరు
న్యూ
##పద
చేశారు
##డిగా
##od
##తిక
అంటారు
##జన్
##దాయ
ప్రవేశ
##తలు
##స్వామి
##op
ఉత్తర
మర
##ంట్
##్యు
కొత్త
##హార
##ధా
##సర్
ఇవి
##బడ
##యోగి
ఆరో
##కె
##ించడం
##ter
నూ
నివాస
రూ
అక్ష
##ర్చ
##లేదు
తీసుకు
రు
కను
##సన
##భాగ
##ce
పాల్
##య్యా
స్థి
స్థాప
తయారు
on
##ile
##వాహ
శతాబ్ద
##మాన
##శ్చి
##భవ
(00
వివిధ
జి
##ార్య
పురా
##పొ
##ఫి
కొంత
0000.
##మొ
##కీయ
##ెక్ట
##గ్రహ
##నాన్ని
##జ్య
నాయ
##ళి
,
శక్తి
##రంగ
##ణు
##మును
ఉత్పత్తి
ప్రజలు
##ీన
తూర్పు
##ారావు
(0000
తెలు
వల్ల
##:0000
ch
##ముగా
##పీ
పుస్త
##ాయ
అనుస
చేసుకు
ఏర్
నాటి
లెక్కల
##వె
##స్థి
##ధు
పంచ
i
పురస్క
##ంచింది
వెళ్ళ
పద్ధ
కారణ
తు
హో
##ూర్తి
స్వామి
వ్రా
##తంత్ర
కలిగిన
పీ
వస్తు
వెంకట
జో
వచ్చిన
##డియో
al
be
##శ్వ
బో
నాటక
విద్యా
##జన
##ల్స్
లక్ష
ప్రభుత్వం
##యాన్ని
బహు
వార్
##వాడు
##ల్లు
##గ్య
శు
000,
జరుగు
అమెరికా
హింద
వీరి
##డంతో
సాధారణంగా
సామా
##ూరి
##లియన్
##్రియ
##డుగు
##ెంబరు
##డవ
##ల్లా
మంచి
##ri
చేస
విధంగా
కాలంలో
పత్రిక
స్థాయి
##రూ
ఉన్నారు
##st
##సారి
వీరు
##జర్
##శు
తిరిగి
##వేత్త
భావ
##ంకు
రాజకీయ
##టకు
##ార్లు
##ct
అమ్మ
పబ్లి
లై
సందర్భ
con
##పరి
వార
##స్టు
##సంవత్స
ఇచ్చ
సౌకర్
ఎక్కువగా
పట్టణ
##యాలు
##ud
##నై
##క్కి
##షణ
##శ్రీ
##కుని
##-0000
కంటే
##తర
##తిలో
వ్యవసా
##కంగా
స్ప
##ub
##హరణ
0000:
##ామ్
##స్తే
ఉదా
బీ
##ోత్స
కోడ్
రెండవ
##టన
టె
##దారు
కేంద్రం
భారతీయ
##దేశ్
ఆర్థ
పోటీ
##.00
##కాశం
##ంతు
ప్రస్తుతం
0.0
ఇండి
##ించబడింది
##వత
వాడు
##చె
with
##తెలుగు
##జిక
##టన్
వాడ
##యుడు
##సన్
అవి
##జే
కొన
file
ఈనాడు
##న్నది
సే
ప్రాంతం
మం
గి
తొలి
రహ
by
##నర్
##ష్ఠ
చూడ
0,
కావ
##చార
##జాతీయ
##సంవత్సరం
లక్ష్
##యత్
చిత్రం
క్రమ
##క్కడి
–
wh
##తమైన
థ
ఏర్పాటు
స్వా
లోపే
##ద్ది
##రుకు
ఉపయోగి
##ra
చట్ట
తల్లి
సొ
##టెడ్
##if
రచన
##ఫీ
మొదలైన
##ంపి
నది
##యము
అదే
##ప్ట
##ట్టిన
##'',
##కారు
##బడ్డాయి
సముద్ర
స్త్రీ
అంటే
##తిని
##ist
##రించిన
##శ్ర
చా
00,000
##రవ
##యని
ప్రదేశ్
దగ్గ
##ర్చు
సిద్ధ
##రిక
రోజ
##బో
ఆట
##ess
##టింగ్
##దన
విధాన
##క్టో
పిల్ల
##పల్లె
##గాలు
##తను
అవార్డు
##గ్గు
##ణ్య
##సింది
ఒక్క
నై
సంబంధించిన
##నరు
లేక
ఆర్థిక
##oc
పశ్చి
నిర్మాణ
##కన్
సంత
ind
##తల
అల
గౌ
##ev
##సభ
పాల్గొ
వచ్చే
శాఖ
అర్థ
యూని
జిల్లాలో
##నాథ
సత్య
##యులు
00%
##ద్రా
ప్రస
నియ
జరిగింది
ఇలా
##దని
##మణ
##ేషను
un
వివ
##రించారు
చేసింది
##ామా
కొనసా
సంవత్సరాల
##est
##ించడానికి
కారణంగా
##చన
ఉత్తమ
##్రె
విజయవాడ
##లవ
బ్రా
స్థాన
తీసు
ఇంకా
##og
ఆలయం
కొండ
##యిన
##లాండ్
పౌ
##నాయ
కన్నా
##బన్
##ంగు
##ly
##వపే
##ధ్యా
##ian
ప్రయా
మార్గ
హె
సాహిత్యం
అత్యంత
##వంటి
##లిన
##మెంట్
నిర్మా
క్షే
నటు
##యోజక
##ప్రదేశ్
##బె
##యల్
సుమారు
గె
##షా
రీ
ఇన్
##వ్యా
ఇంటర్
శివ
సాధారణ
##ish
కాలే
సంప్ర
y
##మిళ
##చర్
##వపేజీ
u
నివ
నెల
sh
విద్యార్థ
తండ్రి
##.0000
నాగ
##కొండ
##ంటుంది
##చ్ఛ
##్ల
సంవత్సరం
బల
##పడి
##.0
##ంచాడు
##గిరి
నియోజక
లభ
దీనికి
##థమిక
##వారం
సినిమ
ఉదాహరణ
గృహాలు
##డో
##ానిక
న్యా
రూపొ
రైలు
##జం
##ant
కళాశాల
##age
##స్తాడు
తప్ప
కలిసి
##టే
pr
##ip
us
##దాపు
వినియోగ
##వ్ర
##భూ
పరీ
##ity
##ang
మత
##పర్
##స్తో
కమ
##రై
##rom
##.,
##ట్లా
ప్రయత్
బయ
జీవ
ద్ర
##దరు
డె
ఆరోగ్య
##బీ
ఈమె
కాంగ్ర
మూల
##సో
సూర్
at
##స్తా
దశ
ప్రాంతంలో
##గణ
విద్యు
పొందిన
##ూడ
దొ
పేర్కొ
/
##దులు
కవిత
)
ad
##గ్రీ
ఇవ్వ
##ell
##చేశ
వచ్చింది
re
వయ
##వాలు
##ోన్
##చిన
ఆల్
##సిం
##ంటాయి
సమస్య
##ug
అంతర్జాతీయ
##స్టి
పర్యా
భక్
టి
##తిరే
గ్రా
లేని
బాగా
పదార్థ
నిర్వ
##మ్స్
అనంత
##ికా
##ందింది
##కున్న
చో
నాట
##ష్య
##రెడ్డి
##కెట్
పెట్ట
##మన్
కౌ
##టువంటి
చంద్ర
అవసర
కీ
నో
చివరి
నిర్ణ
it
##గ్రామానికి
##కార్
నాలుగు
గ్రహ
చేసు
##ill
ఈయన
##ind
దాదాపు
##లిక
టై
సాం
##igh
##క్ట
##పోవ
ప్రజా
##కము
##్యాన్ని
ఉష్ణ
పండి
##ంతం
##పం
##రల్
ఎదు
##మూర్తి
##పుడు
తెలంగా
విడుదల
com
నిలి
లు
##నియా
##ంపై
he
విమ
##ంక్
##బాటు
ph
సూచ
##న్నీ
హెక్ట
నర
ప్రకటి
##ందం
##వుతుంది
స్టేషను
im
00.00
కాక
రూపొంది
అభ్య
##రె
##ath
ఆగ
రోడ్డు
##ండే
##కిత్స
##రుగా
ధర్మ
##నులు
వ్యతిరే
##సిక
పరీక్ష
##ళ్లు
##ారాన్ని
##ేట్
##ెనీ
pro
##ట్నం
నియోజకవర్
##దం
##వాన్ని
##కారులు
మార్పు
##సియా
##పేట
##ఖ్యా
##వరం
##మంది
పరిస్థి
అనగా
శాసన
ఒకే
ఫలి
ప్రాథమిక
##ధాని
మిగి
గణ
చేప
కాదు
##దేవ
##మైనది
##ధం
ex
##హద్దు
##బడే
పారి
##రాజ
అలాగే
భాగం
ఇంగ్
పశ్చిమ
నిర్వహించ
ఇంజ
##ంగి
##పాలెం
సహాయ
##.000
##ain
కృ
భాగంగా
ఉద్యో
కాలం
()
వేంక
జూలై
##లిం
##నాల
దగ్గర
నిర్వహించారు
న్యాయ
##యల
డే
తమిళ
చర్య
సామాజిక
బౌ
##లగ
##లుపు
సరిహద్దు
పెరుగు
మార్చి
##వో
##ah
##బాద్
వహ
కృష్ణా
##ies
కాంగ్రెస్
##భాగం
##మ్ము
ఔ
##నిక
రాజు
జె
శత
విభ
అంగ
ప్రొ
##రగ
మహిళల
వ్యవహ
తీవ్ర
##qu
##నారాయణ
వస
చదు
చక్ర
సృష్టి
##సాల
గుర్తించ
ఆడ
అయ్య
ఆది
కంపెనీ
ప్రచురణ
##ov
##der
##పడ
##ine
అధ్యక్ష
ఉద
ట్ర
జీవి
##వతి
ఆంగ్
వల
ఎక్స్
##క్షే
##దారి
వ్యాపార
##ండ్ర
##ండర్
చూప
అధికార
##ళం
(0)
షా
##క్షన్
##art
##ate
##థి
కనిపి
గురు
##ినీ
డై
ఎత్తు
##డైన
##గత
తెలియ
విశ్వవిద్యాలయం
బే
వర్ణ
ఆన
నిజ
బృ
##చిత్ర
అందుకు
దృ
&
అత్యధిక
##ik
##క్య
##సము
వలె
దో
అర
##స్టర్
ఉన్నత
శరీ
కనిప
##మొద
##నాటి
sp
లీ
##రూప
నవల
ఉత్స
చేయడం
##....
అక్టో
సంపాద
##సులు
##సమీప
హిందూ
##తాడు
##పెట్ట
మరో
##న్నో
##దిక
##యస్
##ృత్య
##ప్రిల్
అప్పటి
పం
కేవ
##ిల్లీ
##లియా
...
మరొక
చలన
from
ఇక్కడి
##ర్స్
##తులకు
విశేష
వచ్చి
##మున
##గతి
##భారత
కాకుండా
##oun
##--
అంశ
##రుపు
జ్
వైపు
##ణీ
సంగీ
అక్కడ
##దేవి
##లక
వారికి
##ard
సెప్ట
##తుడు
కన
##ంకి
రసా
##పడు
##శాస్త్రి
ప్రసిద్ధి
క్రీడా
##ంస
##up
##చార్
##న్సి
ప్రో
గంట
##ఫె
పడ
##ich
చేశాడు
##కున్నారు
##మల
##ంతా
0000)
##ere
ఆధారంగా
విలువ
##ib
వీర
అవస
##నైటెడ్
ఇంటి
##బ్రవరి
ఆలయ
బ్రహ్మ
మారి
టా
కవితలు
మార
##ళిక
పరిశ్రమ
##శాలలో
##ులకు
జ్ఞ
నీరుగ్రామంలో
స్థిర
##ment
##రికి
అక్షరా
జల
##హ్మణ
are
జాబి
అడుగు
వేంకట
##కరించ
##కాలం
జనవరి
##్లో
తేదీ
##కల్
##ారెడ్డి
ఆస్ట
ra
##దావరి
విమర్శ
##ంకే
ముఖ్యమైన
గాయ
##తావరణ
కుల
పిన్
చెయ్య
ప్రి
##తాన్ని
##ునిక
ట్రా
##end
ఉండేది
##ర్లు
##వుడు
was
##షిక
##ాలుగా
భావి
గొప్ప
సౌకర్యం
##మాన్
##ెడ
లక్షణ
రంగు
ప్రమా
నగరం
వర్గ
ప్రదర్శన
##డిని
జననాలు
##ంటూ
##దో
మొట్ట
##-00;
ఉపయోగిస్తారు
క్రిక
తెలంగాణ
##లోనే
##టర్లు
రాజ్య
##ంగం
##యలు
ఎలా
వాటిని
##ాలూ
##యంగా
##ర్ల
టీ
కోట
##నుండి
బస్సు
ar
దర్శక
సామ్రా
##శ్రమ
##కునే
##ఖా
##ous
##ైన్
ఏక
కథలు
##తులను
##వరకు
##కంటే
##డె
##ందే
000.0
వ్యవసాయ
##ేషన్స్
గుర్తింపు
##గానే
##ర్చి
##ary
ఎం
మాత్రం
వాహ
##పెద్ద
రావ
గ్రామాలు
ఫ్రా
వ్యక్
##ించబడిన
##ెంబర్
##యిర్
##స్తున్నాయి
dis
##ణము
ఎన్
##ెస్ట్
స్కూ
ప్రముఖులు
##పట్నం
చికిత్స
కేవలం
నియం
##ల్లూరు
ప్రజల
త్రి
కామ
అంచ
##.0000)
గే
##ఎం
మొక్క
గత
ముస్
వాతావరణ
##పూడి
##సింహ
ప్రై
తల
##మయ్య
de
జూన్
అమెరికన్
##పథ
0,000,
కుమారు
మరింత
##ther
పేరుతో
##న్నె
that
పూర్వ
పెట్టు
##బూ
మాట
పరిశోధన
##ight
##ఢిల్లీ
##ect
##ారని
ఆంధ్రప్రదేశ్
##వాణా
కుమార్
##చారం
మ్యా
డిగ్రీ
##శ్చ
చదువు
సిద్ధా
యో
మిగిలిన
##స్తోంది
##కర్త
##గ్రా
భీ
వున్న
##మొదటి
చైనా
మంత్రి
జిల్ల
##యిన్
ప్రక్రియ
##నుక
##వంతమైన
##ద్వ
##ప్త
##ew
భార్య
##డికి
యునైటెడ్
అడ
సంప్రదాయ
##ear
##టల్
ముఖ్యంగా
అకా
సీత
‘
##తున్నాయి
##ేషనల్
##రుస
##డ్స్
రహదారి
##వర్తి
##na
##ైల్
రాజధాని
##ంప్ర
డిస
హైదరాబాద్
##ఫా
##ఫ్ర
నారాయణ
నవ
##తోంది
##ంకేతిక
##రులు
##ేశ్వరరావు
దూ
ఇండియా
వ్యాధి
ప్రసిద్ధ
స్వాతంత్ర
యం
బ్యాంకు
భౌ
అర్బన్
##జె
మానవ
##వలసిన
##ట్ర
(000
వాయు
జాబితా
##మునకు
::
దానిని
ఉండి
పనిచేశ
లక్ష్మీ
సభ్యులు
నూతన
ఒప్ప
##టిష్
##గాన్ని
ఎన్నో
ఋ
##మైంది
నగర్
పోరా
పోష
మిలియన్
##నగర్
పిలు
సూచి
ఆధునిక
##%)
విషయ
ఎంప
సంవత్సరంలో
ప్రేమ
రకాల
##ళ్ళి
గోదావరి
క్రికెట్
స్థానంలో
మాట్లా
00.0
చిత్రాలు
##తికి
అప్ప
##ట్లో
##ౌస్
##ive
ఎల
తగ్గ
అనుసంధ
జంతు
పంచాయ
ఇప్పుడు
పదం
బ్లా
##ీకరించ
##ారము
మంగ
బాధ్య
*''
ఆమ్
నవం
##త్తూరు
##డంలో
##ెను
pl
ఉపయోగించ
##డని
విస్తీర్
##గర
##ార్క్
ఆరు
నడు
##నానికి
పురాతన
##నిర్
కల్ప
##త్తా
సాంకేతిక
చేసారు
చేస్తారు
##లింగ్
జట్టు
చేత
రూపా
##ళా
కోర్
లేకుండా
శై
##ంచడం
##కలు
##మ్మి
##రించింది
##షు
##ప్తంగా
కథా
##వాహం
ఇద్ద
దారి
పూజ
నియమ
మారు
వనరు
##త్రా
అర్థం
చీ
##ణ్
మగ
కాలు
##se
టెక్
##పుర
##చూ
##శీల
సంగీతం
##ర్ఘ
##ార్ధ
ఆకర్
ఏప్రిల్
కంప్యూ
##ణాంక
##సరి
tr
పద్య
గ్రీ
ప్లా
కమ్యూ
##ast
##ద్మ
అక్టోబరు
##ంతర
##ించాయి
కల్
ఐదు
##జ్ఞాన
##.)
పంప
సుబ్బ
లోప
స్థా
ఘన
యుద్ధం
శాతం
##శ్య
ఉపా
##పోయిన
మహారా
అనుమతి
##ిత
నృత్య
నియంత్ర
##డియా
##ీకరణ
##రింగ్
##ial
##స్తాన్
అఫ్
##కాలంలో
వస్తుంది
##-000
##పాటి
రెడ్డి
##వానికి
వృత్తి
శాస్త్రవేత్త
సరఫ
దృష్టి
ఉద్ద
ఎంపిక
##ure
ఎంతో
సమూ
##ాఖ
##పోయింది
##ందా
##ర్థి
చారి
##మ్మా
లాంటి
##కవి
##ical
అధికంగా
కాల్
##లేని
##umb
నిర్వహణ
##ge
విడుద
కొద్ది
పురస్కారం
హార్
ఎన్నికలలో
ఇతడు
##య్యాయి
ద్
ముద్ర
##కోవడం
##ans
##our
le
##కాన్ని
##చేయ
మద్రా
వీటిని
విశాఖ
అల్
ఆహార
వాణి
విభాగ
చేయడానికి
వ్యాస
##ందో
రక్త
నిర్వహి
##గ్ని
##చారు
స్టే
ప్రాచ
మొట్టమొదటి
##ోగ్ర
##పత్రిక
వీటిలో
##ort
మల
విజయం
ఫ్రె
హక్కు
చేస్తుంది
నేషనల్
అంతే
##uc
##ారో
గాంధ
నామ
పర్య
##ౌన్
##కమైన
చక్క
డ్ర
##యుక్త
##టిక్
ద్వీ
కణ
పంట
తాను
##ములోని
రోజుల
టెలి
##pt
##ందరు
పూర్తిగా
ప్రస్తుత
##వ్వు
పట్టు
రవాణా
ఏరియా
##గలి
ఫిబ్రవరి
జే
##్యాల
జాన
##జెక్
అందులో
##రిత
##వచ్చును
మొదల
చెన్న
##లేక
నడి
##ంచ్
##వలన
సందర్భంగా
##ok
ఆరం
చాల
బ్రిటిష్
##క్టర్
వేరు
ఖా
##బుల్
పుష్
##ple
ఎడ
##గ్గి
##డింది
నమో
##స్తి
సహజ
##డూ
భగ
సంస్థలు
==
దిన
##లాలు
గణాంక
పాకి
##ర్మన్
చుట్ట
##ర్త
##హె
ఆక
స్థానిక
ఆలయంలో
##పాలు
ఆవి
అవకాశం
##pr
క్ల
##ace
##పడ్డ
సర్వ
కమి
##ండో
పండు
##గూడ
##నము
##షే
తొలగ
వరకూ
ఆంగ్ల
నటించిన
se
చేయు
నాటికి
##ర్ధ
గూ
*0000
వంశ
##స్ప
##నుల
##ప్పి
inc
##ach
కట్ట
చేరి
ac
ఫో
దేవాలయ
యూనివర్
ఆలో
am
జై
జిల్లాకు
##ాలీ
##రాన్ని
##వాదం
దిగు
సెప్టెంబరు
##దర
##ara
అవసరం
##త్యా
మధు
!
ప్రకాశం
భారతదేశంలో
నౌ
##ala
బంగ
సార
##ముడు
క్షేత్రం
##మితి
##సిద్ధ
యువ
##కారుడు
కలిపి
##ధారణ
x
వేద
గెలు
కారణం
పైగా
##కల్ప
శిక్షణ
##sh
##రుడు
##so
సర్ప
ఆస్ట్రే
##దర్
విదేశ
##ంలోకి
ఉష్ణోగ్ర
##bn
బై
ఛా
కనుగొ
ఆరంభ
సంచ
##మానా
ఇదే
విడి
పథ
##సెస్
##",
జరుగుతుంది
##ంభ
##గుల
##యోగం
ఎందు
రసాయన
##ష్ణు
తిరుగు
##బ్లీ
ఘంట
కలు
చది
నమ్మ
అతిపెద్ద
శిక్ష
పురస్కార
##ict
ఆక్
##మండ
వరుస
పర్వత
##ధ్యం
##ated
##కుంది
ప్రైవే
బొమ్మ
మను
ఎయిర్
నిర్ణయి
లలో
వెబ్
##ెన
నటుడు
##iz
##కున్నాడు
తరచు
రేడియో
ఉద్దేశ
మొదలు
అధ్యయన
which
##లపై
అవు
అరు
పొందింది
##మాల
##వులను
తిరుపతి
స్టేషన్
సర్వీ
పైన
ఆచ
ఢిల్లీ
విద్యుత్
##దవ
“
##వుని
కృషి
##జాల
గాలి
##చంద్ర
ఆస
##స్మ
వేగ
పరిచ
రచించిన
మౌ
భో
##ph
##ర్ట్
తయారీ
##ass
##దిగా
కింది
##ence
కనుక
ఇంజనీ
##ఫ్ట్
##స్థాయి
పంచాయతీ
సంవత్సరాలు
##ana
##్రు
wor
మద్రాసు
##య్యాడు
ఇస్
నాడు
##ట్యూ
##గ్రహం
##స్కృతి
పది
##లర్
అమలు
గాని
##ీణ
గీత
వెంట
గుడి
##జీవి
##సారు
అకాడ
సేక
##వల్ల
##."
ప్రసా
##సూ
ముఖ
కూడిన
ప్
##విజన్
కన్న
ab
చెరువు
శరీర
పరిధిలో
భారతదేశం
##టివ్
ఎంత
దేశంలో
రామా
సోమ
శ్రీని
అధి
##ండును
##ore
##ర్వే
రాయ
తాలూ
+
హరి
##ంద్
అభ
##చింది
పోలీ
##మంత్రి
##ందర
(00.00
ఘంటసాల
బెంగ
##గారు
బంధ
పంజా
##యుల
##డై
పిలుస్తారు
##డవు
##వైపు
##ధులు
ప్రపంచంలో
నియోజకవర్గం
##లంక
ప్రాచీన
క్యా
దేశం
కష్ట
##త్వంలో
పక్ష
##వ్యవ
స్థానం
##la
##ెదరు
నల్ల
వలస
నిర్మాణం
స్వాతంత్ర్య
##శీ
##రాన
bo
కమ్యూని
సిటీ
ఆగస్టు
నిర్వహించిన
గుర్
వెళ్
##స్త్రం
##టరీ
##ములను
##ండె
భాషా
హిందీ
మూడవ
వయసు
బోర్
##per
gen
సింగ్
##సుప
నమూ
భు
(''
విగ్రహ
##దేశం
##టై
##ళు
##రించే
##హో
##ండ్ల
ఫర్
##డర్
##ంగ్రామ
సంస్కృత
జాన్
##బాదు
##స్తవ
చేరు
0.00
సంయుక్త
##ెంబ్లీ
##చో
##మన
చేర
en
ప్రాజెక్
##పాన్
##త్రాలు
స్వతంత్ర
##లక్ష్
సంస్కృతి
##ong
ముస్లిం
సభ
ప్రవ
##మీద
##రాయి
##ప్తి
ద్వి
మద్ద
దానికి
ఫా
అంచనా
సాంప్ర
సింగ
##దాయం
##జో
##బే
హౌస్
##ణిక
##ర్యా
##ట్టింది
జరిగే
యె
##స్థాన్
గారి
ప్రభావం
##తృ
కింద
##కేషన్స్
కుమారుడు
శ్రే
##నియర్
##దారులు
అందుబాటు
##గృహ
##బడతాయి
స్కూల్
నిర్మించిన
ప్రతిష్ఠ
##ళీ
సరఫరా
ప్రాంతాలలో
చేతి
చరిత్రలు
##ఎన్
##రోధ
సమయ
##ంద్రా
వెలువ
ఉద్యమ
ఆత్మ
00:
##స్థాన
వెనుక
మాజీ
గారు
##దాన్ని
##కారం
భద్ర
సంఘం
##ధ్
భారీ
జగ
చెప్పు
(00.00%)
##గానికి
##గణన
పెళ్ళి
##ob
##వర్ణ
పుస్తక
##the
ఫై
నెట్
పాటలు
##==
##మర
##దురు
00000.
దుర్
కాంతి
పరిపాల
##pl
సమాజ
నేను
రాజా
గడి
##పూర్ణ
ఉదాహరణకు
##కలో
##ార్డ్
##వేయ
అణు
##బట్టి
స్క
##దర్శి
##సార్లు
వంటివి
##ెర
ap
##మిని
##న్యు
సిం
సగ
this
రక్షణ
అభిప్రా
సమీపంలో
##ha
##rit
వది
అసెంబ్లీ
0,000.
##పరమైన
##జూ
##లూ
##జిల్
మ్యూ
##ond
చెల్లి
##ంటాడు
##ంటీ
##నెట్
వారిని
స్త్రీలు
##ఫోర్
నవంబరు
so
##తున్నారు
శిల్
పరిధిలోకి
##ప్రెస్
##న్లు
##మార
##దుగా
క్రై
అన్నది
రాష్ట్రం
##పోయా
సమాన
చుట్టూ
##చ్చే
కోల్
రావు
##డప
ఇతని
రాసిన
##లింగ
##0.
నిల
##బ్రహ్మ
డిసెంబరు
జరుపు
పొందు
విధానం
అం
##ించవచ్చు
హే
##గులు
చెబు
image
##und
అద్
##ాలయంలో
తరగతి
దేవాలయం
భి
ప్రయోగ
sc
మద్య
మందు
రచయితలు
ఉన్నది
దిశ
శంక
##కలా
##దిరి
##ములలో
ప్రమాణ
లోక్
##ధాన్య
సినీ
##ణాలు
చేయబడింది
##గొండ
చెప్పవచ్చు
##షనల్
క్రింద
##ల్ని
చేరుకు
మొదట
వాణిజ్య
హు
పద్ధతి
విశ్వవిద్యాలయ
సిద్ధాంత
man
సూర్య
దీనిలో
##కథ
cl
నేపథ
రాజమ
హను
##ణాన్ని
##హిత
ఎందుకంటే
##బొ
##కోడ్
తరచుగా
adj
##గింపు
##ట్రో
ఆయు
##act
తెలుసు
జనరల్
గాంధీ
##వార
##ory
##పుణ
హీ
##సైడ్
##ందరి
అయినప్పటికీ
కెన
క్రీడ
##ామిక
చర్చ
జాతి
దర్శకుడు
మార్కెట్
ఉండాలి
##రక
విస్తరించి
జారీ
నగరంలో
isbn
ప్రతిపాద
##రాన్
##త్యం
##దూ
##సిస్
##రించు
##డెన్
##వారికి
##సుపత్రి
స్టా
పెరి
చై
అగ్ని
ఎలక్ట
సాహితీ
##యిల్
నిర
శతాబ్దంలో
##:-
##ంతరం
##గాడు
వివాహం
మండలాలు
##ప్రాంత
నెల్లూరు
##ide
##ారామ
##శే
పరిష
##డుతుంది
##స్కృతిక
##ari
##తనం
పాత
మార్చ
##వాన్
##వర్తన
పరిక
పరుగు
నొ
##దాన
##ఆంధ్ర
##డుకు
రాత్రి
భవ
##పాల్
not
బట్టి
##దొ
##టిన్
ఆసియా
సత్యనారాయణ
##ఒక
##ఫు
ఫు
##ండన్
పబ్లికేషన్స్
##రుగ
##ult
స్నే
ఉన్నా
శతాబ్దం
దర్శకత్వం
ఇంగ్లీ
0000-00
##డము
గ్రహీత
##00.
మని
india
ప్రయత్ని
జు
##బ్బు
##లిన్
ప్రోత్స
##ఫర్
ఆస్ట్రేలియా
##ma
సైన్
భౌతిక
మరణాలు
నం
##నది
మాధ్య
ఉంటే
##ంటా
##భారతీయ
భక్తులు
##ష్టమైన
ఆఫ్ర
కలిగ
ఎక్స్ప్రెస్
నూనె
పరిమి
##డింగ్
##ెడ్యూ
పాలన
పిలి
కంప్యూటర్
వివాహ
##ens
ఇద్దరు
##ఎల్
##బూబ్
##కోవడానికి
##టంతో
##పార్
చట్టం
##షింగ్
##్రిక్
##డమే
పొడవు
ప్రణా
అదన
సంర
సెంటర్
ఓడి
$
బోధ
పబ్లిక్
##శారు
##వంతంగా
##ులను
రూపంలో
నష్ట
##ya
షెడ్యూ
##కాహార
##ంచడానికి
జనగణన
విష్ణు
పద్మ
సామర్థ
##డల్
దస్త్రం
##హీ
తీర
##ికంగా
లను
సంబంధం
వాటిలో
##లూరు
పెం
బర్
##క్ష్మ
##సింగ్
ప్రధానంగా
##aw
##బియా
##గీ
##నేని
##్యాండ్
ఉంటారు
##ost
సంపు
వార్షిక
ప్రారంభించారు
స్థాయిలో
##ఘు
సాంస్కృతిక
అప్పుడు
బ్రాహ్మణ
##మెంటు
ప్రయాణ
గీ
బాధ
కొందరు
ఇండియన్
నివే
##రోజు
సమాచార
చిత్తూరు
##ులలో
లభి
ఉష్ణోగ్రత
జన్మించారు
##యాల
##హే
##నుడు
సాగ
సాగు
మద్దతు
మాస
##ముఖ్య
హెక్టారులు
##త్తం
---
రిక
##హారం
త్ర
వంట
పేజీ
ప్రఖ్యా
##దయ
##నేయ
వరల్డ్
క్షేత్ర
##ోతి
##వేర్
##ష్టు
విభజ
##te
సొసై
000.00
##స్వామ
##ver
జయ
ఎల్
##నీటి
వెళ్ళి
##నాలి
శ్రీరామ
##వాసం
కార
దూరములో
bh
తెల్ల
శ్రీకా
##శాఖ
##తాలు
##నిమి
చేయబడిన
ఉండటం
##ేత
అనంతరం
బుక్
##గారి
వంద
ధర
ప్రెస్
##కాక
##యారు
##ోత్సవం
పార్ల
##రియన్
##నార్
విజయన
##ించేందుకు
##దరణ
వ్యతిరేకంగా
##ద్దీ
పట్టి
##హన
విషయం
చెట్టు
0000-0000
జన్మించాడు
##యింది
చూడండి
విశాఖపట్నం
పల్లె
ప్రథ
##సిటీ
##స్లో
##పియన్
##నిక్
##న్నే
ఇటీ
##పబ్లి
విధా
##స్కో
##వల్
చౌ
షి
##sp
##ff
బహి
సమావేశ
ఎవర
అక్షరాస్య
లోపు
##ram
##ర్షి
ఖాన్
##ద్రి
##బాల్
##లికి
##రగా
##న్సర్
##య్యారు
సొసైటీ
హైడ
విడుదలైన
##లియ
##కూరు
సమ్మ
సినిమాలు
మండలంలోని
##పోష
##ోలు
ఔష
##ae
##ణాటక
మారింది
##ack
##చేసి
##టిల్
బౌద్ధ
##క్రో
అనుకూ
తాలూకా
##వచ్చ
##ice
##ంబు
##00,000
(0000),
అర్ధ
##గంలో
వర్ష
పునర్
ప్రయోజ
యే
ఎగు
దశా
శాస్త్రి
##ద్వారా
కుమార్తె
విమాన
సామాన్య
##ప్ల
##స్థల
##యులైన
##ానే
విక్ర
వినియోగదారు
ఏమి
పురుషులు
##ubl
బృంద
##చార్యులు
ఎన్నికైన
##టె
ఆసక్తి
వీడియో
res
##ఠా
##కాంత
##వాతి
ఆన్
##ండీ
##్యంలో
పచ్చ
శాంతి
పొందారు
##జ్యం
ధ్వ
##ప్రసిద్ధ
నమోదు
##ాలే
comm
ఆసుపత్రి
##ood
పోలి
ప్రమాద
##భాష
వాయి
ప్రకృతి
వో
సంకల
రెండో
##వ్యాప్తంగా
##కృత
ఇన్స్
##కుంటారు
##ord
##నని
##ational
చుట్టు
స్టేట్స్
##మాన్ని
##దానం
##దాసు
కొల
వృక్ష
ఫలితంగా
##విత్ర
గౌరవ
ఆధారపడి
కాబట్టి
వేస
సహకార
సామ్రాజ్య
తగిన
##ii
జ్య
సగటు
అన్
ఏర్పడిన
##ally
తగ్గు
ఇప్పటి
000.,
శాసనసభ
అయింది
షెడ్యూల్డ్
రికార్డు
-,
పునరు
##ల్వ
ఎదుర్
సార్లు
చిత్రంలో
వ్రాసిన
##".
అప
పెద
##తులలో
##ణిత
గతంలో
భక్తి
##పిన
me
పున
##ంచిగా
##గరం
అవత
ప్రణాళిక
##orm
దె
సూక్ష్మ
ఫీ
col
##సంఖ్య
సందర్శ
దేశాలలో
##uth
శ్రీరా
దై
శాస్త్రం
##కోవచ్చు
##కింగ్
పండుగ
ఏడు
కాగా
సరిహద్దులో
##రత్
##లాం
వివరణ
##రుల
ఇంత
ప్రసార
రచనలు
ద్రవ్య
మ్యాచ్
##దరి
##ట్రా
##ఫిక్
చింత
మార్గం
##కులను
దీన్ని
##ater
##భద్ర
##్వర్
నరసింహ
వస్తువు
ఉపయోగించి
##ame
##గుణ
కింగ్
నెట్వర్
##స్తుంటారు
చిహ్
నియంత్రణ
విజ్ఞాన
##ugh
ప్రతీ
ప్రశ్
సంభవ
co
సంబంధిత
దీర్ఘ
క్రమంలో
##ata
అకాడమీ
##బద్ధ
మహబూబ్
నిర్మించారు
వేల
##హాన్ని
##ంచబడింది
తెలుగులో
##డీఏ
దాడి
##తకు
##దైన
లండన్
##చేసిన
బ్రిటీ
##ేద
##టెక్
##పోవడం
ఇప్పటికీ
యూరో
##hy
##hen
su
##శక్తి
రోజులు
రామకృష్ణ
ఉద్
##త్తులు
##స్థానం
గ్రూ
##tern
గర్
##-0000)
జీవితం
కేంద్రాలు
##గాయి
##మ్మె
సమూహ
పనిచేశారు
##తక
##ాలపై
##ఆర్డీఏ
##erm
##ట్యూట్
మ్యూజి
అందుబాటులో
##ction
రోడ్
మగవారి
సమీ
పక్క
##స్టా
part
సంకే
ప్రాంతాలు
నివసి
##దుల
##పడిన
##ర్యం
##ళూరు
##రేషన్
##రస
##వలసి
sub
దంప
ఆల్బ
కూర్
చెంద
##మానాశ్ర
ఉపయోగించే
అతడు
##ఫల
సమయం
లక్షల
##గృహాలు
జ్ఞాన
##ఆంగ్
కావ్య
##ue
కాలువ
జపాన్
ప్రభావ
బహుమతి
##డ్డి
చార్
##ణంలో
##్లేష
##ధార
మనిషి
నేరుగా
రాష్ట్రంలో
##ave
త్వ
అవుతుంది
##యితే
##యింట్
నివస
##స్యులైన
పట్టణం
సైన్స్
టు
##ూరల్
##కోట
##ations
పిలువ
జార్
##త్తమ
కై
##రోపా
##మర్
వేయ
సన్ని
సైనిక
##యాన్
##శ్రామిక
one
##నాలజీ
##పోషకాహార
విమానాశ్ర
##0)
##గమ
ప్రకటన
##యేషన్
##ర్మనీ
##olog
##్రావ
పుస్తకం
##త్రు
##రస్
గుర్తు
బృందం
##ite
చెందు
పరమ
##out
స్టీ
##శాస్త్రం
has
##కరమైన
other
##రిస్తారు
లభించింది
చక్రవర్తి
##హన్
int
పెరిగి
అభ్యర్థి
##తము
పడి
ప్లే
దళ
ఫోర్
కార్యాలయ
##మాని
##one
mar
లూ
తగ్గి
00.00%
క్రింది
నాటకాలు
##విగా
జానపద
ద్వీప
##బాబు
కొను
పథకం
వాల్
విశ్
##త్వాన్ని
also
రక్ష
హిందు
విభా
కార్యక్రమాలు
##hi
పాఠశాలలో
గ్రామాలను
కార్యదర్శి
##క్ష్య
##ta
##ందీ
##దాని
కాలి
##గురు
ఇంజనీరింగ్
##కళ
##యూ
##వని
పర్యావరణ
##hed
ఇతను
రూరల్
సాంఘ
భాషలో
sy
గవర్
అనుసరించి
వస్తువులు
00-00
##మాణం
0:
##రళ
tem
చేయి
ram
##నాయి
ఔషధ
పరిణ
విశ్లేష
##ree
##కరణం
##రావతి
అక్క
డీ
##కొనే
నిమి
##పారు
టర్
చేస్తూ
విదేశీ
చేస్తున్న
వయస్సు
per
##able
వెలు
ముంబ
ముని
##ఫో
bl
##కరంగా
any
ఫార్
ఆయనకు
ed
##మ్మద్
పట్ల
అవసరమైన
##కులకు
పాలి
##లిక్
శుద్ధి
గ్రామములో
స్నా
సంస్కృ
##ire
##ust
గంగ
అసలు
బంగారు
పరిష్
par
శైలి
అధ్యా
కళ్యా
అనువ
చలనచిత్ర
థి
his
పవిత్ర
కార్యక్రమం
##ఫే
చేసాడు
##ry
ఎక
వేదా
సినిమాలో
##నీయ
ii
పంపి
ఉంటు
తరలి
ప్రథమ
000,000
##సారిగా
వేసవి
సంకలనం
పారిశ్రామిక
##ార్లలో
మంత్ర
ఐరోపా
ఉత్తర్
చెన్నై
సాధించిన
##ld
తెనాలి
శ్ర
##త్మిక
గర్భ
భారత్
కేంద్రంగా
##భం
##విజ
ఇట
మిన
##ప్పుడూ
##ition
ప్రత్యేకంగా
##పణ
సంఖ్యలో
##):
అద్భు
##ందన
ఉండవచ్చు
##ance
##శర్మ
మెక్
##ome
##పరచ
##క్లో
##నేషనల్
ఆప
##ండగా
సేవా
నిర్మాత
##uk
##ern
ఆశ
సల
##ముని
##క్రి
బయట
బరువు
వదిలి
ఉన్నాడు
##బాల
అత్యు
సేవలు
నాయక
new
చేర్చ
##ర్ణ
పరిచయం
##నాథ్
కనిపిస్తుంది
##వాది
##ులతో
సర్పంచిగా
సిస్ట
విస్తీర్ణం
##cl
##పులు
బాల్
##దృ
ఫె
##పాలి
##వాని
భావన
##way
సుల
ఫోన్
##రీస్
##మవుతుంది
తక్కువగా
cent
కచ్చి
దేశాల
స్వీక
##ల్లం
పురాణ
##హ్య
దేవి
వంత
##fer
##శేఖ
##ంగల్
భర్త
రాజమండ్రి
##గవ
వేడి
కొనసాగ
అమరావతి
##erv
##రాయ
తనకు
ఆక్రమ
##ెక్కి
డాక్టర్
మొదలైనవి
##సమ
##ధన
షే
##దైనా
కర్ణాటక
నాయకుడు
సమర
##ఫై
బహ
##టికి
##ట్లుగా
##కరి
టో
నంది
పశు
మధ్యలో
శ్రీకృష్ణ
##సముద్ర
అధ్యయనం
##ep
##యె
చల్ల
నమూనా
వైభవ
శబ్ద
శాస్త్రీయ
గమని
స్వయం
అతనికి
పిల్లలు
##మహ
red
అద్ద
ఉత్సవ
కలిగివు
##టము
##రమణ
కలసి
##సీమ
##ంద్రీ
ప్యా
##డాన్ని
నేర్చు
చెప్పిన
##వుగా
##ించబడుతుంది
##గూడెం
స్పె
##టమి
##కంలో
##గోలు
బార్
ఆధ్యా
##పడే
##వెల్
##చార్య
కార్యకలా
##కోసం
ఇచ్చిన
ఎన్నికైనారు
పరిగణ
సమాచారం
పొర
fl
గాను
##కుడిగా
z
##మయిన
ఊరి
క్రో
స్వే
విద్యార్థులు
ఇష్ట
మహిళా
సరస్వ
మానసిక
విద్యార్థి
రకం
ప్రచార
##గడ
##ber
డైర
ప్రశ
ఎనిమి
##రంగా
సాంఘిక
లక్ష్య
క్వ
మెద
వ్యక్తిగత
##కత
గొట్ట
నాయకులు
##ati
##పరంగా
!!
##ప్రతి
##ాల్లోని
జర్మనీ
మిల్
##సుల
చూసి
విశి
##ంపే
క్లో
గుండె
ప్రస్తా
publ
రాజ్
##రించాడు
##ంట్ర
mad
ఫ్ర
వసతి
ప్రత్యక్ష
##మరి
నేల
రొ
##ల్లీ
##తోపాటు
అయినా
##మవు
##ట్టే
లింగ
##స్ట్ర
ప్రీ
##జీవ
గంటల
##కుళం
distr
సూప
నాలు
##డియం
జీవన
అందించ
des
చివర
నిరోధ
##-0;
##బైల్
##చ్చిన
##వళి
యి
సంబంధించి
##టలు
##్లూ
కనీ
##సంబంధ
అందరి
##మారి
##విన్
##హై
భవన
##ంపియన్
నిర్మించ
ఆకు
ఫ్రెంచ్
నిరా
##స్తులు
సందేశ
ఎర్ర
వారిలో
టెలివిజన్
అడ్
ఉపాధ్యా
పదార్థం
యూనియన్
ప్రదేశం
ఖండ
గుర
##ానంద
ముందుగా
##ంటె
చర్చి
పన్ను
నటీ
ఇంటర్నెట్
అప్పు
అవకాశ
అధ్యక్షుడు
##హరి
గోల్
పరిశీ
రంగంలో
భావిస్తున్నారు
##px
##పడుతుంది
చర్మ
vi
##ెక్టర్
కెనడా
##వుడ్
గార్
భాగంలో
టెక్నాలజీ
##మూరు
##రిక్
కవులు
మిశ్రమ
##జ్ఞా
##వార్
కాన్
విభాగం
శ్రీనివాస
గిరి
##కోవాలి
అనుభవ
మొదలగు
నక్ష
శ్రీమతి
గుర్తిస్తూ
మనం
##నగ
సాయి
##క్రా
గణిత
##వులకు
##కూర్
fr
టే
విప
##ంటో
##హార్
##ాల్సి
##్వర్యంలో
నిర్వహించెదరు
తూర్పున
శుభ
పిలవ
అక్కడి
##జున
శతాబ్
దేశాలు
లోక్సభ
క్లి
##కూడ
ముగ్గు
##లము
కర
భిన్న
అధ
##నామా
|
##యార్క్
స్థితి
##aj
##han
pers
##వంతు
##చున్న
సమితి
##గార
బూ
చతు
కుటుంబం
పాటి
##నామ
నిజా
ఒప్పంద
##చీ
##thumb
అసో
నీటిని
mus
చారిత్ర
ముఖ్యమంత్రి
కమిటీ
పెంచు
గురువు
ఆఫ్రికా
చరిత్రలో
హృ
బాబా
పరిసర
##ారిత
##ప్స్
##హెచ్
ఫ్లో
ప్రొఫె
వస్త్ర
##జరా
##ound
కన్
పరిమాణ
వెంటనే
తది
##కేంద్ర
పురపాల
సాంప్రదాయ
##యంతో
##ivers
మళ్ళ
ప్రాజెక్టు
సల్
ఒకరు
##తుందని
పాలు
ప్రజలకు
##ప్రసా
##భాగంలో
##ందర్
##జింగ్
పత్ర
##టీఎం
మాన్
నెలకొ
:*
బిల్
జిల్లాలలో
ag
మంగళ
##పోయారు
పాప
##నిగా
##లియం
సొంత
పుట్టిన
బాధ్యత
##sc
పాద
శేష
వీజీ
తిన
ఆనంద
నటించారు
వీజీటీఎం
ఉదయం
అక్షరాస్యులైన
##చా
##మంత
##రాజ్య
##సాధారణ
##ేయ
##esh
all
డిస్
సైన్య
సూచిస్తుంది
##సార
సర్వీసు
##టంలో
లక్షణాలు
ఫౌ
జోన్
##వన్
##ధికార
నిష్
కరీ
##ళ్లతో
ఆమెకు
అనుబంధ
ఇన్స్టి
##ాలనే
మీటర్ల
గ్రామీణ
పొడి
ఇటువంటి
తప
లోహ
##లైన్
ఆరా
##ళన
##ఇది
##పోయే
##ష్యా
##మ్మడి
ప్రాముఖ్య
మెడి
##బడుతున్న
##కొన
off
మట్టి
##ign
##డ్లు
***
కాలేజ్
ఉత్తరాన
ఉత్తర్వులు
##పట్ట
స్కా
పాకిస్తాన్
##ద్వా
##లాస్
##ొన్న
అర్ధం
ప్రక్క
##ఖ్
##కాయ
చని
లోక
ఒప్పందం
##ైక
అన్నీ
ఏదైనా
కలుపు
సుందర
ఉపగ్రహ
దశాబ్ద
విషయంలో
ఆధ్యాత్మిక
##శో
##డాది
క్లబ్
##గము
##రియ
ధ్య
##మౌ
##ase
##rap
బ్రిటీష్
##ai
శృ
నిపుణ
మండలంతో
##పిస్తుంది
°
##డ్ల
##శాడు
వహి
##నున్న
##ank
##డుపు
గోపాల
##క్యూ
అబ్
సమర్ప
తెలుపు
రకాలు
##రొ
క్రీడాకారులు
ప్రార్థ
##టూరు
సూత్ర
గణాంకాల
వ్రాయ
రాజ్యా
కొనుగోలు
##గోళ
##నాధ
పసు
దూరం
దేవత
శర్మ
ఖర్చు
##పాతం
వన్
##ండ్లు
(0000).
నెట్వర్క్
ఆటో
ఉంచు
నిషే
కారు
##ఆంగ్లం
##బ్బంది
వాస్త
##ాహ
ఇక
##ఫోన్
##క్సి
ఆకర్షణ
తమిళనాడు
సంభా
##ామ్నాయ
భారతీ
నిర్ది
సాధించాడు
##జీవిస్తున్న
##మెంట
లేవు
##గల్
పీఠ
వేడు
##లాన్ని
చెందింది
సాధించింది
చొ
గంగా
అగ్ర
సోదరు
##యట్
ఖై
రౌ
##రేట్
##వ్యవసా
##బడుతోంది
పెట్టుబడి
##నూలు
జరగ
సామె
మేనే
##ాల్సిన
తప్పు
పొంది
కొంతమంది
(0000-0000)
##జుల
పరా
బిరు
శో
##వాటి
తరచూ
హాస్య
ప్రచురణలు
##కల్పన
##పబ్లిక్
##కారి
కాలేదు
ప్రాంతాల్లో
ఆమో
వైశాల
బావులు
##.''
##ల్య
వివరాలు
పనిచేశాడు
##ద్దా
##క్రీ
దుకా
ఆలోచన
district
##పరు
పాల్గొన్నారు
కీల
ఆమ్లం
పరిశీలి
##లని
పొట్టి
పదవి
ప్రసాద్
sw
##లోనూ
ఫోటో
##శివ
లీగ్
హాల్
కప్
ఆధ్వర్యంలో
##మత
కూడ
పేర్లు
మార్కె
ఇక్కడికి
##ft
శ్
##ోద్య
యంత్ర
##ంగ్రామంలో
##ose
వరి
##త్రులు
af
సాధన
temple
జ్యోతి
పొందాడు
అమ్మవారి
##కోర్
తయార
తెలియజే
##వెన్
##రియల్
గెలుపొ
నివేదిక
##దగిన
మార్పులు
దండ
year
##గూ
##శం
రాఘ
అక్షర
పట్టా
ఉండేవి
సారి
ఉన్నప్పుడు
##int
ఆయా
తత్వ
##లక్ష్మి
##ie
##amu
##ever
ఓట్లు
కన్నడ
స్వంత
ఫిల్
నిల్వ
##att
##ాయితీ
##చేసింది
##బెల్
##బడ్డాడు
##ys
may
##ష్టంగా
అసోసి
తిరుమల
ప్రైవేటు
సీతారామ
##షియన్
సూపర్
##పేరు
(000)
శ్రేణి
వైభవంగా
ఇంటర్నేషనల్
##రణం
##స్స
స్నేహి
ప్రాచు
వ్యాఖ్య
న్యూయార్క్
సుబ్బారావు
—
##ann
సైని
నాణ్య
వేదిక
మాదిరి
ఎటువంటి
వ్యవసాయం
రత్
సాయం
రిజర్
##రాష్ట్ర
##''.
##ీలు
నటులు
##మణులు
రహస్య
రంగస్థల
##పురా
dev
sri
ఎడి
సీజన్
పురపాలక
##న్నత
##లేదా
##ల్తా
##ించటం
పుణ్య
##చారాన్ని
##ied
00.0%
##పల
##వులలో
ఏర్పడింది
ప్రాంతాన్ని
##కాలను
##యాత్ర
##ెక్స్
ఇంద్ర
వనరుల
##సెర్
పార
రికార్
##జ్జ
చోటు
##త్వానికి
##క్లి
అడి
##గె
ఉర్
క్షి
##విడ్
అందువలన
##ics
మూత
comp
##దండ్ర
హత్య
హాస్
నిర్మి
పిల్లల
##కృ
తరువాతి
సుప్రసిద్ధ
##ica
who
ఎత్త
##దె
##శై
##వర్డ్
జనతా
##ాలంటే
pe
గ్రహీతలు
మంద
##మయ్యే
##ారిటీ
ద్వార
ఇలాంటి
అందిస్తుంది
మృ
నార్
సులభ
##ely
పాడ
##త్తిన
##మైనవి
వీలు
వచ్చాయి
రచించారు
వెల్
సంఘటన
చిరు
ముక్క
బ్లాక్
కనిపించే
కళాశాలలో
ఇండ
పార్క్
##port
##గార్
##బ్బి
##పోతుంది
indian
##డుతూ
##త్తర
##లెస్
పదార్ధ
పర్యాటక
నివాసగృహాలు
##క్సైడ్
ఏర్పర
##బ్రహ్మణ
రోజున
అధికారిక
వస్తున్న
బెల్
జం
##కట్ట
##నింగ్
##దులుగా
కొడుకు
పాత్రలు
##ందున
లకు
కవితా
నిర్వచ
##ంటున్న
##సులో
చంప
వెలుగు
శక్తిని
##షల్
ఆఫీ
సరైన
కట్టు
మహారాష్ట్ర
##ium
##పైన
ఉందని
రామాయణ
పద్ధతిలో
##0,
##రైడ్
సమ్మే
##oh
##సాయి
కాశీ
sch
ఇచ్చే
##ందరూ
జన్యు
శిశు
రెండి
ప్రాంతీయ
అంబ
ఉత్
రష్యా
ప్రేక్ష
##గన్
##నంలో
##పెన్
మనో
అలం
చూపు
హీరో
అడవి
జనాభాతో
##aus
##అమెరి
పర్వ
కేంద్రము
##నను
##స్సా
##dy
##షిప్
ఎక్
ప్రాధాన్య
వేసిన
గెలుచు
##స్ర
##bs
ఆహ్
ఉండగా
##కై
మొబైల్
##ించేవారు
పాఠశాలలు
##వరు
గట్టి
చదివి
కేరళ
పారు
##oll
##వును
జర్
నంద
బావుల
##బ్రహ్మణ్య
యుద్ధంలో
కార్యకర్త
డో
షో
##ునిగా
##ఉదా
కద
##form
##నాల్
సాఫ్ట్
వ్యాసాలు
తల్లిదండ్ర
##ada
##now
##మలు
##నియం
##నర
అప్
##ంజనేయ
##సుశీల
దాన్ని
##బ్రహ్మణ్యం
శ్రీకాకుళం
##ండం
అమృ
సంపూర్ణ
##ఘా
కుడి
కొనసాగు
గోడ
##భిన్న
ఫిలి
శతకాలు
శీ
బాబు
ఇటీవల
బ్యాంక్
ele
తెర
##ology
##ంనగర్
##పత్తి
##స్టిక్
నాయుడు
##సంస్థ
అంగీక
సెయింట్
##టూ
##మ్మం
కాన
డాల
నదీ
విగ్రహం
మరిన్ని
తై
##నంగా
##బల్
##డును
బుద్ధ
##చున్నారు
మరుగు
పరిస్థితి
##రింప
కీర్తి
ఫిలిం
ప్రాణ
(0000–
సాహిత్యంలో
##gl
##రన్
నమ
ఇంధ
పుట్ట
##ms
దెబ్బ
ప్రైవేట్
0-0
శిఖ
వార్తా
ట్రస్ట్
సత్
##బర్ట్
కాకి
0000–
పూర్వం
కళాకారులు
person
కం
పసుపు
కర్నూలు
##బడుతున్నాయి
యూనివర్సిటీ
its
శ్రీమ
కోర్టు
శృంగ
అమ్మా
గుర్ర
ప్రామా
##టరు
##ూలు
##ions
##లెట్
##విష్య
దిగువ
బిలియన్
##ward
##కిల్
cont
##ంట్రల్
వచ్చు
స్వామివారి
ఓడ
గ్రంథం
వాతావరణం
ro
కాం
తాత్
అడుగుల
మెరుగు
##జ్ర
cell
సేవల
ఆవిష్
##బై
##enc
##హీన
ముగి
వృద్ధి
లైన్
భారతి
భాస్క
ప్రాంతానికి
##విక
##సేవ
##మాను
పంజాబ్
పుస్తకాలు
br
##నాత్మక
##బ్రా
##సిన్
వేసి
##హమ్మద్
కులాల
అష్ట
పనులు
##బల
##చిత
##పూజ
##రము
we
##రాజ్
##కొన్ని
పంచాయతీకి
మార్కెటింగ్
##నాడ
మళ్
స్వి
ధా
##సాహి
సబ్
బహుళ
ఆమెను
విధమైన
జంట
##దశ
##com
వెల
కావలసిన
##pur
##పాత్ర
##ానిక్
పెట్టి
##శిటీ
తిరుగుబాటు
సంచిక
##="
##br
ఆకాశ
టెస్ట్
రాష్ట్రంలోని
##కళా
##బెర్
మాధ
మాధ్యమిక
ప్రాంతాలకు
ఏకైక
మీటర్లు
గుర్తించిన
ఇన్స్టిట్యూట్
కంట
విల
క్రా
నాటకం
##యస్కాంత
చేపట్ట
ప్రకారము
##we
సికి
ఉప్పు
ఏడాది
ఒత్తి
స్టేట్
ఇంగ్లీషు
చారిత్రక
##ex
dr
ఆర్ట్స్
##భావ
##ల్లే
భీమ
రాజీ
ఒకటిగా
పరుగులు
##ట్లను
అంతా
ఎవరి
సాధ్య
ఒకసారి
గరి
##ెస్టు
ప్రాతిని
##ధిప
రాయల
##చిత్రం
##ఫున
##ంపల్లి
వ్యతిరేక
up
##క్యు
##సాడు
మును
కార్యాలయం
em
ఊహ
##భూమి
##ేంద్ర
స్థల
పాలకు
##టార్
##కాలిక
ఆహారం
వీరికి
విభాగంలో
##యేటర్
రకమైన
hy
##ధానం
హెక్టార్లలో
##రిక్ష
ఎన్ను
ఉపయోగించు
##కాం
##ధుల
do
str
తను
సంభ
##పూర్వ
ఉద్యోగ
బోర్డు
కిందికి
##aram
తార
నర్
మాల
చెప్పాడు
నిలిచింది
##ంగాలు
##ont
##డ్జ్
సామ్రాజ్యం
నట
భవిష్య
వాడుకలో
శ్రీరాములు
ప్రకటించింది
పోల్
ప్రచురించ
##కొక
##గడ్డ
ఎల్ల
విస్తృత
సమాచారాన్ని
##ములకు
సమస్యలు
తీవ్రమైన
##రుని
##ధీ
##పోతే
##నాలను
క్రొ
ఉండదు
పలువు
కొన్నిసార్లు
##గతా
ఒడి
మరా
ప్రవేశపెట్ట
మళ్ళీ
##చరిత్ర
సంస్థల
no
##దుపా
ఉంచ
##ేషి
##పురుష
##స్తున్నది
దొంగ
తరఫున
విశిష్ట
గుణ
##చున్నది
సెంట్రల్
##ime
ఒకరి
విభిన్న
గానీ
po
##iss
##గంటి
రోగ
##ంపూర్
ఆర్ధిక
మైక్రో
##చాడు
##య్యే
వాద
##తుల్లో
వంతెన
ఇళ్లతో
స్వల్ప
వుంటుంది
ఉన్నప్పటికీ
##ates
##కొను
బంతి
##బడ్డారు
పేరును
##గీత
అర్జు
జర్మన్
వరుసగా
అధికారి
##ఖి
వినో
ప్రభావి
ప్రాంతాల
##వాణి
దివ్య
##ముతో
కార్పొ
నీటిలో
వహించిన
##తమ
తొమ్మి
ప్రత్యే
కండ
##షం
tw
అనుభ
అల్ల
అనువాద
శ్రీలంక
రైల్వేస్ట
సంవత్సరములో
##వేళ
##ామిడి
కిరణ
రాణి
స్తం
పరిణామ
univers
ప్రతిని
గురించిన
rec
ఆయుధ
కూతు
రాధా
ఎనిమిది
##రణ్య
act
ఆగ్
ఫుట్
గుజరా
సహాయం
పసి
##ెట్లు
పాయి
వైవి
చేస్తాయి
##రప
మీదుగా
సీఆర్డీఏ
##వడం
##పిడి
##వాయి
##ుడిగా
పుష్ప
సరస్సు
రోజుల్లో
##ళ్ళను
పదవీ
అనుసంధాన
అనుసంధానం
భావిస్తారు
##మణి
##య్యి
గుహ
##లకి
##శ్చా
##ild
##ామీ
##చారి
##బోర్
##రరావు
అనువద
##ale
##ery
శిలా
శని
0.0%
have
rail
వేర్వే
నటించింది
విన
గెలి
నాట్య
నాగేశ్వరరావు
##కను
గురి
##క్షణాన
ఆలోచ
పల్ల
##యాన
సాధించ
వైద్యశాల
ప్రామాణిక
అసోసియేషన్
యూనివర్శిటీ
రఘు
##ట్లయితే
##థ్
##తగా
రేఖ
##స్తుందని
##'')
సలహా
హైడ్రో
నిర్దిష్ట
del
తద్వారా
ప్రసారం
##మధ్య
స్వర్ణ
యజ
can
నవా
పౌర
ద్రవ
లక్ష్మణ
##pa
##లొ
యోధ
మల్ల
##ism
such
ట్రి
దృశ్య
car
సుర
##గలు
చెక్క
దర్శకత్వంలో
cr
##పోయాడు
##రాత్రి
వెల్ల
ప్రత్యేకమైన
సుబ్రహ్మణ్య
##పున
పత
మండలము
కేంద్రీ
gro
డ్రై
దారితీ
లాభ
రాతి
వెలి
##పురి
##శేష
##తుకు
రాయి
ప్రవహి
##har
విరా
చేతిలో
వరంగల్
##ంఛ
##మండల
##యుని
##ళ్ళలో
తీసిన
సుల్తా
సందర్భంలో
##తని
##ished
##ేశారు
ఫ్రాన్స్
దక్షిణా
##ప్పా
##స్తున్నా
##cm
##కలి
rel
కడప
నాశ
coun
స్టార్
జీవితంలో
ప్రఖ్యాత
gre
spec
విశ్వనాథ
చేస్తున్నారు
##్వే
ఇర
శీర్
స్వర
అదనపు
కోరిక
##మయ్యాయి
నేపథ్య
బెంగాల్
విస్తీర్ణము
స్థాపించబడింది
##కుండ
##రియం
##దక్షి
##పిల్ల
ప్రె
వాడే
నిబంధ
గోధు
బదులుగా
క్రైస్తవ
##ty
గజ
##లైంది
లోపల
##నగా
##నాట
క్యూ
ఫ్యా
రోమన్
స్వేచ్ఛ
##ts
##జల
##ఖరి
డేటా
there
##ంసా
##order
నిలిచి
అందించే
రోడ్డుతో
##రత
ఫే
ముందుకు
అంతరిక్ష
అమెరికాలో
##రుద్ధ
##ిల్లి
##ులుగా
తెగల
కాలేజీ
##ంపుల
##రాడు
ఆదేశ
సంరక్ష
శాస్త్రవేత్తలు
శస్త్ర
పరిమాణం
జన్మించిన
##ix
##థా
##షియం
ext
వ్యవహార
చేసేందుకు
##టిక
##కొన్న
దేవు
మహర్షి
అందించారు
##కునిగా
ప్రత్యామ్నాయ
##rish
రవి
లలి
##మరియు
వ్యూ
##పోర్ట్
గుండా
మండలి
##టప్పుడు
తయారుచే
పబ్లిషింగ్
##జాన్
ven
##పడింది
వ్యక్తులు
ప్రారంభంలో
##వసర
##సుడు
కర్మ
ఉర్దూ
ఏర్పడ
ఖమ్మం
సమర్థ
గ్రూప్
నక్షత్ర
##ంజ్
##ైనీ
##land
##కూరి
##చిలీ
pol
శాస
##ోత్సవ
సభ్యుడు
డొ
ఇను
డబ్బు
బ్రహ్
మాస్టర్
రాష్ట్రాలలో
లభ్య
తెలుసుకు
రూపకల్పన
తెలుగుదేశం
##శ్మీ
అంశాల
పంపిణీ
##ాను
సన్న
కనీసం
సదుపా
పనిచేసే
ass
ఒలి
##పశ్చి
మంచు
శిష్య
ఆడి
పరిశోధనా
##వస
##చర్ల
used
##టిక్స్
మార్గము
సామర్థ్యం
##ంకా
##పక్ష
##రించడం
వెస్ట్
సైన్యం
were
శతకము
##పడ్డారు
పారుదల
పాత్రను
సికింద్రా
##గ్రి
గౌర
పాండ
పైకి
##గాలుగా
కన్ను
గ్రీకు
##టాయి
##ర్పు
##ెర్ల
చైత
సన్
రూపాయల
విస్తార
రాష్ట్రాల
##ంగ్రామానికి
##ual
gr
##త్తుల
రూపం
మహిళలు
##ham
##ick
##జైన్
సంపద
శాశ్వ
ఖు
మామ
##కించి
ఫలిత
బాలల
##విధంగా
ప్రశంస
##వారంనాడు
తెలిసిన
దంపతులకు
గింజ
##టిస్
##పిరి
బయటకు
ఇచ్చారు
పరిధిలోని
0%
బెర్
మరణం
తేదీన
ముగ్గురు
##జెన్
కావు
కొంచ
వారస
##త్పత్తి
మిలియన్ల
##బ్రి
అక్
శుద్ధ
##పెట్టిన
ప్రచారం
##ake
##man
##చలం
##సిని
బాక్
చేయవచ్చు
##ily
##ower
అడ్డు
##ించటానికి
##ne
##గుంట
##మైనా
ఫ్రీ
ప్రోత్సహ
##:00
##ఫార్
##రాశి
##గుణంగా
కక్ష్య
ఉన్నట్లు
##హ్ర
కౌన్సి
వాటికి
గ్రామాల
తీసుకుని
##ంబా
uk
##చ్చింది
పర్యవే
##గణి
ఎడమ
తోట
పడు
##పింది
వుండ
శత్రు
పరిషత్తు
##ాయని
ఇరు
సోవి
తీసుకో
సీనియర్
##వాస్
##ంబి
వెన
##ందారు
##యాలను
బోరు
నటీమణులు
సిద్ధాంతం
##co
##షీ
##టూరి
##తిరు
మతం
వారీ
అందుకే
మాట్లాడ
##జూన్
##మూరి
##షియా
##ంగ్లా
ఎక్కడ
భూభాగం
అందజే
కోట్ల
నిద్ర
చివరకు
వాడతారు
##దాస్
ఊరు
##గోళిక
మాల్
వెర్
పుట్టి
అంక
cons
మట్ట
జూలైలో
##ఠం
##మాణు
pun
మంచిన
వాస్తవ
స్వయంగా
##ానని
##కొత్త
అలాంటి
భాషలలో
వెళ్లి
##ement
ఛాయా
పరిశీల
కనిపిస్తాయి
##యంతి
తిర
##కానికి
చేసుకుని
జ్వ
గ్రే
తేడా
స్వచ్ఛ
పెట్టారు
విద్యుత్తు
పునః
##తూర్పు
మళ్లీ
##కాని
##గాను
##మెన్
but
కుళ
ముడి
రెండూ
పోలీసు
మూర్తి
రామారావు
##వైన
##ings
సెల
అందరూ
ఇచ్చి
##oci
ఆటగా
ప్రతిభ
విశాలా
పేర్కొన్నారు
చల
అలీ
##ార్థం
జైలు
నాకు
fe
రస
రేటు
విలీ
భాషలు
యాత్ర
లెక్క
విత్త
ప్రచురించారు
##fl
పేద
జరిగాయి
0,00,000
కరీంనగర్
చెప్పారు
##వాల్
హాజ
ఉనికి
మంచినీ
##కంప
##ద్యం
మనకు
##ons
##ంశం
ఇస్ల
వీధి
విషయాలు
##du
reg
##ించాలి
మిగతా
పోటీలలో
ఎంచు
లిమి
##గ్రత్త
గొల్ల
బలమైన
అంతర్గత
ప్రభావితం
యూరోపియన్
##నుంచి
##ానియా
దశలో
సకల
పులి
భాగము
వివరి
పరిషత్
రిపబ్లిక్
పెను
సమాధి
పార్లమెంటు
##ali
తరగ
పలక
మైస
త్రా
ప్రతిబి
పాకిస్థాన్
##తొ
##ంద్రత
వెళ్ళే
##యేతర
##నియన్
know
##-00000
##టాన్ని
వికెట్
సేవలను
విజయనగరం
స్థానాన్ని
##ury
##జిన
##ేష్
##్యత
##ానిస
మంజ
అతడి
కంటి
ధ్రు
మాతృ
లోనే
##చేశారు
వ్యాసం
##itt
##నిజ
##ular
నేర
##ిల్స్
అంకి
జరిగి
సంస్కరణ
##యోధ
##ైతే
కలుగు
ముంబై
##ock
##మంతా
book
పవర్
##ors
fir
కావడం
##ంస్
ne
qu
app
med
##ండేషన్
*0000:
ప్రాతినిధ్యం
mah
##వాహిక
వీరిలో
నిర్వాహ
రామచంద్ర
ప్రొఫెసర్
##దగ్గ
##దిలీ
జాతులు
##ison
##ట్టా
##జిల్లా
నేటి
భారతదేశంలోని
మలయా
##ife
##aceae
రిజి
జూనియర్
బ్యాండ్
##ించబడ్డాయి
సెప్టెంబర్
##ంసం
:-
##గుల్
స్మ
ఎలాంటి
ప్రయాణి
ప్రత్యర్థి
##స్థాప
పూజలు
కుళాయి
దగ్గరగా
##old
##ital
నిలు
బిందు
##ash
##వతీ
స్ఫ
##ించబడి
నొప్పి
railway
##భై
కవ
##-00,
##ప్లవ
మల్
కలిగిఉ
భౌగోళిక
వచ్చారు
ఝ
##మిన
##క్షా
trans
సంభాషణ
సమాఖ్య
గమ
ముద్రణ
అమ్మాయి
raj
దాడు
మచిలీ
కాకినాడ
పశ్చిమాన
ఇంగ్లాండ్
##స్వామ్య
చేసుకున్నారు
క్రమంగా
ట్రాన్స్
అవగా
ఇందు
రాక్ష
దూరంగా
నల్
తీసి
##ార్మిక
పరంగా
వాడుక
ఆగష్టు
ఒక్కొక్క
university
##టనలు
సార్
కట్టి
శుక్ర
##న్స
##యిక
ఉండడం
మీడియా
అందుకున్నారు
##జని
తీయ
వేగంగా
లిమిటెడ్
ప్రారంభించింది
ఋణ
##ంపేట
##పోర్
##దుపరి
ఉద్యమం
##భివృద్ధి
ఎలక్ట్ర
వేర్వేరు
నంబ
శిల్ప
తీసుకొని
సంవత్సరానికి
##చేత
##్రీట్
ఆదాయం
భాగాలు
("
##లాన్
ఆమ్ల
చిత్రాలలో
##గ్గా
కుటుంబంలో
ma
వన
ఎడ్
##న్యాస
పెరగ
అనంతపురం
నగరానికి
##ంజరు
##ధర్మ
##ర్గా
##స్టన్
##ool
ఫైన
సంక్షే
##లులు
pre
##ంత్రిక
బదిలీ
గొట్టపు
మార్గంలో
చేస్తోంది
##ula
##క్షిత
కొలం
వారం
అదనంగా
అనుకూల
అక్షరాస్యత
వినియోగంలో
రథ
##స్కా
అరే
##తులతో
నిండి
గవర్నర్
##సౌ
##యార్
##స్వా
ఆమోద
ద్రావ
చెందినది
చిత్రానికి
##ba
##00,
ఏకా
పేట
అంటు
భవనం
##ంపబడిన
##శ్చాత్య
మార్చు
జిల్లాలు
##నంద
ధన
##భావం
పరమాణు
ప్రాంతము
తుల
##తెలంగా
ఆధారిత
మెక్సిక
రెండింటి
రైల్వేలు
##ేశ్వరస్వామి
జీవితాన్ని
##జాతి
##లలోని
సెల్
ఆదర్శ
పలువురు
ప్రదర్శి
##హర్
ఎము
విచ
శతాబ్ది
కొరియా
##జార్
ఫల
##జిన్
##్యము
ఏను
##మార్చి
##ert
##నూరు
బానిస
##క్ల
బస్
తాము
బాలు
##చ్చారు
##ెస్టర్
జాతీ
వివే
అంతకు
ప్రయో
తదుపరి
కొత్తగా
ప్రజాదరణ
sa
కేశ
##కుమారి
జేమ్స్
రాజ్యం
పరిశోధనలు
##రంగం
సంతో
ఒక్కో
కాశ్మీ
విధానాన్ని
హెక్టార్లు
##వర్గ
మంట
బయలు
మధుర
చేసుకున్న
##wn
##yl
##ఖు
##ina
##క్కా
నెలల
##తున్నది
##త్మా
మణి
ఇండో
మిత్ర
అనువాదం
##రాలి
గది
కొవ్వు
ముగింపు
విషయాన్ని
కార్యక్రమంలో
##bc
చంద
టౌన్
##ారాత్మక
గ్రంథాలయ
##డ్ర
##మనే
##రిన
క్షిప
000000.
భక్తులకు
##సుక
పాడు
అనేవి
వైరస్
పోర్ట్
సంపుటి
##హాలు
##డియన్
##స్తుల
##వారిలో
అయ్యే
పదాన్ని
చెంది
##ంగుళూరు
ఇచ్చింది
##gr
ఇతి
దైవ
వాల
నృత్యం
ఫౌండేషన్
మంచినీటి
##మామ
##ti
##విడ
##వింద
చదర
కాగి
పడమర
వేయి
సామర్
ద్వితీయ
ఛాంపియన్
##నలో
##stit
మైన
##కారంలో
విడిగా
అధికారులు
##యింగ్
##యొక్క
##రణి
హిమ
వ్యాపారం
ఆవ
##ప్రే
ఎలి
కురు
శరీరం
ఎత్తైన
మొక్కలు
త్యా
ఒలింపి
జాగ్రత్త
పనిచేస్తుంది
##anc
##ంచీ
##ఘల్
##టీన్
కార్డు
చివరికి
##ఠీ
dec
##ాల్ని
ఈశ్వ
##ంచబడిన
##తుంటారు
స్టేషన్లు
ప్రాచుర్యం
##arg
##భ్యా
rao
##కూడదు
కార్బన్
##ఖండ
##బ్రో
లొక
ధారా
##స్థులు
నిజాం
##',
శ్లో
నిమిష
రద్దు
##చికిత్స
ఉంటాడు
థియేటర్
విశాలాంధ్ర
##రీలు
కెమె
మనసు
మనుష
నిరూప
ముందే
కనుగొన
డేవిడ్
కళాశాలలు
డిసెంబర్
వ్ర
బలహీన
రాశారు
##శాన్ని
క్రితం
మెడికల్
##పాక
##వలస
##పర్తి
పరికర
##........
##ml
##బాయి
che
ఆశా
డిజి
నిషేధ
పెరిగింది
##పుల్
సంప
##దార్
##విల్
చలి
చెప్పి
##ఫోర్నియా
ప్రదేశాలు
ఖాళీ
రాయ్
##ాలలోని
కార్మి
విశేషం
##యీ
##ికల్
ఛాన
పూజా
సీతా
##ించాలని
##ంగో
హిస్ట
##డేపల్లి
ఇస్లాం
##amp
world
క్రీస్తు
దేశానికి
మరణించారు
##నాగ
##పుల
##గాన్
అర్హ
క్రొత్త
మరుగుదొ
విత్తిన
సోవియట్
##డన్
##దూర
##్రాన్
పంచు
పంజాబీ
ఇంగ్లీష్
##are
##యైన
##రక్షణ
వాహన
ఆశ్రమ
##్యూమిని
విప్లవ
విజయనగర
దాటి
##adi
##లాది
సాల
విప్ల
అటువంటి
అట
అయో
దాన
##బ్బరి
గ్లో
##సెర్చ్
శీర్షిక
##సల్
##తేదీ
తదితర
గుజరాత్
##::
##ఇతర
ప్రతా
##తెలంగాణ
##ప్రసాద్
##వ్యవస్థ
బ్రిటన్
##ంప్
##విని
##ాత్మక
##కుమార్
##జ్ఞానం
##తున్నా
ఎప్పుడూ
వ్యవస్థాప
అసి
లోకి
first
కళాకారు
బాధ్యతలు
##డాన్
అభిన
చర్యలు
అధికారం
##ారే
##గుడి
హర్
అంశాలు
తప్పని
ప్రాంగ
లెక్కి
##abad
##ific
దోహ
##క్షేత్ర
ఆడవారి
అయ్యాయి
తెలంగాణా
దేశంలోని
##రాక్
##ానిష్
##క్కులు
కేటాయి
పారిశు
అయ్యింది
##ech
##les
00)
##ంగ్స్
serv
ఆకర్ష
బాహ్య
బిడ్డ
జంక్షన్
##pe
##nam
##య్యం
పంటలు
శ్వాస
నిజానికి
పోరాట
బిరుదు
##సాధ
తం
##పద్మ
ఈశా
కలప
##ెట్టి
అంతేకాక
ప్రారంభించాడు
జత
##నాయక
##నిని
విడ
##ద్వాం
their
బ్రాడ్
విద్యను
##మిక్
##ృతంగా
బహిరంగ
పట్టణమైన
పాశ్చాత్య
term
బంగ్లా
##az
క్లా
గ్రె
బ్లూ
అమర్చ
వాయువు
రంగారెడ్డి
రూపొందించిన
##eng
ఇంట
ఏదో
##టికల్
వికీ
విమానాశ్రయం
bel
sec
తొల
##ంలోనే
##ఎఫ్
రమణ
చైనీ
పదాలు
కవిత్వం
స్థాపించారు
సికింద్రాబాద్
బలి
బట్ట
వెళ్ల
వెబ్సై
ప్రత్యేకత
(0000–0000)
##ెల
##పటి
##ient
gov
her
##ధులను
కాపా
వావి
##పోయాయి
##స్ట్రీ
లొకేషన్
##డక
##/00
##ామృత
##్యుల
##ామంది
తిరస్క
నల్గొండ
సాధించి
జాబితాలో
రాష్ట్రములోని
##ani
##బర్గ్
##ళ్ళకు
ట్యా
నిరు
వేరే
అసాధారణ
మసీ
##కుంటూ
##త్వము
hist
అమృత
సింధ
నాగరిక
##ail
##శ్యం
రాధాకృష్ణ
సందర్భాలలో
##లాస
గూడ
##ల్లోకి
చేతిప
కనిపించ
విశ్లేషణ
##కౌ
సుఖ
##సెప్ట
పెంచ
స్మార
public
ప్రకాశ
విక్రయి
##టమే
మీరు
రూపు
అట్లా
పూర్త
పరిగణి
పేర్కొన
→
##పాట
##ర్గ
దేవుడు
సభ్యుల
నిర్దేశ
##రిన్
సాహ
నవంబర్
వివరాల
కమ్యూనిస్టు
జనా
భగవ
గణపతి
నిత్య
వివరించ
ఒకప్పుడు
##ou
##మను
వందల
ప్రయాణం
భాగాన్ని
ప్రాధాన్యత
ఉపయోగించారు
##డలు
##ణుడు
బ్రె
లిపి
గ్రీన్
కౌన్సిల్
దర్శకులు
అత్యధికంగా
చేయబడ్డాయి
లభిస్తుంది
##da
సైతం
సమూహం
అంతేకా
అవగాహన
##స్తున్నాడు
##క్సీ
two
ఈస్ట్
చెప్పే
ముస్లి
ప్రవర్తన
రైల్వేస్టేషన్
శివా
సమాజం
క్రియా
పర్యటన
పార్టీకి
స్వీకరించ
నిర్మాణానికి
ev
##గాని
##జిప్
ఫెడ
##ఁడు
ఇటలీ
మాట్లాడే
##రంలో
##ించా
నార
విరి
స్క్
సహాయక
పండితులు
##గ్యం
mon
##ముందు
##ించగా
years
నవలలు
##గ్రహాన్ని
పునరుద్ధ
ప్రయత్నం
అనుసంధానమై
రాష్ట్రపతి
కుటుంబానికి
##మూర్
sur
##ప్రభు
ఓపెన్
పిండి
##న్నింటి
ప్రసాద
విద్వాం
లతో
రెడ్
వసంత
దీంతో
పద్ధతులు
అంగీకరించ
అత్యుత్తమ
##ట్రి
కీర్
క్షీణ
చేరాయి
సమీక్ష
అయస్కాంత
తాలూకాలోని
ప్రాముఖ్యత
##")
ఎర్
ఏకీ
##ామిక్
అక్టోబర్
##తువు
సరళ
స్కో
##యిత్రి
##గ్న
##బోధ
##ural
##్రీన్
some
కాలనీ
కుక్క
చూసిన
కొంతకాలం
పాల్గొని
సిబ్బంది
ఉపయోగించిన
గుర్తించారు
##ars
##ర్వ
హెచ్
ఆచార్య
రామస్వామి
సమీపంలోని
ప్రకటించారు
##మయ
##amb
##కూడా
ఉపరి
గ్యా
నాగార్
తొమ్మిది
కొనసాగింది
తెలుస్తుంది
##్యూమినియం
దక్షిణాన
నటించాడు
ఫ్
##దారుల
been
ఐక్య
సర్వే
రాయలసీమ
##uv
##మ్మల
దళి
శాన్
##డికొండ
విస్తరించ
ప్రపంచంలోని
##లేఖ
##వ్యూ
##క్రియ
ఆనకట్ట
చేయాలి
##ంచేందుకు
##దై
##జులు
చిన
##దక్షిణ
మరణించాడు
సాఫ్ట్వేర్
##మానం
పుట్టు
స్థాని
ఎదుర్కొ
అచ్చ
కేసు
వేణు
after
ప్రాజెక్ట్
సినిమాల్లో
##లేరు
రంగా
స్టూ
సౌకర్యము
##సంప
తూ
##inal
##యిస్
నమ్మకం
##హ్రూ
చదరపు
తెచ్చు
సౌకర్యాలు
సప్త
పాలనా
విశాల
అందమైన
##నల
mo
##తుంటాయి
బ్యాక్
##కాన్
కీలక
కొలు
రాక్
##పెట్టి
సంరక్షణ
##వయ
##దుపు
##కుంటు
##ఘ్
కోరు
హ్యూ
##పడ్డాయి
మామిడి
##ీర
##try
##టంటే
కఠ
##దాయి
##హాయి
acc
లోయ
సెం
##పింగ్
రామ్
##వేత్తలు
ప్రవేశం
పెరుగుతుంది
##తమిళ
పాటుగా
ప్రవక్త
విస్తరణ
సినిమాలలో
అటు
బృహ
కొబ్బరి
వినియోగం
gu
sm
##ited
##టాన్
##స్తీ
టోర్
##నాయుడు
చేసుకో
వస్తాయి
అందించిన
##cc
##వాల
పురో
state
వుండే
సేకరణ
తోడ్
##కులుగా
శుభ్ర
##ఫిబ్రవరి
విద్యాసంస్థ
fam
##కార్య
##గలిగే
##పుణ్య
work
ఆదాయ
##మానాలు
హోటల్
పంతులు
##శంక
##ents
##కుడి
##టులు
ఇరవై
విధి
స్తంభ
వైవిధ్య
##సభ్య
వరద
సౌత్
మాటలు
##ల్యాండ్
పనిచేయ
కావచ్చు
క్రైస్త
సంబంధాలు
dur
కరి
లేదని
మందికి
నిర్ధార
చేతిపంపుల
##గాన
##పల్
##ందరో
bec
pop
##చిన్న
##ప్రస్తు
చక్కగా
నిజామా
మూలంగా
డివిజన్
వున్నవి
సమానంగా
దేవాలయాలు
##ins
##ెలు
##గలదు
##సేన్
##కొలను
##గోపాల
class
దీనితో
ప్రారంభం
ప్రత్యేకించి
##లైట్
సంయోగ
సముద్రం
వైద్యులు
వైశాల్యం
స్థాపించిన
##వంశ
##మంచి
##మందు
fil
##టర్స్
shall
అరణ్య
టన్ను
దాంతో
అన్నాడు
##000.
##రును
##ులైన
high
##తామ
జలా
లోనూ
స్తో
reddy
వివాద
బస
##anda
##ative
##ళ్లలో
##నమెంట్
విధానంలో
##ైనే
అనీ
##round
శారీ
ఆల్బమ్
##cri
##సంగ
0)
##ంజి
##లన్
##stem
##ెన్స్
##కురాలు
##స్థానంలో
పాత్రలో
##భవన
మూడో
##ద్దీన్
ఆకులు
ఆస్తి
తమ్ము
కమిషన్
అనుగుణంగా
##కోవటం
##వతేదీ
హాని
ఆర్ట్
నోబెల్
మరణించిన
వహించాడు
వాటిలోని
##con
##కూల
##ోల్
శిథి
##పాన్ని
రాజులు
సంక్షేమ
రోజులపాటు
విస్తృతంగా
నిర్మించబడింది
##తరు
##భూషణ
డయా
##ograp
they
##డ్డాయి
##రేంద్ర
అందురు
క్షిపణి
జనసంఖ్య
అందువల్ల
దాదాపుగా
##ించబడ
రాయల్
ఒత్తిడి
ఉత్సవాలు
##ute
##చక్ర
under
అభ్యస
విభజన
వెండి
కీర్తన
భయ
##డ్యు
మూలం
ఘనంగా
ప్రపంచం
వ్యాప్తి
పారిశుధ్య
##orn
##ఘంటు
##right
form
ఈశాన్య
##uri
షె
##కృతి
పోస్ట్
పెట్టిన
##ళహ
##ike
##వాసి
అన్నా
చైతన్య
ఆదివారం
##వేల
##ouse
చదవ
ఫిల్మ్
డిజిటల్
సుమారుగా
స్టూడియో
##sa
##gan
sol
రక్
అలవా
ఇసుక
జోడి
రేఖా
సమకూర్
##par
##నవి
##యుధ
##తుని
##బాబా
కరు
##యుద్ధ
##ించుట
గంటలకు
ప్రాంతాలను
##రచ
##సహ
##వలి
జప
##ర్రీ
##ified
దేశాల్లో
పనిచేసిన
ప్రారంభమైంది
##కాండ
##నాటక
##పచ్చ
mal
పను
most
over
తిరి
దుకాణ
ఉపరితల
ప్రవాహం
బెంగుళూరు
##ras
చేయాలని
##అను
##పాత
ట్రై
ఆధారం
వన్డే
వాళ్ళ
##/0
##దండ
ఘా
ఆస్
దాకా
అల్లు
సింహా
##ఏప్రిల్
ఇంటికి
##ంగిక
రాముడు
వయసులో
జనాభాలో
##సమా
సిరి
##మెంటరీ
నెహ్రూ
##కరించారు
అభ్యర్థ
వేదాంతం
##ాలైన
స్వీ
ఒడ్డు
కత్తి
రంధ్ర
border
పోలీస్
చేసుకుంది
##లుడు
ప్రవహ
రంగులో
##red
అల్లా
ఉండును
##షింగ్టన్
ఉపయోగించడం
తల్లిదండ్రులు
##లాగా
కుమ
##కుంటే
##యానికి
మేరకు
##పోవడంతో
ఉమ్మడి
పరికరాలు
రీసెర్చ్
##ral
##గిలి
గానం
తనను
రుచి
దేశీయ
000-000
కృష్ణమూర్తి
చేసుకున్నాడు
te
##క్ట్
బయో
##హిందీ
into
ఇక్క
రైతు
##న్నిస్
కొట్ట
కొల్ల
జాతుల
జ్ఞాప
నియమి
మల్లి
వ్యవస్థను
##మాత
##గర్భ
##పట్ల
##ష్టం
ఒంట
##క్షరా
##జొన్న
బంధు
వాటా
##దేశంలో
మినహాయి
చాలామంది
కార్యాలయాలు
శ్రీనివాసరావు
##tt
##ety
##rop
##బియన్
అంటూ
చెప్
సిల్
సౌంద
వార్డ్
##రేఖ
హెల్
సంకేత
జగన్నా
##నేట్
##బిల్
##ెస్టి
press
కథల
పండ
వోల్
##క్కిలి
##ట్టుగా
తప్పించు
నేపథ్యంలో
సాధించారు
ear
మెంబర్
ఉద్యోగం
##నొ
అగ
##వరపు
##ేషియా
పేరి
కల్పి
national
0–
భయం
వెం
##ప్రత్య
##లాబాదు
విపరీ
##ious
రాక
ఖగోళ
కాలానికి
##ఆంధ్రప్రదేశ్
##సుబ్రహ్మణ్యం
రజ
కాయ
##్రియా
అంశం
కిమీ
చేయటం
ప్రదర్శనలు
##ికో
విఫల
ఈజిప్
దేవుని
బస్సులు
##పెట్టింది
##రిస్తుంది
మాదిరిగా
రాజ్యాంగ
##af
##ూల్
సరా
##/0000
##కాలలో
నలుగు
జార్జ్
వస్తువుల
ఛై
bet
day
ఊరే
చోట
రుద్ర
సంక్షి
##తోపాటుగా
##నాయకుడు
##స్థాయిలో
గాయకులు
##యామ
##తలను
hind
ఎక్క
##గుర్తి
దిశలో
లాటిన్
సమాజంలో
బంగ్లాదేశ్
##ెస్ట
out
##లింగం
వేగం
##పోయినా
ఆయనను
వ్యవస్థలో
ప్రారంభించిన
నిర్వహిస్తారు
##add
##ైడ్
##నీరు
చెట్లు
శృంగార
##టిలో
తత్
మొఘల్
ఆంజనేయ
ప్రజలను
లభించాయి
##=0
##bl
##ople
##డవైన
pur
విర
##త్రము
చూపి
ద్రా
పెర్
మూసి
వర్తి
పాలనలో
స్పష్టంగా
##యేట్
ఆధిప
ఉంటూ
చేరారు
యాంత్రిక
##uld
##దార
##కుంట
పొల
వెళు
అమ్ము
కమ్యూనిటీ
కాలిఫోర్నియా
అశో
##జేషన్
ఒకదాని
సరస్వతి
అధికారికంగా
##gen
##----
##వీడు
రాం
రోగి
స్వీయ
##ించుటకు
వద్దకు
విధానాలు
సృ
##చర్య
##బ్యా
##వస్తు
మేరీ
హోదా
south
కర్మా
సంగ్రహ
##మియం
pres
ఆచార
మిస్
అవుట్
వాళ్ళు
జారీచేసింది
వార్తాపత్రిక
విద్యార్థులకు
##పని
ఇటు
stud
అబ్బ
##ప్రోలు
ఒకవేళ
system
##కుంటుంది
వ్యత్యా
##కోవటానికి
చెబుతారు
cal
mat
ముర
##ంపులు
##స్తుంటాయి
కొద్దిగా
##అంత
##మూల
),
##టాలు
మూర్
మ్యూజియం
జరుగుతాయి
క్రీడాకారుడు
##ise
గ్
##ామణి
ఇరాన్
##నప్పుడు
అధ్యాప
ప్రయాణీ
##-0.
##గాక
##లిస్
sup
##విధాన
##చేసుకు
చేసేవారు
అనుసంధాని
నియోజకవర్గ
##ss
##పట్
ధో
##alli
అంట
తాత
##ember
##ంచాలి
##ేశ్వరి
సిరీస్
అన్నారు
##ినే
nar
ఆంధ
కంచ
##పిటల్
##ేవారి
##ొచ్చు
గూడా
అబ్దు
ప్రస్తావ
##ఆగ
##its
##ott
##ధీనం
##యినా
పద్
శాత
life
ఓవర్
లాస్
తరపున
అతనిని
విరుద్ధ
##డ్డీ
art
sat
దంత
పల్
##్రిప్
##ించడంతో
ప్రేరణ
పద్ధతిని
విజయవంతమైన
##ugu
nor
incl
time
ఆధిక
##ాలియన్
delhi
డాక్ట
స్థలం
తీసుకున్న
##.;
##ూల
బ్రే
సంకీ
సమర్ధ
వీటికి
గాయకుడు
జిల్లాల్లోని
##చల
తృ
##గానూ
bas
గోప
caus
venk
##కున్నా
ప్రెసి
విచారణ
విడిచి
గ్రంథాలయం
##ric
##రావ
ఆప్
కాథ
భర్
కప్ప
(00.0
మోడల్
ప్రదేశంలో
ఓం
##స్థా
శార
##ండూరు
##కన్నా
టర్కీ
చేస్తే
బయలుదే
బ్లాగు
వ్యాప్తంగా
##టియ
go
##నలను
##వరకూ
##డతారు
##ఫోర్డ్
award
దృశ్యం
నిఘంటు
నివసిస్తున్నారు
##ణే
##మింగ్
ఆందో
ఇంది
నాల్
పాటల
water
ఎరుపు
హనుమం
##జ్మెంట్
సమ్మేళ
రాబర్ట్
చూడవచ్చు
మెక్సికో
గణాంకాలను
అభివృద్ధికి
పేర్కొన్నాడు
##oman
ఆల్బం
అక్కడే
మొదటిసారి
చేయబడుతుంది
##ర్రు
చీర
దత్త
తేలిక
ఆకర్షి
భక్తుల
ఎత్తులో
తాడేపల్లి
వెంకటేశ్వరరావు
##మహా
##ుడి
##స్కు
ఖైదు
లాల్
రాజుల
తగ్గుతూ
తీవ్రంగా
శస్త్రచికిత్స
##ho
##ful
##oss
lib
హెన
చేసుకొని
బ్యాట్స్
స్పానిష్
##రాం
km
##క్కో
##పేట్
map
##ption
##సాన్ని
వేడుక
చేస్తాడు
సినిమాకు
డైరెక్టర్
వాటితోపాటుగా
##కారా
##టారు
##ద్యో
తెగ
నేడు
న్యూస్
చిత్రాన్ని
నిర్వహించే
##di
ట్
##ject
##జికల్
0-00
తరంగ
బాగు
మాండ
వాడి
కలయిక
రాష్ట్రాలు
vol
మరీ
టెస్టు
మొదట్లో
పట్టణాలు
ధారావాహిక
గ్రామంలోని
##స్రా
యాజ
##ution
క్యాల
స్మారక
రాజధానిగా
bi
అశ్వ
శంకర
ఎకరాల
మెదక్
విరమణ
సన్స్
##యనారాయణ
క్యాన్సర్
##ర్చ్
నటన
పీడ
మన్
గూర్
టీవీ
రంగం
##ధ్యక్ష
##ామృతము
కచ్చితంగా
లవ
కోర
##క్తులు
##నరసింహ
అన్వే
స్వాధీనం
అనుకూలంగా
##మంగ
##రాయ్
ins
ఎది
సదా
##ానికీ
##వాదులు
బంజరు
మోహన్
ముహమ్మద్
అల్యూమినియం
##సెన్
hum
మెజ
సగం
##మాండ్
##ంద్రియ
చేసుకునే
మార్పిడి
నాగార్జున
విద్యాభ్యా
##ane
ir
##దీర్ఘ
పరిపాలన
సంస్థను
పిల్లలకు
##సల
ఆర్కి
నదులు
పర్యాట
మహాభారత
అభిప్రాయ
ఉండేవారు
##డిస
##rough
అమ్మో
గ్రంధ
అడుగులు
ఆలయానికి
పంచాయితీ
కార్పొరేషన్
యోగ
లింగం
వెడల్
డాక్యు
వికా
సూచన
చేయని
డిస్ట
సమ్మె
విశ్వాస
##als
##మాట
శం
సింహ
హెర్
చంద్రశేఖ
##be
యస్
తెరి
రాగి
తీర్థ
##ండ్స్
##రియర్
కందు
కొంచెం
నగరాలు
ప్రమాదం
##ొని
##ళాలు
ఇంక
జాల
భోజ
వాన
##వన్నీ
కాళి
నీవు
##గ్రామ్
నివార
నిశ్చ
సమగ్ర
బొగ్గు
భూములు
మ్యూజిక్
##నైనా
గాథ
నౌక
##.....
##glish
will
కర్ర
##indian
ఆకృతి
##నిర్మాణ
జంతువుల
సాంద్రత
కలిగించే
లేఖ
శాల
బహుమ
inter
ఆనాటి
ఎన్నికల
సులభంగా
ఉంటుందని
అభిప్రాయం
జన్మించింది
విద్యార్థుల
##నస్
##సంత
##ustr
##లోను
తామ
బండ
గోల్డ్
రిజిస్ట్ర
##|000
##మియా
##సాలు
ప్య
ఎక్కి
పిలిచే
##ెడి
హౌ
pal
ఎమ్
##ating
##చ్చాడు
##ప్రపంచ
దిశగా
ప్రవాహ
హక్కుల
##ds
సౌర
##గ్రంథ
##త్సర్
includ
తెలిపారు
తప్పనిసరి
వ్యతిరేకి
##-0,
##తర్
##రైన
##ంపజే
##ర్షణ
##వారీ
కలక
##సంస్క
long
చక్కెర
విలువైన
##oth
కది
పాస్
పోర్చు
##గుర్తింపు
స్క్రీన్
కచ్చితమైన
చేయటానికి
##ca
##వరీ
##ప్రీ
##సిక్
స్టె
ఫ్రెంచి
##ఇండి
శోధ
ర్యా
వారసత్వ
భావించారు
వాషింగ్టన్
చౌదరి
నడుపు
సమకాల
వెల్లడి
పెరుగుదల
ప్రధానమైన
##ami
##జియా
##వోలు
##ర్వేద
యజ్ఞ
నాశనం
మెట్రో
నికరంగా
##కేషన్
గ్లా
జాక్
ఎడారి
కుమార
పాక్ష
##డుతున్న
సరస్వతీ
ఫుట్బాల్
స్ఫూర్తి
##బార్
##పేక్ష
##షియల్
ఆక్సి
సరిగా
కూతురు
శ్రద్ధ
లక్ష్మి
పురస్కారాన్ని
##ళ్లను
తరహా
##మొత్తం
అక్కి
పోరాటం
ప్రాధికార
##డిద
##రాజా
she
##కావ్య
హృదయ
ఉద్భవ
నష్టం
మైదాన
మిగిలి
విభాగాలు
పరిశ్రమలు
బ్యాంకుగ్రామంలో
##లీల
##రాదు
కుండ
గాయని
మూత్ర
ఏమిటంటే
##నౌ
##era
##నీస్
జాతర
##prison
##సముద్రం
గ్రేట్
చేరాడు
అరేబియా
అప్పటికే
##aya
##ize
##కస్
టొ
దౌ
ఆచరణ
కలుగ
about
అనునది
పొడవైన
శతాబ్దపు
సంతరించు
##ఇన్
మయ
##చేసే
##ప్లే
##వద్ద
00-
##నాటికి
మురుగు
పడుతుంది
##ఢ్
అహ్మ
డెల్
colle
ఎదురు
కౌంటీ
భాగవత
హెచ్చ
ఎందుకు
స్పెయిన్
పదార్థాలు
##యుగ
##జనుల
##వూరు
అడ్డ
కలదు
విల్
వివా
మసీదు
అంశాలను
అవార్డ్
ఇస్తుంది
భవిష్యత్తు
##సేన
##కన్న
##సాస్
bar
ent
భుజ
##లాంటి
పెంప
థా
అగు
##ature
ఏళ్ల
కర్త
డిగ్రీల
వహించారు
##oor
##కలన
##ర్మా
##స్థలం
ఆధీన
##ధికారి
చక్కని
నిర్మాణంలో
##0"
....
కూచి
డ్రా
##ంటింగ్
##కారిణి
##వృత్తి
##డయ్యాడు
ఉత్పత్తు
స్మి
అందరు
అనారో
వాద్య
ఆగ్నేయ
పరిమిత
##కరించింది
అవకాశాలు
సూర్యనారాయణ
##సార్
ఎవరు
తుఫా
డ్రైనే
ధార్మిక
పరిశోధకులు
##hes
##గ్రే
##న్నం
ఆవరణ
కళార
మార్క్
##త్యాన్ని
చేరింది
పట్టణంలో
పిలువబడే
పోలిస్తే
##పేస్
##ఫేర్
##వంతం
##త్రుడు
రాష్ట
##ప్పటికి
సహాయంతో
##aksh
##డాలు
అరి
పోర్
వివర
##రాలిగా
లోపలి
గూగుల్
విలీనం
ఉపగ్రహం
నైపుణ్య
వ్యక్తుల
మొదటిసారిగా
సంవత్సరాలలో
##బర
బ్
##సిల్
##ఉదాహరణ
##పరేషన్
ఉద్యాన
ఎలెక్ట
వెళ్ళిన
కుమారులు
సహకారంతో
ప్రయత్నాలు
ఏర్పడుతుంది
##మహి
tel
అమి
సెక
రష్య
##రితమైన
ఆధారాలు
పండితుడు
మొత్తంలో
రచించాడు
పనిచేసారు
మాసపత్రిక
విజయవంతంగా
వ్యవసాయేతర
##me
##మగు
##anth
##క్షర
min
ఏది
##వలెను
##వింగ్
ఆదరణ
ట్యూ
అంతటా
##సీఆర్డీఏ
వుంటాయి
అవసరాలకు
నెలకొల్ప
if
##ద్రమ
har
##చెర్ల
ఫ్లా
సంతాన
descri
సాయంత్రం
అద్భుతమైన
##మల్
mod
యుగ
##యనాలు
మందిరం
మధ్యకాలంలో
##చల్
##eric
##లాక్
##త్రిమ
##వ్యాప
కఠిన
ఖ్యా
చాళు
వాని
సామెత
నివారణ
పెరిగిన
వేంకటేశ్వర
కార్యక్రమాలను
##సొ
వేళ
##ద్గీత
##న్నవి
అంగు
ఛార్
ఎందరో
పార్వతీ
వినియోగి
సమయానికి
##స్వామివారి
##వలె
చిర
అటవీ
ఆఖరి
ఉచిత
ఓట్ల
రాఘవ
స్నాన
##ారాయుడు
govern
తీసుకొ
భూమిని
విక్టో
##ప్రాధాన్య
ఆంగ్లంలో
కొలంబియా
##ull
loc
##ెండర్
ఏళ్ళ
పెళ్ళ
పరికరం
వెన్నె
అధికారు
అయ్యాడు
అరుదుగా
సంస్కృతం
మచిలీపట్నం
##ఫిక
ఘో
##స్నా
met
ఎగ్
రాగ
##బ్రహీ
##ళ్లకు
##సుబ్బ
##ించగల
తీరు
హెడ్
##rishna
##లానికి
##గుంటూరు
శక్తివంతమైన
had
మస్
vill
ఒడిషా
ప్రశా
వచ్చాడు
శాస్త్రంలో
##ng
##కాల్
##డులు
##ామస్
బుధ
నేతృ
లాగా
శివుడు
##ప్రాథమిక
పొందాయి
సేవలంది
చేపట్టిన
స్ట్రీట్
##prisonment
##iver
##మాలు
##లార్
##ాలకి
బ్రూ
వాదన
దానితో
పోటీలో
కాంగ్రె
పనిచేసి
అంతేకాకుండా
##పూజలు
##సియన్
పంపు
పల్లి
లైంగిక
భాస్కరరావు
పరిస్థితులు
రూపొందించబడింది
##air
##ైర్
##ages
##గావ్
##స్పర
ఎఫ్
పొందే
రామాయ
ఇంట్లో
కార్యకలాప
పురస్కారాలు
op
cor
ఖరీ
జమీ
more
భక్త
శాశ్వత
విశేషాలు
##els
##mad
సద
##ుక్క
కోడ
##ందులు
##దిద్ద
అలంక
కొలి
##య్యింది
##ox
##ణ్ణి
##నీతి
##షేకం
జైన
నవీ
బార
##ములుగా
సార్వ
extend
మండలంలో
ప్రధానమంత్రి
##నంత
క్య
##మోహన్
name
పిక్
కలిగే
వృద్ధ
##ంపబడింది
తాత్కాలిక
##ంట్ల
##నంది
##ములతో
శ్రమ
అకాడె
కదలిక
కళ్యాణ
సరాసరి
రూపొందించ
వ్యవస్థలు
##vi
##ఉత్త
##న్లో
మాధవ
శీతా
ఇల్లు
మలయాళ
వైపున
దుర్గా
నిజమైన
##ung
ల్యా
##కుటుంబ
##జ్యోతి
విటమి
గరిష్ఠ
నిష్పత్తి
ధూ
##ర్సు
(00)
తాజా
రత్న
వెను
##చేవారు
##ించలేదు
లభించిన
##తతో
అజ
##anch
##బద్ద
##లాయి
dif
బలం
when
ట్రే
మహాన
##పెట్టు
##ానంతరం
ఎగుమతి
చారిత్రిక
తీసుకున్నారు
అహ
##cent
గుడ్
నెలలో
ఇవ్వడం
చూస్తే
రచయితల
విలియం
##వారిపాలెం
మెజారిటీ
దేవస్థానం
జరుగుతున్న
##పదం
##దుడు
##ంబాయి
ఆశ్ర
సారా
రంగుల
సుశీల
ఇందుకు
చేతులు
దక్షణాన
వెడల్పు
దుస్తులు
sl
##చర్స్
గేమ్
తిమ్మ
people
విషయాలను
సన్నివేశ
నిర్మించాడు
##ంబో
##బ్ల
సాగి
కొమ్మ
సిస్టమ్
మిక్కిలి
సముద్రతీ
రాజస్థాన్
పనిచేస్తున్న
హొ
దుర
పరు
వర్త
##ేశ్వర్
సన్యా
తీర్చి
సంఖ్యా
ప్లాంట్
డ్రైనేజీ
పగ
పల
##టుకు
అదృ
##మండలి
త్యాగ
పురాణం
సంస్థా
పసిఫిక్
పత్రికలో
వాడుతారు
##నలి
##సామ
##క్యం
vis
గంధ
గాఢ
##త్రేయ
స్పీ
ధ్వని
డిజైన్
పెరిగే
టెలిఫోన్
అవార్డులు
ఖనిజ
గిల్
వాసు
వైట్
మోక్ష
school
అకాడమి
##స్మానియా
##pro
##ర్రా
##శ్వర
అవ్వ
##కోవాలని
##ప్మెంట్
వెలుపల
గ్రాండ్
లక్ష్యం
అప్పట్లో
మరికొన్ని
{
లొ
##కియా
##బోయే
చీక
చికా
ఆఫ్రిక
##సాధారణంగా
##pos
##తాను
ఆర్య
పద్యాలు
విశ్వాసం
##ళ్వ
##ines
పేరొ
వజ్ర
సమాంతర
నూతనంగా
##ten
0-
ఏట
అనా
రాచ
##ంకులు
##్రెయి
కాఫీ
దర్శన
గీతాలు
నిర్ణయం
పరీక్షలు
రావి
సైట్
##అక్షరా
వైష్ణ
సంతకం
బుద్ధి
ఇచ్చాడు
##ప్రాధాన్యతా
ప్రదేశాలలో
స్వాతంత్ర్యం
అణ
పఠ
అంజ
నరస
##ection
##్రాంతి
బాలిక
intern
మైసూరు
సమీపములో
ప్రఖ్యాతి
స్థాపించాడు
##గౌ
##లప
ty
##ఖండ్
అజ్
ఇయర్
చెపు
నీతి
బాలీ
లోతు
##దేవుడు
##స్థాపన
ఎడ్యు
##అమెరికా
దిక్కు
స్థితిలో
##0.0
##ark
##tra
##లోక
అచ
##రాని
##లుకు
##స్టో
##ామని
##ities
##ధిపతి
ఒప్పు
భగవంతు
రామలింగ
భారతదేశానికి
వడ
##ట్టం
##బ్స్
నెం
మేఘ
##లేదని
కూరగా
భూభాగ
బెంగాలీ
విధులను
చారిత్రా
0000–0000
##డ్జ
bu
##ండరీ
##త్వా
##లెగ్
##ానికే
than
కోటి
##సినిమా
పుల్ల
సంభవి
ఉత్సవం
త్వరగా
మైదానం
వేదాంత
వెర్షన్
ఉత్పత్తులు
##ll
##మురు
##పరిచి
numb
##చెరువు
ఊపిరి
నైపుణ
##ulation
నార్త్
ముద్దు
##స్వామ్యం
ఆహ్వాని
మంత్రిత్వ
ప్రాంతంలోని
విద్యాసంస్థలు
##ps
##ేవీ
##apur
##iter
##నెస్
##వెంక
వంతు
ఆలయాలు
దగ్గరి
స్టాక్
అత్యున్నత
ప్రభావాన్ని
##elop
##రులకు
ఇబ్బ
ఉంచి
జరిపిన
అందరికీ
ప్రజలలో
##దిన
వేష
##హెక్ట
సిలి
స్పి
found
during
ప్రస్తావన
హిందువులు
వస్తువులను
🔗
##irc
##దేవ్
##ప్పల
##ేశ్వరం
మారిన
మించి
ఉత్పాద
సంతానం
##డిసెంబరు
చిత్రీక
అమృత్సర్
ఆలయాన్ని
0,000,000
టవర్
పడిన
##త్మకంగా
పురుగు
ఛైర్మన్
##టాల
##లోప
##ంజర్
##హామ్
law
##ంగోలు
##ారాలు
ఆరాధ
##వీంద్ర
ఇన్ని
జయంతి
సుదీర్ఘ
##కునేందుకు
నిపుణులు
మట్టానికి
నియోజకవర్గంలో
##ble
##ణాల
##కాష్
##చ్ఛి
sing
##స్థితి
right
కడుపు
నిలువ
నిలిపి
చిత్రాలను
నిర్వహించి
శ్రీనివాస్
##ంకో
##చిక
##టైన
డు
##ప్లా
డౌన్
సాంబ
##బడినది
##రిస్తూ
అతన్ని
ఇబ్రహీ
##దాయాన్ని
కిలోమీటర్లు
##ధర
##భౌ
##lam
##urn
##డమ్
##లక్
##క్షో
డెవల
వుండి
కావడంతో
పాయింట్
మంగళగిరి
##-000-00000
##విష
##angu
##డ్నీ
bir
cap
వచన
##త్యాల
##(0000)
##పార్టీ
అండర్
మరాఠీ
సత్యం
కెమెరా
రసాయని
నిర్మించబడిన
##aka
##త్రీ
##మిడి
##శ్రే
బాలా
##పార్ట్
being
దానిలో
రామాను
చాళుక్య
నిర్ధారణ
).
##టెన్
పతా
గీతా
దోహద
పప్పు
కార్టూ
తగినంత
నిర్మూ
జంతువులు
lt
##పొంది
##వల్లి
call
నీకు
##జినెస్
హెన్రీ
##పెట్టారు
సర్వీస్
రచయిత్రి
##ount
##వస్థ
##సెల్
##అక్టో
##పోవటం
ఉండు
##గలిగిన
##ప్రధాన
house
టైమ్స్
##అమెరికన్
##కున్నాయి
మహాత్మా
క్యాలెండర్
##fr
##మంలో
మోర్
పూర్ణ
పేరిట
ప్రియ
వివేక
ఎవరైనా
నివసించే
##pi
ఆయ
##జిద్
##భూతి
##ల్ఫ్
00°
దీప
ఆత్మక
గోధుమ
చిత్త
యెుక్క
స్వరూప
కాలక్రమ
లక్షణాలను
##క్కలు
గడ్డ
విస్
##గ్రామం
పనికి
విండో
పొరుగు
history
కొనసాగి
సంరక్షణా
సుల్తాన్
వైద్యశాలలు
ఉపయోగపడుతుంది
##చర
##hra
శూ
##ర్లో
##సెట్
వేట
లైఫ్
అభ్యా
మెదడు
ఇతనికి
##ంచెస్టర్
అన్నమయ్య
##కైన
##భ్ర
గళ
##agar
##వంతి
కనక
##పించే
prov
కోరుకు
సంస్థాన
సెక్షన్
##లంబ
##టికీ
god
sam
అండ
##గ్రఫీ
ఇంకొక
చేరిన
భాషను
బ్రాండ్
సంస్థకు
పేర్కొన్న
భారతదేశపు
నిజామాబాదు
##war
##స్క్
##హెబ్
##adesh
తెచ్చి
ద్వీపం
పెద్దగా
వాయిద్య
వర్గీకరణ
##హర
##ట్లే
him
సరో
##భారతి
కల్యా
ఇందిరా
ఏర్పడి
అత్యవసర
##శాస్త్రంలో
గ్రామాన్ని
ముఖ్యమైనవి
జరుపుకుంటారు
##ink
##బెట్
బ్రో
విము
##ించును
అధిగమ
ఒంటరి
పబ్లిష
వెంకటా
పాల్గొన
మహారాజు
భర
##eral
##ough
మోడ
##ోద్యో
కథను
ధ్యే
నావి
##పడతాయి
##వ్వులు
##వ్యవసాయ
కార్తీ
గెలుపొందిన
పట్టణానికి
##కమ
##ంగే
షూ
ఉదయ
##రాయలు
##విశ్వ
ఆపరే
పునా
ఎన్ని
వాక్య
శారీరక
రచయితగా
హిస్టరీ
భూభాగంలో
స్థాపించి
##ఱ్
##దనం
##చింత
##రక్ష
##జియన్
##డెంట్
రాశి
నెమ్మ
యజమాని
రైతులు
సౌందర్య
గ్రాములు
గ్రంథాన్ని
నిర్వహిస్తుంది
##దళ
##దయం
##పూరు
##రంగు
నన్న
సల్ఫ
##నీయమైన
##ప్పుడే
ద్వారం
ముక్కు
నగరాలలో
బాలీవుడ్
మొత్తంతో
పుస్తకంలో
##రాయల
##రులో
bro
పోవ
పనితీ
కాలేజి
అనేకమంది
సమస్యలను
పోషించారు
##sar
ge
##బిక్
##విస్
rev
సతీ
##మాన్య
##ేశాడు
many
soci
నైట్
బాంబ
మౌలిక
బియ్యం
విమానం
విశ్వస
సముదాయ
విలక్షణ
స్థాయికి
నిర్ణయించు
##లుసు
##వాహక
div
తగ్
నీల
##ident
##press
కథనం
కాండ
ఫెర్
english
##dr
##ange
adv
దృఢ
##శిక్ష
నున్న
మేయర్
సంక్రమ
పరిధితో
##,"
##నాం
రమ
వీరా
స్టో
##ాలయాలు
##ెంట్లు
సభ్యు
వారితో
కృత్రిమ
నగరాన్ని
##ween
ఏమీ
నాన్
##రంగంలో
నుండే
పక్కన
పక్షి
వాటర్
భద్రతా
స్ట్రా
పిలవబడే
బ్యాటరీ
ప్రయోజనం
##తన్
##సనం
rem
war
మర్
జానకి
శంకర్
ఆటగాడు
కలకత్తా
మేనేజ్మెంట్
##uct
లక్
లోను
##బడినవి
##శ్చర్య
ఉపాధి
మూలకం
తెలిసి
శ్రీశ్రీ
దినపత్రిక
రాష్ట్రానికి
##భాషా
మరల
కపూర్
రిచర్
సహకారం
కళ్యాణం
సింగిల్
తొలిసారిగా
##de
##ope
gl
##సామా
sim
అలి
దోష
నేత
గన్న
ప్రభ
ఫాల్
హిల్
దత్తా
##సాహిత్య
ఇక్కడే
కాపాడు
తీర్పు
పేర్కొంది
ఢ
##షేక
##సస్
##వేసి
mov
ఎండ
జోర్
నవలా
ఒడ్డున
తపస్సు
వీరిని
గోల్డెన్
రికార్డ్
##bo
##alu
##rah
##పీఠ
##idge
##దూర్
##బిన్
##లండ్
##వర్త
ఐదవ
కదా
##ంతులు
తమకు
భూకంప
పర్షియన్
నిర్మించి
సంప్రదాయం
సుబ్బారాయుడు
q
##ures
##గాలి
పడ్డ
##సరస్సు
చేయబడి
between
రంగాలలో
చేరుకుంది
ప్రతిబింబ
##కగా
ce
sr
##డుగా
##సాన్
పడవ
లఘు
##క్షేప
##వైద్య
char
బీచ్
విజే
నన్ను
ఉపయోగం
యార్క్
రూపాయలు
మార్గదర్శ
##:0
sk
##జననం
##సూర్
రావడం
గోవింద
ఒలింపిక్
గుర్తించింది
##ందనే
def
##మున్న
ఎగువ
భాను
యందు
త్రిపుర
రాజీనామా
##ould
##సాని
only
కుప్ప
దక్కి
జరిమానా
హైదరాబాదులో
ప్రభుత్వానికి
er
ధై
##ర్జీ
##వర్మ
##విజయ
దామ
##thern
##టట్లు
city
##ంకింగ్
చేర్చి
వీరభద్ర
imprisonment
##echn
##టీస్
##హత్య
పంది
లలిత
హైవే
##ళహస్తి
##శెట్టి
ప్రొడ
సహస్ర
నిధులు
పక్షులు
పత్రికా
##క్రమాన్ని
మంత్రిగా
##ఆధ
##iev
##మీకి
పడే
కుంభ
##కోర్టు
గడ్డి
సంతోష
గూర్చి
టైటిల్
త్రిభు
through
బిజినెస్
లక్ష్యంగా
##రాంత
అభయ
ఏంజ
##విస్త
$000
నందు
##వచ్చని
##స్ట్రే
నాల్గవ
విజయాన్ని
అందించింది
##akk
##జ్వ
##
అథ
కట
జయి
లంక
##శ్వాస
##సమితి
పిఠా
##derabad
##కున్నది
బీహార్
చిత్రాల
ల్యాండ్
##ym
##దశి
##ధర్
##ేశ్
##బెత్
##రేష్
వదల
వేర
##పోతాయి
##లనుండి
కప్పు
విచ్చే
సుప్రీ
దృష్టిలో
##కథా
##ంగుల
##న్యం
##వియా
tri
పంద
(0.0
సెట్
##స్తూనే
నమ్ము
పార్కు
పేజీలు
ఆక్సైడ్
ఆరోగ్యం
##iri
##cess
##వెర్
sar
use
గుండ
తుది
వాన్
ఆరోపణ
గొంతు
##స్తులను
##ాలనుండి
అధిపతి
ఇటాలియన్
చార్లెస్
భిన్నంగా
వ్యాధులు
ప్రారంభించి
##భీ
##utc
##ందూ
##చరణ
##వనం
##సలు
##స్యం
కమ్మ
కెఫె
పోయి
##త్వాలు
అప్పగ
పట్టాభి
హక్కులు
ప్రతిస్ప
శాస్త్రజ్ఞ
రూపొందించారు
##ows
ఆర
రక
ఏదే
ఐసో
రకర
టాటా
భోజన
##సేవారు
ఈస్టర్
పరస్పర
దగ్గరలో
పదానికి
మారుతుంది
కార్యకలాపాలు
నోటి
హనుమ
హింస
##ట్రిక్
##న్నూరు
అర్హత
ఉండవు
##పడ్డాడు
ఏకీకృత
పెట్రో
మార్టిన్
పధ
##="0"
##తత్వ
##యందు
##వాడి
మాడ
##కత్వం
కణజాల
నేర్ప
ఉత్తరా
నిరంతర
ప్రశ్న
స్పందన
సోదరుడు
##పన
##00)
##ade
##asa
##కామ
##గాయ
##చడం
##తరం
##నరీ
నల
వద
##టెల్
కంక
##చితంగా
ఏలూరు
లోకసభ
##తిరుపతి
కారణాల
కెఫెలు
##ాలయాన్ని
పుస్తకాల
##io
##డార్
శోభ
##పీడియా
##వాళ్ళు
కాదని
కూర్చు
మొక్కల
జిల్లాల
##ama
you
చవి
##వేషన్
back
##బడలేదు
పౌరులు
రాకెట్
develop
చాంపియన్
mu
##దాలు
##సారం
చోళ
భేద
సెంచ
హేతు
ఆక్స్
చేపలు
జీర్ణ
విజేత
యోధులు
నలుగురు
అవార్డును
గ్రామాలలో
సంగీతాన్ని
##నవం
##డ్డా
కూర
శ్య
ట్రో
మేలు
చేతుల
జొన్న
మనస్సు
సిక్కు
##సెప్టెంబరు
వ్యవహరిస్తారు
##ంచె
pat
ముగ
##మియర్
భ్రమ
అధికం
మల్లా
ఇతరులు
ఏర్పడే
కిందకు
జర్నల్
నిమిత్తం
వ్యాఖ్యా
##oph
మెడ
##కులతో
##నివాస
##మొక్క
##ర్ణమి
fine
చూసే
థామస్
రక్తం
సంకలన
ఏర్పరచు
చెప్పుకో
పాల్గొన్న
గ్రామస్థులు
la
మరు
cult
టార్
దేవా
నగదు
##పట్టణం
అప్పుడ
చిహ్నం
రసాయనిక
కొల్లూరి
మార్గాలు
నివసిస్తున్న
##జయ
##కేశ
##గుడు
att
sci
##ither
సౌదీ
##కర్తలు
చేయుట
విలియ
##వ్యవసాయం
సాయిబాబా
గుర్తించి
ప్రారంభమైన
చిత్రీకరించ
సందర్భాల్లో
స్థాపించబడిన
##గై
##శర
##(0)
##ier
##ita
##పాది
సూర
ఉయ్య
నామం
ఆయిల్
ముద్ద
0000),
ఇటీవలి
ఆన్లైన్
ఉత్తీర్
గ్రంథంలో
నాయకత్వం
ప్రోగ్రా
కాంగ్రెసు
##బౌ
##ఎమ్
##తులైన
##వున్న
వేర్
##యోధుడు
వీక్ష
ఆందోళన
లోనికి
వారిచే
సహజంగా
ప్రతినిధి
##ఙ్
##ctr
##పత్ర
##శిల్
వామ
సిక్
అంగన్
అభ్యు
సమకాలీన
00000000
గ్రంథాలు
tv
ధృ
పృ
##గాది
##వాయు
వాగ్
##ఫీల్డ్
ఇతివృ
కష్టం
కళారూప
ఫీల్డ్
స్కాట్
టెన్నిస్
ఎలక్ట్రానిక్
##నక
##mat
##ట్టె
శరణ
##రులను
క్రూ
క్వి
##ప్టెన్
తీర్చు
శివాజీ
##చిత్తూరు
క్లోరైడ్
##ene
##ork
##ధారి
అల్ప
షార్
##బ్రోలు
కణాలు
నడిచే
మెత్త
భూగర్భ
సున్ని
క్షత్రి
సమయములో
వర్షపాతం
పరిమాణంలో
పార్లమెంట్
వాతావరణంలో
వాస్తవానికి
##ga
##ఖే
##తలో
షీ
##ట్జ్
##నూతల
##మంటే
నకు
యాద
తొలు
దళిత
రాసి
known
కాలము
సమ్మేళన
##నవ
##పరచు
మదన
##ద్దరూ
##ళ్ళతో
షేక్
##దాయంలో
ఉపరిత
తట్టు
పరిచయ
వట్టి
ధరించి
లక్షణం
ఎదురుగా
##ఱ్ఱ
పూల
##కుడైన
both
కెరీ
గానూ
సందే
##చెట్టు
##బ్బులు
కావున
అధికరణ
ప్రేమి
పోయింది
బొంబాయి
న్యూఢిల్లీ
##ేవ్
##కిరణ
##లాడు
##వంగా
##ుడైన
##టీరియా
##తంత్రం
##ఫ్రికా
##లెగ్జా
నౌకాశ
సూచిక
పంచాయతి
నిఘంటువు
స్వచ్ఛంద
ప్రోగ్రామ్
##చనం
##లస్
##హిక
##ఫ్రా
film
ఎముక
ఖాతా
భువన
##క్ష్మి
##చెందిన
చర్మం
చేయగల
చేశాయి
పరిశీలన
చెల్లించ
వదిలివేయ
శాసనసభ్య
సింగపూర్
శాస్త్రము
చెందినవారు
విద్యాభ్యాసం
లక్ష్మీనారాయణ
##మిది
##మిన్
సుప్ర
##లక్ష్మీ
గిరిజన
శ్రీశై
కాలములో
##any
bbc
కలగ
స్ర
##ఉత్తర
##సాగర్
head
తారా
సంతృ
##సంఖ్యా
##ించినా
క్రమం
వాడకం
సరఫరాల
బెంగళూరు
మొదలైంది
##ja
##క్కన
##పోటు
##మూడి
పాడి
ఫ్యూ
ఊరిలో
##కుండానే
##ప్రక్కల
పూర్వీ
వ్యయంతో
##min
##నాన్
కచే
కోణ
సాగర్
##ధ్వ
##ness
##టినీ
##తాయని
##వెళ్ళ
కురి
తేనె
లైబ్ర
విన్న
అద్భుత
బెస్ట్
రష్యన్
ఆకుపచ్చ
మిగిలినవి
సాంప్రదాయి
##ency
##ప్రై
##ములా
##స్ను
##మానిక
----
పన్న
మెమో
ఉపకరణ
##గ్గిరాల
అక్బర్
అరుదైన
బోర్డ్
కారణాలు
ఉస్మానియా
పిలిచేవారు
##oy
##శయ
##టిని
##నుని
##ర్రి
##సియం
బల్
పిల్
మోతా
వంశీ
కొలను
చికాగో
యంత్రం
ధరించిన
నౌకాశ్ర
సంస్థలో
##udd
##ట్ను
##రిలో
ఆడే
##చల్లా
భీష్
langu
చమురు
##మవుతాయి
వీలుగా
గట్టిగా
బ్రహ్మో
ఉన్నాయని
గ్రంథమాల
పరిరక్షణ
భగవద్గీత
విక్టోరియా
0-000-00000
కమ్యూనిస్ట్
సిన
##ently
గలదు
గాజు
గులా
సన్మ
##ణాత్మక
party
##సంఖ్యలో
చిక్కు
ఆఫ్రికన్
పర్యవేక్షణ
వెంకటేశ్వర
av
##మ్యా
##రమైన
పరం
పదము
గమనించ
దీనినే
మోటార్
మునుపటి
రామాయణం
దండయాత్ర
##ka
##మాయ
ఆతి
కంద
##ంటిక్
##గొట్ట
##స్టల్
near
నౌకా
##స్కెట్
these
కాపాడ
##ించడంలో
family
కార్మిక
రవీంద్ర
ఉద్యమంలో
##రవే
##ఇంగ్
end
డార్
పటము
##పశ్చిమ
##వాసులు
తొలగి
వసూలు
సత్యా
ఎత్తున
పేరుగా
ఫెస్టి
తెలియదు
పట్టణము
మతపరమైన
కూచిపూడి
గళామృతము
తయారుచేయ
ధ్యేయంగా
##ey
##.--
##ఫియా
##బాయ్
##వ్వి
dep
##కృష్ణా
బహుశా
జలపాతం
సంక్లి
ఫ్రాంక్
ప్రోత్సాహ
ప్రపంచంలోనే
##ody
##లాద
##లవరం
##వాలో
ఎరు
##ండ్రో
##భక్తి
భీమా
వాడీ
central
పెట్టింది
ప్రతిపాదన
##app
##కెల్
##–000
ser
మాయ
##్రియల్
ఆఫీసు
చెట్ల
వ్రాశాడు
చెప్పబడింది
వినియోగదారుల
##నమల
##ులై
##లోన్
లవ్
dire
కోడి
గలవు
బండి
రుక్
##పశ్చిమాన
ఇబ్బంది
విటమిన్
కమ్యూనిక
నగరంలోని
పత్రికలు
వినియోగదారులు
##త్న
##ట్రే
##డెల్
దర్
లేన
విఫ
##జనవరి
##ప్పున
తిరగ
##పురంలో
సర్వర్
station
పరిష్కరించ
నరసింహారావు
##iii
##own
##రచన
భై
##ప్రో
కోరి
భూభా
##పదార్థ
క్రియ
వినోద
అబ్దుల్
అయ్యారు
మలేషియా
na
##ణులు
##ధిని
##మ్మీ
kar
##రామయ్య
మరియూ
##ప్రతిష్ఠ
పరిమితం
ఉదాహరణకి
ఏర్పడును
##లనూ
టూ
##డ్ని
cur
##నిర్మ
కొడు
తుపా
##కరించిన
instit
భావించ
డాలర్లు
ప్రశాంత
విష్ణువు
చిత్రాలకు
నారాయణరావు
?
##ముగ
ఇద
ఎన
##సిరి
గాక
పదే
పేర
పొగ
ఎవరూ
కోలా
ఎంటర్
ఏనుగు
మర్రి
గ్రూపు
ఫిలిప్ప
రిచర్డ్
రోజులలో
సుప్రీం
వ్యాపారాత్మక
##ered
##టాప్
ist
తలె
##యున్న
పానీ
##విష్ణు
నరసిం
ఆశ్చర్య
సంస్థలకు
స్థిరమైన
##tc
##ayan
##గాంధ
ఉక్కు
మనస్త
తీరంలో
తీసుకె
లభించే
హార్డ్
తయారీలో
అప్పారావు
government
ur
##దేవత
##ళ్లి
##ైంది
##ఫర్డ్
##ాలిక్
దారు
offic
నుంచే
సిడ్నీ
##ేశ్వరుడు
ప్రత్తి
గ్రాడ్యు
##స్టిట్యూట్
వివరించారు
పుస్తకాన్ని
##భో
##మృ
లౌ
ఫార
ఫెర
##కర్షణ
##రవాణా
బాధి
పాలెం
ఉపాధ్యాయు
దుగ్గిరాల
ఎన్నికల్లో
నాయకత్వంలో
##భరణ
##ైట్
##గంగా
##హాన్
కోప
నమః
##ంచాయి
##జీవిత
అత్త
భద్రత
మెరుగ
బంతిని
తెలియని
సంవత్సరాలుగా
##elf
##ండవ
ob
##ంజనే
##టిగా
##నాతన
##న్నర
kal
##ారాధన
made
చోట్ల
ఇంజిన్
గుండ్ర
మందులు
వాస్తు
##inn
##ఘర్
##adem
##బ్బీ
##ర్థం
తడి
సంబ
phil
పదాల
బ్యూ
బ్రౌ
ముంద
##ంపట్నం
##ేందుకు
చేయుటకు
ప్రక్కన
విండోస్
##న్సు
##యును
##ష్టా
ఆరవ
ఖండి
నవాబు
పాటను
దర్శనం
స్కూలు
నిర్బంధ
విగ్రహాలు
##ఱు
##రఖా
ఈత
##గాకు
##యెల్
##వాహన
##ాడని
var
టైం
##యర్స్
##ర్మిన
టాప్
ట్రె
మధ్యా
జీవులు
వేల్స్
village
మస్జిద్
చరిత్రను
చెందుతున్న
ప్లాస్టిక్
పెరుగుతున్న
##దక
##బన
$00
అమర
ఆగి
గేయ
లోత
##ట్లకు
నైరు
పాలీ
పీల్
బంగా
రోగు
##జాన్ని
plant
సరిపో
either
అలవాటు
సంఘాలు
విడుదలైంది
##కని
##ఫలి
##బరి
inv
తరం
మేళ
##కారుల
##ార్ధం
క్వీ
దృక్
నగరాల
పోయిన
నాణ్యత
స్టాన్
శుద్ధిచేసిన
ఆస్ట్రేలియన్
చుట్టుప్రక్కల
##గంధ
##డింగు
##శాలను
కూడి
పారా
వేసే
దేశపు
పండిత
##చేందుకు
##పించారు
రాజేంద్ర
నిర్వహించు
##yan
##ణ్ణ
నడ
మంచ
##పుత్ర
జగ్గ
##రంజీవి
hindu
ఏర్పరు
##ప్రస్తుతం
పాల్గొనే
##emb
##kar
##డీస్
దొర
##మించు
##చేసారు
కావాలి
రకరకాల
అలెగ్జా
సరిగ్గా
తీసుకునే
నైపుణ్యం
ఐక్యరాజ్య
##gy
##సంచ
##ంటల్
##నిలో
మక్
చెరు
techn
వేరొక
టన్నుల
విజేతలు
వ్యక్తం
కుటుంబాలు
సమీపప్రాథమిక
##)''
##మటి
##నేను
##హౌస్
రుణ
##earch
##ంట్లు
##శాంతి
acid
కాంక
యక్ష
విరామ
సంక్షో
సివిల్
పరికరాల
ప్రశ్ని
సకలజనుల
అనారోగ్య
ఊరేగింపు
పోర్చుగీ
##సుప్రసిద్ధ
ఇవ్వబడింది
విమర్శకులు
పనిచేస్తున్నారు
##amy
##unt
##గ్వ
##యమ్
ve
##aint
##ంటన్
##లక్ష
ఫ్ల
vari
ఫైల్
బేస్
where
సోషల్
ఖ్యాతి
స్కోరు
ఇస్తారు
ప్రమాణం
భావించి
వ్యాయామ
##ఫిల్
కృత
బీజ
well
ఆఫ్ఘ
హోల్
##పాధ్యా
చతుర్
సిద్ద
కొల్లి
నివాసం
సదస్సు
స్వదేశ
##med
##ంత్
##కూర
##spec
##ముఖి
##రంగి
తీగ
పౌరా
మృదు
యాని
##మానులు
ఆర్మీ
కొండలు
చెల్లె
త్రవ్వ
ముద్రా
సూర్యుడు
చిత్రీకరణ
పరిశ్రమలో
నిర్మాణాలు
కార్యక్రమానికి
##su
##iod
దయ
##సత్య
ఆటల
##ాలన్న
##్యాలు
list
అవకా
మాని
అక్షా
అస్థి
##కుంటాడు
అనుభవం
బెల్లం
సైన్యా
బౌలింగ్
అన్నింటి
ఉదాహరణలు
ప్రచురించిన
ప్రభుత్వోద్యో
##తాళ
##దము
సవ
##ంగర్
##ంబర్
బడి
circ
కన్య
ద్రో
పద్ద
##ేపల్లి
ఇద్దరూ
ఓడించి
##ఉదాహరణకు
మూతపడ్డాయి
##);
##ణ్యం
##తికే
##ద్వి
నికో
మిరప
గదులు
వేసుకు
భాషల్లో
సమావేశం
ఆవిష్కరణ
మాంచెస్టర్
##ret
##వెల
ఎవ
##టేజ్
తరి
హాజర
పీటర్
##దక్షణాన
మంచిది
రీతిలో
##ించినట్లు
విరివిగా
సుబ్రహ్మణ్యం
##గఢ్
##ృతం
కడ
##పించ
##ప్రభ
నడప
##బెట్ట
మరికొ
ఇవన్నీ
వృత్తా
వ్యక్త
##కొన్నాడు
తమ్ముడు
అక్కినేని
అదిలాబాదు
ముస్లింలు
##mi
##భయ
##que
eff
nam
దేహ
హోట
educ
##వారిని
human
సీతారా
species
కామర్సు
కొరియర్
నామకరణం
బొమ్మలు
సమ్మెలో
వైద్యుడు
అమ్మవారికి
సంవత్సరాలకు
వధ
##ప్రి
##యిడ్
##శాలి
##స్సీ
ఐతే
##కులలో
మాయా
group
##తూర్పున
డిస్నీ
రోజుకు
ఫలితాలు
వైమానిక
మార్చారు
విమర్శలు
స్థిరంగా
పద్ధతులను
ప్రీమియర్
నిర్వహించక
విస్తారమైన
##నేత
##పిల్
సృజ
##షత్తు
కుదు
##ఆగస్టు
ఆర్మే
ధరించ
##గులందరూ
చేస్తు
నాలుగవ
విప్లవం
hyderabad
సూచిస్తారు
కనుగొన్నారు
international
కార్యక్రమాన్ని
##inc
bc
##జిక్
bot
##ision
చూసు
దక్క
మాతా
వర్మ
##దానికి
ఆవిరి
##క్రాంతి
##మాచార్య
విషయాల
##అక్టోబరు
గోధుమలు
సూచించే
ఆయుర్వేద
కాళిదాసు
##్రం
how
గతి
కాంగ
మోనో
యువత
##తరువాత
##స్మృతి
గొర్ర
నెలలు
వర్షా
##ఉత్తరాన
##ఉన్నాయి
బాధపడు
ఆకారంలో
దేశాలకు
పెంపొంది
వ్రాశారు
క్రియాశీల
ప్రకటించాడు
##ఉప
##ఖీ
##ush
##మిత
##ారె
di
air
vij
##వృక్ష
ఇంధన
##భిప్రా
##వంతుడు
వనరులు
సంస్థలను
##eld
##పది
wid
##రత్నం
వాసన
హిట్
##రెన్స్
liter
చర్చ్
పునరా
ఒంగోలు
ఆపరేషన్
చొప్పున
వావిళ్ల
0000000.
వెబ్సైట్
సంక్షిప్త
హైడ్రోజన్
టోర్నమెంట్
##జై
##యొ
##lim
##ives
see
##ట్జర్
##షన్స్
##ార్కి
##సింజర్
శాసనం
సింధు
చైనీస్
నిరోధక
మోతాదు
లూయిస్
##ామిరెడ్డి
కాశ్మీర్
పరిపాలనా
##isc
##ల్క
##ible
##ived
##ంగళి
##తోనే
మేన
చూడు
నారా
రోజూ
##వెన్యూ
సాయుధ
called
number
హైడ్రా
పాత్రిక
వ్యాకరణ
పోలీసులు
నెమ్మదిగా
##దంబ
##ధ్ధ
..
భే
##బుక్
eng
##ayana
##స్థుల
చిలు
వాహక
three
అస్సా
madras
జర్నలి
టిబెట్
శివుని
డ్రైవర్
మహారాజా
క్రిస్టి
విస్తరించింది
##డనే
##ains
##జెస్
##దుర్
##ప్లో
అవయ
ఎపి
పెడ
cour
సిగ్
##టాషియం
##విత్రి
తిప్ప
ఉండటంతో
కెప్టెన్
చిత్రాల్లో
ఎన్నికయ్యారు
##నాశ
ఇని
ఉపవి
కొట్టు
త్రాగు
పర్యటి
ఉద్దేశం
ఇంగ్లండ్
బాస్కెట్
సంగీతంలో
సంబంధమైన
##పౌ
##మ్ల
##ఉంది
##నామం
నలు
##కాలకు
##ముద్ర
##బ్బిలి
అమరిక
ఏర్పా
##మైనదిగా
ఎవరైతే
క్వార్
ప్రదానం
ప్రభాకర
వెళ్ళాడు
##హణ
##rain
##ఫీసు
##మొదట
మలి
శైవ
ఫ్రే
వాడిన
వెచ్చ
##కుంటాయి
బస్సుల
కంపెనీలు
ప్రభావిత
గ్రామాలకు
చెప్పింది
మార్చబడింది
##ee
##iah
##utt
##మతం
##జన్మ
##సెఫ్
##ోర్స్
అరబ్
తీరం
పోషి
ఇష్టం
మాంసం
మినహా
పండ్లు
ఉపన్యాస
రకాలుగా
##రిస్తున్నారు
##ett
cd
గణన
##ility
##దర్శన
డెస్
##ల్లోని
దేశము
నటించ
బహిష్
వడ్డీ
నువ్వు
యాత్రి
వేలాది
హెల్త్
తెల్లని
విస్తారంగా
##li
##ోప
##మనీ
##మరీ
శీత
##acing
##క్కిన
##స్తంభ
writ
రిజర్వ్
railways
గోపాలకృష్ణ
దారితీసింది
##alk
##భవం
kh
##enna
##జులై
##పుర్
##ఫ్లో
##ారిక
తోక
మిని
తొలుత
బదులు
వ్యంగ
0000).
భవనాలు
రక్షిత
##మయ్యింది
##హారాన్ని
వుండును
ప్రవేశించి
న్యాయమూర్తి
బ్రాహ్మణులు
##జిత
##దిశ
my
జొ
##ధిలో
లేత
శిల
best
భావం
భాషల
మెగా
##పుల్స్
ఇనుము
ఫలితం
ఫస్ట్
##ంగాన్ని
సిస్టం
సూత్రం
చట్టాలు
సంఖ్యను
విముక్తి
మధ్యప్రదేశ్
##ni
##iva
##దను
##వ్యం
##తుడైన
##దర్స్
దీవి
హరిక
వత్తి
కాకతీయ
తిరునా
వర్గాల
హార్మో
శనివారం
ప్రమాణాలు
ప్రదర్శించారు
##dp
##ets
##బ్ధ
##రర్
##athi
##డితే
mil
తని
##ంట్లో
ఒకడు
సభలో
సమన్
##నమలూరు
music
ఊరికి
గుట్ట
భద్రా
##పోవచ్చు
తుఫాను
రంగులు
క్రీడలు
ప్రతిభా
ఆకాశవాణి
వెనుకబడిన
సినిమాలకు
కలుగుతుంది
ఉపయోగించవచ్చు
##ini
##ship
##టుడు
##ెట్ల
##క్తంగా
చదివే
పత్తి
కంట్రో
పచ్చిక
స్నానం
నాగరికత
##కేంద్రంగా
ఆంధ్రులు
దేవాలయము
లేకపోవడం
రాష్ట్రము
మాట్లాడుతూ
##्र
##నైన
##పరీ
##సంఘ
0–0
వంగ
##బొమ్మ
##రెండు
ముగు
##వేంద్ర
##స్తాను
కెరీర్
చురుకు
పిలుపు
రైళ్లు
పిఠాపురం
ప్రచురింప
సభ్యునిగా
##ంతృ
##imes
##omen
##చివే
##స్వత
ఐస్
బసవ
హ్య
##ments
##ట్లర్
ఆటలో
కరుణ
డ్యూ
రుసు
వారే
##adding
##నీయంగా
అద్దె
నటిగా
నేపాల్
శైలిలో
##చార్యుడు
##రామారావు
దెబ్బతి
ఉద్దేశంతో
స్పష్టమైన
##ారణా
val
జవహ
నీలం
విత్
##కుమారు
north
order
విరాళ
##భారతదేశం
ప్రతికూల
మాట్లాడు
విమానాలు
మొక్కజొన్న
అధ్యక్షుడిగా
ప్రత్యేకపూజలు
##డొ
##రవి
##గ్స్
##రత్న
ఆడు
గరు
తేమ
తానే
##కరించి
కాపర్
##-000000
ఆరుద్ర
క్లాస్
ప్రబంధ
అనుమతించ
పరిష్కార
సినిమాతో
దినోత్సవం
##led
##ists
##త్సవ
##వాసు
అస్
పామ
భరత
భూత
##ering
ఉపయో
##డ్జెట్
##ళ్లూరు
అంతగా
పద్యం
పనిని
వార్త
electr
కావ్యం
ప్రేరే
లైబ్రరీ
##పాయ
##చ్చా
est
స్త
##మేషన్
కాపీ
మాంస
అష్టా
నైతిక
##ర్లాండ్
గ్యాస్
స్కోర్
జట్టుకు
చేబ్రోలు
పట్టభద్ర
వనరుల్లోకి
క్రైస్తవులు
##బస్
##మస్
##డ్జి
కమీ
##వులతో
కనుమ
కమలా
జాతికి
పోటీలు
వ్రాసి
శిక్షా
ఆత్మహత్య
అందిస్తాయి
##sr
##omb
##నెల్
leg
##లోపతీ
ఆకార
తాటి
భార్
కామన్
region
వయస్సులో
ఇస్లామిక్
ద్రవ్యరాశి
వర్గీకరించ
కార్యదర్శిగా
##anj
##జను
##దలు
pp
##హిని
##పట్టు
##పాలకు
అంతర
కారా
స్తు
కరువు
ట్రాక్
దొరికి
స్పంది
ఎన్నికలు
భాగాలుగా
##ించినప్పుడు
క్లిష్టమైన
సంవత్సరాంత
వ్యవహరించారు
##tv
##lor
వం
రాధ
దేవ్
వర్ధ
##నవంబరు
ఇరాక్
శివారు
యాజమాన్య
వ్యక్తిగా
ప్రభుత్వము
అందుబాటులోకి
##erc
##uru
##గనై
##వగా
##జోన్
##వ్స్
##కట్టు
##వర్గం
గడియ
జ్ఞా
వన్య
పలుకు
పితామ
వస్తే
కవిత్వ
మునిగి
మునిసి
pradesh
ఆకర్షణీయ
సృష్టించ
పత్రికలలో
మెమోరియల్
విశ్రాంతి
సామాన్యంగా
##ava
##అర్
తాళ
##owing
##య్యద్
##ల్లంఘ
శేషా
##హేంద్ర
అయిదు
##త్సవాలు
అందంగా
వెళ్ళు
తర్వాతి
పెద్దది
నియంత్రి
ప్రార్థన
##abh
##గని
##యుత
##లాగే
usa
ved
అమె
భూప
##aking
##ంబుల్
నిజం
మరియ
ఛానల్
విభజి
సమానం
కోర్సు
పౌర్ణమి
కళాకారుడు
భాగస్వామ్యం
##ంద్వ
##కాదు
##చాయి
##చేయు
##ట్రీ
##మేష్
##ామీయ
##ాలజీ
మొహ
శ్వ
##ండింగ్
##పొందిన
పద్మా
ముట్ట
ఇండోనే
వేశారు
హనుమంత
భాగాలను
కృష్ణుడు
ప్రశంసలు
ఎడ్యుకేషన్
పబ్లిషర్స్
విగ్రహాన్ని
##థు
షు
##line
##గారం
##హ్నం
equ
sun
ఏడవ
టెం
##గతంగా
దాల్
ప్రణ
##క్యూరి
##దిద్దు
##రోజుకు
#0000
బలంగా
andhra
century
punished
జోర్డాన్
మొత్తాన్ని
##బండ
##fore
##డిన్
cro
mag
maj
కరా
##ంబ్రి
##నట్లు
కుతు
లైట్
పోలిక
ఫైనల్
వర్ణి
##రావుపేట
##స్తానని
differ
ఉత్సాహ
పెట్టే
అభ్యుదయ
కర్నాటక
వాల్మీకి
పోషించాడు
సంపాదించు
శాస్త్రులు
చారిత్రాత్మక
##కుం
##పాన
##కాలి
##కేల్
##నేజీ
eas
##యన్స్
కవుల
ధ్వజ
సాహస
##స్టేట్
##ించెను
అంకిత
వేత్త
సంపర్
##టెక్నిక్
దర్శనమి
బ్రహ్మా
సంఖ్యలు
విద్యాలయ
సైన్సెస్
##ove
##జాన
##వీర
##పండి
##వర్ధ
చెల
శనగ
##ంపబడి
##గలుగు
##ఎస్ఆర్
##ినేషన్
చక్రం
కోర్ట్
##కొన్నారు
ఉద్యోగి
వస్తారు
శివాలయం
కింగ్డమ్
రాష్ట్రాల్లో
##వతం
ఐన
##వేరు
జనన
##యులకు
brit
foll
sign
ఇతడి
దరఖా
హస్త
##ంగల్లు
అక్రమ
వెలుప
జ్ఞానం
ఫెడరల్
రామయ్య
సాక్షి
ఆధిక్యత
చిరంజీవి
ధర్మరాజు
సముద్రపు
విభజించబడింది
##న్ల
##వాచ
dh
##atic
##ఫైడ్
aur
ret
కపి
##లాండు
అంచు
ఖర్చ
దేవీ
మూలా
రచనా
##ర్యానా
గంటలు
వికారా
ఆరంభంలో
పన్నెండు
ఫెస్టివల్
##తెలుగువారిలో
##ంజీ
గై
##మైతే
##యానా
jun
ఆవు
మత్
మోస
గౌతమ
ఘట్ట
తదిత
బీమా
శివు
##ిక్యుల
అసమాన
##ాలీవుడ్
telugu
ఉత్తరం
చైనాలో
స్మిత్
##నూతలపాడు
పత్రాలు
స్నానపు
ఫ్రాన్సి
చెల్లింపు
అందుకున్నాడు
##tml
el
##ఫెన్
ఓటు
బెం
road
##కాలంగా
--(0)
child
death
place
ఎత్తి
దేవతల
##కోకుండా
ఎడిషన్
యూనిట్
సాధ్యం
చెయ్యడం
నియమాలు
సైనికులు
పెట్టుబడు
##yle
##గంగ
##మాస
##షర్
##రిని
##శాట్
##పర్వత
##మాత్ర
అనుచ
బహ్ర
సమేత
chand
ఉగాది
వృత్త
states
బ్రౌన్
పట్టికలో
ann
ఏటా
##ానందం
కలుప
న్యు
విను
సామూ
కొండల
తిరుమ
స్థూల
island
ఆకట్టు
క్రాస్
గ్రెగొ
డ్రెయి
మంజూరు
డిమాండ్
మేనేజర్
వున్నది
దర్శించు
పాల్గొన్నాడు
##osa
##కోశ
##గిల్
డచ్
దళాలు
పాండి
వియత్
సాక్ష
##గోదావరి
##పోతున్న
రైళ్ళు
సంకేతం
వర్గాలు
సాపేక్ష
అనుసరించ
అర్జునుడు
##సమీపవ్యవసాయ
ప్రక్రియలో
స్వీకరించారు
కార్యక్రమాలలో
##esp
##png
##కరం
##సంధ
సమి
హార
##ణులను
hand
కూలి
##ission
##ritsar
##స్ట్రో
కూడలి
సున్న
కార్పో
వాటితో
నిధులను
వ్యక్తీ
ట్రాఫిక్
బ్రెజిల్
మ్యాచ్లో
సత్యసాయి
సమయాన్ని
స్వేచ్ఛా
యుద్ధానికి
పరిస్థితులలో
స్వామివారికి
##జాత
##ారక
##ూపం
##మోర్
##లీపు
దళం
##వర్స్
##ెక్ట్
గురై
గ్రి
##iction
##వుల్లో
లక్నో
చదివిన
పెద్దలు
బిందువు
పదార్థాల
ఉద్యోగులు
సంవత్సరముల
##rol
హూ
sal
కొడ
లంబ
శక్
##ఇంటర్
గర్వ
సేనా
river
నిమ్మ
##న్మెంట్
(0,000
అప్లిక
ఆంధ్రా
దానిపై
పడింది
రాశాడు
సంకీర్
స్థాపన
గన్నవరం
మహమ్మద్
స్వభావం
వివాదాస్
డ్రెయినేజీ
##యత
##బలి
##యనం
##సలి
##ీస్
##ices
##టేల్
##పాయి
##పియర్
ever
కళలు
##పెద్ది
అనువైన
కథానాయ
పాటలను
సిద్దా
అధ్యయనాలు
విరుద్ధంగా
ఛాంపియన్షిప్
##ellow
##ధులలో
tree
దట్ట
ఎద్దు
మాసంలో
హిమాలయ
రామదాసు
రంగారావు
సముద్రంలో
##స్ల
ఆం
##వరము
##ౌండ్
బాణ
##ాన్యం
చెడు
మేధా
యుగం
యురే
రేణు
సెమీ
##దర్శన్
నంబరు
శంకరా
period
ఉండాలని
ఎంపికైన
సెక్యూరి
చేసుకోవడం
రాజ్యాన్ని
##my
##nd
##చెరు
కోచ్
గుల్
త్వర
వూరి
##కాకాని
అవతార
ఒకటైన
చీకటి
పాడిన
మిషన్
##ography
అవసరాల
ట్రేడ్
description
##బ్యూ
##స్టే
##స్రో
:::
jul
లాగ
##నర్జీ
ఫైలు
ఆరంభం
##స్తాయని
వెన్ను
##కుంటున్న
##ేశ్వర్లు
సంస్థగా
సముద్రమ
కేంద్రాల
ప్రిన్స్
##ంపబడుతుంది
హాస్పిటల్
తీసుకువచ్చ
అమెరికాలోని
##ఃఖ
##గంట
fa
యీ
##ides
##పర్చ
##ually
##ంట్స్
చాటు
relig
ఆనంద్
పట్టిక
ఇక్కడకు
వచ్చును
విలువలు
సోమవారం
కొల్లూరు
గణనీయమైన
కార్యనిర్
population
లక్ష్మీనరసింహ
##ulu
##జాలం
##లికా
ఆరి
వసు
##పూరిత
##సాఫ్ట్
చెరకు
పదిహే
##చార్యుల
##ళ్లపాడు
ఆవిర్భ
పర్వతం
ప్రగతి
బేరియం
బహుమతులు
రామాయణము
సమ్మేళనం
##ించబడ్డాడు
మరుగుదొడ్లు
##అర
##alam
##arge
iii
ఇమే
##బడుతూ
ఎన్న
చురు
పావు
మెర్
00:00
islam
small
చింతల
తప్పి
బాండ్
సరుకు
కొట్టి
దేవతలు
నాట్యం
ఫార్మా
ఫోర్స్
చెందినవి
ఛాయాచిత్ర
సమరయోధుడు
సామర్థ్యాన్ని
##uss
##శ్ల
##సుర
mr
##జ్జి
##నూనె
##గించి
కాస్
రాలే
వేసు
సులు
##ention
##కొల్లు
##వర్తనం
again
పత్రం
దొరుకు
బుక్స్
సారిగా
offence
అప్పుడే
గ్లోబల్
ఆధిపత్యం
కనుగొన్న
కనిపించింది
గ్రెగొరియన్
##idd
##టస్
##గంజ్
##జ్రా
##నూర్
##లియో
గూఢ
తదన
పరో
ఉగ్ర
మేము
రోమ్
##హితంగా
మేజర్
americ
అహ్మద్
ఇంజినీ
బ్రాహ్మ
శరీరంలో
ఆక్సిజన్
క్రీడలలో
రూపాంతరం
ఎల్లప్పుడూ
##టలో
##ophy
##డిల్
##శేఖర
##సిసి
led
రాణ
##ఉత్తమ
same
ఆజ్ఞ
త్రో
పతకం
మన్న
మిలి
అలానే
నీటితో
పారిస్
మల్లాది
##ంటున్నారు
అనుమతిస్తుంది
##let
##ఖిల
##గాల
##లచే
gh
##aves
##ర్డ్
sin
అపో
గలి
##ండియా
##కాయలు
##తరగతి
##మ్ముల
##వచ్చి
తేలి
సవరణ
హాకీ
##ించబడే
నటనకు
వారాల
స్నేహ
శతాబ్ధ
సయ్యద్
చేసుకోవ
దిగుమతి
పద్ధతుల
మానవులు
సీజన్లో
అప్పటికి
పార్టీలో
వ్యాకరణం
ప్రతిష్ఠా
భారతీయులు
శుక్రవారం
సంపాదకుడు
తప్పనిసరిగా
##షో
##రాఘ
##గూడు
##నుడి
##లైడ్
మెహ
##చెయ్య
క్వా
డాన్
నీలి
మారే
యాక్
రాము
##స్నానం
ఎరిక్
భోజనం
proper
మొదటగా
ఫార్ములా
చేపట్టారు
విధానాలను
వ్యాపించి
##po
##avi
##who
##కర్మ
##కిన్
##ెంటి
disc
గుప్
బయటి
ముది
విలా
##ananda
కోదండ
నుంచీ
యెక్క
రెండే
అలంకార
కొందరి
చేర్చు
స్ప్రి
చరిత్రము
వికెట్లు
సంవత్సరము
##నగర
##ారట
##అంటే
##అవని
##ద్యమ
##షనర్
జాగ
##తల్లి
##రోజుల
ఆడిన
ఆడియో
ఉత్తే
బూడిద
యోగ్య
##రేపల్లె
స్పేస్
విశ్వసి
పిల్లలను
##sm
##ులే
pa
ఘనత
main
mark
ఆకలి
చెవి
నిరో
పెరు
మహాల
##పాలిటీ
మహమ్మ
వర్ణన
##ంగుటూరు
##శ్చంద్ర
కలుసుకు
చివరిలో
చుట్టుప
పోలింగ్
అందుకున్న
ప్రస్తుతము
వహిస్తుంది
సాంప్రదాయిక
##ఖాన్
##రామ్
తేజ
##ండీస్
good
ఆల్క
వాసి
సంధి
అదుపు
భర్తీ
common
అలంకరణ
సంకల్ప
సంపుటం
పూర్వపు
పౌరాణిక
వ్యాసాల
సాగింది
తాడికొండ
తేదీనాడు
##'.
##udi
##నన్
ఫొ
శే
##నిన్
##లాల్
##ష్యం
ప్ల
dise
కాంట
దాస్
మంగో
##త్తుగా
కన్యా
గౌరవం
బర్మా
కూర్పు
జోసెఫ్
న్యూజి
##స్టాఫీసు
అల్లాహ్
మెరుగైన
సంఘటనలు
అక్షరాలు
పుణ్యక్షే
సంవత్సరాంతమునకు
##by
##రహ
##car
##ron
##రని
##etic
##కుంత
##సిడ్
##నిరోధ
::::
మీర్
##తుండగా
##భాన్ని
##ోత్సవాలు
విశాలమైన
తెలిపింది
పదార్ధాలు
శతాబ్దానికి
##పత
##గేయ
##్వా
##గితే
##మోహన
##ensis
కంకి
నాడీ
##మెయిల్
అతిథి
కట్టిన
వైష్ణవ
ప్రయోగం
పద్మశ్రీ
ప్రచారంలో
సాంకేతికత
ముద్రాక్షర
రాజమహేంద్ర
వ్యాఖ్యాని
నిర్మాణాన్ని
##to
##ote
##క్వి
##మీర్
##వులో
"''
.--
గదు
చాన
మేత
మోహ
వెళ
##ాయిల్
king
పూజి
బల్ల
మచ్చ
##ఇంగ్లీ
పరిశు
##ేశ్వరాల
commun
నగరంగా
##అవనిగడ్డ
##తున్నాడు
##పెట్టాడు
రీడింగ్
చలనచిత్రం
పనిచేసింది
##వ్యాపారాత్మక
##omet
నడవ
బ్య
మనీ
##ట్లతో
అంతి
చిలక
జననం
నడుమ
పోయా
great
power
అచ్చు
తప్పక
ధాన్య
ధ్యాన
మధ్యన
ఆర్గనై
మరొకటి
సన్నని
జట్టులో
##formation
న్యాయవాది
డెవలప్మెంట్
వచ్చినప్పుడు
##లకల
యమ
##ంకార
##బడని
##శైలి
ఆలీ
నాద
మేక
##మహారా
ఆక్సీ
చూపిన
మందుల
అంకితం
చల్లని
మున్సి
యంత్రా
ఎప్పుడు
టెర్మిన
మొదటిది
సిండ్రో
పాత్రలను
ఇంటర్వ్యూ
సంక్రాంతి
పదార్థాలను
మరుగుదొడ్ల
ఎన్నికయ్యాడు
##ధీన
##హైడ
ఆద
##రహిత
##రిస్
##షులు
ఉపని
##రాముడు
black
వెన్న
##హైదరాబా
comple
ఇండోర్
సోడియం
నటుడిగా
చంద్రుడు
చనిపోయిన
పర్యాటకు
సమయంలోనే
పురాతనమైన
##mar
ic
కజ
##టును
non
మఠం
##ంటికి
చేపల
ఫెలో
మండి
తెప్ప
ప్యాల
##ization
##కొండూరు
ప్రసంగ
బహదూర్
మూలాలు
సైన్సు
రెండవది
సుపరిచి
ఉండేవాడు
ప్రచురిత
ప్రవర్తి
##ve
##%),
##అనే
nat
sil
##గాంధీ
##హిందూ
##శ్రేణి
ఈమెకు
నిరసన
పలికి
శ్వేత
##padding
##గ్రహారం
##రోపియన్
కాగితం
పదాలను
దంపతులు
అందుకుంది
##ays
##చోట
##తమై
cre
నిడ
ఉప్ప
విషయము
స్టీల్
స్వర్గ
పేర్లతో
లాంటివి
విధానము
సర్కిల్
పాత్రికే
కార్యక్రమాల
ప్రాథమికంగా
పరిగణిస్తారు
సరఫరాగ్రామంలో
##దనే
lo
ఠా
వాయ
విఠ
##ంపాడు
00),
అర్చ
జీవా
##కాలుగా
##సినారు
organ
నన్నయ
ప్రాధ
శబ్దం
స్ట్ర
దశకంలో
మండలాల
సిద్ధం
ఢిల్లీలో
అధికారాన్ని
##mon
##por
##అని
##ఫార
##duct
##onda
##రకాల
##వానీ
add
##శ్లేష
west
జనసా
జ్యూ
దేవర
యోగి
వాట్
విషా
light
నలుపు
పచ్చి
బ్రిటి
##జ్యాన్ని
##వులపల్లి
ఉచితంగా
మనుషులు
పురుషుడు
యంత్రాలు
వెళ్ళారు
ముందుగానే
cellpadding
మస
హర
##ంచటం
##హారు
అంధ
సహచ
vers
లెస్
##ందరికీ
దీక్ష
ధ్రువ
వాహనం
సుదూర
హైస్క
##వుతున్న
గింజలు
నిలుపు
ఇస్లామీయ
సూర్యుని
పెదకాకాని
పరిస్థితుల
##బాలసుబ్రహ్మణ్యం
ప్రవేశపెట్టారు
##దీయ
##టులో
ఆను
పదు
##బ్రహ్
##మునందు
##సాపురం
కొయ్య
పాండు
శిథిల
కొద్దీ
రాముని
వెళ్లే
వైద్యం
##నిర్మాణం
ప్రయోజన
హర్యానా
బహ్రయిన్
రెవెన్యూ
శిల్పాలు
సంస్థలలో
ద్రవ్యోల్
విమర్శకుల
వ్యక్తిని
సమావేశంలో
##00%
##శయం
##ానో
##దీని
##మాంబ
##వంశం
ten
అశ్
ఖలీ
##క్టరీ
##రచయిత
గోవా
తోలు
దానం
రోబో
శంకు
శతకం
##లాపురం
ఇంకనూ
సాగిన
direct
అభయారణ
చివరలో
ప్రోటో
రెట్లు
##నిస్తాన్
గుమ్మడి
చెప్పడం
పనితీరు
పుట్టుక
డిపార్ట్
బాలకృష్ణ
పరిజ్ఞానం
వెల్డింగు
సంభవించిన
వివాదాస్పద
గుర్తించబడింది
##పాఠ
##యిట్
##విక్
whe
ఉరి
దిగ
ధను
##దిత్య
##నేశ్వ
##మంతటా
##ృత్యు
ఓటమి
స్లో
##రాబాద్
అనబడే
పేపర్
నాలుగో
వేమూరు
##పురుషులు
తిరుప్పా
తొలగించి
సృష్టించిన
##జాడ
##గలవు
##ణుకు
##పైగా
##విచ్
tre
కాళ
హుస్
##కపోవడం
కాగిత
భాషగా
రెస్ట
లావాద
సమస్త
ధ్రువీ
పొగాకు
స్మృతి
చిత్రకళ
నరేంద్ర
ప్రవేశి
చిత్రంగా
బిలియన్ల
వంటివాటి
ప్రాంతంగా
ప్రక్రియను
ముస్లిములు
##fa
##అల్
##థర్
అసా
##కాంతం
arch
అమర్
వేమన
##దేవుని
ఆలయము
కాస్త
పాఠ్య
కార్బో
కార్యా
వాల్యూ
వేగంతో
##మానాన్ని
సమానమైన
##డికొండూరు
పొటాషియం
సావిత్రి
మిలియన్లు
హార్వర్డ్
బ్యాంకింగ్
ముఖ్యమైనది
##sy
##నః
##దాల
##లుల
dv
##ized
##కర్ల
##క్షు
##గానో
##ట్నా
##మూడు
##వేణి
occ
##కొరకు
ఉచ్చ
గాయం
##మార్ట్
కార్బ
తీర్మ
మనుగడ
శారదా
సొంతం
హాంగ్
second
పెట్టె
society
బొబ్బిలి
ప్రాంగణంలో
సంస్కృతంలో
ఇబ్రహీంపట్నం
చేసుకోవడానికి
దక్షిణాఫ్రికా
##no
##ief
##ంపా
##నియ
మరే
##క్కుల
అస్ప
కేశవ
లోపం
వెనక
##కాంగ్ర
##వార్డ్
మధుమే
అసిస్ట
చర్చలు
బంగాళా
యూరోప్
లార్డ్
విచిత్ర
ఐర్లాండ్
బ్రిటీషు
మదనపల్లె
##బడుతున్నది
వివేకానంద
స్వీకరించి
తెలుస్తోంది
##సీలు
bre
రబ్
##నులను
##ించని
తాకి
సుభా
##సెన్స్
కథలను
చిట్ట
##క్షన్స్
##దారులకు
చేతితో
సమస్యల
హార్ట్
వాహనాలు
అనువర్తన
అన్నదానం
గణనీయంగా
చాలావరకు
తెలిసింది
##వూ
iv
##ద్రో
##మైన్
##రిడా
##వేశం
##శాతం
00–
inf
ఎలు
పాము
స్టి
##ప్పులు
ఇంజన్
చిక్క
##ప్రాంతం
##లాండ్స్
బంగారం
బడ్జెట్
ప్రకటనలు
సంభవించే
ఇంగ్లాండు
సభ్యులుగా
సూచించారు
##స్తున్నట్లు
ప్రభుత్వాలు
కలిగిస్తుంది
##ంకం
##alth
##మ్మట
##సింగ
##ేవరకు
mand
పోతు
##గ్రాఫ్
##మార్క్
style
పోరాడ
గ్రాఫి
##విస్తీర్
చదివాడు
ప్రధాని
బ్యాటింగ్
సృజనాత్మక
వికీపీడియా
##ton
##వేలు
##సేజ్
(0).
##మిక్స్
అవశేష
తాళ్ళ
లోతైన
సమీకరణ
(00.0%)
express
అవుతాయి
అందించాడు
ప్రయోగాలు
##,,
##డట
##థీ
##ode
చద
##బండి
##రూపం
*00
##కపోతే
##తోష్ణ
##ప్రియ
##ర్యాల
east
అరటి
కళ్ళ
పరశు
హాట్
కరుగు
విభేద
##spacing
ఆంగ్లం
ఆక్రమణ
ఉల్లంఘ
క్రెడి
గుర్రం
వ్యర్థ
##చెరుకూరు
కాథలిక్
వేసవిలో
సామెతలు
ప్రారంభి
కొండపల్లి
విలియమ్స్
ప్యాసింజర్
గ్రామములోని
తగ్గిస్తుంది
ప్రతిష్ఠాత్మక
##kh
##సరా
$0
##wara
##అద్ద
##అనగా
##రాల్
ఎకర
ఫిల
సద్
గనుక
ఫైనా
వాది
##దాబాద్
swami
బాంబు
మారుతూ
సురక్షి
research
మొట్టమొదట
విస్తృతమైన
cellspacing
##ns
##anam
##cept
##ెంజ్
##పించు
దేశా
నదిలో
##ర్మేషన్
నివాసి
ఆవిర్భవ
గుడివాడ
సముదాయం
డిగ్రీలు
పర్వతాలు
ఫలితాలను
సరికొత్త
##ంచబడుతుంది
కేంద్రంలో
మేడికొండూరు
భావించబడుతుంది
##ధో
జమ
##పండు
##బులు
##వారే
cam
dem
ఋతు
సీమ
##కుప్ప
very
మీకు
వదలి
##నాల్డ్
నివేద
మహాసభ
మున్న
వేముల
భూమిపై
వేటూరి
నిరంతరం
వ్యంగ్య
సోదరులు
కుదుర్చు
పురావస్తు
సభ్యుడిగా
స్థాపకుడు
మార్గాన్ని
గెలుచుకుంది
సంవత్సరాల్లో
##క్స
##ేణా
ఉపశ
కోవ
##పద్యం
thir
wind
తోడు
##ధానాలు
green
అంతరా
పటేల్
వర్షం
సోదరి
ఏకగ్రీ
రాజీవ్
ఊపిరితి
ఎన్నుకో
పెట్టాడు
భువనగిరి
సామర్థ్య
రాజ్యాంగం
భాగస్వామ్య
మండలములోని
##aly
##బుల
##ared
##తూనే
##రియో
నీడ
పరచ
విత
like
రాహు
వింత
వేలు
సమర్
స్పా
కుంకు
కుట్ర
ముప్ప
మానవుల
రచించి
చుండూరు
శిక్షణా
ఆక్రమించు
పర్యవేక్ష
##ax
##జవాడ
##తార్
##రికీ
నాన
##మర్తి
##ెల్స్
mean
కొలవ
##గొట్టు
##లాపూర్
క్షీర
ఆంగ్లే
పెంపకం
సెకండరీ
దృష్టిని
భగవంతుని
వెలువడిన
సభ్యత్వం
స్క్వేర్
బ్యాంకులు
వేణుగోపాల
స్విట్జర్
పోస్టాఫీసు
ఇంజినీరింగ్
##పథకం
పదవ
##ences
##ondon
##న్నర్
chen
పేరె
##జిక్యూ
##న్నాను
మత్తు
పదవిని
అకాడెమీ
ఉపరితలం
తరంగాలు
తెలుగులోకి
వట్టిచెరుకూరు
##adu
##ley
##ంజై
మఠ
##ator
sah
విలు
దాడులు
నిబంధన
పచ్చని
పాత్రల
ఆధీనంలో
నమూనాలు
నారాయణ్
నాణ్యమైన
పొందడానికి
##amm
##జరీ
##మలి
##ానది
ఊహా
area
view
కుర్
కొలత
గద్వ
గేట్
పోయే
మెల్
వక్ర
హ్యా
ధోరణి
బౌలర్
శ్యామ
##భారతదేశ
సైకిల్
సౌకర్య
స్తుతి
ప్రోగ్ర
శ్రీమద్
సారస్వత
##కాంగ్రెస్
ఎడ్వర్డ్
కర్మాగార
కొల్లిపర
పార్టీలు
తప్పకుండా
##ంఘ
pet
##గజైన్
బావి
మహల్
సాల్
##ముల్లో
##స్టిన్
అంతిమ
ఇతరుల
ద్రవీ
యాంటీ
##కేంద్రం
అస్సాం
పువ్వు
వార్డు
విచ్ఛి
వినాయక
science
పాక్షిక
ఉత్తీర్ణ
అభ్యర్థిగా
అనువదించారు
దేశవ్యాప్తంగా
##కణ
##లత
##adh
##fic
##గలరు
##గుప్
##పద్య
##ప్రె
##భారం
##సర్ప
అడు
ఆలి
##,0000
భంగి
##కుల్లో
##పోతాడు
అడ్డం
కాకతీ
కొండా
పరిమా
తిరిగే
నిన్ను
మత్స్య
మాధ్యమ
అమ్మోనియం
కేంద్రీకృత
మెజారిటీతో
చుట్టుపక్కల
##ఆయన
##ళాల
##త్తే
##ానొక
0/0
గాల
ఆస్ప
కారి
తంజా
నిధి
##మయింది
##స్టులు
కంచిక
కూటమి
రౌండ్
##మౌతుంది
జంతువు
వర్గీక
చక్రవర్
నాటకంలో
ఫిలింఫేర్
ప్రతిబింబి
వికారాబాద్
స్థానానికి
అందిస్తున్నాయి
##దీప
##పరా
##ల్చ
##-00)
##త్తె
bal
ఇబ్
##పించి
పతనం
పరాజ
##మెన్స్
##యుద్ధం
ఘర్షణ
వర్క్
##శివరావు
##సామాజిక
##ార్డ్స్
వెలసిన
వేమూరి
సీరీస్
హిట్లర్
హక్కులను
హైకోర్టు
ఏర్పడతాయి
గొల్లపూడి
భాగస్వామి
మహాసముద్ర
ప్రదర్శనలో
సెక్యూరిటీ
సామ్రాజ్యంలో
పారిశుధ్యపథకం
వార్షికోత్సవం
##ముక
##తుండ
##ముకు
##స్టీ
ఎయి
కాప
పుట
##ంగానే
##కోలేక
##చెన్న
##తండ్ర
##ాలిటీ
stat
అలహా
తుంగ
శిబి
##uthern
vijay
ఆర్టి
చేయగా
నదికి
హైపర్
academ
కార్తీక
చేయడంలో
కాలంలోనే
నిలిచారు
##చం
##igo
##ona
వూ
##దాకా
ఉభయ
కటక
మది
##వ్వుల
bhar
దొరక
మృతి
విలే
సాను
##బుల్స్
అంత్య
రాయలు
ఆత్రేయ
ఆస్థాన
కుతుబ్
క్రికె
జైపూర్
##ఫర్మేషన్
publish
పార్వతి
ముగిసిన
ఉన్నందున
కార్యాచరణ
వ్యక్తికి
తగ్గుతుంది
ద్రవ్యోల్బ
##థే
##కంఠ
##కాన
##తుక
##edia
##లిజె
రన్
హృద
##టబుల్
##హరించ
dist
పాడే
##్యూషన్
ఇంతకు
కొలువ
గుంపు
associ
ఖురాన్
పిల్లి
అంతకంటే
అమృతలూరు
చిత్రలేఖ
చురుకుగా
బ్రదర్స్
నిర్వర్తి
స్టేషనులు
నిర్వహించడం
##ఖో
##ika
గడ
##గులో
##జ్జు
##బ్బా
##బ్రూ
##లేము
##ట్లలో
##మర్రి
##యించు
గీతం
దివా
##ర్పూర్
యుక్త
విధ్వ
శ్రావ
అతడ్ని
అనుకరణ
తుమ్మల
తెలిపే
రకాలైన
హీరోగా
అబ్బాయి
పెట్టడం
##ించబడతాయి
##ణె
##తార
##మనం
##యాస్
ఒరి
గౌత
వలే
##ument
డిపో
మూడి
సుంద
while
సమయము
చక్కటి
దారిలో
ప్రాణా
మామూలు
##పించింది
##ంద్రాన్ని
గుర్తుగా
దేశాన్ని
రూపాన్ని
శతాబ్దాల
గ్రంథాలను
చెప్పాలంటే
చేసినప్పుడు
వదలబడుతోంది
ప్రవహిస్తుంది
##of
##ren
##గతం
##anta
##శబ్ద
fem
mur
old
ref
ఖడ్
జరప
##వెంకట
0:00
land
ఆభరణ
షిప్
అభివృ
అల్లి
అసంతృ
తగిలి
మిలన్
##వ్యాప్త
ఉంచారు
బెజవాడ
కావాలని
శాసనాలు
అందించడం
కాలాన్ని
తుళ్లూరు
పొందినది
ముఖ్యమంత్రిగా
నృ
##ival
##చంద్
##యాను
##లిపి
##anish
##యాలజీ
sans
కనీస
దుష్
మీనా
అభిరు
కళ్ళు
రద్దీ
వ్యయం
కార్ల్
ప్రావీ
మైళ్ళు
లక్షలు
సమీపమా
విజయవంత
గురువారం
మనస్తత్వ
ఆహారాన్ని
సదుపాయాలు
##ule
##టకై
##రణ్
##ాహం
ఇల
##ired
##జెర్
యూర
హయా
##ంశాలు
##మ్మని
body
orig
దాశర
పోతన
బాయ్
ముఖా
శాంత
##మార్గం
కాంగ్
తలుపు
నమస్క
చేయడంతో
##మైనప్పటికీ
పేరెన్నిక
ఆక్స్ఫర్డ్
జాగ్రత్తగా
తిరుప్పావై
పుస్తకాలను
వివరిస్తుంది
##cr
##ేరి
##ేలా
os
##ండిన
##కారణ
##ట్టో
##లీన్
గార
##క్రమం
##ద్కర్
##పురము
ఉచ్ఛ
దక్ష
నమోద
పాప్
బాటు
##విద్యు
తీర్ధ
దుర్గ
పరంపర
##స్టింగ్
అభివర్ణ
కాంగ్రే
విశేషంగా
రావడానికి
నడుస్తుంది
పరిస్థితుల్లో
##రమ
##duc
##ius
##org
##షలి
##రోస్
##ather
##ంత్రి
విసి
ఉంచిన
చేనేత
భీమవరం
రబ్బరు
అంతస్తు
చేయించు
సామగ్రి
కాల్సియం
నిర్వహణా
పాలించిన
institute
హనుమంతరావు
ప్రజాస్వామ్య
##పట
##gar
##కుశ
##ided
##uary
##కోటి
##డివి
##పిడీ
dom
సుమ
సౌల
##వెంట్
కుడా
పయని
వీసా
##ograph
##వుతాయి
కాయలు
వారణా
నిత్యం
సెంచరీ
పాత్రకు
చట్టబద్ధ
వేగవంతమైన
అట్లాంటిక్
హరిశ్చంద్ర
##sv
##ext
cm
##వరామ
ill
ఇరా
థాయ్
రుజు
హిమా
గాత్ర
బాల్య
000000
బాక్స్
సందేశం
సిద్ధి
##స్త్రీలు
కెనడియన్
దేవులపల్లి
శిక్షాస్మృతి
0*
##జ్జా
##బాన్
##మియో
##లేటి
##ష్యు
mac
కోస
పతన
##కన్నడ
##భారతం
##శంకర్
##సంగీత
విడా
##ఎస్ఎల్
##వెస్ట్
##సమయంలో
##ాలన్నీ
ఉపదేశ
విహార
muslim
united
కేబుల్
గ్రీక్
దేశంగా
బైబిల్
మెయిల్
రుక్మి
సేవలకు
చెందాయి
జాలగూడు
బృందాలు
అగ్రహారం
నాటకాలలో
డిస్ట్రిక్
లభిస్తున్న
గ్రామోత్సవం
##hr
##ze
##పము
పట
##akes
##pect
##జీవన
##ఫేస్
##బ్రమ
వ్వ
ltte
క్రు
రచనల
##కోలేదు
0.000
నియమం
పిట్ట
రూపాయ
భగవాన్
language
పీపుల్స్
సామర్ధ్య
ఆర్థికంగా
డాక్టరేట్
పాలించారు
రిజిస్ట్రేషను
సొసైటీగ్రామంలో
ప్రసిద్ధిచెందిన
##oot
##కరా
##నాకు
##మాసం
##హాల్
bab
ter
జవా
##జబెత్
exam
అఖిల
ఉపసం
డివి
నింప
వైస్
##వేశారు
##ించమని
##మయ్యారు
engine
unspec
ఉద్గార
గాలిలో
డిస్క్
అనుబంధం
స్థాయిని
చోటుచేసుకు
unspecified
ఉద్దేశించిన
ప్రెసిడెంట్
ఉత్తరప్రదేశ్
##ner
##ంజు
##యడం
##షత్
ca
##గ్లో
##ట్రం
##యుగం
##ైక్య
##angal
##ంటైన్
##టేషన్
అధీన
డ్యా
పెన్
ఫేస్
ఎమ్మె
ధర్మం
నింది
ప్రహ్
మైళ్ళ
లలితా
సెక్ర
దీక్షి
కాలుష్య
సేకరించ
ఇప్పటికే
కూరగాయలు
చికిత్సా
టెక్స్ట్
తిరుగుతూ
ప్రయాణీకుల
##asw
##ces
##eds
##rel
ep
mg
rf
##rist
##కోని
##హుతి
రసం
##కప్పు
##భాగవత
విచార
స్వప్
##whoever
##ించాడని
ఏర్పాట
వెంకయ్య
సల్ఫేట్
స్పెషల్
##చేస్తుంది
గాంచింది
నిరుద్యో
ప్రదేశము
ధరిస్తారు
మల్లికార్
ప్రతిస్పందన
##bh
##మవ
##una
##జాం
##దన్
##శోధ
ox
##జిత్
##తాబ్
ash
jan
కొస
జంగ
##రుసటి
##ాలయము
##ోద్యమ
గుంట
చండీ
##దీనిని
##రాలుగా
గురైన
జీవుల
##పదార్థం
జపనీస్
ధరించే
స్థాపి
##యునైటెడ్
ఉయ్యూరు
శ్రీరంగ
షాపింగ్
సామూహిక
కీర్తనలు
దరఖాస్తు
##కరిస్తుంది
ఉండటానికి
రాజ్యానికి
##ek
##క్యా
##గానీ
##పాలన
##వెంట
##సూచి
yog
శంఖ
mill
phys
subs
ఈవిడ
##action
major
కోటను
నగరము
సెలవు
##ానిక్స్
పురుషో
పెన్సి
ముదురు
వివాహమా
కలిగింది
తీసుకోవడం
దేవాలయంలో
పునరుద్ధరణ
##కర్ర
##డిక్
##నుగు
ఎమి
కళి
పటి
వాస
ఫుడ్
##ground
##ందువలన
##వ్యాధి
చతురస
సాగని
తిక్కన
మునుపు
హ్యారీ
##ించేవాడు
against
college
జరుగును
సర్పంచ్
##వారిపల్లె
southern
ఇప్పటికి
గణాంకాలు
పెనమలూరు
మండలాలతో
సంకీర్తన
వారపత్రిక
ప్రేక్షకుల
మంత్రిత్వశాఖ
స్థిరపడ్డారు
##bi
##go
##దనీ
మడ
##00.0
##ason
##itis
##ందుల
##హోర్
pap
##ంగులు
##చేయడం
తాలి
పరమా
మరలా
సుధా
##తులుగా
అణువు
ఆంజనే
ప్రమే
0-0000
దీవులు
పోల్చి
ప్యాకే
వసతులు
సూర్యా
చిన్నతన
ముత్యాల
ఉదాహరణగా
కంకిపాడు
చిహ్నాలు
ప్రిన్సి
బ్రిటిషు
ఉత్పత్తుల
న్యూజిలాండ్
చరిత్రకారులు
నిర్వహించింది
##si
##ఖర్
##ఫ్ల
##భక్
##సెం
##హాం
ka
ధి
సాయ
##awada
##ంలోనూ
##వేసిన
000%
బాగ్
బోధన
మతము
యోగా
జరిపి
మల్లె
లింక్
సంచార
కట్టడం
రచనలలో
స్పష్ట
##ప్రాంతీయ
నెలకొని
భాగస్వా
ముఖర్జీ
శ్రీనాథ
సమస్యను
amritsar
పేరొందిన
నాటకాన్ని
నిర్మించు
వ్యవహరించ
##ola
##జల్
##టుల
##డను
:;
నశ
##ంజలి
##ప్రొ
##రాతి
##లేవు
##స్యత
spe
vir
phot
ఇంకో
క్షయ
చిల్
ఫైర్
గర్భా
మొదలై
##ination
##ఇండియన్
పాటించ
యాత్రా
వహించి
మొత్తము
సమాధానం
ఇతివృత్త
ఉంగుటూరు
ఉపయోగపడే
పరిపూర్ణ
రిజర్వేషన్
సంబంధాన్ని
సృష్టించింది
##fe
##ved
##ఆల్
ib
##డాస్
##డూరు
##తురు
##నాలో
##స్పె
దివ
them
ఫీల్
బోస్
యుని
వీక్
సరసన
అసలైన
కల్గి
తీర్చ
ప్రధా
వైశాఖ
కార్డ్
నటించి
ఫిర్యా
మహాకవి
స్థావర
##ించకుండా
krishna
ఏదేమైనా
కేంబ్రి
ప్రయోగా
దేవస్థాన
స్క్రిప్
పార్లమెంటరీ
##అల
##ిని
##ూన్
##anti
##ause
##జీలు
##తుడై
##రామా
mot
ఋషి
మిష
##కాలతో
chem
ఒకటే
సియా
##చేశాడు
large
వీరేశ
వైదిక
##విధానము
ఆశ్రమం
ప్రాసె
సమాధాన
సుగ్రీ
అంతరించి
ప్రింటర్
##జిక్యూటివ్
##జ్ఞానాన్ని
different
ప్రారంభమై
సిండ్రోమ్
ఏర్పడ్డాయి
పర్యాటకులు
క్రిస్టియన్
ముగుస్తుంది
##థో
##ases
##esla
##డోర్
##ణుని
##నుకు
##రాణి
##స్కే
ఇంప
ఎట్
కంబో
గోపీ
గ్లూ
##ద్రవ్య
##బెట్టి
##స్టార్
అరుణా
కచేరీ
నవలను
##వేసింది
చెయ్యు
పింగళి
భావాలు
మరుసటి
రూపాలు
హాస్యన
##కరించాడు
తెరిచిన
ద్రాక్ష
పెరుగుద
విలువను
యుద్ధాలు
స్థితిని
మొదలగునవి
స్నేహితుడు
##wa
##తిప
##దశలో
##ప్రజ
sev
పగటి
వైఫల
##కొద్ది
మలుపు
మీటర్
నాటికలు
స్తోత్ర
పోరాటంలో
రాజ్యంలో
సేకరించిన
##,''
##అతి
##నాన
##భిన
{|
##గంచి
##ప్యా
##రెన్
lat
pos
గడు
మతా
##మిత్ర
four
trad
దుఃఖ
విసు
సాగే
##బెట్టు
##స్త్రీ
##ించేలా
ఆండ్ర
కలిపే
దాసరి
##కర్ణాటక
before
టాక్సీ
భూమిలో
స్వభావ
డైరెక్ట
ముంబాయి
ముక్కలు
రాజ్యసభ
గ్రామపంచ
టెక్సాస్
ఇండస్ట్రీ
నిర్మాతలు
విభాగానికి
సాహిత్యాన్ని
##ాక
యద
##పిండ
##పోవు
ఇవే
కుం
వేశ
##కొంది
##మల్లి
##లగడ్డ
కథలో
కోనే
ఫండ్
ఫిజి
రాగం
polit
నియామ
మల్టీ
మౌంట్
వారసు
సుగంధ
అన్వేష
ఒక్కటే
గులాబీ
నిలబడి
ఫాస్ట్
##ట్టానికి
ఉనికిలో
జగ్గయ్య
ప్యాలెస్
ఫ్లోరిడా
వరంగల్లు
విద్వాంసులు
మైక్రోసాఫ్ట్
##నఃపు
##నిజం
##వుకు
ధర్
##క్యుల
auth
చేశా
పూలు
##విద్యా
జట్లు
డాలర్
డెల్టా
దిగువన
ముంబయి
వెయ్యి
ప్రకాష్
రిపబ్లి
విధముగా
స్వాధీన
రోజువారీ
వ్యవస్థల
సేకరించి
సామర్ధ్యం
తల్లితండ్ర
అవతరించింది
ప్రధానమైనవి
అంతర్జాతీయంగా
##థం
##arp
##నవల
da
ఏం
లయ
వశ
##omic
##యాలో
''"
pen
పొడ
##ality
##టిఫిక
lead
చంపి
దిగి
ధరలు
మిడ్
సునా
సైడ్
##ేశ్వరీ
0.00%
ఆకారం
కల్పన
సారూప
##duction
##కొనుటకు
##చున్నవి
00.00,
చర్యలను
పరిమితి
శ్రీహరి
పరిగణించ
మొత్తంగా
సలహాదారు
ఇంగ్లీషులో
development
ఉపయోగిస్తుంది
కృష్ణశాస్త్రి
##ji
##ape
##ped
##జియం
##ికలు
సంజ
ఇనుప
ఫిష్
బీడు
##estern
means
తేడాతో
దోపిడీ
సూచనలు
వెనక్కి
సమూహాలు
చిహ్నంగా
##గంచిప్రోలు
ద్వీపకల్ప
కార్మికులు
తయారుచేసిన
ఉత్పత్తులను
పరిస్థితిని
నిర్వహించాడు
ముద్రాక్షరశాల
##cd
##son
##రారు
aug
పూత
ఫ్య
హోం
##iable
చేసె
నదుల
##ఆధారిత
అన్యా
ఏమిటి
గల్ఫ్
తమిళం
పుష్క
బీదర్
సమరయో
transl
అభిమాన
ధ్వంసం
ట్రస్టు
దశాబ్దాల
దీనివల్ల
కావడానికి
నిర్వహణలో
##సంతనూతలపాడు
ఇండోనేషియా
వివరించాడు
##రద
##రాధ
##పిన్
##యుడి
##ర్మో
##ష్ఠి
మదు
##ండ్రు
##అంతర్
##జెంట్
##దులను
##నాయక్
కణాల
కామె
కోణం
పీఠం
బాలి
##ఫాస్ట్
##మేంద్ర
##స్టిస్
ఉల్లి
లాంగ్
##ంప్రధాన
పుచ్చు
మృత్యు
మోటారు
సగటుతో
without
ఐరోపాలో
రెస్టార
ఆధారపడిన
మాధవపెద్ది
వస్తుంటారు
ప్రదేశాల్లో
పరిస్థితులను
రాష్ట్రస్థాయి
ఐక్యరాజ్యసమితి
స్విట్జర్లాండ్
విశ్వవిద్యాలయము
##నమ
##akh
##ికొ
##apse
##ense
అవే
కొర
గణి
దరి
##ఇక్కడ
##కెళ్ళ
##నికల్
##లలోనూ
libr
నైవే
##జెన్సీ
##శ్రీకా
వర్తక
అతడిని
న్యాయం
పద్మనా
పెక్కు
ఎన్నికై
కంట్రోల్
మాస్టర్స్
##డియ
##ధ్ర
##ష్క
##ayam
##ella
##ones
##కైనా
##జాలు
##డిస్
##మండ్
##వీటి
అబూ
##త్సవం
కిర్
##సాహెబ్
ఐసోటో
తక్షణ
రమేష్
##కిస్థాన్
చదివారు
వుంటారు
పుష్పాలు
ఫ్లోరైడ్
విశ్వామి
సినిమాను
స్థానాలు
హిందువుల
పిక్చర్స్
ప్రభావాలు
లభిస్తాయి
ప్రాంతములో
న్యాయస్థానం
కల్పిస్తుంది
##che
##thy
##పోత
##మత్
##ined
##గన్న
##నీల్
##పనిక
##లును
fre
ఎసి
నకి
##other
##ంగ్వే
##ంచేసి
##త్సాహ
అండా
చేరే
బద్ద
యేసు
##నిరోధక
##ప్రసాద
##రీస్లో
ఆగ్నే
మార్క
క్రిస్
ప్లేయర్
మిశ్రమం
క్రెడిట్
పొందవచ్చు
అప్లికేషన్
ప్రకటించిన
ప్రదేశాన్ని
##అక్షరాస్యులైన
గ్రామంప్రధాన
వెంకటేశ్వర్లు
##డల
##umm
##లాల
fi
##కోట్
##గూర్
##లాగ్
ఎంట
లిఖ
##iving
econ
pass
డెన్
పొలి
మనుమ
##ండెంట్
##ట్లేదు
would
ఇబ్న్
అరబిక్
కలిసిన
చిట్టి
ఫ్రంట్
సంపన్న
eastern
అత్యల్ప
దట్టమైన
ఉంచుతారు
కక్ష్యలో
తంజావూరు
పోషించిన
వినియోగించు
##లాట
ఎగ
##ంచాల
cat
det
అహి
ఆపి
ఉజ్
డైన
లోన
##itted
##ories
##పుస్త
word
బిర్
వాలి
సంగమ
సాన్
##uction
##పూర్తి
##భిషేకం
width
అచ్యు
ఈయనకు
గుప్త
ఒకానొక
గ్రేడ్
నూనెను
కాన్సర్
american
జిల్లాగా
స్టేడియం
పరిష్కారం
ఎలక్ట్రిక్
జ్ఞానస్నానం
ప్రత్యక్షంగా
ప్రవేశపెట్టిన
##eum
##గడం
cy
##కాశ్
##కెన్
##జూలై
##బిసి
##బెంగ
##ారంభ
due
hyd
nag
లీల
##ంటిని
ఆళ్వ
కూడు
పోవు
మనము
మానే
మాసం
వారా
##తక్కువ
books
cause
టైగర్
డబ్బి
తులసి
నంబర్
సైప్ర
(0000,
కుమారి
బయటికి
మక్కువ
సమైక్య
00,000.
constit
నిమిషాల
బోయింగ్
భారతిలో
ఎలిజబెత్
దక్కించు
సంభాషణలు
సూచించిన
సూత్రాలు
గ్రామంఇతర
భారతజాతీయ
స్వతంత్రం
##కుంటున్నారు
ఆర్గనైజేషన్
శ్రీకృష్ణుడు
##హూ
##ger
##జాక్
##ద్వీ
###
జరు
వరు
##obind
##సమీపఏ
line
చీఫ్
జోస్
యంగ్
stand
బుర్ర
మద్ది
మూసిన
శాఖలు
శాలలు
శిఖరం
సగటున
ఉండేలా
తయారైన
నిప్పు
నీళ్ళు
బుచ్చి
మైసూర్
వెదురు
సాయంతో
##పోర్ట్స్
ఉద్యోగు
కాంతిని
పోతుంది
మున్నగు
ఉత్సవాలలో
శివరాత్రి
స్థిరపడిన
కార్పొరేట్
కేంద్రాన్ని
చేస్తుంటారు
రికార్డింగ్
##స్తున్నప్పుడు
ఇనిస్టిట్యూట్
పెనుగంచిప్రోలు
##కపు
##గామ
##పశు
##మంద
##రపు
గృ
##iven
##ంపస్
##హుడు
##ించడ
anc
dvd
rep
శతక
ఆకుల
తీర్
బోధి
మాది
##చుకొని
later
అధిరో
చర్యల
చుక్క
జీవనం
నాటిక
బారిన
ప్రాక్
యోధుడు
విక్రమ
##డెల్ఫియా
శ్రీపాద
అవసరాలను
ప్రొద్దు
సిద్ధంగా
అదేవిధంగా
ప్రోగ్రాం
ఉష్ణోగ్రతలు
##aru
##gre
##తీత
##ants
##టికా
##మల్ల
##రమ్మ
##లేస్
bus
అయన
పాన
##సరికి
food
కొంక
పురం
శోధన
స్వయ
##ప్రకాశ
అత్యా
అవలంబ
గోత్ర
తృతీయ
ప్రవా
##ించారని
congen
అడవులు
చేసాయి
రాలేదు
అవకాశము
ఇంతవరకు
కథానాయి
కీలకమైన
పరిణామం
వార్తలు
నేతృత్వంలో
చూపిస్తుంది
##నాధ్
##ారుల
##మార్గ
##్యంగా
తాగు
మూవీ
##క్రమంగా
కోస్ట్
గేమ్స్
తత్త్వ
శిల్పం
మరోవైపు
ముట్టడి
హనుమాన్
అధ్యక్షు
జిల్లాను
బాధ్యతను
సంతృప్తి
వస్త్రాలు
##హెక్టార్లలో
కుమార్తెలు
స్థానికంగా
అప్పుడప్పుడు
డాక్యుమెంటరీ
##ఆమె
##టను
##ాంగ
ak
ga
##కాలే
##బడటం
cpi
##gress
##క్రమి
##మీటర్
##సూత్ర
##స్పతి
ద్రౌ
##త్తీస్
women
అశోక్
ఇంధనం
డివిజ
దత్తత
కొండపై
డాలర్ల
డ్రైవ్
తీవ్రత
నిండిన
పశువుల
భూమికి
మించిన
మైకేల్
సిఫార్
##బ్రాహ్మణ
venkata
ప్రయత్న
##పూర్వకంగా
##ాలున్నాయి
భూముల్లో
వేస్తారు
వైవిధ్యం
ప్రముఖంగా
గుర్తించడం
పాక్షికంగా
మార్కెట్లో
ప్రవేశించింది
##దప
##ష్ప
##ling
##కేశవ
##పర్య
గాన
##సెంట్
00%,
bhag
prot
క్లు
హామీ
హిప్
##పించిన
##శిక్షణ
ఇరువు
తపాలా
##అద్దంకి
believ
ఇష్టపడ
ఉన్నవి
స్పర్శ
గ్రంథము
నందమూరి
రాకుండా
ఇంద్రుడు
చేయబడతాయి
చేరుతుంది
డయాక్సైడ్
వర్గానికి
చెందుతుంది
వాడుతున్నారు
##.-
##చౌ
##agh
##uit
##నార
##ినో
##ంతలు
##ప్టి
##స్టె
##హిణి
ఘటన
పలి
సభా
##దవోలు
##బడును
##భూషణ్
ఇంచు
ఇప్ప
ఎంజై
జావా
బారి
రుగ్
విరు
శతావ
##దర్శనం
కుందే
గడుపు
తోటలు
నవ్వు
భాగాల
పాడారు
ఫాక్స్
వెలికి
తీసుకోవ
ప్రతీతి
వేసింది
సముద్రాల
పనిచేసాడు
వ్యవస్థకు
పోషించింది
రూపుదిద్దు
నిర్ణయించారు
##చై
##ళయ
##యనే
##దారీ
##పాణి
##రిష్
nov
టూర్
తోటి
పొంగ
సాధి
short
జబ్బు
డిస్క
దగ్గు
ద్రవం
##దర్శిని
##స్త్రీల
ఆర్డర్
కొన్నా
స్వాతి
కిరణాలు
సినిమాల
గురువులు
రహదారులు
వెంకటరమణ
ఇబ్బందులు
congenital
చిత్రకారుడు
ప్రభుత్వంలో
ప్రవేశించిన
పిలువబడుతుంది
##యై
##uch
emp
mas
అపు
ఆపై
పట్
పతి
calc
conv
అంబే
ఆస్క
గుణం
బిన్
వంశం
సజీవ
##రితంగా
##లోనికి
often
కన్నె
చిల్ల
పెంచి
వ్రాత
కోట్లు
పెరగడం
రాక్షస
రాళ్ళు
తెలిపాడు
రహదారితో
వృత్తిని
ప్రయత్నంలో
విమర్శకుడు
ప్రభుత్వాన్ని
##np
##కన
##ఛ్
##col
##res
##కోన
##icle
##ముస్
##సమ్మ
age
soc
జంధ
##కాలపు
##చ్చని
##య్యర్
##య్యాక
##రాలైన
##ిల్లా
పూరీ
రాయబ
##స్థానీ
కూర్చ
సమక్ష
##్రాన్ని
అక్షరం
ధ్యానం
british
ఆయుధాలు
కాంక్రీ
దగ్గరకు
ఉపాధ్యాయ
పరిశ్రమల
ప్రకటించ
చట్టపరమైన
పనిచేస్తూ
విపరీతమైన
ప్రదేశాలకు
ప్రేక్షకులు
సంప్రదాయాలు
0-000-00000-0
##oo
##ili
##araj
##ians
##ఉన్న
##పంచు
##ప్యూ
##ల్చి
##ినేత
కట్
మరె
##క్రమణ
##ధులకు
##పట్టి
##వుంది
bomb
జరుగ
డబ్ల
డాల్
రేడి
##సిద్ధి
తిరువ
పనిము
సంఘము
సెంటీ
london
అయిననూ
జాతీయో
వారీగా
వివక్ష
నిర్మూలన
ఎలక్ట్రాన్
ఏకగ్రీవంగా
కేంద్రానికి
నిర్వహించినారు
##va
##cle
##olk
##మయం
##వాన
##గును
##చరల్
##ద్వే
##ఫాల్
##ఫ్రె
##మ్యూ
*0.
cbs
కంఠ
##ద్వాజ
##ప్రాచ
ఇంక్
చాలు
డెమో
తినే
దుంప
లైవ్
##రూపంలో
every
వదిలే
వ్యూహా
##యుక్తంగా
perform
వెలువడే
ప్రభావము
tradition
పుట్టింది
ఒలింపిక్స్
ప్రపంచానికి
##bit
##uck
##కువ
##జైన
##రోగ
mm
##దేవర
##మాంస
##సోర్
ott
అకౌ
నను
##ారిస్
కవర్
కృతి
##ording
##కరించే
ఇతిహా
కొవ్వ
పడమటి
##లాజికల్
philos
నోకియా
వాయవ్య
because
వత్తిడి
ఎలక్ట్రో
ప్రాంతపు
సెక్షన్లు
పెరుగుతాయి
మాదిరిగానే
##?"
##వణ
##bar
రణ
##దరన్
##ఫ్యూ
mic
బావ
మాఘ
##కాంతి
##కాంత్
##శాశ్వ
జెట్
దిల్
లాభం
##తిపదిక
austr
గజపతి
నెరవే
పీడనం
రాయితీ
##కాలానికి
academy
అవసరాలు
##ప్రాంతంలో
కనిపెట్ట
కృష్ణదేవ
వైఎస్ఆర్
ముగిసింది
ఉపగ్రహాన్ని
తగ్గించడానికి
##row
##ంగీ
##ంతక
##గాం
-0
id
వొ
##అనంత
##దేవు
##ద్ధా
##పీఠం
##పుట్
అసమ
శిర
##సంపాద
##ించదు
జంగ్
తవ్వ
తీసే
##గ్రహణం
##తర్వాత
##వెల్త్
వడ్డి
వాడటం
వితరణ
##మెంట్స్
around
నాగయ్య
##ological
మాత్రము
సన్యాసి
కందుకూరి
తొలిసారి
రహస్యంగా
అమెరికాకు
కోల్పోయిన
విపరీతంగా
పూజావిధానము
##లాడ
ke
##ogle
##థాన్
##నమ్మ
##బాలు
##స్మా
మనవ
యము
##ప్టర్
radi
బంధం
ముసు
శరత్
##నిర్జన
##భాగాలు
అంతటి
అన్నం
ముచ్చ
సౌండ్
##పరిచారు
కలుగజే
తైవాన్
పిచ్చి
పెద్దా
మనుషుల
గవర్నరు
సీరియల్
పువ్వులు
శ్రీశైలం
హుస్సేన్
తత్వవేత్త
విజయవాడలో
సాధారణముగా
సైన్యాన్ని
కొనసాగుతుంది
##abl
##ids
##ora
##రంజ
##సంద
##దన్న
##పడటం
##యాని
లిన
##నపుడు
##మడుగు
port
కవరే
దసరా
month
తలసరి
ధైర్య
రక్షి
##గలిగారు
modern
గాంచిన
దీనిపై
పౌనఃపు
మాన్యు
##--------
##తుంటుంది
##స్తుండగా
ఆక్సీకరణ
బలవంతంగా
దూరదర్శన్
కలిగివుంది
క్రికెట్లో
దర్శకుడిగా
ఇన్ఫర్మేషన్
ప్రచురణకర్త
గుర్తిస్తారు
ప్రచురించింది
##hib
##ేని
ఐఐ
##pres
##నిస్
##వాసన
eur
టీం
##త్తడి
##ినేని
expl
rang
కులం
మైదా
లేరు
సాధు
##కాల్లో
##బోర్న్
##లైన్స్
##విధమైన
##నాయకులు
ఆంగ్లో
గోపాల్
పక్షుల
పరోక్ష
పునాది
భారీగా
వాహనాల
వివాదం
అనువుగా
అర్జున్
తేలికగా
మానవుడు
పాఠశాలకు
సర్టిఫిక
స్నేహితు
క్రీడాకారు
తీసుకోవాలి
##mb
##శూ
%
##yal
##yam
##బహు
ఆఖ
##ఖేల్
##టైల్
##నియో
##లోకం
kum
tir
కోన
##thing
##రేటర్
అపార
చూచి
సెర్
##గోపాల్
##దారుడు
0000-
tesla
ఎప్పు
బుట్ట
భాషకు
సంతతి
సాంగ్
హరికథ
##పించాడు
ఏర్పరి
చూసుకు
టెట్రా
రాజవంశ
స్విస్
##ంబుల్డన్
0000–00
country
పండుగలు
పురాణము
స్పీకర్
దీర్ఘకాల
ప్రాణాలు
information
ప్రదర్శించే
సృష్టించాడు
##శత
##inu
##nal
##ude
##చతు
##atha
##osis
##ందనీ
##ట్టూ
ఉపన
కలహ
రమా
##క్షలు
##ెర్స్
open
కూలీ
పండగ
పూడి
బళ్ళ
మామూ
శాఖా
హోమ్
##చార్యు
white
అజ్ఞా
ధర్మా
విస్మ
ఎడిటర్
చేసినా
##పద్మశ్రీ
నుండును
స్థలంలో
అమ్మవారు
నిర్వచనం
ఉపాధ్యక్ష
మరణానంతరం
సమాంతరంగా
హనుమంతుడు
ఇప్పటివరకు
చేసుకోవచ్చు
##au
##ంగల
##టైం
##దరీ
ip
##ంకర్
##క్వా
##akkam
##aving
##ంచబడి
##ఆంగ్ల
##ధులతో
##వైపున
rama
కాంత
వాపు
##obindo
##మార్లు
##ములోనే
##స్తానీ
##ానికల్
krish
mater
పడమరన
విజ్ఞ
##సంబంధిత
పంజాబు
పనులను
మహానగర
శివరామ
సాహిబ్
ఉత్పన్న
సర్క్యూ
##స్తుంటాడు
ఉన్నవారు
కళాకారుల
నిపుణుడు
నిలిచాడు
పరీక్షలో
స్వామిని
ప్రవహించే
అవకాశాన్ని
తెలుస్తున్నది
సత
##చేసు
##టౌన్
##నైట్
hol
దార
##ంగారు
##ందన్న
##దుర్గ
##శేఖర్
000-
here
దర్ప
పనుల
మరణి
##గొట్టి
##జివీడు
##మ్ములు
ఎక్కు
ఇంటెల్
ఒకరోజు
క్యూబా
గమనార్
ఆసియాలో
ద్వీపంలో
పట్టించు
భవిష్యత్
విధాలుగా
బాధ్యతలను
technology
అమ్మవారిని
పునర్నిర్మ
లక్ష్యాన్ని
విస్తరించిన
చరిత్రకారుడు
భవిష్యత్తులో
సామ్రాజ్యాన్ని
బాలసుబ్రహ్మణ్యం
##ats
##ణుల
హజ
##చ్ఛా
##డిపి
fac
గడప
చలం
##ister
##అయితే
##ప్రయా
##మినల్
##వింద్
##స్త్య
అంటి
సూరి
##చంద్రా
##ద్వారం
గట్టు
గ్రహం
తొందర
నెదర్
వేయని
గ్లూకో
చందమామ
దృక్పథ
##త్వంలోని
##ేశ్వరుని
నెలకొల్
పైకప్పు
స్టడీస్
వాణిజ్యం
వివరించే
హెచ్చరిక
చెబుతుంది
సంక్లిష్ట
vijayawada
ఫిలడెల్ఫియా
కార్యక్రమాలకు
##మట
##.),
##ఆది
తట
##చ్యు
##ారాం
##ెంలో
men
tur
conf
సత్త
##విధానం
అద్వై
ఆఫీస్
యాంటి
అరెస్టు
ఒకేసారి
దక్షిణం
రావడంతో
వెన్నెల
అక్కడికి
కాలేజీలో
గోల్కొండ
పత్రికను
వేగాన్ని
aurobindo
మద్రాసులో
ఇవ్వడానికి
విశిష్టమైన
కార్యకలాపాలను
##త్థ
##సీత
##గామి
##థ్యం
##పయోగ
##ప్రథ
##మంగళ
##ముది
##సిటి
జని
##ental
##న్నెల
త్రై
పేజ్
మాక్
అనేకం
మెటల్
##ోపాధ్యా
ఇంటిలో
కనిష్ఠ
గోపురం
మహాత్మ
మిడిల్
వినియో
వ్యర్ధ
general
అక్షరాల
కాంట్రా
గెలిచిన
తెచ్చిన
పనిచేయు
సిల్వర్
కంచికచర్ల
పవిత్రమైన
ప్రముఖమైన
రావట్లేదు
ఉత్పత్తిని
ఉత్పత్తిలో
పండిస్తారు
జాతీయస్థాయి
పరిమాణాన్ని
బాస్కెట్బాల్
ఆస్ట్రేలియాలో
##)"
ا
##డాల
jo
##iana
##ంత్య
nav
ధనం
సరే
##ద్దరు
##నాంగ్
##బడేది
##ారియో
##ెల్లా
each
తమను
రాదు
##ఇందులో
##బడతారు
##మిల్లి
-0000
earth
స్వర్
consid
ఏర్పరచ
జార్జి
నిజంగా
భాగమైన
తమిళంలో
పెంపుడు
పేటెంట్
రామాలయం
వాయువ్య
సంభావ్య
తీసుకురా
మార్క్సి
కలిగిఉంది
చేరుకున్న
సంపాదకులు
స్వచ్ఛమైన
చంద్రశేఖర్
కార్యకలాపాల
శ్రీకాళహస్తి
ఉపయోగించేవారు
తయారుచేస్తారు
ఉపయోగించడానికి
##fs
##రౌ
##bed
##idu
##నౌక
##ales
##over
##క్కీ
##చేతి
##ానము
##ోద్ధ
lim
vid
##జర్స్
##మట్టి
##రాలను
html
తోడే
పోప్
కొప్ప
గుడ్డ
తయారి
పెంచే
పోవడం
రత్నా
సర్దు
సామ్య
అందుచే
నెంబర్
నేటికీ
రోడ్దు
శిష్యు
##ప్రభుత్వ
అందుచేత
జస్టిస్
సాక్ష్య
ఉన్నట్టు
మరణానికి
అనుకూలమైన
శరీరాన్ని
మురుగునీటి
##ప్రత్యామ్నాయ
గ్రాడ్యుయేట్
##బృ
##ంతీ
##భట్ల
##సిలో
hal
కమల
యేట
##ained
poss
నిరం
మాగ్
మెరి
షేర్
##గేంద్ర
##నాలుగు
##మీదుగా
నాన్న
శాఖలో
సెకన్
నొక్కి
శ్రావణ
ఇంటర్మీ
ఎంతగానో
ఐదుగురు
ఒంటరిగా
రిజర్వా
##రిస్తున్న
అనుకున్న
పాలుపంచు
బుద్ధుని
అమ్మోనియా
కొత్తపల్లి
ప్రచురించే
వైవిధ్యమైన
సంస్కృతిలో
స్కాట్లాండ్
##జగ
##ony
సఫ
హత
##గానం
##గింజ
##రికే
##లేట్
##లోచన
pad
pan
వశి
gand
గామా
చందా
పాలక
మైలు
రాగా
##వంతులు
000-0
గుహలు
బంగార
సోమయా
కానివి
గద్వాల
పిమ్మట
బహుముఖ
భీముడు
మెయిన్
వంటిది
విధులు
సంప్రద
హిల్స్
ప్రకటనల
ఫ్యాషన్
##ification
property
క్రమబద్ధ
సంస్కృతా
published
చూడటానికి
నమ్ముతారు
సంబంధాలను
సార్వత్రిక
కమ్యూనికేషన్
##tha
##చని
##పంట
##భజన
ఖి
గం
శర
శౌ
##ఫిన్
##ముల్
##మ్మూ
##రాస్
##స్వీ
sex
##కవితా
##ద్దేశ
##నాథన్
##సహకార
అన్వ
ఆటను
కొని
తాడు
దురా
పురి
పెయి
బెక్
##వహారిక
liber
sever
చిరుత
రకంగా
వెయ్య
హింసా
though
ఆదిత్య
పాఠకుల
బట్టలు
రోగులు
జంధ్యాల
స్థలాలు
స్వదేశీ
చేయుదురు
ప్రోటీన్
విభజించారు
సముద్రమట్టానికి
##వాణ
##:000
##ergy
##lect
బాట
మాత
శకం
coll
curr
కేప్
మూడే
##వెల్లి
##ించండి
contr
ఆనంది
ఎదుగు
ఆసియన్
కలిపిన
ముక్తి
వృక్షం
##ప్రత్యేక
గాయత్రి
సదుపాయం
ఆత్మకూరు
గమనార్హం
నిబంధనలు
పరివర్తన
##అక్షరాస్యత
ప్రోత్సహి
విగ్రహాలను
వెలుగులోకి
సాంప్రదాయం
జరుగుతున్నాయి
##acy
##ohn
##భామ
##వత్
జడ
##జాతీ
##డ్మి
##ఫ్టు
##సేపు
gdp
కలవ
కలా
లార
##కులైన
స్పై
##యాత్మక
##ాలలోనూ
ఆలస్య
క్రూర
తిలక్
పుత్ర
##ధార్మిక
అభిషేక
మ్యాన్
అన్వేషణ
అవినీతి
ఆహారంగా
చేయదగ్గ
కళాకారిణి
వహించింది
నరసరావుపేట
ఆంజనేయస్వామి
##wh
##ధే
##asi
##పిత
##మరా
##లనే
##వృత
##శిల
##బిలి
##వేరి
##ారనే
hiv
గడ్
పోత
##ంపైర్
##గుట్ట
just
rece
కొడవ
క్షీ
ఘాట్
జియో
లియో
వందే
అడిగా
క్షార
గుండు
జరిపే
దిబ్బ
భాగ్య
మర్యా
విసర్
స్వభా
##ించెదరు
museum
అభ్యాస
కొలువు
మెరుపు
పూర్వము
నిర్మూలి
ప్రశ్నలు
రంగాల్లో
విజయవంతం
సరిదిద్ద
సైన్యంలో
ఉపగ్రహాలు
దుస్తులను
ముఖ్యముగా
ఎక్కువమంది
ప్రయాణించే
ప్రొఫెషనల్
పేర్కొంటారు
అవసరమవుతుంది
సిద్ధాంతాన్ని
##cy
##ots
##wik
##దళం
##ేరు
##అమ్మ
##జాద్
lev
mun
ver
అవా
వీణ
##00000
##పరిచే
fall
oper
కిరీ
క్లై
జాయి
జింక
నానా
సాగర
##రీత్యా
##ల్లోనూ
trust
చిలకల
తణుకు
విజయ్
గొలుసు
మారాయి
షేక్స్
సిక్ఖు
ఉంటాయని
జరుగుతూ
తప్పుడు
ప్రతాప్
ఉద్యోగుల
కాల్పనిక
అన్నపూర్ణ
జనతాపార్టీ
##ంగళ
##పీడ
##యంబ
nh
##కిలో
##దుంప
ang
అణి
దాఖ
వాట
సరు
##iness
*00.
నాణే
యూదు
రేవు
##జేశారు
##ించడమే
ఆరాధన
నేత్ర
విలాస
##బడినాయి
##లతోపాటు
##విజయవాడ
author
అవసరము
ఆత్మకథ
నాటకాల
పండిట్
స్టోన్
తయారీకి
మిలిటరీ
వేడుకలు
భిన్నమైన
స్థిరపడి
శంకుస్థాపన
కొనసాగించారు
##nu
##ఠి
##eri
##ted
##thi
##krit
##అధిక
##బట్ట
##బ్లా
##మేట్
##వతార
pub
అసం
మలే
##గల్లు
##పర్రు
పోసి
మాను
##మీటర్ల
##వైపులా
start
woman
కదిలి
కావలి
పొన్న
మండపం
లాండ్
కాళ్ళు
నాయకుల
పేరుకు
లాహోర్
ప్రధానా
శ్రామిక
హిందీలో
చేర్చారు
హాలీవుడ్
ఆస్ట్రియా
నిర్ణయించ
వెళుతుంది
అసిస్టెంట్
కృష్ణారావు
ప్రాతిపదిక
అధికసంఖ్యలో
కనుగొన్నాడు
గుర్తించవచ్చు
##హౌ
##ాం
##ముష
##ipur
##నల్ల
##సివ్
##్రామ
రచి
##లేషన్
##సరస్వ
budd
mult
then
కంకర
బాహు
విమో
శారద
సిన్
##క్షేపణ
##ణానికి
##మాత్రం
build
court
ఓల్డ్
నిలయం
బాంబే
మరణాల
శూన్య
సెన్స
మందిని
##ళ్ళపల్లి
జీవించి
పాలకులు
విధానాల
శనగపాడు
తాలూకాలు
బుద్ధుడు
ఉయ్యూరుతో
రామమూర్తి
సంపాదించి
సర్వీసెస్
కంకిపాడుతో
బాధపడుతున్న
సంవత్సరములు
##ఎల
##esc
##టిన
##డిప
##తెర
##షణం
##సమూ
fm
త్
##istr
##గెట్
cop
tam
ఆము
అంకు
కపిల
కువై
ఖైదీ
పతాక
##వాళ్లు
laksh
ఆవశ్య
తీసిక
పోలిన
##ట్రోజన్
##వ్యక్తి
అమలులో
తేడాలు
నల్లని
పరాజయం
అలంకరించ
బయలుదేరి
ముస్లింల
వియత్నాం
##విస్తీర్ణం
##సెప్టెంబర్
స్థలాన్ని
నిర్మించింది
సూచించడానికి
జిల్లాకేంద్రంగా
##ih
##పాళ
##ఫైన
##left
దాట
భువ
వగై
శ్మ
york
పిదప
బాపు
సేన్
##ట్రాయి
జమీంద
టీచర్
రింగ్
సోషలి
##ామూర్తి
import
punish
theory
అయినది
ఏకాదశి
కొల్లా
ఖరీదైన
నైరుతి
ప్రాణం
ఫోర్డ్
వ్రాసారు
స్థితికి
ఇంచుమించు
పరికరాలను
విద్యార్ధ
వింబుల్డన్
ఒప్పందాన్ని
ఆఫ్ఘనిస్తాన్
నిర్మించబడ్డాయి
##+0
स
##het
##అప్
##తల్
##స్ఫ
##alle
##డ్యూ
hel
ఆకృ
బ్ల
##తుందో
##దానంద
##ిస్తూ
##్రావు
000)
anim
కర్ణ
చూపే
భరణి
##ంపల్లె
##సుందరి
తిన్న
పంపిన
మాంసా
మెల్ల
##పట్నంలో
##పతిరావు
##పురుషుల
##స్తామని
##స్తారని
countr
చెరుకు
జీవితా
ట్యాగ్
రామన్న
సాక్షా
గాంధీజీ
రచనల్లో
ఆస్పత్రి
గార్డెన్
ద్వారానే
పోగొట్టు
మిత్రులు
according
ప్రదర్శనకు
అలెగ్జాండర్
జీవితచరిత్ర
తెలుపుతుంది
విస్తీర్ణంలో
నియోజకవర్గాలు
దుకాణంగ్రామంలో
##रा
##ేతర
##ంకుల
##బెన్
##శాయి
##్రీయ
aff
జనం
హామ
##తుంటే
##రేటరీ
##ూర్టో
play
post
దినం
బచ్చ
##నాధుని
##మోనియా
refer
ఆవిర్
కలిసే
ప్రబల
మద్యం
వికాస
స్వరూ
పొందడం
ప్లాట్
మానవతా
##కిస్తాన్
కళాత్మక
అట్లాంటా
ఉష్ణమండల
చేయవలసిన
పరిశోధనల
ఉద్యోగాలు
ఏర్పాట్లు
మూత్రపిండ
సంప్రదాయక
ఆసుపత్రిలో
గుర్తింపును
స్వతంత్రంగా
ప్రదర్శించిన
మల్లికార్జున
##ole
##|''
##నెల
##astr
##జారు
##జుడు
##భ్యస
##మిడ్
abs
xml
కమా
చాప
జన్
భజన
##ద్వార
##భాషలో
prof
తారక
దశకం
దాసు
నినా
మోల్
మోహన
షాట్
స్కే
##న్యాసం
ఇదిలా
చెందే
పట్టే
మిశ్ర
##olution
##సిందిగా
effect
social
జుట్టు
బాపట్ల
వేంకటా
##కారాన్ని
##ప్లెక్స్
జ్యోతిష
విజయాలు
సంఘర్షణ
చింతామణి
ప్రాచుర్
ప్రాప్తి
ప్రతిపక్ష
సిస్టమ్స్
తీర్చిదిద్ద
చిత్రీకరించారు
##ke
##sw
##మ్య
pc
ww
##కిష్
##ణంగా
##పద్ధ
##మహిళ
##రితం
##సీస్
##ించక
own
కలం
జాత
దోమ
రూం
వేప
సమో
##స్వయం
gram
town
కంచి
తీపి
లోడ్
##......
##కుర్తి
ఓజోన్
కళింగ
కుమ్మ
పొడిగ
విందు
##unction
##నేందుకు
తెలివి
##తమిళనాడు
##సాహిత్యం
however
section
కొరియన్
చెందారు
పునర్వి
షూటింగ్
చెల్లెలు
##హెక్టార్లు
తీసుకుంటే
ప్రమాదంలో
పెంచుతుంది
ప్రయోజనాలు
సిద్ధాంతాలు
అధ్యక్షునిగా
సంస్కృతాంధ్ర
హైడ్రాక్సైడ్
రిజిస్ట్రేషన్
##aa
##-0)
##nai
##ంతట
#0
##ised
far
కేల
తండ
నిమ
వరా
##ందాడు
##జానకి
నూరు
##చ్చాయి
##శాశ్వత
##స్ట్స్
manag
ఈనాటి
ఖచ్చి
నడిపే
##ప్రత్తి
యుగంలో
రంధ్రం
##ప్రస్తుత
నిలిచిన
బుధవారం
00,00,000
including
కృష్ణానది
బహిరంగంగా
నడుస్తున్న
విభాగాలుగా
కార్పోరేషన్
కేంబ్రిడ్జ్
రెండుసార్లు
##ban
##ంబ్
##అది
ఊర
##జులా
pri
కాట
##కములు
##పాక్ష
down
కామి
గోర్
జీన్
ముఖం
హైపో
##వచ్చిన
భంగిమ
రియల్
వదులు
##దారులను
vienna
అయోధ్య
నిషేధం
బ్యూరో
రచనలను
ottoman
తొలగింపు
సిఫార్సు
##మొక్కజొన్న
##స్తుంటుంది
countries
పోర్చుగీసు
మినహాయింపు
వెలువడింది
సమీపములోని
ఉపాధ్యాయులు
పుణ్యక్షేత్ర
వ్యాపారవేత్త
##apu
##ంచన
##ంబే
##ఆఫ్
##గణిత
##వాలి
##ెరపీ
dam
ఫతే
సైన
##acter
##క్టరు
##చెప్ప
##ోన్నత
కీటక
చారు
మాకు
వక్త
శ్రో
##తమైనది
##పూర్వక
జ్వరం
మరమ్మ
వేయడం
bombay
establ
గ్లోబ్
పెంచడం
వెంబడి
సమీపటి
బోస్టన్
##తిరుపతిలో
చేయకుండా
##-00000-000
##ోత్సవాన్ని
ఆర్మేనియా
కుమారుడైన
తీసుకుంది
రికార్డ్స్
తీసుకుంటారు
అధ్యక్షులుగా
##రథ
##omy
##మము
##వము
0&
##టుగా
##మన్న
##రోజూ
sug
విద
##ండేది
##లన్నీ
##ునికి
ఓడరే
కామా
జులై
పోలో
రియా
##కారంగా
##వాదిగా
కన్నీ
రైతుల
వ్యూహ
సమీపఅ
హైదర్
##చుకున్న
కార్లు
వాయిస్
అణువులు
గాయత్రీ
గ్రంథాల
పారదర్శ
మార్షల్
సంపన్ను
##తులయ్యారు
కట్టుబడి
డబ్బింగ్
పురాణాలు
మరణశిక్ష
వాస్తవిక
##తున్నప్పుడు
దీర్ఘకాలిక
ప్రెసిడెన్
ప్రోటోకాల్
మొదలవుతుంది
గుర్తించడానికి
##అన
##ంసి
##ఆన్
డూ
##fera
##గ్వా
##త్స్
##నులో
##బాక్
unt
ఉల్
భోగ
మేర
##ానగర్
##ిల్లు
park
అరుణ
ఎవ్వ
ఐరన్
కారం
కెన్
గేజ్
దీపం
పరిస
స్పూ
##స్తూరి
##ించేది
point
కలుషి
గదిలో
పరమైన
మెంట్
సంజీవ
forest
చేసుకొ
దివ్యా
మురికి
సురేష్
##కుమారుడు
పరిరక్ష
లేకపోతే
సంతతికి
ఉద్యానవన
భావించిన
సులువుగా
చేసినట్లు
తెలుగువారి
సాంప్రదాయక
వీరుళ్లపాడు
అందించడానికి
##ena
##వంద
##సహా
ఖే
##ండుట
##పానం
##బీర్
##సాయన
##స్బే
bur
mit
పదో
##డియట్
##ప్రగడ
##శాలలు
##ామ్నా
side
ఆర్జ
ఎవరో
కాపు
కొరత
గోదా
తిని
నారి
బాబ్
భారం
##నిక్స్
##బోర్డు
##శ్రమము
##ానియన్
early
since
కానుక
డబుల్
హద్దు
##arayana
##బడుతాయి
బొడ్డు
మరియొక
సామాన్
present
several
ఆలోచనలు
ఉనికిని
జాన్సన్
రాజవంశం
లక్షణాల
సమయాలలో
అమ్మకాలు
గ్రహించి
మామూలుగా
వంశానికి
విజ్ఞానం
వివరాలను
education
ఆపరేటింగ్
క్రిమినల్
అందిస్తారు
పెంచడానికి
సూచిస్తాయి
##................
##చట
##’,
##tal
##కిల
##ామో
##arao
##less
##olar
##చెర్
##ఫ్రీ
##మెర్
##మోల్
##సంపు
కడి
కైవ
హంస
##రకంగా
##స్కర్
##్రాజు
గమ్య
నాజీ
పాన్
బిగ్
రాసే
సభకు
హరిత
##డెన్స్
##నాపూర్
##స్రావం
అవధాన
చిదంబ
రాయడం
సవాలు
##పోకుండా
అంశంగా
అధిరోహ
ఏర్పడు
గారికి
దాశరథి
వేరుగా
##దయస్కాంత
disease
ఆమ్లాలు
చేయలేదు
మొక్కలను
అద్భుతంగా
చేపట్టాడు
విదేశాలలో
అమెరికన్లు
పరిపాలించిన
చేస్తున్నాయి
##జిని
##వీన్
doc
lab
అనూ
##బ్బర్
##వాళ్ళ
అమాయ
ఇంటె
పోషక
##కీర్తి
##ప్పయ్య
##ేశ్వరు
##్రియన్
night
పుష్య
లివర్
వస్తూ
##igofera
##విజ్ఞాన
పండించ
పొడుగు
ముద్రి
వైపులా
అథారిటీ
ఈజిప్టు
ఖర్చుతో
డివిషన్
తప్పుగా
మతాన్ని
##ించబడినది
కలెక్టర్
న్యూక్లి
కేంద్రమైన
విత్తనాలు
00-00-0000
ప్రోగ్రామి
##do
##hu
##yn
##ఛే
ఫం
##ఉష్ణ
##డెర్
sit
మకు
మిల
షర్
##ెన్సీ
ఆవాస
టైప్
తెరవ
రహిత
వ్రే
దోహదం
వుంది
శుక్ల
##ాల్లోనూ
ఫ్రాన్
మైఖేల్
వాళ్లు
సంపాదక
##కునేవారు
ఆంధ్రుల
ఎస్టేట్
బళ్ళారి
హ్యాండ్
ఇంటిపేరు
చెరువులో
జార్ఖండ్
నియమాలను
పాండవులు
మహోత్సవం
మార్క్స్
ఆర్కిటెక్
ప్రకటించు
మార్పులను
సాగుతుంది
పరిశోధకుడు
మురుగునీరు
స్పోర్ట్స్
గెలుపొందారు
ప్రమాదకరమైన
లక్ష్మణరావు
పర్యవేక్షణలో
వ్యవహరించాడు
##lo
##ందట
##డ్య
##బిన
##యరీ
##వలే
##శాన
##పెర్
##లానా
##ళికా
##వాకీ
pot
ఉరు
దాత
పీట
విక
##డర్స్
##ానికై
అపరి
కుసు
పోషణ
వుడ్
##ఎక్కువ
##జేంద్ర
ఈమెను
తనిఖీ
empire
అల్లరి
ఎనర్జీ
బాలికల
లాభాలు
వాసులు
వ్యాప్
సరియైన
##ముఖ్యంగా
అద్దంకి
చిన్నది
కొంతవరకు
సంస్కరణలు
త్రిపురనేని
సాంబశివరావు
ప్రత్యామ్నాయంగా
##pu
##nat
##సభా
షర
##ifol
##చిన్
##జన్య
##ల్ట్
mer
అతీ
కంబ
తేవ
వధు
వెద
##కారము
##చింగ్
appl
ఆటలు
ట్రీ
తెలప
దామో
నానో
మహామ
using
కాలపు
కిరణ్
కోటలో
తటస్థ
పేదరి
లభ్యం
విలసి
వెలిగ
వైజ్ఞ
కంటికి
మనుష్య
##truction
$00,000
బ్రౌజర్
మద్రాస్
లోపలికి
వాడెదరు
##పోవడానికి
official
కుటుంబము
పూర్తయిన
ఫెడరేషన్
విషయాలలో
సంక్షోభం
వ్యావహారిక
సంతగ్రామంలో
చాంపియన్షిప్
##షె
va
##illa
##ried
##రైట్
##లిని
##వాడా
##సును
ant
civ
mem
మొల
వాచ
##జయంతి
##పరచిన
##యించి
##సంచార
చేయడ
యాభై
షాహ్
సైకి
##క్ష్మీ
##మెంటల్
##రాజ్యం
అనియత
ఆచారం
ఇంజను
వారిక
సమీపఆ
కారణము
కాల్చి
కోస్తా
నిర్మల
బొమ్మల
మాండలి
సమ్మతి
(00,000
library
ఉండడంతో
మహేంద్ర
వర్షాలు
విద్యార్
పరిశోధనలో
శరీరానికి
భూభాగాన్ని
చేరుకున్నారు
##udu
##ఉర్
##ఘ్ర
##చూడ
##మాధ
##రకం
ut
##ench
##కుంఠ
##క్కె
##వేసే
##సినో
##స్వి
##ెంస్
dod
ఉమా
గావ
గోర
పోక
##owers
##గ్వేద
larg
అప్ర
ఎకనా
మాంద
రెసి
##వాటిని
విఫణి
##కారణంగా
circle
అచ్యుత
ఆవరణలో
జ్ఞాపక
నైట్రే
బ్రేక్
మ్యాపు
సాహెబ్
##పిస్తాయి
various
ఉన్నదని
తీసింది
ప్రేమలో
material
పోటీల్లో
ప్రతిభను
విలువలను
##మహారాష్ట్ర
మునిసిపల్
సంఘంగ్రామంలో
సత్కరించింది
##sl
##పాప
##సూయ
##ూడి
##ఘాట్
##డెడ్
##పైకి
##శ్రా
##శ్రు
##షైర్
##ానర్
##ారంగ
కరో
##క్కడా
##మావళి
##సూర్య
conn
ఆద్య
ఉంటో
కర్ప
క్రే
జిమ్
టిబె
బేగం
##ంద్రీయ
solar
తంత్ర
ఫైబర్
మక్కా
మయామి
##ంచవచ్చు
లిటిల్
ఆడపిల్ల
దర్శనీయ
మరింతగా
హిమాచల్
అంశాన్ని
కంబోడియా
కాల్షియం
జమీందారు
ద్రవీభవన
రంగానికి
##indigofera
ప్రతిచర్య
ప్రతిరోజు
సంవత్సరపు
సారవంతమైన
చెందినవాడు
సూచించింది
ఆదివారంనాడు
ప్రదేశానికి
అందుకుంటున్న
వ్యవస్థాపకుడు
సర్వీసుగ్రామంలో
##ese
జహ
##కామ్
##చూరి
##టియం
##వేట్
inj
పూట
##ively
##అలాగే
##రాలలో
##వేయడం
00%.
bank
hill
నియో
వ్రత
సంభో
సోనీ
స్లీ
##రీలియం
##స్ట్రా
times
కదులు
కరిగి
దువ్వ
నవలలో
నిముష
హాజరు
##ర్లపాడు
##వాతంత్య
christ
ఉపసర్ప
పత్రాల
శైలిని
అడిగాడు
నేపథ్యం
పెనాంగ్
వ్యాధుల
చెరువులు
వ్యాధిని
ప్రదేశంగా
కల్పించింది
##fi
##pet
థీ
##జ్డ్
##నందు
0''
పాయ
##epend
##పావళి
అస్స
ఏటియ
డిఫె
తాజ్
బుల్
వీరవ
swamy
ఉండుట
పాలసీ
మద్యా
మెట్ట
చివరగా
టేబుల్
నార్వే
ల్యాప్
culture
western
ఇంజనీర్
గ్రాముల
వెలుపలి
సంబంధాల
చేసేవాడు
నగరాల్లో
పరిజ్ఞాన
సిద్దాంత
##బడుతుంటాయి
president
చంద్రబాబు
తగ్గించడం
యానిమేషన్
అందజేసినారు
ఎయిర్లైన్స్
వెలువరించారు
సంభవిస్తుంది
ఎగ్జిక్యూటివ్
బృందంగ్రామంలో
##బలం
##మరు
##ాలో
##ధిగా
##నాను
##బ్ధి
##రికం
##ార్ల
oct
గ్ల
ధూమ
బుడ
##0,000
##వాసుల
jour
కోట్
ఫుల్
స్కై
స్లా
హౌరా
అమ్మి
గిరిజ
జవహర్
##మునుండి
##వినియోగ
ఎప్పటి
దుస్తు
పంచదార
కలిగియు
జనవరిలో
నమూనాను
రామానుజ
సహకరించ
వయసులోనే
తయారుచేసే
అగ్నిపర్వత
గవర్నమెంట్
వ్యూహాత్మక
ఏటియంగ్రామంలో
##ci
##jn
##ఱి
##ోమ
##’’
##ste
##యనీ
##ford
##ఒక్క
##ద్రీ
##నూరి
##మానవ
##ళ్ళో
##వేంక
mos
top
అధు
లంచ
##ప్రేమ
##యాలలో
five
rock
టెలీ
నేరం
పోరు
బురు
రిటై
హాలు
##గ్రేడ్
##త్యాలు
##మామిడి
తియ్య
ఫ్రమ్
అర్థము
ఆలోచనా
ఆహ్లాద
ఇద్దరి
బహిర్గ
స్లోవే
పునరుజ్
ముడిపడి
యువరాజు
వుండేది
వైశాల్య
##హైదరాబాదు
ఇందులోని
కాలుష్యం
పొందుపరచ
ప్రక్కనే
క్వార్టర్
పొందుతారు
ప్రతినిధులు
వర్తిస్తుంది
పుణ్యక్షేత్రాలు
ప్రచురించబడింది
##ipp
##leg
##mus
##అవు
##పోయ
##ంచుట
##నగరం
##పోరా
##మిలి
##యిని
##రంగే
##ర్గత
cia
అరణ
నదు
##పత్రం
gold
shah
కాడ్
దైవం
నవీన
నిలవ
శీతల
##ically
##పోతారు
##ీకృష్ణ
పిన్న
బందరు
మురళీ
##ేవారికి
క్వీన్
గంగమ్మ
జోక్యం
పదవికి
సంస్కత
##విష్ణువు
##స్టిక్స్
అంశాలపై
గణతంత్ర
యువకులు
సమురాయ్
ఇవ్వబడిన
జర్మనీలో
బ్రిస్బే
భువనేశ్వ
సమక్షంలో
స్త్రీలకు
స్థానాలలో
కనబడుతుంది
చేపట్టింది
పెట్రోలియం
0-0000-0000
చేరుకోవచ్చు
షేక్స్పియర్
తెలియజేస్తుంది
##వద
##dom
##ura
##రాస
##part
##కానీ
##వేటు
##షోర్
apr
ban
వని
00-0
ఉందో
చెక్
తమ్మ
నాట్
పీచు
బుర్
మాంట
మాడు
శ్రు
స్ని
##ించలేక
ఉజ్బె
ఎర్త్
ఐరిష్
గూడెం
చెత్త
జయప్ర
పొట్ట
became
ఎక్కడా
ట్రిని
నాటకీయ
పాట్నా
మిల్లీ
సిరియా
located
ప్రభువు
యాక్షన్
సార్వభౌ
##ేశ్వరాలయం
కూర్చుని
నూజివీడు
రిపబ్లికన్
రూపొందించబడిన
##వడ
##శాస
##కంతో
##ప్ట్
##ఫెలో
అహో
ఇట్
##istry
##ంక్స్
##మతులు
##ెల్ట్
prim
said
అజ్న
ఉజ్జ
గ్రో
రైట్
##లావస్థ
ఆరుగు
చీరాల
పనిలో
##ిస్తారు
liable
result
గురజాడ
దిద్దు
ప్రబోధ
స్టేడి
##ఎస్ఎల్వి
అంచనాలు
సర్వస్వ
##న్నింటినీ
క్లోరిన్
పత్రికకు
##ించబడ్డారు
మార్గాలను
నియమించారు
ప్రక్రియలు
శీతాకాలంలో
వృత్తిపరమైన
ప్రవేశపెట్టింది
##కోక
##బరీ
##gram
##వాళి
typ
నయం
సమృ
సేన
##రాజుల
##వసరాల
fact
left
చంపు
తేది
దండె
లెక్
అప్పల
దేవతా
రక్షక
వేరుశ
##రాయలసీమ
##ెనపల్లి
energy
europe
అధినేత
గూడూరు
డెస్క్
భార్యా
మాస్కో
శ్రామి
స్ట్రీ
##ఇంగ్లీషు
మతానికి
సాధారణం
చిరునామా
జార్జియా
మిల్వాకీ
సినిమాకి
కాంగ్రేసు
గుర్తించే
చూపుతుంది
నిర్మాతగా
నివసించిన
భావించాడు
ఆంధ్రపత్రిక
సంపాదించాడు
రైల్వేస్టేషను
విద్యుదయస్కాంత
##wan
##పార
##లిత
ధీ
##కలను
##పంజా
##పులి
##భ్రమ
##లాడే
''(
ఐదే
వసూ
సంహ
##ially
##కాలనీ
##ట్టర్
##ద్దరి
##భద్రా
##వాదుల
grow
నిశ్
భూషణ
లక్క
##పదార్ధ
##శ్లేషణ
దర్గా
నదీతీ
గుత్తి
త్రికో
నలుమూల
పిట్స్
అడిలైడ్
అలాస్కా
ద్రావిడ
పండితుల
మానవుని
యుద్ధము
ఈస్టర్న్
స్థాయిలు
కార్మికుల
చెన్నపురి
అధ్యక్షులు
కలిగివున్న
వెంకటసుబ్బ
engineering
ప్రచురించాడు
చెప్పుకోవచ్చు
##వొ
##ilt
##ంకర
##పటం
##గోస్
##మాల్
##సుని
aut
ఏక్
ముష
లెబ
##andra
##istan
##పాఖ్య
##సులను
##స్మరణ
****
type
what
కంది
గద్ద
బాబి
మదర్
షెల్
హాప్
##apalli
##సరించి
ramak
ఆడాడు
జమ్మూ
నిండు
పనామా
భరించ
రచనలో
వాళ్ల
హైడ్ర
##ంబాన్ని
ఇత్తడి
చూస్తూ
జిక్కి
వీటితో
చిత్రము
వందలాది
ఆటగాళ్ళు
ఆసక్తిని
రాత్రికి
వ్యాయామం
శ్రీదేవి
##భివృద్ధికి
కంప్యూటరు
శాశ్వతంగా
సత్యాగ్రహ
ఉద్దేశించి
రాజకీయాలలో
సాగవుతున్న
పాల్గొంటారు
ఉద్భవించింది
తీసుకున్నాడు
హైదరాబాదులోని
##ధూ
##వళ
##day
##ros
##ume
##vir
##సోమ
##arya
##itor
##read
##డ్రా
ఆదా
ఆదు
కళల
ఛేద
తాప
సిర
##కాలము
last
plac
కంచు
లీలా
లోహం
వేధి
శిరో
##ంకోవర్
##బెర్గ్
##రానికి
##సుమారు
డిప్ల
బజార్
శేఖర్
##స్ట్రన్
ground
partic
అపురూప
ఆఫీసర్
మలయాళం
మెచ్చు
లూసియా
##సమీపవారం
అందరినీ
మార్చడం
పొన్నూరు
ప్రదేశాల
ఫిలిప్స్
బాల్యంలో
శ్రేణిలో
సుబ్బయ్య
విమానాలను
ప్రమాణాలను
రిజర్వాయర్
వర్ణించాడు
వ్యక్తులకు
ఆంధ్రజ్యోతి
ఇవ్వబడ్డాయి
ఉపయోగిస్తాయి
డిపార్ట్మెంట్
ఉపయోగించబడింది
ప్రారంభమయ్యాయి
నిర్వహించడానికి
##ంఛై
ey
##త్సా
##బంధం
##లూరి
beh
తగు
మృత
##ంగానూ
##కళ్యా
##ర్మల్
##్యూల్
lord
అజర్
గ్రు
పళ్ళ
మదరా
షిర్
సేవి
##రాయిడ్
ఇస్రో
లేజర్
##ంప్రదాయ
##పాలిటన్
venkat
అయ్యర్
కోడూరు
స్నేహం
హెచ్చు
##పిస్తారు
##రిస్తాయి
##సంస్కృతి
project
నిర్ణీత
మార్పుల
రావణుడు
స్వరాలు
ఇన్నింగ్
ప్రముఖుల
సమయాల్లో
స్వస్థలం
అధ్యయనంలో
జనసాంద్రత
వచ్చిందని
సమీపకుటుంబ
సంప్రదాయంలో
సమర్థవంతంగా
స్టాన్ఫోర్డ్
##అవ
##"''
##oon
##మధు
##ోజీ
##జీన్
##వాను
san
నయా
బంక
మిథ
శశి
##తోటలు
##మండలం
##రులతో
కమల్
గౌరీ
బూర్
మెట్
వేషం
##apuram
##రాజకీయ
దౌత్య
నిధుల
వక్రీ
విలీన
వేదము
సనాతన
స్థావ
##ంతోపాటు
##క్రటిక్
produc
ఆధారపడ
క్రిమి
చేసేది
రాబోయే
విజయము
##ప్రదర్శన
కష్టాలు
నరసింహా
మిస్టర్
రక్తంలో
అందులోని
ఎలెక్ట్ర
తగ్గించే
గెలుపొంది
ప్రార్థనా
వ్యత్యాసం
ఉత్పత్తికి
వ్యక్తులను
సంయుక్తంగా
సమీపఅలోపతీ
పదార్థాన్ని
విస్తరించడానికి
##net
##లనం
##ెము
##కింద
##క్లా
##తంలో
##భాయి
##విడి
gar
und
ఎంబ
ధన్
రీత
##గేషన్
##పాలతో
##ప్రభా
##వ్వడం
ఛాతీ
పూణే
పైడి
మనకి
##itable
##ంచుటకు
##ల్లోనే
అల్లం
ఉడికి
కవిగా
చేయబడ
లింకు
సాధనం
##ication
##వరెడ్డి
appear
మూలకాల
##మోహనరావు
another
studies
కఠినమైన
గ్రౌండ్
సంచికలో
స్థావరం
sanskrit
ఇండియాలో
కాకతీయుల
నక్షత్రం
భాగానికి
సన్నిహిత
హీరోయిన్
కనిపించిన
లేకుండానే
సమాజానికి
సమీపసంచార
బాక్టీరియా
అభివృద్ధిని
సమీపసామాజిక
రాధాకృష్ణమూర్తి
##sk
##yr
##ila
##క్వ
##ౌట్
ba
పచ
##కేష్
##తగిన
##దికి
##బ్రే
##మలయా
##ముఖం
##ముడి
##వెలె
etc
అమీ
ఆగు
మేడ
##భాషలు
##మానుల
అనాథ
గిరా
గెలవ
టైమ్
తాండ
మిళి
##కుప్పం
##మహబూబ్
##మొబైల్
singh
ఆనందం
గ్యాల
పండ్ల
మాణిక
సందర్
సురభి
స్కాల
centre
health
histor
ఎక్కడి
కేవలము
గొర్రె
విశ్వం
అడ్మిని
అభిరుచి
కేన్సర్
గుర్రపు
తదనంతరం
స్రవంతి
కార్టూన్
తదితరులు
పుస్తకము
అభిమానులు
ఆమ్లాన్ని
చట్టాన్ని
పొందినాడు
స్వాతంత్య
వీరేశలింగం
చేసుకుంటారు
పనిచేస్తాయి
విద్వాంసుడు
దారితీస్తుంది
##ేశ్వరస్వామివారి
##!!
##bab
##iph
##కోచ
ఖో
##ames
##erry
##opal
##ధ్ధి
##నిధి
##ల్సా
##ష్ణా
##సంపద
now
పొద
మకర
వీట
##దేశాల
##నాట్య
##ారాణి
arab
fort
మాస్
ముకు
మేల్
వేతన
వైడ్
##యుగంలో
##ేవారని
works
అయ్యి
నాగర్
హాసన్
google
అంశంపై
కుంకుమ
క్షిపణ
దంపతుల
ప్రీతి
సంఘంలో
ancient
అందుకని
ఉంటోంది
పోటీలకు
ప్రజ్ఞా
ర్యాంక్
శక్తులు
services
జరిగినది
సమస్యలకు
స్టాండర్
కుటుంబరావు
పూర్వీకులు
స్టేట్స్లో
సమర్పించారు
శ్రీకృష్ణదేవ
స్థాపించింది
##ఛా
##ams
##నేల
థె
##ఫాన్
##వచనం
##విరా
##ీకృత
beg
cle
mor
sap
##మికల్
##లియను
##లీకరణ
beng
cast
అంకె
కుటు
గాడ్
జరుప
నోరు
పొడు
బద్ధ
బారా
బ్లే
యవ్వ
రైల్
సంజీ
mount
ఆశీర్
కదిలే
మటుకు
రీజన్
##మయ్యాడు
ట్యూబ్
పెరుమా
బాల్యం
వరుసలో
వేదాలు
సంఖ్యల
సుందరి
##వాసాన్ని
అభిమాని
ఉపయోగపడు
శాసనసభకు
శివలింగం
అధికారిగా
పరిశ్రమకు
ఫ్యాక్టరీ
విచ్చేసిన
విద్యాలయం
సర్వసాధారణ
##.(
##mp
##och
##osp
##xim
##పెద
##హాల
భృ
##ంచర్
##కథలు
##చైనా
##తుల్
##భాను
dna
ఆశ్
నవర
రిల
సుధ
##జనరల్
##త్యము
##మంత్ర
##లపండు
గోపి
జీర్
టెన్
డోర్
తారు
దేని
వాలు
ఆగ్రా
కాళ్ళ
దృష్ట
ద్వాద
భూమిక
వైఖరి
##పరెడ్డి
should
ఎవరికి
ఖైదుతో
డిప్యూ
డొమైన్
నృసింహ
నెయ్యి
ప్రసరణ
బేసిన్
మొగ్గు
రాబిన్
సహజమైన
##వుంటుంది
చూపించే
తరగతులు
పర్షియా
వచ్చేది
సన్నిధి
నిర్వాహక
##స్తున్నాను
ఉండవచ్చును
గ్రామాల్లో
సంస్కృతిని
చేరుకుంటుంది
##ota
##లనొ
ఇమ
##పాకు
##పాజి
##పారి
అమ్
యెడ
హేమ
##ందురు
##క్కల్
##గిలిన
##లలోను
##ాల్ఫ్
khan
మతాల
రుతు
వాలీ
##ండ్రిగ
##దిన్నె
##ూరిపేట
అమృతా
చివర్
నెమలి
ప్రొట
మహావీ
సైంటి
##పరిశ్రమ
##బెట్టిన
bridge
చేయమని
నావికా
బిల్లు
మందిర్
##కాలికంగా
కింగ్డం
చూపింది
నాగపూర్
సైప్రస్
స్వీడన్
movement
అంతర్జాల
నల్లగొండ
మైదానంలో
మొహమ్మద్
వాంకోవర్
వ్యవసాయా
శిష్యుడు
సాధ్యమైన
##భారతదేశంలో
నిర్మాణము
మార్గములో
యురోపియన్
కథానాయకుడు
కలుస్తుంది
ప్రొడక్షన్స్
##టల
##for
##ida
##ంభం
##అవి
##ఇవి
##పత్
##ased
##ండటం
##అన్న
##యమైన
##య్యవ
##రంటో
బరు
##యములు
##ాయిడ్
గైడ్
తెరు
నర్స
నలభై
పిండ
పీస్
పోతే
ఫొటో
మానస
యార్
వంపు
వేటా
##ertain
##నార్డ్
##పరీక్ష
seven
ఆహ్వా
కైవసం
నవాబ్
పాలను
రివర్
yellow
పుష్కర
బాలబడి
వాడారు
హోమ్స్
##ధ్యాన్ని
##వాదాన్ని
process
ఏజెన్సీ
చురుకైన
మధ్యయుగ
లినక్స్
వివాహము
సమీపమాతా
అంబేద్కర్
క్షేత్రము
పట్టుకుని
ప్రతిపాది
కాలక్రమంలో
గ్రామపంచాయ
భౌగోళికంగా
రామిరెడ్డి
సందేశాన్ని
సీతారామయ్య
ప్లాంట్లోకి
విద్యావేత్త
కలిగివుంటాయి
##;"
##నాళ
##సుధ
##alla
##ples
##కిని
##టనకు
##లోస్
##ల్యే
##ెనని
కేథ
ఛాయ
##త్తున
brah
కటకం
మెన్
ఇమేజ్
ఉంచడం
కిలోల
ఇండిపె
కాంస్య
తిమ్మా
నిలువు
పేరుపొ
లైన్స్
సదాశివ
స్టోర్
##స్క్రిప్
ఆరోపణలు
ప్రజారా
ఫ్రాంఛై
వర్గంలో
సంకీర్ణ
వారానికి
విడాకులు
##ప్రత్తిపాడు
పెద్దాపురం
బ్రిస్బేన్
స్థానికులు
ఉపయోగపడతాయి
సూపర్ఫాస్ట్
చెప్పుకోదగ్గ
పునర్నిర్మాణ
##ea
##cal
##గ్ధ
##ప్య
ఏవ
మమ
##నవమి
##పాయ్
##పాస్
##మిస్
##ర్ధన
ach
వరస
##ండూరి
##కర్స్
##టీఆర్
##పిండి
##వ్యాస
##శ్రమం
అట్ట
కిస్
తాంబ
ప్రహ
ఫ్రి
##hammad
civil
front
given
అయాన్
చెలరే
నకిలీ
ప్రవీ
మెమరీ
##ప్రతిని
series
అరబ్బీ
అర్ధము
గ్రామీ
డెవెలె
రిపోర్
రీత్యా
విద్యన
##గిరిరావు
జాక్సన్
పెడతారు
రైతులకు
వనరులను
స్పష్టం
##సమీపసహకార
పాఠశాలను
బెర్లిన్
సభ్యులను
చంద్రశేఖర
వైజ్ఞానిక
చిత్రంలోని
సున్నితమైన
ప్రత్యామ్నా
రాష్ట్రాలకు
పురస్కారానికి
సంతరించుకుంది
సామ్రాజ్యానికి
సీతారామశాస్త్రి
##ops
##గువ
##షుల
et
sn
ఎద
##urti
##utta
##టాల్
##దినం
##మైడ్
##హెడ్
0&0
dig
hon
oil
six
మొర
రేవ
##తీర్థ
##వాడని
##ారణ్య
అవయవ
కథకు
డీన్
దృగ్
మావో
మిరి
రాస్
వైన్
##జీనియా
##పిస్తూ
##మాన్యం
force
రాఘవా
రామన్
##యడానికి
కెన్నె
కొలువై
నిడివి
పరుగుల
ప్రజ్ఞ
##క్షేత్రం
##చేయడానికి
independ
ఉన్నపుడు
బర్మింగ్
లైసెన్స్
జరుపుతారు
నివేదికలు
00.00.0000
వ్యవస్థలను
ప్రసిద్ధమైన
స్వీకరించిన
పునరుద్ధరించ
##urt
##ంధి
##కనే
##కరీ
##మయి
##హము
##్వీ
##avan
##size
##ందాం
##తిన్
##వైవి
der
ple
tra
అమా
పిన
##erica
##కొండు
##నాటకం
##భౌతిక
zone
ఇదొక
ఎడ్ల
ఎదుర
గద్య
దాదా
బాస్
లార్
షియా
హామ్
##ంతర్గా
##జీవులు
##న్నపేట
##వాన్స్
pract
solid
జెండా
రెగ్య
##గలిగాడు
కూర్చో
కృషికి
రుద్రా
రోడ్లు
ఇంద్రియ
తేలింది
మధ్యస్థ
చెబుతాడు
శతాబ్దము
##ప్రాంతాలలో
ఉండేందుకు
రాఘవేంద్ర
కలుపుతుంది
దశాబ్దాలలో
పరిశీలించి
సంస్కృతికి
సరిహద్దులు
స్నేహితులు
కంప్యూటర్లు
పరిస్థితిలో
ఫ్రాన్సిస్కో
మిక్కిలినేని
##సమీపవ్యాపారాత్మక
##gu
##ela
##తాల
##బార
##ంజనం
##టాని
##భ్యం
jnp
obs
suc
##ందంటే
##ట్టన్
##తత్వం
##మహిళా
##రామన్
ఉంచే
క్షు
టీకా
తంతు
నడుప
రికో
వేచి
స్కీ
హసన్
##ఇండియా
##పారుదల
micro
ఆకాశం
ఖరీదు
చైత్ర
నిదాన
బృందా
మిట్ట
యూరప్
రాజైన
సుసంప
##గాయకులు
##ముస్లిం
within
ఓటింగ్
గిటార్
పెద్దల
మేనమామ
విస్కీ
##కోడానికి
##గిరెడ్డి
##గిస్తారు
అకాడెమి
అధికమైన
అల్లుడు
అసంఖ్యా
కెనడాలో
పేర్లను
బ్రతుకు
సిగ్నల్
##ప్రభుత్వం
క్షత్రియ
నాగేంద్ర
తీసుకురావ
ప్రతిరోజూ
బ్రహ్మాండ
0-00-000000
కామన్వెల్త్
పర్యాటకులను
ప్రెసిడెన్సీ
##శృ
##bon
##lit
##కిక
##తడు
##మ్న
##యుట
##రాశ
ఉష
##ంధ్య
##కృతం
##క్తా
##దిని
##నుగా
##వసరం
##ెనలు
ste
కవా
ధని
##పాలిత
##బిడ్డ
##ల్లర్
##ల్సన్
##విక్ర
fest
ఆటంక
కిరా
దిగ్
పంచా
##ందరికి
##గించిన
##డవల్లి
##విన్స్
##ిల్టన్
gener
అమృత్
గణితం
నిరాశ
##ంచేవారు
ఋగ్వేద
గ్రాఫ్
పక్కనే
భోపాల్
##రంగేట్రం
ఎనిమిదవ
కలయికతో
కస్తూరి
పరీక్షి
పీఠభూమి
ఫైనల్స్
భానుమతి
మార్గాల
అధికారుల
కొనసాగిన
జన్మించి
తగ్గింది
ముఖాముఖి
చూడడానికి
నిర్వహణకు
రికార్డును
publications
మొదలుపెట్టారు
##టొ
##arn
##అణు
##ణిమ
##భూప
##ంపబడ
##జెనె
##టినో
##నాస్
fig
##endra
##ఎక్స్
##వచ్చే
band
stre
కోలు
వింజ
హోలీ
##టిలైట్
##పరిమాణ
based
ఆమోదం
ఆర్సె
చిహ్న
తనదైన
మానవు
##బ్రహ్మం
##విరుద్ధ
గ్లాస్
తార్కి
దొరికే
ప్రదాన
ఫిలిప్
అంగుళాల
కనుమరుగ
చైర్మన్
జరిపారు
తెలిపిన
వివరణకు
సల్ఫైడ్
నేరాన్ని
పుత్రుడు
ప్రాంగణం
వోల్టేజ్
##ంచినప్పుడు
religious
గుండ్రంగా
అద్దేపల్లి
చదువుచున్న
విడుదలైనది
వ్యక్తీకరణ
సంగీతానికి
వెంకటప్పయ్య
హైదరాబాదుకు
ప్రవేశించారు
వినియోగదారులకు
##nh
##అమ
##నస
##కట్
##తమే
##సరు
##ామల
దహ
##aria
##ring
##గమనం
##దంటే
##పాండ
##రీలో
##లైతే
##స్వం
did
son
నవో
శాప
సీస
హల్
##agiri
##మనేది
##విశాఖ
even
fire
ఇజ్ర
కలర్
గాఢత
ప్రధ
##aining
##ండ్లను
##దాంధ్ర
##వాయువు
00°00
until
మెడల్
జోన్స్
బడింది
రాజరాజ
లైసెన్
##సంబంధమైన
chennai
నిర్వచి
పొడవునా
భావించే
లాంగ్వే
వెలువడు
ద్వీపాలు
బ్రిడ్జ్
మంత్రులు
వ్యాపారి
ఏర్పాటుకు
నౌకాశ్రయం
పాలకొల్లు
విభాగాలలో
వ్యవహారాల
హనుమంతుని
కన్నులపండు
రూపొందించాడు
##ఆల
##aut
##hel
##mal
##unn
##జలి
##దాత
##నొక
##వచన
##స్ధ
eu
##గుండ
##త్సు
##ద్యు
##నును
##పిక్
##యోన్
బాద
##embly
##గట్టు
##ద్దాం
##ురాలు
days
john
ఇల్ల
గండి
నిషా
నేర్
బిట్
లేక్
వాక్
##గ్పూర్
##తండ్రి
చెడ్డ
నదిపై
విశదీ
శకుంత
##గ్రామీణ
##బద్ధంగా
చొచ్చు
తెలియక
ద్విపద
బ్లూస్
భాగంతో
మదరాసు
మొక్కు
అన్నయ్య
కొసరాజు
ప్రక్కల
భక్తుడు
మహిళలకు
మొదలయిన
రెక్కలు
##తుడయ్యాడు
పురాతత్వ
ఫిర్యాదు
సంకేతాలు
సముద్రము
సూచిస్తూ
పాస్పోర్ట్
##ించుచున్నారు
సృష్టించారు
ప్రతిపాదించిన
ప్రయత్నించారు
##బం
##flu
##డుల
అక
##apat
##ంశాల
##డవరం
##బిట్
##యాల్
##రేజ్
bud
rob
##hemat
##కమ్యూ
##కవులు
##యులను
##రెండవ
అంతః
చంపే
టెస్
త్రీ
ధాతు
నిషి
నేనే
ఫ్రై
మొనా
లోకో
##డుగులు
##బ్లాక్
##యులుగా
broad
అట్టి
అతుకు
చవిచూ
పున్న
పౌరుల
##వ్యతిరే
center
repres
అజర్బై
అనుభవి
ఈశ్వరి
తాజాగా
పనులకు
servant
అధునాతన
కారణమైన
జగన్నాథ
డివిజను
తరగతిలో
ద్రావణం
ప్రేమను
##ఇంటర్నెట్
##తున్నట్లు
పాత్రలలో
సిలికాన్
ప్రయోజనాల
background
ప్రాచీనమైన
0-00000-000
నెదర్లాండ్స్
##za
##jab
##ఎక్
##జమ్
##ంతగా
##తోనూ
##పెల్
##ఫెర్
##బాగ్
##బోస్
##విలా
ibm
way
బరో
వృష
##గుండం
##గుప్త
##నులకు
##పుల్ల
##బిందు
##సత్తా
math
vish
ఆంటో
కోపం
దేశ్
ధూళి
రీసై
వాదం
సోకి
##itions
##కిన్స్
##దృష్టి
##ద్వాన్
##పాత్రా
##మీడియా
కాటన్
జవాబు
పరస్ప
బుగ్గ
భాగాన
##కాపల్లి
##నికరంగా
ఆచరణలో
కల్పిత
గదులతో
గ్రామా
ట్రోఫీ
తొలినా
windows
కాలువలు
పాలకుడు
రోగులకు
వాగ్గేయ
ఆంధ్రదేశ
ఉన్నారని
మంగళవారం
వన్యప్రా
కర్మాగారం
గ్రహించిన
ఉద్యమానికి
క్రిటిక్స్
మెల్బోర్న్
ఇక్కడినుండి
స్వీకరించాడు
##eg
##హత
##హొ
##ema
##eni
##svg
##తేజ
##పూట
జర
##ట్నీ
##ముపై
##వేరా
##శాసన
##ష్టవ
గన్
చెర
ధరి
నొక
పదా
##గ్రాహ
##రంగజే
##లివరీ
##ుల్లో
blue
ఆసుప
పోలే
బడిన
మాలి
మిర్
యర్ర
రాని
వేలం
##కాపురం
##సాగులో
##స్సుకు
ఇస్తూ
గుమ్మ
లేబర్
వినాయ
సమన్వ
సింహం
అడిగిన
గేయాలు
పంపాడు
బాప్టి
మార్చే
సాసేజ్
సున్నా
సొమ్ము
000–000
అంకితమి
కారాగార
గ్రాంటు
త్రిభుజ
దీపావళి
వస్త్రం
ఉత్తమమైన
క్రోమియం
గ్రాఫిటీ
పట్టింది
సంఘానికి
##మాచార్యులు
following
ఆఫ్రికాలో
ఏర్పడినది
సింగిల్స్
వ్యవస్థాపక
వ్యాపారులు
కంప్యూటింగ్
శ్రీరామమూర్తి
బ్రహ్మోత్సవాలు
##చక
##hin
ఢీ
##దికల
##దీనా
##బేస్
##వర్థ
##వాసా
##స్తం
fif
పైల
వీల
##మనేని
##సింహా
##ామిలీ
నర్త
నవ్య
నిఘా
##బోర్డ్
##రహదారి
కప్పి
కర్బన
వినాశ
సుజాత
కథనాలు
కల్యాణ
కుప్పం
చుట్టి
దేవుడి
మారారు
spanish
దిగుబడి
పరమాత్మ
పర్వతాల
పల్నాటి
ప్రాకృత
మిర్యాల
రావచ్చు
రేపల్లె
వెనుకకు
సాధనాలు
హ్యూమన్
##వేయబడింది
##శివరాత్రి
muhammad
న్యూట్రా
భద్రాచలం
ధ్వజస్తంభ
పాయింట్లు
రాష్ట్రీయ
పరిశ్రమలలో
మహాసముద్రం
కార్యాలయంలో
చెప్పడానికి
ప్రజారాజ్యం
లక్ష్మీదేవి
పునరుత్పత్తి
నేర్చుకున్నారు
##eta
##her
##యణా
ఉమ
ధు
##కాస్
##టోన్
##డైనా
##దుని
##రణము
mir
set
అజీ
ఏవి
గ్వ
##ested
##జీవనం
##రకమైన
yoga
జెర్
టైటి
రెస్
##కూడదని
##వుతారు
##సుకొని
గర్భం
చవితి
దుష్ట
పోల్చ
యమునా
వుంటే
హిప్ప
00000,
female
gandhi
దాడికి
ప్రైజ్
ముత్తు
అనేవారు
ఉత్పాదక
చేపట్టి
మధుమేహం
రీజియన్
వచ్చినా
పోటీచేసి
హేతువాది
కాంక్రీటు
ప్రయోగశాల
జీవితానికి
మహాలక్ష్మి
రాష్ట్రంగా
ప్రచురితమైన
కారణమవుతుంది
తల్లిదండ్రుల
శ్రీరామచంద్ర
నియోజకవర్గాలలో
##ck
”
##uda
##కావ
##మంజ
ఘట
##కును
##గాస్
##తులై
##త్రే
##పరచి
##రక్త
##సోల్
కజక
డర్
నడక
బహూ
ముహ
##attle
##స్థిర
does
ఆపాద
చలనం
జాషు
డాలీ
తుర్
దాతల
బాబూ
మరాఠ
లాగే
వైదొ
##కార్ధం
##లపల్లి
;0000
intro
medic
కట్టడ
పాటకు
వరదలు
వైశ్య
సంహిత
ఆచరించ
ఏనుగుల
గెలిచి
నూనెలో
పతకాలు
పొడిగా
ఫిరంగి
స్తంభం
##లిజెన్స్
జగన్నాధ
భాగాలలో
రేటింగ్
వారణాసి
విపత్తు
స్థితిగ
అక్షాంశం
కట్టడాలు
కోదండరామ
జ్ఞానపీఠ
నిడదవోలు
నిమిషాలు
పెరుగుతూ
ఫారెస్ట్
వాల్యూమ్
సంస్థాగత
##వ్యవసాయేతర
చేరడానికి
పితామహుడు
ప్రకృతిలో
మధ్యవర్తి
అంతకుముందు
అందిస్తోంది
అభివృద్ధిలో
ఉపసర్పంచిగా
కనిపిస్తారు
తెలుసుకున్న
బ్రహ్మానందం
ఇంటర్మీడియట్
ప్రభావవంతమైన
పెట్టుబడిదారీ
కార్యక్రమాల్లో
##దట
##oma
##వరా
ఎర
##uted
##టివి
##టెర్
##మమ్మ
##లోడ్
##సంగా
wik
అపా
ఆపద
దీన
నాణ
మెక
conc
ఆయనే
తనని
దశకు
నూలు
పౌరు
సదరు
##గురువు
##ధికారం
##సెట్టి
అనవసర
కోరిన
జోకర్
దురదృ
పుంజు
బఫెలో
యుద్ద
సంగతి
సాల్వ
##న్నింగ్
##బల్పూర్
పదవిలో
రూపాయి
రెట్టి
##డ్మింటన్
##ధికారులు
example
అనధికార
కండరాలు
జ్ఞానము
పరీక్షా
లండన్లో
assembly
కుటుంబాల
జానపదాలు
దుకాణాలు
నాటకాలను
ఫెలోషిప్
బహుమతిని
భవనాన్ని
భీష్ముడు
సంస్థానం
అనుబంధంగా
తొలగించడం
సాహిత్యము
లక్ష్యాలను
సంపాదించిన
చేసుకున్నాయి
ప్రోగ్రామింగ్
రాజమహేంద్రవరము
क
##ler
##జరు
##తాం
##ఫలం
##abha
##view
##కెస్
##చూపు
##డైడ్
##ప్రస
##యోల్
##లెన్
##వీధి
ben
squ
ఇర్
కుద
తాన
##బంజరు
##స్మస్
pand
కండర
గొడవ
పిశా
పెండ
##రైల్వే
##శిల్పి
appro
ఎపిసో
ఏళ్ళు
ఒకరైన
మసాలా
రూజ్వ
శాఖకు
సంపుట
##ఆస్ట్రే
##ాల్లోకి
కేసులు
జనాదరణ
పేలుడు
భూకంపం
మర్యాద
వాటిపై
వ్యవధి
meaning
ఉత్ప్రే
ఎత్తుకు
సంబంధము
కంపెనీకి
క్వీన్స్
గర్భగుడి
గుర్తులు
చెప్తారు
బహిర్గతం
సహస్రనామ
సాగునీటి
##ించవచ్చును
ఆదిలాబాదు
మార్పులకు
క్రమశిక్షణ
కలిగించింది
ప్రాచుర్యంలో
ప్రొద్దుటూరు
బ్యాక్టీరియా
శాస్త్రజ్ఞుడు
ఎలక్ట్రానిక్స్
కమ్యూనికేషన్స్
నియమించబడ్డాడు
##0;
##bor
##రఘు
##ోడ్
##rome
##డెస్
##భాయ్
##మాస్
##హ్రా
lor
బెర
##inter
##ండేవి
##ంశంలో
##చ్ఛిక
##జహాన్
##నియల్
##భాగ్య
free
germ
prak
prev
rice
కొంగ
చేజి
నిలక
పాదు
బాష్
బీర్
యాదృ
యోని
సిర్
##bridge
##ession
##ipedia
##ంగనూరు
##ఆగష్టు
##విడిగా
తులసీ
యుగము
స్పృహ
అతనితో
అష్టావ
జన్మని
జైలులో
తీశారు
నిజాము
శిల్పి
సాఫ్టు
##డంతోపాటు
##ప్రాంతము
##ల్వేనియా
##వచ్చింది
america
ఆహారంలో
చెయ్యటం
తల్లికి
నిపుణుల
నేషన్స్
నైవేద్య
బ్రతికి
భద్రపరచ
వేదపండి
శేషాచలం
కొడుకులు
దినోత్సవ
దృష్ట్యా
వృక్షాలు
వెళ్లారు
బాక్సింగ్
స్వల్పంగా
పిట్స్బర్గ్
నిర్వహిస్తున్న
వినియోగదారులకూ
##0-
##lex
##గను
##ెడు
##anga
##ఆర్థ
##చుగా
##చులు
##టెలి
##డ్రి
##నాక్
##భవనం
##రీఫ్
##సియో
కరగ
దయా
వయా
##0000.
##ublic
##వాదము
కస్ట
భగవా
యాదవ
విఘ్
సేపు
హర్ష
##000000
##వాత్మక
##ెక్షన్
space
words
అందాల
ఏడుగు
చొక్క
మెట్ల
సమతుల
##తనాన్ని
commit
కణాలను
క్రీడల
గాయాలు
చెక్కు
నేర్పు
పోయారు
ముఖ్యం
లైన్లు
వర్గము
##ప్రపూర్ణ
క్లిష్ట
డబ్ల్యు
పరీవాహక
ఫైనల్లో
లావాదేవ
##చినప్పుడు
##స్ట్రేషన్
ఉపయోగంలో
దేశంలోనే
మార్కండే
రక్షించు
పట్టుకొని
మొదలుకొని
విక్రయించ
ఇన్నింగ్స్
శాస్త్రాలు
అన్నమాచార్య
కన్నులపండువగా
ప్రవహిస్తున్న
మెట్రోపాలిటన్
##డనీ
డం
##ooth
##టియా
##టీలు
##ణికి
##బామా
కెర
జడ్
##డతాయి
##డర్లు
##యన్లు
ఒంటి
బెన్
బౌల్
మాదక
రూట్
##మాసంలో
blood
అబెర్
ఇస్లా
నొక్క
సీతార
##ంద్వారా
##వర్గంలో
##వెన్నెల
##ారంపర్య
మంత్రం
విల్లి
శాతవాహ
company
అభిమానం
అయ్యప్ప
ఆస్టిన్
కావ్యము
టర్కిష్
నగరాలకు
యున్నది
విమానాల
వెళ్లిన
సరిపోయే
(000–000
టార్గెట్
వాయువును
అవార్డ్స్
పద్ధతులలో
వ్యతిరేకత
ఆరంభించారు
కేంద్రాలలో
చిన్నప్పటి
జరుగుతోంది
##పబ్లికేషన్స్
తయారీదారులు
సమర్థవంతమైన
సరిదిద్దాలి
పాలిటెక్నిక్
##ira
##కెన
##వేష
##pose
##అత్య
##జుకి
##వేలి
##శ్రి
vel
ఈద్
##ండెను
##ఎస్సీ
##కీకృత
##క్షను
##బజార్
##భట్టు
bird
chur
ఆదిమ
ఉబ్బ
ఎండు
కోయి
ట్రూ
ఫిన్
రకము
##క్షేపం
##బ్లెట్
##ములందు
##స్తాము
గ్రాన
అణువుల
ఎవరికీ
ఔరంగజే
ప్రతిఘ
మిసిసి
విషయమై
వైపుకు
శుభ్రం
జీవితము
తింటారు
ద్రౌపది
విన్యాస
విల్సన్
సంక్రమణ
సర్పంచి
సిమెంట్
స్థానము
స్వలింగ
అధికభాగం
చాలాకాలం
చిత్రంతో
డిగ్రీని
డిస్ప్లే
నియమావళి
నిలిచాయి
నైట్రేట్
సెక్రటరీ
జంతువులను
కాలక్రమేణా
న్యుమోనియా
మొత్తానికి
వాసిరెడ్డి
విద్యనభ్యస
సినిమాలోని
సృష్టికర్త
ఉన్నట్లయితే
వ్యక్తిగతంగా
వ్యవసాయానికి
సంయుక్తరాష్ట్ర
ప్రారంభమవుతుంది
##fc
##డమ
##cha
##ucle
##wood
##ణిని
##పోతూ
##బారు
##రాకు
గమన
ఘర్
చర్
ఛంద
రథం
##ంపురం
bhak
ఎండి
గానే
తేలు
నచ్చ
రాణీ
రైస్
##చెన్నై
##యపాలెం
among
areas
భారతం
ముత్త
సర్వో
##ంగ్హామ్
##ఇప్పుడు
##కప్పుడు
##కొంటారు
అజ్ఞాత
ఆస్వాద
కోరాడు
గాలిని
గుజ్జు
గెలుపు
డైలాన్
నండూరి
మిల్లు
వినోదం
వీక్లీ
వుడ్స్
షార్ట్
##/00/0000
ఆరుగురు
గొప్పగా
దిక్కున
వర్క్స్
##శాస్త్రము
రహదారిపై
సేంద్రీయ
అభయారణ్యం
తయారుచేసి
పుష్పించే
ప్రణాళికా
సందేశాలను
ఉద్యమాన్ని
కొలుస్తారు
నీటిపారుదల
కవిత్వానికి
చెయ్యడానికి
తాత్కాలికంగా
పిలవబడుతుంది
ప్రవేశించాడు
##oe
##met
##పొర
##ౌర్
##్ర్
##coll
##laim
##కన్య
##క్యో
##దొంగ
##లిప్
##వ్వే
కణు
గండ
పూస
##చేంజ్
##ప్రజా
##బుద్ధ
##వేంకట
##వైశాల
##స్తాం
rfid
site
అంబా
గరుడ
భాగవ
మన్మ
మోసం
వాఙ్
సోదర
##కుడుగా
##పరిషత్
##బినెట్
##ల్లాస్
##ాలలోను
##ిల్లర్
(0.00
0000;
color
ఆనాడు
ఏమైనా
క్యార
చొప్ప
తర్జు
నిర్భ
పాతాళ
పెండ్
##ఫరెన్స్
record
అదృశ్య
కుదిరి
కొమ్ము
పల్లవి
యూదులు
వికిరణ
సమన్వయ
##కురాలిగా
control
include
నిర్మల్
మాతృభాష
##టెక్నాలజీ
చిన్నతనం
తండ్రికి
పత్రాలను
పద్మావతి
పర్యటనలో
ప్రతాపరు
బంగాళాఖా
భారతీయుల
మద్దతుగా
మార్కులు
విషయాలపై
వ్యాధికి
ఆదాయాన్ని
జలాంతర్గా
నష్టాన్ని
ప్రవహించి
యాజమాన్యం
లేకపోయినా
వర్జీనియా
literature
త్రాగునీటి
నిజామాబాద్
ప్రదేశములు
association
అప్పటినుండి
సంభవించింది
సరిహద్దులలో
రేడియోధార్మిక
##ced
##men
##గమన
##దాస
##భూత
##మాప
##లోయ
mp
##asim
##ilar
##ంతము
##కులో
##గ్రో
##నాడ్
##ముఖ్
##లంగి
mis
ren
ఈజ్
ఉదర
##నుంది
##ఫికల్
##బ్బుల
##లికలు
##వనాలు
##సియస్
asia
make
క్లే
సిసి
##embers
march
ఏకాంత
గ్రహి
మతాలు
మీటరు
యూజర్
లిఖిత
వలెనే
##:00000.
అతడికి
కవరేజి
కొనియా
చిల్లర
పట్టిన
పరిగణన
రుసుము
హాస్యం
##ోద్యమంలో
service
ఏడాదికి
న్యూటన్
మరోసారి
వస్తాడు
##ధ్యక్షుడు
అత్యధికం
తెలుసుకో
బెరీలియం
రాజ్యాలు
మార్చింది
వెళ్ళింది
సంస్థల్లో
నిర్మించడం
ప్రార్థనలు
ముఖ్యపాత్ర
అభిప్రాయాలు
కాంప్లెక్స్
దక్షిణాసియా
నిర్వాహకులు
ప్రయోగాత్మక
ఇవ్వబడుతుంది
ప్రాముఖ్యతను
సాధించడానికి
##hat
##శరీ
##hist
##ours
##అందు
##కాయల
##తరహా
##నారు
##భక్త
##మనగా
##ర్పణ
##ళ్ళై
gir
బిక
లగ్
##ately
##తంజలి
##దేశిక
##బడులు
##స్తిక
**''
path
prop
suff
అతిశ
పాక్
మహర్
వీని
వ్యయ
##00000.
##నపల్లె
##న్పూర్
##స్కోప్
##ూడెంట్
ఇన్సు
చల్లా
ఫార్మ
వంశము
##క్లింగ్
scient
కమర్షి
కామెడీ
కోనేరు
దుకాణం
నెంబరు
పటిష్ఠ
పొదుపు
##న్నిటినీ
popular
అగస్త్య
ఈజిప్ట్
టన్నులు
పదిహేను
మాడుగుల
సుప్రభా
స్పెక్ట
##టైన్మెంట్
కాడ్మియం
చెన్నైలో
జాబితాలు
తగ్గింపు
తాలూకాలో
నృత్యాలు
సిరీస్లో
స్టీఫెన్
ఎమ్మెల్యే
ప్రమాదాలు
మధ్యతరగతి
యురేపియన్
సంపాదించారు
గుర్తించదగిన
పాత్రికేయుడు
బర్మింగ్హామ్
సమీపఆసుపత్రి
కొనసాగించింది
##ణీయ
##oung
##పియా
##ప్తు
##ప్లి
##బ్లో
##లేమి
ఏదీ
చార
మంత
యజు
ఎండో
చిప్
జగన్
పౌరస
ముల్
స్థూ
##కముందు
##తుల్ని
##దానిని
##రాజులు
cells
##ండ్రియా
##కార్బన్
##క్కించు
##ఫికేషన్
comput
కిర్గి
చిన్ని
నాలుగే
రాహుల్
విత్తన
వీరుడు
సల్ఫర్
natural
కమిషనర్
చేయవలసి
పదకొండు
మహమ్మదు
మూలకాలు
సమీపపశు
ఉద్యమాలు
ఎప్పటికీ
మంగోలియా
వాయువులు
ప్రభావంతో
ప్రస్థానం
వాస్తవంగా
సమరయోధులు
##రాయశాస్త్రి
management
న్యాయస్థాన
పెట్టుకుని
ముద్రించిన
రూజ్వెల్ట్
పురస్కరించు
రోడ్దురవాణా
కార్యనిర్వాహక
గెలుచుకున్నారు
##ఘో
ఙ
##హ్న
##ాలె
రం
##కుర్
##డీన్
తమి
యన్
వయో
##umbai
##ంతరము
##అవుట్
wood
కుది
నాచు
ల్యూ
##వేమూరు
exper
గ్రాహ
వల్లభ
విడదీ
design
అలోపతీ
ఇండస్ట
ఉంచాలి
కామిక్
నాటకము
న్యూజీ
పంపారు
పాడుతూ
ప్రతిమ
భాస్కర
##క్లోరైడ్
##నున్నారు
ఆధిపత్య
గంగానది
టిబెటన్
పరస్పరం
పొరపాటు
లెక్కలు
విభాగాల
సర్దార్
అమలులోకి
ప్రమాదకర
మహాభారతం
శ్రీవారి
ఇంటర్ఫేస్
ఉద్యానవనం
కొద్దిపాటి
మిలియన్లకు
విభాగాన్ని
ఉపయోగించాడు
బ్యాక్వర్డ్
సత్తెనపల్లి
శ్రీమద్భాగవత
##ua
##iam
##కతా
##కాడ
##వున
ah
##avid
##కేట్
##టైమ్
##ట్టీ
##డితో
##మాలి
##యానో
-00
##india
##iting
##రీకరణ
##లపాడు
##స్తాన
##ాన్సీ
star
అగర్
అరిక
చమత్
చైర్
నాగా
భగత్
రెవి
శిఖర
అనంతర
గోడలు
తీరాన
రోగుల
కొలిచే
నవగ్రహ
పొద్దు
బార్క్
శిశువు
austral
special
అనుగ్రహ
అమితాబ్
కంపెనీల
కలుపుతూ
గ్రేటర్
నాయకత్వ
##స్వాతంత్ర
వాడేవారు
విరాళంగా
సాధించడం
సిలిండర్
##రించేందుకు
committed
నామినేషన్
మరికొందరు
కల్పించారు
గ్రామస్థుల
తెలుసుకొని
పత్రికల్లో
పేరుపొందిన
వ్యక్తిత్వ
పెట్టబడింది
సంవత్సరాలపాటు
##urg
##పస్
##పిట
##లేం
##వేద
ho
kn
##కర్ష
##చుకో
##పోగా
##యోజన
##లేడు
అనె
పిర
మెం
రాత
వేమ
##ంగిలి
##ంగీర్
##ంటిలో
##టర్న్
##డంబడి
##ూరులో
madh
male
prom
spir
అడ్ర
గృహం
బీటా
మహిమ
మాటల
మోడ్
సరదా
those
అన్నద
ఐఫోన్
భట్టి
భూగోళ
విండ్
##కోవడంలో
తగ్గిన
బాలాజీ
రఘునాథ
సంయోగం
సీట్లు
##స్థితిలో
చలికాలం
నిర్మిత
ప్రాచ్య
బృహత్తర
మరికొంత
వ్యవహరి
##చేయబడింది
కృష్ణుని
నిజాయితీ
ఫిలిప్పీ
రైలుబండి
విశ్వనాధ
తెచ్చింది
ప్రోత్సాహం
సముద్రతీరం
చిలకలూరిపేట
డాక్యుమెంట్
విష్ణుమూర్తి
సంపాదించింది
పేరెన్నికగన్న
ప్రదర్శించాడు
##కట
##ror
##wal
##ధరా
hp
##amma
##ober
##ulus
##గురి
##చాలా
##వయసు
bah
sir
ఇచట
బణు
##atory
##చర్యం
##లర్లు
##శ్చిత
##్రమహా
chin
dhar
mass
much
ఆపైన
చెంచ
పోగు
ఫండు
లెగ్
వాజ్
హాయి
##చుకుని
##చుకునే
##ధానులు
##లాబాద్
##శ్వర్య
##సాగాడు
ఆలోచి
కాండం
నాంది
నేలపై
ముసలి
లింగా
లొంగి
సంధ్య
సీరియ
హృదయం
కల్పనా
కళాఖండ
చట్టము
పాపయ్య
ఫోర్ట్
ముప్పు
రివ్యూ
విలువల
##చిత్రాలు
##భాగాన్ని
ఇతరులకు
విడుదలై
ఓడించాడు
గురుత్వా
దృశ్యాలు
పనిచేయడం
పెనుగొండ
మెడిసిన్
రసాయనాలు
టెర్మినల్
శరీరంలోని
##బ్రహ్మేంద్ర
జాగ్రత్తలు
పెట్టుకొని
బెల్లంకొండ
ప్రతినిధిగా
##టియంగ్రామానికి
##ney
##ogn
##raj
##కటి
##డారు
##యిక్
##స్వర
amb
ltd
ఎగి
కదల
కవచ
జలు
స్ల
##-000)
##టపుడు
##రిగిన
font
fore
gard
poet
ఉంటా
కనబడ
నిల్
పాతి
యాన్
లేచి
##ందరినీ
##కంప్యూ
admin
along
china
చేరువ
తెగలు
నరికి
##శక్తిని
having
secret
కిటికీ
చర్యను
దొంగలు
మాక్స్
##ట్రాయిట్
##మూర్తులు
అనికూడా
కారకాలు
మంగళూరు
తీవ్రవాద
పాండురంగ
ఫిజిక్స్
మార్చిలో
వ్యాధితో
శిష్యులు
షెఫీల్డ్
సీతాదేవి
ఆంధ్రప్రభ
క్రికెటర్
గ్రంథాలలో
తెల్లవారు
పరిపాలనలో
క్లుప్తంగా
ప్రయాణించి
ప్రదర్శించి
సాహితీవేత్త
క్రీడాకారిణి
రాజేశ్వరరావు
సాహిత్యానికి
ప్రతిపాదించారు
##తః
##,00
##0)0
##enn
##oms
##pan
##అమృ
##కుమ
ms
##rica
##థ్లె
మాథ
##ength
##truct
##కొనుట
##క్షణం
##షియస్
less
sept
థియో
నాటు
పరిమ
పిచ్
రియో
లాక్
సిటి
##/00000
##కొద్దీ
##పరిశోధ
##ల్లులు
teach
wheat
అబద్ధ
కల్లు
పట్నం
పిచ్చ
సంఘాల
ఆనవాయి
కంట్రీ
కుస్తీ
డిపాజి
నిర్ణయ
మారుతీ
వేడిగా
సినారె
సీతమ్మ
సువాసన
దేశములో
దేశాలతో
ప్రమేయం
మహారాణి
సిమెంటు
elements
అంగుళాలు
డిప్యూటీ
నెలకొన్న
ప్రమాణాల
రక్తపోటు
అభిషేకాలు
రాజకీయంగా
publishing
క్షేత్రంలో
డిసెంబరులో
పూజిస్తారు
శిథిలావస్థ
చెయ్యటానికి
నాటింగ్హామ్
సంప్రదాయాన్ని
##గాథ
##గోప
##చంద
##మేర
##వాయ
##శతి
##ూట్
##ayya
##band
##owed
##roph
##జనల్
##డినా
##శంకర
rub
ఉదహ
కనె
పటం
##ances
##ource
##రాదని
పీర్
బాపి
శాలి
స్కి
##orders
##వెన్స్
##శ్రీని
##స్టోన్
అనురా
ఆగ్రహ
కోయంబ
నడుము
నాయక్
##కరించడం
00-00%
report
అడవిలో
ఓటర్లు
దీపాలు
బండారు
బెదిరి
వున్నా
స్థలము
స్పిన్
##గలిగింది
అధీనంలో
కలుపబడి
తాండూరు
పచాయితీ
పార్టీల
పొడవుగా
మలేరియా
##ప్రతిష్ఠా
అలహాబాద్
వినుకొండ
కిలోమీటర్
జీవితాంతం
పాత్రల్లో
రాజకీయాలు
వివరిస్తూ
దేవాలయానికి
వ్యక్తిత్వం
తల్లితండ్రులు
వేంకటేశ్వరరావు
##iy
##అడ
##మగ
##తాప
##వాక
##హల్
ఎఫ
##empt
##itya
##osph
##ured
##ంకన్
##ండరు
##త్తో
##నెర్
##పాదన
##ఫుల్
##మంగా
##మేమి
##ళంలో
##స్థు
lik
sea
ఆత్
గంభ
చిక
దూడ
యాస
సలా
##లక్షణ
##వరంలో
$0.0
devi
అబ్ర
ఇటుక
గూడు
జగద్
జలపా
తలనొ
నూర్
వైరా
శిలీ
##త్రపతి
##సాగారు
total
అనుభూ
ఇజ్రా
తొక్క
నికరా
పరమశి
పాండవ
బెల్ల
##త్తులను
##లేకుండా
##సంస్కృత
మారాడు
వారంలో
సవరించ
సహాయము
హయాంలో
అడ్డంగా
ఏమాత్రం
చెందును
జాయింట్
భావాలను
మనిషికి
##మిస్తుంది
children
ఆగస్టులో
కలిగినది
తగ్గించి
పెరిగాయి
వృత్తిలో
స్కాటిష్
కజకస్తాన్
కారణమైంది
మెక్సికన్
సమావేశాలు
0000000000
జ్ఞానాన్ని
ముద్రించారు
శేషగిరిరావు
ప్రిన్సిపాల్
వాతావరణాన్ని
##ంఖ
##జొ
##'';
##డగా
##దిత
ec
భజ
##back
##క్కొ
##నాని
##పైనే
##ప్టో
##భరిత
##రవరం
##సికో
##సైట్
##ులర్
kam
nec
ఓర్
దహన
##istic
##tract
##మల్లె
##ారిక్
read
text
ఓట్ట
ఖండా
పొది
భేదం
వడ్డ
సత్స
##ర్లాల్
##స్సాన్
train
ఎముకల
కార్ల
చదవడం
పరిగె
పుచ్చ
##ప్రవేశం
అపూర్వ
ఒడంబడి
కులాలు
కృతజ్ఞ
భావనను
ముప్పై
లీటర్ల
##,000,000
చేసినది
యుండును
రూపాలలో
ఆలయంలోని
ఉద్దేశ్య
ట్రాన్సి
రెవిన్యూ
ఆంజనేయులు
దక్షిణంగా
పరిశీలించ
విద్వాంసు
సర్దుబాటు
పోర్చుగీస్
ప్రజాశక్తి
ఫిబ్రవరిలో
విభిన్నమైన
ఉపాధ్యాయుడు
ఎలెక్ట్రిక్
కురుక్షేత్ర
గెలుచుకున్న
చేతులమీదుగా
ద్రవ్యోల్బణం
పునర్నిర్మాణం
##0}
##pm
##{|
##ार
##బయ
##gin
##iya
##మలై
##కర్ణ
##కిరి
##డీలు
##ఫ్రే
##యమ్మ
##వాదు
##సూరి
##స్పద
##హిల్
exp
jag
కణం
మూఢ
లిబ
వడ్
##కర్తల
##గుజరా
##చక్రం
##చుక్క
##టింగు
##ప్షన్
requ
vict
అరవై
జారి
డాగ్
నిపు
పీడన
బీజా
మిచి
శృతి
##ifolia
##ద్వార్
##ప్రదేశ
##లకుండా
##లియన్ల
తత్వం
తెలుప
నాదల్
బల్లి
మరాఠా
యేర్ప
సిఫార
##వర్సిటీ
ఆకులను
కార్బొ
తుపాకీ
నామవాచ
నిష్ణా
పదహారు
యదార్ధ
వాక్యం
సువర్ణ
00,000,
islamic
అడవులలో
జపాన్లో
దుర్యోధ
ప్రత్యు
రాజనీతి
congress
ఎలక్ట్రా
కార్తీక్
చెపుతారు
తోడ్పాటు
బృహస్పతి
మిత్రుడు
సుల్తాను
##పరుస్తుంది
నాటకాల్లో
వాదించారు
వెంకటరావు
ఆర్మేనియన్
శ్రీరాముడు
తీసుకువెళ్ళ
విజయలక్ష్మి
ఆకర్షించింది
పాలీటెక్నిక్
దక్షిణామూర్తి
శాస్త్రజ్ఞులు
##.”
##యక
##ran
##వెం
##శిఖ
తగ
##ంతుల
##స్యా
యావ
##eding
##చువల్
##డుగుల
##బడేవి
##ినేట్
000;
full
meas
raja
wild
ప్రబ
వాగు
శ్రా
హెవీ
##ension
##నెస్కో
##ప్రముఖ
##మ్లెర్
అథ్లె
అన్నే
కావటం
ఖలీఫా
పట్టీ
మదురై
ముళ్ళ
గిన్నె
త్వరిత
విలేజ్
సుభద్ర
కేంద్రక
క్రాంతి
ఖర్చులు
గర్భాశయ
తాత్విక
తేదీలలో
ధర్మవరం
పరిశోధక
శక్తిగా
అంతేకాదు
జాబితాను
సంస్కర్త
(0000-00)
దగ్గరలోని
ప్రముఖుడు
సర్క్యూట్
సూచించాడు
శతాబ్దములో
ఆరోగ్యానికి
ప్రారంభమైనది
కలిగివుంటుంది
ప్రపంచవ్యాప్త
ప్రయత్నించాడు
నిర్మించడానికి
wa
##త్రో
##దేవీ
##నైల్
##రాను
##వానా
##హాడ్
fin
rup
ఆసి
కోల
జమి
ధార
##itual
##ంగెన్
##ంశంగా
##కర్బన
##తారని
##యుటకు
##వారము
plan
pras
అంతం
అందం
డ్రీ
నాదె
పాపు
వత్స
సాటి
సూఫీ
##కర్తగా
genus
అడవుల
ఆజాద్
కరాచీ
తిండి
ద్వేష
కలెక్ట
చేయడము
పేరుగల
బ్యాట్
మందును
మాంసకృ
మెట్లు
రహస్యం
వాస్కో
similar
ఇబ్బందు
కన్నుమూ
తరగతికి
నంద్యాల
పాండవుల
పేదరికం
సంప్రది
mathemat
కంపెనీలో
కాన్పూర్
తగ్గించు
తీసుకువె
అనకాపల్లి
చంద్రగిరి
ముగింపుకు
వెంకట్రామ
దీక్షితులు
మాంట్రియల్
వర్ణించారు
వ్యాపారంలో
హార్డ్వేర్
ప్రభావానికి
రెస్టారెంట్
వ్యాపించింది
రూపొందించింది
##ls
##పధ
##ోద
##nic
##oid
##మనో
##సఫ్
ఆమ
##గోళం
##చూరు
##బయలు
##బ్రీ
##మ్లో
fal
img
ఉంగ
##trans
##కర్ణి
##త్తము
##మాతరం
##ెత్తి
ఉద్ధ
దాచి
నాశన
పెంట
భృగు
వెదజ
##కారాలు
##టందుకు
##స్తుండ
##స్థుడు
birth
అనసూయ
ఈశ్వర
ఎరువు
దాఖలు
నవలకు
నాణెం
రౌండు
##ప్మెంటు
making
అవధానం
ఆహారము
ప్లేస్
భూటాన్
మరొకరు
విరామం
స్టోరీ
##ోత్పత్తి
illustr
అనేకమైన
అహమ్మద్
ఇస్తాయి
చివర్లో
డబుల్స్
పన్నులు
ప్రేమకథ
శివలింగ
సత్యభామ
ఉపకరణాలు
పరిశుభ్ర
ప్రాసెస్
ముందస్తు
స్కూల్స్
ఒక్కోసారి
కావాల్సిన
తెలుగునాట
దక్షిణాది
పరీక్షలలో
పౌనఃపున్య
కావ్యాన్ని
కొనసాగింపు
రెండింటినీ
##నారాయణరెడ్డి
శాసనసభ్యులు
సంఘంగ్రామానికి
##apa
##xic
##ఎర్
##చుట
##నటి
##భగవ
##భుజ
##ాకా
‘‘
##apan
##oori
##క్కర
##గోల్
##మ్లా
##విష్
ఆబ్
కణి
తలం
##wards
##ఎలక్ట
##సుందర
poly
rest
చాటి
రాను
లారీ
##పురాతన
ఒరియా
దర్యా
మంజరి
రాగము
రాళ్ళ
వైభవం
సంజయ్
##కొన్నది
##కోవడంతో
కాండము
కేసులో
క్షీణత
గుప్తా
డొమిని
ప్రతీక
మొగుడు
వీక్షణ
వైకుంఠ
సిక్స్
స్థిరా
##కాలంలోనే
##గ్రాడ్యు
##రామచంద్ర
తొలగించ
నిర్వచన
నివాసము
మాండలిక
మారథాన్
హక్కును
ఔరంగజేబు
కవయిత్రి
దేశభక్తి
స్క్వార్
మధ్యాహ్నం
విజయానికి
సమాజాన్ని
సర్వీసులు
సాధారణమైన
హామిల్టన్
పుట్టపర్తి
ప్రణాళికలు
ఫిలిప్పైన్
భువనేశ్వర్
మిర్యాలగూడ
లేకపోవడంతో
ఉష్ణోగ్రతను
చలనచిత్రాలు
మున్సిపాలిటీ
విద్యార్థులను
నేర్చుకున్నాడు
##,0
##gs
##pat
##జీల
##ధిర
##పేద
తహ
##aken
##sych
##thod
##కోశం
##క్టు
##గలడు
##పోతు
##ఫెల్
##వాడే
##ూడెం
ఆశు
పుల
సమే
##తాలను
##దేవన్
##ప్పర్
##లలోనే
song
కుంట
క్లీ
క్లౌ
డ్యు
దశరథ
సంచి
సబర్
##చ్చేరి
##త్తాయి
field
ఆల్ఫా
జలాలు
దాడుల
నడిపి
బియ్య
వగైరా
##వాతావరణ
mumbai
ఎకరాలు
కల్చర్
కాపురం
కాలంగా
గుడ్లు
చల్లగా
చార్జ్
న్యూరో
మాలిక్
##జీవితంలో
##పురానికి
capital
అందరికి
ఆస్కార్
కరెన్సీ
గుజరాతీ
రాంబాబు
వంటకాలు
క్రిస్టో
ముందున్న
political
కళారూపాలు
గోపాలరావు
చెన్నకేశవ
ఫలితాన్ని
వారిద్దరూ
వ్యాఖ్యాన
philosophy
పదార్ధాలను
అందిస్తున్న
చేజిక్కించు
ప్రపంచాన్ని
ప్రయోగించిన
కొనసాగించాడు
ప్రేక్షకులను
సంప్రదాయానికి
##గరీ
##comm
##క్సై
##జియో
##ప్పొ
##బాహు
##విధా
ఆశి
వడి
వెడ
##ంగారి
##చనాలు
##జీపేట
##మనిషి
##విరమణ
##సిద్ద
అఖండ
ఉండక
డైరీ
నర్మ
##ంచాలని
##ంపూర్ణ
##గాంచిన
##బ్యాక్
##మహిళలు
##ళ్ళూరు
##విల్లే
క్షమా
పాటలో
బజారు
యూదుల
విజయా
సన్నా
##itation
##ఫెక్షన్
ఆశ్రయం
కమాండ్
గోల్ఫ్
తైమూర్
విరిగి
స్వామీ
##రామకృష్ణ
ఉండేదని
దొరికిన
పార్శ్వ
ప్రధానం
మెత్తగా
సమీపఇతర
సామెతను
హనుమంతు
అవశేషాలు
ఎరిక్సన్
కార్డులు
చరిత్రకు
దక్కింది
విద్వాన్
వెంకటేష్
వేరుచేసి
శాటిలైట్
సామాగ్రి
స్వామికి
అవసరాన్ని
చూపించారు
పరిగణలోకి
యంత్రాంగం
తెలుసుకుని
పడిపోయింది
ప్రదర్శించ
మరణించింది
న్యూజీలాండ్
ప్రధానపాత్ర
అంగీకరించారు
ఏర్పాటుచేసిన
ఎంటర్టైన్మెంట్
##ges
##థ్య
##రసం
ud
ఉధ
థై
నయ
##గ్బీ
##పరిణ
##మ్మే
##రీన్
##వనంత
##ష్టీ
net
pul
ఖర్
దైన
పోల
బోయ
సవా
##itude
##బోయిన
##భారత్
##స్మిక
##ానిధి
##ారంగా
##ెట్స్
case
ఊరగా
దేశీ
బుష్
మెలి
సంగం
##ధుల్లో
##పరిచిన
అనిల్
ఆపిల్
కోసమే
భుజాల
విషాద
సంఘటి
##eration
africa
అదృష్ట
గొట్టం
చేయలేక
దాడిలో
పూజారి
బచ్చన్
మండేలా
మీడియం
హిరణ్య
continu
systems
వృద్ధాప
వెనక్కు
సమృద్ధి
కాశ్మీరు
నివారణకు
ముదిగొండ
విశేషమైన
శాసనసభలో
సర్వస్వం
సుందరమైన
ఉండడానికి
కమర్షియల్
చేయబడినది
పట్టణాలలో
ప్రస్తావి
##కరించబడింది
considered
అవార్డులను
సరిపోతుంది
తెలుసుకోవడం
నిర్మించబడి
నారాయణరెడ్డి
శ్రీకృష్ణుని
నిర్ణయించింది
రామకృష్ణారావు
ప్రదర్శిస్తుంది
##0(
##cil
##urs
##వటం
##షప్
చర
ష్
సన
##anum
##marg
##otic
##కవిత
##కోల్
##ల్యూ
##హారీ
shr
మహీ
యిత
రంజ
రెం
లిట
##inary
##ledge
##ంపబడు
##అన్ని
##మ్మర్
##రింగు
##ెయిన్
raju
synd
ఎలాగ
కాక్
కెర్
కేర్
కొరి
ఖండం
చాన్
టివి
పంపే
రోజ్
విష్
##idence
##ఎస్ఎస్
##పించడం
##పిల్లల
bound
ఇళ్ళు
కాలిన
చూడటం
యాదవ్
సమ్మి
##స్తులకు
అద్వైత
ఈవెంట్
కువైత్
టొరంటో
త్వరలో
రొట్టె
లోతుగా
సున్నీ
స్వప్న
members
support
అందించి
ఆకాశంలో
చైతన్యం
ట్రెంచ్
మరణించే
విధ్వంస
విలాసము
శ్రీశైల
సత్యవతి
##ృతరాష్ట్ర
ఉన్నతమైన
ఒక్కసారి
తెలుపుతూ
బ్రాడ్కా
వివాహాలు
విశిష్టత
సియాటెల్
##చుకున్నారు
represent
దీర్ఘకాలం
నాయకుడిగా
పలుమార్లు
పుష్కలంగా
సూత్రాలను
తిరునాళ్ళు
ప్రణాళికను
ప్రింటింగ్
అనిపిస్తుంది
పునర్వ్యవస్థ
విస్తరించాయి
సెప్టెంబరులో
స్వామివారిని
గెలుచుకున్నాడు
ప్రకటించబడింది
##hal
##olv
##pal
##sal
##లాగ
*🔗
ha
je
ny
##=00%
##trum
##జెల్
##డంపై
##యాలి
##రెడ్
##స్లే
bad
##aries
##పరచడం
##రంగుల
home
ఎండ్
కల్ల
చేర్
చేసా
పిట్
పితృ
పూను
లోగో
వరాహ
సోలో
##కుడిని
##జాతులు
##నిస్ట్
##ప్యాడ్
##సృష్టి
mahar
ఇచ్చు
ఈస్టి
పుటలు
బోధనా
రాకపో
వేంగి
శోభన్
##artment
##చడానికి
##వంతులైన
origin
struct
ఉపశమనం
కార్న్
చేతికి
నైరుతీ
సూర్యో
##నెల్లూరు
##వైశాల్యం
అనుభూతి
ఆకస్మిక
ఎక్స్ఛే
జనాభాను
జీవవైవి
తొందరగా
పండుగను
ప్రతిగా
వర్తమాన
శివరావు
ఆనవాయితీ
ఆల్కహాల్
కాళహస్తి
గుర్తుకు
నరసాపురం
అనుసరించే
గౌరవాన్ని
పురాణాలలో
ప్రాదేశిక
మద్యాహ్నం
విభాగాలను
సముద్రతీర
సీతారాముల
అనుకోకుండా
కామేశ్వరరావు
గురుత్వాకర్షణ
ప్రచురించబడిన
వినియోగిస్తారు
##"),
##sch
##కండ
##కరు
##సీల
##face
##ద్వై
##భ్యు
##మూలం
##రేటు
##సూరు
##స్యూ
##ించె
#00
alt
blu
sac
ఇళయ
కడు
జయం
పెర
బిగ
యని
సమత
సిక
##చుటకు
##మాసిక
##ాలియా
కోడు
డబ్బ
దివి
నటీన
పగలు
పూరి
ప్లీ
##ంతవరకు
##వెంటనే
named
princ
tamil
నరేష్
మహాను
రచనకు
వీలైన
సంసార
object
ఆస్తుల
కొలతలు
చెందని
డార్క్
దక్కన్
శరీరము
శ్మశాన
సెక్స్
##సంస్కృతం
##ించిందని
edition
కోల్కతా
ఖనిజాలు
నాటకరంగ
పాఠశాలల
ప్రసన్న
బలాన్ని
బృందంలో
వామపక్ష
శీతోష్ణ
##ictionary
టాబ్లెట్
తండ్రిని
పెరుగును
యున్నారు
శ్లోకాలు
అవకాశాలను
క్రిందికి
ప్రత్యేకి
సాధించాయి
అభ్యర్థులు
కనిపించారు
యంత్రాన్ని
అనారోగ్యంతో
శ్రీరామనవమి
శాస్త్రాన్ని
లభిస్తున్నాయి
##iti
##tic
##use
##తత్
ja
##-00.
##క్తం
##జెడ్
##ఠాయి
##యామి
##రానా
##రైలు
##రోజ్
hot
syn
tit
అమో
అరా
ఏరో
నాథ
##ంరాజు
##ఉర్దూ
##రంజని
##విందు
cond
love
కలది
కాంప
కాళీ
జైన్
యెడల
రజనీ
విన్
సరసు
##జ్ఞుడు
##వాటిలో
ఋతువు
ఎందుక
తిలకి
శాంటా
సంజ్ఞ
సచ్చి
0,000-
ఆర్థర్
ఆవర్తన
ఉత్తేజ
కండరాల
కలవాడు
కాన్స్
కోరారు
క్వాంట
గుడ్డు
పిలిచి
మోక్షం
లోపాలు
వీనిలో
##ాల్సిందే
లెబనాన్
వ్యాసము
సంపుటము
హ్యూమని
building
northern
అధిపతిగా
ఆలోచనలను
కామిక్స్
కోర్సులు
గీతాన్ని
బాపిరాజు
యజమానులు
##స్థానాన్ని
క్రిస్మస్
చికిత్సను
చెప్పబడిన
ప్రసారాలు
వ్యాసాలను
తొలగించారు
వంటివాటిలో
వ్యాపారాలు
ఆసక్తికరమైన
చట్టవిరుద్ధ
దేవాలయాన్ని
నెలకొల్పారు
ప్రసిద్ధులు
శ్రీరామకృష్ణ
సౌకర్యమున్నది
म
##bal
##rat
##అన్
##రోజ
##వీయ
##వేత
##ష్మ
##ాంత
##ికే
##mail
##ంచగా
##కెర్
##జిలీ
##దీప్
##నోపా
##ర్రె
ceo
dar
కవల
డీల
నాళ
లని
##తెల్ల
##యన్ను
##విజయం
##శుద్ధ
sand
అస్త
తొండ
తోసి
మరచి
రోల్
వర్థ
##ending
##కావ్యం
##నొప్పి
00–00
కారకం
దూరము
నదిని
పేర్ల
మహేష్
వేశ్య
##లక్ష్యం
famous
ఆండ్రూ
క్లిక్
చేకూర్
డిప్లొ
నారింజ
నిర్వి
పిడుగు
ఫ్లాష్
బ్రూస్
రొమ్ము
విక్రయ
సమూహాల
స్టీవ్
స్పాన్
అల్లూరి
గమనించి
చర్యలకు
టెంపుల్
తల్లిని
పురోగతి
వేదికగా
000-0000
కొవ్వూరు
తాలిబాన్
పార్టీని
బంధువులు
రహదారిలో
రుక్మిణీ
వ్రాసాడు
శ్రీకారం
##గ్రామంలోని
చేయాల్సిన
పరిమితమైన
స్టూడెంట్
చదువుకున్న
తిరస్కరించ
పేరుగాంచిన
వచ్చినపుడు
educational
కోల్పోయింది
ఇండిపెండెంట్
నిర్దిష్టమైన
మహాశివరాత్రి
ఉపయోగిస్తున్న
##gi
##bre
##can
##mer
##ray
##కొల
జౌ
##ంతిక
##డయిన
##సప్త
##సాగర
##సికా
##సౌత్
log
pak
ఔట్
చామ
బాగ
యాగ
##ivity
##చోట్ల
##ములపై
##ములైన
##ల్లిన
##శ్వరి
turk
కొల్
క్యు
టామ్
బంతు
మాధు
రీతి
రేసు
లిస్
సరోజ
##ంటోంది
##క్వెన్
##దారుగా
##పార్టు
##యోగ్రా
##సామ్రా
##సురుడు
psych
stone
study
ఉదజని
ఎదుటి
కొన్న
గుణము
టేలర్
దుర్మ
భక్తు
వలసలు
##ఆక్సైడ్
##న్నాయని
##స్తుంటే
flower
member
అన్నసమ
ఐలాండ్
పీపుల్
ప్రాబల
మిలటరీ
యజమాను
రంగనాథ
రుజువు
##పనిషత్తు
##వినియోగం
ఇస్తాడు
చెందాడు
తీసుకొన
దుస్తుల
పడ్డాడు
బరువును
భార్యలు
హార్బర్
##సమీపస్వయం
document
చేరుకుని
తొమ్మిదవ
నవంబరులో
నిస్సాన్
పదార్ధాల
పూర్వపదం
వెనుజులా
సంస్థలతో
సినిమాగా
important
అనువాదాలు
కాలిక్యుల
ప్రత్యర్థ
వివరించిన
కాశీనాధుని
ప్రతిపత్తి
ప్రదర్శనను
మినహాయించి
మేరీల్యాండ్
చెప్పవచ్చును
సామర్ధ్యాన్ని
##ias
##ocr
##ube
##లోహ
##0.00
##ises
##riev
##కృషి
##గ్నీ
##తన్య
##త్తూ
##రీతి
##వేల్
##హితం
hen
sms
vas
కరే
కుశ
కోత
గోచ
తరత
రాశ
శబ్
హంత
హీన
##క్కర్
##యర్లు
##రోజున
##సారథి
heav
june
wall
అన్య
ఆంటి
గెల్
చావు
ట్వి
బాణా
రచయి
##ల్లాలు
parts
story
ఎలుగు
గౌరవి
తుమ్మ
పందెం
బలవంత
మధ్యమ
మెప్ప
యున్న
##దేశాలలో
##శ్వరుడు
##్యూరిక్
కన్సల్
ఛానెల్
పర్యాయ
మనసులో
రైట్స్
సంతోషం
హతమార్
version
ఏడుగురు
చైనీయుల
దేశోద్ధ
వాహకనౌక
అవార్డుల
తలనొప్పి
నివాసాలు
ఫ్రాన్సు
సాక్ష్యం
స్తంభాలు
హైస్కూలు
ఇతివృత్తం
ఉత్సవాలను
చికిత్సకు
నైట్రోజన్
చదువుతున్న
డెట్రాయిట్
బ్రహ్మచారి
విలక్షణమైన
అభ్యసించారు
న్యూక్లియర్
కృష్ణమాచార్య
జరుగుతున్నది
పెన్సిల్వేనియా
ప్రతిపాదించాడు
##ele
##గరా
##బయో
##లీయ
##వాళ
##ేది
ఒల
టౌ
##arat
##here
##pers
##work
##డాడ్
##పోటీ
##యెన్
##రైన్
##వేదన
##సమాజ
ped
అధో
కోశ
మూగ
##south
##కొమ్మ
##ప్పన్
##భూషణం
##వంతుల
##స్టరీ
gall
ఆచంట
ఉమర్
కనపడ
కల్వ
జాకీ
తనతో
ధార్
నకలు
నికర
పుదు
పూరణ
ప్యూ
బాయి
రెజ్
రౌడీ
లుగా
సూది
సెమి
##కెట్టు
##నాల్డో
##రేడియో
అగును
అత్తి
నాలుక
పీనల్
రమణీయ
వికలా
bengal
ఇతడిని
కోరుతూ
గిడుగు
పాదాలు
పాలకుల
పోయాయి
ఫెయిర్
లెనిన్
సెర్చ్
##రళీకృష్ణ
##విద్యుత్
counter
program
ఏనుగులు
తర్జుమా
తెల్లగా
పరిధిని
రాఘవయ్య
రాజ్యము
వేరుశనగ
సన్మాని
కుడివైపు
తుంగభద్ర
బెల్జియం
వ్యాసంలో
సింహాసనం
సిక్కులు
##అంతర్జాతీయ
##స్థానానికి
అబ్దుల్లా
ఆధీనంలోకి
కల్పించడం
డివిషన్లో
ముక్కలుగా
వ్యాధులకు
సృష్టించి
చేసుకోవాలి
డెన్మార్క్
మహోత్సవాలు
ramakrishna
కుటుంబాన్ని
ఇండస్ట్రియల్
వ్యాపారాన్ని
చెప్పబడుతుంది
సికింద్రాబాదు
తెలుసుకోవడానికి
##hs
##ici
##ift
##pol
##ఆమ్
##గూఢ
##శిర
##సూప
డౌ
న్
##head
##ites
##కోడి
##టంగా
##తిక్
##నికా
##మర్శ
అడగ
ఆరే
ఘనీ
మౌఖ
##iddle
##thers
##ంతోనే
##ందనలు
##గొల్ల
##మిషన్
camp
resp
russ
webs
అజయ్
అతిథ
కశ్య
గందర
గణేశ
దళాల
దావా
ద్వా
ఫ్లూ
సహిత
##పుట్టు
##పురాణం
##రోడ్డు
##సాహితీ
##సైక్లో
##హరించు
built
lower
print
ఉపఖండ
గణనను
తినడం
ప్రవర
మమ్మీ
##మీటర్లు
##స్తాడని
##్రిబ్యూ
leaves
oxford
ఏజెంట్
కిషోర్
దృఢమైన
నటీమణి
పాలనకు
పైబడిన
మందిలో
వెల్ష్
వ్రాసే
సుభాష్
సూర్యు
హైవేతో
ఆస్తులు
ఎత్తయిన
ఎపిసోడ్
దీనివలన
నందిగామ
పరీక్షల
పూర్ణిమ
అనుభవాలు
చేసుకొనే
త్రిపురా
పర్వతారో
లక్ష్మణ్
వారసత్వం
##తెలుగుదేశం
రక్తాన్ని
##రెడ్డిపల్లె
జర్నలిస్టు
డెస్క్టాప్
ల్యాప్టాప్
వెంకటరత్నం
వ్యాఖ్యానం
గుర్తింపుగా
జాతీయరహదారి
శ్రీరామశర్మ
##cs
##తయ
##ulf
##పలు
##ఫ్ఫ
nt
శక
##రెట్
##లీస్
##ళ్లే
##స్సే
fda
por
som
అతు
జయల
తాక
పోచ
సహో
##ended
##ormal
##గ్రాం
##జినల్
##రసాయన
##షన్ను
##స్రావ
##స్వరం
##హారము
feat
take
ఆవిడ
కర్బ
కాప్
జెస్
టూరి
డాక్
దాగి
దిక్
వెదు
##కునికి
##త్రజని
##నపల్లి
##ించుచు
fruit
level
కనబరి
పక్షం
పీఠిక
బాబర్
ఒకవైపు
కథల్లో
కిన్నె
కొట్టా
కోణంలో
క్రోమో
గిరాకీ
రిసార్
లింకన్
వల్లనే
సునీల్
##పొన్నూరు
##ప్పలపాడు
##స్వతంత్ర
journal
ఆచారాలు
ఆతిథ్యం
దేవాదాయ
నిధులతో
నిరంకుశ
ప్రజాతి
శక్తికి
అంతకన్నా
కాలంనాటి
చెప్పాలి
భగవంతుడు
సభ్యులకు
చికిత్సలో
నిర్ణయాలు
పాలించాడు
బిలియన్లు
వేయడానికి
ఈస్టిండియా
ఉన్నటువంటి
దివ్యాంగుల
స్క్రిప్ట్
established
గుర్తించాడు
చిత్రకారులు
వెలువడ్డాయి
వ్రాయబడింది
స్వభావాన్ని
హైదరాబాద్లో
##)-
##get
##iqu
##mir
##ముర
ub
యల
##adev
##inct
##చుకు
##ద్భు
##నేడ్
##పుష్
##సంధి
ibn
rul
ఔర్
చీమ
డయో
పంజ
వాజ
##ర్యము
##ెంట్ల
0–0,
anal
ఆవుల
కాకు
కాను
జమున
తనకి
మునగ
మూలక
యూత్
వికి
సాలి
స్టు
##పుచ్చు
##ర్లెస్
##శుద్ధి
##శ్రద్ధ
##ించడము
incre
అతికి
అధ్యయ
ఆధుని
కాలేయ
కోడలు
పదార్
పలకలు
మీదకు
లౌకిక
విపణి
##ంటుందని
strong
ఒకరికి
గుణాలు
చట్టాల
ధాన్యం
నేరాలు
పోస్టు
వీధిలో
##న్నారాయణ
attempt
connect
అమర్చిన
ఇష్టమైన
కారణమని
చూసింది
దుష్ప్ర
ధనాన్ని
ప్రహ్లా
రావణుని
వేంచేసి
శిల్పకళ
##కరించబడిన
త్రివేణి
నమూనాలను
పర్యాటకం
యునెస్కో
రామానుజా
లావాదేవీ
ఉంచడానికి
ఏర్పరచును
చేయించారు
చేసుకుంటూ
జరిగిందని
అంత్యక్రియ
దర్శకునిగా
పరికరాన్ని
ఫ్రాన్సిస్
స్ఫూర్తిని
చారిత్రకంగా
నియమించింది
రాజకీయవేత్త
వెళ్ళడానికి
చదువుకున్నారు
తొలగించడానికి
##))
##df
##తై
##aps
##గరి
##దొర
యొ
##నికే
##భట్ట
##మ్లు
##లాడి
##లిగి
కలశ
దత్
సలీ
##imate
##త్తిక
##త్రుల
##యాంగ్
inst
july
sank
test
ఎలుక
కలవు
ఖుర్
చంద్
ధృవీ
పేజి
బాణీ
భావో
మణిక
రేట్
విరో
##కేషనల్
##జీరియా
##మైలవరం
##ళ్లుగా
asian
young
అమ్మే
క్యాథ
బ్యాల
మచ్చు
విప్ర
సెంటి
##ంగుటూరి
##భరితమైన
ఎముకలు
కథానిక
కేరళలో
కొట్టే
గువేరా
టికెట్
ముఖ్యా
##collapse
00.00%.
council
purpose
అండమాన్
అధిష్టి
పడ్డారు
లాంటిది
##వలసిందిగా
అమర్చారు
ఉండొచ్చు
తీసికొని
మార్గంగా
వివాదాలు
సురక్షిత
చిలకమర్తి
వస్తుందని
స్త్రీలలో
##ఆస్ట్రేలియా
సంపాదకత్వం
చేర్చబడింది
ప్రధానమైనది
భావించేవారు
వార్షికోత్సవ
వీరబ్రహ్మేంద్ర
##स्
##bes
##ees
##icy
##సను
##andi
##idae
##iper
##iple
##కంటి
##క్రై
##చయిత
##నితో
##బెక్
##లిజం
##వ్రా
##స్మో
##ాలనీ
అయా
ఆడం
ఋజు
జల్
నమా
బట్
భంగ
యశో
హడ్
##బడ్డా
##మర్రు
##మాలిక
##ుడిని
code
dodo
kill
అవలం
కెమి
జలాశ
ధారణ
ధోరణ
ముగ్
##avaram
##కెల్లా
##ఫ్రెడ్
##రుగుడు
##రోజులు
##ల్పూర్
grand
భాష్య
వంటకం
సారంగ
సీతను
##ందువల్ల
అంటాడు
ఎర్రని
గుత్తా
గురికా
దారులు
నిరోధి
ఫాల్కే
వారాలు
వుండటం
శెట్టి
సిక్కి
స్ట్రో
హోమియో
##ద్యాన్ని
##మవుతున్న
muslims
అనుమాని
కళ్యాణ్
నెల్సన్
పొలాలకు
పౌరులకు
సుధాకర్
ఇరానియన్
త్యాగరాజ
పడుతున్న
ఫార్మాట్
మొక్కులు
వన్డేలలో
వెలుగులు
సాగించిన
september
గ్రామదేవత
పోర్చుగల్
వ్యాఖ్యలు
##పడుతున్నారు
లక్ష్మీకాంత
కనుగొనబడింది
పురస్కారాలను
సంక్షిప్తంగా
ప్రధానోపాధ్యా
##గన
##భగ
##వంక
##వహణ
##cted
##side
##కీలు
##గూరు
##చెల్
##ద్రు
##యూని
##ర్గ్
##ర్న్
##లికల
##వేవ్
##సాల్
##హారి
##ారనీ
:{|
den
iso
low
జార
టచ్
##arily
##ందాయి
##దృశ్య
##వతారం
##శిష్ట
##సింహం
foot
gang
lake
చేదు
జ్యో
పేరే
మండప
మండు
రారా
లాంఛ
లాభా
##కోవటమే
##ల్లీస్
##సుకుని
local
paint
ఇన్ఫో
గర్భి
డిజైన
ప్రాబ
లబ్ధి
##ంచుకొని
##యున్నది
అమ్మకం
చెక్కి
తృప్తి
ధైర్యం
మార్పి
వారంతా
వారిపై
సాహితి
సిగ్గు
##ందించారు
##నప్పటికీ
##పద్మభూషణ
##బ్రిటిష్
ఆర్కెస్
కాకపోతే
ద్వారకా
ఫంక్షన్
భరద్వాజ
భారతీయు
భార్యను
వంతెనలు
శత్రువు
సంక్షోభ
స్వరూపం
constitu
అంటార్కి
కేంద్రీయ
చంద్రుని
తిరువనంత
పాంటింగ్
స్టాన్లీ
##మండలములోని
కల్పవృక్ష
జవహర్లాల్
పర్యావరణం
పొందుతాడు
లేనప్పుడు
వెన్నెముక
వ్యాఖ్యాత
స్వగ్రామం
పురస్కారము
ప్రొడక్షన్
మహాభారతంలో
బ్రాహ్మణుడు
(0000-0000),
కోటేశ్వరరావు
ప్రతాపరెడ్డి
కనిపిస్తుంటాయి
##igr
##lin
##tel
##చాల
##మాచ
il
##akar
##cean
##ఆత్మ
##చ్చె
##నాధీ
##మాటో
##మిల్
##వికా
##వేది
గౌడ
ముజ
##ficus
##కుమార
##భిషేక
##వియన్
##ీనగర్
##ెనిమి
rain
seen
అశోక
గౌరి
జీడి
తారీ
దండి
నేమ్
పోటు
మాహా
లోటు
హాన్
హీట్
##ద్దులు
##పురుగు
##ముక్కల
##వేరియా
still
జలపాత
తండ్ర
దర్శి
రగ్బీ
రాబడి
లీడర్
సామంత
##చెస్టర్
##ించినది
office
reason
అడుగున
క్షీణి
గుడిలో
చక్రాల
డాన్స్
నమ్మిన
భీముని
##గ్యాన్ని
##గ్రాములు
##పూరితమైన
##వస్తుంది
respect
అందించు
ఆనుకొని
కల్చరల్
గృహాలలో
చేతులతో
ఛందస్సు
బహిర్గత
రంగనాయక
వీరవెంక
సన్మానం
సమాధులు
సిఫారసు
సౌలభ్యం
##కార్యక్రమ
##సంవత్సరాల
##ించడాన్ని
ఆప్టికల్
ఆల్బర్ట్
త్వరలోనే
ప్రభాకర్
మైదానాలు
మోతాదులో
రాజపుత్ర
హిందూమతం
ఇన్సులిన్
కవిత్వంలో
కుటుంబకథా
త్రైమాసిక
పునర్జన్మ
రెట్టింపు
కాలిక్యులే
నియంత్రణలో
ప్రదర్శనలి
ఆకర్షణీయమైన
ఇన్స్టిట్యూ
సల్ఫ్యూరిక్
విశాఖపట్నంలో
డెవెలెప్మెంటు
అందిస్తున్నారు
రూపొందించడానికి
##సృ
##aga
##agn
##bir
##law
##pre
##ందె
##అంగ
##చగా
##నరస
0;
##''),
##పురు
##ఫ్ఫ్
##యువు
##ల్యా
##వుండ
0,0
గీయ
యాన
##ంచినా
##క్చర్
##పురాణ
##ప్పుడ
##వధాని
ఐఐటీ
టైపు
తార్
పాపం
ముడు
##కూలంగా
##డాక్స్
##దిద్ది
##నాథుని
##మాటిక్
##యోక్తి
##యోగాలు
##విల్లె
అర్జె
ఆత్మా
గాథలు
పన్నె
పళ్ళు
ప్రమో
మౌర్య
శ్రేయ
సిక్ఖ
##(0000),
##క్టర్స్
##గురించి
become
french
likely
satyan
అంచనాల
ఆడమ్స్
ఒకనాడు
నికెల్
పూర్వా
పోయినా
విడిది
వియోగం
వేశాడు
శకుంతల
సమీపాన
##క్రీస్తు
ఇబ్రహీం
కమాండర్
గురుకుల
గుల్బర్
చక్రాలు
ద్వంద్వ
పక్షంలో
శాసనసభా
సున్నపు
syndrome
అధ్యాయము
కాన్సాస్
క్యాంపస్
చట్టాలను
చేతుల్లో
దూరాన్ని
పిలిచారు
పోషకాహార
మిసిసిపీ
సందేశాలు
సెంచరీలు
##రామిరెడ్డి
చిరకాలంగా
ప్రయాణంలో
ప్రాసెసర్
ముఖచిత్రం
రామచంద్రా
ఎక్స్చేంజ్
తెలియకుండా
వ్యవహారాలు
ఎలక్ట్రికల్
పూర్తిస్థాయి
పశ్చిమగోదావరి
##గద
##సట
##kal
##mic
##లార
*0
eg
##/000
##otes
##ఎర్ర
##డ్రో
##నెను
##పెంట
##స్సో
ఒకట
##పడుతూ
##ప్పుల
##సికల్
alph
ఎదుట
కలరు
కాలా
తేల్
నటనా
నిరస
పంక్
ఫ్లె
భుజం
మైక్
రంజి
లాలా
సిగర
##ricult
##ఆధునిక
avail
dance
అద్దం
ఆరాధి
గంటకు
తరబడి
దీవుల
పరమపద
భవానీ
అస్థిర
ఆర్ద్ర
కాపాడే
భవనంలో
యాసిడ్
విన్స్
సాంఖ్య
హత్యలు
##స్వామయ్య
##ులయ్యారు
conduct
million
usually
కల్లూరు
కామర్స్
గడిపారు
చేయబడ్డ
పరుచూరి
ప్రసంగం
బెక్హాం
భూములను
వైఫల్యం
సందర్భం
హిందూమత
అంతర్భాగ
ఒకదానితో
పథకాన్ని
పరబ్రహ్మ
భక్తులను
రూపొందిన
వచ్చినది
స్వయంచాల
administr
languages
అక్షరాలను
కాంతారావు
చెందుతాయి
పరోక్షంగా
మినిస్టర్
వస్తువును
వెంకటగిరి
dictionary
అజర్బైజాన్
అన్నసమారాధన
డిస్ట్రిక్ట్
తమిళనాడులోని
ఫిలిప్పీన్స్
వ్యవసాయావసరాల
ప్రతిష్ఠించారు
మొదలుపెట్టింది
##lu
##raw
##బత్
##వలు
##హను
##్రూ
om
##ades
##కరము
##తనము
##పెను
##మాయి
##రిడీ
##శేరు
##సురు
##ామన్
jud
mel
తనే
మహో
##itary
##orial
##ంటెడ్
##గొండి
##దైర్ఘ
##నీయుల
##మిట్ట
##లలోకి
##సిల్ల
##ొలెట్
coin
జెనె
మురి
విలో
##తెనాలి
##ప్పాడు
##ముఖంగా
##ెక్కిన
.....
table
కల్లా
జలుబు
బతుకు
మెట్ర
సందేహ
సర్వా
హారతి
##దూరములో
##ప్రకాష్
##ల్లింగ్
ఆడతారు
కోపెన్
గ్వాలి
తత్వము
మీమాంస
లాగానే
లాస్ట్
లీడ్స్
వారాంత
వాల్ట్
శాసనము
##రంగానికి
##వల్యూషన్
subject
అణుభారం
అనువర్త
అభిషేకం
ఎయిడ్స్
కుమ్మరి
భాస్కర్
విజేతగా
వీధులలో
వెంట్రు
సులభమైన
division
అరణ్యాలు
డిస్కవరీ
తాళ్ళపాక
విమానయాన
సంఖ్యలను
##సత్యనారాయణ
ఆక్రమించి
ఎదుర్కొనే
ఒప్పందాలు
క్రమాన్ని
గుంటూరులో
నాటకానికి
పర్యాయాలు
లాంగ్వేజ్
స్వేచ్ఛగా
విధానానికి
విమానాన్ని
కలిగిస్తాయి
చెయ్యబడింది
పెట్టుబడులు
ప్రయోజనాలను
శ్రీమదాంధ్ర
##'':
##new
##uma
##ంతొ
##వడి
ఖన
##ille
##కాట్
##మోన్
##హ్యా
అట్
ఆలం
##(0000
##అక్కి
##కానన్
##నివ్వ
##పేటలో
##బింద్
##వాడైన
##ైన్స్
కుటీ
గనుల
జాజ్
జానీ
దశలు
దాటు
నక్స
నేవీ
శ్యా
##though
##కాజిల్
##పెట్టే
##హైడ్రో
##ారాధ్య
ఉన్ని
ఉపనిష
కిషన్
గణేష్
జమ్ము
దున్న
పాకాల
ముక్త
వధువు
వాడడం
షరీఫ్
##ప్రాచీన
అసాధ్య
జగత్తు
ఝాన్సీ
నివారి
పచ్చడి
పరాన్న
పారితో
భాగవతం
రుగ్మత
రేలంగి
లాభదాయ
వెయిట్
సన్నగా
##ధికారిగా
అంటరాని
అశ్వత్థ
జీవావరణ
నటుడుగా
నత్రజని
పొరుగున
బీజింగ్
మహానుభా
ముంబైలో
రాజశేఖర
శక్తితో
సొంతంగా
republic
అగ్రికల్
ఉత్సవంలో
ఏంజిల్స్
గమనించిన
టంగుటూరి
పుట్టుకొ
బిరుదులు
యువభారతి
వాడవచ్చు
ఉండవచ్చని
ఉపనిషత్తు
చిన్ననాటి
నివేదికను
ప్రదక్షిణ
ప్రశ్నలకు
మున్సిపల్
లక్ష్యంతో
స్తోత్రము
అక్టోబరులో
కోల్పోయారు
ప్రపంచములో
వెంకటాద్రి
ప్రిన్స్టన్
వాడబడుతుంది
అభిప్రాయాలను
నరసింహస్వామి
ఆకర్షిస్తుంది
##cp
##uf
##గడి
##ధను
##మంట
##లీన
ta
##అతని
##క్షీ
##తంతు
##ధిరో
##పాలీ
##ప్తం
##మామహ
##మ్ను
##రార్
##శుల్
##షిన్
##ాలనూ
ide
జీల
దళ్
ధరల
మతి
రిఫ
##ద్యమం
##నస్సీ
##వేదిక
army
mach
pond
కంభం
కళను
కుదర
కొమర
తులా
నవ్వ
నాగు
నాది
నిడు
పూడ్
బందీ
మహ్మ
లోకం
వంశప
విరే
వేదం
హెక్
##etooth
##జీవితం
##తీర్థం
##ప్తిని
##మానంగా
##ముద్రి
##లిస్ట్
hydro
అతిగా
ఏమిటో
ఖతార్
నవోదయ
నెలకు
యువతి
సేవను
##చేయబడిన
ఇటీవలే
గడియార
గోల్స్
టోక్యో
తెలియు
నిదర్శ
పురోహి
పొట్టు
యాపిల్
రసాయనం
సలహాలు
సెనేట్
సైద్ధా
స్థూపం
written
అమ్మకాల
కర్ణుడు
గ్రహాలు
చెక్కిన
నాస్తిక
రకానికి
సద్గురు
సైనికుల
krishnam
అరేబియన్
గ్లూకోజ్
ఫ్యామిలీ
బలహీనమైన
మారుపేరు
మెట్రిక్
(000–000)
ఉద్యోగంలో
కావచ్చును
ధర్మాన్ని
పర్యాటకుల
ప్రక్రియల
ప్రమాణంలో
వెస్ట్రన్
వ్రాయబడిన
హింసాత్మక
కనిపెట్టిన
క్షేత్రాలు
దేశోద్ధారక
ప్రవేశించే
బార్క్లేస్
రికార్డులు
సిద్ధాంతము
నిర్వాహకుడు
పురాతనమైనది
ప్రాంతాలుగా
అప్పుడప్పుడూ
ప్రయోగించారు
రాష్ట్రాన్ని
ఆవిష్కరించారు
గెలుపొందినాడు
చిత్రీకరించిన
సంతగ్రామానికి
##hyd
##put
##rot
##జనీ
##ీతం
mh
చవ
##ches
##అయిన
##కోలు
##ధ్వా
##మిత్
##యెట్
##సర్వ
ess
రియ
##ంపూడి
##క్తుల
##చివరి
##నీలలో
ling
mall
note
rele
ఉమ్మ
ఓడలు
గోపు
ద్రు
పాదం
మీరా
రేస్
విది
వెలగ
వ్వా
##అరబ్బీ
##జెర్సీ
##టకృష్ణ
##డేవిడ్
##దార్లు
##ప్రజలు
##విల్లి
##ెస్ట్ర
apple
board
peace
కాల్వ
కొంచం
నేలలు
పాటర్
మతంలో
మనీలా
మహాత్
సంభాష
##ఆర్ట్స్
##బద్ధమైన
##సరస్వతి
ashram
punjab
ఒకరిగా
క్విట్
చిత్రణ
టిప్పు
ప్రియా
బెల్ట్
రాసారు
వేస్తూ
##మంత్రులు
అమ్ముడు
ఆగ్నేయా
ఏర్పడ్డ
ఏవిధంగా
తెలివైన
పట్టాను
పోలాండ్
ప్రాంగణ
ప్రారంబ
యంత్రాల
ర్యాంకు
లాభాలను
00000/00
ఆయుధాలను
కనెక్షన్
చూస్తారు
చైనీయులు
నామమాత్ర
పోలేరమ్మ
సహజసిద్ధ
సౌందర్యం
##శ్రీకాకుళం
disorders
ఉత్సాహంగా
ఎక్స్ప్లో
ఒత్తిడిని
చేయడాన్ని
నాయకురాలు
వేయబడింది
అయినప్పుడు
అహ్మదాబాద్
గ్రీన్హౌస్
ఇండస్ట్రీస్
చేసేటప్పుడు
న్యాయవాదిగా
ప్రతాపరుద్ర
ప్రదర్శనశాల
విప్లవాత్మక
గుర్తించబడిన
అభిప్రాయాన్ని
##!"
##ఘన
##mam
##గది
##వేగ
##సబ్
es
బడ
##anna
##ends
##ries
##ript
##ంత్ర
##కాకి
##కేరళ
##బ్వే
##మోవ్
##సైన్
##ినల్
0:0
hom
ray
అబి
అమూ
నృత
రేక
లైన
##|0000
##డికల్
##తిప్ప
##ర్చిన
##ుడికి
priv
ఇంజి
జ్యే
టాకీ
డెత్
డేస్
తామర
తురు
నామా
పింఛ
బురద
భవన్
##కాండము
##గూడూరు
##చేస్తూ
##నాద్రి
##మహర్షి
##ముద్రణ
##లాటిన్
sound
తమిళ్
పోతుల
స్కంధ
##ించవలసి
bhagav
church
groups
ఎన్నడూ
కొచ్చి
గాంధేయ
గ్రిడ్
పెన్నా
పెళ్లి
బాష్పీ
మెట్టు
శక్తుల
సందేహం
సర్జరీ
సుందర్
##angalore
ఉండగానే
ఐసోటోపు
నారాయణా
భారత్లో
మందులను
మాధ్యమం
వారసులు
వివరణలు
స్టాండ్
ఆంధ్రమహా
కథానాయిక
నివృత్తి
లారెన్స్
స్మార్ట్
గెలిచింది
మార్కండేయ
ఉపగ్రహాలను
చేసినందుకు
జీవశాస్త్ర
ఢిల్లీలోని
పరిగణనలోకి
యాత్రికులు
విభజించబడి
వైశాల్యంలో
సంభవించాయి
హాజరయ్యారు
భారతదేశములో
సురక్షితంగా
నెట్వర్కింగ్
పేర్కొనబడింది
ప్రాథమికోన్నత
ప్రసిద్ధిపొందిన
##cu
##dh
##అస
##ఖై
##mah
##కంద
##మరణ
ay
అద
##ores
##sequ
##ంటాం
##ండల్
##క్షం
##టీసు
##డులో
##ర్రం
అలో
కలన
నీచ
పతక
మొస
యధా
రతి
లేవ
శోష
##దీక్ష
##నపూడి
##నర్స్
##పప్పు
##రియస్
##వాస్య
##ాలిన్
hard
past
soft
అనుమ
టాక్
టోపీ
నరాల
పీఠా
పీడి
బాట్
మినీ
లేడీ
##బాల్ట్
##బుద్ధి
##మంచిలి
##రేటివ్
##వల్సిన
అవరోధ
గోరఖ్
భీష్మ
యుధ్ధ
లోహపు
సినీన
##ండేవాడు
##కపోయినా
##మాస్టర్
అన్వయి
ఆస్టన్
ఎంట్రో
గడిపిన
తోడుగా
పండితు
పెద్ది
భాషలను
మార్లు
మిఠాయి
ముప్పా
రాజును
వ్యాలీ
శ్లోకం
సమ్మర్
october
ఉంటున్న
ఉదయగిరి
ఓట్టమన్
గడిపాడు
గౌతమాలా
చిల్డ్ర
పద్మనాభ
శీతాకాల
షెంగెన్
సన్నిహి
స్నిపర్
0000–00,
అనువర్తి
జీవించిన
భయంకరమైన
మానవులకు
అనారోగ్యం
ఇచ్చేవారు
ఇరువైపులా
జరుపుకునే
పరిశోధనకు
ప్రాణాలను
ప్రభావాలను
సమర్పించిన
ప్రసిద్ధిచె
మాట్లాడతారు
సంబంధించింది
చేస్తున్నప్పుడు
##ago
##ems
##ino
##నీల
##పరమ
##భవి
##హంస
*"
ఫూ
##erst
##గీతం
##జాజ్
##థ్వీ
##దంగా
##దేవా
##రేణి
##్రఫ్
bag
cov
nit
pil
ఓల్
కృప
చొర
వరం
##itive
##డతాడు
##భాగము
##మయంలో
##్యుని
hurt
sang
అడుగ
ఆకాం
కలలు
కోతి
క్షమ
చందు
డియో
నీల్
ఫ్లై
బోల్
##aswamy
##elling
##కార్తా
##ప్రయోగ
##స్తారో
subst
అనుయా
ఇంతలో
జంటగా
ఫిలాస
బ్లడ్
మొగల్
రమేశ్
లోపము
లోబడి
వ్రతం
సంధాన
##లక్ష్మణ
##సాగింది
weight
ఇంటిని
ఓడరేవు
కార్బై
జాషువా
తదనంతర
దుబాయ్
పాటిల్
పాఠాలు
ప్లాటి
రూపంగా
వ్యాపి
సెకండ్
స్వాభా
##గ్రామాలు
##రిస్తాడు
liberia
అన్నవరం
అయోడైడ్
ఆలయాలలో
చేయించి
తాండూర్
దీంట్లో
ద్వీపాల
నటించగా
మణిపూర్
వాట్సన్
అందిస్తూ
అనుచరులు
ఆక్లాండ్
ఉపయోగాలు
కాల్పులు
కోర్టులో
క్లార్క్
మైనారిటీ
లక్ష్మీప
సాక్షాత్
ఇజ్రాయిల్
త్యాగరాజు
పట్టభద్రు
శతాబ్దిలో
collection
ఇన్ఫెక్షన్
ఈజిప్షియన్
##పోయినప్పటికీ
ఇంటర్వ్యూలో
రామమోహనరావు
నేతృత్వంలోని
ప్రేక్షకులకు
సంభవించవచ్చు
జీవిస్తున్నారు
##rh
##ఇట
##ఏక
##oic
##లేన
uc
##cont
##raph
##ఇంకా
##దినో
##రాడో
ker
అవె
చూర
చోద
బలో
రబీ
ర్య
##light
##పట్టణ
##మ్మీద
##యోగ్య
half
అమరి
కోరా
తరాల
పైనే
మెరు
వైరు
వ్యు
శాఖల
##నేవారు
##మేనియా
##ల్లేరు
(00).
ఆటోలు
కుర్చ
కోవెల
గయానా
చీరలు
తరుగు
దాతలు
నిస్స
పక్కా
పాదాల
పూడిక
విఫలం
##అనువాదం
##స్తుందో
అమర్చి
ఆశ్రయి
డ్రామా
తరుపున
పడతాయి
పోరాడి
సునామీ
##న్యాన్ని
##ించవలసిన
website
ఆహ్వానం
దృగ్విష
వచ్చేలా
వైద్యుల
శృంగేరి
అధ్యక్షత
అలహాబాదు
ఆదర్శంగా
ఎడిటింగ్
కెన్నెడీ
జగద్గురు
తుఫానులు
తెచ్చారు
దివాకర్ల
మిల్లులు
వ్యవధిలో
అబెర్డీన్
కొనసాగాయి
చల్లపల్లి
ప్రవృత్తి
బానిసత్వం
మంగోలియన్
సభ్యురాలు
ఉన్నట్లుగా
ఎంపికైనారు
నెలకొల్పిన
ప్రావీణ్యం
ఆమోదించింది
గర్వకారణంగా
ప్రమాదాన్ని
ప్రవాహాన్ని
విశాఖపట్టణం
స్ప్రింగ్స్
కేంద్రీకృతమై
చేరుకున్నాడు
సాహితీకారులు
విమానాశ్రయాలు
పిలుస్తున్నారు
##.'
##హృ
##eth
##hem
##jan
##భేద
##ామె
##oney
##uram
##టాక్
##తొలి
##థియో
##దలకు
##పాడ్
##ప్రక
##యజ్ఞ
##వంశీ
mtv
nut
అసౌ
ఏసు
ఐదో
కబు
మెథ
##ఎత్తు
##క్కన్
##పాలని
##ప్రమా
##మ్మను
##హాగన్
-000
milk
sent
sett
surv
అంతు
ఉదయ్
ఎంపీ
కోసి
చూర్
డిజై
తలను
దాతృ
నీవే
నెక్
పాదర
ప్యు
ఫీడ్
రాణా
హేమా
##margin
##చైతన్య
##దేశాలు
##సెట్స్
april
claim
అరుదు
ఆర్క్
గర్ల్
దిట్ట
పేరున
మట్టం
మారడం
##నిర్మాత
##న్సింగ్
##పెక్టర్
##ేవారిని
అవతారం
ఇతనిని
చిన్నా
చేయడమే
నేటికి
పతంజలి
పొయ్యి
మార్టి
వెల్లు
సెట్టి
హుసేన్
##ications
##దర్శకుడు
##ల్లాపూర్
knowing
success
అభిమాను
క్రిస్ట
గ్యాలరీ
డబ్బును
రేసింగ్
లాన్సర్
విలియమ్
విషయంపై
##దేవాలయాలు
standard
అట్లాంటి
టెస్టులో
తీర్మానం
దీనిలోని
నిర్ధారి
ప్రతిజ్ఞ
బిరుదును
చికిత్సలు
పరావర్తనం
లక్ష్యాలు
చిన్నతనంలో
దత్తాత్రేయ
ప్రదేశాలను
ప్రపంచీకరణ
ప్రశాంతంగా
మూడుసార్లు
రూపొందింది
విశ్వేశ్వర
నిర్వహిస్తూ
పుస్తకానికి
ప్రయాణీకులు
మాసపత్రికలో
ఇంస్టిట్యూట్
విమర్శించారు
##ply
##ttp
##udh
##var
##అరు
##డగు
##దయా
##ికం
##ctor
##eter
##కోణం
##గుడ్
##చేయి
##లేను
##సెను
cin
eth
hus
tal
మీట
##వైష్ణ
##ీకులు
000–
kind
rout
ఇళ్ళ
కులీ
ద్వై
నిశి
లేదో
వండు
సేలం
##చేసాడు
##జిత్తు
##జేశాడు
##లోకంలో
kumar
radio
అపుడు
ఏమంటే
నౌకలు
రసజ్ఞ
రాజపు
రాళ్ల
సచిన్
##ంచేవాడు
##గ్రామము
##ెక్టివ్
(0000-
causes
అమూల్య
కాత్యా
చోప్రా
ధాతువు
పిజ్జా
పిళ్ళై
రాగానే
షిర్డీ
సంచలనం
స్ట్రి
##చేస్తారు
##బ్రమణ్యం
##మార్పిడి
##ాలతోపాటు
కడుపులో
చివరిగా
దేవతలకు
పశువులు
పురాణాల
పేరున్న
వర్ణమాల
##ంపబడ్డాయి
agricult
function
sciences
అంగీకారం
అగర్వాల్
చేయాల్సి
నర్సింగ్
పుత్రులు
ఫేస్బుక్
విభజించి
శాతాన్ని
సదస్సులో
అమృతాంజనం
అవసరమయ్యే
అసంతృప్తి
తీరప్రాంత
పద్మభూషణ్
ప్రసంగాలు
మ్యాగజైన్
సిద్ధార్థ
స్పాన్సర్
కుటుంబాలకు
నియమించాడు
మహబూబ్నగర్
స్టాండర్డ్
మొదలయ్యింది
సీతారామరాజు
స్థిరపడింది
రామచంద్రరావు
సరిహద్దులుగా
ఏర్పాటుచేసారు
సూచిస్తున్నాయి
##aty
##oli
##ols
##une
##టరి
##దాం
##ross
##డిలో
##డెత్
##డౌన్
##డ్లీ
##నీర్
##వంటీ
:''
arr
lay
web
ఇరి
ఉస్
కేత
నమీ
నుద
మొన
రజత
లవణ
సంధ
##కరణము
##కల్లు
##జ్రత్
##ధ్వని
##బడ్డీ
##మర్లు
##రాలతో
##రుద్ర
##విందా
held
గోడల
తర్క
నాభి
పేట్
ఫేర్
బెంజ
భంగం
రిలీ
లావో
లెవీ
##కోస్తా
##త్పూర్
##బెర్రీ
##బ్రిటీ
##మందికి
##వాదాలు
##సారంగా
##హ్యారీ
cross
paper
ఓవెన్
ఖల్సా
తెరాస
బయల్ప
బిస్మ
మధుసూ
యువజన
వండర్
##జెనెగర్
##ద్దలూరు
##న్షియల్
##పట్టణము
అత్యధి
డేవిస్
రాజుగా
వీరయ్య
వేసారు
సంపదను
సైనికా
హోదాను
narasim
కెమికల్
గడియారం
దశాబ్దం
మట్టితో
మధ్యధరా
మహోత్సవ
రూపాలను
వనపర్తి
ఇవ్వాలని
గ్రానైట్
చెయ్యాలి
డిఫెన్స్
ప్రజల్లో
భావాన్ని
మోడలింగ్
లూసియానా
సైన్యాలు
స్వరాజ్య
అర్థాన్ని
ఎంపికైనది
బిల్డింగ్
మారుతున్న
రేడియేషన్
రోగనిరోధక
లభించలేదు
వేగవంతంగా
వ్యవసాయము
##సమీపపబ్లిక్
##స్వాతంత్ర్య
కనిపించాడు
ధృతరాష్ట్ర
పద్ధతుల్లో
పిఎస్ఎల్వి
ప్రణాళికలో
ప్రాధాన్యం
సందర్శకులు
ఆర్థికవేత్త
కనిపిస్తాడు
కుమారస్వామి
తయారవుతుంది
నిర్ణయించిన
వాడుతుంటారు
శనివారంనాడు
జరిగినప్పుడు
ప్రచురించేది
మునిసిపాలిటీ
విద్యుత్తును
సహాయపడుతుంది
##గడ్
##బంద
##రకూ
##వది
##శతా
##సియ
##ేశం
tb
##athy
##cell
##ivid
##orge
##tery
##ysis
##కిలి
##జ్యు
##డన్న
##ణుడి
##తాము
##థిక్
##దాంత
##దుల్
##ధుడు
##నేటి
##బ్ది
##మర్ల
##మిర్
##లందు
##వాలా
##వీరు
##సాధన
##ీలతో
lic
sai
ఉడు
ఎగర
తేడ
బేత
##posed
##ండాలి
##ంపబడే
##కోండి
##గుండు
##జీవుల
##తీకరణ
link
shar
అకస్
అరబి
కూల్
క్లె
తిరో
తుని
దిను
పధకం
పూనా
బెది
మీది
రమ్య
##క్ష్వా
##దాదాపు
could
heart
ఇల్లి
ఉపవాస
కుట్ట
కోస్ట
గనులు
చూరగొ
చేవ్ర
టెర్ర
తాళ్ల
దేవదూ
నిలబడ
యెమన్
రచనను
సమోవా
సులభం
##న్నాడని
##్రెడ్డి
కౌబాయ్
జలాశయం
ధర్మము
ప్రస్త
బాలుడు
బెర్రీ
మనుమడు
మూడింట
లేబుల్
వర్తకం
వావిలి
వృత్తం
వ్యాసా
##సాంకేతిక
medical
ఇళయరాజా
ఉత్సవాల
కోరింది
జాతులకు
డెలివరీ
మాంద్యం
సంతృప్త
director
ఇండెక్స్
ఇరవైయ్యవ
కందుకూరు
గోపీచంద్
దర్శించి
నాగభూషణం
నిశ్శబ్ద
ప్యాకేజీ
ప్రహ్లాద
ముందుమాట
రేడియోలో
శిక్షణను
శ్రీరంగం
##పాకిస్తాన్
ఉంచుతుంది
గ్రంథమిది
వందేమాతరం
వాడకాన్ని
ఎదుర్కొన్న
గ్రామమునకు
చాళుక్యులు
చిన్నచిన్న
తమిళనాడులో
నాగిరెడ్డి
పంచాయితీలు
పరిశ్రమలకు
కాన్ఫరెన్స్
కార్యకర్తలు
మిశ్రమాన్ని
independence
తీసుకుంటుంది
నియోజకవర్గాల
సిద్ధాంతాలను
ఉజ్బెకిస్థాన్
అనుసంధానించబడి
అభిప్రాయపడ్డారు
స్క్వార్జెనెగర్
##)0
##ru
##భొ
’
##ils
##చీక
##షాఢ
:#
మద
మళ
##avar
##ware
##జాలా
##జెట్
##డబ్ల
##యాకు
##రావ్
##వేణు
00'
nba
qur
అణ్
ఆయి
చరణ
వల్
సరస
##లండన్
##వార్త
self
summ
కక్ష
కొరవ
చరిత
తుగ్
నీలా
రాన్
రెజి
రేకి
వైర్
హారి
##olkata
##ద్రామా
##బొడ్డు
##మోటివ్
##రేట్స్
##హైడ్రే
nucle
prabh
third
అభినవ
ఉపకార
ఏళ్లు
కాంచన
దివంగ
నార్త
బిషప్
మూలాన
రేఖలు
శిలువ
శివలి
సదాశి
స్థూప
##మెంట్లు
living
volume
ఇవ్వటం
కొంకణ్
గాలులు
నిక్షే
నిరోధం
మ్యాక్
స్పిరి
##కపోవడంతో
##పెట్టాయి
##హారెడ్డి
##ించుకొని
industr
అంశాలతో
కల్యాణం
చెట్లను
విద్యకు
వ్రాయడం
festival
కావ్యాలు
గెలిచారు
దేవరకొండ
పుంగనూరు
ప్యూర్టో
ప్రాధమిక
మార్పును
మ్యాచ్లు
వృత్తులు
ఒప్పందంలో
నిలబెట్టు
విశ్వసనీయ
సంస్కృతుల
##మవుతున్నాయి
##రెడ్డిపాలెం
మ్యూజియంలో
వివరణాత్మక
స్టేడియంలో
పట్టాభిషేకం
ప్రాసెసింగ్
కొనసాగుతున్న
మహారాష్ట్రలోని
##mm
##లయ
##ూష
##ged
##అబ్
##లోన
##షను
##ique
##uble
##కోలా
##పల్ల
##పాము
##బ్లే
##రీష్
##సనము
##హింస
van
కొమ
భలే
యతి
##aling
##ittle
##నుండే
##న్నతి
##మొత్త
cens
dark
done
talk
ఆవేశ
కాటు
గోరు
తాబే
పంటల
ఫైన్
బులు
మేధో
లుఫ్
##టిగంటి
##న్నార్
##యిన్స్
##ర్వేదం
##వాడిని
false
గార్ల
చూడడం
నింపు
నైట్ర
ఫ్రెడ
మూలాల
మొగ్గ
మౌఖిక
శీఘ్ర
సబ్బు
సేవలో
స్పటి
##పిల్లలు
##శ్రీలంక
##స్టర్న్
proble
చదరంగం
భర్తను
మిన్ని
సమష్టి
సాంద్ర
##ఇంగ్లీష్
##వ్యతిరేక
largest
అభ్యాసం
అవక్షేప
కేలండర్
డ్రాగన్
నారదుడు
పేరుమీద
మట్టిని
cultural
గుర్రాలు
దేశమంతటా
రంగంలోకి
వ్యత్యాస
సభ్యులతో
సేంద్రియ
కనిపించడం
చంద్రబోస్
చింతపల్లి
నికరాగ్వా
పురుషులకు
బ్రేజింగ్
భారతదేశము
classified
నియంత్రణను
నిశ్చయించు
ప్రాముఖ్యం
సంస్థానాధీ
##గ్రాడ్యుయేట్
ఎడ్యుకేషనల్
నిర్ణయాన్ని
ప్రభుత్వంచే
మారిపోయింది
సురక్షితమైన
ప్రోత్సాహంతో
వాణిజ్యపరంగా
విడుదలయ్యాయి
ఏర్పాటుచేశారు
పరిజ్ఞానాన్ని
పుణ్యక్షేత్రం
ఆవిర్భవించింది
##uz
##డౌ
##ves
##ంతే
##పన్
##షియ
##ికీ
యౌ
##esco
##self
##కాలో
##కోగా
##డిచి
##డిష్
##ణిగా
##దాద్
##దేశీ
##నీలు
##ఫైట్
##మిటి
##రాలే
##లినీ
##వికత
don
won
తగల
థ్ర
దోస
నెవ
భండ
శుక
శైల
సీక
##apati
##బక్స్
bang
card
late
pill
symb
turn
కండి
కథార
క్షణ
జిరా
నెపో
మొరా
వైకల
సీన్
స్వత
##బిలిటీ
naidu
union
ఎగురు
ఒబామా
గడువు
రొయ్య
సేవకు
##దనాన్ని
అణచివే
ఆక్రమి
ఆలస్యం
చెబుతూ
ప్రియు
ఫోటోలు
భూమధ్య
రాజభవన
రాజుకు
లేకపోవ
సమర్పణ
సర్రియ
సింహాస
##ometimes
##ెక్కింది
certain
january
related
అంతేగాక
ఉంటుందో
కప్పబడి
క్రితమే
చతురస్ర
జీలకర్ర
టేనస్సీ
దర్శనము
నిబంధనల
పాడింది
రోజులకు
సబర్బన్
##అక్కినేని
although
provided
అర్జెంటీ
అవుతున్న
అసంతృప్త
గ్రామంగా
నామినేట్
పతకాన్ని
ప్రకటనలో
మొక్కలలో
వైర్లెస్
సంతోషంగా
సాహిత్యా
##శ్రీనివాస్
క్షిపణిని
గ్వాలియర్
తీస్తుంది
థాయ్లాండ్
##కున్నప్పుడు
particular
ఛాయాగ్రహణం
జిల్లాలోనే
విమానాశ్రయ
విలక్షణంగా
వేర్వేరుగా
స్థాపితాలు
translation
ఎయిర్పోర్ట్
సర్టిఫికేట్
కృష్ణాజిల్లా
విద్యార్థిని
చేసుకునేందుకు
ప్రదర్శిస్తారు
##").
##ads
##ige
##గరు
##బలా
##మేధ
##మొక
##రంధ
##సమర
mi
##కోస్
##ద్ధం
##పాను
##మళ్ళ
##మినీ
##రూపి
##రోడ్
##లమ్మ
##లహరి
##ళ్ళూ
sem
ఏలు
కుర
జలం
లతా
వంక
సప్
##కార్బ
##కాలజీ
##కొకటి
##డున్న
##నటుడు
##నాగరి
##మరాజు
##శతకము
##ినీర్
crit
must
కాచి
కుంద
గౌడ్
చిలీ
టెల్
పరిప
పవన్
మోడె
వినూ
సంఘ్
సెంట
##జెక్ట్
##ద్గారి
అవమాన
ఎగిరి
ఔరంగా
కాలిక
కుంభా
క్షయి
జింకు
టిక్క
తామ్ర
దాటిన
నవ్వి
నామము
పొరలు
బండ్ల
బెరడు
లోయలో
స్టడీ
##ందించిన
##సుకున్న
native
ఉయ్యాల
గలిగిన
తొక్కి
మహరాజ్
యానిమే
వాడాలి
వీరరాఘ
సరళమైన
సాలూరు
స్టాటి
##ంచటానికి
చేర్చిన
పంపింది
బౌద్ధమత
మంత్రము
లక్షణము
ఎన్టీఆర్
జీవితకాల
దృష్టితో
దేవాలయాల
నిదానంగా
పద్ధతిగా
పెంచింది
యూనిట్లు
సక్రమంగా
హైస్కూల్
చూస్తున్న
పదవీవిరమణ
పద్దెనిమి
రోచెస్టర్
లక్ష్మీనర
సమర్పించి
0,000,000.
అంతర్గతంగా
చేస్తుందని
నిర్మితమైన
ప్రవహిస్తూ
మెరుగుపర్చ
యుద్ధాన్ని
విడివిడిగా
వీరవెంకయ్య
సచ్చిదానంద
ఆర్కెస్ట్రా
మార్చడానికి
రాజమండ్రిలో
వీరభద్రరావు
సంగీతకారులు
సంబంధించినది
సర్వసాధారణంగా
ప్రదర్శించింది
##dm
##fo
##gh
##र्
##”,
##een
##పండ
##పసు
##లతా
##note
##కాయం
##కురు
##టేడ్
##పులో
##పేయి
##లానీ
##విరి
##వులే
##సనల్
mec
wwe
ఎకన
కోయ
జంప
బాష
##astic
##ender
##ంసిల్
##ఆసియా
##గొప్ప
##తమిళం
##్రాంత
dest
real
ఈతని
తనలో
నమూన
నిక్
బాడీ
భాయ్
లాగు
వీర్
షెన్
సెయి
##దొడ్డి
##మ్యాన్
(00),
upper
కలుసు
గీసిన
చక్రా
డయాబె
ముషార
రూపము
సతీష్
సదరన్
హిస్ప
##గించారు
##సెయింట్
injury
కాలాను
చర్యకు
చూడాలి
జ్యామి
తక్కిన
నమోదైన
నాస్తి
నిక్షి
నియమాల
పర్వము
బుల్లి
భావనలు
భేదాలు
ముగిసే
రోహిణి
సుజుకి
##క్రిస్ట్
##మిడిపాటి
అర్థంలో
ఇక్ష్వా
కమీషనర్
గురువుల
దాడులకు
ధర్మాలు
నటించడం
నాగరాజు
రవాణాకు
రాజారాం
వాయువుల
విద్యలో
సహాయంగా
addition
december
కాలంలోని
కూర్చొని
పిల్లలతో
రిలయన్స్
సీతారామా
సుబ్బమ్మ
##రించడానికి
bluetooth
districts
ఓడిపోయాడు
గరిష్ఠంగా
గిరిజనులు
చనిపోయారు
జంతువులలో
నిర్మించే
పెద్దదిగా
ప్రకటించి
సమూహాన్ని
సూర్యాపేట
స్థానాలను
స్ప్రింగ్
##హరించబడినవి
punishment
revolution
అక్కడక్కడా
అసాధారణమైన
కరుగుతుంది
కార్బోనేట్
న్యూకాజిల్
సమ్మేళనాలు
##ించుకున్నారు
అధికారంలోకి
కొనసాగుతోంది
ప్రయాణిస్తుంది
##.).
##efa
##ikh
##ంతల
##మలత
##ళని
##సాం
dy
wr
##ming
##కాళి
##గుర్
##థియం
##బాట్
##రుసు
##సికి
##సిమి
##ాలంక
ali
ber
ఇదీ
ఇరవ
ఓపె
దోశ
బలగ
రోద
సొగ
##black
##rican
##చింతల
##జన్స్
##తానని
##మలయాళ
##మెళ్ళ
##ెత్తు
vive
ఉదార
కాట్
జోగి
డెమొ
నాయి
బేబీ
మెటా
రవాణ
రెంట
సాఫల
##utions
##ంచలేదు
##కరించు
##క్స్డ్
##నిస్టు
##వారితో
##విమర్శ
##హిత్యం
chief
round
speak
ఆమెతో
కథలనీ
గాడిద
నిమ్న
పశ్చా
మేనల్
సన్సు
##క్రమంలో
##తుంటాడు
##ప్రకాశం
00-000
lorike
ఏకాగ్ర
కబడ్డీ
కిండర్
జ్వరము
పర్యవస
పోయాడు
బిరుదా
బులుసు
మార్చ్
రాళ్లు
రుధిరో
రోజుకి
సుందరం
సోర్స్
హత్యకు
హోమాలు
##పడుతున్న
00.00%,
distrib
ఐశ్వర్య
గురైంది
చేర్చడం
జాతులలో
ద్విబంధ
పువ్వుల
బంధించి
బుకానన్
మూసివేయ
షాజహాన్
సినీరంగ
##త్తీస్గఢ్
క్లయింట్
ధర్మపురి
నేతృత్వం
పద్మనాభం
పెళ్ళికి
ప్రావిన్
బాధ్యులు
బాబిలోని
బ్యాంకుల
విదేశాంగ
వేములవాడ
వేసుకుని
శిథిలాలు
స్థాపనకు
గుల్బర్గా
జీవితకాలం
తెలంగాణలో
నిర్మాణాల
మెకానికల్
విశ్వకర్మ
సాగించారు
ఉపయోగించటం
చేయవచ్చును
జాతీయోద్యమ
పురుగుమందు
పొందుతుంది
శ్రీనాథుడు
శ్రీనివాసా
సంపూర్ణంగా
ఆరంభించింది
ఆరోగ్యాన్ని
ప్రత్తిపాడు
వీరాస్వామయ్య
సూచించబడింది
వర్ణించబడింది
నిర్వహిస్తోంది
##/-
##0+
##?''
##cin
##దోష
##పామ
##వరో
##సైన
##ికూ
",
ఈస
##$000
##omas
##onic
##ంతరా
##అతను
##కూచి
##కేర్
##గ్వే
##తూర్
##మద్ద
##వారా
##విశ్
esp
fur
kot
mix
ros
tro
vin
గని
మగ్
##eless
##ఆక్సి
##నాటిక
##న్యాయ
##పర్యా
##మేరకు
##సదరన్
##సిస్ట
##స్కల్
uefa
అవర్
ఇంపీ
కంపో
కుల్
గొలు
జలంధ
టొబా
టోల్
పలకల
పాంథ
బంటు
బోగీ
రప్ప
వాంఛ
సభలు
సుంక
సూట్
##intern
##డానికీ
##నాథుడు
##లగూడెం
##స్త్రి
##హ్మాన్
chang
panch
taken
అల్పా
ఆర్టీ
ఎగిరే
కలపడం
గబ్బి
చింతా
నమ్మి
బృహత్
రావుల
రీడర్
సుమతీ
##acharya
nature
అకస్మా
ఉండటమే
కులపతి
గంగాధర
ఠాగూర్
డేటాను
తరగతుల
దశాబ్ధ
నమూనాల
పూర్ణా
ప్రేమ్
వినోద్
షీల్డ్
హెలికా
అంశాలలో
అధ్యాయం
ఆకృతిని
ఈవిధంగా
తరుణంలో
దెబ్బతీ
నష్టాలు
నిల్వలు
నెలల్లో
పూర్వమే
పోషకాలు
బహుభాషా
వెళ్ళడం
పంతులుచే
పత్రాలకీ
పరీక్షను
పునాదులు
ప్రాబల్య
ప్లాస్మా
భావోద్వే
మిచిగాన్
ముఖ్యులు
రాజ్యంగా
శ్రీకాకు
స్తోత్రం
ఆటోమొబైల్
చాళుక్యుల
పుష్యమాసం
బిరుదాంకి
వ్యాసాలనీ
హరిద్వార్
##రెడ్డిపల్లి
అధికారులకు
అనుసరిస్తూ
అభిప్రాయము
చిత్రించిన
చూసుకోవటమే
చేస్తున్నా
జిల్లాలుగా
నక్షత్రాలు
పురుషోత్తమ
వెనువెంటనే
మెట్రిక్యుల
రాజకీయాల్లో
రుధిరోద్గారి
తూర్పుగోదావరి
మంత్రివర్గంలో
మొదలుపెట్టాడు
వినియోగదారుడు
నుదహరించబడినవి
##ki
##ఫొ
##-0-
##cer
##కోణ
##టనం
##తాన
##తోట
##పెం
##మాం
##వీణ
##ూరం
".
py
ల్
##avel
##book
##కాలా
##ఖండం
##జీర్
##డైతే
##ణ్యత
##బంధు
##రైల్
##వాడ్
bpa
cry
cub
kan
rad
అలు
ఆండ
జాడ
పడక
మొగ
సలహ
##టులను
##భాగాన
##ారన్న
##్యతను
cann
clos
crim
mang
sect
vide
ఉక్ర
చరణ్
చీలి
చెడి
జేబు
తాయ్
దార్
ధనిక
నైనా
నోర్
బిగు
మోకా
వారె
హాఫ్
##న్నంగా
close
coast
కోటలు
చర్యా
చివరన
తెరచి
థియరీ
నాగుల
నాయర్
నార్ల
పక్కల
భవంతి
రుగ్మ
వర్ణం
శ్రవణ
స్వరం
##పెట్టడం
##బద్దమైన
##బ్యాండ్
##్యానికి
regard
ఔషధాలు
గార్డ్
చేయబడే
డిటెక్
పదవులు
బిలాస్
రాస్తూ
వికాసం
సిన్హా
islands
కోరికలు
ఛత్రపతి
జీవించే
దారిద్ర
పాలిమర్
మధ్యంతర
రామరాజు
సమస్యగా
అమలాపురం
ఇంజినీర్
ఏర్పాటైన
కారణాలను
క్లాసిక్
తీవ్రతను
దువ్వూరి
పదార్థము
పరిపాలకు
పురాణంలో
పోల్చితే
రిపోర్ట్
వంటివారు
షెడ్యూల్
సమీక్షలు
సామ్యవాద
సైన్యంతో
స్టెయిన్
స్వంతంగా
కలకత్తాలో
కాంక్రీట్
కేటాయింపు
భారతిలోనే
రామాయణంలో
రెజ్లింగ్
లండన్లోని
విశ్వనాథ్
##సుబ్రహ్మణ్య
అల్పసంఖ్యా
ఉంటున్నారు
ఉద్భవించిన
చేయబడ్డాడు
పట్టణంలోని
విత్తనాలను
సంకీర్తనలు
సమీపప్రధాన
పిలువబడింది
ప్రవేశానికి
రవీంద్రనాథ్
వ్యత్యాసాలు
చిన్నతనంలోనే
లక్ష్మీకాంతం
వివరించబడింది
విశ్వామిత్రుడు
పనిచేస్తున్నాయి
##dl
##ux
##ima
##ior
##ips
##uel
##సమే
##సమ్
az
dc
od
##.0.0
##reen
##umin
##ంబంధ
##కొంత
##గోట్
##గ్లీ
##డాడు
##నాది
##భరణం
##రేఖా
##ర్రే
##వ్వా
sav
గ్య
బరి
మజ్
సిమ
##కారపు
##గ్రంధ
##తముగా
##నకొండ
##విజయన
##్యాన్
arts
lost
నాథ్
ప్రౌ
బటన్
భైరవ
మాంగ
##ఆర్ఎన్
##ఇప్పటి
##గుంట్ల
##గ్గయ్య
##ధరరావు
##న్నియు
##ళ్వార్
##స్టెర్
const
thumb
అటుపై
ఆందోళ
ఇచ్చట
ఇట్టి
ఇదంతా
ఉమామహ
గింజల
చంపిన
జడ్జి
తక్కు
ప్రస్
భూముల
సత్తా
##.0000).
##=00000.
##ండేవారు
##ద్యమంలో
##వచ్చారు
##శీతోష్ణ
##ెక్సియా
00°00'
middle
mother
ఎంపికై
ఒకరిని
కాలువల
కాలేయం
గురించ
చెయ్యి
పులుసు
మహిళగా
రకాలను
రేట్లు
విసర్జ
సంఘటనల
సంధ్యా
స్ట్రై
స్పటిక
హరికథా
##ప్రైవేటు
##సంప్రదాయ
current
ఆదేశాలు
ఎరువులు
కనిగిరి
గురుత్వ
చిన్నగా
జరిగేది
జాతులను
దొంగిలి
ద్రవ్యం
పతాకంపై
పాలస్తీ
పోలీసుల
భారతంలో
రాక్షసు
వెళతారు
స్వర్గం
electric
అంటారియో
కొత్తూరు
చిలుకూరి
తెలియజేయ
నిదర్శనం
బ్రిడ్జి
లేకపోవటం
విగ్రహాల
##లేకపోయింది
అడ్వాన్స్
అధికారాలు
అనువదించి
అనువర్తనం
పాఠశాలలలో
వీరిద్దరూ
కనిపించాయి
ప్రింటర్స్
మొనాక్సైడ్
సాధ్యమైనంత
సైన్యానికి
సౌకర్యాలను
ఆగ్నేయాసియా
నియంత్రించే
వ్యాఖ్యాతగా
సాంకేతికంగా
స్వాతంత్య్ర
డిస్ట్రిబ్యూ
ప్రాంతాలలోని
సంబంధించినవి
సేవలందించారు
ఎప్పటికప్పుడు
శుక్రవారంనాడు
##గజ
##asu
##nar
##tem
##గటం
##చూప
##దకు
##దుర
##బాట
vl
##amin
##atus
##cycl
##icon
##ipal
##ందలి
##కమ్మ
##నూల్
##బోధన
##మౌళి
##రాగి
##లినా
##శిలా
##శీలి
##హెల్
##ేవని
bce
gas
mut
put
sas
కాడ
ఙాప
ఫరీ
బడు
##fully
##icles
##అమృత్
##కలూరు
##కొట్ట
##గణితం
##జర్వే
##నార్థ
##విశేష
##హాటన్
##ాయిస్
cand
hold
http
magn
తండా
దౌర్
పేలవ
రోహి
లాలి
సోల్
##దీనికి
##ప్రమాణ
##మంతుడు
##మార్పు
##యుదురు
##రిల్లా
##వరల్డ్
అపరాధ
అలెర్
అహింస
కుర్ర
నాయిక
భూషణ్
మంటలు
మజ్జి
మాతృక
ముంచి
రావటం
రుచిక
రోవర్
శూద్ర
సూరత్
##ropical
##ందుర్తి
##జిలింగ్
::::::
resist
అభిమన్
కృతులు
నిటారు
బంధువు
బ్రిగే
మారుతి
విస్ఫో
showing
అస్సామీ
ఎల్లమ్మ
నియామకం
మద్యపాన
లిస్బన్
##ించినపుడు
డిప్లొమా
విడిపోయి
విరాళాలు
వేయించిన
శీతాకాలం
knowledge
అపురూపమైన
ఉత్తీర్ణత
కారణంగానే
చూస్తుంది
దశాబ్దంలో
పారితోషిక
పూర్వీకుల
ప్రదేశ్లో
రెండవసారి
లాభాపేక్ష
##నరసింహారావు
##నివాసగృహాలు
కొడవటిగంటి
నివసించారు
నృత్యాన్ని
రామలింగయ్య
విచ్ఛిన్నం
శ్రీరాముని
దశాబ్దాలుగా
ప్రతిపాదనలు
యునివర్సిటీ
వంశపారంపర్య
విశ్వామిత్ర
సరిహద్దులను
గిల్క్రిస్ట్
ప్రయత్నిస్తుంది
##aku
##sri
##గణం
##గోడ
##పవన
##వరూ
iq
##arch
##isbn
##గ్లి
##చును
##టంట్
##తోను
##పాడి
##ఫైల్
##రాజమ
##ళూర్
##విలో
cit
hab
siv
అసహ
ఏవీ
ఘోర
చౌడ
తేట
నాల
##అగ్ని
##కీకరణ
##మద్ది
##సన్స్
##ేవారట
aver
live
mart
moon
అణచి
ఆతని
ఆశ్వ
కోటా
డ్రి
తొడి
నడచి
నవలల
పళ్ల
మెకా
యోగం
లంకా
వాణీ
వీపు
వేలా
హంగే
హ్యు
##కముందే
##కళాశాల
##రింపజే
##ించుకు
ఇస్మా
కాంచీ
జగపతి
దిగ్గ
పడుతూ
పూలతో
బతికి
బర్డ్
మన్ని
శాఖను
##గ్రాఫర్
##రించాయి
##వెన్షన్
##ించబడ్డ
action
belong
అంకమ్మ
ఎనలేని
ఎలుగుబ
కథాంశం
కన్నుల
కమీషన్
కాపీలు
చర్యలో
చైనాకు
ఛార్జ్
టర్నర్
నీళ్లు
పాటలకు
పుప్పొ
బొట్టు
మిశ్రి
సహాయపడ
హయ్యర్
##వరప్పాడు
##స్థానాలు
temples
అందుకనే
ఆతరువాత
ఆనుకుని
డల్లాస్
పలువురి
పుత్రిక
ప్రతులు
భక్తితో
మారతాయి
##హైదరాబాద్
అభివృద్ధ
ఆకర్షణగా
కల్పించి
కొండవీటి
కోల్పోయి
క్రిందకు
భాగస్వామ
వస్తోంది
విగ్రహము
character
అతికొద్ది
అతితక్కువ
అనుమతించే
ఇంధనాన్ని
జన్మస్థలం
తేలికపాటి
నివేదికలో
రాజధానిని
రాష్ట్రకూ
వినాయకుడు
స్థాయిలలో
గ్రామస్తుల
న్యూజెర్సీ
పట్టణాన్ని
వన్యప్రాణి
హాస్యనటుడు
00000/00000
కోపెన్హాగన్
విభజించవచ్చు
విమానాశ్రయము
సంప్రదాయాలను
0-0000-0000-0
అంగీకరించింది
ఏర్పరుస్తుంది
గ్రాడ్యుయేషన్
తెలుసుకోవచ్చు
చేయబడుతున్నాయి
##థె
##ొం
##sec
##ues
##unk
##ఆరో
##నీత
##్రొ
ర్
##abet
##akam
##ince
##కోరు
##క్రు
##తుర్
##నేది
##య్యో
##వేస్
##ౌంట్
gsm
pay
కరణ
మృగ
మైల
రోమ
వేధ
##టట్టు
##థెరపీ
##నియస్
##వాస్త
##సర్వే
comb
situ
upon
viii
ఇంతే
గరిక
బొంగ
రాలి
రోగం
లిఫ్
విషమ
షాహి
షెడ్
సంతా
సాత్
స్కె
##క్రింద
##దురుగా
##న్నిటి
##పోలిస్
##ల్వార్
##శుల్కం
##సిఫిక్
quant
ఎస్టీ
ఏటియం
క్రోడ
నాయకు
పార్థ
బాధలు
బాలుర
భవనాల
షటిల్
సారథి
##కావ్యము
##డిపత్రి
##ప్రారంభ
##లైజేషన్
##ాయితీలు
august
కిరణాల
కూరగాయ
కోబెన్
చెందడం
నీలకంఠ
పాఠ్యా
పేదరిక
ఫ్రేమ్
బిర్లా
భిన్నా
మేధావి
లింగాల
వాటాను
వేడిని
సచిత్ర
సమాజము
హాజరైన
##అనంతపురం
##ప్రక్రియ
##వున్నాయి
##ాలయంలోని
##ించాల్సి
complex
అక్షాంశ
అనిశ్చి
అరబిందో
ఇంజనీరు
కదలికలు
కొట్టడం
డబ్బులు
నమీబియా
పత్రికల
పాపులర్
పొందుతూ
ప్రవర్త
మిలియను
మెల్లగా
రహదారుల
శాతవాహన
శ్రీమహా
సమీకరణం
000,000.
pakistan
గార్టెన్
ట్రావెల్
తీరానికి
ప్రతీకగా
మండలములో
మానవులలో
వ్యాసుడు
సంఘసంస్క
హార్మోన్
కనిపించదు
గుండెపోటు
భమిడిపాటి
సహాయాన్ని
స్త్రీవాద
స్నేహితుల
foundation
production
అతిశయోక్తి
ఇచ్చేందుకు
ఉంటున్నాయి
గ్రాఫిక్స్
చేవ్రొలెట్
ద్వీపకల్పం
పరశురాముడు
పూర్తయింది
సంప్రదాయాల
సహకారాన్ని
ఏమైనప్పటికీ
నిర్మాణాలను
ఫైనాన్షియల్
రోడ్డురవాణా
స్టార్బక్స్
పూర్తిచేశారు
కార్యకలాపాలకు
పాల్గొనడానికి
##.:
##ఝా
##!''
##ఁగా
##యణం
##యను
pi
ss
నక
##berg
##iram
##omin
##ండదు
##కిట్
##కోవ్
##గట్ట
##గోర్
##చర్మ
##థేన్
##పతకం
##పేడు
##ప్సి
##మీస్
##వాయ్
##వేతర
##షిణి
cpu
kur
wap
అగా
గేల
పగు
పరవ
మొఘ
శతృ
షట్
##00.00
##araju
##గించు
##వృత్త
##వెనుక
##సూపర్
gita
hall
mind
rule
show
కైలా
ఖడ్గ
థాయి
దిగం
నడిప
నేచు
బైబి
భట్ట
వేడె
వేదన
షాప్
సైకో
హంపి
##కలిగిన
##జీశాట్
##దాబాదు
##దేవిని
##ధ్యమిక
##నీటితో
##న్నేటి
##న్నేరు
##రాల్డ్
ident
shiva
అలెన్
అస్తి
ఆటలలో
గాయాల
జ్వాల
నిగూఢ
నీళ్ళ
పైలట్
బిళ్ళ
బుక్క
మన్రో
రత్నం
వన్నె
విరాజ
సహకరి
సోదరీ
##గ్రేషన్
##మ్మల్ని
##ర్లింగ్
##స్టర్స్
access
compos
ఎంపైర్
క్రోమ్
దృక్కో
ద్రవిడ
పందిరి
పార్ట్
పోటీని
బురుజు
మచ్చలు
వాఙ్మయ
సూటిగా
##నీలలోహిత
అంగీకార
ఆలోచనను
ఏవిధమైన
కాల్గరీ
తిరిగిన
దేవతలను
నిశ్చిత
పొడవాటి
స్వస్తి
##ప్రతిపాదన
november
students
ఎక్కిరాల
పరుగులకు
ప్రతిష్ట
మిన్నియా
మీనాక్షి
యురేనియం
వేరువేరు
సార్వభౌమ
##కోస్తాంధ్ర
available
అక్కిరాజు
ఉత్తీర్ణు
కీలకపాత్ర
క్రిస్టల్
ధర్మారావు
నిరంతరంగా
పరిమితులు
ప్రోగ్రామ
వరలక్ష్మి
విక్రమార్
వెస్టర్న్
సరిహద్దుల
స్థానములో
scientific
కెమిస్ట్రీ
పునర్విభజన
పెరుగుదలకు
బాలిస్టిక్
లక్ష్మణుడు
సంస్కృతులు
కృష్ణకుమారి
చేపట్టినారు
తిరుగుతుంది
దొరుకుతుంది
న్యాయవాదులు
బ్యాట్స్మన్
చేస్తున్నాడు
ప్రాజెక్టులు
సందర్శించారు
సాంప్రదాయకంగా
చారిత్రాత్మకంగా
##":
##ef
##lp
##py
##xt
##(''
##rup
##ump
##ఈయన
##పుట
##యరు
##ెని
ul
అయ
ఝా
##cher
##క్తు
##క్ర్
##గ్నే
##పదాల
##బ్యు
##బ్రె
##ల్నీ
##స్సి
##హోమం
our
అనం
కటి
తైల
నేప
ముద
మృద
##oking
##కాలని
##కృత్య
##టర్జీ
##నులలో
##భినయం
##యంత్ర
##ల్లెల
##విలువ
ball
chap
find
అట్ల
ఎఱ్ఱ
కాశి
కిడ్
కెలో
చిగు
జట్ల
జోషి
తాలు
త్రే
దురద
నియా
బస్త
మేడి
మోదు
వడ్ల
విఠో
శిధి
##దుర్తి
##నమెంటు
##లియాస్
##సెక్స్
##ేషియన్
prize
కథలలో
కైలాస
ఘట్టం
తాత్ప
నటరాజ
నమోదై
భజనలు
అర్జున
ఆధారాల
ఖాళీగా
గారిని
జయించి
జాతీయా
తగ్గడం
తరంగాల
నిబద్ధ
బ్రూక్
మిర్జా
రాచరిక
లెక్చర
వానికి
వీధులు
సురవరం
స్కార్
అజ్నాలా
అర్జును
ఆపరేటర్
ఆర్కిమె
చెందుతూ
జరిగితే
జీవనోపా
జీవులను
ట్యాంకు
మార్చిన
మేగజైన్
రిజర్వు
సంతకాలు
diseases
economic
ఆస్తులను
ఎయిర్బస్
జబల్పూర్
జ్యోతిర్
ట్రిపుల్
త్రిభుజం
పాత్రలకు
మద్దతును
మార్చాడు
రాజారావు
సంస్కృతీ
కనిపిస్తూ
చిత్రాలతో
పరిసరాలలో
పెడుతుంది
హ్యూమనిజం
##రామశాస్త్రి
commission
ఉన్నప్పుడే
కేంద్రాలను
చెప్పేవారు
ట్రినిడాడ్
పర్యవేక్షి
పొందటానికి
సరిహద్దుగా
##ఆర్ఎన్ఎస్ఎస్
ఒప్పందానికి
ప్రతిస్పంది
సంభవిస్తాయి
సముదాయాన్ని
ఆర్కిటెక్చర్
ఊపిరితిత్తుల
ప్రభావవంతంగా
0-00000-000-0
కలిగివున్నాయి
రక్షించడానికి
వివరించడానికి
వెంకటసుబ్బయ్య
నిర్వహించబడింది
పురస్కరించుకొని
##mr
##sf
##భర
##షధ
##ady
##hum
##off
##wor
##ఎంప
##శార
##హాస
##ోధ్
si
##char
##reek
##జిబి
##డేరు
##పీడన
##బృంద
##వసంత
dal
rav
కౌశ
త్య
నేష
బీద
హఠా
##ables
##usion
##డులను
##నుటకు
##పాటలు
##ఫింగ్
##ల్డర్
gate
host
kand
చట్ర
చెలి
చెల్
జీప్
తలపై
తాళం
ధాన్
బంది
మేళా
యితర
రాడ్
వృధా
వృషణ
సరకు
సింథ
##టైటిస్
##డక్షన్
##న్సిన్
##పూర్వం
##బెర్ట్
##లెన్స్
##వరంగల్
##ోద్యమం
whose
అక్షం
అగ్గి
ఉల్లా
ఏవైనా
కట్టే
కుంతి
గుహలో
చెల్ల
జరగడం
తరిమి
పాముల
##కాకుండా
##త్సాహిక
##రుగల్లు
former
months
mostly
గొట్టి
గొడ్డు
గ్రంధి
జిగురు
దళాలను
నిర్ధి
పుష్పం
పృథ్వీ
పేరులో
మంగోల్
రాసాడు
రుద్రమ
రోగికి
వాదనలు
వార్తల
వెలిబు
సిపాయి
##ఉత్పత్తి
##న్నపాలెం
##వ్యాన్ని
contrib
lakshmi
william
అవుతాడు
కనుక్కో
కొనసాగే
కౌంసిల్
తీసివేయ
పండించే
పడకుండా
పాలమూరు
యువకుడు
వాసుదేవ
వైకింగ్
సంకర్షణ
సజీవంగా
సేవకులు
##పరచడానికి
ఎంతోమంది
ఎక్కడైనా
గార్సియా
గ్రామనామ
చురుగ్గా
డేటాబేస్
దండెత్తి
న్యాయవాద
పరమాణువు
పరిమాణము
బహుమతిగా
బౌద్ధులు
విడుదలకు
సంఘాన్ని
bangalore
అమ్మాయిలు
చదువుకునే
ట్రైనింగ్
ఫోటోగ్రఫీ
రాక్షసుడు
కార్యాలయము
ప్రసాదరావు
ప్రయోగశాలలో
భట్టిప్రోలు
భావించవచ్చు
మహావిష్ణువు
సమర్ధవంతంగా
విస్తరించారు
నేపథ్యగాయకులు
0-000-00000-0.
రైల్వేస్టేషన్లు
విశ్వవిద్యాలయాల
##uj
##ఓం
##idi
##itz
##sol
##uli
##ఎడమ
##కంట
##ధామ
('
ఇథ
ఛీ
##ilis
##mang
##ught
##తాండ
##తాన్
##వర్ష
##వాగు
##సిలి
das
gop
అశు
ఆంథ
ఉన్
ధృవ
నరక
పవన
మోట
యొక
వనం
##anded
##ంగార్
##గ్రఫి
##త్పాద
##ర్తలు
##ేవరకూ
(0),
jamm
అర్ప
నింద
పొలం
మున్
రకపు
సంది
సజ్జ
సైజు
##ousand
##ంతరాలు
##ఏకీకృత
##కుంట్ల
##క్షనరీ
##గారికి
##ప్రకటన
##ర్లకోట
##వతారము
names
అడ్వె
ఆదిల్
ఈయనను
కీపర్
నటికి
నానక్
పల్లవ
ప్లస్
బస్టా
సుయోధ
సైమన్
##న్నట్లు
00.0%,
single
జ్వాలా
పొలాలు
ఫ్రెడ్
వెలుగొ
వ్యూహం
సతీమణి
సమకూరు
kolkata
అన్నిటి
అర్థాలు
ఎత్తుగా
ఒడంబడిక
క్రీడలో
క్షమాపణ
పెంచారు
పెద్దవి
మేళకర్త
వేలమంది
సానుకూల
సారాంశం
disorder
minister
కల్పించే
ధరించారు
పుట్టాడు
పూర్ణాంక
లక్షలాది
వాటిల్లో
అధ్యాయాలు
ఓడిపోయారు
జిల్లాలను
టెక్నికల్
ట్రాక్టరు
నిబంధనలను
వినిపించే
సంకేతాలను
అధ్యాపకులు
గార్డెన్స్
దేవాలయాలలో
ప్రయాణికుల
రూపొందించి
వస్త్రాలను
శతాబ్దాలలో
సంస్థానంలో
traditional
ఆరోగ్యకరమైన
గమనించవచ్చు
మచిలీపట్టణం
స్వచ్ఛందంగా
అంగీకరించాడు
ఆక్రమించింది
కేంద్రీకరించ
తత్వశాస్త్రం
బ్యాట్స్మెన్
విద్యార్ధులు
satyanarayana
సుప్రీంకోర్టు
##म्
##hab
##str
##vis
##అదే
##ఎడ్
##పంజ
##పిక
##షాయ
థో
##raud
##vers
##గోరి
##చ్ఛే
##తాళి
##రాట్
##లైఫ్
##సుంద
'',
mud
say
అమల
అసు
ఊర్
మాం
వైభ
##ander
##uring
##ండెడ్
##ంతుడు
##ఎయిర్
##చతురస
##తోన్న
##దినము
##మగును
##ారిన్
##ోత్తర
##్యూర్
data
need
palm
కిల్
గజల్
జీవం
డైలీ
తామే
దాచు
బాద్
మేడ్
వంగి
వేల్
సత్ర
##onment
##ండ్లలో
##టెస్ట్
indic
అర్చన
ఆర్చి
ఎల్లో
కథలకు
గడిపే
చేరిక
జన్మి
పదమైన
ఫాదర్
మనుషు
మెహతా
మోటర్
లేవని
విన్స
హరిహర
##ప్రదర్శ
##ఫలితంగా
##బెంగాలీ
##వడానికి
others
అకర్బన
ఒక్కడే
కోటయ్య
కోల్పో
కౌంటర్
గలవాడు
దివాలా
పన్నుల
పోలవరం
ఫలితాల
మనసులు
మిళితం
రిటైల్
వింధ్య
సోలార్
స్ట్రె
హిప్పో
##కరీంనగర్
##భిప్రాయం
bharati
product
sahitya
అంశాలకు
అద్దెకు
అరవింద్
ఉల్లంఘన
కళ్యాణి
కాపిటల్
కింగ్స్
కొమ్మలు
గాయపడిన
ఫిక్షన్
బుర్రకథ
బ్రహ్మం
వారసుడు
వాస్తవం
సంగీతము
సరుకులు
స్థిరపడ
##ంటున్నాయి
business
ఉత్తరంగా
ఉపవిభాగం
చిన్నారి
చుట్టుము
నవరాత్రి
నిలువుగా
పద్యాలను
పరిశుద్ధ
వర్కింగ్
వాస్తవ్య
వెలుతురు
సిమెన్స్
అధికారంలో
అవుతుందని
ఇంపీరియల్
టెర్మినస్
తినడానికి
తెలియజేసే
త్వరితంగా
పరమాణువుల
ప్రసారమైన
ముషార్రఫ్
రిజిస్టర్
గాయపడ్డారు
పోరాటానికి
రూపొందించే
లేనప్పటికీ
సమీపఏకీకృత
సుగ్రీవుడు
స్థానాల్లో
అభ్యసించాడు
కొన్నింటిని
క్రమక్రమంగా
శివరామకృష్ణ
చెబుతున్నారు
ఆస్ట్రేలియాకు
వ్యవస్థాపకులు
శాస్త్రవేత్తల
స్వీకరించింది
##pp
##iki
##las
##ugg
##urd
##usa
##ven
##ంజయ
##జనం
##త్క
##పౌర
ol
డ్
##html
##raft
##than
##కీర్
##కోగల
##గెన్
##జంతు
##పట్న
##పర్వ
##మేక్
##యణము
##లాయ్
##వూరి
##శృంగ
##షాన్
gan
moh
run
కరె
కేట
కౌర
బుల
లిం
వండ
##ంపిక్
##ంపేట్
##ధునిక
##వలూరు
##ీకరణం
bell
biol
care
siva
ఒంటె
కోటు
కౌరవ
జెనీ
తెలీ
పెడు
ముంజ
వివి
##anding
##ండ్లకు
##బడతాడు
##యేటివ్
##వాహిని
##సంపుటి
vivek
whole
అనార్
ఆత్మీ
ఆసిడ్
ఉతికే
చీలిక
పీఠము
మందిర
మాస్ట
విలన్
శిలాజ
సంపత్
స్క్ర
హరిజన
హల్లు
##.......
##వ్యాపార
##ించాలనే
police
అల్లిక
కొలోన్
జాతీయం
జోయెల్
త్యాగం
దుమ్ము
నువ్వే
పేరుని
ప్రోటీ
ఫోన్లు
మిగులు
సాగులో
స్వంతం
##తున్నాను
ఆభరణాలు
ఇవ్వాలి
చిత్తడి
ట్యాంక్
ధరించడం
పట్టాలు
బెనర్జీ
లోహాలను
వుండాలి
వెచ్చని
##ంచబడ్డాయి
కోబాల్ట్
నాటకకర్త
పిల్లలలో
0,00,000.
టెస్టులలో
పనితీరును
పల్లెటూరు
మార్గములు
వాదించాడు
విడిపోయిన
వ్యాధులను
ఉత్తరాఖండ్
ఉపయోగకరమైన
కథానాయికగా
గ్రంథమండలి
గ్రంథానికి
బ్రాహ్మణుల
మొదలయ్యాయి
సైద్ధాంతిక
స్టూడియోస్
##శాస్త్రాన్ని
కన్యాకుమారి
నిర్లక్ష్యం
పరిశీలించిన
ప్రచురణాలయం
రీసైక్లింగ్
లక్ష్మీపురం
సభ్యురాలిగా
సిరివెన్నెల
కృష్ణారెడ్డి
భావించబడింది
మహాత్మాగాంధీ
వ్యాపారానికి
తెలియుచున్నది
అలెగ్జాండ్రియా
మెట్రిక్యులేషన్
##bad
##dev
##mas
##కప్
##గుహ
##–00
rh
థే
##atio
##ests
##ంపైన
##కులే
##క్కే
##చరిత
##నక్ష
##బోలు
##భార్
##భుడు
##భైరవ
##మామి
##యిష్
##రోన్
##సాక్
##స్లా
తపో
పాక
మేష
వియ
##anath
##rance
##ంధ్రత
##గతిని
##నీకరణ
##మంజరి
##వియర్
##ారియా
base
decl
step
అవరో
కారక
కోదా
చేయక
నవరా
నోట్
వానర
హెరి
##క్తిని
##క్రియా
##పాఠశాల
##సాపూర్
japan
ఆరోజు
ఉష్ణం
నమ్మా
నేతలు
బర్గ్
బౌండ్
మజిలీ
యువర్
రకముల
వాకర్
వైపుల
శిలలు
##డినాండ్
##బొరేటరీ
little
ఆవశ్యక
ఇతడికి
ఎదిగిన
కొన్నే
చైల్డ్
జైలుకు
నిషేధి
పదాలతో
పొపాయ్
మౌలానా
రఘుపతి
విడదీయ
శివాలయ
సౌలభ్య
స్కాన్
స్పార్
స్విచ్
##న్స్టీన్
##బ్రాస్కా
surface
ఆచార్యు
ఆస్తిని
గంగరాజు
గర్భవతి
చిదంబరం
చేయాలనే
తుగ్లక్
పాటల్లో
రంగులలో
రాయబారి
వెళతాడు
శబ్దాలు
calcutta
criminal
junction
అసంఖ్యాక
ఉండవలసిన
కలెక్షన్
కీర్తిని
క్రోమోజో
చాలావరకూ
జలపాతాలు
డిస్ట్రా
ప్రీమియం
మోర్గాన్
రూపాయలతో
శిలీంధ్ర
శిల్పకళా
శ్రేణులు
sometimes
ఎన్సైక్లో
కాకపోయినా
కూర్చున్న
పరిమితంగా
ఫిన్లాండ్
ముగింపులో
సైనికులను
department
అంటున్నారు
అర్ధరాత్రి
కృష్ణంరాజు
ఛాంపియన్స్
టెలిగ్రాఫ్
మైక్రోవేవ్
మొదలైనవారు
సందర్శించి
హిందువులకు
ఉపయోగించాలి
ప్రయాణికులు
బుధవారంనాడు
మొదలుపెట్టి
వావిలికొలను
చెప్పుకోదగిన
విజ్ఞానాన్ని
గుర్తించేందుకు
వార్తాపత్రికలు
##సగ
##adj
##cor
##iba
##ఒడి
##గుట
##పరం
##మద్
##లకం
##శని
##like
##olic
##uits
##ఓవర్
##తేరు
##పొడి
##పోషణ
##లిష్
##ళంగా
##వినో
##వోల్
##సంగ్
abc
bod
ఆపు
జగ్
తాగ
నశి
ఫరూ
బూర
రఫీ
హన్
##iscus
##ising
##ంటాము
##జన్సీ
##జపాన్
##దీపిక
##ద్దుల
##పతులు
##రాలని
##ారాయన
page
pict
ఆఖరు
ఒకటో
గలది
జింద
టీమ్
టోనీ
డిక్
తోటల
తోనూ
నారద
పామ్
పాశు
పెళ్
పైథా
మీదే
మ్యు
లెఫ్
లేమి
విపు
సేతు
##ewhere
##ఇండీస్
##క్ట్స్
##న్నెసో
##మినార్
##వాడిగా
##ానింగ్
above
saint
theat
అత్రి
అరుణ్
ఆలయాల
ఇమిడి
ఈక్వి
ఉన్నవ
కళ్లు
కేసరి
జమ్మి
పర్వం
మధురై
మొసలి
షష్టి
సాకర్
##ంగానికి
##ారంగంలో
(00-00
observ
అనూహ్య
ఎంజైమ్
ఒక్కటి
కిలోలు
గొడుగు
గ్రీస్
చేయండి
జీన్స్
తీర్థం
నిరూపణ
పాత్రధ
ప్రవచన
బ్రాహ్
మీర్జా
మెచ్చి
వనరుగా
సమానము
స్పాట్
స్వస్థ
అంతరాయం
అపారమైన
అవకాశాల
ఉంచింది
కరుగును
కొట్టిన
క్రమేణా
జన్యువు
నిరాకరణ
మహారాజ్
యుద్ధాల
రంగులను
రసాన్ని
రాజ్యాల
వివరంగా
శ్రీధర్
సంగ్రహం
సంపర్కం
##రామమూర్తి
religion
అమర్చబడి
ఔత్సాహిక
కొలువుదీ
దుర్మార్
నాటకరంగం
పెద్దదైన
భూభాగాలు
మధ్యాహ్న
లోక్సభకు
విధించిన
విరమించు
శ్రీనగర్
సూర్యుడి
స్కూల్లో
cambridge
అంటుంటారు
అనుభవాలను
దర్యాప్తు
నదీతీరంలో
ప్రాబల్యం
లభ్యమయ్యే
విచ్ఛిన్న
విజ్ఞప్తి
00,000,000
అభ్యర్థికి
జగ్గయ్యపేట
పరమాణువులు
మార్కాపురం
అంగీకరించిన
ప్రమాణాన్ని
సన్నిహితంగా
సామ్రాజ్యము
ఎంచుకున్నారు
గురువారంనాడు
పరిస్థితులకు
భారతదేశంలోనే
తీసుకోవడానికి
ప్రతిబింబించే
ముఖ్యమంత్రులు
స్థాపించబడ్డాయి
##నట
##sat
##she
##ంభో
##గ్మ
##తీర
##రశ్
##విన
##సత్
##్రై
ఛి
హయ
##appa
##అప్ప
##కలనం
##కేన్
##ఘాతం
##చెన్
##నన్న
##పక్క
##బాస్
##బోధి
##లీప్
icc
odi
ఆధు
ఒరవ
కెం
పూర
మీర
రంప
రజా
రాల
హమ్
##ఈనాడు
##పంతుల
##ఫిలిం
##రేఖలు
srin
sult
ఆసరా
కలయి
గోళా
నక్క
పేలు
బాలన
మాకి
వాలె
విజి
విషం
##bruary
##కోడూరు
##క్లాస్
##జెన్స్
##త్వంతో
##దూరంలో
##బాట్లు
##భాగంతో
##రాములు
##స్వరూప
birds
films
frequ
ocean
value
ఎండిన
కీళ్ళ
నవీన్
పంపడం
బరోడా
మల్టి
మళ్లి
రోజర్
వడపోత
వల్లే
వ్యభి
హత్యా
##igation
##ospital
##కర్నూలు
##పత్రాలు
##ప్రకృతి
##ర్పల్లి
reserv
అవమాని
ఉన్నంత
క్రూజ్
తిప్పు
నిత్యా
పులులు
భాషలకు
మహాయాన
రేటును
వహించే
వానిని
విసిరి
సోనియా
##నిర్ధారణ
##య్యపాలెం
##శ్యాన్ని
chandra
private
అల్ట్రా
ఎన్బిసి
కుక్కలు
నున్నది
ప్రజలతో
ప్లాంటు
మెత్తని
రష్యాలో
రెండుగా
లైటింగ్
సోమయాజి
##కంప్యూటర్
తీసుకొనే
పరుగులను
రైల్వేలో
##రంగారెడ్డి
##సుబ్బారావు
australia
ఇజ్రాయెల్
ఉత్సవాలకు
ఉపరితలంపై
కాకినాడలో
కాస్పియన్
చంపడానికి
చెల్లించే
తగ్గుతాయి
తరలించారు
నెపోలియన్
పొందినారు
మేనేజింగ్
సైన్యాలను
స్థావరంగా
కొత్తగూడెం
కొద్దిమంది
జొన్నలగడ్డ
నైపుణ్యాలు
మార్గాల్లో
వెంకటాపురం
సూర్యకాంతి
అతినీలలోహిత
కవిత్వాన్ని
నిలుస్తుంది
విడుదలయింది
సందర్శించిన
సంస్థానాధీశ
introduction
క్షీణించింది
పార్లమెంటులో
ప్రయత్నించిన
0-00-000000-0
##,.
##oni
##ంబై
##అయో
##కంక
##ఛ్ఛ
##భము
##హమ్
cu
##ateg
##imal
##know
##రూపా
##ల్యం
##వకాశ
##ష్మా
dut
mhz
swe
utt
అకి
ఏరు
తంగ
విహ
శామ
##antha
##ators
##ంగిల్
##గడ్డి
##తనాలు
##తాన్స
##భిరామ
##మాటలు
##యినది
##రాజన్
chak
క్రయ
జెన్
టాల్
టైర్
తోడి
దోషం
ఫాస్
బ్రీ
భయాన
మియా
శుభా
##కార్డ్
##కోవడమే
##జిస్ట్
##తిమ్మా
##పూర్లో
##పేర్లు
##లందుకు
##వయస్సు
##వాలుగా
##వుల్ఫ్
##సోర్స్
##స్టైల్
##స్సును
##ార్జున
##ెంట్స్
envir
అంజలి
అయ్యా
ఖన్నా
డప్పు
భవనము
మదీనా
మాదిగ
రాంక్
సుద్ద
##త్మ్యము
##యన్మార్
buddha
detail
recogn
అవధాని
ఇంగ్లం
తెనుగు
పానీయం
ప్రాచీ
ఫెరారీ
బెలిజె
మధ్యనే
మన్నిక
మిర్చి
ముగిసి
రోజులో
లోకంలో
విఠోబా
వెతుకు
సమూహము
సాధనాల
airport
kingdom
primary
అదృష్టం
చుక్కలు
దైనందిన
నిరుపేద
పోతున్న
మానవాళి
మూలాలను
రక్తహీన
సిక్కిం
సుదర్శన
000.0000
అభిమానుల
అమావాస్య
కనకదుర్గ
కులానికి
చక్రపాణి
తీర్మాని
పరిశీలకు
పోరాటాలు
ప్రతినాయ
ప్రతిఫలి
ప్రపంచపు
ప్రశస్తి
బార్కోడ్
బార్సిలో
రూపాల్లో
వలసరాజ్య
వాయిద్యం
విమానంలో
సంపుటాలు
intention
అదేసమయంలో
అలంకరించి
కలుపుకొని
కాశీయాత్ర
జీవితాలను
పెద్దవిగా
మాన్హాటన్
యాదృచ్ఛిక
లక్షణాలతో
శత్రువులు
సమశీతోష్ణ
సమాజంలోని
సమాధానాలు
అంగీకరించి
ఉపసంహరించు
కింగ్డమ్లో
పాకిస్తానీ
పెరుగుదలను
ప్రవర్తనను
మారుతీరావు
మార్గదర్శక
రామబ్రహ్మం
వస్త్రధారణ
వ్యవహరించే
ఆకర్షణీయంగా
ఎంపికయ్యారు
క్షత్రియులు
ప్రతిపాదనను
ఫెర్డినాండ్
తీసుకోబడింది
పనిచేయడానికి
నివారించడానికి
బృందంగ్రామానికి
##km
##bas
##ece
##rad
##tam
##గుడ
##డలి
(,
ru
##fort
##ogen
##ways
##గీతా
##గోడు
##గ్యా
##ఘాటి
##దత్త
##పరచే
##మూడవ
##రాజీ
##సుగా
bat
els
hor
అఖా
ఆగమ
ఎకో
గదా
గల్
పోయ
యథా
##araja
##త్తాప
##దత్తు
##ధానము
##పాలనా
##సారము
hous
veer
ఔషధం
కలువ
కీలు
తీగల
పోటి
బోట్
లెజి
వికస
విజృ
వెని
సంకర
సదిశ
సాదా
సోర్
##ండ్రిక
##డైనాడు
##తెచ్చు
##థెన్స్
##మ్మును
##యంలోని
##య్యాలో
##రించుట
##వలెనని
drink
royal
sastr
అమీర్
కణుపు
కవితల
చిలుక
జానకీ
తెరపై
పంచమి
పరిణమ
పెంపు
మాటను
లభించ
వ్యోమ
##డాక్టర్
00.000
garden
method
rights
కథకుడు
కావేరి
కొల్లం
చిత్రా
చూపారు
ట్వంటీ
తాంబరం
ద్వాదశ
నిమగ్న
ప్రతాప
లీగ్లో
వాక్యూ
వైపుగా
సుత్తి
హాయిగా
african
numbers
stories
అమెజాన్
అసిమోవ్
ఎడమవైపు
ఎడారిలో
గీతాలను
చర్చిలు
చిన్నవి
చేపట్టే
దేశాలను
నరసింహం
పాటించే
పుల్లెల
భాగవతము
రంగులతో
వికిరణం
విక్టర్
విభాగము
సముద్రా
సాధించే
స్కాండి
military
ఆశ్రమంలో
కొంతభాగం
ఖ్యాతిని
గ్రెనేడ్
డిపార్టు
ఫోర్బ్స్
బంకమట్టి
బహిష్కరణ
వున్నాయి
సప్తగిరి
##formations
community
అవార్డుకు
కనిపించని
ఛాయాగ్రాహ
డొమినికన్
తొలగించిన
ప్రాంతమైన
విన్సెంట్
సన్నివేశం
(0000-0000
ఆదేశించాడు
జిల్లాల్లో
దేవస్థానము
ఆంధ్రదేశంలో
చరిత్రకారుల
ప్రాతిపదికన
రూపొందించడం
వెంకటరెడ్డి
సంజీవరెడ్డి
స్టిర్లింగ్
(0000–0000),
అకస్మాత్తుగా
ఇంటెలిజెన్స్
తీర్చిదిద్ది
బ్యాడ్మింటన్
ప్రధానమంత్రిగా
ప్రయత్నించింది
##భే
##cro
##gov
##mit
##osh
##ందవ
##కథల
##మతీ
##ూచి
ఖర
##fall
##with
##టీవీ
##తాలూ
##ద్రే
##యిజం
##ర్నో
##వాట్
##వివే
##వ్రత
few
అసూ
తృణ
న్య
##icket
##ifera
##క్షరి
##భార్య
##సర్లు
##సేవలు
came
glob
hund
sath
అరకు
ఎగుమ
కలరా
కలలో
కలాం
కులా
క్యో
ఫైవ్
మకాం
మిథి
మెయి
వెయి
సామీ
##కిల్స్
##గానిక్
##నీయులు
##పర్వతం
##మయినది
##ళికోడ్
exist
super
అభిషే
ఉద్దీ
ఉపనది
గడ్డం
నింపి
పంటను
పదబంధ
పదహార
బొప్ప
భూపతి
మిన్న
లవకుశ
వాంగ్
సంకోచ
##ంతకల్లు
##పల్లిలో
##ఫ్రెంచ్
##బడిందని
*0000,
change
temper
అప్పర్
ఒక్కరు
కార్యం
కెనాల్
చేకూరు
తొడుగు
నాటికే
పంటలకు
పేదలకు
పోతాయి
మధుమేహ
యాక్ట్
లిథియం
శాకుంత
సంసారం
స్పీడ్
అదుపులో
ఆనందంగా
ఆవిధంగా
ఐప్యాడ్
కష్టపడి
క్వాంటం
జొన్నలు
తగ్గించ
పర్డ్యూ
పార్టన్
వాల్టర్
విచక్షణ
విఫలమైన
శిక్షను
సంస్కార
##రాష్ట్రము
chemical
produced
ఆధ్యాత్మ
కంపెనీని
తయారయ్యే
తొలగించే
నిటారుగా
నిలబెట్ట
బ్రోమైడ్
స్టీవెన్
##విశాఖపట్నం
కుటుంబంతో
కృష్ణవేణి
కొనసాగారు
చలపతిరావు
చూసేందుకు
జంతువులకు
నెలకొల్పి
పత్రాన్ని
పత్రికలకు
బాష్పీభవన
భారతీయుడు
ముఖద్వారం
విషయానికి
శబ్దాన్ని
శ్రీకాంత్
##అల్యూమినియం
అధికారులను
ఎక్స్ఛేంజ్
కార్టూన్లు
క్షేత్రయ్య
##శాస్త్రవేత్త
కేంద్రపాలిత
పనిచేసేవారు
పరిశీలిస్తే
వర్షాకాలంలో
constituency
అందించేందుకు
తగ్గిపోయింది
మహారాష్ట్రలో
వెంకట్రామయ్య
సహకరిస్తుంది
సృష్టిస్తుంది
ప్రవేశించడానికి
##ify
##usk
##ళము
##సలా
##సాహ
##హతి
‘’
##iber
##inus
##umer
##కాయి
##టెస్
##మాజీ
##వైస్
##ారుణ
జామ
జీత
పత్
భీక
లేప
##ంటెన్
##జిషన్
##టరుకు
##తరంగి
##రుగని
##సత్యం
##ూపంలో
fifa
news
ucla
your
కాసా
కుంచ
క్రె
ఖననం
చదివ
జగదీ
తాడి
దహనం
నికి
బతుక
విసర
సవ్య
స్ఫు
##ట్లోనే
##తిరుమల
##నాధుడు
##బంగారు
##మార్చ్
##మ్యాపు
##సాహితి
##సుందర్
##స్టెన్
##స్తుడు
sugar
అరుబా
ఉడిపి
కలగలి
కాపలా
కుసుమ
కోటకు
జింక్
తిక్క
థెరపీ
పదజాల
పేజీల
మాసము
విరాట
సంగమం
##కూరపాడు
##టికల్స్
##ధిపతిగా
కణజాలం
కల్నల్
తరహాలో
ప్యాక్
మలబార్
మిత్రు
మిసిమి
వచ్చాక
వాయిదా
వార్న్
వేషాలు
##క్వెన్సీ
##చున్నాడు
##బ్యాట్స్
comment
schools
అనుమానం
కార్లను
ఖండాంతర
జరగలేదు
డాక్టరు
నడిపారు
నమ్మకము
న్యాయని
పెండ్లి
ఫ్రెండ్
భాగాలకు
మృదువైన
సూత్రము
##కోవచ్చును
believed
pressure
signific
ఆటగాళ్లు
ఉన్నాడని
ఏకకాలంలో
ఓరుగల్లు
కరీబియన్
గురువుగా
చేరుకొని
డ్యాన్స్
దేశ్ముఖ్
నిర్దేశి
ప్రతిరూప
విక్రయాల
విజయాలను
విధ్వంసం
సైనికుడు
స్టేషన్ల
##న్యూయార్క్
కొనసాగుతూ
క్లినికల్
గ్రంథకర్త
పొడిగింపు
మార్గాలలో
రాజుపాలెం
విఫలమైంది
throughout
కృషిచేశారు
ప్రక్రియకు
మహాత్మ్యము
రంగనాయకమ్మ
విధించింది
వెల్లుల్లి
వ్యవస్థలలో
అవసరమవుతాయి
టెక్నాలజీస్
ప్రసిద్ధుడు
కనిపిస్తున్న
పరిపాలించారు
ఎదుర్కొంటున్న
వహిస్తున్నారు
రాజేంద్రప్రసాద్
##";
##?)
##ఠ్
##oda
##osc
##sub
##tee
##yas
##జనా
##డరు
##మడి
##రమా
##arai
##soft
##ulam
##అనేక
##అల్ల
##ఆమ్ల
##జర్ల
##తలకు
##న్మయ
##భిలా
##మెల్
##యానం
##వెబ్
##సంఘం
##ెల్ల
bra
cer
gur
jew
lot
ubs
అరవ
ఎటు
ఒకో
కచ్
ఫలం
వైఖ
శీల
స్ధ
##0000,
##anasi
##arpus
##inent
##itect
##nagar
##otton
##ంలోను
##కరిణి
##నృత్య
##మనేరు
##ములని
##యోదశి
issu
ragh
skin
అంటో
ఎమర్
కళ్ల
కోడె
కౌర్
చాము
ఛందో
జారు
డియా
దండు
ప్లూ
బాపూ
బీరు
మధిర
వలయం
విరగ
వేయు
సుర్
సైబీ
##nataka
##ources
##ఆర్థిక
##క్టివ్
##గ్రహీత
##పవిత్ర
##పోలేదు
##మేటిక్
##ించిరి
influ
ఆధారి
గాంధి
గుల్ల
చాకలి
చేరడం
టెలిక
నిర్థ
ఫిషర్
ఫీచర్
మీదనే
వలసిన
సంస్ధ
##anation
##కళ్యాణం
0000.0
అంకెలు
కార్నె
కోలార్
గ్రాస్
జీవనాధ
నీటికి
పలుచని
పారాయణ
భూదేవి
మాన్యం
మైలవరం
లింగము
లిపిలో
వికాస్
విల్లు
స్టైల్
##భగవద్గీత
##ించుకుని
towards
ఆస్ట్రో
కష్టమైన
తొలితరం
దత్తాంశ
దేవదాసు
పరిహారం
పిక్చర్
వియత్నా
శరణార్ధ
సంపత్తి
సిరియన్
హాస్టల్
##/00/0000:
##ప్రసాదాలు
##యూరోపియన్
original
thousand
ఆర్టికల్
గుండ్రని
ఢిల్లీకి
నాగార్జు
నిష్క్రమ
పిలుపుని
పొంగళ్ళు
యుగానికి
యోగ్యమైన
రాష్ట్రమ
రోడ్డులో
##చిత్తూరులో
కొలెస్ట్ర
చింతలపూడి
చిన్నపాటి
చిన్నవిగా
తరంగదైర్ఘ
పరీక్షలను
ఫీల్డింగ్
బ్రాహ్మణం
శ్రీవేంకట
స్థిరత్వం
కళారూపాలను
కొన్నాళ్ళు
గర్భస్రావం
పూర్తిచేసి
ప్రతిపాదిత
ప్రాంతాలతో
ఫ్లోరెన్స్
బ్రహ్మానంద
వివాహానికి
సంగారెడ్డి
సమకూర్చారు
స్వయంప్రతి
అంతర్యుద్ధం
ఇస్తున్నారు
కమ్యూనిష్టు
చేసుకోవాలని
ప్రదర్శనలను
ఇన్స్పెక్టర్
గ్రామపంచాయతి
ప్రాధాన్యతను
మొట్టమొదటిగా
ప్రచురితమైంది
యూనివర్సిటీలో
##నృ
##లౌ
##---
##ims
##oke
##wer
##्री
##ఇస్
##చదు
##జనన
##తాయ
##ధనం
##భీమ
##వసు
##ారూ
##ెజ్
##ోదయ
gm
లత
శవ
##ague
##ball
##hani
##igar
##గ్రూ
##ణ్యా
##మోట్
##లాకి
##లూర్
##వేరీ
mys
nob
ఉడక
ఉషా
జనక
నీర
లపై
##arian
##maize
##గతంలో
##జువల్
##దిశలో
##నాళిక
##నిర్ణ
##పనేని
##ప్సన్
##భాస్క
##మానము
##యుడైన
##రల్స్
##వాక్య
##వాట్ల
##సహస్ర
astr
gunt
అకాల
ఇన్వ
గోకు
గ్లై
చెమట
డిమా
తీరా
నౌకల
పంచి
పాను
పైప్
మర్మ
మోపి
వంశా
షెర్
సమతల
సుడి
సెన్
సేవక
హోమం
##ప్రవేశ
##లియార్
##ామాత్య
beaut
అసభ్య
ఋషులు
దానము
మనువు
వింగ్
సీక్ర
సేద్య
స్రావ
హస్తి
##ability
##మ్మింగ్
##సమీపఇతర
animal
orient
అరవింద
కలవారు
కల్గిన
కారకాల
కొడాలి
కోర్కె
గరుత్మ
చూశారు
త్వరణం
దీన్నే
దేశాయ్
నాగులు
పీల్చు
పెడితే
ప్రేమా
బాక్టీ
మిషనరీ
మురారి
సమకాలి
హజ్రత్
##గుప్తుడు
##గురువులు
##జిస్తాన్
కాగితపు
చేయాలను
జకార్తా
తప్పులు
నగరములో
నిశ్చయి
నీలగిరి
పరిపాటి
పూసపాటి
మారుమూల
యంత్రము
వెంకన్న
శిరోమణి
సత్కారం
##ించబడలేదు
$000,000
lorikeet
అంశాల్లో
కొరియాలో
క్రీడలకు
చింతపండు
నాణ్యతను
బ్లాకులు
భగవానుడు
వర్గాలకు
సంఘటనలను
##చుకున్నాడు
##బడుచున్నది
(000-000)
chemistry
counterfe
something
క్షిపణులు
తీసుకెళ్ళ
ప్రయత్నాల
మాధ్యమంలో
మానసికంగా
ముస్లిముల
యంత్రాలను
##బ్రహ్మానందం
ఉపయోగకరంగా
ఓడిపోయింది
చరిత్రలోనే
ప్రకాశరావు
ప్రయోగించే
లక్షణాన్ని
ఒకదానికొకటి
వస్తున్నాయి
సమీపపబ్లిక్
సోమవారంనాడు
కృష్ణదేవరాయలు
రాజకీయనాయకులు
విశ్వసిస్తారు
వెల్లడించింది
తాడేపల్లిగూడెం
ఉద్దేశించబడింది
##nr
##aaa
##asp
##div
##rum
##ంపో
##ఆటో
##ఎడి
##గణా
##హనా
##ికల
*(
hd
గయ
##lebr
##గుణం
##గ్యు
##దానా
##ప్పే
##ఫ్యా
##బడదు
##మాటి
##యప్ప
##శయ్య
cha
imm
kav
pin
sad
అగ్
అచట
అటూ
కోహ
నగ్
సతత
##anned
##ంచేది
##గ్గర్
##దరాజు
##ద్వీప
##నొకరు
##పాళెం
##లోకము
##శాసనం
##స్తాయ
baba
cost
fund
happ
tele
tour
అవ్య
ఓరియ
కనబర
గోరా
గోరి
చిటి
చొరవ
తాపీ
పడటం
భామా
మిను
మూన్
మేటి
మౌస్
మ్రో
రావణ
రావ్
స్రా
##arters
##ential
##కొవ్వు
##దాపూర్
##దుర్గా
##పురస్క
##ల్స్లో
##వేశాడు
falls
అమృతం
అరుంధ
ఇస్తే
ఎంతటి
ఒకచోట
కనబడే
కుంటు
తీయడం
లభ్యత
లూథర్
విల్ల
##ference
##ividual
##ంశాన్ని
##కాలములో
##బడవచ్చు
##రాపల్లి
##రామరాజు
higher
kerala
కరెంట్
క్షితి
గంధర్వ
గ్రంథి
చేయును
జనావాస
జెర్సీ
దాడిని
దివంగత
పదమూడు
పాడాడు
ఫిరాయి
ఫ్లైట్
బర్మన్
రంగును
విసుగు
వేస్తే
సంపాది
సింగర్
##జిస్ట్రే
0000000
అణిచివే
ఇరువురు
ఉచ్చారణ
ఒరిస్సా
కార్బను
కాల్చిన
కీటకాలు
కోలాచలం
గోబింద్
తరానికి
పట్టణాల
పడ్డాయి
పిరమిడ్
పోలికలు
ప్రైమరీ
ఫాల్గుణ
ఫ్యూచర్
భాగములో
లేకుంటే
వార్నర్
విక్రమా
వినూత్న
వేధింపు
వ్యాజ్య
స్వాగతం
##ంపబడ్డారు
##చక్రవర్తి
##తున్నాయని
##పదార్థాలు
##ప్రాంతాలు
medicine
physical
అచ్చంపేట
కరేబియన్
చెక్కబడి
తప్పించి
పర్యవసాన
పశువులను
ఫైనాన్స్
రాజకీయాల
లెక్కించ
వెళ్లాడు
శత్రువుల
షెన్జెన్
సూర్యరశ్
స్ట్రాస్
హెరిటేజ్
##-000000-00
ఉంచబడింది
గిద్దలూరు
తిరుపతిలో
భూస్వామ్య
రేఖాంశంలో
శాస్త్రాల
సమూహానికి
తెరంగేట్రం
దెబ్బతిన్న
పత్రికలోని
పొందేందుకు
ప్రారంభించ
బ్రాడ్మాన్
లావాదేవీలు
ఇందిరాగాంధీ
ఉత్పత్తులకు
ఎమ్మెల్యేగా
పర్యాటకులకు
ప్రజ్ఞాశాలి
ప్రయత్నాలను
సన్నివేశాలు
చేరుకున్నాయి
పరీక్షించారు
శాస్త్రానికి
వేంకటశాస్త్రి
##anu
##but
##chi
##ymn
##అజ్
##చుల
##టగా
##షిత
ia
ps
##-0.0
##alis
##icul
##ఇంటి
##టాస్
##తుడి
##నిష్
##నుబే
##నేర్
##పుని
##ప్పీ
##భర్త
##మీరు
##మేరా
##యున్
##వాతం
##విడు
##సినా
##స్త్
fat
jih
kak
kon
let
sep
జగి
మఱి
మూస
షియ
హమీ
##ament
##inese
##water
##ంకేతి
##ఖమ్మం
##గుండె
##గూసన్
##తాడని
##ధర్మం
##నేషన్
##లర్స్
##లాంగ్
##లియస్
##ామృతం
##్రాయి
toge
అపరా
ఈయనే
కామ్
కెరొ
చిట్
జాంబ
దేహం
నెలా
పరచి
పేగు
మంజు
మండే
లచ్చ
శామ్
సమతా
##కునేలా
##చ్ఛన్న
##న్నాము
##పరిణామ
##యాన్నే
##వికంగా
##సెర్చి
fraud
ఇంతటి
కప్లో
కాథలి
తల్లా
పెత్త
బలోపే
బాంక్
మీనన్
మోషన్
వైరల్
##ంగుళూర్
##పల్లెలో
##పాధ్యాయ
##ప్రకారం
divine
econom
plants
prakas
ramach
sexual
అడ్వర్
అనుసరణ
ఒక్కరూ
కలహంధి
కృషిని
చెప్తూ
నెలలలో
నౌకాదళ
పక్షాన
పదములు
పిచ్చు
ప్లాన్
బోరాన్
రిమార్
రేణుకా
వితంతు
వెంపటి
సిద్ది
స్మాల్
##జాతీయులు
##పురుషుడు
##యున్నారు
##స్మార్ట్
believe
hundred
mission
అగ్రహార
అతిక్రమ
అమ్మమ్మ
క్రిష్ణ
గ్యాంగ్
ట్రాంస్
తెల్లటి
నలుమూలల
పరాక్రమ
ఫతేపూర్
మాసాలలో
లింకులు
శిష్యుల
సమూహంలో
సేవకుడు
##రోజులపాటు
alphabet
february
venkates
అంతస్తుల
ఆలస్యంగా
డౌన్టౌన్
ద్వారాలు
నాదెండ్ల
పుట్టారు
పోతులూరి
బయలుదేరు
రంధ్రాలు
వృత్తిగా
గోపాలపురం
జ్ఞాపకాలు
నియంత్రిత
పాత్రధారి
పెంచుతారు
పేర్కొంటూ
బిందువులు
మండలమునకు
మొత్తంమీద
సోమయాజులు
historical
అత్యాధునిక
అన్నప్రసాద
చిత్రలేఖనం
డార్జిలింగ్
భక్తిశ్రద్ధ
భాగస్వాములు
శ్రీమద్రామా
చేసినప్పటికీ
నిజాముద్దీన్
నిర్మాణాత్మక
సమీపమాధ్యమిక
ఆర్థికవ్యవస్థ
నిర్ణయిస్తారు
నిర్వహించబడిన
న్యాయమూర్తిగా
ప్రత్యామ్నాయం
వినియోగదారుని
వ్యవహరించింది
తీర్చుకున్నారు
నియోజకవర్గానికి
వ్యాఖ్యానించారు
##./
##ny
##}}
##iac
##nan
##ses
##uge
##ఒకే
##కోత
##గమి
##నాద
##పతీ
##లనో
##హీం
##హ్వ
##ాపన
##most
##onia
##orea
##rice
##trib
##ంశము
##కొలత
##క్లు
##చిలు
##ఛార్
##ట్యు
##యాగం
##లైస్
##సర్ల
##సలర్
##సేస్
##ోదయం
abn
dry
lun
muk
అదీ
అబు
ఉంద
పెన
బంజ
భట్
భవం
భ్ర
మూడ
హదీ
##ంచెను
##చందర్
##పదంగా
##పన్ను
##మరాఠీ
##మెట్ల
capt
face
fast
miss
ఎర్న
జాతక
జాలి
ధరకు
నవమి
పండే
పిడి
బైజా
మెటీ
మేలో
రూమ్
లంబా
సామ్
సారథ
హాలి
##క్కిరి
##క్షుడు
##గ్రీన్
##పుట్టి
##భూములు
##యుతమైన
##లక్ష్య
##ల్తాన్
##వృత్తా
##ష్టవశా
##స్తావే
nagar
separ
ఆయనతో
ఎదిగి
కాలని
తరంగి
తింటే
నమ్మక
పత్రి
పదాతి
పాదము
పొంగి
పోవటం
రెక్క
వేతనం
సేవలన
హొగన్
##భవించిన
##లియన్లు
##ల్లింది
growth
ఇంద్రా
గ్రహాల
గ్లెన్
జూన్లో
డ్యూక్
నర్తకి
పదాలకు
భూస్వా
మహ్మద్
మోడరన్
రోబోట్
వైల్డ్
స్టాప్
హార్స్
##ంజనేయులు
##క్లోరిక్
flowers
physics
గింజలను
తయారిలో
లక్షలతో
హోటల్స్
##లేకపోయాడు
collapse
together
ఆల్కహాలు
ఉంచుకొని
గ్రంథంగా
చదివింది
చేరుకునే
ప్యుగోట్
మద్దతుతో
రాజగోపాల
విల్లియం
వేంకటరమణ
వ్యవహారం
సమస్యలపై
architect
elsewhere
అందజేశారు
అశ్వత్థామ
ఆస్థానంలో
తాడిపత్రి
లుఫ్తాన్స
వాడుకలోకి
వాహనాన్ని
సర్వస్వము
సూర్యాస్త
స్త్రీలను
publishers
ఆకాశవాణిలో
ఇంజనీరింగు
ఉద్యోగులను
ఉపాధ్యాయుల
కొద్దికాలం
చంద్రమోహన్
జాతీయాన్ని
వయస్సులోనే
వేదపండితుల
స్ఫూర్తితో
స్లోవేనియా
ఆర్కిమెడిస్
చెల్లింపులు
జరుగుతుందని
పుట్టినరోజు
ప్రదర్శనలలో
ఎన్నుకుంటారు
కొలెస్ట్రాల్
గుర్తించతగిన
రాజ్యలక్ష్మి
వినియోగాన్ని
వృత్తిరీత్యా
malformations
అనుసరిస్తుంది
ఎన్నుకున్నారు
తీసుకువచ్చారు
శ్రీమన్నారాయణ
గ్రామాలున్నాయి
ప్రవేశిస్తుంది
ప్రోత్సహించారు
##:''
##aco
##had
##roy
##దత్
##నదీ
##పద్
##యువ
##రమ్
##ళువ
nm
rs
వ్
##adur
##aras
##odes
##గులా
##గెల్
##జ్జె
##తాంగ
##పాక్
##పేర్
##భుజి
##మయము
##యిజ్
##లిలో
##వాక్
##వైట్
##షెడ్
##సాచు
##హెర్
##హేతు
##ాపరి
big
kat
vem
wat
ఐటీ
ఒపే
చాణ
జహీ
జాప
తిక
యాచ
షణ్
సవి
##riage
##umala
##గండ్ల
##గట్టి
##పసుపు
##భొట్ల
##మాధవ్
##రాళ్ళ
##వర్ట్
##వాంగ్
##సౌకర్
##హిందు
sold
took
ఆర్మ
గేదె
చేయూ
డాట్
నోచు
పరుగ
పాట్
పాషా
పూల్
పైపు
ముఠా
రిచ్
వరదా
సుల్
##ఉన్నది
##కుడికి
##తుందనే
##తోందని
##త్తూర్
##న్నెస్
##రంగులో
##వాటికి
event
jihad
mahal
అవతలి
ఆడారు
ఆదేశం
ఆలివ్
ఈరోజు
ఉప్పల
కొలది
కోకిల
గొడ్డ
చర్చల
పాల్వ
బద్రీ
బయటకి
బ్రతక
మంటపం
మట్టు
మనవడు
వర్ణా
వైపరీ
##చినపుడు
##నల్గొండ
accept
season
unesco
అలరారు
అస్త్ర
ఆయన్ను
ఎరువుల
కన్యకా
చూడుము
జుడాస్
తానుగా
ద్వారక
పాములు
పేజీలో
ప్రవాస
వశిష్ఠ
వీరులు
వేదికల
##పరిచింది
##మంగళగిరి
##రాజేంద్ర
article
foreign
himself
nations
worship
ఆర్వెల్
ఉత్పాదన
ఎకరాలలో
డిజైనర్
పండ్లను
ఫ్రాంకో
యక్షగాన
లభించడం
విరిగిన
వుండేవి
సమస్యకు
##wikitable
##ించబడినవి
hospital
ఆడుతున్న
ఎకనామిక్
కనిపించి
కేరళలోని
కోళికోడ్
క్రాఫ్ట్
చెప్తాడు
నార్నియా
ప్రాణాంత
ప్లాటినం
బలహీనంగా
విభేదాలు
వేడుకలను
శ్రేణిని
సంభావ్యత
స్వీడిష్
developed
అధ్యక్షతన
నడిబొడ్డు
ఫెర్గూసన్
బృందాన్ని
మొదలయింది
హఠాత్తుగా
punishable
అత్యధికులు
అర్జెంటీనా
అసాధారణంగా
చెన్నైలోని
తయారవుతాయి
నడుపుతుంది
ప్రభుత్వాల
వీరాస్వామి
అనుభవించారు
ఎంపికయ్యాడు
త్రవ్వకాలలో
పురస్కారంతో
ప్రత్యేకతను
ప్రాతినిధ్య
మారుస్తుంది
తగ్గించవచ్చు
పెద్దసంఖ్యలో
పేరుగాంచింది
భారతదేశాన్ని
విద్యార్థిగా
వినియోగానికి
గోపాలకృష్ణయ్య
కాలిఫోర్నియాలో
శ్రీమద్భాగవతము
నియంత్రిస్తుంది
##क्
##మక
##bro
##clo
##ఐదు
##కాట
##సహజ
##సెల
##ీప్
ft
xx
##ఎందు
##కంటె
##కాక్
##క్లీ
##గేట్
##చక్క
##చట్ట
##ట్టై
##దయము
##పాదు
##భంగం
##మేర్
##యెర్
##వేషణ
##శయము
##శాలు
(0,
alb
fed
tim
www
ఎథీ
భామ
##endar
##టన్ను
##నారస్
##నేటర్
##మర్స్
##సమస్య
0/00
cord
govt
holy
poll
అపాయ
కాకర
గౌతం
ఛాన్
జుమా
టుడే
నేతా
పాపా
పేస్
ఫ్రం
మామి
వీడి
వూల్
##కోవలసి
##చ్ఛారణ
##జర్మనీ
##జర్మన్
##పడతారు
##పరచారు
##యుతంగా
##లింగాల
##లెట్స్
##సురుని
##ారణ్యం
క్రమే
గాజుల
చిరున
జరపడం
థర్మో
దుర్భ
నుండు
పిండం
భాగమే
మాంటి
మొండి
రివాల
సంబోధ
##ఉంటుంది
##మూర్తుల
00.0%.
జాతిని
జాన్స్
పంటలను
పట్టడం
పుత్రు
పెంచిన
ప్రయాగ
రన్నర్
శ్రుతి
##national
##అక్టోబర్
##భాగాలుగా
vedanta
అబ్బూరి
అభినందన
ఆకాంక్ష
ఊహించిన
కర్తవ్య
క్షుణ్ణ
గొర్రెల
గోవింద్
చదువులు
పోరాడిన
ప్రప్రథ
బ్యానర్
వేదికపై
సమన్వయం
సాధికార
##గొండపాలెం
##విద్యార్థ
##వేయడానికి
evidence
varanasi
ఆకర్షణలు
జాతీయాలు
తోటపల్లి
నొప్పిని
పద్ధతికి
పుప్పొడి
మందిరాలు
సుబ్బరాయ
sociology
structure
అమ్మాయిని
ఆంగ్లేయుల
ఇంజనీర్లు
ప్రవేశించ
లక్ష్మయ్య
వృత్తాకార
స్థాయిలను
స్పెన్సర్
అనుభవాన్ని
జీవితంలోని
పుస్తకాలలో
పొందుతున్న
ప్రయత్నించ
మెక్సికోలో
రిమార్కులు
కోయంబత్తూరు
పెట్టడానికి
భావిస్తున్న
మార్కెట్లలో
వెళ్ళటానికి
దుర్వినియోగం
పనిచేయుచున్న
బ్రాహ్మణులకు
వెల్లడించారు
సూచించేందుకు
చదువుకున్నాడు
ప్రాంతాలనుండి
రాజకీయనాయకుడు
కిర్గిజిస్తాన్
##ān
##ald
##గమం
##జ్ఝ
##మీల
##రలు
##వంట
##ోద్
kg
mb
##ache
##cast
##అడవి
##ఆనంద
##జారి
##డోవా
##తూరు
##ద్రవ
##నేస్
##పూలు
##బేట్
##బైన్
##బోవు
##భావన
##ముఖీ
##లారు
##లీట్
##ళహస్
##ళితే
##సాను
::*
cut
feb
kod
opt
sus
అరగ
ఏడే
కథన
కాద
గంప
చను
ఛాల
తమల
నైన
మశూ
సతి
సమ్
##iding
##murti
##ంపుగా
##ఇస్రో
##కణాలు
##గ్లస్
##దనంది
##పుష్ప
##ప్రజల
##బర్న్
000°
copy
dish
wife
కాదా
పాంచ
ఫోరం
బాషా
రైన్
శబరి
షాన్
సత్వ
సెలె
##eshwar
##itting
##కృతులు
##గులూరు
##టుకూరి
##సిక్స్
##ాలలోకి
0.0%,
occup
గోపుర
దీపాల
నిండా
పౌండ్
మురళి
యాంగ్
రావణా
లాంఛన
లేఖలు
విద్వ
విమోచ
సెకను
స్ఫటి
##గుజరాత్
palace
statue
territ
vishnu
అగస్సీ
కలపాలి
కొలిమి
క్యాచ్
చుక్కల
ట్రైన్
డైరెక్
దృష్టా
ప్రేగు
భీమన్న
మంత్రో
లేనిది
లోహాలు
వృద్ది
శాసనాల
సన్మాన
##ంపబడినది
##ఉష్ణోగ్ర
##చార్యుని
##ద్దనపూడి
average
started
ఆహారాలు
కనుక్కు
గాయనిగా
జహంగీర్
ప్రయోగి
బాంబులు
వంతెనను
వర్ణనలు
ఎందుకనగా
కలెక్టరు
కొట్టాయం
చూపించిన
డార్విన్
నిరక్షరా
పైభాగంలో
ప్రతిఘటన
మొక్కలకు
యక్షగానం
రత్నగిరి
రోనాల్డో
సంగ్రహము
సినిమాటో
స్థానభ్ర
అక్కడక్కడ
ఎంచుకున్న
ఎదుర్కొని
కలుపుతారు
దక్షిణంలో
పనిముట్లు
పర్యటించి
ప్రభుత్వా
ముళ్ళపూడి
వాస్తవమైన
వినాయకుని
శ్రీలంకలో
సమృద్ధిగా
సైంటిఫిక్
అస్పష్టంగా
ఆసుపత్రులు
దోహదపడింది
పశ్చాత్తాప
vivekananda
##international
ఆధారపడుతుంది
కిలోమీటర్లకు
ప్రకాశవంతమైన
విమర్శనాత్మక
నిలిచిపోయింది
రాజమహేంద్రవరం
##mo
##isa
##uta
##win
##ఎపి
##చలన
##డరీ
##బది
##బరా
##యుజ
##వివ
యశ
##ault
##గ్నా
##దారణ
##దూరు
##నాగ్
##పైన్
##లోక్
##సమాన
##హారా
dns
flu
tan
ఆని
ఆరె
పనస
పిల
బహా
మేధ
##iflor
##చిలర్
##ప్పిన
##వారని
##ృతులు
date
kham
mich
rank
rate
కిష్
గంగి
చెంగ
ధరను
నత్త
పెసర
బాదం
బ్లో
వినే
శ్వే
హాక్
##కెన్స్
##టుకూరు
##దుర్గం
##పాక్ట్
##మైనాయి
##లకత్తా
##వేరియం
##వేష్టి
##సంగీతం
##ేశ్వరా
అంచెల
అహమ్మ
ఇలాగే
గ్రహణ
నేరాల
పరపతి
ప్రసూ
భయంతో
భవాని
భైరవి
మాధవి
మువ్వ
రేఖకు
స్కంద
హాంకా
##isation
##ంగాపూర్
##డ్డింగ్
##ప్లాంట్
##లచెరువు
achiev
caused
source
అసమర్థ
ఆరాధ్య
ఉన్నతా
కుట్టు
కెవిన్
క్రీక్
చక్రము
చర్మము
చెల్లు
తరలించ
తారీఖు
థర్మల్
నచ్చిన
నదులలో
ప్రజాన
బలగాలు
మహాబలి
రమ్మని
రుణాలు
లక్ష్మ
విదర్భ
సెవెన్
స్వీట్
##పాఖ్యానం
##మార్గంలో
అరికట్ట
కష్టంగా
గందరగోళ
తరుచుగా
పరిసరాల
ప్రభుత్
ప్రశంసా
ప్రేమతో
బానిసలు
మన్ననలు
లేనందున
##ధ్యాత్మిక
##నున్నట్లు
##రాజమండ్రి
000-000.
european
narayana
ఎగుమతులు
గర్భధారణ
చైనాలోని
నెవార్క్
పరమేశ్వర
బాగ్దాద్
బెంజమిన్
రథోత్సవం
వెబ్సైటు
వైద్యంలో
సమస్యలతో
సమాచారము
##భిప్రాయాలు
అనుభూతిని
ఆంధ్రభూమి
ఆకర్షించే
చర్మాన్ని
తీసుకోవటం
పాల్గొనడం
ప్రకటనలను
లక్షణములు
వహిస్తారు
వికెట్లను
వెళుతున్న
వ్యాధిగ్ర
సందర్భాలు
సుల్తానుల
individual
ఎదుర్కొంది
త్రిపురాంత
దొరుకుతాయి
న్యాయనిర్ణ
[...]
